{
  "version": "1.0",
  "truncation": null,
  "padding": null,
  "added_tokens": [
    {
      "id": 0,
      "content": "[UNK]",
      "single_word": false,
      "lstrip": false,
      "rstrip": false,
      "normalized": false,
      "special": true
    },
    {
      "id": 1,
      "content": "[PAD]",
      "single_word": false,
      "lstrip": false,
      "rstrip": false,
      "normalized": false,
      "special": true
    },
    {
      "id": 2,
      "content": "[CLS]",
      "single_word": false,
      "lstrip": false,
      "rstrip": false,
      "normalized": false,
      "special": true
    },
    {
      "id": 3,
      "content": "[SEP]",
      "single_word": false,
      "lstrip": false,
      "rstrip": false,
      "normalized": false,
      "special": true
    },
    {
      "id": 4,
      "content": "[MASK]",
      "single_word": false,
      "lstrip": false,
      "rstrip": false,
      "normalized": false,
      "special": true
    }
  ],
  "normalizer": {
    "type": "NFC"
  },
  "pre_tokenizer": {
    "type": "Whitespace"
  },
  "post_processor": null,
  "decoder": null,
  "model": {
    "type": "BPE",
    "dropout": null,
    "unk_token": "[UNK]",
    "continuing_subword_prefix": null,
    "end_of_word_suffix": null,
    "fuse_unk": false,
    "byte_fallback": false,
    "ignore_merges": false,
    "vocab": {
      "[UNK]": 0,
      "[PAD]": 1,
      "[CLS]": 2,
      "[SEP]": 3,
      "[MASK]": 4,
      "\u0017": 5,
      "!": 6,
      "\"": 7,
      "#": 8,
      "$": 9,
      "%": 10,
      "&": 11,
      "'": 12,
      "(": 13,
      ")": 14,
      "*": 15,
      "+": 16,
      ",": 17,
      "-": 18,
      ".": 19,
      "/": 20,
      "0": 21,
      "1": 22,
      "2": 23,
      "3": 24,
      "4": 25,
      "5": 26,
      "6": 27,
      "7": 28,
      "8": 29,
      "9": 30,
      ":": 31,
      ";": 32,
      "<": 33,
      "=": 34,
      ">": 35,
      "?": 36,
      "@": 37,
      "A": 38,
      "B": 39,
      "C": 40,
      "D": 41,
      "E": 42,
      "F": 43,
      "G": 44,
      "H": 45,
      "I": 46,
      "J": 47,
      "K": 48,
      "L": 49,
      "M": 50,
      "N": 51,
      "O": 52,
      "P": 53,
      "Q": 54,
      "R": 55,
      "S": 56,
      "T": 57,
      "U": 58,
      "V": 59,
      "W": 60,
      "X": 61,
      "Y": 62,
      "Z": 63,
      "[": 64,
      "\\": 65,
      "]": 66,
      "^": 67,
      "_": 68,
      "`": 69,
      "a": 70,
      "b": 71,
      "c": 72,
      "d": 73,
      "e": 74,
      "f": 75,
      "g": 76,
      "h": 77,
      "i": 78,
      "j": 79,
      "k": 80,
      "l": 81,
      "m": 82,
      "n": 83,
      "o": 84,
      "p": 85,
      "q": 86,
      "r": 87,
      "s": 88,
      "t": 89,
      "u": 90,
      "v": 91,
      "w": 92,
      "x": 93,
      "y": 94,
      "z": 95,
      "{": 96,
      "|": 97,
      "}": 98,
      "~": 99,
      "": 100,
      "": 101,
      "": 102,
      "": 103,
      "": 104,
      "": 105,
      "": 106,
      "£": 107,
      "¤": 108,
      "¥": 109,
      "§": 110,
      "¨": 111,
      "©": 112,
      "ª": 113,
      "«": 114,
      "¬": 115,
      "­": 116,
      "®": 117,
      "°": 118,
      "±": 119,
      "²": 120,
      "¶": 121,
      "·": 122,
      "¸": 123,
      "º": 124,
      "»": 125,
      "¼": 126,
      "½": 127,
      "¾": 128,
      "À": 129,
      "Â": 130,
      "Ã": 131,
      "Ê": 132,
      "Ï": 133,
      "Ñ": 134,
      "Ó": 135,
      "Ö": 136,
      "×": 137,
      "Ø": 138,
      "Ü": 139,
      "Þ": 140,
      "à": 141,
      "á": 142,
      "ä": 143,
      "å": 144,
      "ç": 145,
      "é": 146,
      "ì": 147,
      "í": 148,
      "ï": 149,
      "ð": 150,
      "ñ": 151,
      "ó": 152,
      "ô": 153,
      "ö": 154,
      "ø": 155,
      "ü": 156,
      "þ": 157,
      "ā": 158,
      "ă": 159,
      "đ": 160,
      "ē": 161,
      "ī": 162,
      "İ": 163,
      "ı": 164,
      "ŋ": 165,
      "ō": 166,
      "ş": 167,
      "ū": 168,
      "Ÿ": 169,
      "ǀ": 170,
      "ɗ": 171,
      "ʻ": 172,
      "ʼ": 173,
      "˜": 174,
      "́": 175,
      "Η": 176,
      "ά": 177,
      "έ": 178,
      "α": 179,
      "γ": 180,
      "ε": 181,
      "ι": 182,
      "κ": 183,
      "λ": 184,
      "μ": 185,
      "ο": 186,
      "π": 187,
      "ρ": 188,
      "τ": 189,
      "ω": 190,
      "В": 191,
      "К": 192,
      "а": 193,
      "б": 194,
      "в": 195,
      "и": 196,
      "к": 197,
      "л": 198,
      "м": 199,
      "о": 200,
      "п": 201,
      "р": 202,
      "с": 203,
      "т": 204,
      "у": 205,
      "ч": 206,
      "я": 207,
      "א": 208,
      "ו": 209,
      "י": 210,
      "ל": 211,
      "ן": 212,
      "ר": 213,
      "ש": 214,
      "ا": 215,
      "ب": 216,
      "ة": 217,
      "ت": 218,
      "ج": 219,
      "ح": 220,
      "د": 221,
      "ر": 222,
      "ز": 223,
      "س": 224,
      "ش": 225,
      "ط": 226,
      "ع": 227,
      "ف": 228,
      "ق": 229,
      "ل": 230,
      "م": 231,
      "ن": 232,
      "ه": 233,
      "و": 234,
      "ي": 235,
      "پ": 236,
      "ڈ": 237,
      "ک": 238,
      "ڬ": 239,
      "گ": 240,
      "ھ": 241,
      "ی": 242,
      "۔": 243,
      "ࢠ": 244,
      "ँ": 245,
      "ं": 246,
      "ः": 247,
      "अ": 248,
      "आ": 249,
      "इ": 250,
      "ई": 251,
      "उ": 252,
      "ऊ": 253,
      "ऋ": 254,
      "ऌ": 255,
      "ऍ": 256,
      "ऎ": 257,
      "ए": 258,
      "ऐ": 259,
      "ऑ": 260,
      "ओ": 261,
      "औ": 262,
      "क": 263,
      "ख": 264,
      "ग": 265,
      "घ": 266,
      "ङ": 267,
      "च": 268,
      "छ": 269,
      "ज": 270,
      "झ": 271,
      "ञ": 272,
      "ट": 273,
      "ठ": 274,
      "ड": 275,
      "ढ": 276,
      "ण": 277,
      "त": 278,
      "थ": 279,
      "द": 280,
      "ध": 281,
      "न": 282,
      "ऩ": 283,
      "प": 284,
      "फ": 285,
      "ब": 286,
      "भ": 287,
      "म": 288,
      "य": 289,
      "र": 290,
      "ऱ": 291,
      "ल": 292,
      "ळ": 293,
      "ऴ": 294,
      "व": 295,
      "श": 296,
      "ष": 297,
      "स": 298,
      "ह": 299,
      "़": 300,
      "ऽ": 301,
      "ा": 302,
      "ि": 303,
      "ी": 304,
      "ु": 305,
      "ू": 306,
      "ृ": 307,
      "ॄ": 308,
      "ॅ": 309,
      "ॆ": 310,
      "े": 311,
      "ै": 312,
      "ॉ": 313,
      "ॊ": 314,
      "ो": 315,
      "ौ": 316,
      "्": 317,
      "ॎ": 318,
      "ॐ": 319,
      "॑": 320,
      "॒": 321,
      "ॠ": 322,
      "ॢ": 323,
      "।": 324,
      "॥": 325,
      "०": 326,
      "१": 327,
      "२": 328,
      "३": 329,
      "४": 330,
      "५": 331,
      "६": 332,
      "७": 333,
      "८": 334,
      "९": 335,
      "॰": 336,
      "ॽ": 337,
      "ং": 338,
      "আ": 339,
      "ই": 340,
      "এ": 341,
      "ও": 342,
      "ক": 343,
      "গ": 344,
      "ড": 345,
      "ত": 346,
      "ন": 347,
      "প": 348,
      "ফ": 349,
      "ব": 350,
      "ভ": 351,
      "ম": 352,
      "য": 353,
      "র": 354,
      "ল": 355,
      "শ": 356,
      "ষ": 357,
      "স": 358,
      "়": 359,
      "া": 360,
      "ি": 361,
      "ী": 362,
      "ে": 363,
      "্": 364,
      "ਓ": 365,
      "ਕ": 366,
      "ਖ": 367,
      "ਡ": 368,
      "ਥ": 369,
      "ਦ": 370,
      "ਪ": 371,
      "ਰ": 372,
      "ਵ": 373,
      "ਸ": 374,
      "ਾ": 375,
      "ੀ": 376,
      "ੁ": 377,
      "ੇ": 378,
      "ੈ": 379,
      "ઓ": 380,
      "ક": 381,
      "ગ": 382,
      "છ": 383,
      "જ": 384,
      "ઝ": 385,
      "ટ": 386,
      "ડ": 387,
      "ત": 388,
      "થ": 389,
      "દ": 390,
      "ન": 391,
      "પ": 392,
      "ફ": 393,
      "બ": 394,
      "ભ": 395,
      "મ": 396,
      "ય": 397,
      "ર": 398,
      "વ": 399,
      "સ": 400,
      "હ": 401,
      "ા": 402,
      "િ": 403,
      "ી": 404,
      "ુ": 405,
      "ૂ": 406,
      "ે": 407,
      "ૈ": 408,
      "ો": 409,
      "્": 410,
      "அ": 411,
      "ஆ": 412,
      "இ": 413,
      "க": 414,
      "ங": 415,
      "ச": 416,
      "ட": 417,
      "ண": 418,
      "த": 419,
      "ந": 420,
      "ன": 421,
      "ப": 422,
      "ம": 423,
      "ய": 424,
      "ர": 425,
      "ற": 426,
      "ல": 427,
      "ள": 428,
      "ழ": 429,
      "வ": 430,
      "ஷ": 431,
      "ஸ": 432,
      "ா": 433,
      "ி": 434,
      "ீ": 435,
      "ு": 436,
      "ெ": 437,
      "ை": 438,
      "ோ": 439,
      "்": 440,
      "ం": 441,
      "ఇ": 442,
      "ఎ": 443,
      "క": 444,
      "గ": 445,
      "డ": 446,
      "త": 447,
      "ద": 448,
      "న": 449,
      "ఫ": 450,
      "బ": 451,
      "య": 452,
      "ల": 453,
      "వ": 454,
      "స": 455,
      "హ": 456,
      "ి": 457,
      "ీ": 458,
      "ు": 459,
      "ె": 460,
      "ో": 461,
      "్": 462,
      "ಂ": 463,
      "ಕ": 464,
      "ಗ": 465,
      "ಡ": 466,
      "ತ": 467,
      "ನ": 468,
      "ಯ": 469,
      "ಲ": 470,
      "ಳ": 471,
      "ವ": 472,
      "ಸ": 473,
      "ಿ": 474,
      "ೀ": 475,
      "ು": 476,
      "ೆ": 477,
      "ೈ": 478,
      "ೊ": 479,
      "್": 480,
      "ം": 481,
      "ക": 482,
      "ഡ": 483,
      "മ": 484,
      "യ": 485,
      "ല": 486,
      "ള": 487,
      "വ": 488,
      "സ": 489,
      "ാ": 490,
      "ി": 491,
      "ീ": 492,
      "െ": 493,
      "ോ": 494,
      "്": 495,
      "ṇ": 496,
      "ṛ": 497,
      "ề": 498,
      "ồ": 499,
      "ἡ": 500,
      "ἧ": 501,
      "​": 502,
      "‌": 503,
      "‍": 504,
      "‎": 505,
      "‏": 506,
      "‑": 507,
      "–": 508,
      "—": 509,
      "―": 510,
      "‘": 511,
      "’": 512,
      "‚": 513,
      "“": 514,
      "”": 515,
      "„": 516,
      "‡": 517,
      "•": 518,
      "…": 519,
      "‬": 520,
      "′": 521,
      "″": 522,
      "›": 523,
      "₂": 524,
      "₃": 525,
      "₄": 526,
      "₫": 527,
      "€": 528,
      "₹": 529,
      "⃣": 530,
      "℞": 531,
      "™": 532,
      "←": 533,
      "↑": 534,
      "→": 535,
      "↗": 536,
      "⇒": 537,
      "−": 538,
      "√": 539,
      "▪": 540,
      "►": 541,
      "◌": 542,
      "●": 543,
      "★": 544,
      "☝": 545,
      "☞": 546,
      "♉": 547,
      "♦": 548,
      "♯": 549,
      "✅": 550,
      "✍": 551,
      "✔": 552,
      "✦": 553,
      "❌": 554,
      "❣": 555,
      "❤": 556,
      "➡": 557,
      "➤": 558,
      "➽": 559,
      "⦁": 560,
      "⭐": 561,
      "【": 562,
      "】": 563,
      "と": 564,
      "ま": 565,
      "め": 566,
      "产": 567,
      "今": 568,
      "信": 569,
      "分": 570,
      "動": 571,
      "化": 572,
      "吧": 573,
      "命": 574,
      "大": 575,
      "岡": 576,
      "播": 577,
      "文": 578,
      "无": 579,
      "春": 580,
      "晚": 581,
      "正": 582,
      "毫": 583,
      "無": 584,
      "物": 585,
      "犬": 586,
      "猫": 587,
      "球": 588,
      "產": 589,
      "画": 590,
      "直": 591,
      "石": 592,
      "福": 593,
      "節": 594,
      "篮": 595,
      "級": 596,
      "级": 597,
      "节": 598,
      "角": 599,
      "銅": 600,
      "錢": 601,
      "钱": 602,
      "铜": 603,
      "阶": 604,
      "階": 605,
      "革": 606,
      "곡": 607,
      "관": 608,
      "물": 609,
      "박": 610,
      "사": 611,
      "선": 612,
      "전": 613,
      "": 614,
      "ﬁ": 615,
      "️": 616,
      "﻿": 617,
      "！": 618,
      "？": 619,
      "Ａ": 620,
      "Ｂ": 621,
      "Ｃ": 622,
      "Ｅ": 623,
      "Ｈ": 624,
      "Ｉ": 625,
      "Ｋ": 626,
      "Ｌ": 627,
      "Ｍ": 628,
      "Ｎ": 629,
      "Ｏ": 630,
      "Ｒ": 631,
      "Ｓ": 632,
      "Ｔ": 633,
      "Ｕ": 634,
      "ﾠ": 635,
      "ﾥ": 636,
      "�": 637,
      "🌜": 638,
      "🌟": 639,
      "🌷": 640,
      "🌸": 641,
      "🎷": 642,
      "🎺": 643,
      "🏏": 644,
      "🏻": 645,
      "🏼": 646,
      "👀": 647,
      "👇": 648,
      "👉": 649,
      "👍": 650,
      "👏": 651,
      "👑": 652,
      "👦": 653,
      "👧": 654,
      "👩": 655,
      "👬": 656,
      "👯": 657,
      "👲": 658,
      "👵": 659,
      "👸": 660,
      "💄": 661,
      "💋": 662,
      "💐": 663,
      "💓": 664,
      "💔": 665,
      "💪": 666,
      "📲": 667,
      "🔊": 668,
      "🔴": 669,
      "🔵": 670,
      "🕉": 671,
      "😀": 672,
      "😂": 673,
      "😊": 674,
      "😍": 675,
      "😏": 676,
      "😘": 677,
      "😙": 678,
      "😢": 679,
      "😧": 680,
      "😱": 681,
      "😶": 682,
      "🙂": 683,
      "🙄": 684,
      "🙋": 685,
      "🙌": 686,
      "🙏": 687,
      "🚍": 688,
      "🚖": 689,
      "🚲": 690,
      "🤎": 691,
      "🤔": 692,
      "🤗": 693,
      "के": 694,
      "ार": 695,
      "ें": 696,
      "ने": 697,
      "्र": 698,
      "है": 699,
      "या": 700,
      "में": 701,
      "की": 702,
      "ों": 703,
      "का": 704,
      "से": 705,
      "कर": 706,
      "को": 707,
      "कि": 708,
      "स्": 709,
      "ना": 710,
      "र्": 711,
      "ता": 712,
      "ला": 713,
      "क्": 714,
      "पर": 715,
      "वा": 716,
      "ही": 717,
      "ले": 718,
      "रा": 719,
      "लि": 720,
      "हा": 721,
      "जा": 722,
      "प्र": 723,
      "सा": 724,
      "मा": 725,
      "्य": 726,
      "और": 727,
      "वि": 728,
      "इस": 729,
      "कार": 730,
      "नि": 731,
      "हो": 732,
      "भी": 733,
      "दि": 734,
      "बा": 735,
      "ड़": 736,
      "दे": 737,
      "हैं": 738,
      "गा": 739,
      "ते": 740,
      "नी": 741,
      "ति": 742,
      "सी": 743,
      "पा": 744,
      "ली": 745,
      "हु": 746,
      "ती": 747,
      "त्र": 748,
      "मि": 749,
      "न्": 750,
      "था": 751,
      "सं": 752,
      "क्ष": 753,
      "री": 754,
      "जि": 755,
      "लिए": 756,
      "ंग": 757,
      "हीं": 758,
      "एक": 759,
      "सि": 760,
      "ल्": 761,
      "रह": 762,
      "दी": 763,
      "त्": 764,
      "पु": 765,
      "वार": 766,
      "मु": 767,
      "दा": 768,
      "टी": 769,
      "ोग": 770,
      "नहीं": 771,
      "भा": 772,
      "यों": 773,
      "किया": 774,
      "रि": 775,
      "हि": 776,
      "रो": 777,
      "शा": 778,
      "अप": 779,
      "चा": 780,
      "गया": 781,
      "जी": 782,
      "सम": 783,
      "धि": 784,
      "सर": 785,
      "कु": 786,
      "देश": 787,
      "पी": 788,
      "सु": 789,
      "मी": 790,
      "पू": 791,
      "द्": 792,
      "कहा": 793,
      "ंड": 794,
      "बाद": 795,
      "स्ट": 796,
      "ंद": 797,
      "मार": 798,
      "रू": 799,
      "तो": 800,
      "करने": 801,
      "साथ": 802,
      "शि": 803,
      "बी": 804,
      "वे": 805,
      "मे": 806,
      "नों": 807,
      "रे": 808,
      "खा": 809,
      "न्ह": 810,
      "क्र": 811,
      "ये": 812,
      "ित": 813,
      "गी": 814,
      "उन": 815,
      "यह": 816,
      "राज": 817,
      "वी": 818,
      "्या": 819,
      "धा": 820,
      "लोग": 821,
      "ट्र": 822,
      "ंच": 823,
      "तक": 824,
      "रहे": 825,
      "उन्ह": 826,
      "ढ़": 827,
      "ारी": 828,
      "मं": 829,
      "दो": 830,
      "पह": 831,
      "बि": 832,
      "रु": 833,
      "ष्": 834,
      "दिया": 835,
      "फि": 836,
      "श्": 837,
      "डि": 838,
      "उस": 839,
      "थी": 840,
      "गई": 841,
      "गे": 842,
      "जो": 843,
      "अन": 844,
      "शन": 845,
      "तर": 846,
      "आप": 847,
      "जन": 848,
      "रहा": 849,
      "प्": 850,
      "20": 851,
      "ार्": 852,
      "बता": 853,
      "इन": 854,
      "टर": 855,
      "हर": 856,
      "हुए": 857,
      "बार": 858,
      "शु": 859,
      "मान": 860,
      "बे": 861,
      "ओं": 862,
      "सक": 863,
      "रही": 864,
      "यो": 865,
      "टे": 866,
      "चु": 867,
      "भार": 868,
      "वर्": 869,
      "ग्र": 870,
      "अधि": 871,
      "अपने": 872,
      "पुलि": 873,
      "पि": 874,
      "त्री": 875,
      "पुलिस": 876,
      "मो": 877,
      "ोंने": 878,
      "मिल": 879,
      "च्": 880,
      "जे": 881,
      "टा": 882,
      "टि": 883,
      "बर": 884,
      "सरकार": 885,
      "मै": 886,
      "लगा": 887,
      "स्थ": 888,
      "मौ": 889,
      "थे": 890,
      "किन": 891,
      "गर": 892,
      "दू": 893,
      "जाए": 894,
      "म्": 895,
      "उन्होंने": 896,
      "लोगों": 897,
      "एस": 898,
      "बना": 899,
      "स्था": 900,
      "यर": 901,
      "जब": 902,
      "परि": 903,
      "सिं": 904,
      "जिस": 905,
      "खि": 906,
      "हां": 907,
      "ड़ा": 908,
      "लेकिन": 909,
      "गु": 910,
      "डी": 911,
      "बै": 912,
      "ियों": 913,
      "वह": 914,
      "पुर": 915,
      "होने": 916,
      "ड़ी": 917,
      "यु": 918,
      "सू": 919,
      "गए": 920,
      "दु": 921,
      "चार": 922,
      "चि": 923,
      "आई": 924,
      "मंत्री": 925,
      "इसके": 926,
      "हम": 927,
      "सिंह": 928,
      "लो": 929,
      "कारी": 930,
      "क्षा": 931,
      "पहले": 932,
      "निर्": 933,
      "अब": 934,
      "लों": 935,
      "दर्": 936,
      "सो": 937,
      "माम": 938,
      "बं": 939,
      "कार्य": 940,
      "डा": 941,
      "पे": 942,
      "लग": 943,
      "वाले": 944,
      "प्रति": 945,
      "बताया": 946,
      "कों": 947,
      "कर्": 948,
      "पो": 949,
      "्रे": 950,
      "दौ": 951,
      "मुख": 952,
      "ध्य": 953,
      "योग": 954,
      "कुछ": 955,
      "पूर्": 956,
      "सब": 957,
      "व्य": 958,
      "जान": 959,
      "स्त": 960,
      "फी": 961,
      "बात": 962,
      "अनु": 963,
      "एम": 964,
      "अं": 965,
      "लेकर": 966,
      "छा": 967,
      "लिया": 968,
      "उप": 969,
      "पहु": 970,
      "र्ट": 971,
      "द्र": 972,
      "करते": 973,
      "बढ़": 974,
      "श्र": 975,
      "धान": 976,
      "ब्": 977,
      "यू": 978,
      "दिन": 979,
      "वं": 980,
      "भारत": 981,
      "ज़": 982,
      "्यू": 983,
      "कै": 984,
      "कई": 985,
      "ड़े": 986,
      "फा": 987,
      "हुई": 988,
      "काम": 989,
      "िया": 990,
      "रान": 991,
      "जु": 992,
      "क्त": 993,
      "ची": 994,
      "कम": 995,
      "कोई": 996,
      "बु": 997,
      "उत्": 998,
      "..": 999,
      "खे": 1000,
      "क्षे": 1001,
      "वारा": 1002,
      "भाग": 1003,
      "अपनी": 1004,
      "जू": 1005,
      "वर": 1006,
      "ंप": 1007,
      "गां": 1008,
      "चल": 1009,
      "हुआ": 1010,
      "सभी": 1011,
      "शी": 1012,
      "रुप": 1013,
      "साल": 1014,
      "इं": 1015,
      "जार": 1016,
      "समय": 1017,
      "फ्": 1018,
      "ंक": 1019,
      "00": 1020,
      "करा": 1021,
      "चे": 1022,
      "गि": 1023,
      "किसी": 1024,
      "धी": 1025,
      "शे": 1026,
      "रूप": 1027,
      "एं": 1028,
      "प्रदेश": 1029,
      "तार": 1030,
      "बो": 1031,
      "ंद्र": 1032,
      "धार": 1033,
      "ट्": 1034,
      "मह": 1035,
      "तरह": 1036,
      "क्षेत्र": 1037,
      "द्वारा": 1038,
      "लय": 1039,
      "गो": 1040,
      "खु": 1041,
      "प्रा": 1042,
      "वन": 1043,
      "दौरान": 1044,
      "घर": 1045,
      "देख": 1046,
      "उनके": 1047,
      "पास": 1048,
      "राज्य": 1049,
      "खिला": 1050,
      "ल्ली": 1051,
      "पार्": 1052,
      "पहुंच": 1053,
      "कॉ": 1054,
      "करें": 1055,
      "ज्": 1056,
      "ीय": 1057,
      "उन्हें": 1058,
      "दिल्ली": 1059,
      "वै": 1060,
      "महि": 1061,
      "स्ता": 1062,
      "रख": 1063,
      "ष्ट्र": 1064,
      "नाम": 1065,
      "सद": 1066,
      "आरो": 1067,
      "आर": 1068,
      "राम": 1069,
      "निक": 1070,
      "शुरू": 1071,
      "भि": 1072,
      "कुमार": 1073,
      "सार": 1074,
      "आज": 1075,
      "होगा": 1076,
      "19": 1077,
      "कह": 1078,
      "पता": 1079,
      "जै": 1080,
      "ग्रा": 1081,
      "नाव": 1082,
      "णा": 1083,
      "महिला": 1084,
      "मुख्य": 1085,
      "डे": 1086,
      "जाने": 1087,
      "स्क": 1088,
      "कोरो": 1089,
      "पै": 1090,
      "क्रम": 1091,
      "मन": 1092,
      "कोरोना": 1093,
      "मामले": 1094,
      "फिल्": 1095,
      "टीम": 1096,
      "साम": 1097,
      "फो": 1098,
      "मत": 1099,
      "मार्": 1100,
      "दार": 1101,
      "वो": 1102,
      "ौर": 1103,
      "ूल": 1104,
      "वाली": 1105,
      "एवं": 1106,
      "सन": 1107,
      "जाता": 1108,
      "िक": 1109,
      "तीय": 1110,
      "जर": 1111,
      "वर्ष": 1112,
      "ोड़": 1113,
      "करना": 1114,
      "करी": 1115,
      "बन": 1116,
      "ठा": 1117,
      "हार": 1118,
      "पं": 1119,
      "ंग्रे": 1120,
      "बीच": 1121,
      "तु": 1122,
      "यत": 1123,
      "धन": 1124,
      "तै": 1125,
      "फै": 1126,
      "क्स": 1127,
      "बच्": 1128,
      "क्ति": 1129,
      "कारण": 1130,
      "चौ": 1131,
      "त्रा": 1132,
      "गांव": 1133,
      "सकता": 1134,
      "पाल": 1135,
      "फिल्म": 1136,
      "ध्यक्ष": 1137,
      "यहां": 1138,
      "तीन": 1139,
      "कान": 1140,
      "फिर": 1141,
      "चुनाव": 1142,
      "जय": 1143,
      "टना": 1144,
      "वाई": 1145,
      "राष्ट्र": 1146,
      "वहीं": 1147,
      "महा": 1148,
      "हत": 1149,
      "दोनों": 1150,
      "बहु": 1151,
      "अधिक": 1152,
      "10": 1153,
      "केंद्र": 1154,
      "जिला": 1155,
      "सकते": 1156,
      "कांग्रे": 1157,
      "शो": 1158,
      "जारी": 1159,
      "दान": 1160,
      "हे": 1161,
      "डॉ": 1162,
      "नगर": 1163,
      "कंप": 1164,
      "मैं": 1165,
      "स्वा": 1166,
      "अन्य": 1167,
      "जग": 1168,
      "योज": 1169,
      "जानकारी": 1170,
      "सबसे": 1171,
      "स्व": 1172,
      "कांग्रेस": 1173,
      "पर्": 1174,
      "हित": 1175,
      "ंस": 1176,
      "जाएगा": 1177,
      "एन": 1178,
      "ऐसे": 1179,
      "विभाग": 1180,
      "कृ": 1181,
      "र्थ": 1182,
      "्यादा": 1183,
      "्रा": 1184,
      "जांच": 1185,
      "क्टर": 1186,
      "समा": 1187,
      "पूर्व": 1188,
      "निया": 1189,
      "कल": 1190,
      "सभा": 1191,
      "किसा": 1192,
      "हन": 1193,
      "यन": 1194,
      "खिलाफ": 1195,
      "किए": 1196,
      "लाख": 1197,
      "उसके": 1198,
      "भू": 1199,
      "नेता": 1200,
      "सर्": 1201,
      "दर": 1202,
      "चाहि": 1203,
      "ज्ञ": 1204,
      "नई": 1205,
      "बैठ": 1206,
      "उनकी": 1207,
      "पोर्ट": 1208,
      "होता": 1209,
      "बद": 1210,
      "ज्यादा": 1211,
      "बहुत": 1212,
      "ंत": 1213,
      "भर": 1214,
      "शामिल": 1215,
      "रुपये": 1216,
      "लू": 1217,
      "पार्टी": 1218,
      "भारतीय": 1219,
      "चाहिए": 1220,
      "मांग": 1221,
      "घा": 1222,
      "त्व": 1223,
      "योजना": 1224,
      "देने": 1225,
      "गं": 1226,
      "हू": 1227,
      "नो": 1228,
      "ओर": 1229,
      "वाल": 1230,
      "हाल": 1231,
      "विधा": 1232,
      "भाव": 1233,
      "इससे": 1234,
      "तैय": 1235,
      "श्री": 1236,
      "सुर": 1237,
      "टो": 1238,
      "ंकि": 1239,
      "काफी": 1240,
      "लॉ": 1241,
      "पिछ": 1242,
      "अव": 1243,
      "चना": 1244,
      "पद": 1245,
      "त्य": 1246,
      "त्या": 1247,
      "घटना": 1248,
      "उसे": 1249,
      "विश्": 1250,
      "जपा": 1251,
      "रात": 1252,
      "रिया": 1253,
      "हों": 1254,
      "यक": 1255,
      "सै": 1256,
      "वाद": 1257,
      "भाजपा": 1258,
      "द्ध": 1259,
      "्ड": 1260,
      "निय": 1261,
      "मौत": 1262,
      "लै": 1263,
      "अस्": 1264,
      "201": 1265,
      "दर्ज": 1266,
      "ंगे": 1267,
      "आपको": 1268,
      "पति": 1269,
      "ारा": 1270,
      "गत": 1271,
      "र्स": 1272,
      "तथा": 1273,
      "आए": 1274,
      "करोड़": 1275,
      "करण": 1276,
      "अगर": 1277,
      "भे": 1278,
      "यी": 1279,
      "ेंगे": 1280,
      "हाला": 1281,
      "र्ड": 1282,
      "केट": 1283,
      "जिले": 1284,
      "बह": 1285,
      "सामने": 1286,
      "न्न": 1287,
      "लं": 1288,
      "गिर": 1289,
      "अध्यक्ष": 1290,
      "आने": 1291,
      "अपना": 1292,
      "फे": 1293,
      "क्या": 1294,
      "होगी": 1295,
      "यल": 1296,
      "हजार": 1297,
      "न्यू": 1298,
      "इसी": 1299,
      "फर": 1300,
      "परी": 1301,
      "आरोप": 1302,
      "स्थित": 1303,
      "प्त": 1304,
      "मोदी": 1305,
      "इला": 1306,
      "वज": 1307,
      "र्म": 1308,
      "ग्": 1309,
      "क्षण": 1310,
      "क्यों": 1311,
      "प्रे": 1312,
      "प्रधान": 1313,
      "मद": 1314,
      "ेंद्र": 1315,
      "सल": 1316,
      "द्य": 1317,
      "जरू": 1318,
      "संबं": 1319,
      "ख्या": 1320,
      "सरे": 1321,
      "पूरी": 1322,
      "जवा": 1323,
      "ज्ञा": 1324,
      "शहर": 1325,
      "नीति": 1326,
      "स्थि": 1327,
      "ट्रे": 1328,
      "बारे": 1329,
      "याद": 1330,
      "जूद": 1331,
      "इंड": 1332,
      "अस्पता": 1333,
      "विका": 1334,
      "नौ": 1335,
      "अनुसार": 1336,
      "आदि": 1337,
      "हमार": 1338,
      "बंद": 1339,
      "ंट": 1340,
      "इसमें": 1341,
      "भग": 1342,
      "करीब": 1343,
      "आत": 1344,
      "ध्या": 1345,
      "ोल": 1346,
      "पत्र": 1347,
      "मित": 1348,
      "नर": 1349,
      "अला": 1350,
      "पड़": 1351,
      "अधिकार": 1352,
      "परिवार": 1353,
      "वल": 1354,
      "मुख्यमंत्री": 1355,
      "15": 1356,
      "अभी": 1357,
      "पिछले": 1358,
      "इसे": 1359,
      "अच्": 1360,
      "स्थान": 1361,
      "माण": 1362,
      "जीत": 1363,
      "मू": 1364,
      "12": 1365,
      "दिए": 1366,
      "पढ़": 1367,
      "चों": 1368,
      "सम्": 1369,
      "अलग": 1370,
      "काल": 1371,
      "व्यव": 1372,
      "मिले": 1373,
      "हिं": 1374,
      "पक": 1375,
      "पानी": 1376,
      "पत्": 1377,
      "विकास": 1378,
      "शासन": 1379,
      "कुल": 1380,
      "होती": 1381,
      "अलावा": 1382,
      "गठ": 1383,
      "जल": 1384,
      "फ़": 1385,
      "अधिकारी": 1386,
      "अभि": 1387,
      "स्थिति": 1388,
      "आयो": 1389,
      "रत": 1390,
      "रीज": 1391,
      "बॉ": 1392,
      "वरी": 1393,
      "जहां": 1394,
      "जबकि": 1395,
      "जित": 1396,
      "व्या": 1397,
      "न्या": 1398,
      "छे": 1399,
      "प्ता": 1400,
      "पांच": 1401,
      "पार": 1402,
      "रण": 1403,
      "उत्तर": 1404,
      "चला": 1405,
      "टू": 1406,
      "रवि": 1407,
      "सला": 1408,
      "झा": 1409,
      "डिया": 1410,
      "लोक": 1411,
      "अस्पताल": 1412,
      "ऐसा": 1413,
      "खंड": 1414,
      "वासी": 1415,
      "प्रो": 1416,
      "स्तान": 1417,
      "जिसमें": 1418,
      "सके": 1419,
      "क्रि": 1420,
      "घो": 1421,
      "ंबर": 1422,
      "एल": 1423,
      "व्यक्ति": 1424,
      "कट": 1425,
      "कर्म": 1426,
      "साइ": 1427,
      "हालांकि": 1428,
      "बजे": 1429,
      "ंत्र": 1430,
      "अग": 1431,
      "पूर्ण": 1432,
      "शेष": 1433,
      "ताओं": 1434,
      "दें": 1435,
      "संख्या": 1436,
      "परा": 1437,
      "बल": 1438,
      "तैयार": 1439,
      "र्मा": 1440,
      "बढ़ा": 1441,
      "स्टे": 1442,
      "बिक": 1443,
      "कंपनी": 1444,
      "नजर": 1445,
      "दर्शन": 1446,
      "बाइ": 1447,
      "परे": 1448,
      "ंगल": 1449,
      "दिनों": 1450,
      "दूर": 1451,
      "जिन": 1452,
      "त्म": 1453,
      "जैसे": 1454,
      "बड़ी": 1455,
      "कोर्ट": 1456,
      "सह": 1457,
      "माल": 1458,
      "रिपोर्ट": 1459,
      "निर्देश": 1460,
      "करता": 1461,
      "बनाने": 1462,
      "ुक": 1463,
      "फल": 1464,
      "चाह": 1465,
      "डियो": 1466,
      "राष्ट्रीय": 1467,
      "शल": 1468,
      "विश्व": 1469,
      "मंड": 1470,
      "युव": 1471,
      "ठी": 1472,
      "सकती": 1473,
      "...": 1474,
      "करे": 1475,
      "वाला": 1476,
      "इस्": 1477,
      "लाइन": 1478,
      "कार्यक्रम": 1479,
      "छात्र": 1480,
      "गढ़": 1481,
      "मिला": 1482,
      "वजह": 1483,
      "वायर": 1484,
      "बल्": 1485,
      "दिर": 1486,
      "दन": 1487,
      "लें": 1488,
      "वीर": 1489,
      "वान": 1490,
      "तहत": 1491,
      "दूसरे": 1492,
      "अभ": 1493,
      "पक्ष": 1494,
      "युक्त": 1495,
      "वास": 1496,
      "दिखा": 1497,
      "स्वास्थ": 1498,
      "विधान": 1499,
      "चित": 1500,
      "मिली": 1501,
      "बैठक": 1502,
      "चो": 1503,
      "र्फ": 1504,
      "द्या": 1505,
      "दूस": 1506,
      "मीडिया": 1507,
      "बाहर": 1508,
      "झे": 1509,
      "मुता": 1510,
      "जाएगी": 1511,
      "पाकि": 1512,
      "21": 1513,
      "हरा": 1514,
      "सुबह": 1515,
      "बस": 1516,
      "उनका": 1517,
      "आगे": 1518,
      "गिरफ्": 1519,
      "मुताबिक": 1520,
      "धित": 1521,
      "भारी": 1522,
      "प्रधानमंत्री": 1523,
      "स्वास्थ्य": 1524,
      "आधार": 1525,
      "कार्र": 1526,
      "नए": 1527,
      "सेवा": 1528,
      "कहना": 1529,
      "थाना": 1530,
      "मंदिर": 1531,
      "कार्रवाई": 1532,
      "मेंट": 1533,
      "लाई": 1534,
      "30": 1535,
      "सड़": 1536,
      "सौ": 1537,
      "सुरक्षा": 1538,
      "लाल": 1539,
      "छो": 1540,
      "लड़": 1541,
      "परीक्षा": 1542,
      "ंगा": 1543,
      "भो": 1544,
      "व्यवस्था": 1545,
      "उठा": 1546,
      "अमे": 1547,
      "सदस्": 1548,
      "जल्": 1549,
      "रुपए": 1550,
      "उम्": 1551,
      "जाती": 1552,
      "गल": 1553,
      "बच्चों": 1554,
      "सूचना": 1555,
      "इसलिए": 1556,
      "बेह": 1557,
      "मौके": 1558,
      "विशेष": 1559,
      "इसका": 1560,
      "50": 1561,
      "दुनिया": 1562,
      "खेल": 1563,
      "यादव": 1564,
      "क्सी": 1565,
      "फोन": 1566,
      "हिंदी": 1567,
      "सचि": 1568,
      "न्द्र": 1569,
      "11": 1570,
      "विद्या": 1571,
      "रहने": 1572,
      "मही": 1573,
      "बैंक": 1574,
      "उसकी": 1575,
      "उम्मी": 1576,
      "अधिकारियों": 1577,
      "एफ": 1578,
      "हूं": 1579,
      "पूरा": 1580,
      "तरी": 1581,
      "मर": 1582,
      "क्योंकि": 1583,
      "वहां": 1584,
      "ग्राम": 1585,
      "वीडियो": 1586,
      "चाल": 1587,
      "श्य": 1588,
      "निर्माण": 1589,
      "होते": 1590,
      "इसकी": 1591,
      "बाजार": 1592,
      "मदद": 1593,
      "गुरु": 1594,
      "किसानों": 1595,
      "उम्मीद": 1596,
      "आया": 1597,
      "सें": 1598,
      "मिक": 1599,
      "स्कूल": 1600,
      "शर्मा": 1601,
      "शान": 1602,
      "मुं": 1603,
      "धर": 1604,
      "नाथ": 1605,
      "स्तर": 1606,
      "ब्र": 1607,
      "मृ": 1608,
      "खरी": 1609,
      "देव": 1610,
      "घोष": 1611,
      "निवार": 1612,
      "विरो": 1613,
      "डर": 1614,
      "स्या": 1615,
      "जिसके": 1616,
      "बू": 1617,
      "शिका": 1618,
      "मौजूद": 1619,
      "पंचा": 1620,
      "तों": 1621,
      "कल्": 1622,
      "ष्ट": 1623,
      "अमेरि": 1624,
      "यां": 1625,
      "तब": 1626,
      "टन": 1627,
      "हाथ": 1628,
      "राब": 1629,
      "वेश": 1630,
      "ट्स": 1631,
      "मारी": 1632,
      "सेना": 1633,
      "मरीज": 1634,
      "एक्": 1635,
      "शत": 1636,
      "सहित": 1637,
      "सान": 1638,
      "क्षक": 1639,
      "तन": 1640,
      "लेने": 1641,
      "करेंगे": 1642,
      "जगह": 1643,
      "मैच": 1644,
      "बई": 1645,
      "जीवन": 1646,
      "नीय": 1647,
      "चर्": 1648,
      "पहली": 1649,
      "णी": 1650,
      "पुरा": 1651,
      "ंचा": 1652,
      "सां": 1653,
      "निवासी": 1654,
      "फ्र": 1655,
      "ख्": 1656,
      "18": 1657,
      "रोक": 1658,
      "खुद": 1659,
      "खान": 1660,
      "षण": 1661,
      "बड़े": 1662,
      "स्‍": 1663,
      "मीण": 1664,
      "in": 1665,
      "लेज": 1666,
      "लगे": 1667,
      "ग्रामीण": 1668,
      "ंटे": 1669,
      "पन": 1670,
      "बिहार": 1671,
      "यान": 1672,
      "जाना": 1673,
      "मंगल": 1674,
      "समस्या": 1675,
      "तौर": 1676,
      "लर": 1677,
      "पाकिस्तान": 1678,
      "वृ": 1679,
      "धे": 1680,
      "ून": 1681,
      "14": 1682,
      "सदी": 1683,
      "ंदर": 1684,
      "सोम": 1685,
      "सीट": 1686,
      "चुके": 1687,
      "गै": 1688,
      "लगातार": 1689,
      "पंचायत": 1690,
      "प्रदर्शन": 1691,
      "वित": 1692,
      "चीन": 1693,
      "कद": 1694,
      "शिक्षा": 1695,
      "किसान": 1696,
      "रेल": 1697,
      "मां": 1698,
      "एच": 1699,
      "शिकायत": 1700,
      "गिरफ्तार": 1701,
      "राय": 1702,
      "25": 1703,
      "थि": 1704,
      "जिससे": 1705,
      "शुक्र": 1706,
      "सुन": 1707,
      "रखा": 1708,
      "गांधी": 1709,
      "रन": 1710,
      "जें": 1711,
      "टल": 1712,
      "प्रया": 1713,
      "सित": 1714,
      "राव": 1715,
      "ष्ठ": 1716,
      "बचा": 1717,
      "हरी": 1718,
      "संघ": 1719,
      "बड़ा": 1720,
      "वाह": 1721,
      "सिल": 1722,
      "शिव": 1723,
      "प्रशासन": 1724,
      "खबर": 1725,
      "देते": 1726,
      "हिस्": 1727,
      "आम": 1728,
      "राजनीति": 1729,
      "पूरे": 1730,
      "टिंग": 1731,
      "वालों": 1732,
      "पिता": 1733,
      "अर्": 1734,
      "आपके": 1735,
      "पहुंचे": 1736,
      "सोमवार": 1737,
      "राशि": 1738,
      "an": 1739,
      "लाभ": 1740,
      "तम": 1741,
      "भूमि": 1742,
      "मामला": 1743,
      "उपल": 1744,
      "जाते": 1745,
      "मुझे": 1746,
      "क्रिया": 1747,
      "विधानसभा": 1748,
      "बिज": 1749,
      "तरफ": 1750,
      "इत": 1751,
      "लाइ": 1752,
      "लगाया": 1753,
      "महीने": 1754,
      "निग": 1755,
      "पॉ": 1756,
      "दारी": 1757,
      "कभी": 1758,
      "बुध": 1759,
      "चलते": 1760,
      "ार्थ": 1761,
      "हत्या": 1762,
      "कता": 1763,
      "तरा": 1764,
      "जनता": 1765,
      "वाप": 1766,
      "माह": 1767,
      "गू": 1768,
      "सत": 1769,
      "सचिव": 1770,
      "रै": 1771,
      "अति": 1772,
      "प्रतिशत": 1773,
      "विष": 1774,
      "सिर्फ": 1775,
      "ल्ड": 1776,
      "प्रमुख": 1777,
      "खो": 1778,
      "यम": 1779,
      "लने": 1780,
      "200": 1781,
      "प्रि": 1782,
      "समझ": 1783,
      "विधायक": 1784,
      "शादी": 1785,
      "हमारे": 1786,
      "प्राप्त": 1787,
      "क्रमण": 1788,
      "ar": 1789,
      "िश": 1790,
      "उसने": 1791,
      "दूसरी": 1792,
      "सड़क": 1793,
      "उपलब्": 1794,
      "चै": 1795,
      "शुरु": 1796,
      "यदि": 1797,
      "आग": 1798,
      "लब": 1799,
      "समे": 1800,
      "बाव": 1801,
      "प्री": 1802,
      "शं": 1803,
      "समाज": 1804,
      "शुक्रवार": 1805,
      "पोस्ट": 1806,
      "मुंबई": 1807,
      "चुकी": 1808,
      "षा": 1809,
      "बुधवार": 1810,
      "यं": 1811,
      "आदेश": 1812,
      "आव": 1813,
      "कराया": 1814,
      "केवल": 1815,
      "तस्": 1816,
      "भु": 1817,
      "मिलने": 1818,
      "न्यूज़": 1819,
      "विड": 1820,
      "हाई": 1821,
      "मना": 1822,
      "मंगलवार": 1823,
      "ध्यान": 1824,
      "वायरस": 1825,
      "सवाल": 1826,
      "चान": 1827,
      "षि": 1828,
      "गें": 1829,
      "पड़ा": 1830,
      "्यालय": 1831,
      "सफल": 1832,
      "होंगे": 1833,
      "24": 1834,
      "टेस्ट": 1835,
      "विद्यालय": 1836,
      "16": 1837,
      "धु": 1838,
      "भिन्न": 1839,
      "खी": 1840,
      "शाम": 1841,
      "गर्": 1842,
      "खन": 1843,
      "करती": 1844,
      "महिलाओं": 1845,
      "बने": 1846,
      "मध्य": 1847,
      "लगभग": 1848,
      "भाई": 1849,
      "वें": 1850,
      "करके": 1851,
      "सरकारी": 1852,
      "ंग्": 1853,
      "विरोध": 1854,
      "मीर": 1855,
      "सात": 1856,
      "बिना": 1857,
      "संबंध": 1858,
      "प्रभा": 1859,
      "जल्द": 1860,
      "समि": 1861,
      "लॉक": 1862,
      "दों": 1863,
      "आरोपी": 1864,
      "अभिया": 1865,
      "लैंड": 1866,
      "शनिवार": 1867,
      "रविवार": 1868,
      "13": 1869,
      "यात्रा": 1870,
      "नंबर": 1871,
      "अंत": 1872,
      "पेश": 1873,
      "ग्री": 1874,
      "टै": 1875,
      "लिक": 1876,
      "प्रयास": 1877,
      "भव": 1878,
      "छोड़": 1879,
      "तेज": 1880,
      "कीमत": 1881,
      "माध्य": 1882,
      "एसपी": 1883,
      "विभिन्न": 1884,
      "लौ": 1885,
      "17": 1886,
      "भीर": 1887,
      "सदस्य": 1888,
      "समिति": 1889,
      "लु": 1890,
      "अभियान": 1891,
      "अफ": 1892,
      "इंडिया": 1893,
      "डाउन": 1894,
      "युवक": 1895,
      "सोशल": 1896,
      "पहुंचा": 1897,
      "गठन": 1898,
      "ड्": 1899,
      "वेदन": 1900,
      "तेमाल": 1901,
      "हुल": 1902,
      "युवा": 1903,
      "कोशि": 1904,
      "बयान": 1905,
      "सामान": 1906,
      "इंटर": 1907,
      "लिखा": 1908,
      "नियम": 1909,
      "चर्चा": 1910,
      "उपयोग": 1911,
      "कोशिश": 1912,
      "चर": 1913,
      "नाग": 1914,
      "शाह": 1915,
      "टने": 1916,
      "दिव": 1917,
      "बनाया": 1918,
      "डो": 1919,
      "समर्थ": 1920,
      "फीसदी": 1921,
      "लगी": 1922,
      "जमा": 1923,
      "भर्": 1924,
      "पत्नी": 1925,
      "घंटे": 1926,
      "सहा": 1927,
      "सुविधा": 1928,
      "तृ": 1929,
      "इस्तेमाल": 1930,
      "कौ": 1931,
      "कां": 1932,
      "आयोजित": 1933,
      "बनाए": 1934,
      "गंभीर": 1935,
      "आं": 1936,
      "उपा": 1937,
      "दल": 1938,
      "कराने": 1939,
      "गयी": 1940,
      "जेपी": 1941,
      "त्रि": 1942,
      "शेयर": 1943,
      "क्षित": 1944,
      "पड़े": 1945,
      "बंधन": 1946,
      "जन्": 1947,
      "मूल": 1948,
      "करवा": 1949,
      "त्त": 1950,
      "ऐसी": 1951,
      "उपलब्ध": 1952,
      "विक": 1953,
      "कोविड": 1954,
      "स्ट्र": 1955,
      "चुका": 1956,
      "गण": 1957,
      "जरूरत": 1958,
      "प्रकार": 1959,
      "सीमा": 1960,
      "कॉलेज": 1961,
      "सीएम": 1962,
      "राहुल": 1963,
      "नेट": 1964,
      "जवाब": 1965,
      "विदेश": 1966,
      "होना": 1967,
      "स्ट्रे": 1968,
      "जाम": 1969,
      "शव": 1970,
      "भावना": 1971,
      "गति": 1972,
      "काश": 1973,
      "टिव": 1974,
      "उसका": 1975,
      "एक्स": 1976,
      "हमें": 1977,
      "मीन": 1978,
      "बारिश": 1979,
      "तला": 1980,
      "फॉ": 1981,
      "भर्ती": 1982,
      "रोड": 1983,
      "खास": 1984,
      "रखने": 1985,
      "अक्": 1986,
      "मार्च": 1987,
      "बंध": 1988,
      "फैसला": 1989,
      "समेत": 1990,
      "बोर्ड": 1991,
      "प्ला": 1992,
      "बिजली": 1993,
      "आयोजन": 1994,
      "छी": 1995,
      "on": 1996,
      "कू": 1997,
      "सहयोग": 1998,
      "पीड़": 1999,
      "मजब": 2000,
      "22": 2001,
      "लक्ष": 2002,
      "000": 2003,
      "वीं": 2004,
      "मजबू": 2005,
      "मंडल": 2006,
      "ऑफ": 2007,
      "कश्": 2008,
      "निका": 2009,
      "पित": 2010,
      "देखने": 2011,
      "घु": 2012,
      "क्ट": 2013,
      "मिन": 2014,
      "ेंट": 2015,
      "तीस": 2016,
      "थीं": 2017,
      "दुर्": 2018,
      "संक्रमण": 2019,
      "र्ष": 2020,
      "निधि": 2021,
      "मार्ग": 2022,
      "आइ": 2023,
      "देखा": 2024,
      "कार्ड": 2025,
      "छह": 2026,
      "चिकि": 2027,
      "लाने": 2028,
      "चिकित्": 2029,
      "ंति": 2030,
      "महत्व": 2031,
      "नियों": 2032,
      "त्ता": 2033,
      "बच्चे": 2034,
      "वु": 2035,
      "मुद्": 2036,
      "धर्म": 2037,
      "पीएम": 2038,
      "कं": 2039,
      "ग्रह": 2040,
      "दुकान": 2041,
      "देर": 2042,
      "आवश्य": 2043,
      "ट्रा": 2044,
      "पल": 2045,
      "कत": 2046,
      "बाज": 2047,
      "at": 2048,
      "माध्यम": 2049,
      "उत्पा": 2050,
      "अदा": 2051,
      "च्च": 2052,
      "निगम": 2053,
      "टक": 2054,
      "er": 2055,
      "केस": 2056,
      "लगाने": 2057,
      "रों": 2058,
      "ैल": 2059,
      "बल्कि": 2060,
      "टाइ": 2061,
      "लत": 2062,
      "वापस": 2063,
      "द्धा": 2064,
      "तान": 2065,
      "मार्ट": 2066,
      "क्रिकेट": 2067,
      "िता": 2068,
      "क्री": 2069,
      "मोबाइ": 2070,
      "अहम": 2071,
      "महारा": 2072,
      "तय": 2073,
      "किल": 2074,
      "लिये": 2075,
      "विचार": 2076,
      "पाए": 2077,
      "जेल": 2078,
      "दीप": 2079,
      "बीजेपी": 2080,
      "द्योग": 2081,
      "घायल": 2082,
      "अप्र": 2083,
      "काउ": 2084,
      "लित": 2085,
      "इलाज": 2086,
      "मोबाइल": 2087,
      "लेख": 2088,
      "तंत्र": 2089,
      "देवी": 2090,
      "ेश": 2091,
      "कार्यकर्": 2092,
      "बाजी": 2093,
      "अमेरिका": 2094,
      "केंद्रीय": 2095,
      "देखते": 2096,
      "आस": 2097,
      "तस्वीर": 2098,
      "बाल": 2099,
      "मियों": 2100,
      "यही": 2101,
      "चाहते": 2102,
      "कमी": 2103,
      "जरि": 2104,
      "माना": 2105,
      "अवसर": 2106,
      "ंडे": 2107,
      "पंजा": 2108,
      "पीछे": 2109,
      "मता": 2110,
      "रेलवे": 2111,
      "तिक": 2112,
      "प्ले": 2113,
      "जाएंगे": 2114,
      "क्शन": 2115,
      "कला": 2116,
      "भेज": 2117,
      "र्जी": 2118,
      "डीएम": 2119,
      "उम": 2120,
      "स्टा": 2121,
      "मोह": 2122,
      "मनो": 2123,
      "वाहन": 2124,
      "नव": 2125,
      "कित": 2126,
      "ख़": 2127,
      "दाय": 2128,
      "अल": 2129,
      "मीटर": 2130,
      "अच्छा": 2131,
      "शरी": 2132,
      "साफ": 2133,
      "मॉ": 2134,
      "कैसे": 2135,
      "सिक": 2136,
      "जन्म": 2137,
      "जिम्": 2138,
      "पश्": 2139,
      "सांसद": 2140,
      "ृह": 2141,
      "फाय": 2142,
      "ठीक": 2143,
      "जिसे": 2144,
      "तारी": 2145,
      "नेशन": 2146,
      "यूपी": 2147,
      "बनी": 2148,
      "ड़ों": 2149,
      "अंतर": 2150,
      "ष्टि": 2151,
      "गेंद": 2152,
      "होकर": 2153,
      "2020": 2154,
      "गुरुवार": 2155,
      "जनों": 2156,
      "ज्ञान": 2157,
      "रिक": 2158,
      "पसं": 2159,
      "सही": 2160,
      "द्धि": 2161,
      "मेरे": 2162,
      "षद": 2163,
      "40": 2164,
      "स्वी": 2165,
      "हाद": 2166,
      "खरीद": 2167,
      "जनवरी": 2168,
      "जोर": 2169,
      "कानून": 2170,
      "आवेदन": 2171,
      "नरेंद्र": 2172,
      "वुड": 2173,
      "भगवान": 2174,
      "तिम": 2175,
      "घोषणा": 2176,
      "हॉ": 2177,
      "ऑन": 2178,
      "फोटो": 2179,
      "बेहतर": 2180,
      "विजय": 2181,
      "or": 2182,
      "गरी": 2183,
      "ंगी": 2184,
      "मेडि": 2185,
      "क़": 2186,
      "स्थानीय": 2187,
      "कश्मीर": 2188,
      "काब": 2189,
      "अपरा": 2190,
      "आठ": 2191,
      "फु": 2192,
      "कार्यालय": 2193,
      "अंतिम": 2194,
      "सीबी": 2195,
      "संक्र": 2196,
      "हासिल": 2197,
      "भाषा": 2198,
      "शुरुआत": 2199,
      "ताकि": 2200,
      "माता": 2201,
      "साद": 2202,
      "श्वर": 2203,
      "मरीजों": 2204,
      "टॉ": 2205,
      "ताप": 2206,
      "प्रक्रिया": 2207,
      "कृषि": 2208,
      "नेताओं": 2209,
      "बित": 2210,
      "डॉक्टर": 2211,
      "उल्": 2212,
      "केश": 2213,
      "मंत्रा": 2214,
      "क्षि": 2215,
      "ारे": 2216,
      "एयर": 2217,
      "ष्ण": 2218,
      "जमीन": 2219,
      "वॉ": 2220,
      "प्रभारी": 2221,
      "विकेट": 2222,
      "छता": 2223,
      "एजें": 2224,
      "चारियों": 2225,
      "नारा": 2226,
      "त्रों": 2227,
      "चंद्र": 2228,
      "26": 2229,
      "छात्रों": 2230,
      "सिटी": 2231,
      "जरूरी": 2232,
      "विद्य": 2233,
      "संस्था": 2234,
      "कल्प": 2235,
      "अप्रैल": 2236,
      "ब्रा": 2237,
      "वर्ग": 2238,
      "संबंधित": 2239,
      "ेंस": 2240,
      "समी": 2241,
      "पूर": 2242,
      "हरिया": 2243,
      "कर्मचारियों": 2244,
      "पंजाब": 2245,
      "ंज": 2246,
      "गौर": 2247,
      "उच्च": 2248,
      "मण": 2249,
      "देशों": 2250,
      "स्कू": 2251,
      "हटा": 2252,
      "बच": 2253,
      "क्ता": 2254,
      "2021": 2255,
      "कारो": 2256,
      "तेजी": 2257,
      "चरण": 2258,
      "आखि": 2259,
      "निश्": 2260,
      "वरि": 2261,
      "वैक्सी": 2262,
      "तिहा": 2263,
      "न्हें": 2264,
      "मंत्रालय": 2265,
      "स्तु": 2266,
      "संवाद": 2267,
      "न्याया": 2268,
      "मुकाब": 2269,
      "जून": 2270,
      "धिकारी": 2271,
      "al": 2272,
      "निजी": 2273,
      "पूजा": 2274,
      "कार्": 2275,
      "ट्रोल": 2276,
      "बेहद": 2277,
      "लिख": 2278,
      "लीवुड": 2279,
      "23": 2280,
      "कहते": 2281,
      "विवाद": 2282,
      "रंग": 2283,
      "लखन": 2284,
      "वार्": 2285,
      "विधि": 2286,
      "es": 2287,
      "आंद": 2288,
      "नुक": 2289,
      "वक्त": 2290,
      "प्रतिनिधि": 2291,
      "पालन": 2292,
      "उम्मीदवार": 2293,
      "मैंने": 2294,
      "स्प": 2295,
      "असल": 2296,
      "बदला": 2297,
      "दिल": 2298,
      "जाय": 2299,
      "कहीं": 2300,
      "100": 2301,
      "खू": 2302,
      "चन": 2303,
      "खत्म": 2304,
      "शराब": 2305,
      "थो": 2306,
      "अगले": 2307,
      "ेक": 2308,
      "नया": 2309,
      "बाइक": 2310,
      "हिस्सा": 2311,
      "ट्रै": 2312,
      "राज्यों": 2313,
      "जिम्मे": 2314,
      "स्पे": 2315,
      "आयोग": 2316,
      "आर्थ": 2317,
      "रहते": 2318,
      "अर": 2319,
      "धिकार": 2320,
      "पहुंची": 2321,
      "बज": 2322,
      "राष्ट्रपति": 2323,
      "मई": 2324,
      "कदम": 2325,
      "हमला": 2326,
      "सीसी": 2327,
      "मिश्र": 2328,
      "आंदोल": 2329,
      "धो": 2330,
      "व्यापार": 2331,
      "सिंग": 2332,
      "जता": 2333,
      "यूनि": 2334,
      "निकल": 2335,
      "देकर": 2336,
      "नल": 2337,
      "थाने": 2338,
      "रानी": 2339,
      "चारी": 2340,
      "वार्ड": 2341,
      "फाई": 2342,
      "बावजूद": 2343,
      "नुकसान": 2344,
      "प्रदान": 2345,
      "किंग": 2346,
      "संगठन": 2347,
      "जुलाई": 2348,
      "अंदर": 2349,
      "उन्": 2350,
      "रहेगा": 2351,
      "मेडिकल": 2352,
      "ल्स": 2353,
      "आर्थिक": 2354,
      "रल": 2355,
      "आन": 2356,
      "पारी": 2357,
      "पहचान": 2358,
      "राजस्थान": 2359,
      "छात्रा": 2360,
      "संक्रमित": 2361,
      "त्रियों": 2362,
      "बदल": 2363,
      "प्रभावित": 2364,
      "ट्टी": 2365,
      "टेल": 2366,
      "ंदा": 2367,
      "टीवी": 2368,
      "डल": 2369,
      "लागू": 2370,
      "2019": 2371,
      "मेल": 2372,
      "अच्छी": 2373,
      "मज": 2374,
      "पुत्र": 2375,
      "आंदोलन": 2376,
      "दर्श": 2377,
      "ब्रि": 2378,
      "प्रस्ता": 2379,
      "जों": 2380,
      "ह्": 2381,
      "यानी": 2382,
      "लखनऊ": 2383,
      "र्च": 2384,
      "मौसम": 2385,
      "कमा": 2386,
      "जिक": 2387,
      "प्रसाद": 2388,
      "मामलों": 2389,
      "प्रकाश": 2390,
      "लिंग": 2391,
      "तोड़": 2392,
      "ठे": 2393,
      "क्षेत्रों": 2394,
      "धानी": 2395,
      "तुल": 2396,
      "मुला": 2397,
      "इनमें": 2398,
      "तैयारी": 2399,
      "गये": 2400,
      "देना": 2401,
      "यता": 2402,
      "अगस्त": 2403,
      "पश्चि": 2404,
      "पौ": 2405,
      "चालक": 2406,
      "निश्चित": 2407,
      "निर्ण": 2408,
      "ऑनलाइन": 2409,
      "हमे": 2410,
      "चले": 2411,
      "लगता": 2412,
      "दिवस": 2413,
      "27": 2414,
      "पाया": 2415,
      "महत्वपूर्ण": 2416,
      "निकाल": 2417,
      "ियां": 2418,
      "शरीर": 2419,
      "ढा": 2420,
      "र्य": 2421,
      "जीव": 2422,
      "गृह": 2423,
      "बल्ले": 2424,
      "ट्वी": 2425,
      "बर्": 2426,
      "वरिष्ठ": 2427,
      "छु": 2428,
      "स्कार": 2429,
      "जुड़े": 2430,
      "उद्": 2431,
      "रं": 2432,
      "ट्रेन": 2433,
      "लिका": 2434,
      "फरवरी": 2435,
      "ंडा": 2436,
      "साइट": 2437,
      "वैध": 2438,
      "नीचे": 2439,
      "रिक्त": 2440,
      "फिल": 2441,
      "निर्णय": 2442,
      "निवेश": 2443,
      "तत्": 2444,
      "शांत": 2445,
      "दाता": 2446,
      "राजनीतिक": 2447,
      "लोकसभा": 2448,
      "ड़ियों": 2449,
      "बॉलीवुड": 2450,
      "सप्ता": 2451,
      "दिशा": 2452,
      "सियों": 2453,
      "वारी": 2454,
      "वेब": 2455,
      "28": 2456,
      "पहला": 2457,
      "कर्मचारी": 2458,
      "सील": 2459,
      "ंभ": 2460,
      "कले": 2461,
      "ड्र": 2462,
      "श्रे": 2463,
      "ओवर": 2464,
      "किलो": 2465,
      "दावा": 2466,
      "ंडी": 2467,
      "स्टेशन": 2468,
      "अग्र": 2469,
      "धारा": 2470,
      "हाँ": 2471,
      "आंक": 2472,
      "रिश्": 2473,
      "लाया": 2474,
      "दिसं": 2475,
      "सितंबर": 2476,
      "दवा": 2477,
      "दक्षि": 2478,
      "क्‍": 2479,
      "बेटी": 2480,
      "दिसंबर": 2481,
      "om": 2482,
      "तरीके": 2483,
      "समर्थन": 2484,
      "हरियाणा": 2485,
      "कर्मियों": 2486,
      "जरिए": 2487,
      "हमने": 2488,
      "नित": 2489,
      "काली": 2490,
      "न्याय": 2491,
      "ad": 2492,
      "समु": 2493,
      "लॉकडाउन": 2494,
      "इलाके": 2495,
      "ोह": 2496,
      "भेजा": 2497,
      "जरी": 2498,
      "वत": 2499,
      "ील": 2500,
      "अदालत": 2501,
      "रोजग": 2502,
      "जम्": 2503,
      "हमारी": 2504,
      "पढ़ें": 2505,
      "तृत्व": 2506,
      "रिंग": 2507,
      "क्रा": 2508,
      "तह": 2509,
      "नवं": 2510,
      "मक": 2511,
      "मिनट": 2512,
      "स्कृ": 2513,
      "ताल": 2514,
      "नवंबर": 2515,
      "जम": 2516,
      "दिख": 2517,
      "बेटे": 2518,
      "किस": 2519,
      "ट्वीट": 2520,
      "टीका": 2521,
      "सले": 2522,
      "चीत": 2523,
      "छोटे": 2524,
      "जाकर": 2525,
      "अम": 2526,
      "मुश्": 2527,
      "मिलेगा": 2528,
      "दिखाई": 2529,
      "निरी": 2530,
      "बंगा": 2531,
      "उम्र": 2532,
      "सप्ताह": 2533,
      "प्रत्य": 2534,
      "श्रद्धा": 2535,
      "गौ": 2536,
      "व्": 2537,
      "राहत": 2538,
      "पसंद": 2539,
      "हमेशा": 2540,
      "60": 2541,
      "डाल": 2542,
      "आती": 2543,
      "फिलहाल": 2544,
      "शक्ति": 2545,
      "वरण": 2546,
      "ज्य": 2547,
      "दस": 2548,
      "पहर": 2549,
      "आवा": 2550,
      "जाये": 2551,
      "दियों": 2552,
      "गंज": 2553,
      "स्थल": 2554,
      "एंड": 2555,
      "प्रवेश": 2556,
      "ऊपर": 2557,
      "महामारी": 2558,
      "सामा": 2559,
      "परिजनों": 2560,
      "बातचीत": 2561,
      "रज": 2562,
      "फाइन": 2563,
      "बनने": 2564,
      "ग्रामीणों": 2565,
      "नेतृत्व": 2566,
      "स्टर": 2567,
      "संयुक्त": 2568,
      "खिलाड़ी": 2569,
      "प्रेस": 2570,
      "डाय": 2571,
      "सामना": 2572,
      "तियों": 2573,
      "दोपहर": 2574,
      "परिषद": 2575,
      "लगाए": 2576,
      "खुला": 2577,
      "इतना": 2578,
      "en": 2579,
      "नियंत्र": 2580,
      "टूबर": 2581,
      "।'": 2582,
      "सिद्ध": 2583,
      "कारा": 2584,
      "भूमिका": 2585,
      "पना": 2586,
      "मैन": 2587,
      "रक्षा": 2588,
      "एड": 2589,
      "रोग": 2590,
      "इंत": 2591,
      "दिग्": 2592,
      "हिंद": 2593,
      "तैना": 2594,
      "करेगा": 2595,
      "हरे": 2596,
      "निंग": 2597,
      "लास": 2598,
      "कप्ता": 2599,
      "त्मक": 2600,
      "वाही": 2601,
      "मति": 2602,
      "भीड़": 2603,
      "गुप्ता": 2604,
      "जम्मू": 2605,
      "ूट": 2606,
      "वैक्सीन": 2607,
      "कारों": 2608,
      "उसी": 2609,
      "अर्थ": 2610,
      "सफाई": 2611,
      "सों": 2612,
      "कही": 2613,
      "अक्टूबर": 2614,
      "चोरी": 2615,
      "परेशा": 2616,
      "नदी": 2617,
      "स्ती": 2618,
      "35": 2619,
      "खराब": 2620,
      "हमले": 2621,
      "वर्षीय": 2622,
      "धू": 2623,
      "उत्तरा": 2624,
      "जाग": 2625,
      "संभावना": 2626,
      "णाम": 2627,
      "आते": 2628,
      "दरअसल": 2629,
      "न्ना": 2630,
      "सब्": 2631,
      "खूब": 2632,
      "29": 2633,
      "संजय": 2634,
      "70": 2635,
      "सूची": 2636,
      "फ्ट": 2637,
      "प्राथ": 2638,
      "स्टो": 2639,
      "योगी": 2640,
      "सुधार": 2641,
      "ट्री": 2642,
      "आतंक": 2643,
      "बारी": 2644,
      "यार": 2645,
      "मतदान": 2646,
      "सामान्य": 2647,
      "दाम": 2648,
      "नेशनल": 2649,
      "वोट": 2650,
      "दृ": 2651,
      "केन्द्र": 2652,
      "आपकी": 2653,
      "),": 2654,
      "असर": 2655,
      "कड़ी": 2656,
      "पदा": 2657,
      "साह": 2658,
      "विस्त": 2659,
      "पर्या": 2660,
      "बदलाव": 2661,
      "थम": 2662,
      "दम": 2663,
      "वर्त": 2664,
      "भ्र": 2665,
      "मैदान": 2666,
      "ड्रा": 2667,
      "समू": 2668,
      "बंगाल": 2669,
      "इम": 2670,
      "आईपी": 2671,
      "अवैध": 2672,
      "अली": 2673,
      "भवन": 2674,
      "रित": 2675,
      "परेशान": 2676,
      "चू": 2677,
      "हान": 2678,
      "दोस्त": 2679,
      "पढ़ा": 2680,
      "महाराष्ट्र": 2681,
      "अतिरिक्त": 2682,
      "कप": 2683,
      "खाने": 2684,
      "परिणाम": 2685,
      "पर्क": 2686,
      "आर्": 2687,
      "हिमा": 2688,
      "पुरु": 2689,
      "पूछता": 2690,
      "गुज": 2691,
      "तरण": 2692,
      "प्रभाव": 2693,
      "पण": 2694,
      "सुना": 2695,
      "वास्त": 2696,
      "कपूर": 2697,
      "बां": 2698,
      "स्मार्ट": 2699,
      "विपक्ष": 2700,
      "घोषित": 2701,
      "साय": 2702,
      "सेंटर": 2703,
      "नै": 2704,
      "पकड़": 2705,
      "उससे": 2706,
      "पेट": 2707,
      "वक्ता": 2708,
      "जैसी": 2709,
      "राजधानी": 2710,
      "सफलता": 2711,
      "लान": 2712,
      "म्स": 2713,
      "चिका": 2714,
      "सजा": 2715,
      "स्ट्रेलिया": 2716,
      "देता": 2717,
      "रहता": 2718,
      "सुनी": 2719,
      "सुप्री": 2720,
      "कराई": 2721,
      "छि": 2722,
      "र्गत": 2723,
      "पुरुष": 2724,
      "पूछताछ": 2725,
      "हल": 2726,
      "जैन": 2727,
      "कंपनियों": 2728,
      "कब्": 2729,
      "बराम": 2730,
      "रोजगार": 2731,
      "सम्मान": 2732,
      "आय": 2733,
      "लेते": 2734,
      "प्रयोग": 2735,
      "पाई": 2736,
      "प्रस्ताव": 2737,
      "दक्षिण": 2738,
      "्स": 2739,
      "सलमान": 2740,
      "वां": 2741,
      "ल्ला": 2742,
      "कुर": 2743,
      "अनुमति": 2744,
      "ंकी": 2745,
      "वर्तमान": 2746,
      "पथ": 2747,
      "आयु": 2748,
      "वादी": 2749,
      "धरी": 2750,
      "बिल": 2751,
      "गोली": 2752,
      "पीड़ित": 2753,
      "रॉ": 2754,
      "निदेश": 2755,
      "पैसे": 2756,
      "नौकरी": 2757,
      "करेगी": 2758,
      "कारोबार": 2759,
      "सुनवाई": 2760,
      "डिंग": 2761,
      "।’": 2762,
      "याचिका": 2763,
      "खर्च": 2764,
      "आसपास": 2765,
      "बजट": 2766,
      "शोक": 2767,
      "पर्य": 2768,
      "सामाजिक": 2769,
      "मेरी": 2770,
      "खिल": 2771,
      "गंगा": 2772,
      "स्ट्री": 2773,
      "मरा": 2774,
      "शिक्षक": 2775,
      "रिली": 2776,
      "चार्": 2777,
      "सदस्यों": 2778,
      "क्कर": 2779,
      "पियों": 2780,
      "पूर्ति": 2781,
      "अमेरिकी": 2782,
      "31": 2783,
      "इंग्": 2784,
      "स्ते": 2785,
      "कृष्ण": 2786,
      "्यार": 2787,
      "इट": 2788,
      "र्क": 2789,
      "बीते": 2790,
      "मजबूत": 2791,
      "बरामद": 2792,
      "विश्वविद्यालय": 2793,
      "लक्ष्य": 2794,
      "सोच": 2795,
      "उपस्थित": 2796,
      "सिर": 2797,
      "वित्त": 2798,
      "उनसे": 2799,
      "45": 2800,
      "आद": 2801,
      "उद्योग": 2802,
      "स्टि": 2803,
      "हालत": 2804,
      "घरों": 2805,
      "दास": 2806,
      "टिकट": 2807,
      "शांति": 2808,
      "उट": 2809,
      ")।": 2810,
      "मुस्": 2811,
      "गलत": 2812,
      "ंदगी": 2813,
      "बारा": 2814,
      "विश्वास": 2815,
      "सवार": 2816,
      "ग्रे": 2817,
      "di": 2818,
      "तहसील": 2819,
      "80": 2820,
      "चंद": 2821,
      "उत्तराखंड": 2822,
      "ल्क": 2823,
      "सलाह": 2824,
      "टिस": 2825,
      "चार्य": 2826,
      "ंता": 2827,
      "विष्य": 2828,
      "शिया": 2829,
      "सव": 2830,
      "लियों": 2831,
      "भविष्य": 2832,
      "समार": 2833,
      "बताते": 2834,
      "स्थापित": 2835,
      "वायरल": 2836,
      "लेश": 2837,
      "बढ़ाने": 2838,
      "सत्र": 2839,
      "टेड": 2840,
      "तेल": 2841,
      "पीट": 2842,
      "वृद्धि": 2843,
      "अनि": 2844,
      "रेट": 2845,
      "सीरीज": 2846,
      "इतिहा": 2847,
      "चौधरी": 2848,
      "कमे": 2849,
      "संपर्क": 2850,
      "भोपाल": 2851,
      "इतिहास": 2852,
      "पाठ": 2853,
      "रखी": 2854,
      "कौन": 2855,
      "चढ़": 2856,
      "कात": 2857,
      "दौर": 2858,
      "अच्छे": 2859,
      "ग्राह": 2860,
      "क्रे": 2861,
      "शै": 2862,
      "कोह": 2863,
      "नोट": 2864,
      "जाति": 2865,
      "मौका": 2866,
      "फ्री": 2867,
      "झार": 2868,
      "अपील": 2869,
      "दूरी": 2870,
      "सूत्रों": 2871,
      "बनाकर": 2872,
      "निदेशक": 2873,
      "निशा": 2874,
      "रहती": 2875,
      "स्कूलों": 2876,
      "निर्धार": 2877,
      "मजदूर": 2878,
      "किशो": 2879,
      "ार्थियों": 2880,
      "--": 2881,
      "पें": 2882,
      "सुरक्षित": 2883,
      "इल": 2884,
      "नियर": 2885,
      "शिक्षण": 2886,
      "वेबसाइट": 2887,
      "किये": 2888,
      "अधी": 2889,
      "गाय": 2890,
      "दोष": 2891,
      "बंदी": 2892,
      "तलाश": 2893,
      "कीय": 2894,
      "विरा": 2895,
      "सिस्ट": 2896,
      "केशन": 2897,
      "संकट": 2898,
      "शील": 2899,
      "अमित": 2900,
      "कार्यकर्ताओं": 2901,
      "घाट": 2902,
      "गैर": 2903,
      "ध्": 2904,
      "‘‘": 2905,
      "ताब": 2906,
      "लगाई": 2907,
      "2018": 2908,
      "पंच": 2909,
      "खर": 2910,
      "‍य": 2911,
      "न्स": 2912,
      "कप्तान": 2913,
      "ऑफि": 2914,
      "सारी": 2915,
      "आरोपियों": 2916,
      "दूसरा": 2917,
      "सुप्रीम": 2918,
      "जिलों": 2919,
      "परिसर": 2920,
      "भुग": 2921,
      "परियोजना": 2922,
      "साबित": 2923,
      "खोल": 2924,
      "धम": 2925,
      "मंजू": 2926,
      "मुश्किल": 2927,
      "तीश": 2928,
      "समारोह": 2929,
      "हड़": 2930,
      "सुपर": 2931,
      "जिसका": 2932,
      "अंक": 2933,
      "आवश्यक": 2934,
      "न्यायालय": 2935,
      "तकनी": 2936,
      "ंसी": 2937,
      "आउट": 2938,
      "यद": 2939,
      "दय": 2940,
      "संभा": 2941,
      "वेद": 2942,
      "कने": 2943,
      "टरी": 2944,
      "ण्ड": 2945,
      "संभव": 2946,
      "बनाई": 2947,
      "पटना": 2948,
      "पिक": 2949,
      "प्राथमिक": 2950,
      "इड": 2951,
      "पटेल": 2952,
      "गुजरात": 2953,
      "गीत": 2954,
      "पश्चिम": 2955,
      "रिकॉ": 2956,
      "भुगतान": 2957,
      "मुलाकात": 2958,
      "तैनात": 2959,
      "माने": 2960,
      "कर्मी": 2961,
      "जॉ": 2962,
      "मुकाबले": 2963,
      "ic": 2964,
      "गार": 2965,
      "मल": 2966,
      "मिशन": 2967,
      "क्षकों": 2968,
      "अल्": 2969,
      "हादसे": 2970,
      "Re": 2971,
      "घे": 2972,
      "सहायता": 2973,
      "िका": 2974,
      "शुभ": 2975,
      "आरोपित": 2976,
      "डु": 2977,
      "फाइनल": 2978,
      "डू": 2979,
      "आता": 2980,
      "बहा": 2981,
      "चौक": 2982,
      "र्न": 2983,
      "संर": 2984,
      "शानदार": 2985,
      "कोर": 2986,
      "लड़ा": 2987,
      "वनी": 2988,
      "तीनों": 2989,
      "जोड़": 2990,
      "स्वयं": 2991,
      "मगर": 2992,
      "ौल": 2993,
      "कोल": 2994,
      "रहेगी": 2995,
      "ब्ल": 2996,
      "चालन": 2997,
      "तलब": 2998,
      "शब्": 2999,
      "प्रबंधन": 3000,
      "बिग": 3001,
      "स्टार": 3002,
      "डॉलर": 3003,
      "99": 3004,
      "तभी": 3005,
      "प्रेम": 3006,
      "शर": 3007,
      "कानू": 3008,
      "नही": 3009,
      "पत": 3010,
      "वाहनों": 3011,
      "st": 3012,
      "रोकने": 3013,
      "फार्": 3014,
      "ब्रे": 3015,
      "क्षमता": 3016,
      "स्पष्ट": 3017,
      "रोज": 3018,
      "मोहन": 3019,
      "मिलकर": 3020,
      "जरूर": 3021,
      "उसमें": 3022,
      "उंड": 3023,
      "आपका": 3024,
      "लिम": 3025,
      "गाड़ी": 3026,
      "विषय": 3027,
      "it": 3028,
      "फैसले": 3029,
      "सत्ता": 3030,
      "देखकर": 3031,
      "पैदा": 3032,
      "बोल": 3033,
      "खार": 3034,
      "तू": 3035,
      "शौ": 3036,
      "प्रथम": 3037,
      "जिसकी": 3038,
      "ड्यू": 3039,
      "स्टी": 3040,
      "मृत": 3041,
      "ऑस्ट्रेलिया": 3042,
      "चुना": 3043,
      "ठाकुर": 3044,
      "पांडे": 3045,
      "आवास": 3046,
      "छत्": 3047,
      "इनके": 3048,
      "पाने": 3049,
      "पुल": 3050,
      "लड़की": 3051,
      "वही": 3052,
      "सार्": 3053,
      "रेश": 3054,
      "चुनौ": 3055,
      "प्रत्या": 3056,
      "न्होंने": 3057,
      "परेशानी": 3058,
      "नू": 3059,
      "जमकर": 3060,
      "देंगे": 3061,
      "यात": 3062,
      "शक": 3063,
      "मिलेगी": 3064,
      "संबो": 3065,
      "जानते": 3066,
      "le": 3067,
      "धिक": 3068,
      "गरीब": 3069,
      "क्रो": 3070,
      "इंडि": 3071,
      "अग्रवाल": 3072,
      "साहित": 3073,
      "मुकद": 3074,
      "90": 3075,
      "बाग": 3076,
      "संग": 3077,
      "बेच": 3078,
      "समूह": 3079,
      "एसटी": 3080,
      "प्रतियोग": 3081,
      "ंकन": 3082,
      "दारों": 3083,
      "अंतर्गत": 3084,
      "सपा": 3085,
      "शाला": 3086,
      "रिलीज": 3087,
      "कमेटी": 3088,
      "हिन्": 3089,
      "कृत": 3090,
      "तीसगढ़": 3091,
      "रिकॉर्ड": 3092,
      "म्प": 3093,
      "पत्ति": 3094,
      "मूल्य": 3095,
      "झारखंड": 3096,
      "जागर": 3097,
      "च्छ": 3098,
      "अफसर": 3099,
      "प्रत्येक": 3100,
      "मनी": 3101,
      "हल्": 3102,
      "मेरा": 3103,
      "मृतक": 3104,
      "मिश्रा": 3105,
      "यात्रियों": 3106,
      "पेट्रोल": 3107,
      "खड़े": 3108,
      "जर्": 3109,
      "र्जा": 3110,
      "पुरी": 3111,
      "बिल्": 3112,
      "चली": 3113,
      "बरा": 3114,
      "बीर": 3115,
      "बिक्री": 3116,
      "पड़ता": 3117,
      "कक्षा": 3118,
      "अजय": 3119,
      "मशी": 3120,
      "यण": 3121,
      "चिंता": 3122,
      "मूर्": 3123,
      "इंग्लैंड": 3124,
      "डें": 3125,
      "लॉन्": 3126,
      "ार्ड": 3127,
      "परं": 3128,
      "अपराध": 3129,
      "शंकर": 3130,
      "निर्धारित": 3131,
      "सिया": 3132,
      "ट्रक": 3133,
      "म्मद": 3134,
      "फसल": 3135,
      "नक": 3136,
      "ज़ा": 3137,
      "खुश": 3138,
      "इन्": 3139,
      "उपचार": 3140,
      "फू": 3141,
      "शुल्क": 3142,
      "मात्र": 3143,
      "पॉजि": 3144,
      "छत्तीसगढ़": 3145,
      "प्रार": 3146,
      "मास्क": 3147,
      "बाकी": 3148,
      "कोत": 3149,
      "चयन": 3150,
      "प्रचार": 3151,
      "मुद्दे": 3152,
      "लोड": 3153,
      "आवश्यकता": 3154,
      "वाना": 3155,
      "मेर": 3156,
      "लंबे": 3157,
      "हरि": 3158,
      "मुस्लिम": 3159,
      "खाना": 3160,
      "रावट": 3161,
      "विस्तार": 3162,
      "नु": 3163,
      "शू": 3164,
      "एजेंसी": 3165,
      "नती": 3166,
      "करनी": 3167,
      "होम": 3168,
      "पुन": 3169,
      "रखते": 3170,
      "टें": 3171,
      "गिरावट": 3172,
      "आनंद": 3173,
      "मकान": 3174,
      "माश": 3175,
      "तुर": 3176,
      "याण": 3177,
      "खाते": 3178,
      "इलाकों": 3179,
      "हरण": 3180,
      "मिलता": 3181,
      "तमाम": 3182,
      "डिग्री": 3183,
      "सैन": 3184,
      "काउंट": 3185,
      "आखिर": 3186,
      "जागरू": 3187,
      "अशोक": 3188,
      "ब्यू": 3189,
      "वेज": 3190,
      "जिनमें": 3191,
      "समाप्त": 3192,
      "त्ति": 3193,
      "पदों": 3194,
      "तीसरे": 3195,
      "वर्मा": 3196,
      "नॉ": 3197,
      "मानित": 3198,
      "ज्ञापन": 3199,
      "पहुंचने": 3200,
      "फॉर्म": 3201,
      "खुलासा": 3202,
      "कोहली": 3203,
      "सीटों": 3204,
      "75": 3205,
      "निभा": 3206,
      "कहानी": 3207,
      "आगा": 3208,
      "उतार": 3209,
      "ट्यू": 3210,
      "वैसे": 3211,
      "पन्न": 3212,
      "शित": 3213,
      "लक्ष्": 3214,
      "खिलाड़ियों": 3215,
      "मेश": 3216,
      "कल्याण": 3217,
      "लगने": 3218,
      "भागी": 3219,
      "ट्रो": 3220,
      "मंडी": 3221,
      "सहायक": 3222,
      "मला": 3223,
      "बदमाश": 3224,
      "युवाओं": 3225,
      "चिकित्सा": 3226,
      "तिवारी": 3227,
      "शास": 3228,
      "करार": 3229,
      "दर्द": 3230,
      "पैसा": 3231,
      "चौहान": 3232,
      "पड़ी": 3233,
      "्यता": 3234,
      "500": 3235,
      "विकल्प": 3236,
      "लगाकर": 3237,
      "स्वामी": 3238,
      "गतिविधि": 3239,
      "am": 3240,
      "कलेक्टर": 3241,
      "दाबाद": 3242,
      "सरा": 3243,
      "बचाव": 3244,
      "सक्रि": 3245,
      "लिस्ट": 3246,
      "सख्": 3247,
      "वासियों": 3248,
      "लेट": 3249,
      "रहेंगे": 3250,
      "बैठे": 3251,
      "इंद": 3252,
      "मंच": 3253,
      "वाने": 3254,
      "संस्थान": 3255,
      "हिमाचल": 3256,
      "अनिल": 3257,
      "पृ": 3258,
      "अंतरराष्ट्रीय": 3259,
      "चानक": 3260,
      "अचानक": 3261,
      "दबाव": 3262,
      "करि": 3263,
      "खाली": 3264,
      "वर्षों": 3265,
      "आपूर्ति": 3266,
      "फायदा": 3267,
      "दीन": 3268,
      "आतंकी": 3269,
      "तिथि": 3270,
      "उत्पादन": 3271,
      "शही": 3272,
      "धीरे": 3273,
      "नामा": 3274,
      "सर्व": 3275,
      "प्यार": 3276,
      "गुण": 3277,
      "लेना": 3278,
      "इंतजार": 3279,
      "बीमारी": 3280,
      "रुख": 3281,
      "शिक्षकों": 3282,
      "ुप": 3283,
      "गठबंधन": 3284,
      "जिम्मेदारी": 3285,
      "शीर्ष": 3286,
      "उड़ा": 3287,
      "राजा": 3288,
      "चलने": 3289,
      "वानी": 3290,
      "बाबा": 3291,
      "युद्ध": 3292,
      "नागरि": 3293,
      "सार्वज": 3294,
      "रखे": 3295,
      "निकों": 3296,
      "बीएस": 3297,
      "स्थानों": 3298,
      "छोटी": 3299,
      "उत": 3300,
      "सेक्टर": 3301,
      "ट्वि": 3302,
      "सारे": 3303,
      "समान": 3304,
      "2017": 3305,
      "सार्वजनिक": 3306,
      "रुण": 3307,
      "सूस": 3308,
      "फिल्मों": 3309,
      "हिंसा": 3310,
      "मर्": 3311,
      "।\"": 3312,
      "आईटी": 3313,
      "फरार": 3314,
      "अक्ष": 3315,
      "आश्": 3316,
      "अवधि": 3317,
      "कालीन": 3318,
      "वेतन": 3319,
      "रजि": 3320,
      "निप": 3321,
      "डेट": 3322,
      "रैली": 3323,
      "हेल्": 3324,
      "सालों": 3325,
      "शिकार": 3326,
      "पुरस्कार": 3327,
      "बचाने": 3328,
      "मच": 3329,
      "पान": 3330,
      "बीमार": 3331,
      "संवाददाता": 3332,
      "विवे": 3333,
      "मोहम्मद": 3334,
      "गौरतलब": 3335,
      "तोष": 3336,
      "पहल": 3337,
      "उनको": 3338,
      "मानव": 3339,
      "यंका": 3340,
      "नियमित": 3341,
      "विदेशी": 3342,
      "घन": 3343,
      "वती": 3344,
      "हवा": 3345,
      "स्वागत": 3346,
      "सुनिश्चित": 3347,
      "रखें": 3348,
      "लौट": 3349,
      "प्रतियोगिता": 3350,
      "इन्हें": 3351,
      "खों": 3352,
      "चीनी": 3353,
      "वैज्ञा": 3354,
      "गज": 3355,
      "रहें": 3356,
      "रोहित": 3357,
      "प्रियंका": 3358,
      "ंदी": 3359,
      "स्त्र": 3360,
      "वितरण": 3361,
      "श्न": 3362,
      "संघर्ष": 3363,
      "इयों": 3364,
      "हालात": 3365,
      "कृति": 3366,
      "सौं": 3367,
      "टीकाकरण": 3368,
      "पॉजिटिव": 3369,
      "सर्वे": 3370,
      "आदमी": 3371,
      "धार्": 3372,
      "संस्कृ": 3373,
      "शिप": 3374,
      "सोने": 3375,
      "कॉल": 3376,
      "निरीक्षण": 3377,
      "नाक": 3378,
      "कार्यकर्ता": 3379,
      "शॉ": 3380,
      "गेट": 3381,
      "re": 3382,
      "घू": 3383,
      "बहन": 3384,
      "प्रबंध": 3385,
      "ग्रुप": 3386,
      "जैसा": 3387,
      "ion": 3388,
      "संबोधित": 3389,
      "एशन": 3390,
      "समीक्षा": 3391,
      "आजा": 3392,
      "किरा": 3393,
      "प्रमाण": 3394,
      "संसद": 3395,
      "हिर": 3396,
      "महसूस": 3397,
      "नोटिस": 3398,
      "नियंत्रण": 3399,
      "पढ़ाई": 3400,
      "प्रशिक्षण": 3401,
      "नियमों": 3402,
      "इले": 3403,
      "गन": 3404,
      "सहार": 3405,
      "कार्यों": 3406,
      "अंदा": 3407,
      "भीतर": 3408,
      "कठ": 3409,
      "घरे": 3410,
      "वास्तव": 3411,
      "सुख": 3412,
      "आत्": 3413,
      "प्रस्तु": 3414,
      "विज्ञान": 3415,
      "द्वार": 3416,
      "रूम": 3417,
      "जिन्हें": 3418,
      "स्वतंत्र": 3419,
      "विमान": 3420,
      "बेड": 3421,
      "सीबीआई": 3422,
      "आदित्य": 3423,
      "मेह": 3424,
      "हफ्": 3425,
      "क्यू": 3426,
      "अरब": 3427,
      "तुरंत": 3428,
      "स्पि": 3429,
      "पूछा": 3430,
      "टेन": 3431,
      "धार्मिक": 3432,
      "टियों": 3433,
      "जवान": 3434,
      "नाराज": 3435,
      "किलोमीटर": 3436,
      "क्का": 3437,
      "विराट": 3438,
      "वायु": 3439,
      "प्रताप": 3440,
      "मात्रा": 3441,
      "ंची": 3442,
      "लाइट": 3443,
      "तें": 3444,
      "मुक्त": 3445,
      "तुलना": 3446,
      "गांवों": 3447,
      "ट्रांस": 3448,
      "Ne": 3449,
      "मारपीट": 3450,
      "योजनाओं": 3451,
      "भरो": 3452,
      "चाहता": 3453,
      "निर्वा": 3454,
      "इतनी": 3455,
      "पुराने": 3456,
      "वधान": 3457,
      "छूट": 3458,
      "टका": 3459,
      "रास्ते": 3460,
      "भोजन": 3461,
      "होनी": 3462,
      "देती": 3463,
      "कथ": 3464,
      "बान": 3465,
      "पंजी": 3466,
      "वर्क": 3467,
      "तापमान": 3468,
      "आकर": 3469,
      "नवा": 3470,
      "लाना": 3471,
      "34": 3472,
      "नाटक": 3473,
      "सिस्टम": 3474,
      "भक्त": 3475,
      "सेल": 3476,
      "ार्थी": 3477,
      "पात": 3478,
      "ट्रेस": 3479,
      "राकेश": 3480,
      "मैने": 3481,
      "गैस": 3482,
      "नम": 3483,
      "सॉ": 3484,
      "द्रा": 3485,
      "वकी": 3486,
      "अधीक्षक": 3487,
      "कोतवाली": 3488,
      "युक्ति": 3489,
      "कवि": 3490,
      "स्पी": 3491,
      "हिरा": 3492,
      "वहार": 3493,
      "वर्ण": 3494,
      "चिकित्सक": 3495,
      "उधर": 3496,
      "केजरी": 3497,
      "वेट": 3498,
      "सबुक": 3499,
      "रोध": 3500,
      "राजेश": 3501,
      "दूध": 3502,
      "र्डर": 3503,
      "सकेंगे": 3504,
      "किर": 3505,
      "बल्लेबाज": 3506,
      "होटल": 3507,
      "मौजू": 3508,
      "जुड़ी": 3509,
      "ग्रहण": 3510,
      "उतर": 3511,
      "आरपी": 3512,
      "36": 3513,
      "जागरण": 3514,
      "मशीन": 3515,
      "आसान": 3516,
      "पीठ": 3517,
      "कमल": 3518,
      "हिस्से": 3519,
      "मौजूदा": 3520,
      "केजरीवाल": 3521,
      "जिंदगी": 3522,
      "मंत्र": 3523,
      "वर्तन": 3524,
      "एक्सप्रेस": 3525,
      "हार्": 3526,
      "कैं": 3527,
      "बोले": 3528,
      "मंजूरी": 3529,
      "प्रखंड": 3530,
      "ंडर": 3531,
      "लूट": 3532,
      "इंदौर": 3533,
      "घरेलू": 3534,
      "टिक": 3535,
      "उल्लेख": 3536,
      "ेंड": 3537,
      "प्रवक्ता": 3538,
      "डीए": 3539,
      "उद्देश": 3540,
      "तल": 3541,
      "पशु": 3542,
      "हथि": 3543,
      "कानों": 3544,
      "कियों": 3545,
      "बैं": 3546,
      "काउं": 3547,
      "जिन्होंने": 3548,
      "समझौ": 3549,
      "रीन": 3550,
      "नियां": 3551,
      "मनाया": 3552,
      "गाने": 3553,
      "संचालन": 3554,
      "्याज": 3555,
      "आधारित": 3556,
      "इका": 3557,
      "उठ": 3558,
      "न्द": 3559,
      "खुल": 3560,
      "हाईकोर्ट": 3561,
      "नवी": 3562,
      "सहम": 3563,
      "सेज": 3564,
      "माइ": 3565,
      "पुष्टि": 3566,
      "विल": 3567,
      "गईं": 3568,
      "टॉप": 3569,
      "आखिरी": 3570,
      "चुनौती": 3571,
      "दस्ता": 3572,
      "टीएम": 3573,
      "वहन": 3574,
      "2014": 3575,
      "सड़कों": 3576,
      "प्लान": 3577,
      "मूर्ति": 3578,
      "आत्म": 3579,
      "जर्स": 3580,
      "सेट": 3581,
      "मुख्यालय": 3582,
      "लाखों": 3583,
      "संबंधी": 3584,
      "''": 3585,
      "हाउस": 3586,
      "सीधे": 3587,
      "मतलब": 3588,
      "चेता": 3589,
      "कब": 3590,
      "लयों": 3591,
      "श्रम": 3592,
      "सुनील": 3593,
      "समझा": 3594,
      "दुर्घटना": 3595,
      "खड़ा": 3596,
      "टाई": 3597,
      "कॉन्": 3598,
      "हाथों": 3599,
      "अमर": 3600,
      "व्र": 3601,
      "घुस": 3602,
      "मुकदमा": 3603,
      "सक्रिय": 3604,
      "कोच": 3605,
      "ष्टा": 3606,
      "सामग्री": 3607,
      "शायद": 3608,
      "मिलती": 3609,
      "काता": 3610,
      "संपत्ति": 3611,
      "महिलाएं": 3612,
      "तनाव": 3613,
      "मंद": 3614,
      "्त": 3615,
      "शंका": 3616,
      "‍ह": 3617,
      "आईपीएल": 3618,
      "as": 3619,
      "2016": 3620,
      "समस्याओं": 3621,
      "टिप्": 3622,
      "सूरत": 3623,
      "हमारा": 3624,
      "चाहती": 3625,
      "हथियार": 3626,
      "ऑपरे": 3627,
      "प्रिय": 3628,
      "आवाज": 3629,
      "सानी": 3630,
      "नियुक्ति": 3631,
      "मानना": 3632,
      "मिलना": 3633,
      "उपभो": 3634,
      "मनोज": 3635,
      "एसो": 3636,
      "ताला": 3637,
      "विर": 3638,
      "बाई": 3639,
      "पढ़े": 3640,
      "ंव": 3641,
      "वसू": 3642,
      "बढ़ने": 3643,
      "सम्मानित": 3644,
      "रिश्ते": 3645,
      "काट": 3646,
      "पार्क": 3647,
      "स्वीकार": 3648,
      "32": 3649,
      "जनक": 3650,
      "दुष्": 3651,
      "उद्देश्य": 3652,
      "लियन": 3653,
      "दीपक": 3654,
      "भारती": 3655,
      "कोलकाता": 3656,
      "झू": 3657,
      "फ्रा": 3658,
      "मश": 3659,
      "हिंदू": 3660,
      "षित": 3661,
      "संगठ": 3662,
      "मोर्": 3663,
      "पर्व": 3664,
      "श्रद्धालु": 3665,
      "निशाना": 3666,
      "id": 3667,
      "जंग": 3668,
      "लॉन्च": 3669,
      "स्थापना": 3670,
      "55": 3671,
      "is": 3672,
      "खतरा": 3673,
      "हंगा": 3674,
      "ज्यो": 3675,
      "मिता": 3676,
      "199": 3677,
      "ड्राइ": 3678,
      "अंग्रे": 3679,
      "फेसबुक": 3680,
      "फं": 3681,
      "इंजी": 3682,
      "समाधान": 3683,
      "लड़ाई": 3684,
      "48": 3685,
      "अखि": 3686,
      "रें": 3687,
      "नेक": 3688,
      "एसडीएम": 3689,
      "स्टेट": 3690,
      "युवती": 3691,
      "तत्काल": 3692,
      "अध्य": 3693,
      "पालिका": 3694,
      "डियम": 3695,
      "मैचों": 3696,
      "खुशी": 3697,
      "प्लेट": 3698,
      "फें": 3699,
      "वित्": 3700,
      "....": 3701,
      "चार्ज": 3702,
      "सीजन": 3703,
      "संदेश": 3704,
      "अनुभव": 3705,
      "अखिलेश": 3706,
      "जताई": 3707,
      "अन्": 3708,
      "्यु": 3709,
      "रखना": 3710,
      "ज्ञात": 3711,
      "उत्पाद": 3712,
      "भरा": 3713,
      "यकों": 3714,
      "वापसी": 3715,
      "33": 3716,
      "लाश": 3717,
      "पहन": 3718,
      "इस्ला": 3719,
      "उपाध्यक्ष": 3720,
      "हिरासत": 3721,
      "बादी": 3722,
      "जनपद": 3723,
      "सूर्य": 3724,
      "हेतु": 3725,
      "स्वस्थ": 3726,
      "शर्": 3727,
      "विशेषज्ञ": 3728,
      "दिक्": 3729,
      "जाएं": 3730,
      "माहौल": 3731,
      "अक्सर": 3732,
      "ट्विटर": 3733,
      "हफ्ते": 3734,
      "अरवि": 3735,
      "साई": 3736,
      "लोनी": 3737,
      "इंडियन": 3738,
      "र्ग": 3739,
      "संत": 3740,
      "जेक्ट": 3741,
      "छात्राओं": 3742,
      "एसोसि": 3743,
      "टों": 3744,
      "वेस्ट": 3745,
      "चौकी": 3746,
      "क्ला": 3747,
      "चित्र": 3748,
      "निष्": 3749,
      "फान": 3750,
      "पत्रकार": 3751,
      "मृत्य": 3752,
      "धमकी": 3753,
      "नीतीश": 3754,
      "उनमें": 3755,
      "जयपुर": 3756,
      "सर्वि": 3757,
      "टक्कर": 3758,
      "बाढ़": 3759,
      "एक्ट्रेस": 3760,
      "वार्ता": 3761,
      "कोट": 3762,
      "मिलते": 3763,
      "ल्‍": 3764,
      "बांग्": 3765,
      "बातें": 3766,
      "ing": 3767,
      "पहा": 3768,
      "बद्ध": 3769,
      "साथी": 3770,
      "संके": 3771,
      "प्राइ": 3772,
      "ण्": 3773,
      "दलों": 3774,
      "मृत्यु": 3775,
      "एंगे": 3776,
      "ऑक्सी": 3777,
      "नय": 3778,
      "फर्जी": 3779,
      "रहीं": 3780,
      "ur": 3781,
      "संशो": 3782,
      "परीक्षण": 3783,
      "मॉडल": 3784,
      "लपुर": 3785,
      "निरा": 3786,
      "दौरे": 3787,
      "सम्मेल": 3788,
      "अफगा": 3789,
      "प्रत्याशी": 3790,
      "केदार": 3791,
      "सागर": 3792,
      "आशंका": 3793,
      "चाई": 3794,
      "टैक्स": 3795,
      "पर्यावरण": 3796,
      "श्या": 3797,
      "निधन": 3798,
      "गुजर": 3799,
      "लेंस": 3800,
      "रायपुर": 3801,
      "विकसित": 3802,
      "कन": 3803,
      "डिजि": 3804,
      "इनकी": 3805,
      "पियन": 3806,
      "गिरफ्तारी": 3807,
      "किशोर": 3808,
      "नक्स": 3809,
      "सका": 3810,
      "सदर": 3811,
      "Read": 3812,
      "आगामी": 3813,
      "ch": 3814,
      "दरा": 3815,
      "कानपुर": 3816,
      "अथ": 3817,
      "चालित": 3818,
      "हराया": 3819,
      "अश्": 3820,
      "मधु": 3821,
      "यंस": 3822,
      "व्यवहार": 3823,
      "शहीद": 3824,
      "चेतावनी": 3825,
      "ैंड": 3826,
      "राजीव": 3827,
      "डीजल": 3828,
      "कर्ता": 3829,
      "आसानी": 3830,
      "सत्य": 3831,
      "मानी": 3832,
      "एसएस": 3833,
      "रंजन": 3834,
      "यूरो": 3835,
      "जवानों": 3836,
      "अभिने": 3837,
      "नागरिक": 3838,
      "आईए": 3839,
      "नारायण": 3840,
      "ज्योति": 3841,
      "एप": 3842,
      "प्रसार": 3843,
      "अब्": 3844,
      "बढ़कर": 3845,
      "अध्यक्षता": 3846,
      "स्ना": 3847,
      "िंग": 3848,
      "ब्लॉक": 3849,
      "शहरों": 3850,
      "ऑफिस": 3851,
      "ay": 3852,
      "सेवन": 3853,
      "लादेश": 3854,
      "साब": 3855,
      "हिक": 3856,
      "द्द": 3857,
      "यूनिवर्": 3858,
      "कथित": 3859,
      "यहाँ": 3860,
      "लेन": 3861,
      "दौड़": 3862,
      "ज़र": 3863,
      "वैश्": 3864,
      "स्तानी": 3865,
      "ट्रंप": 3866,
      "जुट": 3867,
      "सम्मेलन": 3868,
      "गोल": 3869,
      "चक्र": 3870,
      "केरल": 3871,
      "साध": 3872,
      "अभिनेता": 3873,
      "विद्यार्थियों": 3874,
      "फंड": 3875,
      "लापर": 3876,
      "वालि": 3877,
      "संतोष": 3878,
      "शूटिंग": 3879,
      "बैंकों": 3880,
      "जुन": 3881,
      "ऊर्जा": 3882,
      "ऑटो": 3883,
      "उठाया": 3884,
      "समुदाय": 3885,
      "ढ़े": 3886,
      "जबर": 3887,
      "राग": 3888,
      "चाहे": 3889,
      "म्बर": 3890,
      "लंबी": 3891,
      "38": 3892,
      "टिया": 3893,
      "किनारे": 3894,
      "सारा": 3895,
      "उदा": 3896,
      "फैंस": 3897,
      "स्मार्टफोन": 3898,
      "आशी": 3899,
      "रवाना": 3900,
      "अंजाम": 3901,
      "दृष्टि": 3902,
      "अंग": 3903,
      "नतम": 3904,
      "बत": 3905,
      "राजस्व": 3906,
      "लागत": 3907,
      "चेक": 3908,
      "पदाधिकारी": 3909,
      "जोन": 3910,
      "चारों": 3911,
      "विरोधी": 3912,
      "स्टाफ": 3913,
      "इक": 3914,
      "राइ": 3915,
      "मारे": 3916,
      "वित्तीय": 3917,
      "दाताओं": 3918,
      "ग्राहकों": 3919,
      "इधर": 3920,
      "उक्त": 3921,
      "डीपी": 3922,
      "निर्भर": 3923,
      "कॉम": 3924,
      "65": 3925,
      "बें": 3926,
      "वारदा": 3927,
      "सीय": 3928,
      "वर्ल्ड": 3929,
      "व्यू": 3930,
      ".’": 3931,
      "यात्री": 3932,
      "खुले": 3933,
      "फुट": 3934,
      "धियों": 3935,
      "त्रीय": 3936,
      "उन्‍ह": 3937,
      "अयो": 3938,
      "ढे": 3939,
      "गर्मी": 3940,
      "शाखा": 3941,
      "स्टू": 3942,
      "वैश्विक": 3943,
      "स्टॉ": 3944,
      "गोरख": 3945,
      "ome": 3946,
      "जायेगा": 3947,
      "अध्या": 3948,
      "कमि": 3949,
      "ष्य": 3950,
      "गाना": 3951,
      "च्छा": 3952,
      "योगदान": 3953,
      "पुरानी": 3954,
      "छोड़कर": 3955,
      "डीसी": 3956,
      "अध्ययन": 3957,
      "अकाउंट": 3958,
      "र्ना": 3959,
      "रणनीति": 3960,
      "हटाने": 3961,
      "उम्मीदवारों": 3962,
      "In": 3963,
      "सिविल": 3964,
      "सर्च": 3965,
      "निगरानी": 3966,
      "गेंदबाज": 3967,
      "हारी": 3968,
      "झु": 3969,
      "ढ़ी": 3970,
      "बच्ची": 3971,
      "रोह": 3972,
      "कमरे": 3973,
      "इंटरनेट": 3974,
      "डायरे": 3975,
      "उचित": 3976,
      "बेहत": 3977,
      "बुल": 3978,
      "खेती": 3979,
      "चुनावी": 3980,
      "उर्फ": 3981,
      "कालेज": 3982,
      "पड़ो": 3983,
      "धिकारियों": 3984,
      "करियर": 3985,
      "दै": 3986,
      "स्क्री": 3987,
      "विवाह": 3988,
      "37": 3989,
      "Al": 3990,
      "खला": 3991,
      "बांग्लादेश": 3992,
      "आयुक्त": 3993,
      "देखी": 3994,
      "आना": 3995,
      "क्ट्र": 3996,
      "धीश": 3997,
      "शोध": 3998,
      "घट": 3999,
      "रात्रि": 4000,
      "आपने": 4001,
      "परिवर्तन": 4002,
      "चलाने": 4003,
      "इस्ती": 4004,
      "मार्टम": 4005,
      "अहमद": 4006,
      "एसोसिएशन": 4007,
      "डिजिटल": 4008,
      "डीओ": 4009,
      "ममता": 4010,
      "‍या": 4011,
      "राज्यपाल": 4012,
      "सुंदर": 4013,
      "केंद्रों": 4014,
      "नेश": 4015,
      "सेल्": 4016,
      "ws": 4017,
      "कहां": 4018,
      "पड़ेगा": 4019,
      "कारात्मक": 4020,
      "ंती": 4021,
      "प्रणा": 4022,
      "संदिग्": 4023,
      "द्वि": 4024,
      "अनिवार": 4025,
      "आकर्": 4026,
      "लन": 4027,
      "रावत": 4028,
      "अयोध्या": 4029,
      "यस": 4030,
      "बढ़ो": 4031,
      "देखें": 4032,
      "हजारों": 4033,
      "इजा": 4034,
      "रीय": 4035,
      "शिविर": 4036,
      "रेज": 4037,
      "दुल": 4038,
      "श्रेणी": 4039,
      "अनेक": 4040,
      "मस्": 4041,
      "षेक": 4042,
      "प्रका": 4043,
      "शाल": 4044,
      "ol": 4045,
      "ऐप": 4046,
      "िज": 4047,
      "दोबारा": 4048,
      "ष्टाचार": 4049,
      "वस्तु": 4050,
      "प्रदू": 4051,
      "अभिनेत्री": 4052,
      "एशिया": 4053,
      "पैर": 4054,
      "ड्स": 4055,
      "us": 4056,
      "बधा": 4057,
      "मानों": 4058,
      "डिस्": 4059,
      "रियल": 4060,
      "हिसाब": 4061,
      "खाद्य": 4062,
      "खेत": 4063,
      "निकले": 4064,
      "न्यूज": 4065,
      "परिवहन": 4066,
      "ra": 4067,
      "कांड": 4068,
      "2015": 4069,
      "लंका": 4070,
      "अस्पतालों": 4071,
      "यूनिवर्सिटी": 4072,
      "चय": 4073,
      "जमान": 4074,
      "सच": 4075,
      "सेक्स": 4076,
      "फिया": 4077,
      "जनरल": 4078,
      "मोटर": 4079,
      "मचा": 4080,
      "लम": 4081,
      "रेखा": 4082,
      "स्वरूप": 4083,
      "पोस्टमार्टम": 4084,
      "शब्द": 4085,
      "लुक": 4086,
      "ज़ि": 4087,
      "रस": 4088,
      "प्रती": 4089,
      "लापरवाही": 4090,
      "जिम्मेदार": 4091,
      "संदिग्ध": 4092,
      "आधिकार": 4093,
      "संचालित": 4094,
      "ंदन": 4095,
      "बढ़े": 4096,
      "ब्ला": 4097,
      "वकील": 4098,
      "44": 4099,
      "फूल": 4100,
      "ोर": 4101,
      "विधायकों": 4102,
      "ऐलान": 4103,
      "हैया": 4104,
      "सुझा": 4105,
      "एनएस": 4106,
      "जल्दी": 4107,
      "आधिकारिक": 4108,
      "असम": 4109,
      "मती": 4110,
      "लहर": 4111,
      "कैंप": 4112,
      "हद": 4113,
      "हाइ": 4114,
      "रोल": 4115,
      "दित": 4116,
      "गाँ": 4117,
      "जिद": 4118,
      "डिजा": 4119,
      "स्तरीय": 4120,
      "स्टेडियम": 4121,
      "तस्वीरें": 4122,
      "विद्यु": 4123,
      "माया": 4124,
      "पेड़": 4125,
      "दुकानों": 4126,
      "आगरा": 4127,
      "अरविंद": 4128,
      "आबादी": 4129,
      "जला": 4130,
      "बेहतरीन": 4131,
      "जोशी": 4132,
      "लोन": 4133,
      "खोज": 4134,
      "नेह": 4135,
      "नेपाल": 4136,
      "मध्यप्रदेश": 4137,
      "दिवसीय": 4138,
      "नामांकन": 4139,
      "गार्ड": 4140,
      "धाम": 4141,
      "व्यक्त": 4142,
      "कानूनी": 4143,
      "हट": 4144,
      "बढ़ते": 4145,
      "थु": 4146,
      "मालिक": 4147,
      "उपकरण": 4148,
      "थोड़ा": 4149,
      "ir": 4150,
      "रद्द": 4151,
      "सौर": 4152,
      "पावर": 4153,
      "क्की": 4154,
      "लिहा": 4155,
      "णे": 4156,
      "भले": 4157,
      "हवाई": 4158,
      "मुना": 4159,
      "कराए": 4160,
      "चुनावों": 4161,
      "आये": 4162,
      "दस्त": 4163,
      "दाखिल": 4164,
      "गणना": 4165,
      "भ्रष्टाचार": 4166,
      "वली": 4167,
      "पीने": 4168,
      "मेहन": 4169,
      "प्रतिबंध": 4170,
      "सकें": 4171,
      "पीड़िता": 4172,
      "राशन": 4173,
      "संगीत": 4174,
      "ृत": 4175,
      "रहना": 4176,
      "डॉक्टरों": 4177,
      "धोनी": 4178,
      "प्रणाली": 4179,
      "47": 4180,
      "ौती": 4181,
      "साझा": 4182,
      "कर्ज": 4183,
      "्यूटर": 4184,
      "जिनके": 4185,
      "Home": 4186,
      "छापे": 4187,
      "मांगी": 4188,
      "कूल": 4189,
      "नपुर": 4190,
      "पट": 4191,
      "जगहों": 4192,
      "ज्यादातर": 4193,
      "फ़ि": 4194,
      "et": 4195,
      "निस्तान": 4196,
      "शाली": 4197,
      "चेहरे": 4198,
      "एयरपोर्ट": 4199,
      "ऑक्सीजन": 4200,
      "फार": 4201,
      "वाड़ा": 4202,
      "एससी": 4203,
      "कमजोर": 4204,
      "संविधान": 4205,
      "चौरा": 4206,
      "पांडेय": 4207,
      "भरोसा": 4208,
      "त्सव": 4209,
      "बढ़ती": 4210,
      "चेयर": 4211,
      "नार": 4212,
      "नारे": 4213,
      "ोग्रा": 4214,
      "बैक": 4215,
      "फ्तार": 4216,
      "साइकिल": 4217,
      "सख्त": 4218,
      "ुमान": 4219,
      "क्के": 4220,
      "रुद्ध": 4221,
      "दून": 4222,
      "लियां": 4223,
      "संस्कृति": 4224,
      "ँच": 4225,
      "कपड़े": 4226,
      "तारीख": 4227,
      "स्पेशल": 4228,
      "लक्ष्मी": 4229,
      "अफ्री": 4230,
      "डब्ल": 4231,
      "रास्ता": 4232,
      "दिक": 4233,
      "लीटर": 4234,
      "बीमा": 4235,
      "आईआर": 4236,
      "अभ्य": 4237,
      "बांध": 4238,
      "गतिविधियों": 4239,
      "el": 4240,
      "चंडी": 4241,
      "निए": 4242,
      "अनुमान": 4243,
      "टूट": 4244,
      "चैं": 4245,
      "दोस्तों": 4246,
      "पब्": 4247,
      "लिमि": 4248,
      "रेन्द्र": 4249,
      "प्रतिक्रिया": 4250,
      "चलता": 4251,
      "पार्ट": 4252,
      "किरदार": 4253,
      "ंजी": 4254,
      "णसी": 4255,
      "शख्": 4256,
      "करवाया": 4257,
      "विवा": 4258,
      "आईसी": 4259,
      "व्यापारी": 4260,
      "नागरिकों": 4261,
      "एसी": 4262,
      "मय": 4263,
      "पीसी": 4264,
      "खेलने": 4265,
      "अर्थव्यवस्था": 4266,
      "पेंशन": 4267,
      "विजे": 4268,
      "बाला": 4269,
      "त्कार": 4270,
      "अधिकां": 4271,
      "सचिन": 4272,
      "वाराणसी": 4273,
      "सनी": 4274,
      "गोपाल": 4275,
      "प्रोजेक्ट": 4276,
      "कर्नाटक": 4277,
      "किट": 4278,
      "अधिनियम": 4279,
      "198": 4280,
      "अक्षय": 4281,
      "चक": 4282,
      "सफर": 4283,
      "महज": 4284,
      "मनु": 4285,
      "लंबित": 4286,
      "ड्यूटी": 4287,
      "शारी": 4288,
      "।”": 4289,
      "स्त्री": 4290,
      "प्रश्न": 4291,
      "न्हा": 4292,
      "टेक": 4293,
      "सूचित": 4294,
      "एंटी": 4295,
      "थर": 4296,
      "रक्त": 4297,
      "रमेश": 4298,
      "साढ़े": 4299,
      "सीन": 4300,
      "पूजन": 4301,
      "पर्यटन": 4302,
      "हंगामा": 4303,
      "अके": 4304,
      "तहरी": 4305,
      "मद्": 4306,
      "डेढ़": 4307,
      "जिलाधिकारी": 4308,
      "गह": 4309,
      "विवि": 4310,
      "दौरा": 4311,
      "बधाई": 4312,
      "पंड": 4313,
      "भट्": 4314,
      "खेले": 4315,
      "इतने": 4316,
      "अनिवार्य": 4317,
      "हड़ताल": 4318,
      "दुष्कर्म": 4319,
      "डब्ल्यू": 4320,
      "il": 4321,
      "अना": 4322,
      "नियुक्त": 4323,
      "भाग्य": 4324,
      "श्रीलंका": 4325,
      "कितना": 4326,
      "।’’": 4327,
      "शारीरिक": 4328,
      "ot": 4329,
      "देगा": 4330,
      "जिया": 4331,
      "सूत्र": 4332,
      "सहयोगी": 4333,
      "तीसरी": 4334,
      "कामना": 4335,
      "प्रोफे": 4336,
      "प्रस्तुत": 4337,
      "46": 4338,
      "un": 4339,
      "जंगल": 4340,
      "सली": 4341,
      "क्ताओं": 4342,
      "खरीदने": 4343,
      "मजदूरों": 4344,
      "सहमति": 4345,
      "संगठनों": 4346,
      "कस": 4347,
      "गड़": 4348,
      "शतक": 4349,
      "किताब": 4350,
      "वाइ": 4351,
      "ग्रस्त": 4352,
      "कामया": 4353,
      "धारण": 4354,
      "तुम": 4355,
      "चोट": 4356,
      "मुकाबला": 4357,
      "श्याम": 4358,
      "न्व": 4359,
      "जात": 4360,
      "चेन्": 4361,
      "सीटें": 4362,
      "गणेश": 4363,
      "ईओ": 4364,
      "तः": 4365,
      "दिये": 4366,
      "शियों": 4367,
      "कैप्": 4368,
      "महासचिव": 4369,
      "पृथ": 4370,
      "अधिकांश": 4371,
      "बम": 4372,
      "मल्": 4373,
      "टीन": 4374,
      "पूत": 4375,
      "खत": 4376,
      "बरे": 4377,
      "निर": 4378,
      "49": 4379,
      "कार्यवाही": 4380,
      "नईदुनिया": 4381,
      "जीतने": 4382,
      "पर्याप्त": 4383,
      "रफ्तार": 4384,
      "सकी": 4385,
      "नेस": 4386,
      "वासन": 4387,
      "सिलसि": 4388,
      "लिखित": 4389,
      "सब्जी": 4390,
      "संरक्षण": 4391,
      "कस्": 4392,
      "प्ति": 4393,
      "वनडे": 4394,
      "मेहनत": 4395,
      "जीएसटी": 4396,
      "फिक": 4397,
      "लंघन": 4398,
      "जमानत": 4399,
      "39": 4400,
      "खड़ी": 4401,
      "परिस्थिति": 4402,
      "महंगा": 4403,
      "संकेत": 4404,
      "लेंगे": 4405,
      "सेव": 4406,
      "विदा": 4407,
      "फीस": 4408,
      "न्यायाधीश": 4409,
      "हैदरा": 4410,
      "पात्र": 4411,
      "टेली": 4412,
      "व्यापारियों": 4413,
      "कब्जे": 4414,
      "सुझाव": 4415,
      "जिसने": 4416,
      "दिक्कत": 4417,
      "वारदात": 4418,
      "जब्त": 4419,
      "डाला": 4420,
      "जुर्मा": 4421,
      "पाकिस्तानी": 4422,
      "विद्युत": 4423,
      "हैदराबाद": 4424,
      "साधन": 4425,
      "होंगी": 4426,
      "निकाला": 4427,
      "चढ़ा": 4428,
      "अफसरों": 4429,
      "गोरखपुर": 4430,
      "प्रदूषण": 4431,
      "टूर्ना": 4432,
      "दिखाया": 4433,
      "उदाहरण": 4434,
      "आलो": 4435,
      "मुद्रा": 4436,
      "मानसिक": 4437,
      "चपेट": 4438,
      "नज": 4439,
      "काने": 4440,
      "जाहिर": 4441,
      "कंट्रोल": 4442,
      "बिनेट": 4443,
      "बताई": 4444,
      "पूर्वी": 4445,
      "पदार्थ": 4446,
      "ट्रैक्टर": 4447,
      "क्लब": 4448,
      "सैक": 4449,
      "पकड़ा": 4450,
      "किमी": 4451,
      "लेशन": 4452,
      "दावे": 4453,
      "एक्ट": 4454,
      "अज्ञात": 4455,
      "बल्लेबाजी": 4456,
      "ंटा": 4457,
      "गम": 4458,
      "सोना": 4459,
      "दरवा": 4460,
      "क्षम": 4461,
      "लगाते": 4462,
      "पेय": 4463,
      "चलाया": 4464,
      "परंपरा": 4465,
      "तहरीर": 4466,
      "टूर्नामेंट": 4467,
      "भूल": 4468,
      "महो": 4469,
      "स्कोर": 4470,
      "मार्केट": 4471,
      "साइड": 4472,
      "मुंह": 4473,
      "फार्म": 4474,
      "घूम": 4475,
      "इश": 4476,
      "सुशांत": 4477,
      "पहुंचकर": 4478,
      "सैंप": 4479,
      "सौंप": 4480,
      "दर्शकों": 4481,
      "निरीक्षक": 4482,
      "गौतम": 4483,
      "आदित्यनाथ": 4484,
      "देखना": 4485,
      "चैनल": 4486,
      "प्राइवेट": 4487,
      "मरे": 4488,
      "लिग": 4489,
      "प्रकरण": 4490,
      "मांड": 4491,
      "तिर": 4492,
      "क्षेत्रीय": 4493,
      "इंट": 4494,
      "समाचार": 4495,
      "बदमाशों": 4496,
      "so": 4497,
      "शपथ": 4498,
      "बेटा": 4499,
      "पिल": 4500,
      "बनाना": 4501,
      "बुजु": 4502,
      "परिवारों": 4503,
      "अर्जुन": 4504,
      "तकनीकी": 4505,
      "फ्यू": 4506,
      "षक": 4507,
      "वाणी": 4508,
      "त्मा": 4509,
      "टेक्": 4510,
      "कैबिनेट": 4511,
      "समाजवा": 4512,
      "गुस्": 4513,
      "इकाई": 4514,
      "चेन्नई": 4515,
      "भरी": 4516,
      "कांत": 4517,
      "जानी": 4518,
      "प्रमो": 4519,
      "कुश": 4520,
      "घाटन": 4521,
      "कब्जा": 4522,
      "वैज्ञानिक": 4523,
      "निर्वाचन": 4524,
      "पने": 4525,
      "्यास": 4526,
      "ज़ी": 4527,
      "जयंती": 4528,
      "मुद्दों": 4529,
      "मनीष": 4530,
      "सैन्य": 4531,
      "ct": 4532,
      "संस्कार": 4533,
      "दर्जन": 4534,
      "बुरी": 4535,
      "खेला": 4536,
      "छू": 4537,
      "बानी": 4538,
      "देह": 4539,
      "गुला": 4540,
      "कुमारी": 4541,
      "इंडस्ट्री": 4542,
      "मोर्चा": 4543,
      "कथा": 4544,
      "गर्म": 4545,
      "फर्": 4546,
      "जानिए": 4547,
      "विशाल": 4548,
      "जिश": 4549,
      "भाष": 4550,
      "शिमला": 4551,
      "परिजन": 4552,
      "गुना": 4553,
      "भूषण": 4554,
      "ंटों": 4555,
      "लाइफ": 4556,
      "खनन": 4557,
      "आशा": 4558,
      "ड़ने": 4559,
      "रेप": 4560,
      "घोटा": 4561,
      "उपाय": 4562,
      "ent": 4563,
      "भरे": 4564,
      "रनों": 4565,
      "ोन": 4566,
      "ार्ट": 4567,
      "श्रृ": 4568,
      "उल्लंघन": 4569,
      "अफगानिस्तान": 4570,
      "बड़": 4571,
      "पाली": 4572,
      "आरटी": 4573,
      "सैनिकों": 4574,
      "लड़कियों": 4575,
      "बढ़ोतरी": 4576,
      "सेक्सी": 4577,
      "पिंग": 4578,
      "व्यवसाय": 4579,
      "दायिक": 4580,
      "आंकड़ों": 4581,
      "निपटने": 4582,
      "अंदाज": 4583,
      "चंडीगढ़": 4584,
      ".\"": 4585,
      "लक्षण": 4586,
      "इंस": 4587,
      "संशोधन": 4588,
      "समाजवादी": 4589,
      "अरुण": 4590,
      "इरा": 4591,
      "उल": 4592,
      "बंग": 4593,
      "सास": 4594,
      "ल्ट": 4595,
      "भाषण": 4596,
      "अभिषेक": 4597,
      "बसपा": 4598,
      "उठाने": 4599,
      "सुरेश": 4600,
      "मारने": 4601,
      "ब्लै": 4602,
      "मेरठ": 4603,
      "िन": 4604,
      "करो": 4605,
      "वेल": 4606,
      "गिरा": 4607,
      "बढ़ावा": 4608,
      "धरना": 4609,
      "अतिथि": 4610,
      "लक": 4611,
      "प्रतिदिन": 4612,
      "न्यास": 4613,
      "सप्": 4614,
      "होली": 4615,
      "सिने": 4616,
      "कुर्": 4617,
      "रूस": 4618,
      "दुर": 4619,
      "फीसद": 4620,
      "सदन": 4621,
      "बुजुर्ग": 4622,
      "42": 4623,
      "वादियों": 4624,
      "क्षी": 4625,
      "पदक": 4626,
      "कौशल": 4627,
      "जागरूक": 4628,
      "पब्लिक": 4629,
      "फरी": 4630,
      "बजाय": 4631,
      "िकी": 4632,
      "लाइस": 4633,
      "जीलैंड": 4634,
      "डाउनलोड": 4635,
      "साहित्य": 4636,
      "कैंसर": 4637,
      "लिमिटेड": 4638,
      "ईरान": 4639,
      "काया": 4640,
      "नाइ": 4641,
      "क्यो": 4642,
      "वाया": 4643,
      "रांची": 4644,
      "जिंग": 4645,
      "हिया": 4646,
      "मेगा": 4647,
      "ंजलि": 4648,
      "ऋषि": 4649,
      "जद": 4650,
      "दली": 4651,
      "ौली": 4652,
      "युवकों": 4653,
      "करवाने": 4654,
      "शख्स": 4655,
      "दोषी": 4656,
      "खारिज": 4657,
      "बिल्कुल": 4658,
      "कंग": 4659,
      "भंड": 4660,
      "हाबाद": 4661,
      "इसको": 4662,
      "हूर": 4663,
      "दैनिक": 4664,
      "300": 4665,
      "कपिल": 4666,
      "ग़": 4667,
      "गोल्ड": 4668,
      "आएंगे": 4669,
      "फायदे": 4670,
      "मद्दे": 4671,
      "स्तक": 4672,
      "क्ल": 4673,
      "बीन": 4674,
      "महत्या": 4675,
      "डेटा": 4676,
      "ध्र": 4677,
      "वजन": 4678,
      "वत्ता": 4679,
      "राह": 4680,
      "मुकेश": 4681,
      "बदलने": 4682,
      "ag": 4683,
      "वाय": 4684,
      "बुला": 4685,
      "आत्महत्या": 4686,
      "News": 4687,
      "th": 4688,
      "याता": 4689,
      "डिप्": 4690,
      "मजबूर": 4691,
      "कितने": 4692,
      "ब्रिटेन": 4693,
      "व्हा": 4694,
      "स्वतंत्रता": 4695,
      "व्रत": 4696,
      "बाबू": 4697,
      "लीग": 4698,
      "बीआई": 4699,
      "म्मत": 4700,
      "2013": 4701,
      "इलेक्ट्र": 4702,
      "एक्टर": 4703,
      "वाज": 4704,
      "आपदा": 4705,
      "एसआई": 4706,
      "डांस": 4707,
      "पहुंचाने": 4708,
      "जस्टि": 4709,
      "दशक": 4710,
      "मिट्टी": 4711,
      "ल्या": 4712,
      "चुन": 4713,
      "कैमरा": 4714,
      "थोड़ी": 4715,
      "अथवा": 4716,
      "इंच": 4717,
      "काला": 4718,
      "कोण": 4719,
      "पाक": 4720,
      "निकलने": 4721,
      "हिंदु": 4722,
      "श्रद्धालुओं": 4723,
      "चैंपियन": 4724,
      "लालू": 4725,
      "रिजर्": 4726,
      "जेएन": 4727,
      "घटनाओं": 4728,
      "मित्र": 4729,
      "शिवराज": 4730,
      "har": 4731,
      "एडा": 4732,
      "खून": 4733,
      "मारा": 4734,
      "राजपूत": 4735,
      "बेचने": 4736,
      "तत्व": 4737,
      "वंत": 4738,
      "उठाए": 4739,
      "यातायात": 4740,
      "चें": 4741,
      "सच्": 4742,
      "न्यूनतम": 4743,
      "अमरी": 4744,
      "मेन": 4745,
      "महीनों": 4746,
      "ऑपरेशन": 4747,
      "इच्छा": 4748,
      "तमिलना": 4749,
      "क्षर": 4750,
      "भेजे": 4751,
      "मशहूर": 4752,
      "ऋण": 4753,
      "ओम": 4754,
      "काशी": 4755,
      "इनकार": 4756,
      "शुक्ला": 4757,
      "गैंग": 4758,
      "गुणवत्ता": 4759,
      "द्वितीय": 4760,
      "ंकियों": 4761,
      "लड़ने": 4762,
      "खोलने": 4763,
      "उल्लेखनीय": 4764,
      "तिया": 4765,
      "पूछ": 4766,
      "शिक": 4767,
      "गेहूं": 4768,
      "बातों": 4769,
      "फायर": 4770,
      "अफ्रीका": 4771,
      "दिनेश": 4772,
      "बिलास": 4773,
      "तुर्": 4774,
      "पूर्वक": 4775,
      "पदाधिकारियों": 4776,
      "रिटी": 4777,
      "रेड": 4778,
      "मान्यता": 4779,
      "बढ़ी": 4780,
      "ज़ार": 4781,
      "हनुमान": 4782,
      "शहरी": 4783,
      "वेयर": 4784,
      "पेपर": 4785,
      "लेंडर": 4786,
      "आश्वासन": 4787,
      "विजेता": 4788,
      "नये": 4789,
      "विंद": 4790,
      "सिस": 4791,
      "दायर": 4792,
      "आरक्षण": 4793,
      "कटौती": 4794,
      "विद्यालयों": 4795,
      "अमिता": 4796,
      "मों": 4797,
      "साहू": 4798,
      "विनो": 4799,
      "सीख": 4800,
      "बुरा": 4801,
      "फ्लै": 4802,
      "जरिये": 4803,
      "ब्याज": 4804,
      "सक्षम": 4805,
      "क्लिक": 4806,
      "लीला": 4807,
      "तिहासिक": 4808,
      "प्रॉ": 4809,
      "अंग्रेजी": 4810,
      "56": 4811,
      "स्थायी": 4812,
      "फाइ": 4813,
      "जुटा": 4814,
      "इंस्पे": 4815,
      "जिलाध्यक्ष": 4816,
      "स्टोर": 4817,
      "पणी": 4818,
      "स्टिक": 4819,
      "श्त": 4820,
      "अधिकतम": 4821,
      "सैनिक": 4822,
      "छोटा": 4823,
      "ंखला": 4824,
      "घंटों": 4825,
      "पवन": 4826,
      "लस": 4827,
      "गाइड": 4828,
      "प्रावधान": 4829,
      "राज्यसभा": 4830,
      "निकालने": 4831,
      "सर्विस": 4832,
      "ha": 4833,
      "सपना": 4834,
      "स्कर": 4835,
      "साव": 4836,
      "मेट": 4837,
      "डि़": 4838,
      "यूजर्स": 4839,
      "इंस्टा": 4840,
      "छापेमारी": 4841,
      "oo": 4842,
      "आधा": 4843,
      "रकम": 4844,
      "चाय": 4845,
      "गुर": 4846,
      "सोनी": 4847,
      "जानें": 4848,
      "हूँ": 4849,
      "नोएडा": 4850,
      "न्यूजीलैंड": 4851,
      "मिलाकर": 4852,
      "धुनिक": 4853,
      "डिजाइन": 4854,
      "बिलासपुर": 4855,
      "मुफ्": 4856,
      "समर्": 4857,
      "बुक": 4858,
      "व्यापक": 4859,
      "गौरव": 4860,
      "उद्घाटन": 4861,
      "इस्तीफा": 4862,
      "जरु": 4863,
      "टर्न": 4864,
      "लिंक": 4865,
      "विरुद्ध": 4866,
      "देहरा": 4867,
      "सीओ": 4868,
      "जेट": 4869,
      "शिवसेना": 4870,
      "and": 4871,
      "प्लांट": 4872,
      "मद्देनजर": 4873,
      "तमिलनाडु": 4874,
      "कें": 4875,
      "काद": 4876,
      "अपडेट": 4877,
      "सुल": 4878,
      "टिफि": 4879,
      "तकनीक": 4880,
      "Also": 4881,
      "चेयरमैन": 4882,
      "खतर": 4883,
      "ेंगी": 4884,
      "प्रशास": 4885,
      "रिजल्": 4886,
      "आइए": 4887,
      "आंकड़ा": 4888,
      "सैकड़ों": 4889,
      "ed": 4890,
      "ख्य": 4891,
      "लव": 4892,
      "क्षति": 4893,
      "मेले": 4894,
      "बुलाया": 4895,
      "एनसी": 4896,
      "प्रभावी": 4897,
      "श्रेष्ठ": 4898,
      "एटीएम": 4899,
      "डेंट": 4900,
      "नज़र": 4901,
      "देन": 4902,
      "बीसी": 4903,
      "भोज": 4904,
      "डोर": 4905,
      "ब्यूरो": 4906,
      "टिप्पणी": 4907,
      "कोरिया": 4908,
      "संकल्प": 4909,
      "पिका": 4910,
      "सांस्कृ": 4911,
      "टाइम": 4912,
      "जन्मदिन": 4913,
      "समीप": 4914,
      "देगी": 4915,
      "स्टैंड": 4916,
      "आजादी": 4917,
      "ड्डी": 4918,
      "इंस्पेक्टर": 4919,
      "नग": 4920,
      "सिन्हा": 4921,
      "कॉलोनी": 4922,
      "फोर्स": 4923,
      "150": 4924,
      "hi": 4925,
      "बलों": 4926,
      "इनका": 4927,
      "विभागों": 4928,
      "भरने": 4929,
      "भेद": 4930,
      "मुद्दा": 4931,
      "नियंत्रित": 4932,
      "पुनर्": 4933,
      "ब्लैक": 4934,
      "किस्": 4935,
      "प्रसिद्ध": 4936,
      "माँ": 4937,
      "समक्ष": 4938,
      "पार्षद": 4939,
      "सर्वा": 4940,
      "आतंकियों": 4941,
      "सुनाई": 4942,
      "अमिताभ": 4943,
      "सांस्कृतिक": 4944,
      "कच्": 4945,
      "बन्": 4946,
      "सलों": 4947,
      "स्य": 4948,
      "दिरा": 4949,
      "बायो": 4950,
      "राजे": 4951,
      "ंचल": 4952,
      "सकेगा": 4953,
      "ड्डा": 4954,
      "गायब": 4955,
      "एँ": 4956,
      "माही": 4957,
      "विंग": 4958,
      "दिलाने": 4959,
      "वर्ती": 4960,
      "निर्माता": 4961,
      "फैल": 4962,
      "भूत": 4963,
      "ंकिंग": 4964,
      "जस्टिस": 4965,
      "रिजर्व": 4966,
      "विनोद": 4967,
      "संचालक": 4968,
      "प्रतिमा": 4969,
      "निकाली": 4970,
      "प्रबंधक": 4971,
      "म्यू": 4972,
      "सेन": 4973,
      "हीन": 4974,
      "एमएस": 4975,
      "कहने": 4976,
      "बनर्जी": 4977,
      "बौ": 4978,
      "रियर": 4979,
      "मंत्रियों": 4980,
      "प्‍": 4981,
      "धोखा": 4982,
      "पश्चिमी": 4983,
      "स्क्रीन": 4984,
      "खण्ड": 4985,
      "सेहत": 4986,
      "सिम": 4987,
      "लगते": 4988,
      "बढ़त": 4989,
      "प्रेरित": 4990,
      "प्रगति": 4991,
      "पुष्": 4992,
      "मेट्रो": 4993,
      "रेशन": 4994,
      "योग्य": 4995,
      "श्रीवास्तव": 4996,
      "प्रोत्": 4997,
      "नाबा": 4998,
      "दीवार": 4999,
      "जीता": 5000,
      "सुभाष": 5001,
      "गुल": 5002,
      "टीमों": 5003,
      "बच्चन": 5004,
      "दुर्गा": 5005,
      "लिटी": 5006,
      "एकत्र": 5007,
      "टाटा": 5008,
      "जुड़ा": 5009,
      "सेवाओं": 5010,
      "प्रयाग": 5011,
      "देहरादून": 5012,
      "क्वि": 5013,
      "एमसी": 5014,
      "ट्रेनों": 5015,
      "ताकत": 5016,
      "व्यक्तियों": 5017,
      "पॉलि": 5018,
      "बचने": 5019,
      "58": 5020,
      "ओपी": 5021,
      "राणा": 5022,
      "निशान": 5023,
      "टिल": 5024,
      "फ़ा": 5025,
      "सिनेमा": 5026,
      "ov": 5027,
      "ऐतिहासिक": 5028,
      "रचना": 5029,
      "विधे": 5030,
      "तारा": 5031,
      "नेहरू": 5032,
      "रुक": 5033,
      "जोड़ी": 5034,
      "चीजों": 5035,
      "बदले": 5036,
      "पहुंचाया": 5037,
      "जुर्माना": 5038,
      "जरा": 5039,
      "नयी": 5040,
      "ष्ठा": 5041,
      "डिट": 5042,
      "ग्राहक": 5043,
      "सैंपल": 5044,
      "उर्": 5045,
      "ओलं": 5046,
      "सांस": 5047,
      "धिया": 5048,
      "खाता": 5049,
      "च्छता": 5050,
      "डीजी": 5051,
      "कैमरे": 5052,
      "कंप्यूटर": 5053,
      "कृतिक": 5054,
      "कितनी": 5055,
      "पंडित": 5056,
      "जौ": 5057,
      "रोजाना": 5058,
      "शियल": 5059,
      "टियां": 5060,
      "जिनकी": 5061,
      "सेवाएं": 5062,
      "तालाब": 5063,
      "डायरेक्टर": 5064,
      "प्रशासनिक": 5065,
      "आवं": 5066,
      "‍ि": 5067,
      "नायक": 5068,
      "संचार": 5069,
      "स्वच्छता": 5070,
      "लाइसेंस": 5071,
      "बसों": 5072,
      "ब्रह्": 5073,
      "ूं": 5074,
      "शनल": 5075,
      "बूथ": 5076,
      "आतंकवाद": 5077,
      "पृथ्": 5078,
      "आलोचना": 5079,
      "ठो": 5080,
      "थ्य": 5081,
      "कोड": 5082,
      "प्रशं": 5083,
      "ष्‍": 5084,
      "चीफ": 5085,
      "एफआईआर": 5086,
      "शुरुआती": 5087,
      "डेंट्स": 5088,
      "प्रकाशित": 5089,
      "अज": 5090,
      "आंग": 5091,
      "टेज": 5092,
      "ग्वालि": 5093,
      "आंखों": 5094,
      "कमाई": 5095,
      "विपक्षी": 5096,
      "सप्लाई": 5097,
      "टी20": 5098,
      "जीबी": 5099,
      "ज़्यादा": 5100,
      "गिरी": 5101,
      "बनकर": 5102,
      "मांगों": 5103,
      "फेल": 5104,
      "एचसी": 5105,
      "400": 5106,
      "आराम": 5107,
      "उदय": 5108,
      "कच": 5109,
      "ठंड": 5110,
      "हस्ता": 5111,
      "प्स": 5112,
      "कर्ताओं": 5113,
      "हेड": 5114,
      "योजक": 5115,
      "2012": 5116,
      "हादसा": 5117,
      "फुल": 5118,
      "57": 5119,
      "आग्रह": 5120,
      "उथ": 5121,
      "उज्": 5122,
      "ड्रे": 5123,
      "नशे": 5124,
      "मुहैया": 5125,
      "आपत्ति": 5126,
      "बताने": 5127,
      "चीज": 5128,
      "प्रोड": 5129,
      "पाएंगे": 5130,
      "समुद्र": 5131,
      "ड्राइवर": 5132,
      "उन्‍होंने": 5133,
      "पेयजल": 5134,
      "ग्वालियर": 5135,
      "दया": 5136,
      "काले": 5137,
      "क्ली": 5138,
      "चिंग": 5139,
      "बंधित": 5140,
      "गठित": 5141,
      "सीसीटीवी": 5142,
      "भक्तों": 5143,
      "आदर्श": 5144,
      "परंतु": 5145,
      "ूर": 5146,
      "मिया": 5147,
      "बताए": 5148,
      "दुख": 5149,
      "बॉल": 5150,
      "छेड़": 5151,
      "कीमतों": 5152,
      "नजदी": 5153,
      "कंगना": 5154,
      "तालि": 5155,
      "ज़रू": 5156,
      "बॉस": 5157,
      "चालकों": 5158,
      "एग्": 5159,
      "कड़": 5160,
      "काबू": 5161,
      "प्राकृतिक": 5162,
      "घाय": 5163,
      "पिछली": 5164,
      "तारीफ": 5165,
      "कानूनों": 5166,
      "जागरूकता": 5167,
      "64": 5168,
      "67": 5169,
      "पंप": 5170,
      "काय": 5171,
      "सेस": 5172,
      "विस्": 5173,
      "चांदी": 5174,
      "बोला": 5175,
      "घाटी": 5176,
      "तरीका": 5177,
      "रिजल्ट": 5178,
      "अत्य": 5179,
      "बोली": 5180,
      "ऑल": 5181,
      "कम्प": 5182,
      "मेला": 5183,
      "एसएसपी": 5184,
      "ब्दी": 5185,
      "पत्थर": 5186,
      "लोकप्रिय": 5187,
      "इंटरव्यू": 5188,
      "बहादुर": 5189,
      "स्पिटल": 5190,
      "बरेली": 5191,
      "नाबालिग": 5192,
      "चं": 5193,
      "धमा": 5194,
      "पंक": 5195,
      "सीमित": 5196,
      "संजीव": 5197,
      "जिक्र": 5198,
      "मुज": 5199,
      "इंजन": 5200,
      "लोकतंत्र": 5201,
      "माय": 5202,
      "रिसर्च": 5203,
      "नामक": 5204,
      "मतदाता": 5205,
      "त्यो": 5206,
      "अलर्ट": 5207,
      "यंत्र": 5208,
      "निवास": 5209,
      "जारा": 5210,
      "निकट": 5211,
      "स्र": 5212,
      "गुरू": 5213,
      "चौथे": 5214,
      "इलाहाबाद": 5215,
      "ट्रैफिक": 5216,
      "सौंपा": 5217,
      "ईडी": 5218,
      "ढंग": 5219,
      "यौ": 5220,
      "ट्रि": 5221,
      "शुभार": 5222,
      "दस्तावेज": 5223,
      "पृथ्वी": 5224,
      "43": 5225,
      "औद्योग": 5226,
      "घि": 5227,
      "गीता": 5228,
      "उत्साह": 5229,
      "पोर्टल": 5230,
      "अभियं": 5231,
      "स्ट्रेशन": 5232,
      "कना": 5233,
      "घ्र": 5234,
      "बला": 5235,
      "भै": 5236,
      "देशा": 5237,
      "द्वी": 5238,
      "तुम्": 5239,
      "अतिक्रमण": 5240,
      "खूबसूरत": 5241,
      "ig": 5242,
      "औसत": 5243,
      "कन्": 5244,
      "पारा": 5245,
      "सीनियर": 5246,
      "फ़ी": 5247,
      "अगली": 5248,
      "अपर": 5249,
      "चक्कर": 5250,
      "पटा": 5251,
      "दुबे": 5252,
      "फांसी": 5253,
      "महान": 5254,
      "गलती": 5255,
      "शाहरुख": 5256,
      "जत": 5257,
      "क्लास": 5258,
      "पाते": 5259,
      "लोगो": 5260,
      "पोल": 5261,
      "रामपुर": 5262,
      "कंपनियां": 5263,
      "मणि": 5264,
      "ढाई": 5265,
      "मुजफ्": 5266,
      "धारी": 5267,
      "नें": 5268,
      "बतौर": 5269,
      "भड़": 5270,
      "जापान": 5271,
      "जोखि": 5272,
      "फाइल": 5273,
      "महाराज": 5274,
      "ऊंचा": 5275,
      "दश": 5276,
      "यर्स": 5277,
      "क्वार": 5278,
      "साजिश": 5279,
      "डेस्क": 5280,
      "इंटरनेशनल": 5281,
      "घायलों": 5282,
      "ंध": 5283,
      "अमृत": 5284,
      "साहि": 5285,
      "पायल": 5286,
      "प्टर": 5287,
      "फोट": 5288,
      "एक्शन": 5289,
      "ंग्स": 5290,
      "क़ा": 5291,
      "विद्यार्थी": 5292,
      "कारोबारी": 5293,
      "iv": 5294,
      "कन्या": 5295,
      "सन्": 5296,
      "दीपिका": 5297,
      "जानने": 5298,
      "शीघ्र": 5299,
      "बॉक्स": 5300,
      "आतंकवादी": 5301,
      "ओलंपिक": 5302,
      "अख": 5303,
      "स्की": 5304,
      "जाया": 5305,
      "भाल": 5306,
      "कार्यकाल": 5307,
      "बिजनेस": 5308,
      "हेल्थ": 5309,
      "77": 5310,
      "धर्": 5311,
      "तिन": 5312,
      "रोका": 5313,
      "राजकुमार": 5314,
      "बिंद": 5315,
      "जूझ": 5316,
      "ट्टा": 5317,
      "पकड़े": 5318,
      "पक्षों": 5319,
      "मनुष्य": 5320,
      "खबरों": 5321,
      "सुविधाओं": 5322,
      "इंस्टाग्राम": 5323,
      "पंकज": 5324,
      "41": 5325,
      "्‍य": 5326,
      "करों": 5327,
      "जिए": 5328,
      "मानते": 5329,
      "श्रृंखला": 5330,
      "हना": 5331,
      "खींच": 5332,
      "ष्णु": 5333,
      "----": 5334,
      "खतरे": 5335,
      "अंडर": 5336,
      "भक्ति": 5337,
      "पीजी": 5338,
      "राजेंद्र": 5339,
      "डीआर": 5340,
      "अनुरोध": 5341,
      "निकला": 5342,
      "पोस्टर": 5343,
      "सहारा": 5344,
      "अह": 5345,
      "दिव्या": 5346,
      "पाठी": 5347,
      "चालू": 5348,
      "सून": 5349,
      "बाजारों": 5350,
      "सुनकर": 5351,
      "डोज": 5352,
      "नेटवर्क": 5353,
      "चर्स": 5354,
      "सराय": 5355,
      "मिट": 5356,
      "शिष्ट": 5357,
      "प्राचीन": 5358,
      "indi": 5359,
      "प्राथमिकता": 5360,
      "औद्योगिक": 5361,
      "जोखिम": 5362,
      "72": 5363,
      "स्पर्": 5364,
      "बैग": 5365,
      "दर्भ": 5366,
      "लॉजी": 5367,
      "गंभीरता": 5368,
      "दिग्गज": 5369,
      "जहा": 5370,
      "बर्फ": 5371,
      "कोय": 5372,
      "बैठा": 5373,
      "डालने": 5374,
      "जुड़": 5375,
      "कारणों": 5376,
      "जगत": 5377,
      "लूम": 5378,
      "स्‍ट": 5379,
      "इमरान": 5380,
      "Pr": 5381,
      "ारण": 5382,
      "होश": 5383,
      "सूर": 5384,
      "वरों": 5385,
      "वृत्ति": 5386,
      "लिखे": 5387,
      "ट्रॉ": 5388,
      "सर्वो": 5389,
      "भेजने": 5390,
      "मछ": 5391,
      "रम": 5392,
      "द्दीन": 5393,
      "बेल": 5394,
      "बढ़ता": 5395,
      "महेंद्र": 5396,
      "2011": 5397,
      "ट्रेनिंग": 5398,
      "गाँव": 5399,
      "दंड": 5400,
      "गाह": 5401,
      "अपे": 5402,
      "पूंजी": 5403,
      "मानें": 5404,
      "डाटा": 5405,
      "ंद्रा": 5406,
      "सुनने": 5407,
      "प्रीमि": 5408,
      "क्राइम": 5409,
      "स्टूडेंट्स": 5410,
      "धिकरण": 5411,
      "स्ट्रा": 5412,
      "प्रतिभा": 5413,
      "सर्वाधिक": 5414,
      "नरेन्द्र": 5415,
      "श्रा": 5416,
      "बच्चा": 5417,
      "विधेयक": 5418,
      "मुजफ्फर": 5419,
      "51": 5420,
      "चम": 5421,
      "ताजा": 5422,
      "सरपंच": 5423,
      "राजकीय": 5424,
      "टिकल": 5425,
      "बुलेंस": 5426,
      "आरसी": 5427,
      "आएगा": 5428,
      "अभिभाव": 5429,
      "ut": 5430,
      "ईश्वर": 5431,
      "छवि": 5432,
      "दबा": 5433,
      "ूप": 5434,
      "सोनिया": 5435,
      "पोषण": 5436,
      "पढ़ने": 5437,
      "व्यक्तिगत": 5438,
      "नाराजगी": 5439,
      "ऑफर": 5440,
      "कौर": 5441,
      "मिर": 5442,
      "चाइ": 5443,
      "मेज": 5444,
      "इंदिरा": 5445,
      "ग्रीन": 5446,
      "गेंदबाजी": 5447,
      "जताया": 5448,
      "जॉन": 5449,
      "ंटी": 5450,
      "लिप": 5451,
      "दिमा": 5452,
      "संसदी": 5453,
      "हिता": 5454,
      "पीएस": 5455,
      "स्टल": 5456,
      "रखकर": 5457,
      "रॉय": 5458,
      "ध्व": 5459,
      "ब्लाक": 5460,
      "प्रोफेसर": 5461,
      "संसदीय": 5462,
      "52": 5463,
      "कायम": 5464,
      "जाएंगी": 5465,
      "त्वचा": 5466,
      "अवगत": 5467,
      "pp": 5468,
      "स्वर्ण": 5469,
      "तियां": 5470,
      "हिम": 5471,
      "डाक्टर": 5472,
      "बहस": 5473,
      "ईद": 5474,
      "दह": 5475,
      "सकारात्मक": 5476,
      "केटर": 5477,
      "किशन": 5478,
      "प्रौ": 5479,
      "प्रदीप": 5480,
      "कियां": 5481,
      "शेर": 5482,
      "बॉडी": 5483,
      "्री": 5484,
      "स्पति": 5485,
      "र्द": 5486,
      "न्तु": 5487,
      "संदीप": 5488,
      "आजम": 5489,
      "करोड़ों": 5490,
      "सेंट": 5491,
      "फ्रें": 5492,
      "पंचायतों": 5493,
      "66": 5494,
      "वाण": 5495,
      "जियो": 5496,
      "खिया": 5497,
      "निर्मित": 5498,
      "महेश": 5499,
      "एनजी": 5500,
      "जिनका": 5501,
      "खबरें": 5502,
      "बराबर": 5503,
      "दत्त": 5504,
      "कैश": 5505,
      "इंसान": 5506,
      "चोरों": 5507,
      "धूम": 5508,
      "तालिबान": 5509,
      "कक्ष": 5510,
      "कंटे": 5511,
      "कोर्स": 5512,
      "कहती": 5513,
      "फैला": 5514,
      "अधिकतर": 5515,
      "सिद्धार्थ": 5516,
      "कविता": 5517,
      "भट्ट": 5518,
      "मजा": 5519,
      "वट": 5520,
      "बालों": 5521,
      "ष्ट्रीय": 5522,
      "78": 5523,
      "जहाँ": 5524,
      "नहर": 5525,
      "लम्": 5526,
      "देशभर": 5527,
      "ढ़ा": 5528,
      "जबलपुर": 5529,
      "पेज": 5530,
      "पोर्": 5531,
      "आएगी": 5532,
      "साइबर": 5533,
      "ac": 5534,
      "आधुनिक": 5535,
      "फिट": 5536,
      "खेतों": 5537,
      "पत्रकारों": 5538,
      "इंजीनिय": 5539,
      "महोत्सव": 5540,
      "वाइस": 5541,
      "लेटर": 5542,
      "विन": 5543,
      "एंट": 5544,
      "स्वच्छ": 5545,
      "प्रेर": 5546,
      "एक्टिव": 5547,
      "अर्चना": 5548,
      "तट": 5549,
      "हक": 5550,
      "प्रार्थ": 5551,
      "न्त": 5552,
      "त्‍": 5553,
      "वर्धन": 5554,
      "वंश": 5555,
      "कराना": 5556,
      "चोर": 5557,
      "ब्रांड": 5558,
      "प्रारंभ": 5559,
      "समझौता": 5560,
      "त्योहार": 5561,
      "दलित": 5562,
      "रथ": 5563,
      "प्रभु": 5564,
      "प्शन": 5565,
      "स्थिर": 5566,
      "पड़ने": 5567,
      "छुट्टी": 5568,
      "तत्कालीन": 5569,
      "शौचा": 5570,
      "पड़ोसी": 5571,
      "खतरनाक": 5572,
      "59": 5573,
      "मपुर": 5574,
      "मास्टर": 5575,
      "गेम": 5576,
      "धन्य": 5577,
      "भागीय": 5578,
      "प्रार्थना": 5579,
      "68": 5580,
      "em": 5581,
      "पवि": 5582,
      "बाड़ी": 5583,
      "नीत": 5584,
      "मिकों": 5585,
      "दीपा": 5586,
      "चोपड़ा": 5587,
      "लगेगा": 5588,
      "तीसरा": 5589,
      "यश": 5590,
      "सरों": 5591,
      "गोयल": 5592,
      "मतदाताओं": 5593,
      "्राष्ट्रीय": 5594,
      "हिस्सों": 5595,
      "त्रिपाठी": 5596,
      "दिलच": 5597,
      "कनेक्शन": 5598,
      "विवेक": 5599,
      "आजाद": 5600,
      "अभियंता": 5601,
      "शौचालय": 5602,
      "उपरा": 5603,
      "लिन": 5604,
      "विभागीय": 5605,
      "अपराधियों": 5606,
      "बरी": 5607,
      "विभा": 5608,
      "कारियों": 5609,
      "थाम": 5610,
      "संपन्न": 5611,
      "योजन": 5612,
      "लगती": 5613,
      "यूनिट": 5614,
      "69": 5615,
      "जमी": 5616,
      "नाय": 5617,
      "पुलिसकर्मियों": 5618,
      "फ्रंट": 5619,
      "तलाक": 5620,
      "पुरुषों": 5621,
      "आशीष": 5622,
      "मांगा": 5623,
      "ंचे": 5624,
      "अभ्यास": 5625,
      "संस्थानों": 5626,
      "ब्रेक": 5627,
      "फ्रांस": 5628,
      "शुभारंभ": 5629,
      "62": 5630,
      "ul": 5631,
      "कड़ा": 5632,
      "निंदा": 5633,
      "भेड़": 5634,
      "आरोपों": 5635,
      "प्रतिनिधियों": 5636,
      "उपभोक्ता": 5637,
      "डिप्टी": 5638,
      "जं": 5639,
      "रघु": 5640,
      "स्मृ": 5641,
      "हैंड": 5642,
      "बिर": 5643,
      "मैसेज": 5644,
      "व्यस्त": 5645,
      "यूनियन": 5646,
      "बीमारियों": 5647,
      "han": 5648,
      "आइस": 5649,
      "बचे": 5650,
      "लंदन": 5651,
      "देरी": 5652,
      "पाइ": 5653,
      "कुंड": 5654,
      "बादल": 5655,
      "हॉस्पिटल": 5656,
      "साहब": 5657,
      "नवीन": 5658,
      "54": 5659,
      "लाए": 5660,
      "लीप": 5661,
      "संवेदन": 5662,
      "सिपा": 5663,
      "प्राधिकरण": 5664,
      "माध्यमिक": 5665,
      "सुविधाएं": 5666,
      "रजिस्ट्रेशन": 5667,
      "आरपीएफ": 5668,
      "उपभोक्ताओं": 5669,
      "अखबार": 5670,
      "हवाले": 5671,
      "बढ़ाया": 5672,
      "यानि": 5673,
      "क्रमा": 5674,
      "मंत्रि": 5675,
      "उसको": 5676,
      "भिक": 5677,
      "डेय": 5678,
      "प्रौद्योग": 5679,
      "आकाश": 5680,
      "नगरी": 5681,
      "बेस": 5682,
      "लड़के": 5683,
      "मुफ्त": 5684,
      "आक्रो": 5685,
      "एट": 5686,
      "तथ्य": 5687,
      "शरण": 5688,
      "चावल": 5689,
      "टिन": 5690,
      "पासवान": 5691,
      "हेज": 5692,
      "मरने": 5693,
      "प्रीत": 5694,
      "शैली": 5695,
      "लिश": 5696,
      "संतु": 5697,
      "बीज": 5698,
      "मिलेंगे": 5699,
      "ध्याय": 5700,
      "गेंदों": 5701,
      "दुकानें": 5702,
      "क्रांति": 5703,
      "मर्श": 5704,
      "फ़िल्": 5705,
      "आकार": 5706,
      "गले": 5707,
      "रेन": 5708,
      "ग्नि": 5709,
      "पुराना": 5710,
      "कामयाब": 5711,
      "झटका": 5712,
      "ड्ड": 5713,
      "वादा": 5714,
      "माला": 5715,
      "माफी": 5716,
      "न्‍": 5717,
      "ट्रल": 5718,
      "शुद्ध": 5719,
      "क्रिकेटर": 5720,
      "हाईवे": 5721,
      "फायरिंग": 5722,
      "इंतजाम": 5723,
      "तहसीलदार": 5724,
      "शब्दों": 5725,
      "समझौते": 5726,
      ".'": 5727,
      "संसाधन": 5728,
      "मीटिंग": 5729,
      "शोर": 5730,
      "फ़्": 5731,
      "कठिन": 5732,
      "कंड": 5733,
      "टुक": 5734,
      "नींद": 5735,
      "पूछे": 5736,
      "अधिवक्ता": 5737,
      "यूं": 5738,
      "गिरने": 5739,
      "फ्रेंड": 5740,
      "भगत": 5741,
      "अपहरण": 5742,
      "वेरि": 5743,
      "रेफर": 5744,
      "उत्सव": 5745,
      "अहमदाबाद": 5746,
      "पौधे": 5747,
      "वसूली": 5748,
      "सुर्": 5749,
      "जोड़ा": 5750,
      "शुरूआत": 5751,
      "जितना": 5752,
      "आरोपितों": 5753,
      "शासकीय": 5754,
      "अकेले": 5755,
      "भौ": 5756,
      "सत्या": 5757,
      "परमाण": 5758,
      "प्रधा": 5759,
      "मुरा": 5760,
      "टायर": 5761,
      "सोनू": 5762,
      "रूपये": 5763,
      "मले": 5764,
      "रौ": 5765,
      "दिखे": 5766,
      "बाहरी": 5767,
      "बालिका": 5768,
      "एकता": 5769,
      "साथियों": 5770,
      "छोड़ने": 5771,
      "उपायुक्त": 5772,
      "संस्": 5773,
      "बिन": 5774,
      "टिश": 5775,
      "डाक": 5776,
      "प्राचार्य": 5777,
      "श्रीनगर": 5778,
      "एचडी": 5779,
      "प्रस्तावित": 5780,
      "उड़": 5781,
      "छत": 5782,
      "मुआव": 5783,
      "टेबल": 5784,
      "पिटाई": 5785,
      "कैलाश": 5786,
      "फ्टी": 5787,
      "आरती": 5788,
      "परमाणु": 5789,
      "av": 5790,
      "सेमी": 5791,
      "तिमाही": 5792,
      "संधान": 5793,
      "लोर": 5794,
      "पारित": 5795,
      "श्रद्धांजलि": 5796,
      "जबरदस्त": 5797,
      "गहरा": 5798,
      "हैरान": 5799,
      "प्रवासी": 5800,
      "साझे": 5801,
      "पाद": 5802,
      "शिला": 5803,
      "जेडी": 5804,
      "फैक्": 5805,
      "सर्जन": 5806,
      "गूगल": 5807,
      "पलट": 5808,
      "ation": 5809,
      "डालकर": 5810,
      "स्नान": 5811,
      "एके": 5812,
      "मुठ": 5813,
      "वर्षा": 5814,
      "महात्मा": 5815,
      "पवित्र": 5816,
      "ओपन": 5817,
      "भव्य": 5818,
      "मांस": 5819,
      "देखे": 5820,
      "सीए": 5821,
      "दुश्": 5822,
      "बुनिया": 5823,
      "थानाध्यक्ष": 5824,
      "मंदिरों": 5825,
      "समर्थकों": 5826,
      "धन्यवाद": 5827,
      "ुसार": 5828,
      "सीता": 5829,
      "हिट": 5830,
      "सुरा": 5831,
      "घटा": 5832,
      "लिखी": 5833,
      "आईडी": 5834,
      "चीजें": 5835,
      "उत्तरी": 5836,
      "कॉलेजों": 5837,
      "हिन्दू": 5838,
      "मैनेजर": 5839,
      "मस्जिद": 5840,
      "गुस्सा": 5841,
      "गों": 5842,
      "सिन": 5843,
      "सिलेंडर": 5844,
      "बीसीसी": 5845,
      "उत्पन्न": 5846,
      "मार्क": 5847,
      "इंजीनियर": 5848,
      "यौन": 5849,
      "लता": 5850,
      "हृ": 5851,
      "हीरो": 5852,
      "प्रको": 5853,
      "साउथ": 5854,
      "सीईओ": 5855,
      "मुखिया": 5856,
      "जुटे": 5857,
      "गोवा": 5858,
      "तैयारियां": 5859,
      "कार्यक्रमों": 5860,
      "हिन्दी": 5861,
      "ट्यूब": 5862,
      "जज": 5863,
      "मालूम": 5864,
      "उपस्थिति": 5865,
      "हुईं": 5866,
      "प्रांत": 5867,
      "पैके": 5868,
      "आंख": 5869,
      "95": 5870,
      "PM": 5871,
      "ab": 5872,
      "लेवल": 5873,
      "सामु": 5874,
      "रहकर": 5875,
      "अनुसंधान": 5876,
      "ब्लू": 5877,
      "देखभाल": 5878,
      "घोटाले": 5879,
      "स्मृति": 5880,
      "गित": 5881,
      "जस": 5882,
      "विष्णु": 5883,
      "पाट": 5884,
      "बनाते": 5885,
      "अनुप": 5886,
      "कैद": 5887,
      "बॉर्डर": 5888,
      "खरीदी": 5889,
      "बेडकर": 5890,
      "संवेदनशील": 5891,
      "आलम": 5892,
      "नृ": 5893,
      "लह": 5894,
      "ल्ले": 5895,
      "मोड़": 5896,
      "दूसरों": 5897,
      "पैमाने": 5898,
      "फिल्में": 5899,
      "भेजी": 5900,
      "स्ट्रेट": 5901,
      "धूप": 5902,
      "केन्द्रीय": 5903,
      "गरीबों": 5904,
      "गली": 5905,
      "देखि": 5906,
      "मुक्ति": 5907,
      "शिंग": 5908,
      "चारिक": 5909,
      "12वीं": 5910,
      "निर्देशों": 5911,
      "अंतरि": 5912,
      "वैक्सीनेशन": 5913,
      "मायावती": 5914,
      "सेवक": 5915,
      "दिमाग": 5916,
      "ow": 5917,
      "शनि": 5918,
      "कीन": 5919,
      "प्रशांत": 5920,
      "जीते": 5921,
      "कुं": 5922,
      "ष्णा": 5923,
      "आदिवासी": 5924,
      "कलाकार": 5925,
      "फंसे": 5926,
      "आपात": 5927,
      "झी": 5928,
      "यें": 5929,
      "राक": 5930,
      "दाद": 5931,
      "हेली": 5932,
      "इंडी": 5933,
      "उत्पादों": 5934,
      "चेंज": 5935,
      "प्रौद्योगिकी": 5936,
      "53": 5937,
      "आह्": 5938,
      "धवन": 5939,
      "सन्न": 5940,
      "ड़िया": 5941,
      "नीरज": 5942,
      "ठाकरे": 5943,
      "अंतर्राष्ट्रीय": 5944,
      "सॉफ्ट": 5945,
      "हुसैन": 5946,
      "सूरज": 5947,
      "आईसीसी": 5948,
      "धीर": 5949,
      "एंट्री": 5950,
      "निकली": 5951,
      "प्रेमी": 5952,
      "फ्रेंस": 5953,
      "ब्लड": 5954,
      "महंगाई": 5955,
      "एह": 5956,
      "सश": 5957,
      "प्रदर्श": 5958,
      "पुस्तक": 5959,
      "ट्रिक": 5960,
      "ंचित": 5961,
      "एसई": 5962,
      "दर्शा": 5963,
      ":-": 5964,
      "हर्ष": 5965,
      "राउंड": 5966,
      "सिड": 5967,
      "श्नर": 5968,
      "नंद": 5969,
      "लेस": 5970,
      "तीर्थ": 5971,
      "सुशील": 5972,
      "द्दा": 5973,
      "स्थलों": 5974,
      "करेंगी": 5975,
      "बचपन": 5976,
      "अभाव": 5977,
      "चम्": 5978,
      "स्वि": 5979,
      "कार्या": 5980,
      "मिंग": 5981,
      "त्तर": 5982,
      "वीय": 5983,
      "न्यायिक": 5984,
      "बस्ती": 5985,
      "वाता": 5986,
      "लेता": 5987,
      "दिलीप": 5988,
      "शाही": 5989,
      "बिता": 5990,
      "अंकों": 5991,
      "इंजीनियरिंग": 5992,
      "ंभिक": 5993,
      "नरेश": 5994,
      "बृह": 5995,
      "भय": 5996,
      "यहीं": 5997,
      "नाबाद": 5998,
      "लायंस": 5999,
      "निरं": 6000,
      "लगाना": 6001,
      "पेन": 6002,
      "सामू": 6003,
      "पौध": 6004,
      "दृश्य": 6005,
      "साहिब": 6006,
      "ल्यू": 6007,
      "सिफार": 6008,
      "द्दी": 6009,
      "बरत": 6010,
      "छाड़": 6011,
      "मौजूदगी": 6012,
      "थुरा": 6013,
      "पायलट": 6014,
      "अगु": 6015,
      "जना": 6016,
      "फंस": 6017,
      "ूंगा": 6018,
      "मासू": 6019,
      "कर्स": 6020,
      "जुटी": 6021,
      "बुखार": 6022,
      "कृष्णा": 6023,
      "मनोहर": 6024,
      "ख़ा": 6025,
      "आंकड़े": 6026,
      "वैज्ञानिकों": 6027,
      "परिस्थितियों": 6028,
      "टकों": 6029,
      "ंडो": 6030,
      "स्थगित": 6031,
      "निर्यात": 6032,
      "एमपी": 6033,
      "लॉग": 6034,
      "तस्करी": 6035,
      "प्रेरणा": 6036,
      "आह्वान": 6037,
      "सिफारिश": 6038,
      "कमान": 6039,
      "भोग": 6040,
      "मथुरा": 6041,
      "लियो": 6042,
      "हुये": 6043,
      "जोध": 6044,
      "रूपए": 6045,
      "पारि": 6046,
      "खासकर": 6047,
      "im": 6048,
      "केंड": 6049,
      "करवाई": 6050,
      "स्को": 6051,
      "संदर्भ": 6052,
      "रिकार्ड": 6053,
      "सेंट्रल": 6054,
      "खोला": 6055,
      "पश्चा": 6056,
      "संक्रमितों": 6057,
      "वास्तविक": 6058,
      "हस्ताक्षर": 6059,
      "हवाला": 6060,
      "ौरा": 6061,
      "विज्ञापन": 6062,
      "क्ष्य": 6063,
      "रूट": 6064,
      "गिरोह": 6065,
      "महाविद्यालय": 6066,
      "लैब": 6067,
      "मरम्मत": 6068,
      "मनाने": 6069,
      "कमिश्नर": 6070,
      "ंतरण": 6071,
      "दफ्": 6072,
      "कोटा": 6073,
      "निलंबित": 6074,
      "समस्त": 6075,
      "शिखर": 6076,
      "विस्तृत": 6077,
      "सामूहिक": 6078,
      "अटल": 6079,
      "एरिया": 6080,
      "सफे": 6081,
      "ौज": 6082,
      "र्ज": 6083,
      "विटा": 6084,
      "इंस्टी": 6085,
      "आंगन": 6086,
      "उद्य": 6087,
      "खल": 6088,
      "जमेंट": 6089,
      "ऩे": 6090,
      "लापता": 6091,
      "विवरण": 6092,
      "शिल्": 6093,
      "खेली": 6094,
      "ग्राउंड": 6095,
      "र्थियों": 6096,
      "मूवी": 6097,
      "संबंधों": 6098,
      "जोड़ने": 6099,
      "ट्यूट": 6100,
      "संस्करण": 6101,
      "जोधपुर": 6102,
      "जख्": 6103,
      "नर्स": 6104,
      "मजि": 6105,
      "जाज": 6106,
      "साधारण": 6107,
      "ट्रस्ट": 6108,
      "खेलों": 6109,
      "कलर": 6110,
      "श्रीराम": 6111,
      "नष्ट": 6112,
      "केयर": 6113,
      "नाल्ड": 6114,
      "र्ण": 6115,
      "2010": 6116,
      "खिताब": 6117,
      "स्टेबल": 6118,
      "लेखक": 6119,
      "ट्रैक": 6120,
      "ब्रिटिश": 6121,
      "डेंगू": 6122,
      "मुठभेड़": 6123,
      "63": 6124,
      "71": 6125,
      "ल्लू": 6126,
      "दाल": 6127,
      "शास्त्री": 6128,
      "मारकर": 6129,
      "कार्यरत": 6130,
      "फीट": 6131,
      "जायेगी": 6132,
      "चिकित्सकों": 6133,
      "विशेषज्ञों": 6134,
      "दफ्तर": 6135,
      "79": 6136,
      "ID": 6137,
      "आमत": 6138,
      "इमार": 6139,
      "गड्": 6140,
      "थन": 6141,
      "ससुरा": 6142,
      "2000": 6143,
      "अपराधी": 6144,
      "लिखकर": 6145,
      "आमतौर": 6146,
      "73": 6147,
      "85": 6148,
      "नीला": 6149,
      "संदेह": 6150,
      "जिंदा": 6151,
      "त्ते": 6152,
      "बरकरार": 6153,
      "भरपूर": 6154,
      "विश्ले": 6155,
      "तैयारियों": 6156,
      "कलाकारों": 6157,
      "मुलायम": 6158,
      "पंजीकरण": 6159,
      "रेंज": 6160,
      "स्टॉक": 6161,
      "लिहाजा": 6162,
      "एप्": 6163,
      "भेंट": 6164,
      "हौ": 6165,
      "मुझ": 6166,
      "2022": 6167,
      "आईजी": 6168,
      "अंसारी": 6169,
      "शेख": 6170,
      "लौटे": 6171,
      "फॉर": 6172,
      "फूड": 6173,
      "आमिर": 6174,
      "शूट": 6175,
      "सृ": 6176,
      "जाल": 6177,
      "बाधा": 6178,
      "टीसी": 6179,
      "शासित": 6180,
      "समन्व": 6181,
      "वर्ड": 6182,
      "फीचर": 6183,
      "ट्रेलर": 6184,
      "कूद": 6185,
      "सर्वश्रेष्ठ": 6186,
      "सिलसिला": 6187,
      "ठिका": 6188,
      "पला": 6189,
      "सवालों": 6190,
      "माफिया": 6191,
      "दिला": 6192,
      "ंगों": 6193,
      "सबको": 6194,
      "चलती": 6195,
      "कॉर्": 6196,
      "दिखाने": 6197,
      "उपाध्याय": 6198,
      "निवेशकों": 6199,
      "अभ्यर्थियों": 6200,
      "अपेक्षा": 6201,
      "सुर्खि": 6202,
      ".”": 6203,
      "Ra": 6204,
      "टु": 6205,
      "षिक": 6206,
      "चालान": 6207,
      "चिन्": 6208,
      "लोत": 6209,
      "छापा": 6210,
      "पैदल": 6211,
      "क्षणिक": 6212,
      "2009": 6213,
      "अब्दुल": 6214,
      "प्रयागराज": 6215,
      "सामुदायिक": 6216,
      "आचार्य": 6217,
      "मलिक": 6218,
      "नाई": 6219,
      "र्त": 6220,
      "क्चर": 6221,
      "हानि": 6222,
      "सीधा": 6223,
      "गुप्त": 6224,
      "आईं": 6225,
      "गिरि": 6226,
      "महामंत्री": 6227,
      "अर्ध": 6228,
      "किशोरी": 6229,
      "पृष्ठ": 6230,
      "ओडि": 6231,
      "काज": 6232,
      "टीमें": 6233,
      "रियों": 6234,
      "प्लस": 6235,
      "बैटरी": 6236,
      "धीन": 6237,
      "पंत": 6238,
      "नौकर": 6239,
      "वार्षिक": 6240,
      "चलेगा": 6241,
      "अखिल": 6242,
      "पों": 6243,
      "नाश": 6244,
      "कुंभ": 6245,
      "एफसी": 6246,
      "हॉट": 6247,
      "सब्जि": 6248,
      "उड़ान": 6249,
      "',": 6250,
      "हस्त": 6251,
      "शिक्षित": 6252,
      "श्रमिकों": 6253,
      "लौटने": 6254,
      "सीएमओ": 6255,
      "est": 6256,
      "पाठ्य": 6257,
      "हरिद्वार": 6258,
      "किराए": 6259,
      "नारेबाजी": 6260,
      "भीषण": 6261,
      "त्रु": 6262,
      "भास्कर": 6263,
      "समस्याएं": 6264,
      "लौटा": 6265,
      "ठेकेदार": 6266,
      "आयुर्": 6267,
      "ल्‍ली": 6268,
      "ण्य": 6269,
      "फते": 6270,
      "विशिष्ट": 6271,
      "टरों": 6272,
      "सबू": 6273,
      "महल": 6274,
      "बैठकर": 6275,
      "आसमान": 6276,
      "शरद": 6277,
      "बीसीसीआई": 6278,
      "ंसा": 6279,
      "असली": 6280,
      "आला": 6281,
      "आमंत्र": 6282,
      "किरण": 6283,
      "स्थाना": 6284,
      "उपचुनाव": 6285,
      "शेखर": 6286,
      "गर्भव": 6287,
      "फॉर्": 6288,
      "ore": 6289,
      "वातावरण": 6290,
      "SC": 6291,
      "com": 6292,
      "गला": 6293,
      "चन्द्र": 6294,
      "पिन": 6295,
      "बरसात": 6296,
      "सरकारों": 6297,
      "झेल": 6298,
      "सख्ती": 6299,
      "88": 6300,
      "os": 6301,
      "फ्रे": 6302,
      "फसलों": 6303,
      "बकाया": 6304,
      "कांग": 6305,
      "पाकर": 6306,
      "समृ": 6307,
      "कार्यकारी": 6308,
      "अनुकूल": 6309,
      "टोल": 6310,
      "खरीदारी": 6311,
      "पसंख्य": 6312,
      "नोटबंदी": 6313,
      "प्रारंभिक": 6314,
      "नागरिकता": 6315,
      "नक्सलियों": 6316,
      "इंडीज": 6317,
      "अग्नि": 6318,
      "गमन": 6319,
      "दपुर": 6320,
      "प्याज": 6321,
      "मस": 6322,
      "वाहा": 6323,
      "एकड़": 6324,
      "आपसी": 6325,
      "निर्देशक": 6326,
      "अल्पसंख्य": 6327,
      "सफेद": 6328,
      "ओडिशा": 6329,
      "IP": 6330,
      "op": 6331,
      "आंत": 6332,
      "सतीश": 6333,
      "विक्रम": 6334,
      "दायक": 6335,
      "पीपी": 6336,
      "वेदी": 6337,
      "ष्का": 6338,
      "डिली": 6339,
      "चेहरा": 6340,
      "गलु": 6341,
      "पीड़न": 6342,
      "शैक्षणिक": 6343,
      "गहलोत": 6344,
      "एम्स": 6345,
      "खरा": 6346,
      "प्रजा": 6347,
      "सिडी": 6348,
      "पिक्स": 6349,
      "आईएम": 6350,
      "वितरित": 6351,
      "लाइव": 6352,
      "मकसद": 6353,
      "भागीदारी": 6354,
      "गर्भवती": 6355,
      "यड": 6356,
      "एकजुट": 6357,
      "गेटिव": 6358,
      "अनुसूचित": 6359,
      "2008": 6360,
      "मजबूती": 6361,
      "जोरदार": 6362,
      "एजेंसियों": 6363,
      "क्रेडिट": 6364,
      "समर्पित": 6365,
      "मछली": 6366,
      "आधे": 6367,
      "कश": 6368,
      "परो": 6369,
      "विजन": 6370,
      "चांद": 6371,
      "रेगा": 6372,
      "प्पा": 6373,
      "पुलिसकर्मी": 6374,
      "जूनियर": 6375,
      "महत्": 6376,
      "पर्सन": 6377,
      "कुलदीप": 6378,
      "ट्रायल": 6379,
      "चूंकि": 6380,
      "बिगड़": 6381,
      "पहाड़ी": 6382,
      "प्रतीक": 6383,
      "um": 6384,
      "कवर": 6385,
      "बगैर": 6386,
      "शता": 6387,
      "मुर": 6388,
      "मंत": 6389,
      "सिंचाई": 6390,
      "मुखर्जी": 6391,
      "पार्टियों": 6392,
      "घटनास्थल": 6393,
      "कुलपति": 6394,
      "मनोरंजन": 6395,
      "स्पीड": 6396,
      "प्लेटफॉर्म": 6397,
      "बेंगलु": 6398,
      "हृदय": 6399,
      "बृहस्पति": 6400,
      "मजिस्ट्रेट": 6401,
      "GB": 6402,
      "ईमान": 6403,
      "टकरा": 6404,
      "भजन": 6405,
      "नामी": 6406,
      "साधा": 6407,
      "गाड़": 6408,
      "राजद": 6409,
      "सूद": 6410,
      "ट्रेड": 6411,
      "आंध्र": 6412,
      "शेयरों": 6413,
      "संभावित": 6414,
      "विटामिन": 6415,
      "ht": 6416,
      "अम्": 6417,
      "नर्": 6418,
      "पद्": 6419,
      "बली": 6420,
      "क्शा": 6421,
      "प्रवी": 6422,
      "बांट": 6423,
      "बीपी": 6424,
      "हरकत": 6425,
      "अनुरूप": 6426,
      "रखता": 6427,
      "समापन": 6428,
      "तोड़ने": 6429,
      "इजाफा": 6430,
      "कैप्टन": 6431,
      "आइसो": 6432,
      "सपोर्ट": 6433,
      "‍म": 6434,
      "दिल्‍ली": 6435,
      "रोशन": 6436,
      "डिस्ट": 6437,
      "बनाये": 6438,
      "ग्लो": 6439,
      "पत्रिका": 6440,
      "पड़ताल": 6441,
      "बढ़ाकर": 6442,
      "चैन": 6443,
      "स्टाइल": 6444,
      "ब्रांच": 6445,
      "ढेर": 6446,
      "नृत्य": 6447,
      "आयी": 6448,
      "सना": 6449,
      "र्वाद": 6450,
      "ताज": 6451,
      "डीह": 6452,
      "इसीलिए": 6453,
      "ंत्रिक": 6454,
      "आर्मी": 6455,
      "माइक्रो": 6456,
      "बलात्कार": 6457,
      "ईं": 6458,
      "चतुर्": 6459,
      "झो": 6460,
      "मन्": 6461,
      "लरी": 6462,
      "क्य": 6463,
      "पीय": 6464,
      "राजू": 6465,
      "राजनाथ": 6466,
      "छान": 6467,
      "कॉप्टर": 6468,
      "तस्वीरों": 6469,
      "तैनाती": 6470,
      "आयकर": 6471,
      "सलाहकार": 6472,
      "वाणि": 6473,
      "76": 6474,
      "ak": 6475,
      "तड़": 6476,
      "स्पा": 6477,
      "प्रोग्रा": 6478,
      "प्रसन्न": 6479,
      "ंगु": 6480,
      "उत्पीड़न": 6481,
      "गिल": 6482,
      "गोविंद": 6483,
      "मध्यम": 6484,
      "हेल्प": 6485,
      "्युनि": 6486,
      "आलोक": 6487,
      "गवर्": 6488,
      "रिस": 6489,
      "सरस्व": 6490,
      "कुशल": 6491,
      "शियन": 6492,
      "मानसून": 6493,
      "डाली": 6494,
      "जायजा": 6495,
      "पकड़ने": 6496,
      "अजी": 6497,
      "जर्म": 6498,
      "वों": 6499,
      "हंस": 6500,
      "चुने": 6501,
      "संस्थापक": 6502,
      "ess": 6503,
      "आतंकवादियों": 6504,
      "जेटली": 6505,
      "सिपाही": 6506,
      "प्रधाना": 6507,
      "UP": 6508,
      "राना": 6509,
      "रामा": 6510,
      "प्रकृति": 6511,
      "निटाइ": 6512,
      "दिवाली": 6513,
      "लील": 6514,
      "मिलियन": 6515,
      "जिकल": 6516,
      "सौदा": 6517,
      "आशीर्वाद": 6518,
      "निरस्त": 6519,
      "01": 6520,
      "अत्या": 6521,
      "आपरा": 6522,
      "नस": 6523,
      "मरी": 6524,
      "सपने": 6525,
      "ैर": 6526,
      "बेस्ट": 6527,
      "एंबुलेंस": 6528,
      "आजकल": 6529,
      "सैनी": 6530,
      "गणतंत्र": 6531,
      "तूफान": 6532,
      "वाणिज्य": 6533,
      "सरस्वती": 6534,
      "जर्मनी": 6535,
      "250": 6536,
      "टके": 6537,
      "डै": 6538,
      "नमक": 6539,
      "वंचित": 6540,
      "विहार": 6541,
      "सिद्धा": 6542,
      "पहना": 6543,
      "चुअल": 6544,
      "शोषण": 6545,
      "कलन": 6546,
      "मांगे": 6547,
      "पाठक": 6548,
      "बिंदु": 6549,
      "दीपावली": 6550,
      "साझेदारी": 6551,
      "निरंतर": 6552,
      "राधा": 6553,
      "्यो": 6554,
      "गाजिया": 6555,
      "रिहा": 6556,
      "बुद्धि": 6557,
      "दुकानदार": 6558,
      "सियासी": 6559,
      "Ch": 6560,
      "सत्": 6561,
      "राठ": 6562,
      "मिनी": 6563,
      "रिलायंस": 6564,
      "क्रॉ": 6565,
      "डिवाइस": 6566,
      "सोन": 6567,
      "प्रतिष्ठा": 6568,
      "पार्किंग": 6569,
      "प्रयासों": 6570,
      "तलाशी": 6571,
      "ide": 6572,
      "पॉलिसी": 6573,
      "छेड़छाड़": 6574,
      "गाजियाबाद": 6575,
      "सऊ": 6576,
      "नाइट": 6577,
      "न्नी": 6578,
      "पुणे": 6579,
      "शिफ्ट": 6580,
      "मेश्वर": 6581,
      "डाले": 6582,
      "सबके": 6583,
      "ख़ि": 6584,
      "न्यायमूर्ति": 6585,
      "आपराधिक": 6586,
      "74": 6587,
      "एडि": 6588,
      "पटरी": 6589,
      "यती": 6590,
      "रवी": 6591,
      "एकमात्र": 6592,
      "मान्य": 6593,
      "बेन": 6594,
      "दुबई": 6595,
      "क्षेप": 6596,
      "मतगणना": 6597,
      "ट्रेट": 6598,
      "छेद": 6599,
      "रणवीर": 6600,
      "सेंसेक्स": 6601,
      "पुराण": 6602,
      "हड़कंप": 6603,
      "98": 6604,
      "आरा": 6605,
      "’’": 6606,
      "स्पॉ": 6607,
      "मांगने": 6608,
      "परीक्षाओं": 6609,
      "अर्था": 6610,
      "विषयों": 6611,
      "टनेस": 6612,
      "संभाल": 6613,
      "नतीजे": 6614,
      "धोखाध": 6615,
      "02": 6616,
      "रत्": 6617,
      "शनी": 6618,
      "काग": 6619,
      "सियस": 6620,
      "शिशु": 6621,
      "बैंड": 6622,
      "शीट": 6623,
      "धरती": 6624,
      "मजदूरी": 6625,
      "आखिरकार": 6626,
      "काउंटर": 6627,
      "शर्त": 6628,
      "यूरोप": 6629,
      "Indi": 6630,
      "मुरादाबाद": 6631,
      "पिक्सल": 6632,
      "राजमार्ग": 6633,
      "एनडीए": 6634,
      "समर्थक": 6635,
      "देखिए": 6636,
      "ंका": 6637,
      "कतों": 6638,
      "नसी": 6639,
      "काटने": 6640,
      "लेती": 6641,
      "हिद": 6642,
      "खुली": 6643,
      "ठान": 6644,
      "एनएच": 6645,
      "सुरेंद्र": 6646,
      "अर्पित": 6647,
      "बनेगा": 6648,
      "ड्डे": 6649,
      "सांसदों": 6650,
      "अलीगढ़": 6651,
      "जेएनएन": 6652,
      "सावधानी": 6653,
      "सर्वोच्च": 6654,
      "पैकेज": 6655,
      "ंदे": 6656,
      "मिसाइ": 6657,
      "बीस": 6658,
      "निर्मा": 6659,
      "अभिनय": 6660,
      "कल्पना": 6661,
      "चैंपियनशिप": 6662,
      "एम्": 6663,
      "कस्ट": 6664,
      "टीके": 6665,
      "रुचि": 6666,
      "निर्देशित": 6667,
      "संस्थाओं": 6668,
      "रजनी": 6669,
      "घेर": 6670,
      "मैनेजमेंट": 6671,
      "फेंक": 6672,
      "ल्यांकन": 6673,
      "तर्क": 6674,
      "सीपी": 6675,
      "संयोजक": 6676,
      "टीआई": 6677,
      "गीय": 6678,
      "बिहारी": 6679,
      "पड़ती": 6680,
      "एचओ": 6681,
      "गर्ल": 6682,
      "ब्राह्": 6683,
      "स्रो": 6684,
      "धोखाधड़ी": 6685,
      "इंग": 6686,
      "यमुना": 6687,
      "कीर्": 6688,
      "निम्": 6689,
      "संग्रह": 6690,
      "सितार": 6691,
      "जानकार": 6692,
      "दामों": 6693,
      "प्रत्याशियों": 6694,
      "चौराहे": 6695,
      "कच्चे": 6696,
      "मंत्रिमंडल": 6697,
      "सऊदी": 6698,
      "कहर": 6699,
      "छठ": 6700,
      "झग": 6701,
      "णु": 6702,
      "बढ": 6703,
      "ड़की": 6704,
      "अनुष्का": 6705,
      "लंबा": 6706,
      "2007": 6707,
      "पचारिक": 6708,
      "रसो": 6709,
      "िमा": 6710,
      "वाड़": 6711,
      "तेलं": 6712,
      "मुसल": 6713,
      "सरल": 6714,
      "मामू": 6715,
      "श्रमिक": 6716,
      "आरंभ": 6717,
      "दर्जनों": 6718,
      "परीत": 6719,
      "सराहना": 6720,
      "सेल्सियस": 6721,
      "इजाजत": 6722,
      "कस्बे": 6723,
      "पाठ्यक्रम": 6724,
      "61": 6725,
      "of": 6726,
      "अड्डे": 6727,
      "दोग": 6728,
      "विपरीत": 6729,
      "मिकी": 6730,
      "दीक्षित": 6731,
      "बीए": 6732,
      "अधिसूचना": 6733,
      "क्तू": 6734,
      "पैरा": 6735,
      "अवश्य": 6736,
      "घटनाएं": 6737,
      "जितनी": 6738,
      "शरीफ": 6739,
      "दवाओं": 6740,
      "कमलनाथ": 6741,
      "वेस्टइंडीज": 6742,
      "तेलंगाना": 6743,
      "अक्तू": 6744,
      "तबा": 6745,
      "रवै": 6746,
      "हसन": 6747,
      "मानक": 6748,
      "अंकित": 6749,
      "खेलते": 6750,
      "रोकथाम": 6751,
      "शुभकामना": 6752,
      "दलीय": 6753,
      "बुनियादी": 6754,
      "आश्रम": 6755,
      "किंग्स": 6756,
      "बाघ": 6757,
      "देनी": 6758,
      "अपलोड": 6759,
      "बैंकिंग": 6760,
      "बोलने": 6761,
      "फोड़": 6762,
      "पंथी": 6763,
      "बहुमत": 6764,
      "ख्याल": 6765,
      "तृण": 6766,
      "टाइगर": 6767,
      "दायरे": 6768,
      "Hindi": 6769,
      "फट": 6770,
      "नाले": 6771,
      "क्लि": 6772,
      "मास": 6773,
      "म्भ": 6774,
      "गोद": 6775,
      "प्राप्ति": 6776,
      "भूख": 6777,
      "पर्यटकों": 6778,
      "नजदीक": 6779,
      "मासूम": 6780,
      "फर्म": 6781,
      "मंग": 6782,
      "लांग": 6783,
      "संहिता": 6784,
      "पेशे": 6785,
      "ंटन": 6786,
      "उपलब्धि": 6787,
      "डोनाल्ड": 6788,
      "स्वीकृति": 6789,
      "हार्दिक": 6790,
      "आईएएनएस": 6791,
      "एग्जाम": 6792,
      "आमंत्रित": 6793,
      "od": 6794,
      "उच्": 6795,
      "बृ": 6796,
      "पुत्री": 6797,
      "चिह्": 6798,
      "यूजर": 6799,
      "सर्जरी": 6800,
      "जितेंद्र": 6801,
      "दुकानदारों": 6802,
      "कार्तिक": 6803,
      "स्पर्धा": 6804,
      "अक्तूबर": 6805,
      "आस्था": 6806,
      "पट्टी": 6807,
      "शर्म": 6808,
      "मात": 6809,
      "निस": 6810,
      "पाता": 6811,
      "मिथ": 6812,
      "ंगर": 6813,
      "शास्त्र": 6814,
      "युग": 6815,
      "करीना": 6816,
      "छोड़ा": 6817,
      "art": 6818,
      "विवादित": 6819,
      "प्रमोद": 6820,
      "द्वीप": 6821,
      "फैक्ट्री": 6822,
      "मामूली": 6823,
      "1000": 6824,
      "IS": 6825,
      "आर्य": 6826,
      "एगा": 6827,
      "खड़": 6828,
      "नमा": 6829,
      "विनय": 6830,
      "जिम": 6831,
      "हियों": 6832,
      "सरदार": 6833,
      "धानिक": 6834,
      "आरबीआई": 6835,
      "प्रत्यक्ष": 6836,
      "कोयला": 6837,
      "मुसलमानों": 6838,
      "og": 6839,
      "गंदगी": 6840,
      "डन": 6841,
      "ढूं": 6842,
      "नमू": 6843,
      "वरुण": 6844,
      "नितिन": 6845,
      "पाना": 6846,
      "रेख": 6847,
      "धारणा": 6848,
      "कहे": 6849,
      "10वीं": 6850,
      "स्कीम": 6851,
      "तृणमूल": 6852,
      "आँ": 6853,
      "बाधित": 6854,
      "थान": 6855,
      "सिख": 6856,
      "भाइयों": 6857,
      "गुर्": 6858,
      "करीबन": 6859,
      "परीक्ष": 6860,
      "भ्रमण": 6861,
      "मल्टी": 6862,
      "व्हाट्स": 6863,
      "कनाडा": 6864,
      "ऑर्डर": 6865,
      "गंग": 6866,
      "जश्न": 6867,
      "पवार": 6868,
      "बहाल": 6869,
      "किम": 6870,
      "टेशन": 6871,
      "दौलत": 6872,
      "छाया": 6873,
      "वैधानिक": 6874,
      "करीबी": 6875,
      "जगदी": 6876,
      "भूकंप": 6877,
      "जीतकर": 6878,
      "वृक्ष": 6879,
      "हॉल": 6880,
      "गृहमंत्री": 6881,
      "उतना": 6882,
      "सौंपी": 6883,
      "मेहता": 6884,
      "अवि": 6885,
      "जड़": 6886,
      "निस्त": 6887,
      "पाय": 6888,
      "ष्कार": 6889,
      "जेब": 6890,
      "परिचालन": 6891,
      "प्राइम": 6892,
      "हरीश": 6893,
      "बुलंद": 6894,
      "अमरीका": 6895,
      "जख्मी": 6896,
      "बिट": 6897,
      "श्वरी": 6898,
      "जेक्शन": 6899,
      "सम्बन्": 6900,
      "वेंट": 6901,
      "नैतिक": 6902,
      "सर्वेक्षण": 6903,
      "ट्रांसफर": 6904,
      "फ़िल्म": 6905,
      "आफ": 6906,
      "यज्ञ": 6907,
      "शमी": 6908,
      "मालि": 6909,
      "ार्क": 6910,
      "खुफिया": 6911,
      "मनमोहन": 6912,
      "ाराम": 6913,
      "बर्बाद": 6914,
      "पाइप": 6915,
      "मुआवजा": 6916,
      "सबूत": 6917,
      "05": 6918,
      "मसा": 6919,
      "लाह": 6920,
      "लाकर": 6921,
      "वारिक": 6922,
      "तोमर": 6923,
      "आपस": 6924,
      "पेयी": 6925,
      "जवाहर": 6926,
      "पूर्णिमा": 6927,
      "प्लास्टिक": 6928,
      "फुटेज": 6929,
      "मराह": 6930,
      "नकली": 6931,
      "साधनों": 6932,
      "अभिभावकों": 6933,
      "आवेद": 6934,
      "बलि": 6935,
      "यॉ": 6936,
      "्न": 6937,
      "दोस्ती": 6938,
      "बिया": 6939,
      "टिक्स": 6940,
      "बनता": 6941,
      "्राम": 6942,
      "सैफ": 6943,
      "मूल्यांकन": 6944,
      "कांस्टेबल": 6945,
      "सिद्धू": 6946,
      "नकदी": 6947,
      "भारतीयों": 6948,
      "ऊंचाई": 6949,
      "अटै": 6950,
      "बों": 6951,
      "राखी": 6952,
      "भीम": 6953,
      "सुने": 6954,
      "मेक": 6955,
      "चुप": 6956,
      "टिवि": 6957,
      "मैक": 6958,
      "अंधे": 6959,
      "कामकाज": 6960,
      "सैम": 6961,
      "सेवानि": 6962,
      "देवेंद्र": 6963,
      "एक्सचेंज": 6964,
      "।''": 6965,
      "रोगी": 6966,
      "परियोजनाओं": 6967,
      "ठोस": 6968,
      "इंस्टीट्यूट": 6969,
      "आधी": 6970,
      "औष": 6971,
      "कश्य": 6972,
      "धं": 6973,
      "बघे": 6974,
      "नेहा": 6975,
      "तिल": 6976,
      "दुल्": 6977,
      "ट्टर": 6978,
      "बैठने": 6979,
      "नीतियों": 6980,
      "अधिकारों": 6981,
      "खरीदा": 6982,
      "समझने": 6983,
      "गर्व": 6984,
      "रिश्ता": 6985,
      "व्ही": 6986,
      "पार्टनर": 6987,
      "इलेक्ट्रिक": 6988,
      "ड्रेस": 6989,
      "शिंगटन": 6990,
      "अमन": 6991,
      "अजीत": 6992,
      "अकाद": 6993,
      "लकड़ी": 6994,
      "मेंट्स": 6995,
      "रोमा": 6996,
      "अपमान": 6997,
      "सिंधिया": 6998,
      "पैठ": 6999,
      "फ़ोन": 7000,
      "छीन": 7001,
      "चिकित्साल": 7002,
      "स्टोरेज": 7003,
      "उतरे": 7004,
      "दरवाजे": 7005,
      "प्रवीण": 7006,
      "प्रोग्राम": 7007,
      "इर": 7008,
      "बहू": 7009,
      "िणी": 7010,
      "लांच": 7011,
      "खाद": 7012,
      "प्रतिबंधित": 7013,
      "ब्स": 7014,
      "महतो": 7015,
      "ग्स": 7016,
      "साइज": 7017,
      "सदस्यता": 7018,
      "कूट": 7019,
      "काउंसिल": 7020,
      "पारिवारिक": 7021,
      "ससुराल": 7022,
      "जगदीश": 7023,
      "कश्यप": 7024,
      "ठगी": 7025,
      "र्थी": 7026,
      "पहुँच": 7027,
      "अगला": 7028,
      "चर्य": 7029,
      "ल्लाह": 7030,
      "किराया": 7031,
      "वस्तुओं": 7032,
      "लिहाज": 7033,
      "ष्‍ट्र": 7034,
      "सेमीफाइनल": 7035,
      "बीत": 7036,
      "बुकिंग": 7037,
      "फेस": 7038,
      "मीरपुर": 7039,
      "तेजस्वी": 7040,
      "अनाज": 7041,
      "ब्राह्मण": 7042,
      "घी": 7043,
      "टर्": 7044,
      "सांप": 7045,
      "जिसमे": 7046,
      "लोग्राम": 7047,
      "प्रतिबद्ध": 7048,
      "हेल": 7049,
      "नागपुर": 7050,
      "निकाय": 7051,
      "उन्हीं": 7052,
      "परेशानियों": 7053,
      "हिन्दु": 7054,
      "आलिया": 7055,
      "दशा": 7056,
      "प्य": 7057,
      "स्म": 7058,
      "क्वार्": 7059,
      "वाटर": 7060,
      "दिखने": 7061,
      "इस्लाम": 7062,
      "आलू": 7063,
      "नकारात्मक": 7064,
      "ललित": 7065,
      "स्ति": 7066,
      "मिनि": 7067,
      "रिटर्न": 7068,
      "देशी": 7069,
      "ग्रो": 7070,
      "एसओ": 7071,
      "बनना": 7072,
      "भरत": 7073,
      "फेयर": 7074,
      "तृतीय": 7075,
      "संस्कृत": 7076,
      "सिलसिले": 7077,
      "दिलचस्प": 7078,
      "उमेश": 7079,
      "निभाई": 7080,
      "सीरिया": 7081,
      "सीएचसी": 7082,
      "संज्ञान": 7083,
      "मेयर": 7084,
      "योग्यता": 7085,
      "खेड़ा": 7086,
      "सैनिटाइ": 7087,
      "झाने": 7088,
      "खोले": 7089,
      "पेशकश": 7090,
      "दायि": 7091,
      "उन्होने": 7092,
      "84": 7093,
      "अन्न": 7094,
      "इंद्र": 7095,
      "कटा": 7096,
      "खर्": 7097,
      "हल्की": 7098,
      "आत्मा": 7099,
      "एशियाई": 7100,
      "मुजफ्फरपुर": 7101,
      "बघेल": 7102,
      "09": 7103,
      "लाइंस": 7104,
      "पीछा": 7105,
      "परिक": 7106,
      "कर्फ्यू": 7107,
      "फीचर्स": 7108,
      "भागने": 7109,
      "चौथी": 7110,
      "अवस्था": 7111,
      "फेर": 7112,
      "प्रिंट": 7113,
      "तुलसी": 7114,
      "चयनित": 7115,
      "शताब्दी": 7116,
      "83": 7117,
      "दबो": 7118,
      "िम": 7119,
      "किड": 7120,
      "किलोग्राम": 7121,
      "विक्रे": 7122,
      "शिवा": 7123,
      "कप्तानी": 7124,
      "दोषियों": 7125,
      "स्टील": 7126,
      "दस्तावे": 7127,
      "जदयू": 7128,
      "क्षतिग्रस्त": 7129,
      "hat": 7130,
      "ne": 7131,
      "शह": 7132,
      "कोष": 7133,
      "नाकाम": 7134,
      "क्टे": 7135,
      "ल्हा": 7136,
      "अनुराग": 7137,
      "कमीशन": 7138,
      "उच्चतम": 7139,
      "मुश्कि": 7140,
      "अन्त": 7141,
      "पहनने": 7142,
      "फ्लैट": 7143,
      "WE": 7144,
      "ap": 7145,
      "ter": 7146,
      "कबीर": 7147,
      "नाला": 7148,
      "फिटनेस": 7149,
      "पैनल": 7150,
      "हराकर": 7151,
      "दिग्विजय": 7152,
      "संरचना": 7153,
      "नतीजा": 7154,
      "मोटरसाइकिल": 7155,
      "प्रोत्साहित": 7156,
      "बृहस्पतिवार": 7157,
      "सिद्धांत": 7158,
      "ment": 7159,
      "आभार": 7160,
      "थियों": 7161,
      "शशि": 7162,
      "केके": 7163,
      "लाठी": 7164,
      "सालाना": 7165,
      "जीपुर": 7166,
      "सुल्": 7167,
      "बारह": 7168,
      "बेटियों": 7169,
      "मोड": 7170,
      "यूएस": 7171,
      "चेत": 7172,
      "अवतार": 7173,
      "एडमिशन": 7174,
      "उतारा": 7175,
      "अभ्यर्थी": 7176,
      "न्वयन": 7177,
      "विस्फोट": 7178,
      "सुर्खियों": 7179,
      "फतेह": 7180,
      "तं": 7181,
      "पहिया": 7182,
      "मेंस": 7183,
      "परिचय": 7184,
      "सूबे": 7185,
      "फाउ": 7186,
      "डेब्यू": 7187,
      "क्रमश": 7188,
      "कोरोनावायरस": 7189,
      "प्रोटो": 7190,
      "वीरेंद्र": 7191,
      "उठाकर": 7192,
      "गौरी": 7193,
      "पश्चात": 7194,
      "800": 7195,
      "इमर": 7196,
      "कड़े": 7197,
      "दिसम्": 7198,
      "पाती": 7199,
      "शासक": 7200,
      "ट्टे": 7201,
      "परेड": 7202,
      "निर्देशन": 7203,
      "बचत": 7204,
      "प्राथमिकी": 7205,
      "छिड़": 7206,
      "आकर्षित": 7207,
      "अक": 7208,
      "गहरी": 7209,
      "जोग": 7210,
      "नमेंट": 7211,
      "बहि": 7212,
      "मकर": 7213,
      "सवा": 7214,
      "मेंद्र": 7215,
      "वाइंट": 7216,
      "गाड़ियों": 7217,
      "मिठा": 7218,
      "सियत": 7219,
      "चाकू": 7220,
      "सोचा": 7221,
      "खुलने": 7222,
      "बसें": 7223,
      "हत्याकांड": 7224,
      "बालक": 7225,
      "आवागमन": 7226,
      "यूरोपीय": 7227,
      "दोगु": 7228,
      "St": 7229,
      "ip": 7230,
      "खातों": 7231,
      "भागवत": 7232,
      "धारकों": 7233,
      "श्रीमती": 7234,
      "मदन": 7235,
      "ख्यात": 7236,
      "कश्मी": 7237,
      "ate": 7238,
      "ख़ु": 7239,
      "अमल": 7240,
      "हिस्सेदारी": 7241,
      "दयाल": 7242,
      "अगुवाई": 7243,
      "MP": 7244,
      "आकलन": 7245,
      "चका": 7246,
      "म्या": 7247,
      "सेकेंड": 7248,
      "लियम": 7249,
      "थानों": 7250,
      "पीढ़ी": 7251,
      "बैनर": 7252,
      "कैसा": 7253,
      "चेन": 7254,
      "पैन": 7255,
      "फैशन": 7256,
      "पर्टी": 7257,
      "डूब": 7258,
      "मृतकों": 7259,
      "अंदाजा": 7260,
      "फायदेमंद": 7261,
      "89": 7262,
      "आड": 7263,
      "उद्ध": 7264,
      "ठहरा": 7265,
      "तकरीबन": 7266,
      "दंप": 7267,
      "शय": 7268,
      "ल्टी": 7269,
      "ंडि": 7270,
      "शिर": 7271,
      "लगाम": 7272,
      "एसडीओ": 7273,
      "कमर": 7274,
      "फैलाने": 7275,
      "सकेगी": 7276,
      "रिपोर्ट्स": 7277,
      "ख्त": 7278,
      "धर्मशाला": 7279,
      "प्रकोप": 7280,
      "दिसम्बर": 7281,
      "WWE": 7282,
      "भद्र": 7283,
      "स्किन": 7284,
      "विज": 7285,
      "विफल": 7286,
      "दाई": 7287,
      "जीएम": 7288,
      "प्पी": 7289,
      "मानने": 7290,
      "गुहार": 7291,
      "चेकिंग": 7292,
      "दरों": 7293,
      "सहकारी": 7294,
      "शिकायतों": 7295,
      "जेंसी": 7296,
      "रोडवेज": 7297,
      "ंडेशन": 7298,
      "चरणों": 7299,
      "ंटाइन": 7300,
      "दरवाजा": 7301,
      "NC": 7302,
      "Ph": 7303,
      "अधू": 7304,
      "कवा": 7305,
      "दहेज": 7306,
      "नहा": 7307,
      "वसाय": 7308,
      "शार": 7309,
      "इसने": 7310,
      "चाचा": 7311,
      "रेस": 7312,
      "लगाएं": 7313,
      "स्थाई": 7314,
      "दर्शित": 7315,
      "प्रिं": 7316,
      "लक्ष्मण": 7317,
      "तत्वों": 7318,
      "छानबीन": 7319,
      "86": 7320,
      "उन्न": 7321,
      "टित": 7322,
      "वला": 7323,
      "क्ट्रेट": 7324,
      "पुण्य": 7325,
      "पीटा": 7326,
      "गुट": 7327,
      "गुम": 7328,
      "डीएस": 7329,
      "डीएसपी": 7330,
      "आईएस": 7331,
      "सर्दी": 7332,
      "ट्रेडिंग": 7333,
      "दुनियाभर": 7334,
      "जायसवाल": 7335,
      "बोलते": 7336,
      "आश्चर्य": 7337,
      "रिश्तेदार": 7338,
      "उन्‍हें": 7339,
      "उपकरणों": 7340,
      "ग्लोबल": 7341,
      "अख्": 7342,
      "कम्": 7343,
      "शत्रु": 7344,
      "किं": 7345,
      "लानी": 7346,
      "वाकर": 7347,
      "प्रण": 7348,
      "मासिक": 7349,
      "श्वे": 7350,
      "च्छेद": 7351,
      "बुद्ध": 7352,
      "शिकायतें": 7353,
      "गर्भ": 7354,
      "सुपरस्टार": 7355,
      "भोजपुरी": 7356,
      "आंगनबाड़ी": 7357,
      "II": 7358,
      "धव": 7359,
      "वहाँ": 7360,
      "हमीरपुर": 7361,
      "प्रकट": 7362,
      "सीआरपीएफ": 7363,
      "लीक": 7364,
      "पीडि़": 7365,
      "रेत": 7366,
      "क्रू": 7367,
      "शुक्ल": 7368,
      "दर्जा": 7369,
      "शेट्टी": 7370,
      "कहता": 7371,
      "केंद्रित": 7372,
      "हॉकी": 7373,
      "ड्यूल": 7374,
      "स्नातक": 7375,
      "कॉमर्स": 7376,
      "गड़बड़ी": 7377,
      "अल्पसंख्यक": 7378,
      "120": 7379,
      "600": 7380,
      "नर्म": 7381,
      "लखी": 7382,
      "सक्": 7383,
      "हाली": 7384,
      "शाहिद": 7385,
      "योजित": 7386,
      "वंशी": 7387,
      "कम्युनि": 7388,
      "फैलने": 7389,
      "लैप": 7390,
      "अस्ति": 7391,
      "चलाई": 7392,
      "लड़कियां": 7393,
      "बजकर": 7394,
      "रिश्वत": 7395,
      "ग्रेड": 7396,
      "प्रस्तुति": 7397,
      "झूठ": 7398,
      "इकट्": 7399,
      "चिकित्सालय": 7400,
      "इत्या": 7401,
      "कमाल": 7402,
      "रमन": 7403,
      "वाम": 7404,
      "प्रदर्शित": 7405,
      "साइंस": 7406,
      "टीचर": 7407,
      "जोड़े": 7408,
      "पर्स": 7409,
      "भावनाओं": 7410,
      "one": 7411,
      "निशाने": 7412,
      "पंजीकृत": 7413,
      "ज्योतिष": 7414,
      "विविध": 7415,
      "उज्जैन": 7416,
      "दायित्व": 7417,
      "Cor": 7418,
      "इन्होंने": 7419,
      "क्वालि": 7420,
      "चिद": 7421,
      "इंकार": 7422,
      "बोतल": 7423,
      "वैसी": 7424,
      "मनरेगा": 7425,
      "रैम": 7426,
      "सदस्यीय": 7427,
      "टेंडर": 7428,
      "रसोई": 7429,
      "IC": 7430,
      "कमेंट": 7431,
      "गड": 7432,
      "चमक": 7433,
      "टर्स": 7434,
      "रिज": 7435,
      "पहने": 7436,
      "चुरा": 7437,
      "पोरेट": 7438,
      "धीमी": 7439,
      "धरने": 7440,
      "क्टर्स": 7441,
      "उद्योगों": 7442,
      "पशुओं": 7443,
      "जबरन": 7444,
      "सेल्फी": 7445,
      "आकर्षक": 7446,
      "डिस्प्ले": 7447,
      "गुलाब": 7448,
      "दहशत": 7449,
      "शुभकामनाएं": 7450,
      "VID": 7451,
      "कसा": 7452,
      "कतार": 7453,
      "झड़": 7454,
      "टमा": 7455,
      "भती": 7456,
      "य़": 7457,
      "शनों": 7458,
      "काव": 7459,
      "निदेशा": 7460,
      "निफ्टी": 7461,
      "मिड": 7462,
      "कुल्लू": 7463,
      "सुष": 7464,
      "रेस्ट": 7465,
      "कैच": 7466,
      "हेमंत": 7467,
      "लैस": 7468,
      "व्यवसा": 7469,
      "रैना": 7470,
      "टाइम्स": 7471,
      "वायुसेना": 7472,
      "प्रदर्शनी": 7473,
      "नीलामी": 7474,
      "हस्तक्षेप": 7475,
      "03": 7476,
      "up": 7477,
      "एजु": 7478,
      "डऩे": 7479,
      "दबंग": 7480,
      "बैन": 7481,
      "अबतक": 7482,
      "डालें": 7483,
      "महंत": 7484,
      "हेक्टे": 7485,
      "अवकाश": 7486,
      "अधीन": 7487,
      "एकत्रित": 7488,
      "मजाक": 7489,
      "आक्रोश": 7490,
      "अस्तित्व": 7491,
      "ce": 7492,
      "धड़": 7493,
      "नशा": 7494,
      "सरो": 7495,
      "हज़ार": 7496,
      "गाई": 7497,
      "पाउ": 7498,
      "रोशनी": 7499,
      "कुशी": 7500,
      "पीयू": 7501,
      "दोहरा": 7502,
      "गिन": 7503,
      "निकाले": 7504,
      "स्वीकृत": 7505,
      "स्पीकर": 7506,
      "आत्मनिर्भर": 7507,
      "क्वार्टर": 7508,
      "81": 7509,
      "JP": 7510,
      "इयां": 7511,
      "उग्र": 7512,
      "पर्ट": 7513,
      "कालोनी": 7514,
      "स्पोर्ट": 7515,
      "तांत्रिक": 7516,
      "क्ट्स": 7517,
      "तित": 7518,
      "संपूर्ण": 7519,
      "जिट": 7520,
      "सुहा": 7521,
      "मीना": 7522,
      "चिंति": 7523,
      "बंट": 7524,
      "जानना": 7525,
      "अनुच्छेद": 7526,
      "अंबानी": 7527,
      "कराकर": 7528,
      "ज्‍या": 7529,
      "व्याख्या": 7530,
      "उठाते": 7531,
      "सीबीएसई": 7532,
      "दक्षिणी": 7533,
      "रॉयल": 7534,
      "कुर्सी": 7535,
      "इलेक्ट्रॉ": 7536,
      "टिफिकेशन": 7537,
      "डीजीपी": 7538,
      "आंतरिक": 7539,
      "इत्यादि": 7540,
      "निदेशालय": 7541,
      "पठान": 7542,
      "फर्क": 7543,
      "केल": 7544,
      "साक्षा": 7545,
      "टीएस": 7546,
      "बेरोजग": 7547,
      "बनाता": 7548,
      "पेट्रो": 7549,
      "फील्ड": 7550,
      "बोझ": 7551,
      "फिल्‍म": 7552,
      "बनती": 7553,
      "वृत्त": 7554,
      "सतर्क": 7555,
      "हिमालय": 7556,
      "गारंटी": 7557,
      "गाइडलाइन": 7558,
      "अंतरिक्ष": 7559,
      "आइसोलेशन": 7560,
      "डिस्टें": 7561,
      "चिंतित": 7562,
      "370": 7563,
      "वरेज": 7564,
      "स्मार": 7565,
      "परन्तु": 7566,
      "गाली": 7567,
      "तेश": 7568,
      "सुमन": 7569,
      "बीती": 7570,
      "ार्स": 7571,
      "जेई": 7572,
      "टिका": 7573,
      "हमलों": 7574,
      "उत्साहित": 7575,
      "शीला": 7576,
      "व्यावसाय": 7577,
      "परीक्षाएं": 7578,
      "मोहल्ले": 7579,
      "प्रतिनिधित्व": 7580,
      "गोलीबारी": 7581,
      "इन्हीं": 7582,
      "सौरभ": 7583,
      "राजेन्द्र": 7584,
      "ट्रॉफी": 7585,
      "मिसाइल": 7586,
      "ज्‍यादा": 7587,
      "ist": 7588,
      "अय": 7589,
      "अरो": 7590,
      "अमीर": 7591,
      "ईमेल": 7592,
      "ठप": 7593,
      "लद्दा": 7594,
      "सभाग": 7595,
      "सेले": 7596,
      "स्कै": 7597,
      "न्ने": 7598,
      "सिक्यो": 7599,
      "वर्स": 7600,
      "ज़न": 7601,
      "फ्लू": 7602,
      "खुराक": 7603,
      "चौथा": 7604,
      "ंगाबाद": 7605,
      "चर्च": 7606,
      "फॉलो": 7607,
      "मोहल्ला": 7608,
      "ड्रि": 7609,
      "सहारनपुर": 7610,
      "नक्सली": 7611,
      "प्रशंसा": 7612,
      "फाउंडेशन": 7613,
      "आडवाणी": 7614,
      "सुषमा": 7615,
      "आस्ट्रेलिया": 7616,
      "उमा": 7617,
      "चने": 7618,
      "वण": 7619,
      "शून": 7620,
      "हनी": 7621,
      "र्या": 7622,
      "प्रता": 7623,
      "पाटी": 7624,
      "अपार्ट": 7625,
      "क्रय": 7626,
      "मौर्य": 7627,
      "लगंज": 7628,
      "मुखी": 7629,
      "बनार": 7630,
      "हितों": 7631,
      "जलवायु": 7632,
      "रणबीर": 7633,
      "विचारों": 7634,
      "मण्ड": 7635,
      "धाराओं": 7636,
      "रोगियों": 7637,
      "बहाने": 7638,
      "फंसा": 7639,
      "घूमने": 7640,
      "आवंटित": 7641,
      "वेरिएंट": 7642,
      "ढूंढ": 7643,
      "बेरोजगारी": 7644,
      "08": 7645,
      "oc": 7646,
      "खौ": 7647,
      "गन्ना": 7648,
      "तले": 7649,
      "००": 7650,
      "नेश्वर": 7651,
      "दिलाई": 7652,
      "सीम": 7653,
      "पाये": 7654,
      "रूपा": 7655,
      "ार्ज": 7656,
      "कहकर": 7657,
      "डेविड": 7658,
      "चैलें": 7659,
      "दर्शक": 7660,
      "ब्रिज": 7661,
      "विरासत": 7662,
      "प्रशंसक": 7663,
      "क्वारंटाइन": 7664,
      "हेक्टेयर": 7665,
      "उजा": 7666,
      "चरि": 7667,
      "बर्थ": 7668,
      "जातक": 7669,
      "गायक": 7670,
      "मिस": 7671,
      "मिका": 7672,
      "मीणा": 7673,
      "जनसंख्या": 7674,
      "महे": 7675,
      "आरके": 7676,
      "त्याग": 7677,
      "गर्ग": 7678,
      "गरीबी": 7679,
      "स्पिनर": 7680,
      "प्रसारण": 7681,
      "निस्तारण": 7682,
      "लैपटॉप": 7683,
      "एजुकेशन": 7684,
      "लद्दाख": 7685,
      "92": 7686,
      "ob": 7687,
      "जहर": 7688,
      "सेवी": 7689,
      "कोषा": 7690,
      "वाड़ी": 7691,
      "जाट": 7692,
      "संपाद": 7693,
      "त्तम": 7694,
      "दांत": 7695,
      "ग्रं": 7696,
      "जेशन": 7697,
      "बनाएं": 7698,
      "पूर्वा": 7699,
      "बहनों": 7700,
      "उठाना": 7701,
      "वृद्ध": 7702,
      "कीमतें": 7703,
      "स्टिंग": 7704,
      "पहाड़": 7705,
      "म्यूजिक": 7706,
      "सुल्तान": 7707,
      "700": 7708,
      "BS": 7709,
      "झील": 7710,
      "डों": 7711,
      "प्रिया": 7712,
      "विद्": 7713,
      "बामा": 7714,
      "सीना": 7715,
      "जिल": 7716,
      "मुसी": 7717,
      "खाया": 7718,
      "बेरोजगार": 7719,
      "सोसाय": 7720,
      "ज़े": 7721,
      "गोदाम": 7722,
      "मनाई": 7723,
      "ख़बर": 7724,
      "घुसपैठ": 7725,
      "मेगापिक्सल": 7726,
      "वाजपेयी": 7727,
      "ive": 7728,
      "कवायद": 7729,
      "ww": 7730,
      "औपचारिक": 7731,
      "साहन": 7732,
      "नीर": 7733,
      "टीज": 7734,
      "बिका": 7735,
      "डिफ": 7736,
      "मोर": 7737,
      "वोटिंग": 7738,
      "सलामी": 7739,
      "देवता": 7740,
      "निकासी": 7741,
      "सब्सिडी": 7742,
      "भरोसे": 7743,
      "निराशा": 7744,
      "भंडार": 7745,
      "नर्मदा": 7746,
      "97": 7747,
      "BI": 7748,
      "अतुल": 7749,
      "आब": 7750,
      "ओसी": 7751,
      "बजर": 7752,
      "मच्छ": 7753,
      "हाथी": 7754,
      "दिलाया": 7755,
      "देहा": 7756,
      "रोटी": 7757,
      "वीएम": 7758,
      "प्रतिभाग": 7759,
      "डेन": 7760,
      "कांग्रेसी": 7761,
      "कृपा": 7762,
      "चाहिये": 7763,
      "पत्रों": 7764,
      "प्रोसे": 7765,
      "कमांडर": 7766,
      "टेंशन": 7767,
      "घटकर": 7768,
      "शून्य": 7769,
      "IN": 7770,
      "षभ": 7771,
      "वालय": 7772,
      "कारिणी": 7773,
      "मुहिम": 7774,
      "ष्मान": 7775,
      "बैड": 7776,
      "अनुबंध": 7777,
      "शोभा": 7778,
      "कृष्ट": 7779,
      "चरम": 7780,
      "क्‍स": 7781,
      "नैनी": 7782,
      "आदत": 7783,
      "गेंदबाजों": 7784,
      "चिदंबर": 7785,
      "व्यावसायिक": 7786,
      "):": 7787,
      "if": 7788,
      "लघु": 7789,
      "।।": 7790,
      "साइन": 7791,
      "विनि": 7792,
      "सीएस": 7793,
      "पांव": 7794,
      "संयंत्र": 7795,
      "संवैधानिक": 7796,
      "ष्क": 7797,
      "वर्गीय": 7798,
      "जिसको": 7799,
      "रुपया": 7800,
      "महानिदेशक": 7801,
      "लूस": 7802,
      "इंडो": 7803,
      "सेंसर": 7804,
      "पीड़ितों": 7805,
      "अत्यंत": 7806,
      "चिदंबरम": 7807,
      "RA": 7808,
      "अस": 7809,
      "घंटा": 7810,
      "पका": 7811,
      "वामा": 7812,
      "माद": 7813,
      "पांड": 7814,
      "क्षु": 7815,
      "जील": 7816,
      "मेडल": 7817,
      "जानता": 7818,
      "कराते": 7819,
      "धनु": 7820,
      "एक्सपर्ट": 7821,
      "हटाया": 7822,
      "निकालकर": 7823,
      "छुट": 7824,
      "कारोबारियों": 7825,
      "फुटबॉल": 7826,
      "कचरा": 7827,
      "अर्थात": 7828,
      "निम्न": 7829,
      "आहार": 7830,
      "घबरा": 7831,
      "ूक": 7832,
      "’,": 7833,
      "क्वा": 7834,
      "निचले": 7835,
      "नीता": 7836,
      "एकल": 7837,
      "ल्ल": 7838,
      "रिय": 7839,
      "वेशन": 7840,
      "श्ती": 7841,
      "अधिग्रहण": 7842,
      "कार्यकारिणी": 7843,
      "लगवाने": 7844,
      "पोरेशन": 7845,
      "फ्लाइट": 7846,
      "रखती": 7847,
      "आरएसएस": 7848,
      "डेवल": 7849,
      "महाप": 7850,
      "ब्रो": 7851,
      "अफवाह": 7852,
      "ड्रोन": 7853,
      "आयुष्मान": 7854,
      "सहारे": 7855,
      "बर्फबारी": 7856,
      "बेंगलुरु": 7857,
      "अकादमी": 7858,
      "इच्छ": 7859,
      "जहरी": 7860,
      "धना": 7861,
      "बसे": 7862,
      "मजे": 7863,
      "यकीन": 7864,
      "िए": 7865,
      "प्रै": 7866,
      "संसार": 7867,
      "टीबी": 7868,
      "जेश": 7869,
      "जानवरों": 7870,
      "प्राण": 7871,
      "पासपोर्ट": 7872,
      "सचिवालय": 7873,
      "आयात": 7874,
      "बिल्डिंग": 7875,
      "अध्यापक": 7876,
      "टेक्नो": 7877,
      "प्रोत्साहन": 7878,
      "ब्रह्म": 7879,
      "अमृतसर": 7880,
      "डिस्टेंसिंग": 7881,
      "महापौर": 7882,
      "ओबामा": 7883,
      "सद्": 7884,
      "कारक": 7885,
      "लीड": 7886,
      "त्ती": 7887,
      "बीवी": 7888,
      "अनंत": 7889,
      "डील": 7890,
      "पेक्ष": 7891,
      "कर्ण": 7892,
      "अंकुश": 7893,
      "कामों": 7894,
      "महानगर": 7895,
      "नोडल": 7896,
      "सौदे": 7897,
      "दुर्ग": 7898,
      "स्कूली": 7899,
      "ज़रूरत": 7900,
      "समन्वय": 7901,
      "अट": 7902,
      "अरु": 7903,
      "आश्र": 7904,
      "नदियों": 7905,
      "जाही": 7906,
      "प्रदायिक": 7907,
      "शास्": 7908,
      "मील": 7909,
      "चारा": 7910,
      "अनुदान": 7911,
      "बोल्ड": 7912,
      "ंटल": 7913,
      "व्यास": 7914,
      "नवरा": 7915,
      "जॉब": 7916,
      "कठोर": 7917,
      "हथियारों": 7918,
      "जरुरत": 7919,
      "आवंटन": 7920,
      "उद्धव": 7921,
      "सभागार": 7922,
      "ia": 7923,
      "अस्थायी": 7924,
      "तबाद": 7925,
      "बार्": 7926,
      "हें": 7927,
      "रिक्शा": 7928,
      "डिमांड": 7929,
      "पैसों": 7930,
      "सनसनी": 7931,
      "हारे": 7932,
      "दरबार": 7933,
      "चलाए": 7934,
      "बनेगी": 7935,
      "मॉल": 7936,
      "चंदन": 7937,
      "पुलवामा": 7938,
      "हार्ट": 7939,
      "पदार्थों": 7940,
      "96": 7941,
      "pr": 7942,
      "प्रच": 7943,
      "गान": 7944,
      "रुस्त": 7945,
      "भागलपुर": 7946,
      "पैरों": 7947,
      "नवम्बर": 7948,
      "एंड्र": 7949,
      "वोटों": 7950,
      "अश्लील": 7951,
      "दृष्टिकोण": 7952,
      "अजमेर": 7953,
      "प्रीमियम": 7954,
      "इमरजेंसी": 7955,
      "खौफ": 7956,
      "App": 7957,
      "ंकर": 7958,
      "ंपरिक": 7959,
      "ओप": 7960,
      "कपड़": 7961,
      "राफेल": 7962,
      "सिग": 7963,
      "खां": 7964,
      "एमएल": 7965,
      "पहुंचते": 7966,
      "कॉपी": 7967,
      "डेरा": 7968,
      "स्वराज": 7969,
      "घटनाक्रम": 7970,
      "जितने": 7971,
      "पारंपरिक": 7972,
      "2005": 7973,
      "इटली": 7974,
      "ऑफिसर": 7975,
      "खुलकर": 7976,
      "गाँधी": 7977,
      "कामयाबी": 7978,
      "भेदभाव": 7979,
      "दिव्यांग": 7980,
      "शिलान्यास": 7981,
      "ंश": 7982,
      "असिस्ट": 7983,
      "बग": 7984,
      "लेवा": 7985,
      "सीने": 7986,
      "सिक्": 7987,
      "आपसे": 7988,
      "दुआ": 7989,
      "पेमेंट": 7990,
      "पहुँ": 7991,
      "जुलूस": 7992,
      "दिखाते": 7993,
      "गणित": 7994,
      "जरूरतमंद": 7995,
      "कूड़ा": 7996,
      "ट्रेनें": 7997,
      "जमशे": 7998,
      "समूहों": 7999,
      "मुकदमे": 8000,
      "शहीदों": 8001,
      "बढ़ेगी": 8002,
      "धर्मेंद्र": 8003,
      "चम्मच": 8004,
      "इमारत": 8005,
      "विश्लेषण": 8006,
      "सब्जियों": 8007,
      "टिविटी": 8008,
      "Me": 8009,
      "दलि": 8010,
      "बवाल": 8011,
      "कोचिंग": 8012,
      "सावधान": 8013,
      "मिर्जा": 8014,
      "श्मा": 8015,
      "मौलाना": 8016,
      "परिचित": 8017,
      "पेड": 8018,
      "फास्ट": 8019,
      "चीज़": 8020,
      "राज्यमंत्री": 8021,
      "समझते": 8022,
      "विदेशों": 8023,
      "पाएगा": 8024,
      "संक्रा": 8025,
      "निर्वाचित": 8026,
      "उतरने": 8027,
      "संतुष्ट": 8028,
      "स्पॉट": 8029,
      "India": 8030,
      "स्रोत": 8031,
      "ri": 8032,
      "इको": 8033,
      "उभर": 8034,
      "ऑप्शन": 8035,
      "कपड़ा": 8036,
      "जली": 8037,
      "नकद": 8038,
      "मदर": 8039,
      "सेकंड": 8040,
      "राष्‍ट्र": 8041,
      "जातीय": 8042,
      "बाप": 8043,
      "देही": 8044,
      "मिर्च": 8045,
      "मीरा": 8046,
      "मानवा": 8047,
      "लोकल": 8048,
      "गंवा": 8049,
      "लॉट": 8050,
      "निराश": 8051,
      ".’’": 8052,
      "प्रीमियर": 8053,
      "दुल्हन": 8054,
      "सिक्योरिटी": 8055,
      "इच्छुक": 8056,
      "87": 8057,
      "An": 8058,
      "अन्ना": 8059,
      "इवेंट": 8060,
      "एई": 8061,
      "डबल": 8062,
      "थल": 8063,
      "सरोज": 8064,
      "किले": 8065,
      "लिस": 8066,
      "रेडियो": 8067,
      "प्पू": 8068,
      "सिंगा": 8069,
      "नौत": 8070,
      "युवराज": 8071,
      "ब्रॉ": 8072,
      "बंधक": 8073,
      "लिखने": 8074,
      "फार्मा": 8075,
      "काटकर": 8076,
      "सच्चाई": 8077,
      "ख़िला": 8078,
      "गुर्जर": 8079,
      "टमाटर": 8080,
      "चरित्र": 8081,
      "सोसायटी": 8082,
      "कपड़ों": 8083,
      "CO": 8084,
      "उजागर": 8085,
      "ऊंची": 8086,
      "कन्न": 8087,
      "छक्के": 8088,
      "भया": 8089,
      "वस्त्र": 8090,
      "……": 8091,
      "्रि": 8092,
      "लिं": 8093,
      "जाबाद": 8094,
      "साड़ी": 8095,
      "माफ": 8096,
      "मुह": 8097,
      "दाग": 8098,
      "चाप": 8099,
      "रहाल": 8100,
      "गुड़": 8101,
      "गोप": 8102,
      "एनटी": 8103,
      "नोटिफिकेशन": 8104,
      "चलाते": 8105,
      "2006": 8106,
      "ers": 8107,
      "ऑस्ट्रेलियाई": 8108,
      "निपटा": 8109,
      "94": 8110,
      "इमाम": 8111,
      "एएन": 8112,
      "हकी": 8113,
      "हर्": 8114,
      "ियल": 8115,
      "​​": 8116,
      "केटिंग": 8117,
      "ल्वर": 8118,
      "रिटायर": 8119,
      "स्टार्स": 8120,
      "पहार": 8121,
      "कैपि": 8122,
      "बनते": 8123,
      "धनराशि": 8124,
      "चौके": 8125,
      "बैठी": 8126,
      "आवाजाही": 8127,
      "पंजीयन": 8128,
      "अत्यधिक": 8129,
      "ंगुली": 8130,
      "दस्तावेजों": 8131,
      "Coron": 8132,
      "मानवाधिकार": 8133,
      "06": 8134,
      "BJP": 8135,
      "एपी": 8136,
      "एपि": 8137,
      "तबी": 8138,
      "‍स": 8139,
      "नेगी": 8140,
      "जाँच": 8141,
      "सीधी": 8142,
      "एकदम": 8143,
      "निर्दलीय": 8144,
      "यूज": 8145,
      "फोकस": 8146,
      "पालक": 8147,
      "श्रीकृष्ण": 8148,
      "सितम्बर": 8149,
      "ठेके": 8150,
      "एडमिट": 8151,
      "विवेदी": 8152,
      "प्लेटफार्म": 8153,
      "प्रॉपर्टी": 8154,
      "उदयपुर": 8155,
      "पौधों": 8156,
      "डिलीवरी": 8157,
      "07": 8158,
      "eb": 8159,
      "आक्रा": 8160,
      "खन्ना": 8161,
      "पचा": 8162,
      "मप्र": 8163,
      "लाद": 8164,
      "परम": 8165,
      "देसी": 8166,
      "गांगुली": 8167,
      "संग्र": 8168,
      "सिग्": 8169,
      "मुसलमान": 8170,
      "हिदा": 8171,
      "सरत": 8172,
      "टेलि": 8173,
      "आईआईटी": 8174,
      "व्यय": 8175,
      "धनबाद": 8176,
      "पर्दा": 8177,
      "मार्गदर्शन": 8178,
      "क्‍त": 8179,
      "मंजूर": 8180,
      "घेरा": 8181,
      "रहेंगी": 8182,
      "तबीयत": 8183,
      "93": 8184,
      "आर्ट": 8185,
      "उपहार": 8186,
      "घड़ी": 8187,
      "ठु": 8188,
      "णवी": 8189,
      "वड़ा": 8190,
      "सेलि": 8191,
      "स्ड": 8192,
      "स्सी": 8193,
      "साधु": 8194,
      "मित्रों": 8195,
      "संसाधनों": 8196,
      "दाश्त": 8197,
      "खाई": 8198,
      "डिपार्ट": 8199,
      "अनूप": 8200,
      "वैन": 8201,
      "ine": 8202,
      "सिंगर": 8203,
      "सॉफ्टवेयर": 8204,
      "यॉर्क": 8205,
      "बया": 8206,
      "कीपर": 8207,
      "गीर": 8208,
      "अनो": 8209,
      "आरएस": 8210,
      "ंतरित": 8211,
      "प्रोटीन": 8212,
      "प्रदर्शनकारियों": 8213,
      "समझना": 8214,
      "उपलब्धता": 8215,
      "बरतने": 8216,
      "अटैक": 8217,
      "बहिष्कार": 8218,
      "साक्षात्कार": 8219,
      "आबकारी": 8220,
      "एथ": 8221,
      "वाहि": 8222,
      "राई": 8223,
      "निज": 8224,
      "बाबत": 8225,
      "संभाग": 8226,
      "टीक": 8227,
      "जीने": 8228,
      "द्विवेदी": 8229,
      "टाउन": 8230,
      "सोनम": 8231,
      "स्‍तान": 8232,
      "रावण": 8233,
      "आंधी": 8234,
      "बचें": 8235,
      "विवादों": 8236,
      "तुलन": 8237,
      "पहलवान": 8238,
      "जहाज": 8239,
      "कली": 8240,
      "लायक": 8241,
      "बास": 8242,
      "देय": 8243,
      "पूनम": 8244,
      "जनजाति": 8245,
      "शुगर": 8246,
      "लगाव": 8247,
      "दूत": 8248,
      "दर्शी": 8249,
      "कार्यशाला": 8250,
      "गोला": 8251,
      "डेड": 8252,
      "बहरहाल": 8253,
      "झांसी": 8254,
      "बूझ": 8255,
      "दुर्भाग्य": 8256,
      "स्टोरी": 8257,
      "दृढ़": 8258,
      "गायत्री": 8259,
      "अश्विन": 8260,
      "अब्दु": 8261,
      "IPL": 8262,
      "पर्सनल": 8263,
      "किंतु": 8264,
      "उठे": 8265,
      "कपा": 8266,
      "कटि": 8267,
      "जडे": 8268,
      "ैया": 8269,
      "कोने": 8270,
      "न्वित": 8271,
      "तोड़ा": 8272,
      "अनदेखी": 8273,
      "बोर": 8274,
      "ट्ठी": 8275,
      "108": 8276,
      "अन्यथा": 8277,
      "खेलना": 8278,
      "रैंकिंग": 8279,
      "पंजाबी": 8280,
      "जताते": 8281,
      "छात्राएं": 8282,
      "रोगों": 8283,
      "हल्के": 8284,
      "सहमत": 8285,
      "बढ़ेगा": 8286,
      "क्विंटल": 8287,
      "व्यवसायी": 8288,
      "विनिमय": 8289,
      "ँकि": 8290,
      "अनियमित": 8291,
      "आमद": 8292,
      "ऑफ़": 8293,
      "पेंद्र": 8294,
      "बजाए": 8295,
      "वेंद्र": 8296,
      "सटे": 8297,
      "वाट": 8298,
      "गाया": 8299,
      "मुर्": 8300,
      "बेसिक": 8301,
      "दिनभर": 8302,
      "बुलाई": 8303,
      "ज्म": 8304,
      "स्वाद": 8305,
      "अभियुक्त": 8306,
      "परामर्श": 8307,
      "उपयोगी": 8308,
      "पड़ेगी": 8309,
      "ओपीडी": 8310,
      "बनारस": 8311,
      "दलितों": 8312,
      "82": 8313,
      "CA": 8314,
      "अमा": 8315,
      "अखा": 8316,
      "अवार्ड": 8317,
      "ईरानी": 8318,
      "मसले": 8319,
      "राघ": 8320,
      "पाण्": 8321,
      "रोष": 8322,
      "क्रै": 8323,
      "जनसभा": 8324,
      "सूचका": 8325,
      "प्रतिपक्ष": 8326,
      "योगेश": 8327,
      "एमएम": 8328,
      "अंश": 8329,
      "चौं": 8330,
      "कलश": 8331,
      "घातक": 8332,
      "त्यागी": 8333,
      "बंदर": 8334,
      "पत्तियों": 8335,
      "फ़े": 8336,
      "स्टेशनों": 8337,
      "सहज": 8338,
      "उपायों": 8339,
      "चूक": 8340,
      "तुर्की": 8341,
      "हेलीकॉप्टर": 8342,
      "उजाला": 8343,
      "एएसपी": 8344,
      "मक्": 8345,
      "सदा": 8346,
      "स्थी": 8347,
      "कारगर": 8348,
      "संवेद": 8349,
      "मुन": 8350,
      "राजन": 8351,
      "पुरम": 8352,
      "कैत": 8353,
      "महादेव": 8354,
      "प्रेशर": 8355,
      "125": 8356,
      "तरीकों": 8357,
      "चंद्रमा": 8358,
      "स्कूटी": 8359,
      "जायेंगे": 8360,
      "व्‍य": 8361,
      "आर्यन": 8362,
      "पर्यटक": 8363,
      "लेनदेन": 8364,
      "कुशवाहा": 8365,
      "सत्यापन": 8366,
      "जमशेदपुर": 8367,
      "सूचकांक": 8368,
      "ऊना": 8369,
      "एका": 8370,
      "एकाद": 8371,
      "फन": 8372,
      "वक्ताओं": 8373,
      "याम": 8374,
      "सावन": 8375,
      "निश": 8376,
      "तीव्र": 8377,
      "संतुलन": 8378,
      "सिले": 8379,
      "खासी": 8380,
      "मंजिल": 8381,
      "गुणा": 8382,
      "इंजेक्शन": 8383,
      "वन्य": 8384,
      "नामों": 8385,
      "बढ़ाई": 8386,
      "वाहक": 8387,
      "सहाय": 8388,
      "स्पेस": 8389,
      "ड्रॉ": 8390,
      "सियासत": 8391,
      "इकाइयों": 8392,
      "हाइवे": 8393,
      "मुझसे": 8394,
      "ख़िलाफ़": 8395,
      "!!": 8396,
      "Ma": 8397,
      "ub": 8398,
      "xt": 8399,
      "ऊँ": 8400,
      "झटके": 8401,
      "लाम": 8402,
      "दिखी": 8403,
      "मुहू": 8404,
      "सुधीर": 8405,
      "बीडीओ": 8406,
      "श्वर्": 8407,
      "कर्त": 8408,
      "एमडी": 8409,
      "उपयुक्त": 8410,
      "भिड़": 8411,
      "पैक": 8412,
      "फैन्स": 8413,
      "योजनाएं": 8414,
      "गुरुग्राम": 8415,
      "चर्चित": 8416,
      "ard": 8417,
      "चैम्": 8418,
      "टेस्टिंग": 8419,
      "विचारधारा": 8420,
      "टीएमसी": 8421,
      "आकर्षण": 8422,
      "सिंगापुर": 8423,
      "एलान": 8424,
      "जलाने": 8425,
      "दखल": 8426,
      "स्मिथ": 8427,
      "प्रभार": 8428,
      "संतान": 8429,
      "फिकेशन": 8430,
      "प्ट": 8431,
      "जानलेवा": 8432,
      "उपज": 8433,
      "बुन": 8434,
      "उत्कृष्ट": 8435,
      "फैन": 8436,
      "रतन": 8437,
      "लाभार्थियों": 8438,
      "प्रारूप": 8439,
      "कॉन्फ्रेंस": 8440,
      "नक्सल": 8441,
      "इशारा": 8442,
      "व्हाइट": 8443,
      "हिंदुस्तान": 8444,
      "टिफिकेट": 8445,
      "नर्सिंग": 8446,
      "प्रधानाचार्य": 8447,
      "अख्तर": 8448,
      "डिफेंस": 8449,
      "MS": 8450,
      "आल": 8451,
      "आसन": 8452,
      "षी": 8453,
      "जाओ": 8454,
      "विमानों": 8455,
      "विमर्श": 8456,
      "ल्डर": 8457,
      "पुजारी": 8458,
      "हिम्मत": 8459,
      "खासा": 8460,
      "ट्रेंड": 8461,
      "सबका": 8462,
      "द्रो": 8463,
      "उत्‍": 8464,
      "उत्तम": 8465,
      "जूते": 8466,
      "ष्टमी": 8467,
      "फरीदाबाद": 8468,
      "नाइटेड": 8469,
      "कायदा": 8470,
      "शिल्पा": 8471,
      "अजीब": 8472,
      "पाउडर": 8473,
      "डिपार्टमेंट": 8474,
      "io": 8475,
      "ya": 8476,
      "भंग": 8477,
      "भटक": 8478,
      "ुति": 8479,
      "वाशिंगटन": 8480,
      "पादु": 8481,
      "पुट": 8482,
      "दादा": 8483,
      "रोहि": 8484,
      "बीएच": 8485,
      "डियों": 8486,
      "कराएं": 8487,
      "डॉट": 8488,
      "पर्दे": 8489,
      "ख्ता": 8490,
      "आमने": 8491,
      "खासतौर": 8492,
      "एजेंट": 8493,
      "ब्राजील": 8494,
      "esh": 8495,
      "बीएसएफ": 8496,
      "वकीलों": 8497,
      "जौहर": 8498,
      "क्रमांक": 8499,
      "मलेरिया": 8500,
      "प्रजापति": 8501,
      "रोमांच": 8502,
      "कश्मीरी": 8503,
      "मुहूर्त": 8504,
      "इनाम": 8505,
      "भंगा": 8506,
      "कागज": 8507,
      "र्कता": 8508,
      "क्सि": 8509,
      "संभ": 8510,
      "धातु": 8511,
      "एसबीआई": 8512,
      "कमलेश": 8513,
      "गोचर": 8514,
      "सर्टिफिकेट": 8515,
      "वासीय": 8516,
      "सतर्कता": 8517,
      "2004": 8518,
      "मनाली": 8519,
      "अमरि": 8520,
      "शांतिपूर्ण": 8521,
      "कैंपस": 8522,
      "जेएनयू": 8523,
      "फटकार": 8524,
      "इरफान": 8525,
      "मिठाई": 8526,
      "नक्ष": 8527,
      "पनों": 8528,
      "रंज": 8529,
      "वश": 8530,
      "हता": 8531,
      "कोविंद": 8532,
      "लेगा": 8533,
      "लेखा": 8534,
      "राधे": 8535,
      "सीरियल": 8536,
      "न्ग": 8537,
      "रिट": 8538,
      "रोधी": 8539,
      "सुचार": 8540,
      "स्टार्ट": 8541,
      "रेड्डी": 8542,
      "बिश": 8543,
      "टाय": 8544,
      "एमए": 8545,
      "प्रदेशों": 8546,
      "बोस": 8547,
      "नगरपालिका": 8548,
      "टैंक": 8549,
      "ब्रिगे": 8550,
      "आर्टिकल": 8551,
      "चार्ट": 8552,
      "प्रकाशन": 8553,
      "प्रमोशन": 8554,
      "ideo": 8555,
      "किडनी": 8556,
      "गडकरी": 8557,
      "कर्तव्य": 8558,
      "91": 8559,
      "आवासीय": 8560,
      "ॉर्ड": 8561,
      "केमि": 8562,
      "वादे": 8563,
      "माओ": 8564,
      "लीय": 8565,
      "वारे": 8566,
      "द्वं": 8567,
      "चलन": 8568,
      "रखेंगे": 8569,
      "कमांड": 8570,
      "तोड़कर": 8571,
      "बल्लेबाजों": 8572,
      "चक्रवर्ती": 8573,
      "मुनाफा": 8574,
      "चौराहा": 8575,
      "समर्पण": 8576,
      "कन्हैया": 8577,
      "उपरांत": 8578,
      "नायडू": 8579,
      "अर्धशतक": 8580,
      "झड़प": 8581,
      "स्मारक": 8582,
      "छुटकारा": 8583,
      "हिदायत": 8584,
      "आयर": 8585,
      "इज": 8586,
      "ईटी": 8587,
      "कया": 8588,
      "झलक": 8589,
      "टार": 8590,
      "फौ": 8591,
      "मस्ती": 8592,
      "लटका": 8593,
      "सनीय": 8594,
      "लेगी": 8595,
      "साप्ता": 8596,
      "मिंटन": 8597,
      "ंगत": 8598,
      "द्घ": 8599,
      "टाइन": 8600,
      "बैंग": 8601,
      "दुखी": 8602,
      "ब्लॉग": 8603,
      "फोर": 8604,
      "सर्किट": 8605,
      "मौतों": 8606,
      "अर्जी": 8607,
      "कांव": 8608,
      "प्रतिनिधिमंडल": 8609,
      "आनन": 8610,
      "कमाने": 8611,
      "रिश्तों": 8612,
      "रजत": 8613,
      "स्ट्रीट": 8614,
      "पुनः": 8615,
      "शॉट": 8616,
      "चक्रवा": 8617,
      "धूमधाम": 8618,
      "इकट्ठा": 8619,
      "प्रताड़": 8620,
      "असिस्टेंट": 8621,
      "अफ़": 8622,
      "खरे": 8623,
      "टरिंग": 8624,
      "भवी": 8625,
      "ोपण": 8626,
      "लिय": 8627,
      "सिरे": 8628,
      "मेमो": 8629,
      "मेडी": 8630,
      "इनसे": 8631,
      "लगवा": 8632,
      "कर्मा": 8633,
      "एनएल": 8634,
      "फ़ै": 8635,
      "999": 8636,
      "शॉर्ट": 8637,
      "डेयरी": 8638,
      "अन्तर्गत": 8639,
      "he": 8640,
      "डम": 8641,
      "तब्दी": 8642,
      "रनौत": 8643,
      "वाहों": 8644,
      "लिप्त": 8645,
      "निजात": 8646,
      "सिपल": 8647,
      "दानी": 8648,
      "हिल": 8649,
      "जीन": 8650,
      "सुसाइड": 8651,
      "ंडन": 8652,
      "ंडों": 8653,
      "बताती": 8654,
      "मिलन": 8655,
      "सोलर": 8656,
      "प्राय": 8657,
      "पैड": 8658,
      "वोटर": 8659,
      "दिखाकर": 8660,
      "मांझी": 8661,
      "रैंक": 8662,
      "आगमन": 8663,
      "प्रभात": 8664,
      "ड्रग": 8665,
      "एसटीएफ": 8666,
      "संशोधित": 8667,
      "फर्स्ट": 8668,
      "ईंधन": 8669,
      "गवर्नर": 8670,
      "रत्न": 8671,
      "नवरात्र": 8672,
      "जडेजा": 8673,
      "RC": 8674,
      "असफल": 8675,
      "अनियंत्रित": 8676,
      "एगी": 8677,
      "बलू": 8678,
      "१९": 8679,
      "स्कॉ": 8680,
      "साफ़": 8681,
      "साक्ष्य": 8682,
      "बालू": 8683,
      "गाजीपुर": 8684,
      "तिलक": 8685,
      "तीत": 8686,
      "न्ड": 8687,
      "पुस्त": 8688,
      "डिय़": 8689,
      "गुं": 8690,
      "अनुभवी": 8691,
      "रामलीला": 8692,
      "जयराम": 8693,
      "अभद्र": 8694,
      "2002": 8695,
      "प्रियता": 8696,
      "वार्डों": 8697,
      "चलेगी": 8698,
      "रिलीज़": 8699,
      "वर्णन": 8700,
      "दुश्मन": 8701,
      "नमाज": 8702,
      "व्हाट्सएप": 8703,
      "टेक्नोलॉजी": 8704,
      "co": 8705,
      "उद्या": 8706,
      "घरा": 8707,
      "तर्ज": 8708,
      "पमेंट": 8709,
      "पप्पू": 8710,
      "करु": 8711,
      "लेनी": 8712,
      "बाड़": 8713,
      "सिंगल": 8714,
      "पुरू": 8715,
      "पीएफ": 8716,
      "बिछा": 8717,
      "श्‍": 8718,
      "गेस्ट": 8719,
      "टेनिस": 8720,
      "फ्लो": 8721,
      "देखरेख": 8722,
      "बॉय": 8723,
      "लड़का": 8724,
      "देवताओं": 8725,
      "क्षिका": 8726,
      "विधिक": 8727,
      "टिप्स": 8728,
      "फानन": 8729,
      "एनसीआर": 8730,
      "स्ट्राइक": 8731,
      "मन्दिर": 8732,
      "हेल्पलाइन": 8733,
      "सेवानिवृत्त": 8734,
      "लखीमपुर": 8735,
      "साप्ताहिक": 8736,
      "ik": 8737,
      "ढि": 8738,
      "धवा": 8739,
      "पकों": 8740,
      "बलिया": 8741,
      "सज्": 8742,
      "सवारी": 8743,
      "केला": 8744,
      "याँ": 8745,
      "लाते": 8746,
      "हीरा": 8747,
      "दित्य": 8748,
      "हिमां": 8749,
      "जीती": 8750,
      "सरसों": 8751,
      "ष्टी": 8752,
      "मानवीय": 8753,
      "वर्जन": 8754,
      "मोटी": 8755,
      "चिन्ह": 8756,
      "बंदियों": 8757,
      "जानकर": 8758,
      "गिनती": 8759,
      "टूटने": 8760,
      "विश्वसनीय": 8761,
      "निभाने": 8762,
      "केदारनाथ": 8763,
      "दुलकर": 8764,
      "चिन्हित": 8765,
      "मालिकों": 8766,
      "अपार्टमेंट": 8767,
      "मण्डल": 8768,
      "बैडमिंटन": 8769,
      "रक": 8770,
      "शैल": 8771,
      "केन": 8772,
      "किता": 8773,
      "क्ले": 8774,
      "जापुर": 8775,
      "जीवित": 8776,
      "कुत्ते": 8777,
      "सुधा": 8778,
      "मानस": 8779,
      "वर्चुअल": 8780,
      "चिराग": 8781,
      "सोड": 8782,
      "बोध": 8783,
      "हारा": 8784,
      "टूरि": 8785,
      "खुदरा": 8786,
      "बर्दाश्त": 8787,
      "तत्वा": 8788,
      "पथराव": 8789,
      "घुसकर": 8790,
      "प्रोडक्शन": 8791,
      "दशकों": 8792,
      "जंक्शन": 8793,
      "समृद्धि": 8794,
      "सक्सेना": 8795,
      "इलेक्ट्रॉनिक": 8796,
      "नैनीताल": 8797,
      "प्रैक्": 8798,
      "130": 8799,
      "ET": 8800,
      "ly": 8801,
      "अनिश्चित": 8802,
      "अंचल": 8803,
      "ईवीएम": 8804,
      "ऐश्वर्": 8805,
      "मऊ": 8806,
      "शर्ट": 8807,
      "सस्प": 8808,
      "किन्न": 8809,
      "न्दर": 8810,
      "स्टडी": 8811,
      "तोह": 8812,
      "वीन": 8813,
      "वीजा": 8814,
      "मोहित": 8815,
      "सूट": 8816,
      "लोकार्": 8817,
      "सोया": 8818,
      "रामदेव": 8819,
      "भूपेश": 8820,
      "टोला": 8821,
      "न्यूयॉर्क": 8822,
      "र्मल": 8823,
      "लोकतांत्रिक": 8824,
      "अभय": 8825,
      "स्‍त": 8826,
      "शवों": 8827,
      "प्लेस": 8828,
      "टॉस": 8829,
      "तेंदुलकर": 8830,
      "प्रोटोकॉल": 8831,
      "पाण्डेय": 8832,
      "आशु": 8833,
      "एसिड": 8834,
      "खंगा": 8835,
      "दही": 8836,
      "प्रशिक्षित": 8837,
      "बांस": 8838,
      "मनमानी": 8839,
      "पिछड़ा": 8840,
      "लोकप्रियता": 8841,
      "सड़कें": 8842,
      "सुनते": 8843,
      "टैग": 8844,
      "शाहजहां": 8845,
      "रंगों": 8846,
      "नॉन": 8847,
      "निराकरण": 8848,
      "बेंच": 8849,
      "फोटोग्रा": 8850,
      "रामायण": 8851,
      "स्पोर्ट्स": 8852,
      "देहात": 8853,
      "आसार": 8854,
      "सता": 8855,
      "सस्ते": 8856,
      "नेशिया": 8857,
      "क्लो": 8858,
      "वियों": 8859,
      "रिमांड": 8860,
      "रिपोर्": 8861,
      "बिस्तर": 8862,
      "दियां": 8863,
      "जनहित": 8864,
      "पिच": 8865,
      "म्बई": 8866,
      "सिंघ": 8867,
      "गुजार": 8868,
      "नामजद": 8869,
      "फिल्मी": 8870,
      "महागठबंधन": 8871,
      "दरभंगा": 8872,
      "हिंसक": 8873,
      "गतिविधियां": 8874,
      "स्क्रीनिंग": 8875,
      "नगरीय": 8876,
      "प्राइमरी": 8877,
      "ग्रंथ": 8878,
      "गोपनीय": 8879,
      "CM": 8880,
      "EO": 8881,
      "ast": 8882,
      "आयोज": 8883,
      "उतरी": 8884,
      "जनी": 8885,
      "ूद": 8886,
      "्म": 8887,
      "वाहिक": 8888,
      "पीस": 8889,
      "ष्ठी": 8890,
      "अनशन": 8891,
      "टाल": 8892,
      "प्रतिष्ठ": 8893,
      "प्रतिरोध": 8894,
      "अंबेडकर": 8895,
      "गांठ": 8896,
      "अपनाने": 8897,
      "पांचवें": 8898,
      "उत्तरप्रदेश": 8899,
      "लड़कों": 8900,
      "छुट्": 8901,
      "अग्रिम": 8902,
      "end": 8903,
      "जोड़कर": 8904,
      "गुस्से": 8905,
      "ction": 8906,
      "निर्माताओं": 8907,
      "बयानों": 8908,
      "पादुकोण": 8909,
      "लोकार्पण": 8910,
      "350": 8911,
      "se": 8912,
      "इम्": 8913,
      "इजरा": 8914,
      "उद": 8915,
      "ठंडा": 8916,
      "बगल": 8917,
      "सस्ता": 8918,
      "२०": 8919,
      "करंट": 8920,
      "किस्त": 8921,
      "किन्तु": 8922,
      "तादाद": 8923,
      "जीआरपी": 8924,
      "रूद्ध": 8925,
      "वीजन": 8926,
      "मंदी": 8927,
      "रुके": 8928,
      "प्वाइंट": 8929,
      "मोटा": 8930,
      "बरसा": 8931,
      "सबक": 8932,
      "ब्बे": 8933,
      "मतों": 8934,
      "बनवाने": 8935,
      "महावीर": 8936,
      "भुव": 8937,
      "ट्रां": 8938,
      "दमदार": 8939,
      "ice": 8940,
      "शर्तों": 8941,
      "इंचार्ज": 8942,
      "अमरीकी": 8943,
      "सीखने": 8944,
      "किस्मत": 8945,
      "ड्डू": 8946,
      "शिरकत": 8947,
      "श्वेता": 8948,
      "क्वालिटी": 8949,
      "चट": 8950,
      "झों": 8951,
      "नम्बर": 8952,
      "बदौलत": 8953,
      "ताना": 8954,
      "राइड": 8955,
      "विज्ञा": 8956,
      "पाबंदी": 8957,
      "वारि": 8958,
      "मुन्ना": 8959,
      "दायी": 8960,
      "जीविका": 8961,
      "बताकर": 8962,
      "इनको": 8963,
      "टाला": 8964,
      "ब्बत": 8965,
      "यूजी": 8966,
      "कामगार": 8967,
      "एंटर": 8968,
      "बनेंगे": 8969,
      "भूति": 8970,
      "लंब": 8971,
      "एलईडी": 8972,
      "भुत": 8973,
      "बारात": 8974,
      "संभालने": 8975,
      "जंगलों": 8976,
      "रोहतक": 8977,
      "रक्तदान": 8978,
      "बौद्ध": 8979,
      "ऑर्": 8980,
      "जटिल": 8981,
      "तमिल": 8982,
      "मज़": 8983,
      "सेशन": 8984,
      "करू": 8985,
      "हाजि": 8986,
      "हालिया": 8987,
      "विराम": 8988,
      "नियत": 8989,
      "रूसी": 8990,
      "बिजन": 8991,
      "बिष्ट": 8992,
      "जोत": 8993,
      "प्रतिद्वं": 8994,
      "ब्‍": 8995,
      "कमला": 8996,
      "महिंद्रा": 8997,
      "आरक्षित": 8998,
      "पैसें": 8999,
      "ंकित": 9000,
      "प्रेमिका": 9001,
      "रविंद्र": 9002,
      "सौंद": 9003,
      "उठाई": 9004,
      "निवारण": 9005,
      "मॉड": 9006,
      "शक्तिशाली": 9007,
      "साहस": 9008,
      "कनेक्": 9009,
      "वसूल": 9010,
      "गैंगरेप": 9011,
      "एपिसोड": 9012,
      "तब्दील": 9013,
      "ru": 9014,
      "आएं": 9015,
      "ऑयल": 9016,
      "ओएस": 9017,
      "डं": 9018,
      "दहन": 9019,
      "बजाज": 9020,
      "बत्ती": 9021,
      "यथा": 9022,
      "ोली": 9023,
      "स्तियों": 9024,
      "नाका": 9025,
      "तावास": 9026,
      "प्रश": 9027,
      "प्रसव": 9028,
      "दिना": 9029,
      "बाय": 9030,
      "मुहर": 9031,
      "पीआर": 9032,
      "खास्त": 9033,
      "धानों": 9034,
      "बरती": 9035,
      "दूतावास": 9036,
      "सूख": 9037,
      "चलना": 9038,
      "फैमिली": 9039,
      "भरकर": 9040,
      "व्यापी": 9041,
      "महीना": 9042,
      "मददगार": 9043,
      "आंसू": 9044,
      "काउंस": 9045,
      "हमलावर": 9046,
      "ओवरों": 9047,
      "आईएएस": 9048,
      "डिस्काउंट": 9049,
      "गुरूवार": 9050,
      "मुसीबत": 9051,
      "आक्रामक": 9052,
      "पुरूष": 9053,
      "De": 9054,
      "ro": 9055,
      "आपरे": 9056,
      "कट्टर": 9057,
      "गना": 9058,
      "गहरे": 9059,
      "बले": 9060,
      "करूंगा": 9061,
      "वाल्": 9062,
      "माबाद": 9063,
      "गाव": 9064,
      "संध्या": 9065,
      "रीना": 9066,
      "पुतला": 9067,
      "मुंडा": 9068,
      "दादी": 9069,
      "बीना": 9070,
      "मेष": 9071,
      "मेजर": 9072,
      "गोस्वामी": 9073,
      "कॉम्": 9074,
      "अवॉर्ड": 9075,
      "जलस्तर": 9076,
      "ang": 9077,
      "2003": 9078,
      "दिवंगत": 9079,
      "वॉल": 9080,
      "श्रेय": 9081,
      "हल्का": 9082,
      "......": 9083,
      "निष्पक्ष": 9084,
      "अंगू": 9085,
      "ईमानदारी": 9086,
      "सत्तार": 9087,
      "हकीकत": 9088,
      "04": 9089,
      "ऑडियो": 9090,
      "कटे": 9091,
      "पद्ध": 9092,
      "बक्": 9093,
      "देवा": 9094,
      "मिमी": 9095,
      "मिक्स": 9096,
      "भाभी": 9097,
      "रियो": 9098,
      "शातिर": 9099,
      "मेघ": 9100,
      "मंथन": 9101,
      "जोरी": 9102,
      "सबकुछ": 9103,
      "कैदियों": 9104,
      "शीत": 9105,
      "गोर": 9106,
      "पर्वत": 9107,
      "नौसेना": 9108,
      "अमेठी": 9109,
      "ant": 9110,
      "प्रिंस": 9111,
      "स्ट्रो": 9112,
      "वार्थ": 9113,
      "इंग्लिश": 9114,
      "जर्जर": 9115,
      "फूलों": 9116,
      "नवाज": 9117,
      "बुलाकर": 9118,
      "जुटाने": 9119,
      "सूरती": 9120,
      "पलायन": 9121,
      "मुरली": 9122,
      "तड़के": 9123,
      "लाहौर": 9124,
      "चौंकाने": 9125,
      "AS": 9126,
      "उपे": 9127,
      "गश्त": 9128,
      "झि": 9129,
      "बटो": 9130,
      "नाते": 9131,
      "क्व": 9132,
      "विगत": 9133,
      "दीक्षा": 9134,
      "रोपण": 9135,
      "अप्": 9136,
      "शिक्षिका": 9137,
      "रेटिंग": 9138,
      "तकली": 9139,
      "मोती": 9140,
      "लोकेशन": 9141,
      "छाल": 9142,
      "मार्केटिंग": 9143,
      "हालाँकि": 9144,
      "बूत": 9145,
      "प्रीति": 9146,
      "कांक्षा": 9147,
      "निकलते": 9148,
      "मृतका": 9149,
      "आत्मविश्वास": 9150,
      "समझाने": 9151,
      "इस्लामी": 9152,
      "इंडोनेशिया": 9153,
      "अब्दुल्ला": 9154,
      "प्रतिष्ठित": 9155,
      "ud": 9156,
      "ईयर": 9157,
      "डरा": 9158,
      "दवाई": 9159,
      "धूल": 9160,
      "लिता": 9161,
      "संगत": 9162,
      "रोगा": 9163,
      "रुद्र": 9164,
      "श्म": 9165,
      "जनप्रतिनिधियों": 9166,
      "निर्मला": 9167,
      "अंतरा": 9168,
      "द्रोह": 9169,
      "कैदी": 9170,
      "महंगी": 9171,
      "डेली": 9172,
      "सैलरी": 9173,
      "1500": 9174,
      "रखाव": 9175,
      "सातवें": 9176,
      "भेजकर": 9177,
      "बर्खास्त": 9178,
      "कलेक्शन": 9179,
      "घोटाला": 9180,
      "कुंडली": 9181,
      "उच्चा": 9182,
      "US": 9183,
      "अद्": 9184,
      "खपत": 9185,
      "खैर": 9186,
      "धरा": 9187,
      "फना": 9188,
      "रमा": 9189,
      "ैन": 9190,
      "कीमती": 9191,
      "सेफ": 9192,
      "क्कत": 9193,
      "वानों": 9194,
      "दीदा": 9195,
      "मुंगे": 9196,
      "पिस्टल": 9197,
      "एसके": 9198,
      "सूखे": 9199,
      "निर्मल": 9200,
      "पेड़ों": 9201,
      "अंबिका": 9202,
      "कैप": 9203,
      "टैक्सी": 9204,
      "समितियों": 9205,
      "पसंदीदा": 9206,
      "परिणामों": 9207,
      "संगम": 9208,
      "मशीनों": 9209,
      "इस्लामिक": 9210,
      "गार्डन": 9211,
      "मायके": 9212,
      "भौतिक": 9213,
      "सशक्त": 9214,
      "गड्ढे": 9215,
      "ठिकानों": 9216,
      "राठौर": 9217,
      "फतेहपुर": 9218,
      "संपादक": 9219,
      "बजरंग": 9220,
      "संवेदना": 9221,
      "AN": 9222,
      "अकाली": 9223,
      "ओल": 9224,
      "वक़": 9225,
      "कीं": 9226,
      "काबुल": 9227,
      "लियत": 9228,
      "हांग": 9229,
      "निगेटिव": 9230,
      "हैंडल": 9231,
      "ल्हे": 9232,
      "दीं": 9233,
      "गेश्वर": 9234,
      "मौर": 9235,
      "बंसल": 9236,
      "कर्ष": 9237,
      "इंसा": 9238,
      "कहें": 9239,
      "शोरूम": 9240,
      "घात": 9241,
      "आएंगी": 9242,
      "इलाका": 9243,
      "पंचायती": 9244,
      "शिवपाल": 9245,
      "नवजात": 9246,
      "थोक": 9247,
      "कदमों": 9248,
      "दसवीं": 9249,
      "डायबि": 9250,
      "सुधारने": 9251,
      "इंडियंस": 9252,
      "नतीजों": 9253,
      "विवेकान": 9254,
      "दिक्कतों": 9255,
      "तिरंगा": 9256,
      "चंबा": 9257,
      "कार्यालयों": 9258,
      "ख़ास": 9259,
      "सृजन": 9260,
      "पद्म": 9261,
      "औषधि": 9262,
      "हेलमेट": 9263,
      "Ex": 9264,
      "ma": 9265,
      "इए": 9266,
      "चंदा": 9267,
      "झंडी": 9268,
      "प्रश्": 9269,
      "लीजिए": 9270,
      "सुराग": 9271,
      "बताना": 9272,
      "बेबी": 9273,
      "रहीम": 9274,
      "वर्तित": 9275,
      "ग्रि": 9276,
      "जेन": 9277,
      "यूट्यूब": 9278,
      "फेड": 9279,
      "स्‍था": 9280,
      "मार्गों": 9281,
      "बदलते": 9282,
      "केन्द्रों": 9283,
      "संबोधन": 9284,
      "अपराधों": 9285,
      "टेलीविजन": 9286,
      "ओमप्रकाश": 9287,
      "पूछने": 9288,
      "ध्वस्त": 9289,
      "डाक्टरों": 9290,
      "पीयूष": 9291,
      "अरुणा": 9292,
      "CC": 9293,
      "अद": 9294,
      "आक्रमण": 9295,
      "उमर": 9296,
      "ओवैसी": 9297,
      "कंट": 9298,
      "झंडा": 9299,
      "ठहराया": 9300,
      "तंज": 9301,
      "बस्तर": 9302,
      "वचन": 9303,
      "ौनी": 9304,
      "ौदा": 9305,
      "दानों": 9306,
      "भाविक": 9307,
      "रोज़": 9308,
      "कुट": 9309,
      "म्बे": 9310,
      "खिले": 9311,
      "लोहिया": 9312,
      "यूवी": 9313,
      "कॉमेडी": 9314,
      "बच्‍": 9315,
      "पकड़कर": 9316,
      "सुनीता": 9317,
      "सोचते": 9318,
      "निर्धारण": 9319,
      "ध्वज": 9320,
      "गुजरने": 9321,
      "जरुरी": 9322,
      "जौनपुर": 9323,
      "आजमगढ़": 9324,
      "चतुर्वेदी": 9325,
      "चिह्नित": 9326,
      "अकबर": 9327,
      "ऊं": 9328,
      "ऊंगा": 9329,
      "दक्ष": 9330,
      "ूढ़": 9331,
      "हैरानी": 9332,
      "जावेद": 9333,
      "प्रवाह": 9334,
      "सिलि": 9335,
      "रहमान": 9336,
      "रिलेशन": 9337,
      "पीड़ा": 9338,
      "सुमित": 9339,
      "कैंट": 9340,
      "रुपयोग": 9341,
      "फ्ले": 9342,
      "गोलियां": 9343,
      "कॉर": 9344,
      "चौबे": 9345,
      "128": 9346,
      "चलाकर": 9347,
      "सीमाओं": 9348,
      "क्‍या": 9349,
      "मशक्कत": 9350,
      "कैप्शन": 9351,
      "उर्दू": 9352,
      "महत्त्व": 9353,
      "मुश्किलें": 9354,
      "शाहजहांपुर": 9355,
      "Video": 9356,
      "अमी": 9357,
      "एआई": 9358,
      "खनिज": 9359,
      "चियों": 9360,
      "बख्": 9361,
      "मठ": 9362,
      "ललिता": 9363,
      "सड": 9364,
      "सईद": 9365,
      "केशव": 9366,
      "नानक": 9367,
      "हासन": 9368,
      "इसपर": 9369,
      "मिलि": 9370,
      "दाना": 9371,
      "वेन्द्र": 9372,
      "डिवीजन": 9373,
      "पिया": 9374,
      "परिक्रमा": 9375,
      "सोलन": 9376,
      "कैफ": 9377,
      "कैसी": 9378,
      "चीख": 9379,
      "फेक्ट": 9380,
      "फेस्टि": 9381,
      "धुरी": 9382,
      "ड्रग्स": 9383,
      "दमकल": 9384,
      "चुनौतियों": 9385,
      "रजिस्टर": 9386,
      "किराये": 9387,
      "रिश्तेदारों": 9388,
      "मस्ति": 9389,
      "डि़यों": 9390,
      "सीएए": 9391,
      "कस्टम": 9392,
      "सैमसंग": 9393,
      "अरोड़ा": 9394,
      "मजेदार": 9395,
      "नक्षत्र": 9396,
      "me": 9397,
      "ंजय": 9398,
      "आभूषण": 9399,
      "चहल": 9400,
      "थै": 9401,
      "पया": 9402,
      "पंडा": 9403,
      "पन्ना": 9404,
      "ससुर": 9405,
      "काे": 9406,
      "लेखन": 9407,
      "बाज़": 9408,
      "संयोग": 9409,
      "दाखिला": 9410,
      "पीली": 9411,
      "रेस्": 9412,
      "वीसी": 9413,
      "जोकि": 9414,
      "डीलर": 9415,
      "दुरुपयोग": 9416,
      "निर्णा": 9417,
      "एमबी": 9418,
      "यूएई": 9419,
      "गोपी": 9420,
      "रामनगर": 9421,
      "फोर्": 9422,
      "बनवा": 9423,
      "पत्‍": 9424,
      "व्यवस्थाओं": 9425,
      "क्रियान्वयन": 9426,
      "भुगत": 9427,
      "रिकवरी": 9428,
      "बदलकर": 9429,
      "कलेक्ट्रेट": 9430,
      "ड्रो": 9431,
      "खूबसूरती": 9432,
      "सुनाया": 9433,
      "प्रयोगशाला": 9434,
      "बिलकुल": 9435,
      "कोहराम": 9436,
      "निपट": 9437,
      "विस्फो": 9438,
      "बुलंदशहर": 9439,
      "अमरिंदर": 9440,
      "ऐश्वर्या": 9441,
      "[[": 9442,
      "ust": 9443,
      "आचार": 9444,
      "खलन": 9445,
      "गहन": 9446,
      "टम": 9447,
      "दरोगा": 9448,
      "नजारा": 9449,
      "लड": 9450,
      "वंद": 9451,
      "षदों": 9452,
      "किला": 9453,
      "क्कड़": 9454,
      "बाज़ार": 9455,
      "संचालकों": 9456,
      "जोश": 9457,
      "बनाम": 9458,
      "डीएफ": 9459,
      "दुरुस्त": 9460,
      "मतभेद": 9461,
      "एनए": 9462,
      "बढ़ाना": 9463,
      "दूरसंचार": 9464,
      "देवगन": 9465,
      "बचाया": 9466,
      "लाभदायक": 9467,
      "कारावास": 9468,
      "ग्रेजु": 9469,
      "चढ़कर": 9470,
      "पत्रकारिता": 9471,
      "स्टूडेंट": 9472,
      "मयंक": 9473,
      "क्लीन": 9474,
      "टुकड़े": 9475,
      "चैम्पियन": 9476,
      "वक़्त": 9477,
      "ईस्ट": 9478,
      "गम्": 9479,
      "ठि": 9480,
      "डमी": 9481,
      "दस्तक": 9482,
      "दबिश": 9483,
      "सटीक": 9484,
      "राख": 9485,
      "सियां": 9486,
      "पीएल": 9487,
      "उन्हे": 9488,
      "दोई": 9489,
      "दूंगा": 9490,
      "पेशा": 9491,
      "अंध": 9492,
      "चलकर": 9493,
      "गिफ्ट": 9494,
      "वैदिक": 9495,
      "नेताजी": 9496,
      "बहराइ": 9497,
      "क्रिस": 9498,
      "सांप्रदायिक": 9499,
      "चंद्रशेखर": 9500,
      "मिश्रण": 9501,
      "दवाएं": 9502,
      "बुजुर्गों": 9503,
      "age": 9504,
      "कम्पनी": 9505,
      "कम्प्यूटर": 9506,
      "मायने": 9507,
      "कीर्तन": 9508,
      "सम्बन्ध": 9509,
      "बर्थडे": 9510,
      "णवीस": 9511,
      "sh": 9512,
      "एना": 9513,
      "एल्": 9514,
      "ताइ": 9515,
      "माई": 9516,
      "विस": 9517,
      "मियां": 9518,
      "मुस्त": 9519,
      "समग्र": 9520,
      "खाड़ी": 9521,
      "रुझा": 9522,
      "मोल": 9523,
      "चिक": 9524,
      "जानकारों": 9525,
      "अनुशासन": 9526,
      "शीद": 9527,
      "वैकल्": 9528,
      "1990": 9529,
      "त्वरित": 9530,
      "व्यक्तित्व": 9531,
      "लुधिया": 9532,
      "स्ट्रॉ": 9533,
      "टाइप": 9534,
      "हॉलीवुड": 9535,
      "संवाददाताओं": 9536,
      "ठेका": 9537,
      "कोतवाल": 9538,
      "उतनी": 9539,
      "नवीनतम": 9540,
      "पड़ोस": 9541,
      "चढ़ाव": 9542,
      "पुष्प": 9543,
      "--------": 9544,
      "एहसास": 9545,
      "झगड़ा": 9546,
      "भुवनेश्वर": 9547,
      "विवेकानंद": 9548,
      ".''": 9549,
      "PC": 9550,
      "]]": 9551,
      "ff": 9552,
      "इटा": 9553,
      "इज्": 9554,
      "उबर": 9555,
      "चलिए": 9556,
      "दहा": 9557,
      "फलों": 9558,
      "विद": 9559,
      "निगाह": 9560,
      "भीत": 9561,
      "संविदा": 9562,
      "पुख्ता": 9563,
      "मुम्बई": 9564,
      "कुएं": 9565,
      "राजनैतिक": 9566,
      "बढ़िया": 9567,
      "डेमो": 9568,
      "फोर्ड": 9569,
      "महासभा": 9570,
      "स्वभाव": 9571,
      "बदनाम": 9572,
      "रियां": 9573,
      "पाकिस्‍तान": 9574,
      "हराने": 9575,
      "निवेशक": 9576,
      "ट्रीट": 9577,
      "साधना": 9578,
      "विदाई": 9579,
      "ऋषिकेश": 9580,
      "नजदीकी": 9581,
      "धमाके": 9582,
      "विभाजन": 9583,
      "आयुर्वेद": 9584,
      "कागजात": 9585,
      "विक्रेता": 9586,
      "आशुतोष": 9587,
      "बहराइच": 9588,
      "वैकल्पिक": 9589,
      "लुधियाना": 9590,
      "AT": 9591,
      "Se": 9592,
      "आज़ा": 9593,
      "ओटी": 9594,
      "फड": 9595,
      "बटन": 9596,
      "भराव": 9597,
      "ोई": 9598,
      "प्रवर्तन": 9599,
      "होट": 9600,
      "दांव": 9601,
      "कुरै": 9602,
      "द्वाज": 9603,
      "बीजिंग": 9604,
      "दोनो": 9605,
      "गेम्स": 9606,
      "मानकों": 9607,
      "गुन": 9608,
      "मुख्‍य": 9609,
      "उपमुख्यमंत्री": 9610,
      "ब्लॉ": 9611,
      "खेर": 9612,
      "गिरे": 9613,
      "गोष्ठी": 9614,
      "पैकेट": 9615,
      "मौतें": 9616,
      "लालच": 9617,
      "लुओं": 9618,
      "ढांचे": 9619,
      "भ्रम": 9620,
      "हल्दी": 9621,
      "पटवारी": 9622,
      "हिंदुओं": 9623,
      "फ्रेंसिंग": 9624,
      "स्थिरता": 9625,
      "कोषाध्यक्ष": 9626,
      "Goo": 9627,
      "खदान": 9628,
      "गवाह": 9629,
      "रई": 9630,
      "हं": 9631,
      "नाली": 9632,
      "लां": 9633,
      "हाट": 9634,
      "माली": 9635,
      "नीम": 9636,
      "मित्त": 9637,
      "शियम": 9638,
      "शुदा": 9639,
      "पुलिया": 9640,
      "टिकैत": 9641,
      "गुफा": 9642,
      "सोसाइ": 9643,
      "बंधु": 9644,
      "सबकी": 9645,
      "एनआईए": 9646,
      "एक्टिंग": 9647,
      "रायगढ़": 9648,
      "स्टाइ": 9649,
      "ort": 9650,
      "आनलाइन": 9651,
      "दिखता": 9652,
      "उद्योगपति": 9653,
      "घाटों": 9654,
      "ध्‍": 9655,
      "घेरे": 9656,
      "कोरबा": 9657,
      "शौक": 9658,
      "कठि": 9659,
      "तलवार": 9660,
      "साईं": 9661,
      "अहसास": 9662,
      "रवींद्र": 9663,
      "आमदनी": 9664,
      "तकलीफ": 9665,
      "मस्तिष्क": 9666,
      "Com": 9667,
      "ओला": 9668,
      "छित": 9669,
      "दं": 9670,
      "धक": 9671,
      "नं": 9672,
      "नस्": 9673,
      "शहद": 9674,
      "काटा": 9675,
      "काफ़ी": 9676,
      "प्रवृत्ति": 9677,
      "विलय": 9678,
      "सिद्दी": 9679,
      "त्तरी": 9680,
      "मुम": 9681,
      "ंडल": 9682,
      "अनू": 9683,
      "मानता": 9684,
      "योगा": 9685,
      "गुड": 9686,
      "सूरी": 9687,
      "श्रवण": 9688,
      "शेड्यूल": 9689,
      "महंगे": 9690,
      "देखेंगे": 9691,
      "1999": 9692,
      "हेयर": 9693,
      "एनर्जी": 9694,
      "्राज्य": 9695,
      "सर्स": 9696,
      "ग्ध": 9697,
      "टूटे": 9698,
      "विश्वविद्यालयों": 9699,
      "भोले": 9700,
      "अर्जित": 9701,
      "चैट": 9702,
      "टॉय": 9703,
      "स्कूटर": 9704,
      "आईपीएस": 9705,
      "ध्‍य": 9706,
      "संरक्षक": 9707,
      "संगठित": 9708,
      "इस्तीफे": 9709,
      "कंटेनमेंट": 9710,
      "आक्रोशित": 9711,
      "own": 9712,
      "पीडि़त": 9713,
      "पेट्रोलियम": 9714,
      "pur": 9715,
      "इक्वि": 9716,
      "धक्का": 9717,
      "ौरी": 9718,
      "काफि": 9719,
      "वाइन": 9720,
      "राबाद": 9721,
      "वियत": 9722,
      "न्हे": 9723,
      "गेल": 9724,
      "हरदोई": 9725,
      "मानुसार": 9726,
      "भारद्वाज": 9727,
      "पिथ": 9728,
      "एसआईटी": 9729,
      "डेट्स": 9730,
      "त्यौ": 9731,
      "जिनसे": 9732,
      "चाहें": 9733,
      "गुरुद्वारा": 9734,
      "जमाने": 9735,
      "एयरटेल": 9736,
      "चंद्रा": 9737,
      "थुन": 9738,
      "आरटीओ": 9739,
      "ग़ा": 9740,
      "एनसीपी": 9741,
      "आपत्तिजनक": 9742,
      "मुजफ्फरनगर": 9743,
      "जेडीयू": 9744,
      "म्यां": 9745,
      "प्रोसेसर": 9746,
      "ऊपरी": 9747,
      "दलाल": 9748,
      "धर्मा": 9749,
      "बटा": 9750,
      "ह्यू": 9751,
      "नेगेटिव": 9752,
      "मातृ": 9753,
      "हुड्डा": 9754,
      "सिद्धि": 9755,
      "दीय": 9756,
      "हिना": 9757,
      "जीप": 9758,
      "बीघा": 9759,
      "पहलू": 9760,
      "श्व": 9761,
      "डिपो": 9762,
      "मैक्स": 9763,
      "लगाड़ी": 9764,
      "बुमराह": 9765,
      "गिक": 9766,
      "कॉमन": 9767,
      "फैली": 9768,
      "भूपेंद्र": 9769,
      "ग्न": 9770,
      "फ़र": 9771,
      "हाथरस": 9772,
      "टैब": 9773,
      "लुटे": 9774,
      "प्लानिंग": 9775,
      "याचिकाकर्ता": 9776,
      "अल्ट्रा": 9777,
      "अभिभावक": 9778,
      "परीक्षार्थी": 9779,
      "निर्णायक": 9780,
      "कुरैशी": 9781,
      "110": 9782,
      "आध्या": 9783,
      "गन्ने": 9784,
      "तूल": 9785,
      "नंदन": 9786,
      "सभ": 9787,
      "हार्ड": 9788,
      "्रो": 9789,
      "काई": 9790,
      "सेक्शन": 9791,
      "स्वर": 9792,
      "वाड़े": 9793,
      "लिफ्ट": 9794,
      "जादू": 9795,
      "लीन": 9796,
      "वारंट": 9797,
      "भान": 9798,
      "खाकर": 9799,
      "युगल": 9800,
      "आईएसआई": 9801,
      "डाइट": 9802,
      "जानवर": 9803,
      "मूंग": 9804,
      "आमजन": 9805,
      "ari": 9806,
      "भाषाओं": 9807,
      "विकेटकीपर": 9808,
      "पर्यवे": 9809,
      "सोचने": 9810,
      "डूबने": 9811,
      "समानता": 9812,
      "शॉपिंग": 9813,
      "ट्रांसपोर्ट": 9814,
      "उठने": 9815,
      "ध्रु": 9816,
      "समुद्री": 9817,
      "एंड्रॉ": 9818,
      "पचास": 9819,
      "ष्टीकरण": 9820,
      "फडणवीस": 9821,
      "app": 9822,
      "अत": 9823,
      "आॅ": 9824,
      "कष्ट": 9825,
      "नड्डा": 9826,
      "पटक": 9827,
      "वास्तु": 9828,
      "विपण": 9829,
      "बाहु": 9830,
      "सीज": 9831,
      "थाई": 9832,
      "जियम": 9833,
      "पुकार": 9834,
      "रिपब्लिक": 9835,
      "शाद": 9836,
      "पीटीआई": 9837,
      "रूण": 9838,
      "ग्रैंड": 9839,
      "मोन": 9840,
      "परिवर्तित": 9841,
      "पेरिस": 9842,
      "कैटरी": 9843,
      "भागों": 9844,
      "शेड": 9845,
      "स्वजन": 9846,
      "सलाम": 9847,
      "जेंस": 9848,
      "तोड़फोड़": 9849,
      "बर्तन": 9850,
      "ग्रेटर": 9851,
      "ड्राइव": 9852,
      "पात्रता": 9853,
      "जमीनी": 9854,
      "एकादशी": 9855,
      "कैटरीना": 9856,
      "[…": 9857,
      "ps": 9858,
      "आति": 9859,
[...]
