{
  "version": "1.0",
  "truncation": null,
  "padding": null,
  "added_tokens": [
    {
      "id": 0,
      "content": "[UNK]",
      "single_word": false,
      "lstrip": false,
      "rstrip": false,
      "normalized": false,
      "special": true
    },
    {
      "id": 1,
      "content": "[PAD]",
      "single_word": false,
      "lstrip": false,
      "rstrip": false,
      "normalized": false,
      "special": true
    },
    {
      "id": 2,
      "content": "[CLS]",
      "single_word": false,
      "lstrip": false,
      "rstrip": false,
      "normalized": false,
      "special": true
    },
    {
      "id": 3,
      "content": "[SEP]",
      "single_word": false,
      "lstrip": false,
      "rstrip": false,
      "normalized": false,
      "special": true
    },
    {
      "id": 4,
      "content": "[MASK]",
      "single_word": false,
      "lstrip": false,
      "rstrip": false,
      "normalized": false,
      "special": true
    }
  ],
  "normalizer": {
    "type": "NFC"
  },
  "pre_tokenizer": {
    "type": "Whitespace"
  },
  "post_processor": null,
  "decoder": null,
  "model": {
    "type": "WordPiece",
    "unk_token": "[UNK]",
    "continuing_subword_prefix": "##",
    "max_input_chars_per_word": 100,
    "vocab": {
      "[UNK]": 0,
      "[PAD]": 1,
      "[CLS]": 2,
      "[SEP]": 3,
      "[MASK]": 4,
      "\u0017": 5,
      "!": 6,
      "\"": 7,
      "#": 8,
      "$": 9,
      "%": 10,
      "&": 11,
      "'": 12,
      "(": 13,
      ")": 14,
      "*": 15,
      "+": 16,
      ",": 17,
      "-": 18,
      ".": 19,
      "/": 20,
      "0": 21,
      "1": 22,
      "2": 23,
      "3": 24,
      "4": 25,
      "5": 26,
      "6": 27,
      "7": 28,
      "8": 29,
      "9": 30,
      ":": 31,
      ";": 32,
      "<": 33,
      "=": 34,
      ">": 35,
      "?": 36,
      "@": 37,
      "A": 38,
      "B": 39,
      "C": 40,
      "D": 41,
      "E": 42,
      "F": 43,
      "G": 44,
      "H": 45,
      "I": 46,
      "J": 47,
      "K": 48,
      "L": 49,
      "M": 50,
      "N": 51,
      "O": 52,
      "P": 53,
      "Q": 54,
      "R": 55,
      "S": 56,
      "T": 57,
      "U": 58,
      "V": 59,
      "W": 60,
      "X": 61,
      "Y": 62,
      "Z": 63,
      "[": 64,
      "\\": 65,
      "]": 66,
      "^": 67,
      "_": 68,
      "`": 69,
      "a": 70,
      "b": 71,
      "c": 72,
      "d": 73,
      "e": 74,
      "f": 75,
      "g": 76,
      "h": 77,
      "i": 78,
      "j": 79,
      "k": 80,
      "l": 81,
      "m": 82,
      "n": 83,
      "o": 84,
      "p": 85,
      "q": 86,
      "r": 87,
      "s": 88,
      "t": 89,
      "u": 90,
      "v": 91,
      "w": 92,
      "x": 93,
      "y": 94,
      "z": 95,
      "{": 96,
      "|": 97,
      "}": 98,
      "~": 99,
      "": 100,
      "": 101,
      "": 102,
      "": 103,
      "": 104,
      "": 105,
      "": 106,
      "£": 107,
      "¤": 108,
      "¥": 109,
      "§": 110,
      "¨": 111,
      "©": 112,
      "ª": 113,
      "«": 114,
      "¬": 115,
      "­": 116,
      "®": 117,
      "°": 118,
      "±": 119,
      "²": 120,
      "¶": 121,
      "·": 122,
      "¸": 123,
      "º": 124,
      "»": 125,
      "¼": 126,
      "½": 127,
      "¾": 128,
      "À": 129,
      "Â": 130,
      "Ã": 131,
      "Ê": 132,
      "Ï": 133,
      "Ñ": 134,
      "Ó": 135,
      "Ö": 136,
      "×": 137,
      "Ø": 138,
      "Ü": 139,
      "Þ": 140,
      "à": 141,
      "á": 142,
      "ä": 143,
      "å": 144,
      "ç": 145,
      "é": 146,
      "ì": 147,
      "í": 148,
      "ï": 149,
      "ð": 150,
      "ñ": 151,
      "ó": 152,
      "ô": 153,
      "ö": 154,
      "ø": 155,
      "ü": 156,
      "þ": 157,
      "ā": 158,
      "ă": 159,
      "đ": 160,
      "ē": 161,
      "ī": 162,
      "İ": 163,
      "ı": 164,
      "ŋ": 165,
      "ō": 166,
      "ş": 167,
      "ū": 168,
      "Ÿ": 169,
      "ǀ": 170,
      "ɗ": 171,
      "ʻ": 172,
      "ʼ": 173,
      "˜": 174,
      "́": 175,
      "Η": 176,
      "ά": 177,
      "έ": 178,
      "α": 179,
      "γ": 180,
      "ε": 181,
      "ι": 182,
      "κ": 183,
      "λ": 184,
      "μ": 185,
      "ο": 186,
      "π": 187,
      "ρ": 188,
      "τ": 189,
      "ω": 190,
      "В": 191,
      "К": 192,
      "а": 193,
      "б": 194,
      "в": 195,
      "и": 196,
      "к": 197,
      "л": 198,
      "м": 199,
      "о": 200,
      "п": 201,
      "р": 202,
      "с": 203,
      "т": 204,
      "у": 205,
      "ч": 206,
      "я": 207,
      "א": 208,
      "ו": 209,
      "י": 210,
      "ל": 211,
      "ן": 212,
      "ר": 213,
      "ש": 214,
      "ا": 215,
      "ب": 216,
      "ة": 217,
      "ت": 218,
      "ج": 219,
      "ح": 220,
      "د": 221,
      "ر": 222,
      "ز": 223,
      "س": 224,
      "ش": 225,
      "ط": 226,
      "ع": 227,
      "ف": 228,
      "ق": 229,
      "ل": 230,
      "م": 231,
      "ن": 232,
      "ه": 233,
      "و": 234,
      "ي": 235,
      "پ": 236,
      "ڈ": 237,
      "ک": 238,
      "ڬ": 239,
      "گ": 240,
      "ھ": 241,
      "ی": 242,
      "۔": 243,
      "ࢠ": 244,
      "ँ": 245,
      "ं": 246,
      "ः": 247,
      "अ": 248,
      "आ": 249,
      "इ": 250,
      "ई": 251,
      "उ": 252,
      "ऊ": 253,
      "ऋ": 254,
      "ऌ": 255,
      "ऍ": 256,
      "ऎ": 257,
      "ए": 258,
      "ऐ": 259,
      "ऑ": 260,
      "ओ": 261,
      "औ": 262,
      "क": 263,
      "ख": 264,
      "ग": 265,
      "घ": 266,
      "ङ": 267,
      "च": 268,
      "छ": 269,
      "ज": 270,
      "झ": 271,
      "ञ": 272,
      "ट": 273,
      "ठ": 274,
      "ड": 275,
      "ढ": 276,
      "ण": 277,
      "त": 278,
      "थ": 279,
      "द": 280,
      "ध": 281,
      "न": 282,
      "ऩ": 283,
      "प": 284,
      "फ": 285,
      "ब": 286,
      "भ": 287,
      "म": 288,
      "य": 289,
      "र": 290,
      "ऱ": 291,
      "ल": 292,
      "ळ": 293,
      "ऴ": 294,
      "व": 295,
      "श": 296,
      "ष": 297,
      "स": 298,
      "ह": 299,
      "़": 300,
      "ऽ": 301,
      "ा": 302,
      "ि": 303,
      "ी": 304,
      "ु": 305,
      "ू": 306,
      "ृ": 307,
      "ॄ": 308,
      "ॅ": 309,
      "ॆ": 310,
      "े": 311,
      "ै": 312,
      "ॉ": 313,
      "ॊ": 314,
      "ो": 315,
      "ौ": 316,
      "्": 317,
      "ॎ": 318,
      "ॐ": 319,
      "॑": 320,
      "॒": 321,
      "ॠ": 322,
      "ॢ": 323,
      "।": 324,
      "॥": 325,
      "०": 326,
      "१": 327,
      "२": 328,
      "३": 329,
      "४": 330,
      "५": 331,
      "६": 332,
      "७": 333,
      "८": 334,
      "९": 335,
      "॰": 336,
      "ॽ": 337,
      "ং": 338,
      "আ": 339,
      "ই": 340,
      "এ": 341,
      "ও": 342,
      "ক": 343,
      "গ": 344,
      "ড": 345,
      "ত": 346,
      "ন": 347,
      "প": 348,
      "ফ": 349,
      "ব": 350,
      "ভ": 351,
      "ম": 352,
      "য": 353,
      "র": 354,
      "ল": 355,
      "শ": 356,
      "ষ": 357,
      "স": 358,
      "়": 359,
      "া": 360,
      "ি": 361,
      "ী": 362,
      "ে": 363,
      "্": 364,
      "ਓ": 365,
      "ਕ": 366,
      "ਖ": 367,
      "ਡ": 368,
      "ਥ": 369,
      "ਦ": 370,
      "ਪ": 371,
      "ਰ": 372,
      "ਵ": 373,
      "ਸ": 374,
      "ਾ": 375,
      "ੀ": 376,
      "ੁ": 377,
      "ੇ": 378,
      "ੈ": 379,
      "ઓ": 380,
      "ક": 381,
      "ગ": 382,
      "છ": 383,
      "જ": 384,
      "ઝ": 385,
      "ટ": 386,
      "ડ": 387,
      "ત": 388,
      "થ": 389,
      "દ": 390,
      "ન": 391,
      "પ": 392,
      "ફ": 393,
      "બ": 394,
      "ભ": 395,
      "મ": 396,
      "ય": 397,
      "ર": 398,
      "વ": 399,
      "સ": 400,
      "હ": 401,
      "ા": 402,
      "િ": 403,
      "ી": 404,
      "ુ": 405,
      "ૂ": 406,
      "ે": 407,
      "ૈ": 408,
      "ો": 409,
      "્": 410,
      "அ": 411,
      "ஆ": 412,
      "இ": 413,
      "க": 414,
      "ங": 415,
      "ச": 416,
      "ட": 417,
      "ண": 418,
      "த": 419,
      "ந": 420,
      "ன": 421,
      "ப": 422,
      "ம": 423,
      "ய": 424,
      "ர": 425,
      "ற": 426,
      "ல": 427,
      "ள": 428,
      "ழ": 429,
      "வ": 430,
      "ஷ": 431,
      "ஸ": 432,
      "ா": 433,
      "ி": 434,
      "ீ": 435,
      "ு": 436,
      "ெ": 437,
      "ை": 438,
      "ோ": 439,
      "்": 440,
      "ం": 441,
      "ఇ": 442,
      "ఎ": 443,
      "క": 444,
      "గ": 445,
      "డ": 446,
      "త": 447,
      "ద": 448,
      "న": 449,
      "ఫ": 450,
      "బ": 451,
      "య": 452,
      "ల": 453,
      "వ": 454,
      "స": 455,
      "హ": 456,
      "ి": 457,
      "ీ": 458,
      "ు": 459,
      "ె": 460,
      "ో": 461,
      "్": 462,
      "ಂ": 463,
      "ಕ": 464,
      "ಗ": 465,
      "ಡ": 466,
      "ತ": 467,
      "ನ": 468,
      "ಯ": 469,
      "ಲ": 470,
      "ಳ": 471,
      "ವ": 472,
      "ಸ": 473,
      "ಿ": 474,
      "ೀ": 475,
      "ು": 476,
      "ೆ": 477,
      "ೈ": 478,
      "ೊ": 479,
      "್": 480,
      "ം": 481,
      "ക": 482,
      "ഡ": 483,
      "മ": 484,
      "യ": 485,
      "ല": 486,
      "ള": 487,
      "വ": 488,
      "സ": 489,
      "ാ": 490,
      "ി": 491,
      "ീ": 492,
      "െ": 493,
      "ോ": 494,
      "്": 495,
      "ṇ": 496,
      "ṛ": 497,
      "ề": 498,
      "ồ": 499,
      "ἡ": 500,
      "ἧ": 501,
      "​": 502,
      "‌": 503,
      "‍": 504,
      "‎": 505,
      "‏": 506,
      "‑": 507,
      "–": 508,
      "—": 509,
      "―": 510,
      "‘": 511,
      "’": 512,
      "‚": 513,
      "“": 514,
      "”": 515,
      "„": 516,
      "‡": 517,
      "•": 518,
      "…": 519,
      "‬": 520,
      "′": 521,
      "″": 522,
      "›": 523,
      "₂": 524,
      "₃": 525,
      "₄": 526,
      "₫": 527,
      "€": 528,
      "₹": 529,
      "⃣": 530,
      "℞": 531,
      "™": 532,
      "←": 533,
      "↑": 534,
      "→": 535,
      "↗": 536,
      "⇒": 537,
      "−": 538,
      "√": 539,
      "▪": 540,
      "►": 541,
      "◌": 542,
      "●": 543,
      "★": 544,
      "☝": 545,
      "☞": 546,
      "♉": 547,
      "♦": 548,
      "♯": 549,
      "✅": 550,
      "✍": 551,
      "✔": 552,
      "✦": 553,
      "❌": 554,
      "❣": 555,
      "❤": 556,
      "➡": 557,
      "➤": 558,
      "➽": 559,
      "⦁": 560,
      "⭐": 561,
      "【": 562,
      "】": 563,
      "と": 564,
      "ま": 565,
      "め": 566,
      "产": 567,
      "今": 568,
      "信": 569,
      "分": 570,
      "動": 571,
      "化": 572,
      "吧": 573,
      "命": 574,
      "大": 575,
      "岡": 576,
      "播": 577,
      "文": 578,
      "无": 579,
      "春": 580,
      "晚": 581,
      "正": 582,
      "毫": 583,
      "無": 584,
      "物": 585,
      "犬": 586,
      "猫": 587,
      "球": 588,
      "產": 589,
      "画": 590,
      "直": 591,
      "石": 592,
      "福": 593,
      "節": 594,
      "篮": 595,
      "級": 596,
      "级": 597,
      "节": 598,
      "角": 599,
      "銅": 600,
      "錢": 601,
      "钱": 602,
      "铜": 603,
      "阶": 604,
      "階": 605,
      "革": 606,
      "곡": 607,
      "관": 608,
      "물": 609,
      "박": 610,
      "사": 611,
      "선": 612,
      "전": 613,
      "": 614,
      "ﬁ": 615,
      "️": 616,
      "﻿": 617,
      "！": 618,
      "？": 619,
      "Ａ": 620,
      "Ｂ": 621,
      "Ｃ": 622,
      "Ｅ": 623,
      "Ｈ": 624,
      "Ｉ": 625,
      "Ｋ": 626,
      "Ｌ": 627,
      "Ｍ": 628,
      "Ｎ": 629,
      "Ｏ": 630,
      "Ｒ": 631,
      "Ｓ": 632,
      "Ｔ": 633,
      "Ｕ": 634,
      "ﾠ": 635,
      "ﾥ": 636,
      "�": 637,
      "🌜": 638,
      "🌟": 639,
      "🌷": 640,
      "🌸": 641,
      "🎷": 642,
      "🎺": 643,
      "🏏": 644,
      "🏻": 645,
      "🏼": 646,
      "👀": 647,
      "👇": 648,
      "👉": 649,
      "👍": 650,
      "👏": 651,
      "👑": 652,
      "👦": 653,
      "👧": 654,
      "👩": 655,
      "👬": 656,
      "👯": 657,
      "👲": 658,
      "👵": 659,
      "👸": 660,
      "💄": 661,
      "💋": 662,
      "💐": 663,
      "💓": 664,
      "💔": 665,
      "💪": 666,
      "📲": 667,
      "🔊": 668,
      "🔴": 669,
      "🔵": 670,
      "🕉": 671,
      "😀": 672,
      "😂": 673,
      "😊": 674,
      "😍": 675,
      "😏": 676,
      "😘": 677,
      "😙": 678,
      "😢": 679,
      "😧": 680,
      "😱": 681,
      "😶": 682,
      "🙂": 683,
      "🙄": 684,
      "🙋": 685,
      "🙌": 686,
      "🙏": 687,
      "🚍": 688,
      "🚖": 689,
      "🚲": 690,
      "🤎": 691,
      "🤔": 692,
      "🤗": 693,
      "##०": 694,
      "##े": 695,
      "##ब": 696,
      "##ी": 697,
      "##ट": 698,
      "##ा": 699,
      "##ु": 700,
      "##प": 701,
      "##र": 702,
      "##ह": 703,
      "##ॉ": 704,
      "##ै": 705,
      "##क": 706,
      "##न": 707,
      "##्": 708,
      "##ल": 709,
      "##ौ": 710,
      "##ग": 711,
      "##स": 712,
      "##ि": 713,
      "##फ": 714,
      "##o": 715,
      "##g": 716,
      "##t": 717,
      "##a": 718,
      "##ो": 719,
      "##ख": 720,
      "##भ": 721,
      "##य": 722,
      "##ज": 723,
      "##म": 724,
      "##ं": 725,
      "##ू": 726,
      "##h": 727,
      "##i": 728,
      "##r": 729,
      "##j": 730,
      "##d": 731,
      "##u": 732,
      "##b": 733,
      "##e": 734,
      "##y": 735,
      "##P": 736,
      "##O": 737,
      "##व": 738,
      "##द": 739,
      "##थ": 740,
      "##त": 741,
      "##4": 742,
      "##0": 743,
      "##श": 744,
      "##आ": 745,
      "##1": 746,
      "##ड": 747,
      "##7": 748,
      "##ॅ": 749,
      "##v": 750,
      "##m": 751,
      "##s": 752,
      "##‍": 753,
      "##ृ": 754,
      "##5": 755,
      "##8": 756,
      "##G": 757,
      "##B": 758,
      "##9": 759,
      "##च": 760,
      "##ए": 761,
      "##़": 762,
      "##D": 763,
      "##3": 764,
      "##ध": 765,
      "##ष": 766,
      "##ण": 767,
      "##इ": 768,
      "##R": 769,
      "##A": 770,
      "##U": 771,
      "##ढ": 772,
      "##८": 773,
      "##अ": 774,
      "##ई": 775,
      "##&": 776,
      "##ठ": 777,
      "##X": 778,
      "##6": 779,
      "##घ": 780,
      "##:": 781,
      "##४": 782,
      "##७": 783,
      "##६": 784,
      "##_": 785,
      "##p": 786,
      "##N": 787,
      "##C": 788,
      "##c": 789,
      "##n": 790,
      "##l": 791,
      "##k": 792,
      "##w": 793,
      "##I": 794,
      "##V": 795,
      "##झ": 796,
      "##छ": 797,
      "##-": 798,
      "##उ": 799,
      "##f": 800,
      "##M": 801,
      "##2": 802,
      "##ँ": 803,
      "##ð": 804,
      "##ओ": 805,
      "##ó": 806,
      "##ऋ": 807,
      "##E": 808,
      "##W": 809,
      "##ر": 810,
      "##ي": 811,
      "##ः": 812,
      "##‌": 813,
      "##’": 814,
      "##,": 815,
      "##S": 816,
      "##Y": 817,
      "##९": 818,
      "##।": 819,
      "##x": 820,
      "##.": 821,
      "##J": 822,
      "##ञ": 823,
      "##H": 824,
      "##L": 825,
      "##२": 826,
      "##[": 827,
      "##ऐ": 828,
      "##…": 829,
      "##‘": 830,
      "##F": 831,
      "##િ": 832,
      "##ડ": 833,
      "##ઓ": 834,
      "##॰": 835,
      "##q": 836,
      "##)": 837,
      "##z": 838,
      "##K": 839,
      "##T": 840,
      "##ऊ": 841,
      "##]": 842,
      "##ऱ": 843,
      "##}": 844,
      "##\"": 845,
      "##औ": 846,
      "##ી": 847,
      "##ય": 848,
      "##ો": 849,
      "##१": 850,
      "##>": 851,
      "##Ｉ": 852,
      "##Ｋ": 853,
      "##Ｅ": 854,
      "##३": 855,
      "##ऑ": 856,
      "##ङ": 857,
      "##'": 858,
      "##ﾥ": 859,
      "##Z": 860,
      "##?": 861,
      "##গ": 862,
      "##র": 863,
      "##ত": 864,
      "##ল": 865,
      "##া": 866,
      "##ૂ": 867,
      "##વ": 868,
      "##ॐ": 869,
      "##产": 870,
      "##阶": 871,
      "##级": 872,
      "##文": 873,
      "##化": 874,
      "##大": 875,
      "##革": 876,
      "##命": 877,
      "##/": 878,
      "##Q": 879,
      "##ل": 880,
      "##ع": 881,
      "##ش": 882,
      "##ة": 883,
      "##ऩ": 884,
      "##“": 885,
      "##​": 886,
      "##ö": 887,
      "##ا": 888,
      "##ه": 889,
      "##د": 890,
      "##ن": 891,
      "##५": 892,
      "###": 893,
      "##!": 894,
      "##👇": 895,
      "##️": 896,
      "##⃣": 897,
      "##(": 898,
      "##—": 899,
      "##£": 900,
      "##”": 901,
      "##<": 902,
      "##ळ": 903,
      "##*": 904,
      "##ॄ": 905,
      "##و": 906,
      "##ح": 907,
      "##ی": 908,
      "##Þ": 909,
      "##ï": 910,
      "##{": 911,
      "##%": 912,
      "##॥": 913,
      "##ি": 914,
      "##ড": 915,
      "##ও": 916,
      "##|": 917,
      "##ü": 918,
      "##é": 919,
      "##ā": 920,
      "##ె": 921,
      "##ల": 922,
      "##ు": 923,
      "##గ": 924,
      "##ో": 925,
      "##": 926,
      "##–": 927,
      "##í": 928,
      "##猫": 929,
      "##動": 930,
      "##物": 931,
      "##画": 932,
      "##ま": 933,
      "##と": 934,
      "##め": 935,
      "##\\": 936,
      "##Ó": 937,
      "##;": 938,
      "##ō": 939,
      "##ﾠ": 940,
      "##ऽ": 941,
      "##ன": 942,
      "##்": 943,
      "##ல": 944,
      "##ை": 945,
      "##�": 946,
      "##Ｕ": 947,
      "##Ｂ": 948,
      "##Ｓ": 949,
      "##Ｃ": 950,
      "##Ｒ": 951,
      "##@": 952,
      "##节": 953,
      "##$": 954,
      "##ñ": 955,
      "##ऍ": 956,
      "##ள": 957,
      "##ம": 958,
      "##ॆ": 959,
      "##ॢ": 960,
      "##`": 961,
      "##👯": 962,
      "##ந": 963,
      "##த": 964,
      "##ி": 965,
      "##ய": 966,
      "##ä": 967,
      "##+": 968,
      "##🙏": 969,
      "##Ÿ": 970,
      "##ੁ": 971,
      "##ਖ": 972,
      "##ਦ": 973,
      "##ੇ": 974,
      "##ਵ": 975,
      "##Ｏ": 976,
      "##Ｍ": 977,
      "##Ｎ": 978,
      "##Ｔ": 979,
      "##ે": 980,
      "##ક": 981,
      "##્": 982,
      "##સ": 983,
      "##ª": 984,
      "##ೊ": 985,
      "##ಡ": 986,
      "##ವ": 987,
      "##ா": 988,
      "##✍": 989,
      "##م": 990,
      "##ங": 991,
      "##க": 992,
      "##ऌ": 993,
      "##ટ": 994,
      "##₹": 995,
      "##錢": 996,
      "##ப": 997,
      "##ச": 998,
      "##॒": 999,
      "##«": 1000,
      "##ન": 1001,
      "##ک": 1002,
      "##ಕ": 1003,
      "##್": 1004,
      "##س": 1005,
      "##ા": 1006,
      "##ભ": 1007,
      "##à": 1008,
      "##물": 1009,
      "##관": 1010,
      "##ੈ": 1011,
      "##ਕ": 1012,
      "##ਸ": 1013,
      "##": 1014,
      "##π": 1015,
      "##α": 1016,
      "##ρ": 1017,
      "##െ": 1018,
      "##ക": 1019,
      "##്": 1020,
      "##സ": 1021,
      "##ॊ": 1022,
      "##ং": 1023,
      "##ऎ": 1024,
      "##б": 1025,
      "##ீ": 1026,
      "##ட": 1027,
      "##ோ": 1028,
      "##ط": 1029,
      "##ق": 1030,
      "##İ": 1031,
      "##ম": 1032,
      "##ʼ": 1033,
      "##ē": 1034,
      "##ి": 1035,
      "##ం": 1036,
      "##ద": 1037,
      "##ీ": 1038,
      "##ề": 1039,
      "##ല": 1040,
      "##യ": 1041,
      "##ാ": 1042,
      "##ള": 1043,
      "##ം": 1044,
      "##έ": 1045,
      "##ω": 1046,
      "##и": 1047,
      "##л": 1048,
      "##о": 1049,
      "##я": 1050,
      "##т": 1051,
      "##ऴ": 1052,
      "##ர": 1053,
      "##வ": 1054,
      "##్": 1055,
      "##钱": 1056,
      "##🌷": 1057,
      "##ে": 1058,
      "##ক": 1059,
      "##্": 1060,
      "##স": 1061,
      "##ڈ": 1062,
      "##ૈ": 1063,
      "##થ": 1064,
      "##ુ": 1065,
      "##ೈ": 1066,
      "##ಂ": 1067,
      "##ಗ": 1068,
      "##ಿ": 1069,
      "##ন": 1070,
      "##‬": 1071,
      "##ࢠ": 1072,
      "##=": 1073,
      "##દ": 1074,
      "##ெ": 1075,
      "##ஸ": 1076,
      "##晚": 1077,
      "##篮": 1078,
      "##球": 1079,
      "##直": 1080,
      "##播": 1081,
      "##吧": 1082,
      "##₫": 1083,
      "##ڬ": 1084,
      "##ت": 1085,
      "##ર": 1086,
      "##а": 1087,
      "##м": 1088,
      "##ч": 1089,
      "##́": 1090,
      "##к": 1091,
      "##ṛ": 1092,
      "##ī": 1093,
      "##پ": 1094,
      "##~": 1095,
      "##ി": 1096,
      "##﻿": 1097,
      "##ج": 1098,
      "##ı": 1099,
      "##ş": 1100,
      "##產": 1101,
      "##階": 1102,
      "##級": 1103,
      "##✔": 1104,
      "##ఎ": 1105,
      "##ఫ": 1106,
      "##گ": 1107,
      "##শ": 1108,
      "##ફ": 1109,
      "##ત": 1110,
      "##ì": 1111,
      "##⭐": 1112,
      "##🌟": 1113,
      "##ੀ": 1114,
      "##ਡ": 1115,
      "##ਓ": 1116,
      "##Ñ": 1117,
      "##Ã": 1118,
      "##🏻": 1119,
      "##ṇ": 1120,
      "##ગ": 1121,
      "##å": 1122,
      "##👸": 1123,
      "##ு": 1124,
      "##ă": 1125,
      "##τ": 1126,
      "##જ": 1127,
      "##ਾ": 1128,
      "##ਪ": 1129,
      "##ਰ": 1130,
      "##¤": 1131,
      "##💐": 1132,
      "##🙌": 1133,
      "##곡": 1134,
      "##ஷ": 1135,
      "##ண": 1136,
      "##ನ": 1137,
      "##ழ": 1138,
      "##়": 1139,
      "##য": 1140,
      "##પ": 1141,
      "##ೆ": 1142,
      "##ಸ": 1143,
      "##ç": 1144,
      "##ά": 1145,
      "##κ": 1146,
      "##λ": 1147,
      "##ε": 1148,
      "##ι": 1149,
      "##ο": 1150,
      "##এ": 1151,
      "##ফ": 1152,
      "##′": 1153,
      "##డ": 1154,
      "##య": 1155,
      "##న": 1156,
      "##ô": 1157,
      "##ŋ": 1158,
      "##۔": 1159,
      "##á": 1160,
      "##క": 1161,
      "##స": 1162,
      "##ب": 1163,
      "##🏼": 1164,
      "##Â": 1165,
      "##信": 1166,
      "##ീ": 1167,
      "##ഡ": 1168,
      "##ോ": 1169,
      "##ী": 1170,
      "##👉": 1171,
      "##Ï": 1172,
      "##ೀ": 1173,
      "##ಯ": 1174,
      "##ಳ": 1175,
      "##ು": 1176,
      "##➤": 1177,
      "##岡": 1178,
      "##사": 1179,
      "##ઝ": 1180,
      "##ॎ": 1181,
      "##節": 1182,
      "##у": 1183,
      "##с": 1184,
      "##р": 1185,
      "##в": 1186,
      "##ר": 1187,
      "##ו": 1188,
      "##ן": 1189,
      "##Ｈ": 1190,
      "##Ａ": 1191,
      "##！": 1192,
      "##ற": 1193,
      "##ū": 1194,
      "##י": 1195,
      "##א": 1196,
      "##ל": 1197,
      "##ھ": 1198,
      "##ồ": 1199,
      "##‎": 1200,
      "##🎺": 1201,
      "##―": 1202,
      "##😂": 1203,
      "##ें": 1204,
      "##ार": 1205,
      "के": 1206,
      "##्र": 1207,
      "है": 1208,
      "##या": 1209,
      "में": 1210,
      "##ों": 1211,
      "की": 1212,
      "##ने": 1213,
      "को": 1214,
      "##र्": 1215,
      "##ान": 1216,
      "से": 1217,
      "कि": 1218,
      "कर": 1219,
      "का": 1220,
      "##ता": 1221,
      "##ना": 1222,
      "##्य": 1223,
      "ने": 1224,
      "##िक": 1225,
      "पर": 1226,
      "##ाल": 1227,
      "##िल": 1228,
      "प्र": 1229,
      "और": 1230,
      "##स्": 1231,
      "##क्": 1232,
      "इस": 1233,
      "##ही": 1234,
      "##हा": 1235,
      "##ड़": 1236,
      "हो": 1237,
      "हैं": 1238,
      "##ित": 1239,
      "##ाम": 1240,
      "जा": 1241,
      "##िया": 1242,
      "##िए": 1243,
      "##वा": 1244,
      "##िय": 1245,
      "भी": 1246,
      "##ंग": 1247,
      "##के": 1248,
      "##ते": 1249,
      "बा": 1250,
      "स्": 1251,
      "##ला": 1252,
      "वि": 1253,
      "##त्र": 1254,
      "##ेश": 1255,
      "##री": 1256,
      "##न्": 1257,
      "##ले": 1258,
      "##हीं": 1259,
      "##कर": 1260,
      "##ती": 1261,
      "रा": 1262,
      "सा": 1263,
      "लिए": 1264,
      "##ुर": 1265,
      "एक": 1266,
      "सं": 1267,
      "##से": 1268,
      "##ति": 1269,
      "##ारी": 1270,
      "##गा": 1271,
      "##सी": 1272,
      "##रा": 1273,
      "##िस": 1274,
      "##िन": 1275,
      "##्या": 1276,
      "##ोग": 1277,
      "##नी": 1278,
      "नहीं": 1279,
      "हु": 1280,
      "अप": 1281,
      "सम": 1282,
      "ले": 1283,
      "##ां": 1284,
      "किया": 1285,
      "##वार": 1286,
      "##क्ष": 1287,
      "दे": 1288,
      "##ली": 1289,
      "##का": 1290,
      "मु": 1291,
      "रह": 1292,
      "##ंद": 1293,
      "ही": 1294,
      "नि": 1295,
      "##ाय": 1296,
      "##त्": 1297,
      "##ुल": 1298,
      "गया": 1299,
      "पह": 1300,
      "##ार्": 1301,
      "##ियों": 1302,
      "था": 1303,
      "##की": 1304,
      "कार": 1305,
      "##िला": 1306,
      "कहा": 1307,
      "##टी": 1308,
      "करने": 1309,
      "साथ": 1310,
      "##न्ह": 1311,
      "##ास": 1312,
      "##मा": 1313,
      "तो": 1314,
      "##ंड": 1315,
      "##कार": 1316,
      "सि": 1317,
      "बाद": 1318,
      "##ंच": 1319,
      "##रो": 1320,
      "अध": 1321,
      "यह": 1322,
      "उन्ह": 1323,
      "रहे": 1324,
      "लोग": 1325,
      "पू": 1326,
      "कु": 1327,
      "##गी": 1328,
      "##ढ़": 1329,
      "##्म": 1330,
      "राज": 1331,
      "वाल": 1332,
      "सु": 1333,
      "उन": 1334,
      "##ाह": 1335,
      "##भा": 1336,
      "##दी": 1337,
      "##ल्": 1338,
      "दो": 1339,
      "अन": 1340,
      "##रे": 1341,
      "##कि": 1342,
      "##ष्": 1343,
      "आप": 1344,
      "##देश": 1345,
      "##्री": 1346,
      "तक": 1347,
      "दिया": 1348,
      "##टर": 1349,
      "##वि": 1350,
      "##ंत्र": 1351,
      "##ाइ": 1352,
      "गई": 1353,
      "##भी": 1354,
      "##दा": 1355,
      "##जी": 1356,
      "उस": 1357,
      "##िर": 1358,
      "सी": 1359,
      "##्रे": 1360,
      "रहा": 1361,
      "सर": 1362,
      "सक": 1363,
      "##पी": 1364,
      "बता": 1365,
      "हम": 1366,
      "##वी": 1367,
      "हुए": 1368,
      "##गे": 1369,
      "जो": 1370,
      "##गर": 1371,
      "##ओं": 1372,
      "##ानी": 1373,
      "मिल": 1374,
      "या": 1375,
      "थी": 1376,
      "रही": 1377,
      "मह": 1378,
      "##स्ट": 1379,
      "पुल": 1380,
      "बी": 1381,
      "##सा": 1382,
      "##ौर": 1383,
      "##्ष": 1384,
      "दी": 1385,
      "##ोज": 1386,
      "##ाना": 1387,
      "##स्त": 1388,
      "अपने": 1389,
      "##श्": 1390,
      "चु": 1391,
      "##ाई": 1392,
      "पुलिस": 1393,
      "भार": 1394,
      "##में": 1395,
      "##ोंने": 1396,
      "##ाज": 1397,
      "##द्": 1398,
      "##च्": 1399,
      "##ेल": 1400,
      "20": 1401,
      "##तर": 1402,
      "मा": 1403,
      "##स्थ": 1404,
      "बार": 1405,
      "##िव": 1406,
      "##ीन": 1407,
      "##प्": 1408,
      "मौ": 1409,
      "अधिक": 1410,
      "उन्होंने": 1411,
      "लोगों": 1412,
      "जाए": 1413,
      "##ैं": 1414,
      "##ेट": 1415,
      "लगा": 1416,
      "थे": 1417,
      "ला": 1418,
      "स्थ": 1419,
      "##पा": 1420,
      "##किन": 1421,
      "##शन": 1422,
      "जिस": 1423,
      "##जा": 1424,
      "##द्र": 1425,
      "पा": 1426,
      "##बर": 1427,
      "बना": 1428,
      "लेकिन": 1429,
      "##क्र": 1430,
      "##ंह": 1431,
      "##नों": 1432,
      "##पुर": 1433,
      "सरकार": 1434,
      "##र्म": 1435,
      "कम": 1436,
      "##ड़ी": 1437,
      "##हर": 1438,
      "##हां": 1439,
      "गए": 1440,
      "होने": 1441,
      "##ंत्री": 1442,
      "इसके": 1443,
      "##ष्ट": 1444,
      "दिन": 1445,
      "उप": 1446,
      "पहले": 1447,
      "अब": 1448,
      "मो": 1449,
      "टी": 1450,
      "जब": 1451,
      "##ड़ा": 1452,
      "##ंध": 1453,
      "##ूर": 1454,
      "सिंह": 1455,
      "वर्": 1456,
      "जी": 1457,
      "मे": 1458,
      "कार्य": 1459,
      "बताया": 1460,
      "वह": 1461,
      "पी": 1462,
      "तर": 1463,
      "##िंग": 1464,
      "##खा": 1465,
      "हि": 1466,
      "इन": 1467,
      "##ये": 1468,
      "वाले": 1469,
      "निर्": 1470,
      "माम": 1471,
      "##र्ट": 1472,
      "जान": 1473,
      "बि": 1474,
      "रु": 1475,
      "##्यू": 1476,
      "##बा": 1477,
      "कुछ": 1478,
      "##को": 1479,
      "बात": 1480,
      "सो": 1481,
      "बे": 1482,
      "##वे": 1483,
      "लेकर": 1484,
      "##कों": 1485,
      "##टे": 1486,
      "साम": 1487,
      "पहु": 1488,
      "##िल्": 1489,
      "सब": 1490,
      "क्ष": 1491,
      "करते": 1492,
      "रू": 1493,
      "बढ़": 1494,
      "अनु": 1495,
      "देश": 1496,
      "##िश": 1497,
      "##ंप": 1498,
      "प्रति": 1499,
      "पहुंच": 1500,
      "वे": 1501,
      "परि": 1502,
      "##वर": 1503,
      "शुर": 1504,
      "##क्षा": 1505,
      "साल": 1506,
      "##ड़े": 1507,
      "हुई": 1508,
      "भारत": 1509,
      "कई": 1510,
      "दु": 1511,
      "##धान": 1512,
      "द्": 1513,
      "अं": 1514,
      "चाह": 1515,
      "कोई": 1516,
      "##वं": 1517,
      "उत्": 1518,
      "रो": 1519,
      "##जे": 1520,
      "##्स": 1521,
      "ये": 1522,
      "दौर": 1523,
      "अपनी": 1524,
      "##र्व": 1525,
      "##च्च": 1526,
      "##कारी": 1527,
      "##क्त": 1528,
      "सभी": 1529,
      "काम": 1530,
      "दू": 1531,
      "##्ल": 1532,
      "बै": 1533,
      "मुख": 1534,
      "##ूल": 1535,
      "हुआ": 1536,
      "##ेत्र": 1537,
      "##मार": 1538,
      "समय": 1539,
      "रुप": 1540,
      "पि": 1541,
      "##ाने": 1542,
      "##जार": 1543,
      "बह": 1544,
      "रि": 1545,
      "##बी": 1546,
      "##्त": 1547,
      "##ोल": 1548,
      "##डी": 1549,
      "##वारा": 1550,
      "किसी": 1551,
      "व्य": 1552,
      "##वाल": 1553,
      "देख": 1554,
      "##ेंद्र": 1555,
      "क्षेत्र": 1556,
      "ग्र": 1557,
      "गां": 1558,
      "हर": 1559,
      "आय": 1560,
      "तरह": 1561,
      "##एम": 1562,
      "शिक": 1563,
      "##जन": 1564,
      "कह": 1565,
      "##मान": 1566,
      "द्वारा": 1567,
      "दौरान": 1568,
      "##नि": 1569,
      "##चार": 1570,
      "मै": 1571,
      "उनके": 1572,
      "##द्ध": 1573,
      "##सान": 1574,
      "##मंत्री": 1575,
      "सू": 1576,
      "फिल": 1577,
      "##ोट": 1578,
      "जन": 1579,
      "##ाप": 1580,
      "चल": 1581,
      "##बंध": 1582,
      "##िका": 1583,
      "राज्य": 1584,
      "##ेंगे": 1585,
      "गु": 1586,
      "विक": 1587,
      "##एस": 1588,
      "दिल्": 1589,
      "खिला": 1590,
      "हाल": 1591,
      "प्रदेश": 1592,
      "रूप": 1593,
      "लग": 1594,
      "नाम": 1595,
      "##िम": 1596,
      "कै": 1597,
      "अम": 1598,
      "##्रेस": 1599,
      "दर्": 1600,
      "रख": 1601,
      "घर": 1602,
      "पार्": 1603,
      "सह": 1604,
      "उन्हें": 1605,
      "दिल्ली": 1606,
      "##00": 1607,
      "भा": 1608,
      "स्ट": 1609,
      "आज": 1610,
      "लिया": 1611,
      "आरो": 1612,
      "शुरू": 1613,
      "इं": 1614,
      "##ोर": 1615,
      "##सर": 1616,
      "शाम": 1617,
      "होगा": 1618,
      "आई": 1619,
      "##क्रम": 1620,
      "##ोड़": 1621,
      "महिला": 1622,
      "##ारा": 1623,
      "अभ": 1624,
      "कोरो": 1625,
      "मुख्य": 1626,
      "बु": 1627,
      "मामले": 1628,
      "कोरोना": 1629,
      "##नाव": 1630,
      "जु": 1631,
      "जाने": 1632,
      "##ीड": 1633,
      "जै": 1634,
      "तीन": 1635,
      "टीम": 1636,
      "खु": 1637,
      "##ज़": 1638,
      "##ुत": 1639,
      "यु": 1640,
      "एवं": 1641,
      "पास": 1642,
      "ना": 1643,
      "##दार": 1644,
      "दि": 1645,
      "##जर": 1646,
      "##यर": 1647,
      "फिल्म": 1648,
      "##ंट": 1649,
      "जाता": 1650,
      "##र्स": 1651,
      "करना": 1652,
      "##ंस": 1653,
      "##फी": 1654,
      "##दि": 1655,
      "##भाग": 1656,
      "##ोक": 1657,
      "बीच": 1658,
      "##तीय": 1659,
      "दूस": 1660,
      "##हत": 1661,
      "पै": 1662,
      "##स्प": 1663,
      "##्यक्ष": 1664,
      "##चा": 1665,
      "वर्ष": 1666,
      "##एं": 1667,
      "बन": 1668,
      "लि": 1669,
      "कुमार": 1670,
      "एस": 1671,
      "##ून": 1672,
      "हा": 1673,
      "##धार": 1674,
      "प्रा": 1675,
      "तै": 1676,
      "जर": 1677,
      "कारण": 1678,
      "##क्ट": 1679,
      "निक": 1680,
      "बच्च": 1681,
      "सकता": 1682,
      "##था": 1683,
      "201": 1684,
      "##जू": 1685,
      "स्थित": 1686,
      "यहां": 1687,
      "##वन": 1688,
      "##पो": 1689,
      "##ेर": 1690,
      "अव": 1691,
      "##लय": 1692,
      "फिर": 1693,
      "चौ": 1694,
      "##क्स": 1695,
      "कांग": 1696,
      "##्यों": 1697,
      "वहीं": 1698,
      "##टना": 1699,
      "दोनों": 1700,
      "##शी": 1701,
      "##िट": 1702,
      "##र्थ": 1703,
      "सकते": 1704,
      "##च्छ": 1705,
      "पु": 1706,
      "चुनाव": 1707,
      "##म्म": 1708,
      "##वाई": 1709,
      "##मी": 1710,
      "मान": 1711,
      "डॉ": 1712,
      "##्रीय": 1713,
      "जिला": 1714,
      "मैं": 1715,
      "##ब्": 1716,
      "ट्र": 1717,
      "गांव": 1718,
      "अन्य": 1719,
      "कांग्रेस": 1720,
      "कॉ": 1721,
      "##सार": 1722,
      "19": 1723,
      "##लों": 1724,
      "जानकारी": 1725,
      "सबसे": 1726,
      "##ारे": 1727,
      "फै": 1728,
      "जाएगा": 1729,
      "क्र": 1730,
      "##िले": 1731,
      "बैठ": 1732,
      "ऐसे": 1733,
      "विभाग": 1734,
      "##्यादा": 1735,
      "##दान": 1736,
      "##प्त": 1737,
      "छा": 1738,
      "जांच": 1739,
      "जारी": 1740,
      "##क्टर": 1741,
      "##टा": 1742,
      "##आई": 1743,
      "गो": 1744,
      "अल": 1745,
      "वाली": 1746,
      "खिलाफ": 1747,
      "##क्ति": 1748,
      "कंप": 1749,
      "वै": 1750,
      "उसके": 1751,
      "मांग": 1752,
      "किसान": 1753,
      "किए": 1754,
      "अग": 1755,
      "आरोप": 1756,
      "##ियां": 1757,
      "सुर": 1758,
      "भारतीय": 1759,
      "स्व": 1760,
      "##दे": 1761,
      "लाख": 1762,
      "##गत": 1763,
      "बद": 1764,
      "##वाद": 1765,
      "##ज्": 1766,
      "10": 1767,
      "यू": 1768,
      "##योग": 1769,
      "पूर्व": 1770,
      "##पर": 1771,
      "डि": 1772,
      "नी": 1773,
      "उनकी": 1774,
      "##ायत": 1775,
      "##ृत": 1776,
      "##ेज": 1777,
      "##भाव": 1778,
      "होता": 1779,
      "स्क": 1780,
      "ज्यादा": 1781,
      "बहुत": 1782,
      "##हार": 1783,
      "##ोन": 1784,
      "शामिल": 1785,
      "राष्ट": 1786,
      "रुपये": 1787,
      "पार्टी": 1788,
      "##धी": 1789,
      "चाहिए": 1790,
      "##ोजना": 1791,
      "##ंब": 1792,
      "##णा": 1793,
      "##ंक": 1794,
      "##..": 1795,
      "महा": 1796,
      "##ताओं": 1797,
      "शु": 1798,
      "देने": 1799,
      "ओर": 1800,
      "##र्ड": 1801,
      "##ायर": 1802,
      "करें": 1803,
      "##न्न": 1804,
      "पां": 1805,
      "राम": 1806,
      "##ेशन": 1807,
      "##म्": 1808,
      "##ूर्": 1809,
      "##पाल": 1810,
      "##्यालय": 1811,
      "इससे": 1812,
      "तैय": 1813,
      "जि": 1814,
      "##श्व": 1815,
      "##वान": 1816,
      "##ंबर": 1817,
      "##ामी": 1818,
      "पिछ": 1819,
      "##ताल": 1820,
      "काफी": 1821,
      "उसे": 1822,
      "##पोर्ट": 1823,
      "##ीस": 1824,
      "नई": 1825,
      "बो": 1826,
      "भाज": 1827,
      "प्रश": 1828,
      "मार्": 1829,
      "वो": 1830,
      "##चना": 1831,
      "गिर": 1832,
      "##ूम": 1833,
      "डी": 1834,
      "छात्र": 1835,
      "##ंदी": 1836,
      "शिक्ष": 1837,
      "करी": 1838,
      "##ाली": 1839,
      "मौत": 1840,
      "दर्ज": 1841,
      "ली": 1842,
      "आपको": 1843,
      "भाजपा": 1844,
      "मंत्री": 1845,
      "##ारियों": 1846,
      "आए": 1847,
      "स्वा": 1848,
      "##स्था": 1849,
      "तथा": 1850,
      "अगर": 1851,
      "करोड़": 1852,
      "श्री": 1853,
      "निय": 1854,
      "सामने": 1855,
      "जिले": 1856,
      "##ासन": 1857,
      "##ुरु": 1858,
      "अध्यक्ष": 1859,
      "##ियो": 1860,
      "आने": 1861,
      "##दर्": 1862,
      "होगी": 1863,
      "##वास": 1864,
      "हजार": 1865,
      "मन": 1866,
      "क्या": 1867,
      "सद": 1868,
      "अपना": 1869,
      "##सभा": 1870,
      "चार": 1871,
      "##ध्य": 1872,
      "मोदी": 1873,
      "##ोष": 1874,
      "इसी": 1875,
      "इला": 1876,
      "क्यों": 1877,
      "करा": 1878,
      "##ाला": 1879,
      "प्रधान": 1880,
      "##लो": 1881,
      "##द्य": 1882,
      "आर": 1883,
      "न्यू": 1884,
      "संबंध": 1885,
      "##धिक": 1886,
      "अस्प": 1887,
      "##धा": 1888,
      "##ैन": 1889,
      "केंद्र": 1890,
      "पूरी": 1891,
      "बारे": 1892,
      "##जूद": 1893,
      "##निया": 1894,
      "करीब": 1895,
      "घटना": 1896,
      "##ेंट": 1897,
      "##वल": 1898,
      "अनुसार": 1899,
      "शा": 1900,
      "##शे": 1901,
      "रे": 1902,
      "याद": 1903,
      "पद": 1904,
      "इसमें": 1905,
      "सफ": 1906,
      "##ूं": 1907,
      "योजना": 1908,
      "##ेंद": 1909,
      "##फ्त": 1910,
      "##रण": 1911,
      "कर्म": 1912,
      "##ताब": 1913,
      "अभी": 1914,
      "##त्म": 1915,
      "##ंत": 1916,
      "##्रा": 1917,
      "अला": 1918,
      "पिछले": 1919,
      "शहर": 1920,
      "बंद": 1921,
      "##तार": 1922,
      "जग": 1923,
      "##ार्ड": 1924,
      "##ुक": 1925,
      "परिवार": 1926,
      "##त्या": 1927,
      "परी": 1928,
      "उठ": 1929,
      "टे": 1930,
      "##ख्या": 1931,
      "नगर": 1932,
      "इसे": 1933,
      "##माण": 1934,
      "आयोज": 1935,
      "दिए": 1936,
      "मुख्यमंत्री": 1937,
      "पढ़": 1938,
      "विध": 1939,
      "##त्व": 1940,
      "अलग": 1941,
      "अच्छ": 1942,
      "##प्र": 1943,
      "दर": 1944,
      "मिले": 1945,
      "##ज्ञ": 1946,
      "12": 1947,
      "##ेत": 1948,
      "होती": 1949,
      "अलावा": 1950,
      "संग": 1951,
      "विकास": 1952,
      "अधिकारी": 1953,
      "बैं": 1954,
      "##रीज": 1955,
      "व्यव": 1956,
      "##डा": 1957,
      "##शि": 1958,
      "पड़": 1959,
      "जबकि": 1960,
      "15": 1961,
      "पांच": 1962,
      "दा": 1963,
      "पानी": 1964,
      "लड़": 1965,
      "इंड": 1966,
      "##ंगे": 1967,
      "##मु": 1968,
      "##बाद": 1969,
      "##करण": 1970,
      "##ंगल": 1971,
      "##जय": 1972,
      "उत्तर": 1973,
      "##आर": 1974,
      "स्कूल": 1975,
      "##ूट": 1976,
      "वा": 1977,
      "##स्तान": 1978,
      "ऐसा": 1979,
      "पो": 1980,
      "अस्पताल": 1981,
      "##स्क": 1982,
      "पत्र": 1983,
      "खा": 1984,
      "##ाइन": 1985,
      "चे": 1986,
      "##र्फ": 1987,
      "##दन": 1988,
      "जिसमें": 1989,
      "##वासी": 1990,
      "जहां": 1991,
      "...": 1992,
      "हालां": 1993,
      "हालांकि": 1994,
      "बजे": 1995,
      "##ीर": 1996,
      "##कान": 1997,
      "##ची": 1998,
      "कंपनी": 1999,
      "##वरी": 2000,
      "##्ला": 2001,
      "रिपोर्ट": 2002,
      "##तिक": 2003,
      "चला": 2004,
      "कप": 2005,
      "लोक": 2006,
      "जैसे": 2007,
      "दिनों": 2008,
      "मत": 2009,
      "202": 2010,
      "रात": 2011,
      "करता": 2012,
      "बनाने": 2013,
      "##जह": 2014,
      "हों": 2015,
      "निर्देश": 2016,
      "एन": 2017,
      "##लिए": 2018,
      "##कर्": 2019,
      "मज": 2020,
      "युव": 2021,
      "शे": 2022,
      "##चित": 2023,
      "संख्या": 2024,
      "सुब": 2025,
      "सकती": 2026,
      "##मेंट": 2027,
      "विश्व": 2028,
      "##सल": 2029,
      "भर": 2030,
      "कार्यक्रम": 2031,
      "जिन": 2032,
      "कान": 2033,
      "आदि": 2034,
      "इस्": 2035,
      "बॉ": 2036,
      "दें": 2037,
      "खेल": 2038,
      "मैच": 2039,
      "मंद": 2040,
      "##ोध": 2041,
      "वजह": 2042,
      "बैठक": 2043,
      "पंच": 2044,
      "##डे": 2045,
      "आम": 2046,
      "बस": 2047,
      "शर्": 2048,
      "##मिक": 2049,
      "योग": 2050,
      "दूसरे": 2051,
      "तहत": 2052,
      "##ंज": 2053,
      "##क्षण": 2054,
      "बेह": 2055,
      "तैयार": 2056,
      "##स्ता": 2057,
      "बल्": 2058,
      "आग": 2059,
      "##ायक": 2060,
      "##ुक्त": 2061,
      "डे": 2062,
      "नजर": 2063,
      "यात्र": 2064,
      "मीड": 2065,
      "मद": 2066,
      "बड़ी": 2067,
      "स्वास्थ": 2068,
      "ब्र": 2069,
      "कुल": 2070,
      "##ियर": 2071,
      "व्या": 2072,
      "नेता": 2073,
      "##ेंस": 2074,
      "बाहर": 2075,
      "जाएगी": 2076,
      "##िता": 2077,
      "जगह": 2078,
      "पाकि": 2079,
      "पुर": 2080,
      "मुताब": 2081,
      "उनका": 2082,
      "आगे": 2083,
      "##यी": 2084,
      "गिरफ्त": 2085,
      "मुताबिक": 2086,
      "सुबह": 2087,
      "आधार": 2088,
      "कार्र": 2089,
      "मीडिया": 2090,
      "##िये": 2091,
      "ऑफ": 2092,
      "कहना": 2093,
      "प्रधानमंत्री": 2094,
      "##फ्": 2095,
      "##शेष": 2096,
      "संक्रम": 2097,
      "कार्रवाई": 2098,
      "नए": 2099,
      "स्वास्थ्य": 2100,
      "सड़": 2101,
      "मिला": 2102,
      "थाना": 2103,
      "सच": 2104,
      "11": 2105,
      "मिली": 2106,
      "मंदिर": 2107,
      "परीक्षा": 2108,
      "सुरक्षा": 2109,
      "रुपए": 2110,
      "##ष्ठ": 2111,
      "ट्रे": 2112,
      "बच्चों": 2113,
      "इसलिए": 2114,
      "जाती": 2115,
      "##ार्थ": 2116,
      "##र्क": 2117,
      "मौके": 2118,
      "कृ": 2119,
      "##म्मी": 2120,
      "सदस": 2121,
      "विशेष": 2122,
      "दिख": 2123,
      "वायर": 2124,
      "##गढ़": 2125,
      "इसका": 2126,
      "रवि": 2127,
      "##खंड": 2128,
      "व्यक्ति": 2129,
      "वीड": 2130,
      "यादव": 2131,
      "बर": 2132,
      "नौ": 2133,
      "प्रदर्": 2134,
      "##ीय": 2135,
      "हिंदी": 2136,
      "##ालय": 2137,
      "##क्सी": 2138,
      "समझ": 2139,
      "करे": 2140,
      "रहने": 2141,
      "स्प": 2142,
      "हाथ": 2143,
      "##लाइ": 2144,
      "मही": 2145,
      "उसकी": 2146,
      "उम्मी": 2147,
      "डा": 2148,
      "##बू": 2149,
      "##मत": 2150,
      "##मारी": 2151,
      "लॉ": 2152,
      "पं": 2153,
      "उम्मीद": 2154,
      "अधिकारियों": 2155,
      "बैंक": 2156,
      "क्योंकि": 2157,
      "एम": 2158,
      "वहां": 2159,
      "##राब": 2160,
      "पूरा": 2161,
      "सौ": 2162,
      "##शल": 2163,
      "तब": 2164,
      "##ैंड": 2165,
      "वीडियो": 2166,
      "##हन": 2167,
      "सेवा": 2168,
      "जम": 2169,
      "होते": 2170,
      "इसकी": 2171,
      "पत्": 2172,
      "मदद": 2173,
      "जीत": 2174,
      "फीस": 2175,
      "किसानों": 2176,
      "गा": 2177,
      "##र्य": 2178,
      "आया": 2179,
      "प्रशासन": 2180,
      "शर्मा": 2181,
      "सूचना": 2182,
      "पे": 2183,
      "##ाइल": 2184,
      "##ुआ": 2185,
      "श्र": 2186,
      "##ार्ट": 2187,
      "स्थिति": 2188,
      "##ियन": 2189,
      "फैस": 2190,
      "##्‍": 2191,
      "##झे": 2192,
      "जिसके": 2193,
      "अफ": 2194,
      "ता": 2195,
      "बाजार": 2196,
      "स्थान": 2197,
      "अमेर": 2198,
      "मार": 2199,
      "जरूर": 2200,
      "##चे": 2201,
      "##स्या": 2202,
      "##ंगा": 2203,
      "जे": 2204,
      "कोर्ट": 2205,
      "मौजूद": 2206,
      "मरीज": 2207,
      "##श्य": 2208,
      "कल": 2209,
      "##तन": 2210,
      "विधान": 2211,
      "##शा": 2212,
      "पता": 2213,
      "##णी": 2214,
      "##शत": 2215,
      "##ैल": 2216,
      "##वेश": 2217,
      "प्रो": 2218,
      "खरी": 2219,
      "वाह": 2220,
      "##ट्": 2221,
      "घोष": 2222,
      "निर्माण": 2223,
      "विरो": 2224,
      "सहित": 2225,
      "गुरु": 2226,
      "##मुख": 2227,
      "समाज": 2228,
      "जल्": 2229,
      "##धि": 2230,
      "करेंगे": 2231,
      "न्या": 2232,
      "30": 2233,
      "लेने": 2234,
      "##न्द्र": 2235,
      "पहली": 2236,
      "##ंदर": 2237,
      "हे": 2238,
      "##राज": 2239,
      "रोक": 2240,
      "निवासी": 2241,
      "##ग्": 2242,
      "ची": 2243,
      "##ांत": 2244,
      "सोम": 2245,
      "खुद": 2246,
      "प्रदर्शन": 2247,
      "बड़े": 2248,
      "##ामीण": 2249,
      "ग्रामीण": 2250,
      "भाग": 2251,
      "चि": 2252,
      "##लेज": 2253,
      "वित": 2254,
      "लगे": 2255,
      "मंगल": 2256,
      "आस": 2257,
      "सर्": 2258,
      "अर": 2259,
      "दिव": 2260,
      "राष्ट्र": 2261,
      "##पूर्": 2262,
      "##द्यालय": 2263,
      "##प्ता": 2264,
      "खान": 2265,
      "बिहार": 2266,
      "पाकिस्तान": 2267,
      "शिव": 2268,
      "##पति": 2269,
      "समस्या": 2270,
      "सीट": 2271,
      "##ंटे": 2272,
      "##स्थान": 2273,
      "राष्ट्रीय": 2274,
      "##र्चा": 2275,
      "##वीर": 2276,
      "चुके": 2277,
      "लगातार": 2278,
      "रेल": 2279,
      "##ायल": 2280,
      "##ात": 2281,
      "जल": 2282,
      "वाला": 2283,
      "##तम": 2284,
      "पूछ": 2285,
      "हूं": 2286,
      "शिकायत": 2287,
      "गिरफ्तार": 2288,
      "##िति": 2289,
      "जिससे": 2290,
      "पंचायत": 2291,
      "अस": 2292,
      "शुक्र": 2293,
      "जीवन": 2294,
      "25": 2295,
      "व्यवस्था": 2296,
      "मि": 2297,
      "छो": 2298,
      "मां": 2299,
      "##बे": 2300,
      "दूर": 2301,
      "##टन": 2302,
      "##नाथ": 2303,
      "शिक्षा": 2304,
      "##यान": 2305,
      "लाभ": 2306,
      "हिस्": 2307,
      "राजनी": 2308,
      "##एल": 2309,
      "देते": 2310,
      "फर": 2311,
      "18": 2312,
      "तरफ": 2313,
      "खबर": 2314,
      "सुन": 2315,
      "पूरे": 2316,
      "दुनिया": 2317,
      "##यास": 2318,
      "गांधी": 2319,
      "सम्म": 2320,
      "##काल": 2321,
      "##ल्ड": 2322,
      "माह": 2323,
      "##यन": 2324,
      "14": 2325,
      "मंत्र": 2326,
      "पाल": 2327,
      "##्यान": 2328,
      "सड़क": 2329,
      "आपके": 2330,
      "पहुंचे": 2331,
      "नर": 2332,
      "बाल": 2333,
      "रन": 2334,
      "सोमवार": 2335,
      "सिर्फ": 2336,
      "##लि": 2337,
      "मंड": 2338,
      "राह": 2339,
      "उपल": 2340,
      "मामला": 2341,
      "##पूर्ण": 2342,
      "प्रभाव": 2343,
      "##लाई": 2344,
      "स्तर": 2345,
      "##गम": 2346,
      "गि": 2347,
      "##्व": 2348,
      "मुझे": 2349,
      "वाप": 2350,
      "विधानसभा": 2351,
      "इत": 2352,
      "शनि": 2353,
      "##दारी": 2354,
      "बड़ा": 2355,
      "लगाया": 2356,
      "##त्य": 2357,
      "महीने": 2358,
      "##भि": 2359,
      "अर्": 2360,
      "बुध": 2361,
      "जाते": 2362,
      "##ल्प": 2363,
      "कभी": 2364,
      "पिता": 2365,
      "चलते": 2366,
      "गं": 2367,
      "##उन": 2368,
      "रखा": 2369,
      "##रि": 2370,
      "बच": 2371,
      "जनता": 2372,
      "##ंका": 2373,
      "हत्या": 2374,
      "##हरा": 2375,
      "बिज": 2376,
      "आत": 2377,
      "व्याप": 2378,
      "सके": 2379,
      "##माल": 2380,
      "प्रतिशत": 2381,
      "##ंबई": 2382,
      "प्रमुख": 2383,
      "लाल": 2384,
      "अह": 2385,
      "विधायक": 2386,
      "##र्ती": 2387,
      "हमारे": 2388,
      "उसने": 2389,
      "दूसरी": 2390,
      "अभि": 2391,
      "शादी": 2392,
      "उपलब्": 2393,
      "माल": 2394,
      "प्राप्त": 2395,
      "भे": 2396,
      "मी": 2397,
      "जय": 2398,
      "यदि": 2399,
      "समा": 2400,
      "##एन": 2401,
      "दुकान": 2402,
      "##ग्र": 2403,
      "शुक्रवार": 2404,
      "##an": 2405,
      "परेश": 2406,
      "बढ़ा": 2407,
      "आदेश": 2408,
      "सवाल": 2409,
      "##ियान": 2410,
      "चुकी": 2411,
      "##षा": 2412,
      "संघ": 2413,
      "मुंबई": 2414,
      "##ाइट": 2415,
      "बुधवार": 2416,
      "##काश": 2417,
      "##ियम": 2418,
      "ते": 2419,
      "प्रे": 2420,
      "केवल": 2421,
      "मिलने": 2422,
      "खे": 2423,
      "##लर": 2424,
      "##तों": 2425,
      "न्यूज़": 2426,
      "##तरा": 2427,
      "मंगलवार": 2428,
      "जवा": 2429,
      "##सू": 2430,
      "##भग": 2431,
      "##िकल": 2432,
      "ध्यान": 2433,
      "कराया": 2434,
      "होंगे": 2435,
      "##ar": 2436,
      "##दों": 2437,
      "50": 2438,
      "ग्राम": 2439,
      "##श्म": 2440,
      "चीन": 2441,
      "पेश": 2442,
      "वन": 2443,
      "##विड": 2444,
      "पक": 2445,
      "##ेंड": 2446,
      "##लाइन": 2447,
      "विरोध": 2448,
      "गै": 2449,
      "उठा": 2450,
      "करती": 2451,
      "##चान": 2452,
      "##षण": 2453,
      "महिलाओं": 2454,
      "##यू": 2455,
      "200": 2456,
      "लगभग": 2457,
      "विभि": 2458,
      "जाना": 2459,
      "##चाल": 2460,
      "करके": 2461,
      "राशि": 2462,
      "मध्य": 2463,
      "##र्ष": 2464,
      "कोश": 2465,
      "भूम": 2466,
      "दल": 2467,
      "बेट": 2468,
      "सरकारी": 2469,
      "##मे": 2470,
      "##र्च": 2471,
      "जल्द": 2472,
      "##ठन": 2473,
      "बिना": 2474,
      "##ूप": 2475,
      "13": 2476,
      "##ोब": 2477,
      "आरोपी": 2478,
      "शनिवार": 2479,
      "##न्द": 2480,
      "शि": 2481,
      "रविवार": 2482,
      "नंबर": 2483,
      "खास": 2484,
      "##ंद्र": 2485,
      "##ूरी": 2486,
      "##वाह": 2487,
      "##ोरी": 2488,
      "प्रयास": 2489,
      "उपलब्ध": 2490,
      "##in": 2491,
      "16": 2492,
      "फोन": 2493,
      "तौर": 2494,
      "छोड़": 2495,
      "सै": 2496,
      "कीमत": 2497,
      "राय": 2498,
      "माध्य": 2499,
      "टेस्ट": 2500,
      "विभिन्न": 2501,
      "सदस्य": 2502,
      "तेज": 2503,
      "सोशल": 2504,
      "##भीर": 2505,
      "क्रिक": 2506,
      "मना": 2507,
      "डाल": 2508,
      "पार": 2509,
      "सामान": 2510,
      "संप": 2511,
      "##तेमाल": 2512,
      "##वेदन": 2513,
      "ट्": 2514,
      "बने": 2515,
      "सांस": 2516,
      "युवक": 2517,
      "##रिक": 2518,
      "बज": 2519,
      "अभियान": 2520,
      "इंडिया": 2521,
      "सफल": 2522,
      "युवा": 2523,
      "हाई": 2524,
      "बयान": 2525,
      "पूर्": 2526,
      "शाह": 2527,
      "कोशिश": 2528,
      "अंतर": 2529,
      "धन": 2530,
      "नियम": 2531,
      "तस्": 2532,
      "आव": 2533,
      "इंटर": 2534,
      "उपयोग": 2535,
      "प्रभ": 2536,
      "लिख": 2537,
      "भग": 2538,
      "बनाया": 2539,
      "चाल": 2540,
      "##हरी": 2541,
      "फीसदी": 2542,
      "चर्चा": 2543,
      "लिखा": 2544,
      "सचिव": 2545,
      "##क्शन": 2546,
      "इस्तेमाल": 2547,
      "घंटे": 2548,
      "साह": 2549,
      "##एफ": 2550,
      "उम": 2551,
      "पॉ": 2552,
      "शेयर": 2553,
      "दौ": 2554,
      "बनाए": 2555,
      "आयोजित": 2556,
      "रिक": 2557,
      "रोज": 2558,
      "लगी": 2559,
      "वायरस": 2560,
      "पत्नी": 2561,
      "चिक": 2562,
      "गंभीर": 2563,
      "24": 2564,
      "अति": 2565,
      "##हाय": 2566,
      "##भव": 2567,
      "गेंद": 2568,
      "गयी": 2569,
      "##विधा": 2570,
      "आद": 2571,
      "मृत": 2572,
      "##िली": 2573,
      "कॉलेज": 2574,
      "##फा": 2575,
      "##ोह": 2576,
      "साइ": 2577,
      "ऐसी": 2578,
      "##्ड": 2579,
      "ज़": 2580,
      "कोविड": 2581,
      "यात्रा": 2582,
      "शी": 2583,
      "##ीक": 2584,
      "वालों": 2585,
      "17": 2586,
      "प्रकार": 2587,
      "राहुल": 2588,
      "##जु": 2589,
      "शुरुआ": 2590,
      "एक्स": 2591,
      "कराने": 2592,
      "विदेश": 2593,
      "ब्ल": 2594,
      "धर्म": 2595,
      "गल": 2596,
      "दिखा": 2597,
      "कौ": 2598,
      "होना": 2599,
      "नोट": 2600,
      "क्": 2601,
      "##बाज": 2602,
      "जवाब": 2603,
      "जन्": 2604,
      "उसका": 2605,
      "समर्थ": 2606,
      "##टक": 2607,
      "हमें": 2608,
      "बारिश": 2609,
      "पीछ": 2610,
      "##षि": 2611,
      "भर्ती": 2612,
      "##सि": 2613,
      "रखने": 2614,
      "##भर": 2615,
      "फैसला": 2616,
      "मार्च": 2617,
      "बाइ": 2618,
      "समेत": 2619,
      "##श्यक": 2620,
      "भाई": 2621,
      "आयोजन": 2622,
      "पक्ष": 2623,
      "चुका": 2624,
      "बिजली": 2625,
      "फे": 2626,
      "##सम": 2627,
      "लौ": 2628,
      "मोह": 2629,
      "##लिया": 2630,
      "रोड": 2631,
      "सुविधा": 2632,
      "सात": 2633,
      "##कु": 2634,
      "वृ": 2635,
      "जमा": 2636,
      "##गू": 2637,
      "पोस्ट": 2638,
      "समिति": 2639,
      "तरी": 2640,
      "##मो": 2641,
      "देखने": 2642,
      "संय": 2643,
      "सहयोग": 2644,
      "सें": 2645,
      "##िज": 2646,
      "करवा": 2647,
      "जिम": 2648,
      "##त्री": 2649,
      "थीं": 2650,
      "संक्रमण": 2651,
      "लक्ष": 2652,
      "##यों": 2653,
      "##बल": 2654,
      "सहाय": 2655,
      "अंत": 2656,
      "अप्र": 2657,
      "छह": 2658,
      "##श्च": 2659,
      "स्म": 2660,
      "##खन": 2661,
      "##बंधन": 2662,
      "मूल": 2663,
      "जेल": 2664,
      "##ड़ों": 2665,
      "अहम": 2666,
      "सीएम": 2667,
      "##त्ता": 2668,
      "महत्व": 2669,
      "देखा": 2670,
      "बच्चे": 2671,
      "##किल": 2672,
      "बोर्ड": 2673,
      "सेना": 2674,
      "##ांस": 2675,
      "सीमा": 2676,
      "कश्म": 2677,
      "##जेपी": 2678,
      "चिकित": 2679,
      "शव": 2680,
      "##लब": 2681,
      "##गार": 2682,
      "देर": 2683,
      "##िस्ट": 2684,
      "माध्यम": 2685,
      "ज्": 2686,
      "##ज्ञान": 2687,
      "आवश्यक": 2688,
      "बदल": 2689,
      "निगम": 2690,
      "उत्पा": 2691,
      "मेड": 2692,
      "##ुड": 2693,
      "मोब": 2694,
      "##er": 2695,
      "फोट": 2696,
      "संचाल": 2697,
      "शो": 2698,
      "##ध्यक्ष": 2699,
      "लगाने": 2700,
      "##िकी": 2701,
      "बल्कि": 2702,
      "वापस": 2703,
      "क्रिकेट": 2704,
      "सित": 2705,
      "केंद": 2706,
      "तीस": 2707,
      "##on": 2708,
      "##दम": 2709,
      "##at": 2710,
      "##्रम": 2711,
      "जून": 2712,
      "##द्योग": 2713,
      "तय": 2714,
      "बीजेपी": 2715,
      "घायल": 2716,
      "##क्षक": 2717,
      "देव": 2718,
      "21": 2719,
      "##हाल": 2720,
      "##कर्म": 2721,
      "##स्‍": 2722,
      "भू": 2723,
      "भेज": 2724,
      "##चर": 2725,
      "##ुरा": 2726,
      "कार्यकर्": 2727,
      "निकल": 2728,
      "इलाज": 2729,
      "कर्": 2730,
      "पाए": 2731,
      "केस": 2732,
      "अमेरिका": 2733,
      "##ंभ": 2734,
      "फ़": 2735,
      "देखते": 2736,
      "केंद्रीय": 2737,
      "साफ": 2738,
      "तस्वीर": 2739,
      "##वीं": 2740,
      "दुर्": 2741,
      "पट": 2742,
      "पड़ा": 2743,
      "##मन": 2744,
      "चाहते": 2745,
      "उच्च": 2746,
      "##रिया": 2747,
      "यही": 2748,
      "##धन": 2749,
      "कमी": 2750,
      "अवसर": 2751,
      "ट्रेन": 2752,
      "कार्यालय": 2753,
      "पीछे": 2754,
      "मुद्": 2755,
      "##ृह": 2756,
      "पंजा": 2757,
      "एज": 2758,
      "सम्मान": 2759,
      "##कत": 2760,
      "रेलवे": 2761,
      "विवाद": 2762,
      "पीएम": 2763,
      "ड्र": 2764,
      "##धर": 2765,
      "जाएंगे": 2766,
      "##र्जी": 2767,
      "खरीद": 2768,
      "कट": 2769,
      "जरूरत": 2770,
      "सर्व": 2771,
      "##िटी": 2772,
      "##ूब": 2773,
      "अद": 2774,
      "मोबाइल": 2775,
      "##ित्र": 2776,
      "कैसे": 2777,
      "##क्षित": 2778,
      "पर्": 2779,
      "ठीक": 2780,
      "भारी": 2781,
      "##ैंप": 2782,
      "आइ": 2783,
      "एक्ट": 2784,
      "विचार": 2785,
      "जिसे": 2786,
      "मिन": 2787,
      "##ामा": 2788,
      "ऑन": 2789,
      "होकर": 2790,
      "गुरुवार": 2791,
      "यूपी": 2792,
      "2020": 2793,
      "##किंग": 2794,
      "##ांड": 2795,
      "जन्म": 2796,
      "##ोस": 2797,
      "पेट": 2798,
      "##तिम": 2799,
      "वाहन": 2800,
      "बचा": 2801,
      "भगवान": 2802,
      "##ग्री": 2803,
      "कानून": 2804,
      "100": 2805,
      "##षद": 2806,
      "सही": 2807,
      "नार": 2808,
      "लिये": 2809,
      "मेरे": 2810,
      "अच्छा": 2811,
      "जनवरी": 2812,
      "हास": 2813,
      "##ंख": 2814,
      "दिल": 2815,
      "आख": 2816,
      "पति": 2817,
      "नरेंद्र": 2818,
      "कश्मीर": 2819,
      "आवेदन": 2820,
      "##एच": 2821,
      "##िशा": 2822,
      "##ानीय": 2823,
      "भु": 2824,
      "##काब": 2825,
      "##स्थित": 2826,
      "##स्टर": 2827,
      "बेहतर": 2828,
      "तला": 2829,
      "जागर": 2830,
      "##बाजी": 2831,
      "शरी": 2832,
      "माना": 2833,
      "पीड़": 2834,
      "##लेट": 2835,
      "जमीन": 2836,
      "स्थानीय": 2837,
      "##जिट": 2838,
      "##मति": 2839,
      "##ष्ण": 2840,
      "22": 2841,
      "##क्रिया": 2842,
      "आठ": 2843,
      "चा": 2844,
      "##चल": 2845,
      "तम": 2846,
      "हॉ": 2847,
      "घोषणा": 2848,
      "##ुओं": 2849,
      "अंतिम": 2850,
      "संत": 2851,
      "##र्न": 2852,
      "##्रोल": 2853,
      "मार्ग": 2854,
      "शुरुआत": 2855,
      "हासिल": 2856,
      "रै": 2857,
      "मरीजों": 2858,
      "प्रक्रिया": 2859,
      "ताकि": 2860,
      "अख": 2861,
      "कृषि": 2862,
      "डॉक्टर": 2863,
      "आतंक": 2864,
      "##पन": 2865,
      "##ठी": 2866,
      "##वुड": 2867,
      "##ल्स": 2868,
      "##्मे": 2869,
      "##्यो": 2870,
      "विप": 2871,
      "निकाल": 2872,
      "##ेक": 2873,
      "##चारियों": 2874,
      "मिश": 2875,
      "##गल": 2876,
      "अपरा": 2877,
      "विकेट": 2878,
      "नव": 2879,
      "##मर": 2880,
      "##जनों": 2881,
      "##राव": 2882,
      "##or": 2883,
      "छात्रों": 2884,
      "एयर": 2885,
      "लाइ": 2886,
      "##हास": 2887,
      "भाव": 2888,
      "क्ल": 2889,
      "अप्रैल": 2890,
      "कार्ड": 2891,
      "जरूरी": 2892,
      "पंजाब": 2893,
      "बनी": 2894,
      "##मता": 2895,
      "प्रभारी": 2896,
      "मॉ": 2897,
      "रंग": 2898,
      "उल्": 2899,
      "मश": 2900,
      "प्": 2901,
      "विद्य": 2902,
      "संबंधित": 2903,
      "फ्र": 2904,
      "कर्मचारियों": 2905,
      "स्थाप": 2906,
      "##द्धि": 2907,
      "मंत्रालय": 2908,
      "##िकों": 2909,
      "गौर": 2910,
      "##टने": 2911,
      "##ोलन": 2912,
      "##त्ति": 2913,
      "तु": 2914,
      "##क्ता": 2915,
      "संक": 2916,
      "तेजी": 2917,
      "##ष्य": 2918,
      "##विद्यालय": 2919,
      "2021": 2920,
      "दिस": 2921,
      "ति": 2922,
      "पहुंचा": 2923,
      "##तरी": 2924,
      "##न्हें": 2925,
      "##नेट": 2926,
      "##ृति": 2927,
      "##धिकारी": 2928,
      "##तृ": 2929,
      "मुकाब": 2930,
      "निश": 2931,
      "न्याया": 2932,
      "निजी": 2933,
      "बेहद": 2934,
      "##ंदा": 2935,
      "बाव": 2936,
      "##ानि": 2937,
      "संवाद": 2938,
      "##साद": 2939,
      "कहते": 2940,
      "##वादी": 2941,
      "##शनल": 2942,
      "फोटो": 2943,
      "आंद": 2944,
      "शराब": 2945,
      "अंदर": 2946,
      "बाइक": 2947,
      "निर्ण": 2948,
      "##फ़": 2949,
      "देवी": 2950,
      "मैंने": 2951,
      "पूजा": 2952,
      "देशों": 2953,
      "##es": 2954,
      "##धे": 2955,
      "बदला": 2956,
      "कहीं": 2957,
      "वक्त": 2958,
      "खत्म": 2959,
      "##रल": 2960,
      "नुक": 2961,
      "पड़े": 2962,
      "अगले": 2963,
      "लॉक": 2964,
      "##ंडी": 2965,
      "पस": 2966,
      "लखन": 2967,
      "##श्वास": 2968,
      "हिस्सा": 2969,
      "नेताओं": 2970,
      "##रों": 2971,
      "##लू": 2972,
      "वी": 2973,
      "##ॉक": 2974,
      "कंपन": 2975,
      "राज्यों": 2976,
      "##लीवुड": 2977,
      "आयोग": 2978,
      "नागर": 2979,
      "##तंत्र": 2980,
      "रहते": 2981,
      "वैक्सी": 2982,
      "नया": 2983,
      "पहुंची": 2984,
      "उम्मीदवार": 2985,
      "##टेड": 2986,
      "जिम्मे": 2987,
      "आर्थ": 2988,
      "सूत्र": 2989,
      "हमला": 2990,
      "गति": 2991,
      "##ील": 2992,
      "ज्ञ": 2993,
      "##ूबर": 2994,
      "खो": 2995,
      "राष्ट्रपति": 2996,
      "बंग": 2997,
      "एड": 2998,
      "##ूह": 2999,
      "##al": 3000,
      "संभाव": 3001,
      "प्रभावित": 3002,
      "##करी": 3003,
      "भाषा": 3004,
      "हाद": 3005,
      "सांसद": 3006,
      "##दाय": 3007,
      "प्रकाश": 3008,
      "40": 3009,
      "##सत": 3010,
      "##ंगी": 3011,
      "##तिहास": 3012,
      "दक्ष": 3013,
      "नुकसान": 3014,
      "##वत": 3015,
      "हरिया": 3016,
      "##डाउन": 3017,
      "देकर": 3018,
      "थाने": 3019,
      "परेशान": 3020,
      "गण": 3021,
      "##झा": 3022,
      "कारोब": 3023,
      "##पू": 3024,
      "##िक्ष": 3025,
      "##प्ताह": 3026,
      "बावजूद": 3027,
      "एल": 3028,
      "किस": 3029,
      "##ांति": 3030,
      "##चारी": 3031,
      "प्रदान": 3032,
      "##फर": 3033,
      "##दीप": 3034,
      "मजबू": 3035,
      "मई": 3036,
      "संगठन": 3037,
      "रहेगा": 3038,
      "##िक्": 3039,
      "पहचान": 3040,
      "जुलाई": 3041,
      "आर्थिक": 3042,
      "वर्ग": 3043,
      "राजस्थान": 3044,
      "##गंज": 3045,
      "कदम": 3046,
      "##स्ताव": 3047,
      "आश": 3048,
      "वरि": 3049,
      "आंदोलन": 3050,
      "संक्रमित": 3051,
      "##ड्": 3052,
      "छात्रा": 3053,
      "##ूक": 3054,
      "26": 3055,
      "##जल": 3056,
      "##र्ग": 3057,
      "लागू": 3058,
      "अच्छी": 3059,
      "##ित्य": 3060,
      "2019": 3061,
      "विजय": 3062,
      "##प्री": 3063,
      "प्रस्ताव": 3064,
      "दीप": 3065,
      "मामलों": 3066,
      "टिक": 3067,
      "रण": 3068,
      "##ैक": 3069,
      "लखनऊ": 3070,
      "##ेंसी": 3071,
      "##ॉप": 3072,
      "स्वी": 3073,
      "##श्चित": 3074,
      "अदाल": 3075,
      "तेल": 3076,
      "मेडिकल": 3077,
      "पश्च": 3078,
      "तैयारी": 3079,
      "गये": 3080,
      "##धानी": 3081,
      "इनमें": 3082,
      "वेब": 3083,
      "##जाम": 3084,
      "##केट": 3085,
      "पश्चिम": 3086,
      "अगस्त": 3087,
      "मं": 3088,
      "##व्य": 3089,
      "परिव": 3090,
      "क्षेत्रों": 3091,
      "बल": 3092,
      "देना": 3093,
      "लो": 3094,
      "लगता": 3095,
      "मौसम": 3096,
      "##ष्टि": 3097,
      "ऑनलाइन": 3098,
      "महत्वपूर्ण": 3099,
      "रज": 3100,
      "पुत्र": 3101,
      "टै": 3102,
      "##कल": 3103,
      "##तियों": 3104,
      "##वें": 3105,
      "शरीर": 3106,
      "##फे": 3107,
      "जता": 3108,
      "चुन": 3109,
      "वोट": 3110,
      "बल्ले": 3111,
      "मुला": 3112,
      "वरिष्ठ": 3113,
      "सल": 3114,
      "##ूर्ति": 3115,
      "ठा": 3116,
      "गृह": 3117,
      "##रु": 3118,
      "जुड़े": 3119,
      "राजनीतिक": 3120,
      "कित": 3121,
      "##ेशा": 3122,
      "##स्कार": 3123,
      "दिवस": 3124,
      "फरवरी": 3125,
      "समी": 3126,
      "ट्वी": 3127,
      "नीचे": 3128,
      "##रात": 3129,
      "##ड़ियों": 3130,
      "निर्णय": 3131,
      "चरण": 3132,
      "यानी": 3133,
      "विष": 3134,
      "तत्": 3135,
      "##खी": 3136,
      "##फ्ट": 3137,
      "लोकसभा": 3138,
      "धो": 3139,
      "23": 3140,
      "आन": 3141,
      "##केश": 3142,
      "बॉलीवुड": 3143,
      "##नगर": 3144,
      "कला": 3145,
      "पहला": 3146,
      "पाया": 3147,
      "कर्मचारी": 3148,
      "##टल": 3149,
      "आंक": 3150,
      "दावा": 3151,
      "अंक": 3152,
      "सैन": 3153,
      "##निक": 3154,
      "किलो": 3155,
      "फाय": 3156,
      "बिक": 3157,
      "दोप": 3158,
      "सितंबर": 3159,
      "फॉ": 3160,
      "दिसंबर": 3161,
      "##पास": 3162,
      "बेटी": 3163,
      "ख़": 3164,
      "प्रत": 3165,
      "मात्र": 3166,
      "प्रसाद": 3167,
      "अग्र": 3168,
      "पौ": 3169,
      "दक्षि": 3170,
      "##ड़ने": 3171,
      "तरीके": 3172,
      "##om": 3173,
      "हरियाणा": 3174,
      "##दाता": 3175,
      "##त्मक": 3176,
      "घा": 3177,
      "हमने": 3178,
      "##ंता": 3179,
      "समर्थन": 3180,
      "लाइन": 3181,
      "##ंसा": 3182,
      "इलाके": 3183,
      "लॉकडाउन": 3184,
      "त्र": 3185,
      "भो": 3186,
      "##थि": 3187,
      "प्रतिनि": 3188,
      "स्टेशन": 3189,
      "भेजा": 3190,
      "सप्ताह": 3191,
      "##्यु": 3192,
      "##ांक": 3193,
      "##जों": 3194,
      "मिनट": 3195,
      "पढ़ें": 3196,
      "##तृत्व": 3197,
      "अदालत": 3198,
      "निवेश": 3199,
      "##ष्ट्र": 3200,
      "बोल": 3201,
      "घु": 3202,
      "नवं": 3203,
      "हमारी": 3204,
      "##धु": 3205,
      "नवंबर": 3206,
      "शासन": 3207,
      "बेटे": 3208,
      "ट्वीट": 3209,
      "##स्व": 3210,
      "दिखाई": 3211,
      "##लाह": 3212,
      "मिलेगा": 3213,
      "##नात": 3214,
      "श्रद्ध": 3215,
      "दस": 3216,
      "टीका": 3217,
      "##ौल": 3218,
      "##ad": 3219,
      "##ंव": 3220,
      "दवा": 3221,
      "पूर्ण": 3222,
      "##पे": 3223,
      "##साय": 3224,
      "हमेशा": 3225,
      "राहत": 3226,
      "फिलहाल": 3227,
      "वार्ड": 3228,
      "शुभ": 3229,
      "मजद": 3230,
      "अभिने": 3231,
      "##घा": 3232,
      "उम्र": 3233,
      "अंग": 3234,
      "प्ल": 3235,
      "##हान": 3236,
      "##वरण": 3237,
      "छोटे": 3238,
      "##ब्ल": 3239,
      "ऊपर": 3240,
      "बातची": 3241,
      "परिजनों": 3242,
      "बातचीत": 3243,
      "बनने": 3244,
      "महामारी": 3245,
      "ग्रामीणों": 3246,
      "नेतृत्व": 3247,
      "जरिए": 3248,
      "##ण्ड": 3249,
      "##ियल": 3250,
      "उद्": 3251,
      "##रीब": 3252,
      "प्रवेश": 3253,
      "##स्ती": 3254,
      "खिलाड़ी": 3255,
      "##पु": 3256,
      "मुक": 3257,
      "संयुक्त": 3258,
      "##धियों": 3259,
      "जाये": 3260,
      "##जीत": 3261,
      "सामना": 3262,
      "उद": 3263,
      "आवा": 3264,
      "तह": 3265,
      "खुला": 3266,
      "लगाए": 3267,
      "दोपहर": 3268,
      "महारा": 3269,
      "इतना": 3270,
      "गे": 3271,
      "##ॉर्ड": 3272,
      "##ाइम": 3273,
      "फी": 3274,
      "27": 3275,
      "भूमिका": 3276,
      "।'": 3277,
      "पसंद": 3278,
      "##ौती": 3279,
      "##ष्ट्रीय": 3280,
      "समु": 3281,
      "करेगा": 3282,
      "खूब": 3283,
      "##डल": 3284,
      "जाकर": 3285,
      "न्याय": 3286,
      "राजनीति": 3287,
      "पालन": 3288,
      "लें": 3289,
      "##ंकी": 3290,
      "अधिकार": 3291,
      "अर्थ": 3292,
      "इंत": 3293,
      "इंद": 3294,
      "##ियोग": 3295,
      "हिंद": 3296,
      "##जरी": 3297,
      "मुश्": 3298,
      "##म्मू": 3299,
      "अश": 3300,
      "भीड़": 3301,
      "उत्तरा": 3302,
      "जम्मू": 3303,
      "उसी": 3304,
      "अक्ट": 3305,
      "खराब": 3306,
      "एंड": 3307,
      "##en": 3308,
      "##ुल्": 3309,
      "##णाम": 3310,
      "बिल": 3311,
      "##वाली": 3312,
      "सफाई": 3313,
      "अक्टूबर": 3314,
      "ओवर": 3315,
      "31": 3316,
      "कप्त": 3317,
      "चोरी": 3318,
      "##वाही": 3319,
      "हमले": 3320,
      "28": 3321,
      "##थमिक": 3322,
      "लंब": 3323,
      "दरअ": 3324,
      "##ूड": 3325,
      "##त्स": 3326,
      "संभावना": 3327,
      "##ंकर": 3328,
      "##ंटी": 3329,
      "दरअसल": 3330,
      "आते": 3331,
      "जवान": 3332,
      "कही": 3333,
      "थो": 3334,
      "चंद्र": 3335,
      "दोस्त": 3336,
      "##न्‍": 3337,
      "विद्यालय": 3338,
      "कले": 3339,
      "संजय": 3340,
      "अवै": 3341,
      "##ॉल": 3342,
      "मैदान": 3343,
      "35": 3344,
      "नदी": 3345,
      "सुधार": 3346,
      "गुप्ता": 3347,
      "विश्वविद्यालय": 3348,
      "परिषद": 3349,
      "प्राथमिक": 3350,
      "चले": 3351,
      "##नो": 3352,
      "##िसर": 3353,
      "मतदान": 3354,
      "##न्ना": 3355,
      "##नीय": 3356,
      "##बीआई": 3357,
      "आपकी": 3358,
      "##ंघ": 3359,
      "वर्षीय": 3360,
      "अतिरिक": 3361,
      "गाय": 3362,
      "संस": 3363,
      "पर्या": 3364,
      "बदलाव": 3365,
      "दिशा": 3366,
      "##स्ट्रे": 3367,
      "विस्त": 3368,
      "##ापन": 3369,
      "बंगाल": 3370,
      "सजा": 3371,
      "##ोजन": 3372,
      "रोग": 3373,
      "##ैया": 3374,
      "वैक्सीन": 3375,
      "असर": 3376,
      "अवैध": 3377,
      "सम्": 3378,
      "##हाँ": 3379,
      "##टो": 3380,
      "साब": 3381,
      "आत्म": 3382,
      "मुश्किल": 3383,
      "000": 3384,
      "अतिरिक्त": 3385,
      "निरी": 3386,
      "महाराष्ट्र": 3387,
      "मंडल": 3388,
      "संब": 3389,
      "प्रेम": 3390,
      "##ॉय": 3391,
      "संस्थान": 3392,
      "##नर": 3393,
      "),": 3394,
      "पूछता": 3395,
      "दबा": 3396,
      "इंग": 3397,
      "गौ": 3398,
      "सूची": 3399,
      "डाय": 3400,
      "गुज": 3401,
      "खर्च": 3402,
      "वार": 3403,
      "स्मार्ट": 3404,
      "अली": 3405,
      "##उंड": 3406,
      "##तु": 3407,
      "परिणाम": 3408,
      "गर्म": 3409,
      "शान": 3410,
      "प्रव": 3411,
      "उससे": 3412,
      "##ामद": 3413,
      "हार": 3414,
      "धी": 3415,
      "##हित": 3416,
      "राजधानी": 3417,
      "जैसी": 3418,
      "##देव": 3419,
      "सेंटर": 3420,
      "माता": 3421,
      "##सों": 3422,
      "##शु": 3423,
      "##कृत": 3424,
      "कपूर": 3425,
      "एफ": 3426,
      "##ट्स": 3427,
      "##स्ट्रेलिया": 3428,
      "##दू": 3429,
      "##चिका": 3430,
      "गर्": 3431,
      "देता": 3432,
      "##फिक": 3433,
      "सुना": 3434,
      "सामान्य": 3435,
      "रहता": 3436,
      "सुप्री": 3437,
      "##र्गत": 3438,
      "पूछताछ": 3439,
      "गलत": 3440,
      "सोच": 3441,
      "कंपनियों": 3442,
      "##चन": 3443,
      "कब्": 3444,
      "यून": 3445,
      "छु": 3446,
      "दक्षिण": 3447,
      "##दु": 3448,
      "##क्‍": 3449,
      "##तमान": 3450,
      "धर": 3451,
      "##ाजिक": 3452,
      "गठ": 3453,
      "लेते": 3454,
      "##त्ती": 3455,
      "जित": 3456,
      "भुगत": 3457,
      "अनुमति": 3458,
      "आयु": 3459,
      "##स्तव": 3460,
      "##एसपी": 3461,
      "पैसे": 3462,
      "नौकरी": 3463,
      "करेगी": 3464,
      "दिला": 3465,
      "नियंत्र": 3466,
      "तहसी": 3467,
      "पीड़ित": 3468,
      "सभा": 3469,
      "याचिका": 3470,
      "सत्र": 3471,
      "##सन": 3472,
      "##ाइड": 3473,
      "एसपी": 3474,
      "आसपास": 3475,
      "बजट": 3476,
      "रिश्": 3477,
      "मर": 3478,
      "##उट": 3479,
      "सिद्ध": 3480,
      "##्वर": 3481,
      "##धरी": 3482,
      "उपा": 3483,
      "सफलता": 3484,
      "ट्रै": 3485,
      "सदस्यों": 3486,
      "काल": 3487,
      "घोषित": 3488,
      "##स्ते": 3489,
      "रिली": 3490,
      "अमेरिकी": 3491,
      "।’": 3492,
      "कराई": 3493,
      "प्रयोग": 3494,
      "बर्": 3495,
      "उपस्थित": 3496,
      "रिज": 3497,
      "चयन": 3498,
      "फ्ल": 3499,
      "बीते": 3500,
      "बरामद": 3501,
      "##िग": 3502,
      "मजबूत": 3503,
      "##क्कर": 3504,
      "गोली": 3505,
      "रक्षा": 3506,
      "मेरी": 3507,
      "##राह": 3508,
      "उनसे": 3509,
      "##साइट": 3510,
      "उद्योग": 3511,
      "पुरु": 3512,
      "हालत": 3513,
      "वित्त": 3514,
      "##्रो": 3515,
      "वर्तमान": 3516,
      "भवि": 3517,
      "टिकट": 3518,
      "सलाह": 3519,
      "##वाइ": 3520,
      "##म्प": 3521,
      "निदेश": 3522,
      "पेट्रोल": 3523,
      "##ंदगी": 3524,
      "29": 3525,
      "जिल": 3526,
      "पर्य": 3527,
      "##ीत": 3528,
      "समूह": 3529,
      "व्यक्त": 3530,
      "प्रत्य": 3531,
      "भवन": 3532,
      "पुरुष": 3533,
      "पदा": 3534,
      "योगी": 3535,
      "उत्स": 3536,
      "उत्तराखंड": 3537,
      "सुनवाई": 3538,
      "तहसील": 3539,
      "प्रशिक्ष": 3540,
      "##ंडा": 3541,
      "सुनी": 3542,
      "बताते": 3543,
      "भोपाल": 3544,
      ")।": 3545,
      "##फोन": 3546,
      "बढ़ाने": 3547,
      "वायरल": 3548,
      "भविष्य": 3549,
      "सामाजिक": 3550,
      "सवार": 3551,
      "समार": 3552,
      "##ार्ज": 3553,
      "शिक्षक": 3554,
      "इतिहास": 3555,
      "##थम": 3556,
      "चौधरी": 3557,
      "श्रे": 3558,
      "कौन": 3559,
      "इंग्ल": 3560,
      "समारोह": 3561,
      "सिर": 3562,
      "एसडी": 3563,
      "वेबसाइट": 3564,
      "जाय": 3565,
      "##कात": 3566,
      "अपील": 3567,
      "वार्": 3568,
      "सिल": 3569,
      "सीरीज": 3570,
      "मौका": 3571,
      "विपक्ष": 3572,
      "न्यायालय": 3573,
      "##दर": 3574,
      "तारी": 3575,
      "##कारों": 3576,
      "अच्छे": 3577,
      "प्रिय": 3578,
      "बनाकर": 3579,
      "सूत्रों": 3580,
      "##उंट": 3581,
      "रहती": 3582,
      "धारा": 3583,
      "आईपी": 3584,
      "##नियर": 3585,
      "##ic": 3586,
      "सुपर": 3587,
      "##ार्थियों": 3588,
      "मजदूर": 3589,
      "तुल": 3590,
      "##ियार": 3591,
      "जोर": 3592,
      "तलाश": 3593,
      "कोह": 3594,
      "##स्ल": 3595,
      "ग्राह": 3596,
      "अमित": 3597,
      "वृद्धि": 3598,
      "चढ़": 3599,
      "एच": 3600,
      "##ोधित": 3601,
      "तत्काल": 3602,
      "60": 3603,
      "स्कूलों": 3604,
      "पल": 3605,
      "##स्त्र": 3606,
      "निर्धार": 3607,
      "##न्स": 3608,
      "कार्यकर्ताओं": 3609,
      "लै": 3610,
      "रखी": 3611,
      "हट": 3612,
      "##ानों": 3613,
      "स्‍": 3614,
      "सत": 3615,
      "##यं": 3616,
      "##दिन": 3617,
      "लगाई": 3618,
      "लक्ष्य": 3619,
      "टि": 3620,
      "फु": 3621,
      "##्रेट": 3622,
      "##खे": 3623,
      "किये": 3624,
      "दूसरा": 3625,
      "आरोपियों": 3626,
      "एक्सप": 3627,
      "सुप्रीम": 3628,
      "टा": 3629,
      "परिय": 3630,
      "2018": 3631,
      "खोल": 3632,
      "प्रतियोग": 3633,
      "प्य": 3634,
      "कोल": 3635,
      "##ुप": 3636,
      "साबित": 3637,
      "परियोजना": 3638,
      "##शील": 3639,
      "शांति": 3640,
      "संकट": 3641,
      "जिलों": 3642,
      "##िक्स": 3643,
      "जिसका": 3644,
      "पटेल": 3645,
      "पाठ": 3646,
      "बिग": 3647,
      "चौक": 3648,
      "दाम": 3649,
      "तकनी": 3650,
      "##ाइनल": 3651,
      "उत": 3652,
      "बेच": 3653,
      "##चार्य": 3654,
      "निभा": 3655,
      "##ल्ट": 3656,
      "चिकित्स": 3657,
      "तोड़": 3658,
      "बनाई": 3659,
      "संस्था": 3660,
      "खुश": 3661,
      "कप्तान": 3662,
      "बिल्": 3663,
      "##नल": 3664,
      "प्ला": 3665,
      "व्यापार": 3666,
      "##कीय": 3667,
      "भूमि": 3668,
      "गुजरात": 3669,
      "##it": 3670,
      "मुह": 3671,
      "##विंद": 3672,
      "तैनात": 3673,
      "मुलाकात": 3674,
      "मानस": 3675,
      "टीवी": 3676,
      "##वनी": 3677,
      "ताल": 3678,
      "झार": 3679,
      "##िरी": 3680,
      "##तक": 3681,
      "##तीश": 3682,
      "##कारा": 3683,
      "विरा": 3684,
      "##ंडल": 3685,
      "मुकाबले": 3686,
      "भुगतान": 3687,
      "हादसे": 3688,
      "सुरक्षित": 3689,
      "दम": 3690,
      "उपाय": 3691,
      "आरोपित": 3692,
      "नो": 3693,
      "##वाना": 3694,
      "मकान": 3695,
      "##कुर": 3696,
      "##ोप": 3697,
      "पटना": 3698,
      "आता": 3699,
      "सहायता": 3700,
      "नीति": 3701,
      "शानदार": 3702,
      "Re": 3703,
      "मगर": 3704,
      "कार्": 3705,
      "##ारंभ": 3706,
      "परिसर": 3707,
      "##डर": 3708,
      "##्‍य": 3709,
      "विषय": 3710,
      "##कम": 3711,
      "##सीसी": 3712,
      "तीनों": 3713,
      "रिकॉर्ड": 3714,
      "रहेगी": 3715,
      "दृ": 3716,
      "##सेना": 3717,
      "खुल": 3718,
      "तभी": 3719,
      "घरों": 3720,
      "डॉलर": 3721,
      "चालक": 3722,
      "##्रीन": 3723,
      "बुला": 3724,
      "‘‘": 3725,
      "45": 3726,
      "##िद": 3727,
      "प्रबंधन": 3728,
      "वाहनों": 3729,
      "नही": 3730,
      "लेख": 3731,
      "रोकने": 3732,
      "संपर्क": 3733,
      "अखिल": 3734,
      "##क़": 3735,
      "किश": 3736,
      "संर": 3737,
      "##मीटर": 3738,
      "सलमान": 3739,
      "उसमें": 3740,
      "मिलकर": 3741,
      "फा": 3742,
      "##पुरा": 3743,
      "स्पष्ट": 3744,
      "##माश": 3745,
      "आपका": 3746,
      "देखकर": 3747,
      "फैसले": 3748,
      "स्वयं": 3749,
      "गाड़ी": 3750,
      "आवास": 3751,
      "प्री": 3752,
      "##िब": 3753,
      "हड़": 3754,
      "कैम": 3755,
      "##वां": 3756,
      "जिसकी": 3757,
      "किन": 3758,
      "##धिकार": 3759,
      "शौ": 3760,
      "ठाकुर": 3761,
      "खाने": 3762,
      "पैदा": 3763,
      "ऑस्ट्रेलिया": 3764,
      "स्थापित": 3765,
      "##ेंज": 3766,
      "चुना": 3767,
      "इनके": 3768,
      "199": 3769,
      "लड़की": 3770,
      "गरीब": 3771,
      "मू": 3772,
      "कारोबार": 3773,
      "विमान": 3774,
      "##न्होंने": 3775,
      "वही": 3776,
      "मल": 3777,
      "प्रत्या": 3778,
      "जमकर": 3779,
      "परेशानी": 3780,
      "शब्": 3781,
      "पहल": 3782,
      "कड़ी": 3783,
      "कमे": 3784,
      "सब्": 3785,
      "मिलेगी": 3786,
      "हथ": 3787,
      "जानते": 3788,
      "देंगे": 3789,
      "धम": 3790,
      "जैन": 3791,
      "खेत": 3792,
      "अग्रवाल": 3793,
      "मुकद": 3794,
      "क्षमता": 3795,
      "नागरिक": 3796,
      "अंतर्गत": 3797,
      "##हरे": 3798,
      "रिलीज": 3799,
      "##दारों": 3800,
      "##रान": 3801,
      "##सगढ़": 3802,
      "कमेटी": 3803,
      "##वधान": 3804,
      "स्थल": 3805,
      "शक्ति": 3806,
      "##र्जा": 3807,
      "##स्टम": 3808,
      "हिमा": 3809,
      "अफसर": 3810,
      "हल्": 3811,
      "##वर्": 3812,
      "पांडे": 3813,
      "छि": 3814,
      "##ॉन": 3815,
      "##ेश्वर": 3816,
      "प्रत्येक": 3817,
      "झारखंड": 3818,
      "बू": 3819,
      "सार्": 3820,
      "##त्त": 3821,
      "मिश्रा": 3822,
      "छत्ती": 3823,
      "जू": 3824,
      "##ायी": 3825,
      "सत्ता": 3826,
      "##ाब": 3827,
      "अपराध": 3828,
      "बिक्री": 3829,
      "कक्षा": 3830,
      "अजय": 3831,
      "पड़ता": 3832,
      "इंग्लैंड": 3833,
      "##प्प": 3834,
      "चिंता": 3835,
      "वीर": 3836,
      "कोच": 3837,
      "प्रथम": 3838,
      "##बार": 3839,
      "##ठा": 3840,
      "ट्रक": 3841,
      "मुस्ल": 3842,
      "##्मी": 3843,
      "सप": 3844,
      "##ायण": 3845,
      "जाम": 3846,
      "##le": 3847,
      "##ाले": 3848,
      "##म्मद": 3849,
      "निर": 3850,
      "500": 3851,
      "खड़े": 3852,
      "फसल": 3853,
      "##ुल्क": 3854,
      "##सब": 3855,
      "##वेद": 3856,
      "पारी": 3857,
      "दोष": 3858,
      "उपचार": 3859,
      "निर्धारित": 3860,
      "मुस्लिम": 3861,
      "##क्सर": 3862,
      "##ूरत": 3863,
      "लु": 3864,
      "सख": 3865,
      "कोत": 3866,
      "##ैंस": 3867,
      "आनंद": 3868,
      "गुर": 3869,
      "##थी": 3870,
      "सिटी": 3871,
      "मास्क": 3872,
      "छत्तीसगढ़": 3873,
      "##di": 3874,
      "मेरा": 3875,
      "मुद्दे": 3876,
      "लंबे": 3877,
      "##्यता": 3878,
      "##ित्व": 3879,
      "लौट": 3880,
      "चिकित्": 3881,
      "अका": 3882,
      "##रावट": 3883,
      "प्लान": 3884,
      "##ध्या": 3885,
      "री": 3886,
      "लं": 3887,
      "##ेंडर": 3888,
      "एजेंसी": 3889,
      "चंद": 3890,
      "करनी": 3891,
      "रखते": 3892,
      "पुन": 3893,
      "विस्तार": 3894,
      "केन्द्र": 3895,
      "##्रह": 3896,
      "##तौर": 3897,
      "होम": 3898,
      "गिरावट": 3899,
      "ताप": 3900,
      "हरा": 3901,
      "##उस": 3902,
      "हालात": 3903,
      "डीएम": 3904,
      "इलाकों": 3905,
      "मशीन": 3906,
      "मिलता": 3907,
      "तमाम": 3908,
      "आखिर": 3909,
      "जिनमें": 3910,
      "रोजगार": 3911,
      "अशोक": 3912,
      "डिग्री": 3913,
      "समाप्त": 3914,
      "अंतररा": 3915,
      "दश": 3916,
      "##20": 3917,
      "बाकी": 3918,
      "वर्मा": 3919,
      "तीसरे": 3920,
      "##is": 3921,
      "कानू": 3922,
      "##िवार": 3923,
      "पहुंचने": 3924,
      "खुलासा": 3925,
      "कोहली": 3926,
      "##वित": 3927,
      "यात्रियों": 3928,
      "##गु": 3929,
      "प्रता": 3930,
      "कमल": 3931,
      "सीटों": 3932,
      "पकड़": 3933,
      "लाने": 3934,
      "##वेज": 3935,
      "##फल": 3936,
      "संभव": 3937,
      "कहानी": 3938,
      "बदमाश": 3939,
      "गंगा": 3940,
      "##कुल": 3941,
      "##्याण": 3942,
      "वैसे": 3943,
      "जागरूक": 3944,
      "सार्व": 3945,
      "खिलाड़ियों": 3946,
      "भ्र": 3947,
      "तिव": 3948,
      "##र्तन": 3949,
      "सहायक": 3950,
      "##वाने": 3951,
      "लगने": 3952,
      "##ार्म": 3953,
      "##रेट": 3954,
      "सोन": 3955,
      "युवाओं": 3956,
      "तिवारी": 3957,
      "नम": 3958,
      "##पद": 3959,
      "निप": 3960,
      "आवश्यकता": 3961,
      "अक्ष": 3962,
      "गतिवि": 3963,
      "हटा": 3964,
      "पैसा": 3965,
      "चौहान": 3966,
      "##रोज": 3967,
      "प्रचार": 3968,
      "##द्दी": 3969,
      "लगाकर": 3970,
      "लॉन्": 3971,
      "कमा": 3972,
      "गोल": 3973,
      "कलेक्टर": 3974,
      "70": 3975,
      "##दाबाद": 3976,
      "खाते": 3977,
      "विकल्प": 3978,
      "हिमाचल": 3979,
      "##फ्र": 3980,
      "##यात": 3981,
      "रहेंगे": 3982,
      "बैठे": 3983,
      "चिकित्सा": 3984,
      "##्रिय": 3985,
      "##सु": 3986,
      "प्यार": 3987,
      "अंतरराष्ट्रीय": 3988,
      "अनिल": 3989,
      "##चानक": 3990,
      "अचानक": 3991,
      "वर्षों": 3992,
      "बचाव": 3993,
      "मंजू": 3994,
      "दबाव": 3995,
      "##भाल": 3996,
      "आतंकी": 3997,
      "फायदा": 3998,
      "तुर": 3999,
      "##ह्": 4000,
      "उत्पादन": 4001,
      "धीरे": 4002,
      "वाय": 4003,
      "##ॉट": 4004,
      "##तलब": 4005,
      "शही": 4006,
      "शूट": 4007,
      "##as": 4008,
      "क्रम": 4009,
      "इंतजार": 4010,
      "सपा": 4011,
      "सुनि": 4012,
      "बीमारी": 4013,
      "##वाला": 4014,
      "निदेशक": 4015,
      "खाली": 4016,
      "चां": 4017,
      "##टेन": 4018,
      "##म्बर": 4019,
      "नेशनल": 4020,
      "आती": 4021,
      "##बाल": 4022,
      "##लेख": 4023,
      "जिम्मेदारी": 4024,
      "##जनिक": 4025,
      "##--": 4026,
      "छोटी": 4027,
      "##राम": 4028,
      "शीर्ष": 4029,
      "बल्लेबाज": 4030,
      "डर": 4031,
      "##am": 4032,
      "##वती": 4033,
      "विश्वास": 4034,
      "पृ": 4035,
      "##नेस": 4036,
      "नाराज": 4037,
      "सार्वजनिक": 4038,
      "फिल्मों": 4039,
      "2017": 4040,
      "पॉजिट": 4041,
      "पाई": 4042,
      "लूट": 4043,
      "शै": 4044,
      "मीटर": 4045,
      "दाख": 4046,
      "अय": 4047,
      "।\"": 4048,
      "स्थानों": 4049,
      "फरार": 4050,
      "32": 4051,
      "वेतन": 4052,
      "रखे": 4053,
      "अवधि": 4054,
      "##सूस": 4055,
      "##ीव": 4056,
      "##लैंड": 4057,
      "किर": 4058,
      "सुख": 4059,
      "##लाल": 4060,
      "लेना": 4061,
      "शिक्षकों": 4062,
      "बचाने": 4063,
      "उड़": 4064,
      "गुण": 4065,
      "पुरस्कार": 4066,
      "रैली": 4067,
      "सारे": 4068,
      "बीमार": 4069,
      "गौरतलब": 4070,
      "सक्रिय": 4071,
      "समान": 4072,
      "##श्न": 4073,
      "##ट्ट": 4074,
      "##सिंह": 4075,
      "संवाददाता": 4076,
      "##्टी": 4077,
      "##सित": 4078,
      "उनको": 4079,
      "##लोड": 4080,
      "मोहम्मद": 4081,
      "अधी": 4082,
      "विदेशी": 4083,
      "##शाला": 4084,
      "##बीर": 4085,
      "स्वागत": 4086,
      "##ंदाज": 4087,
      "ग्रह": 4088,
      "कल्याण": 4089,
      "सुनिश्चित": 4090,
      "डेट": 4091,
      "रखें": 4092,
      "प्रतियोगिता": 4093,
      "इन्हें": 4094,
      "चलने": 4095,
      "अरब": 4096,
      "मंच": 4097,
      "प्रियंका": 4098,
      "रहें": 4099,
      "##पीट": 4100,
      "गैर": 4101,
      "##श्वर": 4102,
      "पाने": 4103,
      "##नु": 4104,
      "मानव": 4105,
      "मंडी": 4106,
      "टीकाकरण": 4107,
      "आदमी": 4108,
      "पॉजिटिव": 4109,
      "हल": 4110,
      "सोने": 4111,
      "संघर्ष": 4112,
      "प्रतिबंध": 4113,
      "अमर": 4114,
      "कार्यकर्ता": 4115,
      "सेक्टर": 4116,
      "##कोर्ट": 4117,
      "कॉल": 4118,
      "##स्कृत": 4119,
      "सां": 4120,
      "शिकार": 4121,
      "नोटिस": 4122,
      "##ion": 4123,
      "जैसा": 4124,
      "निरीक्षण": 4125,
      "संबोधित": 4126,
      "कब": 4127,
      "चली": 4128,
      "ट्वि": 4129,
      "आजा": 4130,
      "ग्रुप": 4131,
      "दूरी": 4132,
      "आउट": 4133,
      "छूट": 4134,
      "महसूस": 4135,
      "दर्द": 4136,
      "समीक्षा": 4137,
      "संसद": 4138,
      "##ूत": 4139,
      "पढ़ाई": 4140,
      "सर्वे": 4141,
      "कठ": 4142,
      "पदों": 4143,
      "प्रशिक्षण": 4144,
      "प्रस्त": 4145,
      "आपूर्ति": 4146,
      "##प्रदेश": 4147,
      "चीनी": 4148,
      "नियंत्रण": 4149,
      "शाय": 4150,
      "भीतर": 4151,
      "##ोधन": 4152,
      "छाप": 4153,
      "प्रमाण": 4154,
      "सालों": 4155,
      "युद्ध": 4156,
      "स्वतंत्र": 4157,
      "##िड": 4158,
      "प्रेर": 4159,
      "दर्शन": 4160,
      "राजा": 4161,
      "वितरण": 4162,
      "जिन्हें": 4163,
      "##खर": 4164,
      "##चक": 4165,
      "सीबीआई": 4166,
      "चैन": 4167,
      "जला": 4168,
      "##द्द": 4169,
      "##वासियों": 4170,
      "##ेद": 4171,
      "कार्यों": 4172,
      "आदित्य": 4173,
      "चोट": 4174,
      "ठे": 4175,
      "बाबा": 4176,
      "नियमों": 4177,
      "##ार्मिक": 4178,
      "तुरंत": 4179,
      "##िप": 4180,
      "##ेंशन": 4181,
      "नाग": 4182,
      "पूछा": 4183,
      "##िनी": 4184,
      "##्राम": 4185,
      "बहु": 4186,
      "##शिया": 4187,
      "हिंसा": 4188,
      "आल": 4189,
      "हवा": 4190,
      "##ार्थी": 4191,
      "टू": 4192,
      "किलोमीटर": 4193,
      "आंख": 4194,
      "वॉ": 4195,
      "##सेज": 4196,
      "राजेश": 4197,
      "मात्रा": 4198,
      "बहा": 4199,
      "##ंजन": 4200,
      "गांवों": 4201,
      "स्वच्छ": 4202,
      "तुलना": 4203,
      "धार्मिक": 4204,
      "मारपीट": 4205,
      "प्रतिनिधि": 4206,
      "विराट": 4207,
      "इले": 4208,
      "##ेड़": 4209,
      "बाग": 4210,
      "गैस": 4211,
      "स्वीकार": 4212,
      "चाहता": 4213,
      "इतनी": 4214,
      "योजनाओं": 4215,
      "व्": 4216,
      "##वानी": 4217,
      "##शिप": 4218,
      "पुराने": 4219,
      "पड़ी": 4220,
      "##ंची": 4221,
      "##यक": 4222,
      "रास्ते": 4223,
      "बहन": 4224,
      "दब": 4225,
      "देती": 4226,
      "##ट्टी": 4227,
      "भोजन": 4228,
      "रम": 4229,
      "हाउस": 4230,
      "घरे": 4231,
      "दूध": 4232,
      "तापमान": 4233,
      "घट": 4234,
      "आकर": 4235,
      "खाना": 4236,
      "भरो": 4237,
      "पंजी": 4238,
      "गोर": 4239,
      "##ारण": 4240,
      "सिस्टम": 4241,
      "उपभ": 4242,
      "पर्व": 4243,
      "मनी": 4244,
      "##कू": 4245,
      "राकेश": 4246,
      "मुख्यालय": 4247,
      "80": 4248,
      "##वै": 4249,
      "कोतवाली": 4250,
      "अधीक्षक": 4251,
      "Ne": 4252,
      "मैने": 4253,
      "सूर्य": 4254,
      "लॉन्च": 4255,
      "उधर": 4256,
      "##पण": 4257,
      "केजरी": 4258,
      "होटल": 4259,
      "विवाह": 4260,
      "उतर": 4261,
      "##र्डर": 4262,
      "काउ": 4263,
      "सकेंगे": 4264,
      "##ग्राम": 4265,
      "फाइनल": 4266,
      "वकी": 4267,
      "##ेड": 4268,
      "##बि": 4269,
      "जाति": 4270,
      "##रीन": 4271,
      "मौजू": 4272,
      "जुड़ी": 4273,
      "कृष्ण": 4274,
      "आसान": 4275,
      "##ur": 4276,
      "प्रण": 4277,
      "हिस्से": 4278,
      "केजरीवाल": 4279,
      "मौजूदा": 4280,
      "कू": 4281,
      "जिंदगी": 4282,
      "समुदाय": 4283,
      "##ियत": 4284,
      "आवाज": 4285,
      "एक्सप्रेस": 4286,
      "मंजूरी": 4287,
      "##ैर": 4288,
      "प्रखंड": 4289,
      "इंदौर": 4290,
      "##यम": 4291,
      "वैज्ञान": 4292,
      "उल्लेख": 4293,
      "घरेलू": 4294,
      "इन्": 4295,
      "चोर": 4296,
      "##जोर": 4297,
      "##्याज": 4298,
      "दर्श": 4299,
      "प्रवक्ता": 4300,
      "जिन्होंने": 4301,
      "बोले": 4302,
      "मूल्य": 4303,
      "फल": 4304,
      "समझौ": 4305,
      "मनाया": 4306,
      "37": 4307,
      "कैं": 4308,
      "##घटना": 4309,
      "##वाले": 4310,
      "संचालन": 4311,
      "आधारित": 4312,
      "नक": 4313,
      "संश": 4314,
      "हाईकोर्ट": 4315,
      "खि": 4316,
      "बंध": 4317,
      "##यल": 4318,
      "चीज": 4319,
      "आखिरी": 4320,
      "##चु": 4321,
      "प्रबंध": 4322,
      "बांग": 4323,
      "गईं": 4324,
      "2014": 4325,
      "कर्मियों": 4326,
      "सड़कों": 4327,
      "चुनौती": 4328,
      "डो": 4329,
      "अभिय": 4330,
      "महास": 4331,
      "जागरण": 4332,
      "##िवर्स": 4333,
      "सीधे": 4334,
      "##ेक्ट": 4335,
      "डाउन": 4336,
      "सुनील": 4337,
      "हिस": 4338,
      "##ट्र": 4339,
      "घुस": 4340,
      "##न्‍ह": 4341,
      "खंड": 4342,
      "##मैन": 4343,
      "विज्ञान": 4344,
      "संबंधी": 4345,
      "मतलब": 4346,
      "दुर्घटना": 4347,
      "हित": 4348,
      "फूल": 4349,
      "मुकदमा": 4350,
      "इका": 4351,
      "##त्मा": 4352,
      "उत्पाद": 4353,
      "उद्देश": 4354,
      "##सबुक": 4355,
      "##िएशन": 4356,
      "मिलती": 4357,
      "सामग्री": 4358,
      "हाथों": 4359,
      "शायद": 4360,
      "होनी": 4361,
      "महिलाएं": 4362,
      "पुष्टि": 4363,
      "चेता": 4364,
      "असम": 4365,
      "प्लेट": 4366,
      "तनाव": 4367,
      "##ाइव": 4368,
      "##ग्ध": 4369,
      "अज": 4370,
      "कां": 4371,
      "संदेश": 4372,
      "##काता": 4373,
      "2016": 4374,
      "लड़क": 4375,
      "स्टार": 4376,
      "हमारा": 4377,
      "पैर": 4378,
      "आईपीएल": 4379,
      "हथियार": 4380,
      "##टका": 4381,
      "##वस्था": 4382,
      "मनोज": 4383,
      "शास": 4384,
      "##ुण": 4385,
      "चाहती": 4386,
      "उपभो": 4387,
      "75": 4388,
      "##ोद": 4389,
      "मेह": 4390,
      "वास्तव": 4391,
      "ज्ञान": 4392,
      "नग": 4393,
      "पढ़े": 4394,
      "##्रमण": 4395,
      "##us": 4396,
      "##्यास": 4397,
      "##ांसी": 4398,
      "##ौन": 4399,
      "पहन": 4400,
      "बढ़ने": 4401,
      "समाधान": 4402,
      "सम्मानित": 4403,
      "##काम": 4404,
      "दुष्": 4405,
      "रोहित": 4406,
      "ट्रांस": 4407,
      "रिट": 4408,
      "श्रद्धाल": 4409,
      "##पुरी": 4410,
      "##थे": 4411,
      "##स्ट्री": 4412,
      "मृतक": 4413,
      "भावना": 4414,
      "रिश्ते": 4415,
      "कोलकाता": 4416,
      "मास": 4417,
      "##अप": 4418,
      "समस्याओं": 4419,
      "दीपक": 4420,
      "किरा": 4421,
      "हिंदू": 4422,
      "..": 4423,
      "निशाना": 4424,
      "हफ्": 4425,
      "प्रभा": 4426,
      "कथ": 4427,
      "हेत": 4428,
      "ऑफिस": 4429,
      "खतरा": 4430,
      "##ाफ": 4431,
      "फेसबुक": 4432,
      "##ष्टा": 4433,
      "##पेट": 4434,
      "##विल": 4435,
      "##रासत": 4436,
      "##ेन्द्र": 4437,
      "##मार्ट": 4438,
      "##आइ": 4439,
      "संवि": 4440,
      "इंजी": 4441,
      "व्यवसाय": 4442,
      "लड़ाई": 4443,
      "काट": 4444,
      "##क्का": 4445,
      "मॉडल": 4446,
      "अंग्रे": 4447,
      "फायर": 4448,
      "हंग": 4449,
      "अध्य": 4450,
      "मैचों": 4451,
      "##टिंग": 4452,
      "प्रतिक": 4453,
      "विश": 4454,
      "##निट": 4455,
      "एसडीएम": 4456,
      "चै": 4457,
      "युवती": 4458,
      "ताज": 4459,
      "अनुभव": 4460,
      "गठबंधन": 4461,
      "अखिलेश": 4462,
      "सुल": 4463,
      "##डिंग": 4464,
      "##देन": 4465,
      "जताई": 4466,
      "##ेलन": 4467,
      "रखना": 4468,
      "सौं": 4469,
      "दस्ता": 4470,
      "##id": 4471,
      "नेट": 4472,
      "प्रस": 4473,
      "कंट": 4474,
      "ज्यो": 4475,
      "शुल्क": 4476,
      "##मि": 4477,
      "निर्वा": 4478,
      "जनपद": 4479,
      "आतंकवाद": 4480,
      "33": 4481,
      "अंदाज": 4482,
      "माइ": 4483,
      "हिरासत": 4484,
      "पार्क": 4485,
      "लाखों": 4486,
      "उपाध्यक्ष": 4487,
      "हेतु": 4488,
      "ब्रे": 4489,
      "##नाक": 4490,
      "कॉन्": 4491,
      "जयपुर": 4492,
      "दिक्": 4493,
      "इस्ल": 4494,
      "माहौल": 4495,
      "ट्विटर": 4496,
      "हफ्ते": 4497,
      "अक्सर": 4498,
      "टूट": 4499,
      "फो": 4500,
      "##बादी": 4501,
      "रेड": 4502,
      "अने": 4503,
      "खुशी": 4504,
      "एसोस": 4505,
      "छात्राओं": 4506,
      "##मित": 4507,
      "##द्रा": 4508,
      "गुजर": 4509,
      "विशेषज्ञ": 4510,
      "टैक्स": 4511,
      "गठन": 4512,
      "मिट": 4513,
      "##पित": 4514,
      "##न्या": 4515,
      "बीएस": 4516,
      "लिस्ट": 4517,
      "वापसी": 4518,
      "प्ले": 4519,
      "##भार": 4520,
      "धमकी": 4521,
      "उनमें": 4522,
      "दिग्": 4523,
      "##ंतु": 4524,
      "मिशन": 4525,
      "टक्कर": 4526,
      "##वीन": 4527,
      "##्यूटी": 4528,
      "##ज़र": 4529,
      "नीतीश": 4530,
      "एक्ट्रेस": 4531,
      "##बारा": 4532,
      "अनुर": 4533,
      "चौकी": 4534,
      "शिवि": 4535,
      "ताला": 4536,
      "बाढ़": 4537,
      "इंडियन": 4538,
      "अथ": 4539,
      "झा": 4540,
      "मस": 4541,
      "##गांव": 4542,
      "मिलते": 4543,
      "महान": 4544,
      "शुक्": 4545,
      "पत्रकार": 4546,
      "##कृ": 4547,
      "सीजन": 4548,
      "##ing": 4549,
      "चर": 4550,
      "नती": 4551,
      "भक्त": 4552,
      "##गो": 4553,
      "बातें": 4554,
      "खड़ा": 4555,
      "मिस": 4556,
      "##लपुर": 4557,
      "फैल": 4558,
      "संके": 4559,
      "36": 4560,
      "कवि": 4561,
      "फर्जी": 4562,
      "रहीं": 4563,
      "नेपाल": 4564,
      "अनुमान": 4565,
      "दलों": 4566,
      "मच": 4567,
      "##कुमार": 4568,
      "घाट": 4569,
      "जंग": 4570,
      "अफग": 4571,
      "कैंप": 4572,
      "##एंगे": 4573,
      "दौरे": 4574,
      "प्रत्याशी": 4575,
      "##िलास": 4576,
      "##म्ब": 4577,
      "ब्रि": 4578,
      "रायपुर": 4579,
      "आशंका": 4580,
      "प्रताप": 4581,
      "##पथ": 4582,
      "##फॉ": 4583,
      "##र्ण": 4584,
      "निधन": 4585,
      "निर्मा": 4586,
      "पर्यावरण": 4587,
      "ग्रे": 4588,
      "सारी": 4589,
      "##ौली": 4590,
      "##ंतर": 4591,
      "कानपुर": 4592,
      "इनकी": 4593,
      "जाएं": 4594,
      "आगामी": 4595,
      "परीक्षण": 4596,
      "गिरफ्तारी": 4597,
      "##क्सीजन": 4598,
      "गेंदबाज": 4599,
      "##बंदी": 4600,
      "मुक्त": 4601,
      "##लोनी": 4602,
      "Read": 4603,
      "चेतावनी": 4604,
      "इच्छ": 4605,
      "##राबाद": 4606,
      "घंट": 4607,
      "नक्स": 4608,
      "राजीव": 4609,
      "मार्केट": 4610,
      "डीजल": 4611,
      "आसानी": 4612,
      "मृत्यु": 4613,
      "पहा": 4614,
      "सदर": 4615,
      "शहीद": 4616,
      "खी": 4617,
      "##दुनिया": 4618,
      "नवा": 4619,
      "सेवन": 4620,
      "##िक्र": 4621,
      "प्रसार": 4622,
      "##ढ़ी": 4623,
      "बढ़कर": 4624,
      "डिजिट": 4625,
      "अध्यक्षता": 4626,
      "पंड": 4627,
      "##लान": 4628,
      "विकसित": 4629,
      "गेट": 4630,
      "जबर": 4631,
      "##गन": 4632,
      "स्वस्थ": 4633,
      "स्थापना": 4634,
      "क्ला": 4635,
      "##करा": 4636,
      "शहरों": 4637,
      "##कर्मियों": 4638,
      "अकाउंट": 4639,
      "यूनिवर्स": 4640,
      "यहाँ": 4641,
      "##ुक्ति": 4642,
      "##नन": 4643,
      "##ir": 4644,
      "निर्म": 4645,
      "##स्तानी": 4646,
      "उद्देश्य": 4647,
      "##ay": 4648,
      "ट्रंप": 4649,
      "बांग्ला": 4650,
      "महार": 4651,
      "विद्यार्थियों": 4652,
      "अभिनेता": 4653,
      "इंजीनियर": 4654,
      "मानना": 4655,
      "##कारात्मक": 4656,
      "विभा": 4657,
      "बैंकों": 4658,
      "शूटिंग": 4659,
      "##ांकन": 4660,
      "ऊर्जा": 4661,
      "##्तीय": 4662,
      "केरल": 4663,
      "प्रारंभ": 4664,
      "लापर": 4665,
      "संगठ": 4666,
      "ब्लॉक": 4667,
      "प्रोज": 4668,
      "विवे": 4669,
      "##सीय": 4670,
      "उठाया": 4671,
      "तिथि": 4672,
      "रजिस्ट": 4673,
      "एप": 4674,
      "अब्": 4675,
      "##पत": 4676,
      "##दियों": 4677,
      "मेर": 4678,
      "##कोर": 4679,
      "##ेंट्स": 4680,
      "उन्‍ह": 4681,
      "##िरा": 4682,
      "पोर्ट": 4683,
      "ज्योति": 4684,
      "फैंस": 4685,
      "अंजाम": 4686,
      "संपत्ति": 4687,
      "स्मार्टफोन": 4688,
      "किनारे": 4689,
      "रवाना": 4690,
      "##छा": 4691,
      "##नाम": 4692,
      "##ांश": 4693,
      "लागत": 4694,
      "34": 4695,
      "बांध": 4696,
      "स्टाफ": 4697,
      "यूरो": 4698,
      "राजस्व": 4699,
      "सका": 4700,
      "##डि": 4701,
      "##ढ़े": 4702,
      "198": 4703,
      "नियमित": 4704,
      "पदाधिकारी": 4705,
      "in": 4706,
      "##बत": 4707,
      "जोड़": 4708,
      "वित्तीय": 4709,
      "आशी": 4710,
      "हरि": 4711,
      "चेक": 4712,
      "सम्मेलन": 4713,
      "किशोर": 4714,
      "उक्त": 4715,
      "निरा": 4716,
      "स्टेट": 4717,
      "स्पेश": 4718,
      "मिश्र": 4719,
      "वार्ता": 4720,
      "इधर": 4721,
      "खोज": 4722,
      "घूम": 4723,
      "##डु": 4724,
      "बध": 4725,
      "##तल": 4726,
      "##श्विक": 4727,
      "उर्फ": 4728,
      "वारदा": 4729,
      "गोरख": 4730,
      "##जीव": 4731,
      "खुले": 4732,
      "तारीख": 4733,
      ".’": 4734,
      "90": 4735,
      "##थर": 4736,
      "##वाय": 4737,
      "##ज्ज": 4738,
      "मानसिक": 4739,
      "एटी": 4740,
      "क़": 4741,
      "मेट": 4742,
      "रेट": 4743,
      "सत्य": 4744,
      "##दाताओं": 4745,
      "योगदान": 4746,
      "##कर्मी": 4747,
      "ती": 4748,
      "##त्रि": 4749,
      "त्रि": 4750,
      "नै": 4751,
      "मारे": 4752,
      "सिविल": 4753,
      "##स्ट्र": 4754,
      "वैश्विक": 4755,
      "##ome": 4756,
      "जायेगा": 4757,
      "साध": 4758,
      "अध्या": 4759,
      "पुरानी": 4760,
      "छोड़कर": 4761,
      "लंबी": 4762,
      "55": 4763,
      "मालिक": 4764,
      "ग्राहकों": 4765,
      "अध्ययन": 4766,
      "##गरानी": 4767,
      "##्‍या": 4768,
      "उम्मीदवारों": 4769,
      "हटाने": 4770,
      "##सो": 4771,
      "##ंती": 4772,
      "निगरानी": 4773,
      "सुश": 4774,
      "##प्स": 4775,
      "रणनी": 4776,
      "##टरी": 4777,
      "##वरूप": 4778,
      "बच्ची": 4779,
      "##धिकारियों": 4780,
      "इंटरनेट": 4781,
      "कमरे": 4782,
      "विधाय": 4783,
      "उचित": 4784,
      "चित्र": 4785,
      "टॉ": 4786,
      "##रत": 4787,
      "सकें": 4788,
      "बेहत": 4789,
      "##गीय": 4790,
      "खेती": 4791,
      "चुनावी": 4792,
      "करियर": 4793,
      "कालेज": 4794,
      "चाहे": 4795,
      "राज्यपाल": 4796,
      "अयोध": 4797,
      "टाइम": 4798,
      "##ँच": 4799,
      "एसोसिएशन": 4800,
      "चक्र": 4801,
      "##र्द": 4802,
      "आयुक्त": 4803,
      "डायरे": 4804,
      "बांग्लादेश": 4805,
      "Al": 4806,
      "ऑटो": 4807,
      "सुंदर": 4808,
      "##डीए": 4809,
      "स्टूड": 4810,
      "फें": 4811,
      "##धीश": 4812,
      "तमिल": 4813,
      "जोन": 4814,
      "इस्ती": 4815,
      "डिजिटल": 4816,
      "##षित": 4817,
      "सेल": 4818,
      "आपने": 4819,
      "##ोटा": 4820,
      "##ाये": 4821,
      "##पान": 4822,
      "चलाने": 4823,
      "सौंप": 4824,
      "अनेक": 4825,
      "कने": 4826,
      "जीएस": 4827,
      "जवानों": 4828,
      "##तालों": 4829,
      "कहां": 4830,
      "पड़ेगा": 4831,
      "##ws": 4832,
      "आकर्": 4833,
      "सन": 4834,
      "संदि": 4835,
      "अनिवार": 4836,
      "न्यूज": 4837,
      "अयोध्या": 4838,
      "##ोश": 4839,
      "##षेक": 4840,
      "हजारों": 4841,
      "क्वार": 4842,
      "भरा": 4843,
      "बढ़ो": 4844,
      "देखें": 4845,
      "जुट": 4846,
      "केंद्रों": 4847,
      "##ष्टाचार": 4848,
      "इमर": 4849,
      "वर्ल्ड": 4850,
      "स्वामी": 4851,
      "श्रेणी": 4852,
      "##मार्टम": 4853,
      "शिविर": 4854,
      "फैला": 4855,
      "कर्ज": 4856,
      "उत्साह": 4857,
      "दोबारा": 4858,
      "यात्री": 4859,
      "अहमद": 4860,
      "उतार": 4861,
      "प्रदू": 4862,
      "In": 4863,
      "ममता": 4864,
      "लहर": 4865,
      "##ूँ": 4866,
      "##ol": 4867,
      "विद": 4868,
      "अभिनेत्री": 4869,
      "सॉ": 4870,
      "##दुल": 4871,
      "##ण्": 4872,
      "##नेश": 4873,
      "निकले": 4874,
      "प्रोजेक्ट": 4875,
      "विरोधी": 4876,
      "##टेडियम": 4877,
      "परिवहन": 4878,
      "परिवर्तन": 4879,
      "गुल": 4880,
      "नियुक्ति": 4881,
      "अस्पतालों": 4882,
      "खाद्य": 4883,
      "यूनिवर्सिटी": 4884,
      "##क्ट्र": 4885,
      "2015": 4886,
      "##चिव": 4887,
      "जनरल": 4888,
      "##प्रिय": 4889,
      "गर्मी": 4890,
      "भि": 4891,
      "शोध": 4892,
      "##कृति": 4893,
      "पोस्टमार्टम": 4894,
      "हरी": 4895,
      "##साइ": 4896,
      "धान": 4897,
      "सीसी": 4898,
      "दह": 4899,
      "प्रि": 4900,
      "##्याम": 4901,
      "हिन्द": 4902,
      "##मानत": 4903,
      "वकील": 4904,
      "##गज": 4905,
      "रावत": 4906,
      "बढ़े": 4907,
      "##धिकारिक": 4908,
      "लापरवाही": 4909,
      "इज": 4910,
      "##फिया": 4911,
      "##ांच": 4912,
      "संचालित": 4913,
      "फुट": 4914,
      "मोहन": 4915,
      "ब्ला": 4916,
      "सेंट": 4917,
      "##र्श": 4918,
      "ज्ञापन": 4919,
      "कथित": 4920,
      "विधायकों": 4921,
      "संदिग्ध": 4922,
      "ऐलान": 4923,
      "जल्दी": 4924,
      "हिसाब": 4925,
      "आधिकारिक": 4926,
      "डिज": 4927,
      "स्टेडियम": 4928,
      "प्रस्तुत": 4929,
      "##रेज": 4930,
      "##स्थिति": 4931,
      "##्यूटर": 4932,
      "तस्वीरें": 4933,
      "गाने": 4934,
      "##्वी": 4935,
      "कमजोर": 4936,
      "चारों": 4937,
      "संतोष": 4938,
      "जिम्मेदार": 4939,
      "वस्त": 4940,
      "##ंदन": 4941,
      "इंस्ट": 4942,
      "आगरा": 4943,
      "अरविंद": 4944,
      "दुकानों": 4945,
      "आबादी": 4946,
      "साथी": 4947,
      "दौड़": 4948,
      "बेहतरीन": 4949,
      "लाया": 4950,
      "अभ्य": 4951,
      "फॉर्म": 4952,
      "##गण": 4953,
      "##जर्स": 4954,
      "##िनियम": 4955,
      "##माने": 4956,
      "नामांकन": 4957,
      "मध्यप्रदेश": 4958,
      "वायु": 4959,
      "##वाड़ा": 4960,
      "दान": 4961,
      "##इट": 4962,
      "##्रिया": 4963,
      "बढ़ते": 4964,
      "48": 4965,
      "रद्द": 4966,
      "उपकरण": 4967,
      "##कर्ता": 4968,
      "पेड़": 4969,
      "झू": 4970,
      "##et": 4971,
      "##el": 4972,
      "थोड़ा": 4973,
      "भ्रष्टाचार": 4974,
      "दाखिल": 4975,
      "बें": 4976,
      "##डेट": 4977,
      "सुझा": 4978,
      "मल्": 4979,
      "हवाई": 4980,
      "##ंडर": 4981,
      "मेहन": 4982,
      "इम": 4983,
      "शख": 4984,
      "##ंचाई": 4985,
      "दास": 4986,
      "मित्र": 4987,
      "##ch": 4988,
      "राशन": 4989,
      "पीड़िता": 4990,
      "आये": 4991,
      "भले": 4992,
      "संगीत": 4993,
      "व्यवहार": 4994,
      "##व्यवस्था": 4995,
      "डॉक्टरों": 4996,
      "Home": 4997,
      "धार": 4998,
      "शंकर": 4999,
      "##हारी": 5000,
      "##दल": 5001,
      "##णे": 5002,
      "धोनी": 5003,
      "छापे": 5004,
      "उन्": 5005,
      "तृ": 5006,
      "स्पी": 5007,
      "##रीय": 5008,
      "साझा": 5009,
      "ज्यादातर": 5010,
      "##ैनिक": 5011,
      "जिनके": 5012,
      "जगहों": 5013,
      "संविधान": 5014,
      "ऑक्सीजन": 5015,
      "रहना": 5016,
      "प्रावधान": 5017,
      "चेहरे": 5018,
      "एयरपोर्ट": 5019,
      "शब्द": 5020,
      "##वारी": 5021,
      "ग्ल": 5022,
      "पोल": 5023,
      "लिहा": 5024,
      "##फ्तार": 5025,
      "##जुन": 5026,
      "पांडेय": 5027,
      "वारदात": 5028,
      "65": 5029,
      "एशिया": 5030,
      "ग्": 5031,
      "फंड": 5032,
      "##अल": 5033,
      "बढ़ती": 5034,
      "##त्सव": 5035,
      "भरोसा": 5036,
      "साज": 5037,
      "मोटर": 5038,
      "##्यूट": 5039,
      "##स्कृति": 5040,
      "सख्त": 5041,
      "##द्दीन": 5042,
      "आना": 5043,
      "##ैट": 5044,
      "अधिनियम": 5045,
      "वारा": 5046,
      "सेट": 5047,
      "##न्व": 5048,
      "##स्तक": 5049,
      "कपड़े": 5050,
      "लोकप्रिय": 5051,
      "स्पेशल": 5052,
      "सेक": 5053,
      "प्रती": 5054,
      "रास्ता": 5055,
      "ड्राइ": 5056,
      "##ानिस्तान": 5057,
      "गतिविधियों": 5058,
      "नारे": 5059,
      "अफ्री": 5060,
      "कर्ना": 5061,
      "दोस्तों": 5062,
      "मस्": 5063,
      "पार्ट": 5064,
      "किरदार": 5065,
      "प्रतिक्रिया": 5066,
      "तार": 5067,
      "रिस": 5068,
      "##णसी": 5069,
      "बीमा": 5070,
      "श्रील": 5071,
      "करवाया": 5072,
      "##ंडे": 5073,
      "##दर्श": 5074,
      "नागरिकों": 5075,
      "जाह": 5076,
      "संस्कृति": 5077,
      "##ाहरण": 5078,
      "माने": 5079,
      "पावर": 5080,
      "शाखा": 5081,
      "खेलने": 5082,
      "गाँ": 5083,
      "अर्थव्यवस्था": 5084,
      "##ानु": 5085,
      "पीने": 5086,
      "चलता": 5087,
      "चुनावों": 5088,
      "स्कू": 5089,
      "सचिन": 5090,
      "व्यापारी": 5091,
      "शौच": 5092,
      "##पत्र": 5093,
      "##त्कार": 5094,
      "वाराणसी": 5095,
      "##पक्ष": 5096,
      "हिम": 5097,
      "मांगी": 5098,
      "नियुक्त": 5099,
      "कराए": 5100,
      "एंटी": 5101,
      "##र्या": 5102,
      "महज": 5103,
      "वेस्ट": 5104,
      "कर्नाटक": 5105,
      "चंडी": 5106,
      "ड्यूटी": 5107,
      "पेंशन": 5108,
      "##बूर": 5109,
      "##मार्": 5110,
      "##ग्रह": 5111,
      "गेम": 5112,
      "अक्षय": 5113,
      "रमेश": 5114,
      "अके": 5115,
      "शारी": 5116,
      "प्रश्न": 5117,
      "साढ़े": 5118,
      "पर्यटन": 5119,
      "हंगामा": 5120,
      "संकेत": 5121,
      "फि": 5122,
      "##ंटर": 5123,
      "##ूस": 5124,
      "##ेंगी": 5125,
      "डेढ़": 5126,
      "38": 5127,
      "।”": 5128,
      "बधाई": 5129,
      "तहरी": 5130,
      "सिया": 5131,
      "अंब": 5132,
      "चेयर": 5133,
      "इतने": 5134,
      "खेले": 5135,
      "हड़ताल": 5136,
      "दुष्कर्म": 5137,
      "अनिवार्य": 5138,
      "##राय": 5139,
      "सफर": 5140,
      "शारीरिक": 5141,
      "रॉय": 5142,
      "संसा": 5143,
      "मनु": 5144,
      "श्रीलंका": 5145,
      "रक्त": 5146,
      "किताब": 5147,
      "बाय": 5148,
      "कितना": 5149,
      "42": 5150,
      "जंगल": 5151,
      "तीसरी": 5152,
      "खूबस": 5153,
      "चैंप": 5154,
      "बरा": 5155,
      "##लंघ": 5156,
      "##ot": 5157,
      "##वली": 5158,
      "##क्ताओं": 5159,
      "जोशी": 5160,
      "मैन": 5161,
      "##ोषण": 5162,
      "हेल्": 5163,
      "सहयोगी": 5164,
      "खरीदने": 5165,
      "मजदूरों": 5166,
      "''": 5167,
      "गी": 5168,
      "सप्": 5169,
      "पृथ": 5170,
      "##पक": 5171,
      "##दास": 5172,
      "##गाह": 5173,
      "तुम": 5174,
      "##बद्ध": 5175,
      "##कंप": 5176,
      "हैद": 5177,
      "##िलंब": 5178,
      "डिस्": 5179,
      "स्क्रीन": 5180,
      "सीटें": 5181,
      "मुकाबला": 5182,
      "संगठनों": 5183,
      "मधु": 5184,
      "##फान": 5185,
      "##il": 5186,
      "##राइ": 5187,
      "अधिकांश": 5188,
      "महासचिव": 5189,
      "मेहनत": 5190,
      "300": 5191,
      "दिये": 5192,
      "पशु": 5193,
      "##चि": 5194,
      "लीटर": 5195,
      "##ra": 5196,
      "रोम": 5197,
      "दौरा": 5198,
      "गणेश": 5199,
      "सिलस": 5200,
      "चम": 5201,
      "देगा": 5202,
      "##ैंक": 5203,
      "कार्यवाही": 5204,
      "नईदुनिया": 5205,
      "पर्याप्त": 5206,
      "##यां": 5207,
      "राव": 5208,
      "##ोग्राम": 5209,
      "जीतने": 5210,
      "प्रोड": 5211,
      "संरक्षण": 5212,
      "अज्ञ": 5213,
      "##मती": 5214,
      "##नेशन": 5215,
      "पीठ": 5216,
      "सब्जी": 5217,
      "शख्स": 5218,
      "जमानत": 5219,
      "दाय": 5220,
      "शिम": 5221,
      "हां": 5222,
      "##सीबी": 5223,
      "निष्": 5224,
      "वनडे": 5225,
      "।’’": 5226,
      "टिप्प": 5227,
      "आक्र": 5228,
      "खार": 5229,
      "तू": 5230,
      "रफ्तार": 5231,
      "##नान": 5232,
      "##तः": 5233,
      "##र्ज": 5234,
      "##जात": 5235,
      "श्रमिक": 5236,
      "##लंघन": 5237,
      "कामया": 5238,
      "न्यायाधीश": 5239,
      "दिक्कत": 5240,
      "टूर्": 5241,
      "##प्ति": 5242,
      "व्यापारियों": 5243,
      "नारायण": 5244,
      "कब्जे": 5245,
      "गोरखपुर": 5246,
      "सुझाव": 5247,
      "##कॉ": 5248,
      "जिसने": 5249,
      "ज़र": 5250,
      "अभ्यर्थ": 5251,
      "ओल": 5252,
      "लुक": 5253,
      "सिक": 5254,
      "##ोड": 5255,
      "##re": 5256,
      "##श्त": 5257,
      "जब्त": 5258,
      "पाकिस्तानी": 5259,
      "सैक": 5260,
      "स्टी": 5261,
      "पात्र": 5262,
      "निकाला": 5263,
      "##आरपी": 5264,
      "होंगी": 5265,
      "अफसरों": 5266,
      "प्रदूषण": 5267,
      "हैदराबाद": 5268,
      "##ोने": 5269,
      "दिखाया": 5270,
      "उदाहरण": 5271,
      "जीएसटी": 5272,
      "टूर्ना": 5273,
      "गह": 5274,
      "हनु": 5275,
      "महाराज": 5276,
      "चपेट": 5277,
      "##शाली": 5278,
      "टूर्नामेंट": 5279,
      "##ंजी": 5280,
      "बताई": 5281,
      "समाचार": 5282,
      "इलेक्ट्र": 5283,
      "##्रत": 5284,
      "स्कोर": 5285,
      "##निर्": 5286,
      "पदार्थ": 5287,
      "##बिनेट": 5288,
      "फ्री": 5289,
      "लिम": 5290,
      "सकी": 5291,
      "##दीय": 5292,
      "##टेज": 5293,
      "मनो": 5294,
      "अज्ञात": 5295,
      "टाइ": 5296,
      "##ंगन": 5297,
      "##न्नई": 5298,
      "पकड़ा": 5299,
      "क्लब": 5300,
      "विद्युत": 5301,
      "बल्लेबाजी": 5302,
      "कंट्रोल": 5303,
      "44": 5304,
      "##ईओ": 5305,
      "किमी": 5306,
      "विज्ञ": 5307,
      "##ल्ला": 5308,
      "मजबूर": 5309,
      "टो": 5310,
      "टॉप": 5311,
      "परंप": 5312,
      "प्राइव": 5313,
      "मुंह": 5314,
      "लगाते": 5315,
      "दरवा": 5316,
      "दावे": 5317,
      "चलाया": 5318,
      "तहरीर": 5319,
      "फिट": 5320,
      "##मस": 5321,
      "सैंप": 5322,
      "##मेल": 5323,
      "प्रेस": 5324,
      "ओपन": 5325,
      "##बारी": 5326,
      "गौतम": 5327,
      "प्राइवेट": 5328,
      "##मेट": 5329,
      "प्रकरण": 5330,
      "पहुंचकर": 5331,
      "देखना": 5332,
      "दलित": 5333,
      "पूर्वी": 5334,
      "ट्रैक्टर": 5335,
      "आदित्यनाथ": 5336,
      "आलो": 5337,
      "खड़ी": 5338,
      "बग": 5339,
      "मुद्रा": 5340,
      "प्रतिमा": 5341,
      "##ब्ल्यू": 5342,
      "बदमाशों": 5343,
      "चैनल": 5344,
      "अस्थ": 5345,
      "शपथ": 5346,
      "सोना": 5347,
      "जनस": 5348,
      "बनाना": 5349,
      "बेटा": 5350,
      "कौशल": 5351,
      "दर्शकों": 5352,
      "घोट": 5353,
      "भूल": 5354,
      "##त्‍": 5355,
      "##स्थाप": 5356,
      "कैबिनेट": 5357,
      "गोपाल": 5358,
      "तकनीकी": 5359,
      "करार": 5360,
      "क्षेत्रीय": 5361,
      "बुजु": 5362,
      "नील": 5363,
      "परिवारों": 5364,
      "इकाई": 5365,
      "##कट": 5366,
      "##वाया": 5367,
      "गुस्": 5368,
      "सहमति": 5369,
      "चेन्नई": 5370,
      "##घाटन": 5371,
      "जाहिर": 5372,
      "अट": 5373,
      "##un": 5374,
      "विजे": 5375,
      "मुद्दों": 5376,
      "कब्जा": 5377,
      "मनीष": 5378,
      "बुजुर्ग": 5379,
      "लोन": 5380,
      "निश्चित": 5381,
      "##एमसी": 5382,
      "##हत्या": 5383,
      "निर्वाचन": 5384,
      "##फॉर्म": 5385,
      "सुशांत": 5386,
      "##प्शन": 5387,
      "रोल": 5388,
      "बुरी": 5389,
      "##िटल": 5390,
      "अर्जुन": 5391,
      "##ब्लिक": 5392,
      "##घु": 5393,
      "जिलाधिकारी": 5394,
      "गोद": 5395,
      "परंपरा": 5396,
      "क्रे": 5397,
      "दर्जन": 5398,
      "इंडस्ट्री": 5399,
      "##पूत": 5400,
      "डाला": 5401,
      "##हल": 5402,
      "##िटेड": 5403,
      "कम्": 5404,
      "जानिए": 5405,
      "परिजन": 5406,
      "खेला": 5407,
      "प्रणाली": 5408,
      "##भू": 5409,
      "अधिव": 5410,
      "##गेट": 5411,
      "विशाल": 5412,
      "उल्लंघन": 5413,
      "शिमला": 5414,
      "##पट": 5415,
      "कोर": 5416,
      "विवि": 5417,
      "संस्कार": 5418,
      "लड़कियों": 5419,
      "अफगानिस्तान": 5420,
      "बढ़ोतरी": 5421,
      "##लन": 5422,
      "जुर्म": 5423,
      "##दायिक": 5424,
      "आंकड़ों": 5425,
      "निपटने": 5426,
      "नज": 5427,
      "शर": 5428,
      "सेक्सी": 5429,
      "##परेशन": 5430,
      "समाजवादी": 5431,
      "जयंती": 5432,
      "चंडीगढ़": 5433,
      ".\"": 5434,
      "ऐप": 5435,
      "##इन": 5436,
      "पूजन": 5437,
      "रुक": 5438,
      "उठाने": 5439,
      "अरुण": 5440,
      "##ent": 5441,
      "##स्पे": 5442,
      "अभिषेक": 5443,
      "संशोधन": 5444,
      "मेरठ": 5445,
      "सारा": 5446,
      "##so": 5447,
      "##ct": 5448,
      "सुरेश": 5449,
      "श्रृ": 5450,
      "मारने": 5451,
      "बढ़ावा": 5452,
      "गेह": 5453,
      "49": 5454,
      "रूस": 5455,
      "प्रतिदिन": 5456,
      "##जनक": 5457,
      "अभिन": 5458,
      "धरना": 5459,
      "रनों": 5460,
      "##टीवी": 5461,
      "बसपा": 5462,
      "डाउनलोड": 5463,
      "लक्षण": 5464,
      "मोर्चा": 5465,
      "फीसद": 5466,
      "पथ": 5467,
      "##भाष": 5468,
      "समझा": 5469,
      "अना": 5470,
      "ईरान": 5471,
      "नवीन": 5472,
      "##हाबाद": 5473,
      "इंसान": 5474,
      "पदक": 5475,
      "बजाय": 5476,
      "कैंसर": 5477,
      "डांस": 5478,
      "फार्म": 5479,
      "मद्": 5480,
      "##लिंग": 5481,
      "रांची": 5482,
      "बेस": 5483,
      "जस्ट": 5484,
      "दिवसीय": 5485,
      "साहित्य": 5486,
      "काउंस": 5487,
      "खत": 5488,
      "रिल": 5489,
      "##सुर": 5490,
      "होली": 5491,
      "सिने": 5492,
      "न्यून": 5493,
      "कपिल": 5494,
      "करवाने": 5495,
      "लाइफ": 5496,
      "##ब्र": 5497,
      "##ंपिक": 5498,
      "##म्मत": 5499,
      "बिल्कुल": 5500,
      "दोषी": 5501,
      "डिजाइन": 5502,
      "खारिज": 5503,
      "जॉ": 5504,
      "दैनिक": 5505,
      "इसको": 5506,
      "##ांज": 5507,
      "युवकों": 5508,
      "सैन्य": 5509,
      "सैनिकों": 5510,
      "##कोट": 5511,
      "आएंगे": 5512,
      "फायदे": 5513,
      "रणनीति": 5514,
      "जानी": 5515,
      "##हूर": 5516,
      "##स्टी": 5517,
      "##केशन": 5518,
      "##न्हा": 5519,
      "##जीलैंड": 5520,
      "सदन": 5521,
      "अतिथि": 5522,
      "लेंगे": 5523,
      "##गति": 5524,
      "##ed": 5525,
      "##वत्ता": 5526,
      "मुकेश": 5527,
      "गोल्ड": 5528,
      "डिप्": 5529,
      "बदलने": 5530,
      ".'": 5531,
      "चार्ज": 5532,
      "लाइट": 5533,
      "##क्षर": 5534,
      "टेली": 5535,
      "आत्महत्या": 5536,
      "कानूनी": 5537,
      "ब्रिटेन": 5538,
      "भंड": 5539,
      "##स्म": 5540,
      "मुज": 5541,
      "##रेन्द्र": 5542,
      "##ंधे": 5543,
      "पेय": 5544,
      "##रुद्ध": 5545,
      "कितने": 5546,
      "स्वतंत्रता": 5547,
      "आशा": 5548,
      "इरा": 5549,
      "##स्तर": 5550,
      "रुख": 5551,
      "मद्देन": 5552,
      "आंध": 5553,
      "आपदा": 5554,
      "सीख": 5555,
      "पहुंचाने": 5556,
      "गैंग": 5557,
      "##पूर्व": 5558,
      "आर्ट": 5559,
      "राजपूत": 5560,
      "2013": 5561,
      "गिरा": 5562,
      "लक्ष्मी": 5563,
      "थोड़ी": 5564,
      "दशक": 5565,
      "डेटा": 5566,
      "मिट्टी": 5567,
      "अथवा": 5568,
      "मेल": 5569,
      "वजन": 5570,
      "##िश्": 5571,
      "##घर": 5572,
      "अपडेट": 5573,
      "याता": 5574,
      "चैंपियन": 5575,
      "ध्व": 5576,
      "शोर": 5577,
      "सागर": 5578,
      "##्मण": 5579,
      "ठेके": 5580,
      "श्रद्धालुओं": 5581,
      "बुल": 5582,
      "मचा": 5583,
      "##पंच": 5584,
      "संभाल": 5585,
      "लीग": 5586,
      "लालू": 5587,
      "निकलने": 5588,
      "लाइस": 5589,
      "इक": 5590,
      "घटनाओं": 5591,
      "रानी": 5592,
      "##स्कर": 5593,
      "शिवराज": 5594,
      "बेचने": 5595,
      "इंच": 5596,
      "फं": 5597,
      "बम": 5598,
      "वसू": 5599,
      "विन": 5600,
      "राइ": 5601,
      "बीज": 5602,
      "197": 5603,
      "शेष": 5604,
      "उठाए": 5605,
      "न्यूनतम": 5606,
      "यातायात": 5607,
      "41": 5608,
      "मंज": 5609,
      "##पन्न": 5610,
      "जेएन": 5611,
      "##श्वासन": 5612,
      "रिजर्व": 5613,
      "##वर्क": 5614,
      "##ठे": 5615,
      "दुख": 5616,
      "अमरी": 5617,
      "महीनों": 5618,
      "कं": 5619,
      "##युक्त": 5620,
      "##har": 5621,
      "भेजे": 5622,
      "मशहूर": 5623,
      "तमिलना": 5624,
      "हनुमान": 5625,
      "कंग": 5626,
      "रिया": 5627,
      "##ांतर": 5628,
      "इनकार": 5629,
      "ब्लैक": 5630,
      "##तिहासिक": 5631,
      "##वितीय": 5632,
      "गुणवत्ता": 5633,
      "शुक्ला": 5634,
      "प्रमो": 5635,
      "रेखा": 5636,
      "लड़ने": 5637,
      "खोलने": 5638,
      "News": 5639,
      "उल्लेखनीय": 5640,
      "ऋण": 5641,
      "मछ": 5642,
      "##ोत्सव": 5643,
      "##षिक": 5644,
      "काला": 5645,
      "##सिद्ध": 5646,
      "कैमरा": 5647,
      "##फ्रेंस": 5648,
      "अब्दुल": 5649,
      "अफ्रीका": 5650,
      "अन्": 5651,
      "ऑपरेशन": 5652,
      "गेहूं": 5653,
      "अक": 5654,
      "सच्च": 5655,
      "##लीय": 5656,
      "बातों": 5657,
      "बढ़ी": 5658,
      "दिनेश": 5659,
      "पदाधिकारियों": 5660,
      "आश्वासन": 5661,
      "गाइड": 5662,
      "##क्षी": 5663,
      "भाषण": 5664,
      "##आईआर": 5665,
      "नक्सल": 5666,
      "47": 5667,
      "एक्टर": 5668,
      "कथा": 5669,
      "दायर": 5670,
      "नये": 5671,
      "ब्यू": 5672,
      "##क्षम": 5673,
      "##ज़ार": 5674,
      "आरक्षण": 5675,
      "कटौती": 5676,
      "क्लास": 5677,
      "धु": 5678,
      "##बीन": 5679,
      "##त्रा": 5680,
      "##ाइयों": 5681,
      "अमिता": 5682,
      "सर्विस": 5683,
      "ब्याज": 5684,
      "माय": 5685,
      "##दिक": 5686,
      "##एडा": 5687,
      "भारती": 5688,
      "##ंखला": 5689,
      "39": 5690,
      "उल": 5691,
      "टन": 5692,
      "मान्यता": 5693,
      "##स्‍ट": 5694,
      "तकनीक": 5695,
      "99": 5696,
      "नर्स": 5697,
      "सक्षम": 5698,
      "##ुति": 5699,
      "विश्": 5700,
      "जिलाध्यक्ष": 5701,
      "##त्साह": 5702,
      "अंग्रेजी": 5703,
      "घे": 5704,
      "##शनी": 5705,
      "संकल्प": 5706,
      "गार्ड": 5707,
      "पवन": 5708,
      "बिलास": 5709,
      "सौर": 5710,
      "हाइ": 5711,
      "अधिकतम": 5712,
      "राज्यसभा": 5713,
      "स्ट्र": 5714,
      "निकालने": 5715,
      "क्लिक": 5716,
      "##धुनिक": 5717,
      "घंटों": 5718,
      "##oo": 5719,
      "##han": 5720,
      "नेहर": 5721,
      "कमांड": 5722,
      "यूजर्स": 5723,
      "सपना": 5724,
      "छापेमारी": 5725,
      "पव": 5726,
      "रकम": 5727,
      "न्यूजीलैंड": 5728,
      "बिलासपुर": 5729,
      "400": 5730,
      "गीत": 5731,
      "##बो": 5732,
      "##ूंगा": 5733,
      "##दुर": 5734,
      "मुसल": 5735,
      "जानें": 5736,
      "गौरव": 5737,
      "उद्घाटन": 5738,
      "नोएडा": 5739,
      "वैज्ञानिक": 5740,
      "जाल": 5741,
      "##याग": 5742,
      "सोनी": 5743,
      "इंस्पे": 5744,
      "श्रीवा": 5745,
      "शिवसेना": 5746,
      "इस्तीफा": 5747,
      "मद्देनजर": 5748,
      "तमिलनाडु": 5749,
      "एंट": 5750,
      "गाज": 5751,
      "छोटा": 5752,
      "तत्व": 5753,
      "##मल": 5754,
      "काली": 5755,
      "विनो": 5756,
      "##सेस": 5757,
      "Also": 5758,
      "शह": 5759,
      "##क्के": 5760,
      "देहरा": 5761,
      "##ष्‍": 5762,
      "##द्वार": 5763,
      "साहू": 5764,
      "चेयरमैन": 5765,
      "आधा": 5766,
      "खतर": 5767,
      "इनका": 5768,
      "बुलाया": 5769,
      "##स्कृतिक": 5770,
      "##डि़": 5771,
      "51": 5772,
      "शहरी": 5773,
      "विरुद्ध": 5774,
      "बेड": 5775,
      "नीर": 5776,
      "जन्मदिन": 5777,
      "आंकड़ा": 5778,
      "चिकित्सक": 5779,
      "ग्रहण": 5780,
      "खींच": 5781,
      "रजिस्ट्र": 5782,
      "एटीएम": 5783,
      "ब्यूरो": 5784,
      "रॉ": 5785,
      "##ag": 5786,
      "गुना": 5787,
      "आईए": 5788,
      "मिलाकर": 5789,
      "व्यापक": 5790,
      "समीप": 5791,
      "ग्वाल": 5792,
      "सैकड़ों": 5793,
      "इश": 5794,
      "##ख्": 5795,
      "व्हा": 5796,
      "टिप्पणी": 5797,
      "अल्": 5798,
      "व्रत": 5799,
      "##खार": 5800,
      "##चंद": 5801,
      "##एँ": 5802,
      "##ड़क": 5803,
      "##ियाँ": 5804,
      "लिंक": 5805,
      "आजादी": 5806,
      "इच्छा": 5807,
      "##ड्ड": 5808,
      "आईटी": 5809,
      "##ड्डी": 5810,
      "##रुख": 5811,
      "इंस्पेक्टर": 5812,
      "भरे": 5813,
      "कोरिया": 5814,
      "सिन्हा": 5815,
      "##रोध": 5816,
      "मेले": 5817,
      "क्षति": 5818,
      "देखी": 5819,
      "मुद्दा": 5820,
      "प्लांट": 5821,
      "46": 5822,
      "समक्ष": 5823,
      "##प्ले": 5824,
      "पार्षद": 5825,
      "विभागों": 5826,
      "विधि": 5827,
      "आतंकियों": 5828,
      "सुनाई": 5829,
      "अमिताभ": 5830,
      "खून": 5831,
      "ससुर": 5832,
      "##फो": 5833,
      "##व्यू": 5834,
      "##वंत": 5835,
      "कॉलोनी": 5836,
      "पेपर": 5837,
      "सकेगा": 5838,
      "शाहरुख": 5839,
      "गायब": 5840,
      "सांस्कृतिक": 5841,
      "ओम": 5842,
      "नज़र": 5843,
      "एका": 5844,
      "##स्टिक": 5845,
      "रूम": 5846,
      "जरिये": 5847,
      "दिलाने": 5848,
      "जस्टिस": 5849,
      "विनोद": 5850,
      "##जान": 5851,
      "किंग": 5852,
      "निकाली": 5853,
      "43": 5854,
      "सीओ": 5855,
      "माँ": 5856,
      "कहने": 5857,
      "बनर्जी": 5858,
      "##ड्डा": 5859,
      "प्रेरित": 5860,
      "कस्": 5861,
      "##मंडल": 5862,
      "पालिका": 5863,
      "धोखा": 5864,
      "ऐतिहासिक": 5865,
      "चाय": 5866,
      "धूम": 5867,
      "##दून": 5868,
      "##डिट": 5869,
      "सेहत": 5870,
      "सुभाष": 5871,
      "संग्रह": 5872,
      "पश्चिमी": 5873,
      "शांत": 5874,
      "बढ़त": 5875,
      "लगते": 5876,
      "इस्लाम": 5877,
      "श्रीवास्तव": 5878,
      "सश": 5879,
      "##ेन": 5880,
      "प्रगति": 5881,
      "टीमों": 5882,
      "सिनेमा": 5883,
      "लाइसेंस": 5884,
      "52": 5885,
      "एकत्र": 5886,
      "स्टैंड": 5887,
      "बच्चन": 5888,
      "सर्वा": 5889,
      "भरी": 5890,
      "##iv": 5891,
      "लेन": 5892,
      "देगी": 5893,
      "दीवार": 5894,
      "जुड़ा": 5895,
      "ट्रेनों": 5896,
      "निशान": 5897,
      "मेट्रो": 5898,
      "मुसलमान": 5899,
      "आर्य": 5900,
      "गत": 5901,
      "##वर्ती": 5902,
      "सेवाओं": 5903,
      "ताकत": 5904,
      "बचने": 5905,
      "देहरादून": 5906,
      "##स्फ": 5907,
      "##हीन": 5908,
      "प्रभावी": 5909,
      "खनन": 5910,
      "मक": 5911,
      "##वक": 5912,
      "सिंध": 5913,
      "शुरु": 5914,
      "##ग्रस्त": 5915,
      "##कृतिक": 5916,
      "पत": 5917,
      "##जित": 5918,
      "##वेयर": 5919,
      "प्रतिभा": 5920,
      "##िमंडल": 5921,
      "बदले": 5922,
      "चीजों": 5923,
      "इंस्टा": 5924,
      "जुर्माना": 5925,
      "नयी": 5926,
      "रचना": 5927,
      "स्वरूप": 5928,
      "संचालक": 5929,
      "पहुंचाया": 5930,
      "सैंपल": 5931,
      "विल": 5932,
      "##टाई": 5933,
      "##ंत्रित": 5934,
      "जोड़ी": 5935,
      "शुरूआ": 5936,
      "भरने": 5937,
      "आइए": 5938,
      "कितनी": 5939,
      "कैमरे": 5940,
      "##तान": 5941,
      "मेगा": 5942,
      "विधे": 5943,
      "जिनकी": 5944,
      "सेवाएं": 5945,
      "प्रशासनिक": 5946,
      "प्रोत्साह": 5947,
      "डायरेक्टर": 5948,
      "अतिक": 5949,
      "आवं": 5950,
      "बौ": 5951,
      "##हे": 5952,
      "प्रसिद्ध": 5953,
      "मुआ": 5954,
      "नाबाल": 5955,
      "रोजाना": 5956,
      "दृष्टि": 5957,
      "जबरद": 5958,
      "शौचालय": 5959,
      "हूँ": 5960,
      "##िफिक": 5961,
      "##लील": 5962,
      "##ंदे": 5963,
      "कंप्यूटर": 5964,
      "बसों": 5965,
      "व्यक्तियों": 5966,
      "स्वच्छता": 5967,
      "आदर्श": 5968,
      "कच": 5969,
      "##os": 5970,
      "##ig": 5971,
      "##रेली": 5972,
      "प्रतिष्ठ": 5973,
      "बूथ": 5974,
      "निर्माता": 5975,
      "पंडित": 5976,
      "आलोचना": 5977,
      "नेहरू": 5978,
      "ठंड": 5979,
      "##ोसी": 5980,
      "माया": 5981,
      "शुरुआती": 5982,
      "##कृष्ण": 5983,
      "##ov": 5984,
      "##चीन": 5985,
      "राणा": 5986,
      "आग्रह": 5987,
      "प्रकाशित": 5988,
      "विपक्षी": 5989,
      "तारीफ": 5990,
      "आंखों": 5991,
      "सप्लाई": 5992,
      "अल्प": 5993,
      "##ha": 5994,
      "##स्टे": 5995,
      "##पात": 5996,
      "जीता": 5997,
      "##एससी": 5998,
      "##द्योगिक": 5999,
      "ग्राहक": 6000,
      "तालाब": 6001,
      "कच्च": 6002,
      "##िको": 6003,
      "निर्भर": 6004,
      "द्वितीय": 6005,
      "स्टो": 6006,
      "बनकर": 6007,
      "मांगों": 6008,
      "बरसा": 6009,
      "ज़्यादा": 6010,
      "हादसा": 6011,
      "कमाई": 6012,
      "विजेता": 6013,
      "##ंश": 6014,
      "बताने": 6015,
      "पुष्": 6016,
      "एनसी": 6017,
      "##तरीय": 6018,
      "एफआईआर": 6019,
      "मुहैया": 6020,
      "उन्‍होंने": 6021,
      "रिसर्च": 6022,
      "ग्वालियर": 6023,
      "भोज": 6024,
      "अपर": 6025,
      "2012": 6026,
      "पाएंगे": 6027,
      "सीसीटीवी": 6028,
      "ड्राइवर": 6029,
      "पेयजल": 6030,
      "बढ": 6031,
      "परंतु": 6032,
      "चीफ": 6033,
      "छेड़": 6034,
      "##र्त": 6035,
      "##ंचल": 6036,
      "कुश": 6037,
      "राजन": 6038,
      "बताए": 6039,
      "150": 6040,
      "कीमतों": 6041,
      "दुर्गा": 6042,
      "##घाट": 6043,
      "ट्रैफिक": 6044,
      "टाटा": 6045,
      "नजदी": 6046,
      "कंगना": 6047,
      "जेट": 6048,
      "नशे": 6049,
      "##कां": 6050,
      "##र्मी": 6051,
      "भरप": 6052,
      "बर्फ": 6053,
      "भागी": 6054,
      "पिछली": 6055,
      "##ंख्य": 6056,
      "कानूनों": 6057,
      "64": 6058,
      "घाय": 6059,
      "##स्थल": 6060,
      "टी20": 6061,
      "##्यूज": 6062,
      "##कालीन": 6063,
      "उदय": 6064,
      "रिजल्ट": 6065,
      "तालिब": 6066,
      "दस्तावेज": 6067,
      "लिमिटेड": 6068,
      "कस": 6069,
      "हस्त": 6070,
      "हस्ता": 6071,
      "##धित": 6072,
      "वर्क": 6073,
      "क्ली": 6074,
      "तरीका": 6075,
      "चांदी": 6076,
      "विद्या": 6077,
      "अत्य": 6078,
      "पंक": 6079,
      "सूर": 6080,
      "##मेर": 6081,
      "##ut": 6082,
      "इंजन": 6083,
      "##स्पिटल": 6084,
      "##ब्दी": 6085,
      "खाता": 6086,
      "इंटरव्यू": 6087,
      "मस्ज": 6088,
      "नाबालिग": 6089,
      "जिक्र": 6090,
      "तिल": 6091,
      "लव": 6092,
      "##नेशनल": 6093,
      "बेरोज": 6094,
      "एसएसपी": 6095,
      "##ड़िया": 6096,
      "स्तरीय": 6097,
      "लोकतंत्र": 6098,
      "फ़िल": 6099,
      "डोज": 6100,
      "धमा": 6101,
      "##बन": 6102,
      "नामक": 6103,
      "पोस्टर": 6104,
      "मतदाता": 6105,
      "लिखित": 6106,
      "अदा": 6107,
      "##करे": 6108,
      "निकट": 6109,
      "सौंपा": 6110,
      "हार्": 6111,
      "चौथे": 6112,
      "##आईटी": 6113,
      "अलर्ट": 6114,
      "पृथ्वी": 6115,
      "ब्रा": 6116,
      "सीनियर": 6117,
      "इलाहाबाद": 6118,
      "बॉक्स": 6119,
      "पत्थर": 6120,
      "ऑल": 6121,
      "ढंग": 6122,
      "जापान": 6123,
      "बॉस": 6124,
      "जागरूकता": 6125,
      "खूबसूरत": 6126,
      "अतिक्रमण": 6127,
      "एग्": 6128,
      "औसत": 6129,
      "तथ": 6130,
      "##घ्र": 6131,
      "जोख": 6132,
      "अमृत": 6133,
      "अगली": 6134,
      "##ार्टमेंट": 6135,
      "अंडर": 6136,
      "एडी": 6137,
      "फांसी": 6138,
      "##मपुर": 6139,
      "दुबे": 6140,
      "तुम्": 6141,
      "चढ़ा": 6142,
      "तिर": 6143,
      "पायल": 6144,
      "वर": 6145,
      "कर्मी": 6146,
      "हेड": 6147,
      "कंपनियां": 6148,
      "पोर्टल": 6149,
      "मुजफ्": 6150,
      "बतौर": 6151,
      "समर्": 6152,
      "##प्टर": 6153,
      "गुम": 6154,
      "ओलंपिक": 6155,
      "##ांजलि": 6156,
      "जोखिम": 6157,
      "##काया": 6158,
      "साजिश": 6159,
      "घायलों": 6160,
      "अवि": 6161,
      "##पं": 6162,
      "कोय": 6163,
      "##ाइज": 6164,
      "सीबी": 6165,
      "बिजनेस": 6166,
      "इंटरनेशनल": 6167,
      "गलती": 6168,
      "कारोबारी": 6169,
      "बड़": 6170,
      "जानने": 6171,
      "आतंकवादी": 6172,
      "पर्स": 6173,
      "##यत": 6174,
      "लोगो": 6175,
      "आपत्ति": 6176,
      "कार्यकाल": 6177,
      "डेस्क": 6178,
      "विद्यार्थी": 6179,
      "56": 6180,
      "##पै": 6181,
      "##hi": 6182,
      "राजकुमार": 6183,
      "प्राकृतिक": 6184,
      "पकड़े": 6185,
      "पक्षों": 6186,
      "दीपिका": 6187,
      "जूझ": 6188,
      "हेल्थ": 6189,
      "##िमा": 6190,
      "पाक": 6191,
      "##जारा": 6192,
      "क्रिया": 6193,
      "खबरों": 6194,
      "इंस्टाग्राम": 6195,
      "पंकज": 6196,
      "सकारात्मक": 6197,
      "द्वि": 6198,
      "रोका": 6199,
      "मानते": 6200,
      "निलंब": 6201,
      "निकला": 6202,
      "बोला": 6203,
      "श्रृंखला": 6204,
      "खतरे": 6205,
      "गड़": 6206,
      "जगत": 6207,
      "##नाइ": 6208,
      "##ियस": 6209,
      "##दर्भ": 6210,
      "प्रोफे": 6211,
      "नेटवर्क": 6212,
      "अनुरोध": 6213,
      "भक्तों": 6214,
      "मुर": 6215,
      "##चर्स": 6216,
      "संभ": 6217,
      "कुमारी": 6218,
      "राजेंद्र": 6219,
      "महेश": 6220,
      "मैसेज": 6221,
      "आजम": 6222,
      "बाजारों": 6223,
      "फ्रांस": 6224,
      "औद्योगिक": 6225,
      "श्याम": 6226,
      "बांट": 6227,
      "प्राचीन": 6228,
      "सुनकर": 6229,
      "प्राथमिकता": 6230,
      "दिग्गज": 6231,
      "फेंक": 6232,
      "चक्कर": 6233,
      "नित": 6234,
      "बजा": 6235,
      "##भूम": 6236,
      "कोड": 6237,
      "##पाठी": 6238,
      "जुड़": 6239,
      "चालू": 6240,
      "गंभीरता": 6241,
      "सुविधाओं": 6242,
      "गू": 6243,
      "##ॉजी": 6244,
      "##णि": 6245,
      "##ुलेंस": 6246,
      "बुक": 6247,
      "कारणों": 6248,
      "डालने": 6249,
      "##मोहन": 6250,
      "प्रतिनिध": 6251,
      "##कांत": 6252,
      "इमरान": 6253,
      "54": 6254,
      "तट": 6255,
      "यश": 6256,
      "##वों": 6257,
      "##‍म": 6258,
      "##माही": 6259,
      "सीमित": 6260,
      "##्यूब": 6261,
      "##वरों": 6262,
      "दिव्या": 6263,
      "लिखे": 6264,
      "भेजने": 6265,
      "एजेंस": 6266,
      "प्रीम": 6267,
      "शेर": 6268,
      "##ंगों": 6269,
      "सांप": 6270,
      "##काने": 6271,
      "कुर्": 6272,
      "महेंद्र": 6273,
      "बढ़ता": 6274,
      "2011": 6275,
      "##धिकरण": 6276,
      "बरत": 6277,
      "ट्रेनिंग": 6278,
      "गढ़": 6279,
      "परिस्थित": 6280,
      "कैश": 6281,
      "क्राइम": 6282,
      "बोली": 6283,
      "टेक्": 6284,
      "##कर्ताओं": 6285,
      "सुनने": 6286,
      "गठित": 6287,
      "चोप": 6288,
      "##सारी": 6289,
      "##मंद": 6290,
      "परम": 6291,
      "मानें": 6292,
      "##ष्णु": 6293,
      "##गणना": 6294,
      "सर्वाधिक": 6295,
      "ईश्वर": 6296,
      "नरेन्द्र": 6297,
      "बच्चा": 6298,
      "सैनिक": 6299,
      "निरीक्षक": 6300,
      "स्टूडेंट्स": 6301,
      "विधेयक": 6302,
      "मुजफ्फर": 6303,
      "##तो": 6304,
      "राजकीय": 6305,
      "बिंद": 6306,
      "नाथ": 6307,
      "आएगा": 6308,
      "72": 6309,
      "आंगन": 6310,
      "पाते": 6311,
      "##वेदी": 6312,
      "पढ़ने": 6313,
      "डाक": 6314,
      "##ट्टा": 6315,
      "अभिभाव": 6316,
      "शीघ्र": 6317,
      "नाराजगी": 6318,
      "त्या": 6319,
      "फिल्": 6320,
      "##ेक्षा": 6321,
      "##बु": 6322,
      "##डिया": 6323,
      "##षक": 6324,
      "काले": 6325,
      "सोनिया": 6326,
      "व्यक्तिगत": 6327,
      "गेंदबाजी": 6328,
      "जताया": 6329,
      "##ह्न": 6330,
      "##ेटर": 6331,
      "##ौरा": 6332,
      "##करार": 6333,
      "बहस": 6334,
      "रखकर": 6335,
      "ऑफर": 6336,
      "ब्लाक": 6337,
      "प्रोफेसर": 6338,
      "पब्लिक": 6339,
      "सन्": 6340,
      "##शियों": 6341,
      "##ष्म": 6342,
      "##याल": 6343,
      "कायम": 6344,
      "जाएंगी": 6345,
      "अवगत": 6346,
      "स्वर्ण": 6347,
      "इंदिरा": 6348,
      "सतर्क": 6349,
      "53": 6350,
      "अश्व": 6351,
      "बट": 6352,
      "बेल": 6353,
      "भूप": 6354,
      "##pp": 6355,
      "जाया": 6356,
      "##न्दी": 6357,
      "##माग": 6358,
      "सिम": 6359,
      "##साई": 6360,
      "##च्‍": 6361,
      "##टेक": 6362,
      "पुस्तक": 6363,
      "डाक्टर": 6364,
      "तालिबान": 6365,
      "त्व": 6366,
      "नॉ": 6367,
      "यो": 6368,
      "प्रदीप": 6369,
      "##हरण": 6370,
      "58": 6371,
      "85": 6372,
      "##ुन": 6373,
      "##जिए": 6374,
      "##वाणी": 6375,
      "संदीप": 6376,
      "कॉम": 6377,
      "196": 6378,
      "करोड़ों": 6379,
      "फ्ला": 6380,
      "##खों": 6381,
      "प्रौ": 6382,
      "मेला": 6383,
      "##ज़ा": 6384,
      "जिनका": 6385,
      "पंचायतों": 6386,
      "एक्टिव": 6387,
      "बराबर": 6388,
      "चतु": 6389,
      "##वट": 6390,
      "खबरें": 6391,
      "घाटी": 6392,
      "चोरों": 6393,
      "त्वचा": 6394,
      "##ैक्ट": 6395,
      "##दय": 6396,
      "##न्तु": 6397,
      "##टीन": 6398,
      "##ोजक": 6399,
      "अधिकतर": 6400,
      "कहती": 6401,
      "##स्फोट": 6402,
      "असल": 6403,
      "आधुनिक": 6404,
      "कौर": 6405,
      "फर्": 6406,
      "##रस": 6407,
      "##हो": 6408,
      "प्रार्थ": 6409,
      "विस्फोट": 6410,
      "पूंजी": 6411,
      "आराम": 6412,
      "डाटा": 6413,
      "संसदीय": 6414,
      "सिद्धार्थ": 6415,
      "एसी": 6416,
      "कन्या": 6417,
      "डूब": 6418,
      "सराह": 6419,
      "##ृत्ति": 6420,
      "##ल्ल": 6421,
      "देशभर": 6422,
      "यूनिट": 6423,
      "आएगी": 6424,
      "बालों": 6425,
      "साइबर": 6426,
      "कविता": 6427,
      "मारा": 6428,
      "##कूल": 6429,
      "##धीन": 6430,
      "काब": 6431,
      "जबलपुर": 6432,
      "मनोर": 6433,
      "पत्रकारों": 6434,
      "खेतों": 6435,
      "कनेक्शन": 6436,
      "Pr": 6437,
      "त्यो": 6438,
      "एसटी": 6439,
      "महाविद्यालय": 6440,
      "अर्चना": 6441,
      "##एचसी": 6442,
      "सैल": 6443,
      "##em": 6444,
      "##क्की": 6445,
      "##िएंट": 6446,
      "महोत्सव": 6447,
      "कैला": 6448,
      "इंट": 6449,
      "योग्य": 6450,
      "समझौता": 6451,
      "उड़ा": 6452,
      "जर्म": 6453,
      "सरपंच": 6454,
      "बैग": 6455,
      "स्टोर": 6456,
      "डिवाइ": 6457,
      "पड़ने": 6458,
      "पड़ोसी": 6459,
      "सर्वो": 6460,
      "छुट्टी": 6461,
      "तत्कालीन": 6462,
      "बहादुर": 6463,
      "त्योहार": 6464,
      "भट्ट": 6465,
      "प्रजा": 6466,
      "##धारण": 6467,
      "खतरनाक": 6468,
      "प्रार्थना": 6469,
      "ग्रीन": 6470,
      "कोर्स": 6471,
      "##ंगर": 6472,
      "##ंगाई": 6473,
      "ब्रांड": 6474,
      "लगेगा": 6475,
      "तीसरा": 6476,
      "विवेक": 6477,
      "बेंगल": 6478,
      "##रानी": 6479,
      "##ौज": 6480,
      "##रोह": 6481,
      "द्वार": 6482,
      "गोयल": 6483,
      "##्राष्ट्रीय": 6484,
      "मतदाताओं": 6485,
      "हिस्सों": 6486,
      "दिलच": 6487,
      "त्रिपाठी": 6488,
      "कंटे": 6489,
      "##स्वी": 6490,
      "कैप्": 6491,
      "##000": 6492,
      "रेप": 6493,
      "अपराधियों": 6494,
      "अभियंता": 6495,
      "चोपड़ा": 6496,
      "ठहरा": 6497,
      "हक": 6498,
      "करण": 6499,
      "##बीसी": 6500,
      "##देह": 6501,
      "##प्रकाश": 6502,
      "##शिष्ट": 6503,
      "धन्य": 6504,
      "ताजा": 6505,
      "ब्रेक": 6506,
      "ओपी": 6507,
      "गंग": 6508,
      "छू": 6509,
      "झु": 6510,
      "##बंद": 6511,
      "##मय": 6512,
      "##मूल": 6513,
      "पुलिसकर्मियों": 6514,
      "गुला": 6515,
      "खाद": 6516,
      "तलाक": 6517,
      "00": 6518,
      "भय": 6519,
      "लल": 6520,
      "साउ": 6521,
      "संपन्न": 6522,
      "शुभारंभ": 6523,
      "संस्थानों": 6524,
      "आशीष": 6525,
      "नाय": 6526,
      "मजा": 6527,
      "##शंकर": 6528,
      "हैंड": 6529,
      "लगती": 6530,
      "अभ्यास": 6531,
      "मांगा": 6532,
      "आरोपों": 6533,
      "उपभोक्ता": 6534,
      "वास्तविक": 6535,
      "डिप्टी": 6536,
      "जस": 6537,
      "##सैन": 6538,
      "कराना": 6539,
      "##ल्ले": 6540,
      "##सरों": 6541,
      "##स्पति": 6542,
      "आफ": 6543,
      "बचे": 6544,
      "लंदन": 6545,
      "##ul": 6546,
      "##स्त्री": 6547,
      "संजीव": 6548,
      "##सीन": 6549,
      "अनुप": 6550,
      "##एसएस": 6551,
      "हॉस्पिटल": 6552,
      "बीमारियों": 6553,
      "##वायर": 6554,
      "प्राधिकरण": 6555,
      "बैठा": 6556,
      "##ग्न": 6557,
      "सुविधाएं": 6558,
      "यूनियन": 6559,
      "आजाद": 6560,
      "उपभोक्ताओं": 6561,
      "रजिस्ट्रेशन": 6562,
      "जहाँ": 6563,
      "हवाले": 6564,
      "बादल": 6565,
      "आरटी": 6566,
      "##आरसी": 6567,
      "बढ़ाया": 6568,
      "माध्यमिक": 6569,
      "अखबार": 6570,
      "गुरू": 6571,
      "63": 6572,
      "आकाश": 6573,
      "गर": 6574,
      "गहरा": 6575,
      "##बन्": 6576,
      "##टिल": 6577,
      "##धारी": 6578,
      "उसको": 6579,
      "##indi": 6580,
      "चावल": 6581,
      "##क्षे": 6582,
      "मुफ्त": 6583,
      "निर्यात": 6584,
      "पासवान": 6585,
      "निकाय": 6586,
      "लड़के": 6587,
      "इंतजाम": 6588,
      "तेंद": 6589,
      "यानि": 6590,
      "केन्द": 6591,
      "##ृत्य": 6592,
      "##ड्ढ": 6593,
      "मरने": 6594,
      "मस्जिद": 6595,
      "झेल": 6596,
      "बारी": 6597,
      "सार": 6598,
      "##गित": 6599,
      "##विक": 6600,
      "##धाम": 6601,
      "काबू": 6602,
      "प्रयाग": 6603,
      "मंत्रियों": 6604,
      "दुकानें": 6605,
      "पारित": 6606,
      "गेंदों": 6607,
      "##ध्याय": 6608,
      "उड़ान": 6609,
      "आकार": 6610,
      "##दाई": 6611,
      "मिलेंगे": 6612,
      "##एसआई": 6613,
      "साइकिल": 6614,
      "झटका": 6615,
      "बुरा": 6616,
      "##र्जर": 6617,
      "व्यस्त": 6618,
      "हेम": 6619,
      "क्रिकेटर": 6620,
      "तहसीलदार": 6621,
      "समझौते": 6622,
      "फायरिंग": 6623,
      "मनुष्य": 6624,
      "##पूर्वक": 6625,
      "गाना": 6626,
      "जॉन": 6627,
      "नाइट": 6628,
      "सेल्स": 6629,
      "पुराना": 6630,
      "मीटिंग": 6631,
      "हाईवे": 6632,
      "##----": 6633,
      "कठिन": 6634,
      "कम्प": 6635,
      "शतक": 6636,
      "##र्ख": 6637,
      "##केज": 6638,
      "सहारा": 6639,
      "नींद": 6640,
      "गिरने": 6641,
      "पूछे": 6642,
      "आक्रोश": 6643,
      "कामयाब": 6644,
      "जज": 6645,
      "##संध": 6646,
      "##्रल": 6647,
      "##ियंस": 6648,
      "अपहरण": 6649,
      "##विंग": 6650,
      "पौधे": 6651,
      "अधिवक्ता": 6652,
      "मुआव": 6653,
      "57": 6654,
      "हर्ष": 6655,
      "##ल्‍": 6656,
      "बैक": 6657,
      "अमे": 6658,
      "चौराह": 6659,
      "साहब": 6660,
      "जितना": 6661,
      "आरोपितों": 6662,
      "अकेले": 6663,
      "शुरूआत": 6664,
      "कुर": 6665,
      "डु": 6666,
      "##ॉग": 6667,
      "रूट": 6668,
      "##डीओ": 6669,
      "अहमदाबाद": 6670,
      "प्रबंधक": 6671,
      "गड़ब": 6672,
      "एंब": 6673,
      "छत": 6674,
      "नु": 6675,
      "##पता": 6676,
      "##सद": 6677,
      "##av": 6678,
      "काशी": 6679,
      "एकता": 6680,
      "रूपये": 6681,
      "दिखे": 6682,
      "छोड़ने": 6683,
      "फोर्स": 6684,
      "संसाधन": 6685,
      "छवि": 6686,
      "फस": 6687,
      "बाहरी": 6688,
      "देरी": 6689,
      "##कारियों": 6690,
      "बालिका": 6691,
      "##एनएस": 6692,
      "##द्योगिकी": 6693,
      "प्रस्तावित": 6694,
      "हिंदु": 6695,
      "उपायुक्त": 6696,
      "सोनू": 6697,
      "कैलाश": 6698,
      "टुक": 6699,
      "नहर": 6700,
      "लोह": 6701,
      "##्ती": 6702,
      "##फार": 6703,
      "परमाण": 6704,
      "माफी": 6705,
      "पिटाई": 6706,
      "श्रीनगर": 6707,
      "नौकर": 6708,
      "शब्दों": 6709,
      "गाँव": 6710,
      "##भूमि": 6711,
      "धूप": 6712,
      "मथ": 6713,
      "सत्या": 6714,
      "##पल": 6715,
      "##ारों": 6716,
      "##कीम": 6717,
      "साथियों": 6718,
      "अधि": 6719,
      "जोड़ा": 6720,
      "##फ्टी": 6721,
      "फ्रंट": 6722,
      "तिमाही": 6723,
      "श्रद्धांजलि": 6724,
      "जबरदस्त": 6725,
      "परमाणु": 6726,
      "##ोली": 6727,
      "हैरान": 6728,
      "साझे": 6729,
      "श्रम": 6730,
      "डालकर": 6731,
      "##ation": 6732,
      "मैनेज": 6733,
      "काउंसिल": 6734,
      "पवित्र": 6735,
      "गूगल": 6736,
      "गले": 6737,
      "पाइ": 6738,
      "##तियां": 6739,
      "##क्षेत्र": 6740,
      "रोह": 6741,
      "महात्मा": 6742,
      "ढाई": 6743,
      "भव्य": 6744,
      "वस": 6745,
      "विज": 6746,
      "मुठ": 6747,
      "थानाध्यक्ष": 6748,
      "मंदिरों": 6749,
      "समर्थकों": 6750,
      "धन्यवाद": 6751,
      "गज": 6752,
      "फाइ": 6753,
      "##्रीट": 6754,
      "दीपा": 6755,
      "ग्रा": 6756,
      "फैक्ट": 6757,
      "अग्": 6758,
      "##दर्शन": 6759,
      "ब्रिट": 6760,
      "सूरज": 6761,
      "फुल": 6762,
      "यौन": 6763,
      "##िसू": 6764,
      "मास्टर": 6765,
      "##डीपी": 6766,
      "गिरोह": 6767,
      "रिकार्ड": 6768,
      "चीजें": 6769,
      "वसूली": 6770,
      "पायलट": 6771,
      "ढेर": 6772,
      "सेमी": 6773,
      "करो": 6774,
      "स्नान": 6775,
      "सुर्ख": 6776,
      "##पाद": 6777,
      "उत्पन्न": 6778,
      "दिमाग": 6779,
      "लिखी": 6780,
      "कॉलेजों": 6781,
      "##संधान": 6782,
      "62": 6783,
      "लक": 6784,
      "प्रको": 6785,
      "##विटी": 6786,
      "हिन्दी": 6787,
      "देखे": 6788,
      "जुटे": 6789,
      "ट्रॉ": 6790,
      "गोवा": 6791,
      "कार्यक्रमों": 6792,
      "तैयारियां": 6793,
      "उत्सव": 6794,
      "हराया": 6795,
      "साउथ": 6796,
      "एके": 6797,
      "शर्म": 6798,
      "कोट": 6799,
      "सेक्स": 6800,
      "स्टे": 6801,
      "सीईओ": 6802,
      "मौल": 6803,
      "उपस्थिति": 6804,
      "हुईं": 6805,
      "मालूम": 6806,
      "सर्वश": 6807,
      "मैनेजर": 6808,
      "दिली": 6809,
      "धा": 6810,
      "##चार्ज": 6811,
      "रहकर": 6812,
      "##श्चा": 6813,
      "उत्तरी": 6814,
      "रिम": 6815,
      "देखभाल": 6816,
      "##वेदनशील": 6817,
      "विभागीय": 6818,
      "हिन्दू": 6819,
      "खिल": 6820,
      "तल": 6821,
      "दाल": 6822,
      "फाइल": 6823,
      "##50": 6824,
      "##ड़न": 6825,
      "##लेस": 6826,
      "साव": 6827,
      "बीसीसी": 6828,
      "बनाते": 6829,
      "अनुसंधान": 6830,
      "मुखिया": 6831,
      "बॉर्डर": 6832,
      "खरीदी": 6833,
      "ऋषि": 6834,
      "एक्": 6835,
      "बला": 6836,
      "##िडी": 6837,
      "##़ा": 6838,
      "सीता": 6839,
      "##वीय": 6840,
      "दूसरों": 6841,
      "पैमाने": 6842,
      "भेजी": 6843,
      "गरीबों": 6844,
      "केन्द्रीय": 6845,
      "डें": 6846,
      "पंप": 6847,
      "प्रांत": 6848,
      "सामु": 6849,
      "##चारिक": 6850,
      "जनजा": 6851,
      "आईसी": 6852,
      "फिल्में": 6853,
      "वैक्सीनेशन": 6854,
      "कलाकार": 6855,
      "गुस्सा": 6856,
      "पेज": 6857,
      "मुरा": 6858,
      "##सला": 6859,
      "सेल्": 6860,
      "##एसई": 6861,
      "प्रशांत": 6862,
      "डीसी": 6863,
      "वादा": 6864,
      "आदिवासी": 6865,
      "साइट": 6866,
      "घोटाले": 6867,
      "फंसे": 6868,
      "एक्शन": 6869,
      "शरण": 6870,
      "##स्टल": 6871,
      "जीते": 6872,
      "12वीं": 6873,
      "##वर्धन": 6874,
      "मायावती": 6875,
      "मुठभ": 6876,
      "लीड": 6877,
      "##ow": 6878,
      "##राहा": 6879,
      "हुसैन": 6880,
      "आपात": 6881,
      "##पीसी": 6882,
      "डेब": 6883,
      "गिरी": 6884,
      "अंतर्राष्ट्रीय": 6885,
      "उत्पादों": 6886,
      "ठाकरे": 6887,
      "शासकीय": 6888,
      "अत": 6889,
      "सिक्": 6890,
      "हृ": 6891,
      "##नपुर": 6892,
      "##िफ": 6893,
      "प्रवासी": 6894,
      "महंगाई": 6895,
      "194": 6896,
      "बॉडी": 6897,
      "चिंत": 6898,
      "फॉर": 6899,
      "वस्तु": 6900,
      "एंट्री": 6901,
      "नीरज": 6902,
      "प्रौद्योगिकी": 6903,
      "59": 6904,
      "फूड": 6905,
      "##संख्य": 6906,
      "विट": 6907,
      "##्याल": 6908,
      "शर्त": 6909,
      "ब्लड": 6910,
      "पुरुषों": 6911,
      "हस्ताक्षर": 6912,
      "जख": 6913,
      "तंत्र": 6914,
      "वें": 6915,
      "हद": 6916,
      "प्राचार्य": 6917,
      "##मार्ग": 6918,
      "66": 6919,
      "आह्": 6920,
      "बाज": 6921,
      "##वार्": 6922,
      "##बाड़ी": 6923,
      "करेंगी": 6924,
      "रेफर": 6925,
      "पौध": 6926,
      "आलम": 6927,
      "अभाव": 6928,
      "मानी": 6929,
      "सनी": 6930,
      "##िणी": 6931,
      "##मूर्ति": 6932,
      "##ंबा": 6933,
      "##वीप": 6934,
      "निकली": 6935,
      "बचपन": 6936,
      "साहिब": 6937,
      "##प्रीत": 6938,
      "वार्षिक": 6939,
      "हेल": 6940,
      "लेता": 6941,
      "लेवल": 6942,
      "निवास": 6943,
      "##त्तर": 6944,
      "सुशील": 6945,
      "मोड़": 6946,
      "नवरा": 6947,
      "सिलेंडर": 6948,
      "पलट": 6949,
      "फ़िल्म": 6950,
      "दिलीप": 6951,
      "67": 6952,
      ":-": 6953,
      "जद": 6954,
      "जुल": 6955,
      "बृह": 6956,
      "यहीं": 6957,
      "##डब्ल्यू": 6958,
      "##द्दा": 6959,
      "अंकों": 6960,
      "##स्करी": 6961,
      "ड्रग": 6962,
      "एडम": 6963,
      "न्यायिक": 6964,
      "इंजीनियरिंग": 6965,
      "##फारिश": 6966,
      "बाला": 6967,
      "##बान": 6968,
      "##णन": 6969,
      "##्रेष्ठ": 6970,
      "सामूह": 6971,
      "पॉलि": 6972,
      "##चुनाव": 6973,
      "इट": 6974,
      "फंस": 6975,
      "विष्णु": 6976,
      "सिफारिश": 6977,
      "बुखार": 6978,
      "जुटी": 6979,
      "शुद्ध": 6980,
      "डीजी": 6981,
      "आंकड़े": 6982,
      "परिस्थितियों": 6983,
      "सामूहिक": 6984,
      "01": 6985,
      "इजा": 6986,
      "जहा": 6987,
      "टकरा": 6988,
      "बुर": 6989,
      "##रू": 6990,
      "##रिएंट": 6991,
      "##कांड": 6992,
      "##ोई": 6993,
      "##धारा": 6994,
      "होश": 6995,
      "हीरो": 6996,
      "स्थगित": 6997,
      "लगाना": 6998,
      "खासकर": 6999,
      "##छाड़": 7000,
      "आह्वान": 7001,
      "शॉ": 7002,
      "संदर्भ": 7003,
      "हुये": 7004,
      "अपमान": 7005,
      "निच": 7006,
      "कमिश्": 7007,
      "उपचुनाव": 7008,
      "##ंधा": 7009,
      "उत्पी": 7010,
      "पढ़ा": 7011,
      "73": 7012,
      "बलों": 7013,
      "करवाई": 7014,
      "##बाग": 7015,
      "रूपए": 7016,
      "आरती": 7017,
      "स्मृति": 7018,
      "संक्रमितों": 7019,
      "सेंट्रल": 7020,
      "##टकों": 7021,
      "##नक": 7022,
      "बाई": 7023,
      "##करों": 7024,
      "मनाने": 7025,
      "मरम्मत": 7026,
      "सब्ज": 7027,
      "मासूम": 7028,
      "विज्ञापन": 7029,
      "तस्करी": 7030,
      "समस्त": 7031,
      "##रेन": 7032,
      "##्रीम": 7033,
      "जोध": 7034,
      "जीबी": 7035,
      "निर्द": 7036,
      "अनुकूल": 7037,
      "प्रेमी": 7038,
      "मथुरा": 7039,
      "इमार": 7040,
      "एरिया": 7041,
      "धवन": 7042,
      "मूर्ति": 7043,
      "##स्करण": 7044,
      "##ामक": 7045,
      "पीजी": 7046,
      "दुब": 7047,
      "वितर": 7048,
      "##ोबल": 7049,
      "शिखर": 7050,
      "##ंडीज": 7051,
      "तीर्थ": 7052,
      "निलंबित": 7053,
      "दफ्": 7054,
      "रघु": 7055,
      "लह": 7056,
      "##ak": 7057,
      "##ऩे": 7058,
      "##नाल्ड": 7059,
      "विवरण": 7060,
      "रात्रि": 7061,
      "मुक्ति": 7062,
      "##त्ते": 7063,
      "जोड़ने": 7064,
      "लापता": 7065,
      "संबंधों": 7066,
      ".....": 7067,
      "विस्तृत": 7068,
      "मूवी": 7069,
      "##ter": 7070,
      "##प्‍": 7071,
      "अगु": 7072,
      "##पालन": 7073,
      "खेलों": 7074,
      "खेली": 7075,
      "##िस्ट्रेट": 7076,
      "खोला": 7077,
      "निर्मित": 7078,
      "जोधपुर": 7079,
      "61": 7080,
      "ओड": 7081,
      "नष्ट": 7082,
      "किट": 7083,
      "##ियाबाद": 7084,
      "श्रीराम": 7085,
      "लिखकर": 7086,
      "वैज्ञानिकों": 7087,
      "खिताब": 7088,
      "ब्रिटिश": 7089,
      "डेंगू": 7090,
      "कमिश्नर": 7091,
      "बस्ती": 7092,
      "##कै": 7093,
      "##सास": 7094,
      "##दपुर": 7095,
      "##डू": 7096,
      "##्योर": 7097,
      "कार्यरत": 7098,
      "अनुसू": 7099,
      "मारकर": 7100,
      "कलर": 7101,
      "जायेगी": 7102,
      "लेखक": 7103,
      "प्लेटफॉर्म": 7104,
      "विशेषज्ञों": 7105,
      "मुठभेड़": 7106,
      "दफ्तर": 7107,
      "02": 7108,
      "95": 7109,
      "उद्य": 7110,
      "ठिक": 7111,
      "फोर": 7112,
      "बरेली": 7113,
      "##ac": 7114,
      "अधिसू": 7115,
      "मेन": 7116,
      "##डीसी": 7117,
      "ट्रस्ट": 7118,
      "शास्त्र": 7119,
      "आमतौर": 7120,
      "अपराधी": 7121,
      "अस्त": 7122,
      "अटल": 7123,
      "नाल": 7124,
      "मुझ": 7125,
      "##ुलर": 7126,
      "##रेगा": 7127,
      "जरुर": 7128,
      "2010": 7129,
      "तैयारियों": 7130,
      "बरकरार": 7131,
      "##र्नर": 7132,
      "मुलायम": 7133,
      "कलाकारों": 7134,
      "पंजीकरण": 7135,
      "यूरोप": 7136,
      "लिहाजा": 7137,
      "भरपूर": 7138,
      "##जो": 7139,
      "##शित": 7140,
      "##चंद्र": 7141,
      "##इयों": 7142,
      "स्टॉक": 7143,
      "आईसीसी": 7144,
      "जिंदा": 7145,
      "शेख": 7146,
      "अर्ध": 7147,
      "लौटे": 7148,
      "##स्थापक": 7149,
      "भौ": 7150,
      "भेंट": 7151,
      "##बरा": 7152,
      "##ायंस": 7153,
      "##मात्र": 7154,
      "अंसारी": 7155,
      "गुट": 7156,
      "2022": 7157,
      "आमिर": 7158,
      "ब्रह": 7159,
      "ट्रेलर": 7160,
      "फीचर": 7161,
      "चिकित्सकों": 7162,
      "सिलसिला": 7163,
      "उज्ज": 7164,
      "चू": 7165,
      "जियो": 7166,
      "मरा": 7167,
      "रस": 7168,
      "##नाएं": 7169,
      "समन्व": 7170,
      "##ष्का": 7171,
      "सबको": 7172,
      "ट्रैक": 7173,
      "सवालों": 7174,
      "चालान": 7175,
      "दिखाने": 7176,
      "निवेशकों": 7177,
      "उपाध्याय": 7178,
      "अभ्यर्थियों": 7179,
      "विश्ले": 7180,
      "सर्वश्रेष्ठ": 7181,
      "##ab": 7182,
      "##शिंग": 7183,
      "पैदल": 7184,
      "##प्रति": 7185,
      "चिन्ह": 7186,
      "प्रयागराज": 7187,
      "विटाम": 7188,
      ".”": 7189,
      "PM": 7190,
      "वाज": 7191,
      "शक": 7192,
      "##थन": 7193,
      "##धाना": 7194,
      "##ड़की": 7195,
      "सीधा": 7196,
      "चलती": 7197,
      "महामंत्री": 7198,
      "किशोरी": 7199,
      "प्रेरणा": 7200,
      "सामुदायिक": 7201,
      "ड्रेस": 7202,
      "##सेक्स": 7203,
      "##ार्क": 7204,
      "पीट": 7205,
      "बैटरी": 7206,
      "##वालों": 7207,
      "आईं": 7208,
      "##भाग्य": 7209,
      "##लोत": 7210,
      "##स्टेबल": 7211,
      "ढां": 7212,
      "पंत": 7213,
      "##रियर": 7214,
      "टीमें": 7215,
      "बुनिया": 7216,
      "##ंकन": 7217,
      "2009": 7218,
      "हॉट": 7219,
      "चलेगा": 7220,
      "इजाज": 7221,
      "मनोहर": 7222,
      "',": 7223,
      "सपोर्ट": 7224,
      "##क्क": 7225,
      "##क्चर": 7226,
      "##वाहा": 7227,
      "संवेदनशील": 7228,
      "अपेक्षा": 7229,
      "##कीन": 7230,
      "सीर": 7231,
      "स्थिर": 7232,
      "व्याव": 7233,
      "आसमान": 7234,
      "लौटने": 7235,
      "पाठ्य": 7236,
      "मलिक": 7237,
      "किराए": 7238,
      "हरिद्वार": 7239,
      "श्रमिकों": 7240,
      "सूरत": 7241,
      "कांड": 7242,
      "##ंचित": 7243,
      "सीए": 7244,
      "##द्घ": 7245,
      "##्यूल": 7246,
      "दुश्म": 7247,
      "इंस्टी": 7248,
      "वाता": 7249,
      "लैब": 7250,
      "शरद": 7251,
      "ठेकेदार": 7252,
      "पश": 7253,
      "लड़ा": 7254,
      "श्": 7255,
      "##बॉल": 7256,
      "##जारी": 7257,
      "##मानी": 7258,
      "##वो": 7259,
      "काग": 7260,
      "स्थलों": 7261,
      "वर्षा": 7262,
      "बैठकर": 7263,
      "फीट": 7264,
      "गर्भव": 7265,
      "माइक्र": 7266,
      "नारेबाजी": 7267,
      "हृदय": 7268,
      "खर": 7269,
      "सृ": 7270,
      "##‍ली": 7271,
      "##चय": 7272,
      "##एगा": 7273,
      "किशन": 7274,
      "विशिष्ट": 7275,
      "भास्कर": 7276,
      "पैकेज": 7277,
      "##म्भ": 7278,
      "असली": 7279,
      "शिफ्ट": 7280,
      "##ore": 7281,
      "आयुर्": 7282,
      "बीसीसीआई": 7283,
      "वातावरण": 7284,
      "बकाया": 7285,
      "हंस": 7286,
      "##शाह": 7287,
      "सरकारों": 7288,
      "समस्याएं": 7289,
      "सख्ती": 7290,
      "बरसात": 7291,
      "##ोंक": 7292,
      "सीपी": 7293,
      "कार्यकारी": 7294,
      "स्टाइल": 7295,
      "खरीदारी": 7296,
      "नोटबंदी": 7297,
      "नागरिकता": 7298,
      "पृष्ठ": 7299,
      "प्रारंभिक": 7300,
      "नक्सलियों": 7301,
      "फसलों": 7302,
      "प्याज": 7303,
      "फते": 7304,
      "रंजन": 7305,
      "##नाती": 7306,
      "बाबू": 7307,
      "एकड़": 7308,
      "मुना": 7309,
      "आपसी": 7310,
      "##ोलॉजी": 7311,
      "सफेद": 7312,
      "निर्देशक": 7313,
      "मजिस्ट्रेट": 7314,
      "##क्षणिक": 7315,
      "पुरा": 7316,
      "ट्रेड": 7317,
      "प्रभु": 7318,
      "रिक्": 7319,
      "सुपरस्ट": 7320,
      "तुम्ह": 7321,
      "69": 7322,
      "पठ": 7323,
      "सतीश": 7324,
      "हवाला": 7325,
      "##डियो": 7326,
      "##ष्णा": 7327,
      "परिचाल": 7328,
      "कैद": 7329,
      "स्पिन": 7330,
      "समुद्र": 7331,
      "प्रिंस": 7332,
      "गहलोत": 7333,
      "मछली": 7334,
      "अल्पसंख्य": 7335,
      "ओडिशा": 7336,
      "चूं": 7337,
      "डिली": 7338,
      "दुरु": 7339,
      "शिल्": 7340,
      "##्ट": 7341,
      "##झी": 7342,
      "विस": 7343,
      "एकजु": 7344,
      "समृ": 7345,
      "##प्पा": 7346,
      "विक्रम": 7347,
      "ट्रायल": 7348,
      "मौजूदगी": 7349,
      "नरेश": 7350,
      "लाइव": 7351,
      "शैक्षणिक": 7352,
      "क्रेडिट": 7353,
      "गर्भवती": 7354,
      "सिख": 7355,
      "डिप": 7356,
      "एम्स": 7357,
      "संभावित": 7358,
      "मजबूती": 7359,
      "जोरदार": 7360,
      "बगैर": 7361,
      "##गेटिव": 7362,
      "एजेंसियों": 7363,
      "वितरित": 7364,
      "अनुसूचित": 7365,
      "एकजुट": 7366,
      "यमु": 7367,
      "शिश": 7368,
      "##शान": 7369,
      "सील": 7370,
      "पुलिसकर्मी": 7371,
      "बिगड़": 7372,
      "एग्जाम": 7373,
      "चूंकि": 7374,
      "अश्": 7375,
      "आधे": 7376,
      "कना": 7377,
      "क्यू": 7378,
      "गव": 7379,
      "##िशन": 7380,
      "##न्नी": 7381,
      "##ंद्रा": 7382,
      "सिंचाई": 7383,
      "मुखर्जी": 7384,
      "डिस्ट": 7385,
      "आरंभ": 7386,
      "घटनास्थल": 7387,
      "कुलदीप": 7388,
      "2008": 7389,
      "जूनियर": 7390,
      "पार्टियों": 7391,
      "आंध्र": 7392,
      "मकसद": 7393,
      "मनोरंजन": 7394,
      "बृहस्पति": 7395,
      "आचार्य": 7396,
      "ऊंच": 7397,
      "##खण्ड": 7398,
      "##र्टी": 7399,
      "संदेह": 7400,
      "हरकत": 7401,
      "##देवी": 7402,
      "हेल्प": 7403,
      "शेयरों": 7404,
      "कार्तिक": 7405,
      "पुनर्": 7406,
      "प्रतीक": 7407,
      "71": 7408,
      "छान": 7409,
      "सर्क": 7410,
      "##im": 7411,
      "##um": 7412,
      "बाधा": 7413,
      "##क्ष्य": 7414,
      "तोड़ने": 7415,
      "राजद": 7416,
      "सरल": 7417,
      "रखता": 7418,
      "ब्रांच": 7419,
      "अनुरूप": 7420,
      "गीता": 7421,
      "समर्पित": 7422,
      "##वायरस": 7423,
      "इजाफा": 7424,
      "कल्प": 7425,
      "मंग": 7426,
      "मूर्": 7427,
      "##th": 7428,
      "किस्": 7429,
      "बनाये": 7430,
      "सब्स": 7431,
      "दर्शा": 7432,
      "पड़ताल": 7433,
      "चेहरा": 7434,
      "बढ़ाकर": 7435,
      "नियंत्रित": 7436,
      "कैप्टन": 7437,
      "ब्रह्म": 7438,
      "78": 7439,
      "झग": 7440,
      "##सं": 7441,
      "##र्वाद": 7442,
      "##नीश": 7443,
      "कामका": 7444,
      "दिल्‍ली": 7445,
      "इसीलिए": 7446,
      "मध्यम": 7447,
      "दुर्ग": 7448,
      "##dia": 7449,
      "आलोक": 7450,
      "बलात्कार": 7451,
      "विटामिन": 7452,
      "एव": 7453,
      "एबी": 7454,
      "कमेंट": 7455,
      "द्र": 7456,
      "##्तर": 7457,
      "##र्में": 7458,
      "स्कीम": 7459,
      "साधा": 7460,
      "समापन": 7461,
      "राजनाथ": 7462,
      "आयी": 7463,
      "आयकर": 7464,
      "तैनाती": 7465,
      "भेद": 7466,
      "तस्वीरों": 7467,
      "सलाहकार": 7468,
      "नजदीक": 7469,
      "68": 7470,
      "Ra": 7471,
      "आला": 7472,
      "बंट": 7473,
      "भीषण": 7474,
      "साई": 7475,
      "अनुश": 7476,
      "कैप": 7477,
      "वृद्ध": 7478,
      "पहाड़ी": 7479,
      "निराश": 7480,
      "उत्पीड़न": 7481,
      "अजी": 7482,
      "कक्ष": 7483,
      "कवर": 7484,
      "गड्ढ": 7485,
      "मय": 7486,
      "##कश": 7487,
      "##णिज": 7488,
      "##काय": 7489,
      "##ायती": 7490,
      "##पीय": 7491,
      "##पाही": 7492,
      "रोशन": 7493,
      "पत्रिका": 7494,
      "##गमन": 7495,
      "पकड़ने": 7496,
      "जायजा": 7497,
      "मानसून": 7498,
      "##णिज्य": 7499,
      "आर्मी": 7500,
      "गली": 7501,
      "टोल": 7502,
      "प्रोग्राम": 7503,
      "पहना": 7504,
      "##टरों": 7505,
      "महानि": 7506,
      "रिहा": 7507,
      "जुटा": 7508,
      "##स्वती": 7509,
      "आतंकवादियों": 7510,
      "जेटली": 7511,
      "इंस्टीट": 7512,
      "74": 7513,
      "84": 7514,
      "डाली": 7515,
      "##टिया": 7516,
      "##ग्रा": 7517,
      "##ूनी": 7518,
      "##डनी": 7519,
      "सेन": 7520,
      "निधि": 7521,
      "सिपाही": 7522,
      "मिलियन": 7523,
      "वेद": 7524,
      "क्रिस": 7525,
      "दिवाली": 7526,
      "##est": 7527,
      "##ess": 7528,
      "निरस्त": 7529,
      "प्रसन्न": 7530,
      "एंबुलेंस": 7531,
      "अत्या": 7532,
      "टोक": 7533,
      "म्यूज": 7534,
      "##सोल": 7535,
      "##डन": 7536,
      "##डकर": 7537,
      "किल": 7538,
      "प्रकृति": 7539,
      "राठ": 7540,
      "##नीत": 7541,
      "आपरा": 7542,
      "चुने": 7543,
      "बिता": 7544,
      "आजकल": 7545,
      "गणतंत्र": 7546,
      "सपने": 7547,
      "मोटरसाइ": 7548,
      "वेस्टइ": 7549,
      "जर्मनी": 7550,
      "ईमान": 7551,
      "डू": 7552,
      "दत्त": 7553,
      "वंचित": 7554,
      "प्रार": 7555,
      "प्रधाना": 7556,
      "संचार": 7557,
      "संस्थापक": 7558,
      "दोहरा": 7559,
      "2000": 7560,
      "ब्राह": 7561,
      "##स्वामी": 7562,
      "निरंतर": 7563,
      "नमक": 7564,
      "##चुअल": 7565,
      "आशीर्वाद": 7566,
      "ससुराल": 7567,
      "साझेदारी": 7568,
      "77": 7569,
      "फाइन": 7570,
      "बघ": 7571,
      "##सवाल": 7572,
      "किरण": 7573,
      "##ोगी": 7574,
      "##ोग्रा": 7575,
      "##ार्पण": 7576,
      "लाश": 7577,
      "##पालिका": 7578,
      "हेली": 7579,
      "सियासी": 7580,
      "##भूषण": 7581,
      "चाइ": 7582,
      "तड़": 7583,
      "पेर": 7584,
      "पश्चा": 7585,
      "फेल": 7586,
      "कोटा": 7587,
      "##रीत": 7588,
      "सरस्वती": 7589,
      "मेक": 7590,
      "महाप": 7591,
      "अफवाह": 7592,
      "मिथ": 7593,
      "दुकानदार": 7594,
      "तलाशी": 7595,
      "तूफान": 7596,
      "रिलायंस": 7597,
      "छेड़छाड़": 7598,
      "दीपावली": 7599,
      "पॉलिसी": 7600,
      "83": 7601,
      "ग़": 7602,
      "लाह": 7603,
      "##ेस": 7604,
      "##ख्त": 7605,
      "माफिया": 7606,
      "बेस्ट": 7607,
      "सबके": 7608,
      "##ज़ी": 7609,
      "##ंसक": 7610,
      "पुणे": 7611,
      "न्यायमूर्ति": 7612,
      "विद्यालयों": 7613,
      "स्पीड": 7614,
      "गाजियाबाद": 7615,
      "##क्षेप": 7616,
      "आपराधिक": 7617,
      "चिट": 7618,
      "बोर": 7619,
      "वेल": 7620,
      "सऊ": 7621,
      "##ूली": 7622,
      "केदार": 7623,
      "##वाज": 7624,
      "एकमात्र": 7625,
      "महत्": 7626,
      "रामपुर": 7627,
      "##म्न": 7628,
      "प्रयासों": 7629,
      "##ड्डे": 7630,
      "रणवीर": 7631,
      "हड़कंप": 7632,
      "##मिशन": 7633,
      "भागीदारी": 7634,
      "79": 7635,
      "com": 7636,
      "घेर": 7637,
      "पाली": 7638,
      "##रक": 7639,
      "##ार्स": 7640,
      "पीसी": 7641,
      "पार्किंग": 7642,
      "मांगने": 7643,
      "परीक्षाओं": 7644,
      "मिड": 7645,
      "सेंसेक्स": 7646,
      "विषयों": 7647,
      "श्रद्धा": 7648,
      "नतीजे": 7649,
      "रोमां": 7650,
      "##ांतरण": 7651,
      "धोखाध": 7652,
      "पोषण": 7653,
      "शोषण": 7654,
      "गोविंद": 7655,
      "अर्था": 7656,
      "मजदूरी": 7657,
      "##िक्सल": 7658,
      "आखिरकार": 7659,
      "##ग्रहण": 7660,
      "डिवाइस": 7661,
      "धाम": 7662,
      "##लक": 7663,
      "##ंथ": 7664,
      "##थाम": 7665,
      "##ेंच": 7666,
      "##र्धा": 7667,
      "स्नात": 7668,
      "राजमार्ग": 7669,
      "देखिए": 7670,
      "सैनी": 7671,
      "डाले": 7672,
      "समर्थक": 7673,
      "पाठक": 7674,
      "दुबई": 7675,
      "##वेल": 7676,
      "##टीसी": 7677,
      "सिखा": 7678,
      "##प्ट": 7679,
      "लीला": 7680,
      "वाणिज्य": 7681,
      "मतगणना": 7682,
      "एमपी": 7683,
      "अर्पित": 7684,
      "सांसदों": 7685,
      "अलीगढ़": 7686,
      "सॉफ्ट": 7687,
      "सर्वोच्च": 7688,
      "मुरादाबाद": 7689,
      "81": 7690,
      "गर्व": 7691,
      "##तू": 7692,
      "##अर": 7693,
      "काटने": 7694,
      "##वाड़ी": 7695,
      "लेती": 7696,
      "मात": 7697,
      "स्थायी": 7698,
      "##्लू": 7699,
      "##ंटन": 7700,
      "##आईसी": 7701,
      "सुरेंद्र": 7702,
      "##म्बे": 7703,
      "एनडीए": 7704,
      "शेड": 7705,
      "कृष्णा": 7706,
      "प्रोफ": 7707,
      "250": 7708,
      "बनेगा": 7709,
      "क्वि": 7710,
      "##ide": 7711,
      "अभिनय": 7712,
      "जेएनएन": 7713,
      "जमी": 7714,
      "तर्क": 7715,
      "रवी": 7716,
      "वाइ": 7717,
      "शोक": 7718,
      "##कतों": 7719,
      "##नम": 7720,
      "##hat": 7721,
      "##श्री": 7722,
      "##वाड़": 7723,
      "##्यांकन": 7724,
      "राजू": 7725,
      "अनुरा": 7726,
      "पहुँच": 7727,
      "खुली": 7728,
      "परीक्ष": 7729,
      "##फ़ी": 7730,
      "धरती": 7731,
      "चैंपियनशिप": 7732,
      "मैनेजमेंट": 7733,
      "छठ": 7734,
      "ढा": 7735,
      "पच": 7736,
      "कारा": 7737,
      "जानकार": 7738,
      "पड़ती": 7739,
      "कुलपति": 7740,
      "चालकों": 7741,
      "सीएमओ": 7742,
      "संस्थाओं": 7743,
      "चांद": 7744,
      "धोखाधड़ी": 7745,
      "कहर": 7746,
      "रथ": 7747,
      "लू": 7748,
      "वरु": 7749,
      "##फाइनल": 7750,
      "अपलोड": 7751,
      "##माइ": 7752,
      "नाकाम": 7753,
      "निर्देशित": 7754,
      "मंत्रिमंडल": 7755,
      "सैनिट": 7756,
      "एंड्र": 7757,
      "प्रत्याशियों": 7758,
      "कच्चे": 7759,
      "चौराहे": 7760,
      "##प्रतिनि": 7761,
      "सऊदी": 7762,
      "##चेंज": 7763,
      "##एप": 7764,
      "प्रॉ": 7765,
      "अनुष्का": 7766,
      "निर्देशों": 7767,
      "##िकोण": 7768,
      "टेक्न": 7769,
      "गिल": 7770,
      "नसी": 7771,
      "पटा": 7772,
      "रसो": 7773,
      "##पचारिक": 7774,
      "##हाद": 7775,
      "##ंगाना": 7776,
      "##विजय": 7777,
      "हिट": 7778,
      "जनप्रतिनि": 7779,
      "दर्जनों": 7780,
      "....": 7781,
      "2007": 7782,
      "##न्दर": 7783,
      "गर्ल": 7784,
      "कस्बे": 7785,
      "सराहना": 7786,
      "सेल्सियस": 7787,
      "पाइप": 7788,
      "इजाजत": 7789,
      "पाठ्यक्रम": 7790,
      "गार": 7791,
      "नकारात्मक": 7792,
      "##णु": 7793,
      "##ण्य": 7794,
      "बाघ": 7795,
      "कुंड": 7796,
      "मिलना": 7797,
      "दीक्षित": 7798,
      "मांगे": 7799,
      "घटनाएं": 7800,
      "दवाओं": 7801,
      "शुभकाम": 7802,
      "जितनी": 7803,
      "कमलनाथ": 7804,
      "अधिसूचना": 7805,
      "वेस्टइंडीज": 7806,
      "ऑप": 7807,
      "नृत्य": 7808,
      "उपरा": 7809,
      "गुप्त": 7810,
      "वाक": 7811,
      "एनएच": 7812,
      "खेलते": 7813,
      "रोकथाम": 7814,
      "रिक्त": 7815,
      "विपरीत": 7816,
      "अंकित": 7817,
      "लंबा": 7818,
      "बुनियादी": 7819,
      "अक्त": 7820,
      "आब": 7821,
      "ख्याल": 7822,
      "लाई": 7823,
      "##धानिक": 7824,
      "पार्टन": 7825,
      "सैफ": 7826,
      "पटरी": 7827,
      "प्रत्यक्ष": 7828,
      "बोलने": 7829,
      "तृण": 7830,
      "दायरे": 7831,
      "UP": 7832,
      "रेंज": 7833,
      "वाई": 7834,
      "##वर्ड": 7835,
      "केश": 7836,
      "##ड़ियां": 7837,
      "##तिर": 7838,
      "##ासा": 7839,
      "##पीएस": 7840,
      "##एमएस": 7841,
      "संयोजक": 7842,
      "भूख": 7843,
      "आश्रम": 7844,
      "तेलंगाना": 7845,
      "पर्यटकों": 7846,
      "बायो": 7847,
      "IP": 7848,
      "भड़": 7849,
      "भक्ति": 7850,
      "##डोर": 7851,
      "परा": 7852,
      "आमंत्रित": 7853,
      "##वाइंट": 7854,
      "बहुमत": 7855,
      "कॉन्फ्रेंस": 7856,
      "टाइगर": 7857,
      "आईएएनएस": 7858,
      "हार्दिक": 7859,
      "शता": 7860,
      "##टके": 7861,
      "##ैग": 7862,
      "देनी": 7863,
      "अवश्य": 7864,
      "यूजर": 7865,
      "मांस": 7866,
      "दुकानदारों": 7867,
      "##and": 7868,
      "जितेंद्र": 7869,
      "सावधानी": 7870,
      "हसन": 7871,
      "##ड्र": 7872,
      "##GB": 7873,
      "##स्को": 7874,
      "भीम": 7875,
      "मामूली": 7876,
      "पेशे": 7877,
      "दृष्ट": 7878,
      "रिटर्न": 7879,
      "मल्टी": 7880,
      "बुलंद": 7881,
      "प्रमोद": 7882,
      "फैक्ट्री": 7883,
      "अक्तूबर": 7884,
      "दोग": 7885,
      "बृ": 7886,
      "भगत": 7887,
      "##od": 7888,
      "##he": 7889,
      "केयर": 7890,
      "##िएट": 7891,
      "संह": 7892,
      "सरदार": 7893,
      "आरबीआई": 7894,
      "बैंकिंग": 7895,
      "साइड": 7896,
      "मुसलमानों": 7897,
      "कोयला": 7898,
      "मोटरसाइकिल": 7899,
      "उद्ध": 7900,
      "गंदगी": 7901,
      "जौ": 7902,
      "##og": 7903,
      "##ID": 7904,
      "टीके": 7905,
      "डिफ": 7906,
      "करीना": 7907,
      "सर्जरी": 7908,
      "छोड़ा": 7909,
      "भूकंप": 7910,
      "विवादित": 7911,
      "एचडी": 7912,
      "नमू": 7913,
      "नितिन": 7914,
      "तृणमूल": 7915,
      "Hindi": 7916,
      "आस्था": 7917,
      "ढूं": 7918,
      "भाइयों": 7919,
      "हरे": 7920,
      "##बानी": 7921,
      "बाब": 7922,
      "विहार": 7923,
      "युग": 7924,
      "बोतल": 7925,
      "व्हाट्स": 7926,
      "उर्": 7927,
      "जश्न": 7928,
      "पन": 7929,
      "बिर": 7930,
      "##op": 7931,
      "स्वि": 7932,
      "10वीं": 7933,
      "##र्फ्यू": 7934,
      "##लाइट": 7935,
      "जीतकर": 7936,
      "##एचओ": 7937,
      "हॉल": 7938,
      "संतुल": 7939,
      "स्वीकृति": 7940,
      "सौंपी": 7941,
      "चरम": 7942,
      "76": 7943,
      "आरा": 7944,
      "उज": 7945,
      "##ाराम": 7946,
      "संस्कृत": 7947,
      "निस्त": 7948,
      "##ष्कार": 7949,
      "##पीएफ": 7950,
      "आईडी": 7951,
      "प्राप्ति": 7952,
      "करीबी": 7953,
      "जगदी": 7954,
      "सर्च": 7955,
      "गृहमंत्री": 7956,
      "उतना": 7957,
      "मेहता": 7958,
      "हरीश": 7959,
      "अमरीका": 7960,
      "जख्मी": 7961,
      "परिचालन": 7962,
      "05": 7963,
      "##ैम": 7964,
      "बाह": 7965,
      "महि": 7966,
      "मेज": 7967,
      "सबूत": 7968,
      "बहाल": 7969,
      "शिक्षण": 7970,
      "बर्बाद": 7971,
      "सर्वेक्षण": 7972,
      "ट्रांसफर": 7973,
      "विनय": 7974,
      "वरुण": 7975,
      "नंद": 7976,
      "पवार": 7977,
      "फरी": 7978,
      "सेवान": 7979,
      "प्रवी": 7980,
      "प्राइम": 7981,
      "आपस": 7982,
      "##देशक": 7983,
      "खुफिया": 7984,
      "मनमोहन": 7985,
      "भाग्य": 7986,
      "1000": 7987,
      "सम्बन्": 7988,
      "डोनाल्ड": 7989,
      "##ट्रिक": 7990,
      "मुआवजा": 7991,
      "इंद्र": 7992,
      "कन": 7993,
      "छीन": 7994,
      "झां": 7995,
      "ठोस": 7996,
      "रिव": 7997,
      "तोमर": 7998,
      "कुंभ": 7999,
      "दोस्ती": 8000,
      "बनता": 8001,
      "##ेंसिंग": 8002,
      "जवाहर": 8003,
      "फुटेज": 8004,
      "आवेद": 8005,
      "ऊंचाई": 8006,
      "रत्": 8007,
      "हौ": 8008,
      "##्टर": 8009,
      "बीत": 8010,
      "चौंका": 8011,
      "एक्सचेंज": 8012,
      "##पेयी": 8013,
      "सिद्धू": 8014,
      "लैस": 8015,
      "नकली": 8016,
      "अभिभावकों": 8017,
      "संहिता": 8018,
      "98": 8019,
      "आँ": 8020,
      "इर": 8021,
      "##ॉस": 8022,
      "##ौत": 8023,
      "##मंत्र": 8024,
      "##ियर्स": 8025,
      "##न्यास": 8026,
      "सावधान": 8027,
      "बुकिंग": 8028,
      "मानक": 8029,
      "195": 8030,
      "भारतीयों": 8031,
      "पड़ोस": 8032,
      "##ीरपुर": 8033,
      "मूल्यांकन": 8034,
      "देवेंद्र": 8035,
      "।''": 8036,
      "परियोजनाओं": 8037,
      "प्लास्टिक": 8038,
      "नकदी": 8039,
      "श्रद्धालु": 8040,
      "तथ्य": 8041,
      "वसूल": 8042,
      "इंस्टीट्यूट": 8043,
      "सेवानिव": 8044,
      "96": 8045,
      "आधी": 8046,
      "भ्रमण": 8047,
      "##फरी": 8048,
      "##आउट": 8049,
      "##नाश": 8050,
      "##जेक्शन": 8051,
      "बैठने": 8052,
      "##धीर": 8053,
      "समझने": 8054,
      "##श्यप": 8055,
      "खरीदा": 8056,
      "अधिकारों": 8057,
      "फ्लैट": 8058,
      "##िपल": 8059,
      "##पंथी": 8060,
      "##शिंगटन": 8061,
      "कामकाज": 8062,
      "94": 8063,
      "स्रो": 8064,
      "’’": 8065,
      "##गरी": 8066,
      "##ूद": 8067,
      "राखी": 8068,
      "मेघ": 8069,
      "एससी": 8070,
      "पारिवार": 8071,
      "निपट": 8072,
      "कांस्टेबल": 8073,
      "दरवाजे": 8074,
      "सिंधिया": 8075,
      "स्टोरेज": 8076,
      "धमाके": 8077,
      "औष": 8078,
      "वास": 8079,
      "##रन": 8080,
      "##भूत": 8081,
      "##र्की": 8082,
      "##नामा": 8083,
      "सुने": 8084,
      "सीआरपी": 8085,
      "लाए": 8086,
      "अंश": 8087,
      "पुत्री": 8088,
      "नीतियों": 8089,
      "सदस्यता": 8090,
      "क्वाल": 8091,
      "पूर्णिमा": 8092,
      "उतरे": 8093,
      "फाउंड": 8094,
      "प्रतिबंधित": 8095,
      "लकड़ी": 8096,
      "प्रवीण": 8097,
      "पारिवारिक": 8098,
      "86": 8099,
      "ठगी": 8100,
      "##फार्म": 8101,
      "##झाने": 8102,
      "प्राय": 8103,
      "महतो": 8104,
      "##श्‍": 8105,
      "##प्ल": 8106,
      "पाता": 8107,
      "अम्": 8108,
      "अगला": 8109,
      "##ट्टर": 8110,
      "चयनित": 8111,
      "चिकित्सालय": 8112,
      "##फ्रेंड": 8113,
      "किराया": 8114,
      "वस्तुओं": 8115,
      "ललित": 8116,
      "आयुर्वेद": 8117,
      "पठान": 8118,
      "जगदीश": 8119,
      "चेत": 8120,
      "मदन": 8121,
      "##ारायण": 8122,
      "उपज": 8123,
      "तेजस्वी": 8124,
      "रिश्ता": 8125,
      "लिहाज": 8126,
      "अनाज": 8127,
      "सेमीफाइनल": 8128,
      "09": 8129,
      "अजीत": 8130,
      "फट": 8131,
      "प्रोट": 8132,
      "##क्व": 8133,
      "##किट": 8134,
      "जिसमे": 8135,
      "प्रतिबद्ध": 8136,
      "लिप": 8137,
      "भरत": 8138,
      "मिठ": 8139,
      "##लिटी": 8140,
      "परेशानियों": 8141,
      "##क्‍स": 8142,
      "उन्हीं": 8143,
      "ब्राह्मण": 8144,
      "अन्न": 8145,
      "कश्यप": 8146,
      "डिम": 8147,
      "फीड": 8148,
      "दिखने": 8149,
      "खोले": 8150,
      "लंबित": 8151,
      "अकाद": 8152,
      "##ोदय": 8153,
      "दिलचस्प": 8154,
      "87": 8155,
      "दां": 8156,
      "##ुरी": 8157,
      "##शिक": 8158,
      "##इंट": 8159,
      "##ल्टी": 8160,
      "कहे": 8161,
      "एनजी": 8162,
      "सिलसिले": 8163,
      "फिल्‍म": 8164,
      "03": 8165,
      "खाम": 8166,
      "रंज": 8167,
      "##बली": 8168,
      "##ौरी": 8169,
      "##स्य": 8170,
      "##दरी": 8171,
      "जाग": 8172,
      "बाधित": 8173,
      "सीएचसी": 8174,
      "##प्पी": 8175,
      "बनना": 8176,
      "शास्त्री": 8177,
      "पेशकश": 8178,
      "कमीशन": 8179,
      "निभाई": 8180,
      "बघेल": 8181,
      "दुल्": 8182,
      "##ॉनिक": 8183,
      "##थान": 8184,
      "##ंगत": 8185,
      "संस्करण": 8186,
      "उन्होने": 8187,
      "अमन": 8188,
      "चौथी": 8189,
      "##न्नत": 8190,
      "उमेश": 8191,
      "हल्की": 8192,
      "नागपुर": 8193,
      "तृतीय": 8194,
      "मुजफ्फरपुर": 8195,
      "88": 8196,
      "अंधे": 8197,
      "ईद": 8198,
      "कर्फ्यू": 8199,
      "चन्द्र": 8200,
      "टूर": 8201,
      "##गारी": 8202,
      "##यु": 8203,
      "##लांग": 8204,
      "संज्ञान": 8205,
      "निंदा": 8206,
      "मेयर": 8207,
      "अमल": 8208,
      "भागने": 8209,
      "पीछा": 8210,
      "लौटा": 8211,
      "भूषण": 8212,
      "##रीबन": 8213,
      "फीचर्स": 8214,
      "छिपा": 8215,
      "शैली": 8216,
      "पार्टनर": 8217,
      "ऑर्डर": 8218,
      "फार": 8219,
      "रौ": 8220,
      "सिल्": 8221,
      "##ुली": 8222,
      "##दायक": 8223,
      "##पीठ": 8224,
      "बीए": 8225,
      "अवस्था": 8226,
      "प्लस": 8227,
      "तुलसी": 8228,
      "दोषियों": 8229,
      "स्टील": 8230,
      "क्षतिग्रस्त": 8231,
      "आलिया": 8232,
      "इव": 8233,
      "कड़ा": 8234,
      "खुरा": 8235,
      "##पिंग": 8236,
      "देन": 8237,
      "सीरिया": 8238,
      "बैल": 8239,
      "सूचक": 8240,
      "विक्रे": 8241,
      "उच्चतम": 8242,
      "कप्तानी": 8243,
      "पहनने": 8244,
      "एशियाई": 8245,
      "मजाक": 8246,
      "जदयू": 8247,
      "किलोग्राम": 8248,
      "अनुराग": 8249,
      "89": 8250,
      "आसार": 8251,
      "आलू": 8252,
      "कबीर": 8253,
      "लांच": 8254,
      "##ुसार": 8255,
      "जाट": 8256,
      "##रीबी": 8257,
      "##िलाई": 8258,
      "##ाइक": 8259,
      "पाकर": 8260,
      "मोड": 8261,
      "बिहारी": 8262,
      "पैनल": 8263,
      "##श्वत": 8264,
      "##तमंद": 8265,
      "सिद्धांत": 8266,
      "कूद": 8267,
      "दिग्विजय": 8268,
      "चमक": 8269,
      "फिटनेस": 8270,
      "अन्त": 8271,
      "प्रोत्साहित": 8272,
      "##िफिकेशन": 8273,
      "बृहस्पतिवार": 8274,
      "आभार": 8275,
      "पान": 8276,
      "पाना": 8277,
      "लैंड": 8278,
      "##निस": 8279,
      "##डेंट": 8280,
      "##क्टे": 8281,
      "##माज": 8282,
      "##ंडों": 8283,
      "##जीपुर": 8284,
      "बारह": 8285,
      "लाठी": 8286,
      "सालाना": 8287,
      "बेटियों": 8288,
      "उतारा": 8289,
      "अभ्यर्थी": 8290,
      "सुर्खियों": 8291,
      "फतेह": 8292,
      "आड": 8293,
      "आत्मा": 8294,
      "ख्": 8295,
      "मकर": 8296,
      "संपाद": 8297,
      "##्रेसी": 8298,
      "कमाल": 8299,
      "जीव": 8300,
      "चलाई": 8301,
      "उठाकर": 8302,
      "##कलन": 8303,
      "वीरेंद्र": 8304,
      "क्रमश": 8305,
      "##न्वयन": 8306,
      "पुष्प": 8307,
      "ग्राउंड": 8308,
      "Ch": 8309,
      "ओब": 8310,
      "बलि": 8311,
      "शैल": 8312,
      "##पोर": 8313,
      "##सनी": 8314,
      "##णिक": 8315,
      "नेहा": 8316,
      "परेड": 8317,
      "##वाकर": 8318,
      "##लेन": 8319,
      "बचत": 8320,
      "एडमिशन": 8321,
      "दामों": 8322,
      "शासित": 8323,
      "मिसाइल": 8324,
      "आकर्षित": 8325,
      "##कॉम": 8326,
      "कनाडा": 8327,
      "##सोलेशन": 8328,
      "गहरी": 8329,
      "जड़": 8330,
      "नायक": 8331,
      "सज": 8332,
      "सिंघ": 8333,
      "अनि": 8334,
      "सोचा": 8335,
      "निर्देशन": 8336,
      "योग्यता": 8337,
      "गाड़ियों": 8338,
      "हत्याकांड": 8339,
      "चाकू": 8340,
      "त्रिव": 8341,
      "आवागमन": 8342,
      "प्राथमिकी": 8343,
      "खुलने": 8344,
      "सशक्त": 8345,
      "कल्पना": 8346,
      "दोगु": 8347,
      "गला": 8348,
      "पारा": 8349,
      "##ip": 8350,
      "##थल": 8351,
      "##WE": 8352,
      "विम": 8353,
      "##ढ़ा": 8354,
      "##दाद": 8355,
      "परिचय": 8356,
      "कोरोनावायरस": 8357,
      "नाटक": 8358,
      "पैन": 8359,
      "##म्‍": 8360,
      "श्रीमती": 8361,
      "टेबल": 8362,
      "बसें": 8363,
      "##ट्टे": 8364,
      "बालक": 8365,
      "##ate": 8366,
      "हिस्सेदारी": 8367,
      "दस्तावे": 8368,
      "यूरोपीय": 8369,
      "आवंट": 8370,
      "गुलाब": 8371,
      "अगुवाई": 8372,
      "यमुना": 8373,
      "आश्च": 8374,
      "नाले": 8375,
      "पिक": 8376,
      "शिल": 8377,
      "##हाना": 8378,
      "##दृ": 8379,
      "##ोंग": 8380,
      "साधारण": 8381,
      "##ष्क": 8382,
      "कमर": 8383,
      "कैसा": 8384,
      "##ंटाइन": 8385,
      "खातों": 8386,
      "आयात": 8387,
      "मृतकों": 8388,
      "लैपट": 8389,
      "दबो": 8390,
      "अंदाजा": 8391,
      "सेकेंड": 8392,
      "गोदाम": 8393,
      "फायदेमंद": 8394,
      "डेब्यू": 8395,
      "आकलन": 8396,
      "चित": 8397,
      "निया": 8398,
      "रित": 8399,
      "शेट": 8400,
      "##ment": 8401,
      "##ानंद": 8402,
      "##तिथि": 8403,
      "तकरीबन": 8404,
      "##वंश": 8405,
      "बैन": 8406,
      "फैशन": 8407,
      "रिपोर्ट्स": 8408,
      "धर्मशाला": 8409,
      "लक्ष्मण": 8410,
      "शरीफ": 8411,
      "फैलाने": 8412,
      "इलेक्ट्रिक": 8413,
      "प्रकोप": 8414,
      "सीआरपीएफ": 8415,
      "आश्चर्य": 8416,
      "WWE": 8417,
      "##ुष": 8418,
      "##खल": 8419,
      "##ड्स": 8420,
      "##एसी": 8421,
      "##़ी": 8422,
      "केके": 8423,
      "##र्चे": 8424,
      "विफल": 8425,
      "निम्न": 8426,
      "अनुबंध": 8427,
      "गुहार": 8428,
      "सहार": 8429,
      "सहकारी": 8430,
      "##च्छेद": 8431,
      "मानने": 8432,
      "सकेगी": 8433,
      "रोडवेज": 8434,
      "दिसम्बर": 8435,
      "पहलवान": 8436,
      "##निर्भर": 8437,
      "ढूंढ": 8438,
      "पुत": 8439,
      "##बैक": 8440,
      "##थियों": 8441,
      "इसने": 8442,
      "संपूर्ण": 8443,
      "सुस": 8444,
      "लगाएं": 8445,
      "चेकिंग": 8446,
      "##ट्ठा": 8447,
      "चाचा": 8448,
      "रोगी": 8449,
      "एसडीओ": 8450,
      "दहेज": 8451,
      "दरवाजा": 8452,
      "जनसं": 8453,
      "छानबीन": 8454,
      "82": 8455,
      "97": 8456,
      "चर्च": 8457,
      "##nd": 8458,
      "##ेंजर": 8459,
      "##नामी": 8460,
      "##विश्वास": 8461,
      "##ोजित": 8462,
      "बहू": 8463,
      "वाटर": 8464,
      "ट्रेडिंग": 8465,
      "जेब": 8466,
      "सर्दी": 8467,
      "शिकायतों": 8468,
      "बोलते": 8469,
      "जायसवाल": 8470,
      "रिश्तेदार": 8471,
      "सुल्त": 8472,
      "उपकरणों": 8473,
      "ग्लोबल": 8474,
      "बौद्ध": 8475,
      "शिशु": 8476,
      "शताब्दी": 8477,
      "टेल": 8478,
      "दंप": 8479,
      "नर्म": 8480,
      "मारी": 8481,
      "वाम": 8482,
      "##ौदा": 8483,
      "##तिया": 8484,
      "##ारस": 8485,
      "##स्सी": 8486,
      "सूचित": 8487,
      "नाबाद": 8488,
      "##क्ट्रेट": 8489,
      "##आईए": 8490,
      "डीएसपी": 8491,
      "शिकायतें": 8492,
      "दुनियाभर": 8493,
      "श्रेय": 8494,
      "उन्‍हें": 8495,
      "भोजपुरी": 8496,
      "आंगनबाड़ी": 8497,
      "08": 8498,
      "कव": 8499,
      "चक": 8500,
      "जं": 8501,
      "टेंडर": 8502,
      "वहाँ": 8503,
      "हमीरपुर": 8504,
      "कहता": 8505,
      "##िकाओं": 8506,
      "यूएस": 8507,
      "##बेडकर": 8508,
      "हॉकी": 8509,
      "टैग": 8510,
      "चुनौ": 8511,
      "चरणों": 8512,
      "गड़बड़ी": 8513,
      "इमारत": 8514,
      "सुपरस्टार": 8515,
      "खुराक": 8516,
      "91": 8517,
      "93": 8518,
      "St": 8519,
      "बंदी": 8520,
      "##िस्टर": 8521,
      "##शहर": 8522,
      "##णों": 8523,
      "प्रकट": 8524,
      "स्किन": 8525,
      "##लेरिया": 8526,
      "##जीवन": 8527,
      "पीटा": 8528,
      "पीडि़": 8529,
      "दर्जा": 8530,
      "एसओ": 8531,
      "अवतार": 8532,
      "रेत": 8533,
      "##कुश": 8534,
      "स्वीकृत": 8535,
      "लड़कियां": 8536,
      "शुक्ल": 8537,
      "फैलने": 8538,
      "##्योरिटी": 8539,
      "उज्जैन": 8540,
      "अल्पसंख्यक": 8541,
      "##ap": 8542,
      "##्रु": 8543,
      "जोड़े": 8544,
      "रिश्वत": 8545,
      "बुद्धि": 8546,
      "पुण्य": 8547,
      "छाया": 8548,
      "गोप": 8549,
      "मार्क": 8550,
      "केंद्रित": 8551,
      "प्रदर्शित": 8552,
      "बजकर": 8553,
      "वृक्ष": 8554,
      "निशाने": 8555,
      "पंजीकृत": 8556,
      "झूठ": 8557,
      "प्रोडक्ट": 8558,
      "तत्वों": 8559,
      "हस्तक्षेप": 8560,
      "बृज": 8561,
      "शेट्टी": 8562,
      "इत्या": 8563,
      "घात": 8564,
      "अनदे": 8565,
      "##रेख": 8566,
      "टीचर": 8567,
      "वेरिएंट": 8568,
      "इंकार": 8569,
      "मनरेगा": 8570,
      "चिद": 8571,
      "सदस्यीय": 8572,
      "शाहिद": 8573,
      "नतीजा": 8574,
      "ज्योतिष": 8575,
      "जॉब": 8576,
      "मेगाप": 8577,
      "रसोई": 8578,
      "इन्होंने": 8579,
      "तां": 8580,
      "मित": 8581,
      "##ंवर": 8582,
      "##वर्ष": 8583,
      "##इंग": 8584,
      "##ियाना": 8585,
      "स्ल": 8586,
      "##न्ने": 8587,
      "##त्तियों": 8588,
      "पहने": 8589,
      "##विजन": 8590,
      "पीढ़ी": 8591,
      "रुचि": 8592,
      "##पोरेट": 8593,
      "120": 8594,
      "चिह्न": 8595,
      "साइंस": 8596,
      "रैम": 8597,
      "धीमी": 8598,
      "उद्योगों": 8599,
      "जबरन": 8600,
      "आकर्षक": 8601,
      "##ण्डे": 8602,
      "दहशत": 8603,
      "डिस्प्ले": 8604,
      "पशुओं": 8605,
      "शुभकामनाएं": 8606,
      "92": 8607,
      "अड्डे": 8608,
      "उछ": 8609,
      "रमन": 8610,
      "##परी": 8611,
      "##oc": 8612,
      "निफ्टी": 8613,
      "सुष": 8614,
      "कम्यु": 8615,
      "सूबे": 8616,
      "##ख्यात": 8617,
      "कुल्लू": 8618,
      "प्रदर्शनी": 8619,
      "##स्‍त": 8620,
      "ख़ु": 8621,
      "स्वयंसे": 8622,
      "वायुसेना": 8623,
      "नीलामी": 8624,
      "विविध": 8625,
      "हेमंत": 8626,
      "of": 8627,
      "एजु": 8628,
      "बजर": 8629,
      "रिंग": 8630,
      "शत्र": 8631,
      "श्रा": 8632,
      "##बिन": 8633,
      "अधीन": 8634,
      "माध": 8635,
      "अबतक": 8636,
      "बैनर": 8637,
      "##ज़न": 8638,
      "अवकाश": 8639,
      "हेक्टे": 8640,
      "डालें": 8641,
      "व्ही": 8642,
      "एकत्रित": 8643,
      "सेल्फी": 8644,
      "उद्यम": 8645,
      "व्यावसाय": 8646,
      "अश्लील": 8647,
      "अरो": 8648,
      "आंतर": 8649,
      "कतार": 8650,
      "ज्‍या": 8651,
      "सक्": 8652,
      "हज़ार": 8653,
      "##ंठ": 8654,
      "##ईडी": 8655,
      "##SC": 8656,
      "##न्ट": 8657,
      "महंगा": 8658,
      "चुप": 8659,
      "रोशनी": 8660,
      "कैच": 8661,
      "नाव": 8662,
      "टेक": 8663,
      "जेपी": 8664,
      "निकाले": 8665,
      "आत्मनिर्भर": 8666,
      "किंग्स": 8667,
      "600": 8668,
      "800": 8669,
      "चैल": 8670,
      "फर्क": 8671,
      "##कल्प": 8672,
      "##डऩे": 8673,
      "##नाई": 8674,
      "राउंड": 8675,
      "जानना": 8676,
      "अनुच्छेद": 8677,
      "##डीह": 8678,
      "जेडी": 8679,
      "उठाते": 8680,
      "फेस": 8681,
      "दक्षिणी": 8682,
      "प्रतिनिधियों": 8683,
      "अंबानी": 8684,
      "रॉयल": 8685,
      "सीबीएसई": 8686,
      "कुर्सी": 8687,
      "अस्तित्व": 8688,
      "श्वे": 8689,
      "आंतरिक": 8690,
      "उग्र": 8691,
      "बहर": 8692,
      "भती": 8693,
      "##म्स": 8694,
      "##चरण": 8695,
      "जाप": 8696,
      "साक्षा": 8697,
      "कुशल": 8698,
      "बनाता": 8699,
      "कमान": 8700,
      "बनती": 8701,
      "एसएस": 8702,
      "क्रांति": 8703,
      "लीक": 8704,
      "सौदा": 8705,
      "असफल": 8706,
      "शिवा": 8707,
      "अंतरिक्ष": 8708,
      "आदत": 8709,
      "##वायु": 8710,
      "गाइडलाइन": 8711,
      "चिंतित": 8712,
      "गारंटी": 8713,
      "इत्यादि": 8714,
      "Cor": 8715,
      "कवाय": 8716,
      "खां": 8717,
      "खदान": 8718,
      "पाय": 8719,
      "शिर": 8720,
      "सभाग": 8721,
      "##परा": 8722,
      "##नै": 8723,
      "कालोनी": 8724,
      "परन्तु": 8725,
      "स्पोर्ट": 8726,
      "एकल": 8727,
      "##सीम": 8728,
      "समित": 8729,
      "राजेन्द्र": 8730,
      "हमलों": 8731,
      "महंत": 8732,
      "पीपी": 8733,
      "बैंड": 8734,
      "अमीर": 8735,
      "बोझ": 8736,
      "बोल्ड": 8737,
      "व्याख्या": 8738,
      "परीक्षाएं": 8739,
      "मोहल्ले": 8740,
      "आइसोलेशन": 8741,
      "हराकर": 8742,
      "इन्हीं": 8743,
      "सौरभ": 8744,
      "ज्‍यादा": 8745,
      "ईमेल": 8746,
      "गिन": 8747,
      "गवाह": 8748,
      "चिल्": 8749,
      "झड़": 8750,
      "ठप": 8751,
      "रैं": 8752,
      "लद्दा": 8753,
      "##्हा": 8754,
      "##जेंसी": 8755,
      "##डो": 8756,
      "##ंगिक": 8757,
      "##त्तम": 8758,
      "##जील": 8759,
      "सीतार": 8760,
      "मौर्य": 8761,
      "##पाट": 8762,
      "प्रशंसा": 8763,
      "कराकर": 8764,
      "##ंगाबाद": 8765,
      "गोलीबारी": 8766,
      "प्रस्तुति": 8767,
      "370": 8768,
      "नक्सली": 8769,
      "##ानुसार": 8770,
      "आडवाणी": 8771,
      "सहारनपुर": 8772,
      "सुषमा": 8773,
      "लद्दाख": 8774,
      "थानों": 8775,
      "बत": 8776,
      "मध": 8777,
      "शार": 8778,
      "##ce": 8779,
      "##ंत्रिक": 8780,
      "कार्यकार": 8781,
      "##वेस्ट": 8782,
      "दरों": 8783,
      "पेमेंट": 8784,
      "मोहल्ला": 8785,
      "रणबीर": 8786,
      "बहाने": 8787,
      "घूमने": 8788,
      "उत्साहित": 8789,
      "इलेक्ट्रॉनिक": 8790,
      "बेरोजगारी": 8791,
      "ट्रॉफी": 8792,
      "आवंटित": 8793,
      "आस्ट्रेलिया": 8794,
      "उभर": 8795,
      "गन्ना": 8796,
      "नाज": 8797,
      "भद": 8798,
      "यज्ञ": 8799,
      "##ोड़ा": 8800,
      "##यो": 8801,
      "##ूण": 8802,
      "##एगी": 8803,
      "##यात्रा": 8804,
      "राधा": 8805,
      "##सेन": 8806,
      "##लीला": 8807,
      "##द्व": 8808,
      "अनुदान": 8809,
      "कहकर": 8810,
      "##क्टर्स": 8811,
      "छापा": 8812,
      "पांड": 8813,
      "डेविड": 8814,
      "जलवायु": 8815,
      "एजेंट": 8816,
      "दिलाई": 8817,
      "विरासत": 8818,
      "टाइम्स": 8819,
      "क्वारंटाइन": 8820,
      "फाउंडेशन": 8821,
      "सुल्तान": 8822,
      "हेक्टेयर": 8823,
      "उजा": 8824,
      "गर्ग": 8825,
      "गरीबी": 8826,
      "जहर": 8827,
      "सिस": 8828,
      "हत्य": 8829,
      "##ॉड": 8830,
      "##ैश": 8831,
      "##न्ड": 8832,
      "##सेट": 8833,
      "सीन": 8834,
      "पाउ": 8835,
      "##वंशी": 8836,
      "##ून्य": 8837,
      "नीम": 8838,
      "शीत": 8839,
      "रोगियों": 8840,
      "गर्भ": 8841,
      "निस्तारण": 8842,
      "लैपटॉप": 8843,
      "जनसंख्या": 8844,
      "कवायद": 8845,
      "क्‍": 8846,
      "गायक": 8847,
      "डायल": 8848,
      "फंसा": 8849,
      "##धेश": 8850,
      "##स्पी": 8851,
      "स्मार": 8852,
      "अपार्टमेंट": 8853,
      "बनाएं": 8854,
      "बहनों": 8855,
      "वैध": 8856,
      "उठाना": 8857,
      "कीमतें": 8858,
      "##one": 8859,
      "विचारों": 8860,
      "छुट": 8861,
      "घुसपै": 8862,
      "बर्थ": 8863,
      "रियल": 8864,
      "वां": 8865,
      "##ंसी": 8866,
      "##षभ": 8867,
      "सेव": 8868,
      "सेले": 8869,
      "##वार्ड": 8870,
      "मुसी": 8871,
      "सोसाय": 8872,
      "##िकासी": 8873,
      "##न्नति": 8874,
      "##ूर्त": 8875,
      "चेन": 8876,
      "गौरी": 8877,
      "प्रसारण": 8878,
      "##ive": 8879,
      "बेरोजगार": 8880,
      "वाजपेयी": 8881,
      "मेगापिक्सल": 8882,
      "घुसपैठ": 8883,
      "):": 8884,
      "औपचारिक": 8885,
      "टाल": 8886,
      "त्य": 8887,
      "##कता": 8888,
      "##कला": 8889,
      "##िविटी": 8890,
      "##फेल": 8891,
      "##णियों": 8892,
      "##ुलकर": 8893,
      "##्यूशन": 8894,
      "पुरी": 8895,
      "##वादियों": 8896,
      "जेई": 8897,
      "##ियमित": 8898,
      "मनाई": 8899,
      "वोटिंग": 8900,
      "फॉलो": 8901,
      "ख़बर": 8902,
      "फील्ड": 8903,
      "धाराओं": 8904,
      "प्रतिनिधित्व": 8905,
      "समन्वय": 8906,
      "सब्सिडी": 8907,
      "म्यूजिक": 8908,
      "प्रोटोक": 8909,
      "एह": 8910,
      "ज्व": 8911,
      "पाये": 8912,
      "शॉप": 8913,
      "##श्ती": 8914,
      "प्रतिभाग": 8915,
      "चाहिये": 8916,
      "कांग्रेसी": 8917,
      "पूर्वा": 8918,
      "पॉल": 8919,
      "दिलाया": 8920,
      "हितों": 8921,
      "मासिक": 8922,
      "कमांडर": 8923,
      "07": 8924,
      "कड़े": 8925,
      "वस्त्र": 8926,
      "सभ": 8927,
      "##िथ": 8928,
      "##ुरू": 8929,
      "##राशि": 8930,
      "##ंबल": 8931,
      "डीपी": 8932,
      "डीआर": 8933,
      "मुहिम": 8934,
      "कठोर": 8935,
      "घटकर": 8936,
      "गेंदबाजों": 8937,
      "अत्यंत": 8938,
      "##ष्मान": 8939,
      "चिदंबर": 8940,
      "व्यावसायिक": 8941,
      "चैलेंज": 8942,
      "ईडी": 8943,
      "कंस": 8944,
      "टर्म": 8945,
      "धीर": 8946,
      "पला": 8947,
      "सर्ट": 8948,
      "##गें": 8949,
      "##ob": 8950,
      "##वण": 8951,
      "##ेशर": 8952,
      "जिसको": 8953,
      "रुपया": 8954,
      "मैक्स": 8955,
      "ब्लॉग": 8956,
      "संयंत्र": 8957,
      "सेंसर": 8958,
      "भावनाओं": 8959,
      "##कृष्ट": 8960,
      "पहाड़": 8961,
      "डीजीपी": 8962,
      "अर्धशत": 8963,
      "नर्मदा": 8964,
      "चिदंबरम": 8965,
      "आह": 8966,
      "घटा": 8967,
      "निकासी": 8968,
      "फोक": 8969,
      "भजन": 8970,
      "रतन": 8971,
      "शून्य": 8972,
      "सरोज": 8973,
      "##मिन": 8974,
      "##if": 8975,
      "##वामा": 8976,
      "##st": 8977,
      "##ंडो": 8978,
      "##रेटर": 8979,
      "##विदा": 8980,
      "सीएस": 8981,
      "जानता": 8982,
      "कामना": 8983,
      "बैड": 8984,
      "बहि": 8985,
      "स्वराज": 8986,
      "एमएस": 8987,
      "चीज़": 8988,
      "मीना": 8989,
      "पॉप": 8990,
      "मेडल": 8991,
      "निकालकर": 8992,
      "कारोबारियों": 8993,
      "एक्सपर्ट": 8994,
      "हटाया": 8995,
      "प्रिंट": 8996,
      "फुटबॉल": 8997,
      "कचरा": 8998,
      "महानिदेशक": 8999,
      "अर्थात": 9000,
      "आर्": 9001,
      "फर्म": 9002,
      "फेर": 9003,
      "।।": 9004,
      "##्वरी": 9005,
      "##खाने": 9006,
      "लगवाने": 9007,
      "रखती": 9008,
      "सहारे": 9009,
      "बुद्ध": 9010,
      "न्यूय": 9011,
      "हाथी": 9012,
      "उपलब्धि": 9013,
      "मीणा": 9014,
      "शोभा": 9015,
      "ड्रोन": 9016,
      "सलामी": 9017,
      "सम्प": 9018,
      "आयुष्मान": 9019,
      "बिल्डिंग": 9020,
      "मेहमान": 9021,
      "नैनी": 9022,
      "##कॉप्टर": 9023,
      "बर्फबारी": 9024,
      "फ्लाइट": 9025,
      "अधिग्रहण": 9026,
      "निचले": 9027,
      "अकादमी": 9028,
      "##पोरेशन": 9029,
      "कार्यकारिणी": 9030,
      "आहार": 9031,
      "गड": 9032,
      "मजे": 9033,
      "रच": 9034,
      "##वृ": 9035,
      "##केल": 9036,
      "संसार": 9037,
      "##राग": 9038,
      "##वीएम": 9039,
      "पाती": 9040,
      "जानवरों": 9041,
      "अभय": 9042,
      "108": 9043,
      "आरएसएस": 9044,
      "##शेखर": 9045,
      "##ज्ञा": 9046,
      "एमबी": 9047,
      "सचिवालय": 9048,
      "पीड़ितों": 9049,
      "##प्पल": 9050,
      "अध्यापक": 9051,
      "प्रोत्साहन": 9052,
      "क्लीन": 9053,
      "अमृतसर": 9054,
      "बेंगलुरु": 9055,
      "अग्नि": 9056,
      "अतुल": 9057,
      "डिस्टेंसिंग": 9058,
      "शिलान": 9059,
      "जहरी": 9060,
      "डोर": 9061,
      "डबल": 9062,
      "तबाद": 9063,
      "बवाल": 9064,
      "भोग": 9065,
      "वेट": 9066,
      "##सराय": 9067,
      "संक्र": 9068,
      "##सागर": 9069,
      "बेन": 9070,
      "अंकुश": 9071,
      "कामों": 9072,
      "पासपोर्ट": 9073,
      "नाक": 9074,
      "शाही": 9075,
      "डेवल": 9076,
      "गांग": 9077,
      "भागवत": 9078,
      "##पेक्ष": 9079,
      "निदेशालय": 9080,
      "नोडल": 9081,
      "स्नातक": 9082,
      "ओबामा": 9083,
      "अद्": 9084,
      "नदियों": 9085,
      "लघु": 9086,
      "##टिक": 9087,
      "##पाई": 9088,
      "##ौफ": 9089,
      "##tt": 9090,
      "##JP": 9091,
      "राघ": 9092,
      "##ाइजर": 9093,
      "बीस": 9094,
      "##ंटल": 9095,
      "कॉमे": 9096,
      "पारंप": 9097,
      "##एफसी": 9098,
      "भरोसे": 9099,
      "हथियारों": 9100,
      "महानगर": 9101,
      "आवंटन": 9102,
      "कॉमर्स": 9103,
      "पश्चात": 9104,
      "उद्धव": 9105,
      "सभागार": 9106,
      "06": 9107,
      "खरा": 9108,
      "दंड": 9109,
      "’,": 9110,
      "##ुद्दीन": 9111,
      "##ia": 9112,
      "##नेश्वर": 9113,
      "कोष": 9114,
      "##सेल": 9115,
      "##रेस्ट": 9116,
      "पुलवामा": 9117,
      "दीन": 9118,
      "##द्वारा": 9119,
      "##द्रोह": 9120,
      "मोट": 9121,
      "पीयू": 9122,
      "पैसों": 9123,
      "एमडी": 9124,
      "बनेगी": 9125,
      "आश्र": 9126,
      "सनसनी": 9127,
      "स्कूली": 9128,
      "डिमांड": 9129,
      "शत्रु": 9130,
      "दार": 9131,
      "फू": 9132,
      "##्न": 9133,
      "##फोड़": 9134,
      "##यर्स": 9135,
      "पैरों": 9136,
      "हाफ": 9137,
      "कृपा": 9138,
      "भागलपुर": 9139,
      "असिस्ट": 9140,
      "देवता": 9141,
      "नवम्बर": 9142,
      "गणित": 9143,
      "वोटों": 9144,
      "धरने": 9145,
      "अजमेर": 9146,
      "इमरजेंसी": 9147,
      "पदार्थों": 9148,
      "अस्थायी": 9149,
      "प्रीमियम": 9150,
      "दृष्टिकोण": 9151,
      "शिलान्यास": 9152,
      "चम्म": 9153,
      "झील": 9154,
      "धर्में": 9155,
      "बसे": 9156,
      "##भद्र": 9157,
      "##धनों": 9158,
      "प्रॉप": 9159,
      "##वाए": 9160,
      "राफेल": 9161,
      "सास": 9162,
      "राजने": 9163,
      "सुमन": 9164,
      "पहुंचते": 9165,
      "ट्रेंड": 9166,
      "घटनाक्रम": 9167,
      "ऑफिसर": 9168,
      "एजें": 9169,
      "खुलकर": 9170,
      "भेदभाव": 9171,
      "पारंपरिक": 9172,
      "एथ": 9173,
      "चो": 9174,
      "नान": 9175,
      "बलर": 9176,
      "माला": 9177,
      "शत": 9178,
      "हार्ट": 9179,
      "##टेल": 9180,
      "##मक": 9181,
      "##ri": 9182,
      "##शर": 9183,
      "##ओसी": 9184,
      "बाप": 9185,
      "##गीर": 9186,
      "अनंत": 9187,
      "आपसे": 9188,
      "##जाही": 9189,
      "एसिड": 9190,
      "जमशे": 9191,
      "जरूरतमंद": 9192,
      "2005": 9193,
      "दिखाते": 9194,
      "ट्रेनें": 9195,
      "जितने": 9196,
      "समूहों": 9197,
      "मुकदमे": 9198,
      "शहीदों": 9199,
      "कूड़ा": 9200,
      "क्वार्टर": 9201,
      "बढ़ेगी": 9202,
      "दायित्व": 9203,
      "भंडार": 9204,
      "दिव्यांग": 9205,
      "त्याग": 9206,
      "जुलूस": 9207,
      "इटली": 9208,
      "सब्जियों": 9209,
      "महापौर": 9210,
      "चम्मच": 9211,
      "धर्मेंद्र": 9212,
      "अन्ना": 9213,
      "खाल": 9214,
      "नशा": 9215,
      "पढ": 9216,
      "भटक": 9217,
      "हाज": 9218,
      "##स्ड": 9219,
      "##िशियल": 9220,
      "राज्यमंत्री": 9221,
      "आईजी": 9222,
      "पैट": 9223,
      "यूं": 9224,
      "पांव": 9225,
      "समझते": 9226,
      "अरु": 9227,
      "मिर्जा": 9228,
      "विदेशों": 9229,
      "कश्मी": 9230,
      "गणना": 9231,
      "संरचना": 9232,
      "कोचिंग": 9233,
      "##ist": 9234,
      "उतरने": 9235,
      "गाँधी": 9236,
      "मौलाना": 9237,
      "इवेंट": 9238,
      "सोसायटी": 9239,
      "गाली": 9240,
      "डब्ल्यू": 9241,
      "##डिय": 9242,
      "राख": 9243,
      "##माटर": 9244,
      "##्रेड": 9245,
      "माफ": 9246,
      "पिच": 9247,
      "ग्रो": 9248,
      "पाएगा": 9249,
      "##ण्डल": 9250,
      "चंदन": 9251,
      "इच्छुक": 9252,
      "##igh": 9253,
      "प्रीमियर": 9254,
      "दुल्हन": 9255,
      "टैं": 9256,
      "ट्यूब": 9257,
      "टमाटर": 9258,
      "मणि": 9259,
      "##पि": 9260,
      "##ैतिक": 9261,
      "##र्जन": 9262,
      "प्रका": 9263,
      "प्रवाह": 9264,
      "##स्वरूप": 9265,
      "##वाधिकार": 9266,
      "सोल": 9267,
      "अंज": 9268,
      "गुड़": 9269,
      "##देही": 9270,
      "कपड़ों": 9271,
      "लोकल": 9272,
      "युवराज": 9273,
      "मदर": 9274,
      "ऑफ़": 9275,
      "लिखने": 9276,
      "फ़ोन": 9277,
      "काटकर": 9278,
      ".’’": 9279,
      "इमाम": 9280,
      "कामयाबी": 9281,
      "सिक्योरिटी": 9282,
      "सच्चाई": 9283,
      "विश्लेषण": 9284,
      "ऊंची": 9285,
      "ऑप्शन": 9286,
      "नल": 9287,
      "पट्टी": 9288,
      "२०": 9289,
      "##BI": 9290,
      "जाँच": 9291,
      "बांस": 9292,
      "##न्ग": 9293,
      "##न्त": 9294,
      "देहा": 9295,
      "सुमित": 9296,
      "##ल्ली": 9297,
      "अनल": 9298,
      "##प्पू": 9299,
      "##जाबाद": 9300,
      "##निटी": 9301,
      "गुर्जर": 9302,
      "हाला": 9303,
      "महाग": 9304,
      "चलाते": 9305,
      "##रिटी": 9306,
      "नोटिफिकेशन": 9307,
      "ख़िला": 9308,
      "ऑस्ट्रेलियाई": 9309,
      "नकद": 9310,
      "रिटायर": 9311,
      "चरित्र": 9312,
      "कनेक्ट": 9313,
      "उजागर": 9314,
      "कन्न": 9315,
      "छक्के": 9316,
      "धारण": 9317,
      "सना": 9318,
      "##ॉर्क": 9319,
      "##सिया": 9320,
      "पराम": 9321,
      "स्क्र": 9322,
      "निवार": 9323,
      "कारों": 9324,
      "##स्तरीय": 9325,
      "बनते": 9326,
      "चौके": 9327,
      "मानवाधिकार": 9328,
      "बैठी": 9329,
      "कपड़ा": 9330,
      "2006": 9331,
      "धनराशि": 9332,
      "##िटीज": 9333,
      "संतु": 9334,
      "आवाजाही": 9335,
      "सोनम": 9336,
      "पंजीयन": 9337,
      "दस्तावेजों": 9338,
      "झड़प": 9339,
      "बलराम": 9340,
      "अंध": 9341,
      "ठग": 9342,
      "थम": 9343,
      "सान": 9344,
      "##eb": 9345,
      "##व्या": 9346,
      "कोषा": 9347,
      "राउ": 9348,
      "एकदम": 9349,
      "सीधी": 9350,
      "बारात": 9351,
      "सूद": 9352,
      "डील": 9353,
      "रेस": 9354,
      "125": 9355,
      "प्लेटफार्म": 9356,
      "##निर्माण": 9357,
      "अत्यधिक": 9358,
      "एडमिट": 9359,
      "निर्दलीय": 9360,
      "डिलीवरी": 9361,
      "प्रॉपर्टी": 9362,
      "कन्ह": 9363,
      "खन्ना": 9364,
      "तबी": 9365,
      "नक्": 9366,
      "फिज": 9367,
      "मप्र": 9368,
      "##णवी": 9369,
      "##ेशनों": 9370,
      "सिंगर": 9371,
      "##िमी": 9372,
      "ट्रां": 9373,
      "श्रीकृष्ण": 9374,
      "कराते": 9375,
      "एनएस": 9376,
      "धनबाद": 9377,
      "सितम्बर": 9378,
      "मार्गदर्शन": 9379,
      "##खेड़ा": 9380,
      "रहेंगी": 9381,
      "मंजूर": 9382,
      "उदयपुर": 9383,
      "पौधों": 9384,
      "रिक्शा": 9385,
      "गांगुली": 9386,
      "तबीयत": 9387,
      "गों": 9388,
      "पोष": 9389,
      "पेंट": 9390,
      "सरा": 9391,
      "##टम": 9392,
      "##ांशु": 9393,
      "##दाश्त": 9394,
      "उपहार": 9395,
      "मोर": 9396,
      "##सरत": 9397,
      "वैन": 9398,
      "आमद": 9399,
      "##ers": 9400,
      "संसाधनों": 9401,
      "माइक्रो": 9402,
      "सॉफ्टवेयर": 9403,
      "मुसीबत": 9404,
      "घड़ी": 9405,
      "झलक": 9406,
      "बया": 9407,
      "##ुट": 9408,
      "सेलि": 9409,
      "##ामे": 9410,
      "विनि": 9411,
      "मुन": 9412,
      "अनूप": 9413,
      "पाटी": 9414,
      "एसआई": 9415,
      "193": 9416,
      "समझना": 9417,
      "प्रदर्शनकारियों": 9418,
      "उपलब्धता": 9419,
      "##ine": 9420,
      "##स्‍तान": 9421,
      "ज्ञात": 9422,
      "बरतने": 9423,
      "आबकारी": 9424,
      "साक्षात्कार": 9425,
      "Coron": 9426,
      "परामर्श": 9427,
      "BJP": 9428,
      "चार्ट": 9429,
      "##बाई": 9430,
      "##ाग": 9431,
      "##जद": 9432,
      "##याम": 9433,
      "संभाग": 9434,
      "सिंगा": 9435,
      "पूनम": 9436,
      "अनो": 9437,
      "महल": 9438,
      "पीटी": 9439,
      "पुस्त": 9440,
      "दरबार": 9441,
      "बचें": 9442,
      "ब्लू": 9443,
      "जिम्": 9444,
      "विवादों": 9445,
      "पर्दा": 9446,
      "प्वाइंट": 9447,
      "रजनी": 9448,
      "ज़रूरत": 9449,
      "आंधी": 9450,
      "द्विवेदी": 9451,
      "रैंकिंग": 9452,
      "प्रकाशन": 9453,
      "इको": 9454,
      "झांसी": 9455,
      "शशि": 9456,
      "##कन": 9457,
      "##जिकल": 9458,
      "किंतु": 9459,
      "बाबत": 9460,
      "##लेवा": 9461,
      "देवर": 9462,
      "पाप": 9463,
      "जीने": 9464,
      "कार्यशाला": 9465,
      "रोहत": 9466,
      "##ard": 9467,
      "दुर्भाग्य": 9468,
      "सम्बंध": 9469,
      "बंधक": 9470,
      "रावण": 9471,
      "मंजिल": 9472,
      "पर्सनल": 9473,
      "अश्विन": 9474,
      "डिपार्टमेंट": 9475,
      "बहरहाल": 9476,
      "04": 9477,
      "तारा": 9478,
      "##ब्स": 9479,
      "##पने": 9480,
      "##हिया": 9481,
      "##्की": 9482,
      "##लत": 9483,
      "परिस": 9484,
      "स्वर": 9485,
      "##रात्रि": 9486,
      "अनियमित": 9487,
      "##्रेन": 9488,
      "बिछ": 9489,
      "कैल": 9490,
      "बनारस": 9491,
      "हाँ": 9492,
      "अन्यथा": 9493,
      "शुगर": 9494,
      "उठे": 9495,
      "मतभ": 9496,
      "खेलना": 9497,
      "##राज्य": 9498,
      "मील": 9499,
      "पंजाबी": 9500,
      "जताते": 9501,
      "गायत्री": 9502,
      "हल्के": 9503,
      "India": 9504,
      "बढ़ेगा": 9505,
      "भौतिक": 9506,
      "क्विंटल": 9507,
      "अनदेखी": 9508,
      "बहिष्कार": 9509,
      "विनिमय": 9510,
      "अखा": 9511,
      "अटक": 9512,
      "ग्री": 9513,
      "भ्रम": 9514,
      "मज़": 9515,
      "सत्": 9516,
      "##ोकर": 9517,
      "स्वाद": 9518,
      "देसी": 9519,
      "##टीक": 9520,
      "##ाइस": 9521,
      "दिनभर": 9522,
      "मेम": 9523,
      "बढ़ाई": 9524,
      "प्रतिस्प": 9525,
      "स्टोरी": 9526,
      "बुलाई": 9527,
      "यूट": 9528,
      "पेन": 9529,
      "प्रोटीन": 9530,
      "विचारधारा": 9531,
      "पड़ेगी": 9532,
      "छात्राएं": 9533,
      "रोगों": 9534,
      "फ्लू": 9535,
      "##सुन": 9536,
      "अभियुक्त": 9537,
      "व्यवसायी": 9538,
      "सेकंड": 9539,
      "##िफिकेट": 9540,
      "बजाए": 9541,
      "IPL": 9542,
      "फोकस": 9543,
      "अवार्ड": 9544,
      "ईरानी": 9545,
      "एएन": 9546,
      "घी": 9547,
      "भगा": 9548,
      "सटे": 9549,
      "##गार्ड": 9550,
      "##यरी": 9551,
      "##मीन": 9552,
      "##10": 9553,
      "##कोण": 9554,
      "रोष": 9555,
      "##्तार": 9556,
      "कॉपी": 9557,
      "##दर्शी": 9558,
      "योगेश": 9559,
      "साहस": 9560,
      "मिनी": 9561,
      "तुर्की": 9562,
      "उपायों": 9563,
      "मसले": 9564,
      "हिन्दु": 9565,
      "स्पीकर": 9566,
      "आक्रामक": 9567,
      "अटैक": 9568,
      "बेसिक": 9569,
      "त्यागी": 9570,
      "जहाज": 9571,
      "हेलीकॉप्टर": 9572,
      "जौहर": 9573,
      "उजाला": 9574,
      "ईंध": 9575,
      "एपी": 9576,
      "एएसपी": 9577,
      "नाला": 9578,
      "लायक": 9579,
      "वरीय": 9580,
      "##ामु": 9581,
      "संवेद": 9582,
      "कारगर": 9583,
      "तोड़ा": 9584,
      "रोटी": 9585,
      "स्टेशनों": 9586,
      "फैन्स": 9587,
      "महादेव": 9588,
      "डेरा": 9589,
      "कलश": 9590,
      "शाहज": 9591,
      "उपयोगी": 9592,
      "साइन": 9593,
      "फ्रेंच": 9594,
      "चंद्रमा": 9595,
      "पर्यटक": 9596,
      "जायेंगे": 9597,
      "भिड़": 9598,
      "स्कूटी": 9599,
      "दलितों": 9600,
      "लेनदेन": 9601,
      "आर्यन": 9602,
      "कुशवाहा": 9603,
      "ओपीडी": 9604,
      "स्पिनर": 9605,
      "डिफेंस": 9606,
      "सूचकांक": 9607,
      "जमशेदपुर": 9608,
      "700": 9609,
      "शमी": 9610,
      "##ृत्त": 9611,
      "##र्चित": 9612,
      "##ानगर": 9613,
      "नेगी": 9614,
      "##लीम": 9615,
      "##माव": 9616,
      "सुधीर": 9617,
      "हिद": 9618,
      "प्रतिपक्ष": 9619,
      "जनसभा": 9620,
      "इंजेक्शन": 9621,
      "##ंसू": 9622,
      "गोला": 9623,
      "खासी": 9624,
      "मिर्च": 9625,
      "दलाल": 9626,
      "तरीकों": 9627,
      "गतिविध": 9628,
      "##ीव्र": 9629,
      "इकाइयों": 9630,
      "सियासत": 9631,
      "जेएनयू": 9632,
      "एकाद": 9633,
      "हिंदुस्तान": 9634,
      "सत्यापन": 9635,
      "नवरात्र": 9636,
      "मुझसे": 9637,
      "प्रारूप": 9638,
      "ख़िलाफ़": 9639,
      "NC": 9640,
      "इनाम": 9641,
      "जरा": 9642,
      "झटके": 9643,
      "तीव्र": 9644,
      "नहा": 9645,
      "सिले": 9646,
      "##क्यू": 9647,
      "##xt": 9648,
      "##क्ल": 9649,
      "सावन": 9650,
      "अनिय": 9651,
      "##रेप": 9652,
      "उपयुक्त": 9653,
      "टीएमसी": 9654,
      "परिचित": 9655,
      "##जेक्ट": 9656,
      "आईआईटी": 9657,
      "युक्त": 9658,
      "गिरि": 9659,
      "योजनाएं": 9660,
      "दिखी": 9661,
      "गुरुग्राम": 9662,
      "वन्य": 9663,
      "टेस्टिंग": 9664,
      "अख्तर": 9665,
      "आकर्षण": 9666,
      "अजीब": 9667,
      "स्रोत": 9668,
      "सिंगापुर": 9669,
      "दांत": 9670,
      "नमाज": 9671,
      "बेश": 9672,
      "मसू": 9673,
      "##फुल": 9674,
      "##ub": 9675,
      "कोने": 9676,
      "साड़ी": 9677,
      "साधन": 9678,
      "टीबी": 9679,
      "जानलेवा": 9680,
      "फैन": 9681,
      "##...": 9682,
      "बोस": 9683,
      "पद्म": 9684,
      "आसन": 9685,
      "लाभार्थियों": 9686,
      "##लिस्ट": 9687,
      "एलान": 9688,
      "नर्सिंग": 9689,
      "हाइवे": 9690,
      "इशारा": 9691,
      "जनजाति": 9692,
      "ऊना": 9693,
      "सई": 9694,
      "##वड़ा": 9695,
      "##ठबंधन": 9696,
      "##ानन": 9697,
      "स्त्री": 9698,
      "##माया": 9699,
      "बीडीओ": 9700,
      "लाकर": 9701,
      "पाण्डे": 9702,
      "##ष्टमी": 9703,
      "सबका": 9704,
      "द्वीप": 9705,
      "उत्‍": 9706,
      "उत्तम": 9707,
      "उत्कृष्ट": 9708,
      "कहान": 9709,
      "##शीट": 9710,
      "चलाए": 9711,
      "##जुए": 9712,
      "कर्त": 9713,
      "वीं": 9714,
      "विमानों": 9715,
      "जूते": 9716,
      "कमलेश": 9717,
      "काउंटर": 9718,
      "बंधन": 9719,
      "चैम्प": 9720,
      "बीएसएफ": 9721,
      "घंटा": 9722,
      "हिमालय": 9723,
      "व्हाइट": 9724,
      "ब्राजील": 9725,
      "##नाइटेड": 9726,
      "चतुर्थ": 9727,
      "शिल्पा": 9728,
      "फरीदाबाद": 9729,
      "गूं": 9730,
      "टैंक": 9731,
      "##पमेंट": 9732,
      "##io": 9733,
      "##शियन": 9734,
      "काफ": 9735,
      "कागज": 9736,
      "##त्रियों": 9737,
      "साय": 9738,
      "##काव": 9739,
      "##गेड": 9740,
      "देशभ": 9741,
      "रिप": 9742,
      "पुजारी": 9743,
      "आरके": 9744,
      "वाशिंगटन": 9745,
      "##वासीय": 9746,
      "आमने": 9747,
      "सौदे": 9748,
      "खासतौर": 9749,
      "पर्दे": 9750,
      "##esh": 9751,
      "जलाने": 9752,
      "वकीलों": 9753,
      "कैंपस": 9754,
      "##ख्ता": 9755,
      "इरफान": 9756,
      "विमर्श": 9757,
      "एजुकेशन": 9758,
      "सर्टिफिकेट": 9759,
      "कश्मीरी": 9760,
      "फ्": 9761,
      "मलेरिया": 9762,
      "रेश": 9763,
      "##द्री": 9764,
      "##‍ि": 9765,
      "किले": 9766,
      "जाओ": 9767,
      "बीती": 9768,
      "एसबीआई": 9769,
      "कॉर्": 9770,
      "कराएं": 9771,
      "दाग": 9772,
      "बॉय": 9773,
      "व्यास": 9774,
      "एमएल": 9775,
      "2004": 9776,
      "फ्लोर": 9777,
      "शांतिपूर्ण": 9778,
      "सतर्कता": 9779,
      "प्रजापति": 9780,
[...]
