{
  "version": "1.0",
  "truncation": null,
  "padding": null,
  "added_tokens": [
    {
      "id": 0,
      "content": "[UNK]",
      "single_word": false,
      "lstrip": false,
      "rstrip": false,
      "normalized": false,
      "special": true
    },
    {
      "id": 1,
      "content": "[PAD]",
      "single_word": false,
      "lstrip": false,
      "rstrip": false,
      "normalized": false,
      "special": true
    },
    {
      "id": 2,
      "content": "[CLS]",
      "single_word": false,
      "lstrip": false,
      "rstrip": false,
      "normalized": false,
      "special": true
    },
    {
      "id": 3,
      "content": "[SEP]",
      "single_word": false,
      "lstrip": false,
      "rstrip": false,
      "normalized": false,
      "special": true
    },
    {
      "id": 4,
      "content": "[MASK]",
      "single_word": false,
      "lstrip": false,
      "rstrip": false,
      "normalized": false,
      "special": true
    }
  ],
  "normalizer": null,
  "pre_tokenizer": {
    "type": "ByteLevel",
    "add_prefix_space": true,
    "trim_offsets": true,
    "use_regex": true
  },
  "post_processor": null,
  "decoder": null,
  "model": {
    "type": "BPE",
    "dropout": null,
    "unk_token": "[UNK]",
    "continuing_subword_prefix": null,
    "end_of_word_suffix": null,
    "fuse_unk": false,
    "byte_fallback": false,
    "ignore_merges": false,
    "vocab": {
      "[UNK]": 0,
      "[PAD]": 1,
      "[CLS]": 2,
      "[SEP]": 3,
      "[MASK]": 4,
      "!": 5,
      "\"": 6,
      "#": 7,
      "$": 8,
      "%": 9,
      "&": 10,
      "'": 11,
      "(": 12,
      ")": 13,
      "*": 14,
      "+": 15,
      ",": 16,
      "-": 17,
      ".": 18,
      "/": 19,
      "0": 20,
      "1": 21,
      "2": 22,
      "3": 23,
      "4": 24,
      "5": 25,
      "6": 26,
      "7": 27,
      "8": 28,
      "9": 29,
      ":": 30,
      ";": 31,
      "<": 32,
      "=": 33,
      ">": 34,
      "?": 35,
      "@": 36,
      "A": 37,
      "B": 38,
      "C": 39,
      "D": 40,
      "E": 41,
      "F": 42,
      "G": 43,
      "H": 44,
      "I": 45,
      "J": 46,
      "K": 47,
      "L": 48,
      "M": 49,
      "N": 50,
      "O": 51,
      "P": 52,
      "Q": 53,
      "R": 54,
      "S": 55,
      "T": 56,
      "U": 57,
      "V": 58,
      "W": 59,
      "X": 60,
      "Y": 61,
      "Z": 62,
      "[": 63,
      "\\": 64,
      "]": 65,
      "^": 66,
      "_": 67,
      "`": 68,
      "a": 69,
      "b": 70,
      "c": 71,
      "d": 72,
      "e": 73,
      "f": 74,
      "g": 75,
      "h": 76,
      "i": 77,
      "j": 78,
      "k": 79,
      "l": 80,
      "m": 81,
      "n": 82,
      "o": 83,
      "p": 84,
      "q": 85,
      "r": 86,
      "s": 87,
      "t": 88,
      "u": 89,
      "v": 90,
      "w": 91,
      "x": 92,
      "y": 93,
      "z": 94,
      "{": 95,
      "|": 96,
      "}": 97,
      "~": 98,
      "¡": 99,
      "¢": 100,
      "£": 101,
      "¤": 102,
      "¥": 103,
      "¦": 104,
      "§": 105,
      "¨": 106,
      "©": 107,
      "ª": 108,
      "«": 109,
      "¬": 110,
      "®": 111,
      "¯": 112,
      "°": 113,
      "±": 114,
      "²": 115,
      "³": 116,
      "´": 117,
      "µ": 118,
      "¶": 119,
      "·": 120,
      "¸": 121,
      "¹": 122,
      "º": 123,
      "»": 124,
      "¼": 125,
      "½": 126,
      "¾": 127,
      "¿": 128,
      "À": 129,
      "Á": 130,
      "Â": 131,
      "Ã": 132,
      "Ä": 133,
      "Å": 134,
      "Æ": 135,
      "Ç": 136,
      "È": 137,
      "É": 138,
      "Ê": 139,
      "Ë": 140,
      "Ì": 141,
      "Í": 142,
      "Î": 143,
      "Ï": 144,
      "Ð": 145,
      "Ñ": 146,
      "Ò": 147,
      "Ó": 148,
      "Ô": 149,
      "Õ": 150,
      "Ö": 151,
      "×": 152,
      "Ø": 153,
      "Ù": 154,
      "Ú": 155,
      "Û": 156,
      "Ü": 157,
      "Ý": 158,
      "Þ": 159,
      "ß": 160,
      "à": 161,
      "á": 162,
      "â": 163,
      "ã": 164,
      "ä": 165,
      "å": 166,
      "æ": 167,
      "ç": 168,
      "è": 169,
      "é": 170,
      "ê": 171,
      "ë": 172,
      "ì": 173,
      "í": 174,
      "î": 175,
      "ï": 176,
      "ð": 177,
      "ñ": 178,
      "ò": 179,
      "ó": 180,
      "ô": 181,
      "õ": 182,
      "ö": 183,
      "÷": 184,
      "ø": 185,
      "ù": 186,
      "ú": 187,
      "û": 188,
      "ü": 189,
      "ý": 190,
      "þ": 191,
      "ÿ": 192,
      "Ā": 193,
      "ā": 194,
      "Ă": 195,
      "ă": 196,
      "Ą": 197,
      "ą": 198,
      "Ć": 199,
      "ć": 200,
      "Ĉ": 201,
      "ĉ": 202,
      "Ċ": 203,
      "ċ": 204,
      "Č": 205,
      "č": 206,
      "Ď": 207,
      "ď": 208,
      "Đ": 209,
      "đ": 210,
      "Ē": 211,
      "ē": 212,
      "Ĕ": 213,
      "ĕ": 214,
      "Ė": 215,
      "ė": 216,
      "Ę": 217,
      "ę": 218,
      "Ě": 219,
      "ě": 220,
      "Ĝ": 221,
      "ĝ": 222,
      "Ğ": 223,
      "ğ": 224,
      "Ġ": 225,
      "ġ": 226,
      "Ģ": 227,
      "ģ": 228,
      "Ĥ": 229,
      "ĥ": 230,
      "Ħ": 231,
      "ħ": 232,
      "Ĩ": 233,
      "ĩ": 234,
      "Ī": 235,
      "ī": 236,
      "Ĭ": 237,
      "ĭ": 238,
      "Į": 239,
      "į": 240,
      "İ": 241,
      "ı": 242,
      "Ĳ": 243,
      "ĳ": 244,
      "Ĵ": 245,
      "ĵ": 246,
      "Ķ": 247,
      "ķ": 248,
      "ĸ": 249,
      "Ĺ": 250,
      "ĺ": 251,
      "Ļ": 252,
      "ļ": 253,
      "Ľ": 254,
      "ľ": 255,
      "Ŀ": 256,
      "ŀ": 257,
      "Ł": 258,
      "ł": 259,
      "Ń": 260,
      "à¤": 261,
      "Ġà¤": 262,
      "à¥": 263,
      "à¤¾": 264,
      "à¥ĩ": 265,
      "à¤°": 266,
      "Ġà¤ķ": 267,
      "à¥į": 268,
      "à¥Ģ": 269,
      "à¤¿": 270,
      "à¤Ĥ": 271,
      "à¤¨": 272,
      "à¥ĭ": 273,
      "à¤ķ": 274,
      "à¤¤": 275,
      "à¤²": 276,
      "Ġà¤¸": 277,
      "à¤¯": 278,
      "à¤¸": 279,
      "Ġà¤¹": 280,
      "Ġà¤®": 281,
      "à¤¹": 282,
      "à¤®": 283,
      "Ġà¤ª": 284,
      "à¥ģ": 285,
      "à¥Ī": 286,
      "à¤µ": 287,
      "à¥ĩà¤Ĥ": 288,
      "à¤¦": 289,
      "à¤Ĺ": 290,
      "à¥¤": 291,
      "Ġà¤¬": 292,
      "Ġà¤¨": 293,
      "à¤ª": 294,
      "Ġà¤ľ": 295,
      "à¤Ł": 296,
      "à¤ľ": 297,
      "Ġà¤¦": 298,
      "Ġà¤°": 299,
      "Ġà¤µ": 300,
      "Ġà¤²": 301,
      "Ġà¤ħ": 302,
      "à¥ĭà¤Ĥ": 303,
      "à¥Ĥ": 304,
      "à¤ı": 305,
      "à¤¬": 306,
      "à¤¶": 307,
      "à¤¡": 308,
      "Ġà¤Ĺ": 309,
      "Ġà¤Ĩ": 310,
      "à¤ļ": 311,
      "Ġà¤ķà¤°": 312,
      "Ġà¤ĩ": 313,
      "Ġà¤¤": 314,
      "Ġà¤Ń": 315,
      "Ġà¤ī": 316,
      "à¤§": 317,
      "Ġà¤ªà¤°": 318,
      "à¤Ī": 319,
      "à¤·": 320,
      "Ġà¤¶": 321,
      "Ġà¤Ķ": 322,
      "à¤¥": 323,
      "à¥Īà¥¤": 324,
      "Ġà¤Ķà¤°": 325,
      "Ġà¤ļ": 326,
      "à¥Īà¤Ĥ": 327,
      "à¤¾à¤Ĥ": 328,
      "Ġà¤ı": 329,
      "Ġà¤¯": 330,
      "Ġà¤ĩà¤¸": 331,
      "à¤ĸ": 332,
      "à¤¼": 333,
      "à¤Ń": 334,
      "à¤£": 335,
      "Ġà¤°à¤¹": 336,
      "Ġà¤¥": 337,
      "à¤«": 338,
      "à¥Į": 339,
      "Ġà¤ĸ": 340,
      "à¤¾à¥¤": 341,
      "Ġà¤«": 342,
      "à¤ķà¤°": 343,
      "à¥Ģà¤Ĥ": 344,
      "Ġà¤ıà¤ķ": 345,
      "Ġà¤īà¤¨": 346,
      "à¤¿à¤Ĥ": 347,
      "Ġà¤Ł": 348,
      "à¤ªà¤¨": 349,
      "à¤°à¤¤": 350,
      "à¥ī": 351,
      "Ġà¤¨à¤¹": 352,
      "Ġà¤ķà¤¹": 353,
      "Ġà¤¸à¤®": 354,
      "Ġà¤¡": 355,
      "âĢ": 356,
      "à¤ĩ": 357,
      "Ġà¤Ĺà¤¯": 358,
      "à¥Īà¤Ĥà¥¤": 359,
      "Ġà¤ķà¤°à¤¨": 360,
      "à¤°à¤ķ": 361,
      "Ġ1": 362,
      "à¥Ģà¥¤": 363,
      "Ġà¤¯à¤¹": 364,
      "Ġà¤ªà¤¹": 365,
      "à¤Ľ": 366,
      "Ġà¤ħà¤ªà¤¨": 367,
      "Ġ2": 368,
      "Ġà¤ĺ": 369,
      "à¤ł": 370,
      "Ġà¤²à¤Ĺ": 371,
      "à¤Ĩ": 372,
      "à¤¾,": 373,
      "Ġà¤®à¤¹": 374,
      "Ġà¤īà¤¸": 375,
      "à¤¯à¤ķ": 376,
      "à¤ľà¤¨": 377,
      "à¤¤à¤°": 378,
      "Ġà¤¬à¤¨": 379,
      "à¥ĩà¥¤": 380,
      "Ġà¤ħà¤§": 381,
      "Ġà¤ħà¤¨": 382,
      "à¤ĵ": 383,
      "à¥ľ": 384,
      "à¤Łà¤°": 385,
      "Ġà¤¸à¤ķ": 386,
      "Ġà¤µà¤¹": 387,
      "à¥Ī.": 388,
      "Ġà¤Ľ": 389,
      "à¥ĥ": 390,
      "à¤µà¤°": 391,
      "à¤¶à¤¨": 392,
      "à¤Ĺà¤°": 393,
      "à¤°à¤¦": 394,
      "Ġà¤¤à¤ķ": 395,
      "à¤¹à¤°": 396,
      "Ġà¤Ĩà¤ª": 397,
      "Ġà¤ĩà¤¸à¤ķ": 398,
      "Ġà¤Ĺà¤Ī": 399,
      "à¤°à¤®": 400,
      "Ġà¤§": 401,
      "à¤¸à¤°": 402,
      "Ġà¤¬à¤¤": 403,
      "à¤¢": 404,
      "à¤¯à¤°": 405,
      "Ġà¤īà¤¨à¤ķ": 406,
      "Ġà¤ªà¤¹à¤²": 407,
      "à¤®à¤²": 408,
      "Ġ(": 409,
      "à¥ģà¤Ĥ": 410,
      "Ġà¤ķà¤°à¤¤": 411,
      "Ġà¤¸à¤ķà¤¤": 412,
      "à¤²à¤¨": 413,
      "Ġà¤¸à¤°à¤ķ": 414,
      "à¥Ģ,": 415,
      "à¤¼à¤¾": 416,
      "à¥Ī,": 417,
      "à¤°à¤µ": 418,
      "à¤¬à¤°": 419,
      "Ġà¤¹à¤®": 420,
      "Ġ20": 421,
      "Ġà¤µà¤°": 422,
      "Ġà¤¤à¤°": 423,
      "Ġà¤Ĩà¤°": 424,
      "Ġà¤Ĳ": 425,
      "Ġà¤ĩà¤¨": 426,
      "à¤²à¤¤": 427,
      "Ġà¤īà¤ª": 428,
      "Ġà¤ķà¤®": 429,
      "Ġà¤Ĺà¤ı": 430,
      "à¤°à¤£": 431,
      "à¤¯à¤®": 432,
      "âĢį": 433,
      "à¤¾.": 434,
      "Ġà¤ħà¤¬": 435,
      "Ġà¤ľà¤¬": 436,
      "à¤°à¤¸": 437,
      "Ġà¤Ĩà¤¯": 438,
      "à¤Łà¤¨": 439,
      "à¥įâĢį": 440,
      "Ġà¤ħà¤Ń": 441,
      "ĠâĢ": 442,
      "à¤®à¤¨": 443,
      "Ġà¤Ĳà¤¸": 444,
      "ĠĠ": 445,
      "Ġà¤ªà¤¤": 446,
      "Ġà¤¦à¤°": 447,
      "Ġà¤¸à¤¹": 448,
      "Ġà¤¬à¤ļ": 449,
      "Ġ3": 450,
      "à¤ıà¤Ĺ": 451,
      "à¤ªà¤°": 452,
      "à¤ľà¤°": 453,
      "Ġà¤īà¤¸à¤ķ": 454,
      "Ġà¤īà¤¤": 455,
      "à¤ªà¤¤": 456,
      "Ġà¤ħà¤²": 457,
      "à¤¼à¥Ģ": 458,
      "Ġà¤¸à¤Ń": 459,
      "Ġà¤ĵ": 460,
      "à¤¨à¤ķ": 461,
      "Ġà¤¸à¤¬": 462,
      "à¤µà¤¨": 463,
      "à¤¯à¤¤": 464,
      "Ġà¤°à¤ĸ": 465,
      "Ġà¤ľà¤¨": 466,
      "à¤Ŀ": 467,
      "à¤¹à¤¤": 468,
      "à¤ī": 469,
      "Ġà¤ķà¤Ī": 470,
      "Ġà¤¹à¤°": 471,
      "à¤²à¤¯": 472,
      "Ġà¤ļà¤²": 473,
      "à¤ĺ": 474,
      "Ġà¤ĳ": 475,
      "00": 476,
      "Ġà¤¬à¤¹": 477,
      "à¤¸à¤²": 478,
      "Ġà¤Ĩà¤ªà¤ķ": 479,
      "à¤ıà¤¸": 480,
      "Ġà¤¸à¤®à¤¯": 481,
      "..": 482,
      "à¤ıà¤®": 483,
      "à¤·à¤£": 484,
      "à¤µà¤¸": 485,
      "à¤Ĺà¤²": 486,
      "à¤ķà¤²": 487,
      "à¤¤à¤¨": 488,
      "à¥Īà¤Ĥ.": 489,
      "Ġà¤¤à¤°à¤¹": 490,
      "Ġà¤Ĩà¤ľ": 491,
      "Ġà¤¬à¤¢": 492,
      "à¤¸à¤¨": 493,
      "Ġà¤ĺà¤°": 494,
      "à¤ļà¤¨": 495,
      "à¤¼à¥ĩ": 496,
      "à¤¸à¤®": 497,
      "Ġà¤Ĩà¤¦": 498,
      "Ġ5": 499,
      "à¤®à¤¤": 500,
      "Ġà¤¸à¤°": 501,
      "à¥Ģ.": 502,
      "Ġ4": 503,
      "Ġà¤®à¤¨": 504,
      "Ġà¤ħà¤®": 505,
      "à¤¸à¤ķ": 506,
      "à¤ĩà¤¨": 507,
      "à¤¯à¤¨": 508,
      "à¥Īà¤Ĥ,": 509,
      "Ġà¤ıà¤µ": 510,
      "Ġà¤ľà¤°": 511,
      "à¤¦à¤°": 512,
      "Ġà¤ħà¤¸": 513,
      "à¤ħ": 514,
      "âĢĻ": 515,
      "à¥ĩ,": 516,
      "Ġà¤¶à¤°": 517,
      "Ġà¤Ńà¤°": 518,
      "Ġà¤Ĩà¤Ī": 519,
      "à¤¹à¤¨": 520,
      "Ġà¤ľà¤®": 521,
      "Ġà¤Ĩà¤¤": 522,
      "à¤Ĺà¤¤": 523,
      "à¤¦à¤¨": 524,
      "Ġà¤Ĩà¤µ": 525,
      "Ġà¤ıà¤¸": 526,
      "Ġà¤Ĩà¤¨": 527,
      "à¤ľà¤ª": 528,
      "Ġà¤ł": 529,
      "Ġà¤¬à¤¡": 530,
      "Ġ'": 531,
      "à¤µà¤¤": 532,
      "à¤ªà¤¯": 533,
      "ĠâĢĺ": 534,
      "Ġà¤Ŀ": 535,
      "à¤Ĩà¤Ī": 536,
      "Ġà¤Ĩà¤Ĺ": 537,
      "à¤°à¤¶": 538,
      "à¤ģ": 539,
      "à¥Ĥà¤Ĥ": 540,
      "Ġà¤ħà¤µ": 541,
      "Ġ201": 542,
      "à¤¯à¤²": 543,
      "Ġà¤¬à¤ľ": 544,
      "Ġà¤ľà¤²": 545,
      "à¥Ŀ": 546,
      "à¤°à¤Ń": 547,
      "Ġà¤¸à¤¬à¤¸": 548,
      "Ġà¤¬à¤²": 549,
      "à¤¸à¤¦": 550,
      "Ġà¤ħà¤°": 551,
      "Ġà¤ķà¤²": 552,
      "Ġà¤ħà¤ª": 553,
      "Ġà¤ªà¤¡": 554,
      "Ġà¤ĸà¤°": 555,
      "à¤ĸà¤¨": 556,
      "Ġà¤ªà¤¦": 557,
      "à¤ŀ": 558,
      "Ġ6": 559,
      "Ġ-": 560,
      "à¤µà¤²": 561,
      "à¤§à¤¨": 562,
      "Ġà¤īà¤®": 563,
      "Ġà¤ĩà¤²": 564,
      "à¤¨à¤®": 565,
      "Ġà¤¬à¤¦": 566,
      "à¥ĩ.": 567,
      "Ġà¤ĵà¤°": 568,
      "à¤²à¤¬": 569,
      "à¤°à¤§": 570,
      "Ġà¤Ĩà¤§": 571,
      "à¤ķà¤¤": 572,
      "Ġà¤ħà¤ļ": 573,
      "Ġ10": 574,
      "Ġà¤¤à¤¥": 575,
      "Ġà¤¹à¤ľ": 576,
      "à¤¨à¤¸": 577,
      "ĠĠĠĠ": 578,
      "Ġà¤ĩà¤¸à¤¸": 579,
      "à¤Ľà¤²": 580,
      "à¤¦à¤µ": 581,
      "à¤¦à¤¸": 582,
      "à¤ķà¤¡": 583,
      "Ġà¤ķà¤ª": 584,
      "à¥ĩà¤Ĥà¥¤": 585,
      "Ġà¤ħà¤ķ": 586,
      "à¤²à¤ķ": 587,
      "à¤Łà¤²": 588,
      "à¤¡à¤²": 589,
      "à¤ľà¤²": 590,
      "Ġà¤¬à¤°": 591,
      "Ġà¤¨à¤Ī": 592,
      "à¤®à¤ķ": 593,
      "Ġ7": 594,
      "à¤µà¤ķ": 595,
      "à¤¬à¤²": 596,
      "à¤°à¤¨": 597,
      "à¤¡à¤°": 598,
      "Ġà¤Ī": 599,
      "Ġà¤ħà¤Ĺà¤°": 600,
      "à¤¨à¤¤": 601,
      "Ġà¤¶à¤¹à¤°": 602,
      "à¤·à¤ķ": 603,
      "Ġà¤ľà¤¹": 604,
      "Ġà¤¨à¤Ĺà¤°": 605,
      "à¤ķà¤°à¤£": 606,
      "Ġà¤ĺà¤Łà¤¨": 607,
      "Ġ:": 608,
      "à¤®à¤¦": 609,
      "à¤¤à¤ķ": 610,
      "Ġà¤ĩà¤¸à¤®": 611,
      "à¤°à¤¯": 612,
      "à¤ķà¤¸": 613,
      "Ġ19": 614,
      "Ġà¤®à¤ľ": 615,
      "Ġà¤®à¤°": 616,
      "à¤®à¤°": 617,
      "Ġà¤°à¤µ": 618,
      "à¤¶à¤ķ": 619,
      "Ġà¤Ĩà¤ı": 620,
      "à¥Ľ": 621,
      "à¤¾-": 622,
      "Ġà¤īà¤ł": 623,
      "Ġà¤¬à¤¸": 624,
      "Ġà¤īà¤¦": 625,
      "20": 626,
      "Ġà¤«à¤°": 627,
      "Ġà¤ľà¤Ĺ": 628,
      "Ġà¤¸à¤«": 629,
      "à¤¯à¤µà¤¸": 630,
      "Ġà¥¤": 631,
      "Ġ8": 632,
      "à¤ªà¤ķ": 633,
      "à¤ľà¤¯": 634,
      "à¤¦à¤¦": 635,
      "Ġà¤¸à¤¤": 636,
      "à¤Łà¤ķ": 637,
      "à¤¨à¤²": 638,
      "à¤ĩà¤Ł": 639,
      "Ġà¤Ĺà¤°": 640,
      "à¤°à¤¹": 641,
      "Ġà¤ľà¤¬à¤ķ": 642,
      "à¤ľà¤¹": 643,
      "à¤¼à¤¿": 644,
      "à¤łà¤ķ": 645,
      "à¤°à¤«": 646,
      "Ġà¤¸à¤µ": 647,
      "à¤ĩà¤²": 648,
      "à¤Ĩà¤°": 649,
      "Ġà¤®à¤¤": 650,
      "à¤¯à¤ª": 651,
      "à¤¾à¤ģ": 652,
      "à¤ķà¤¨": 653,
      "Ġà¤ķà¤¹à¤¨": 654,
      "à¤¸à¤ª": 655,
      "Ġà¤°à¤¹à¤¨": 656,
      "Ġà¤¸à¤ļ": 657,
      "à¤¶à¤²": 658,
      "à¤¨à¤¨": 659,
      "à¥Ģ-": 660,
      "à¤²à¤°": 661,
      "Ġà¤ħà¤¤": 662,
      "à¤®à¤ļ": 663,
      "à¤¬à¤¹": 664,
      "Ġà¤¤à¤¬": 665,
      "à¤²à¤µ": 666,
      "Ġà¤²à¤¡": 667,
      "Ġà¤°à¤¹à¤¤": 668,
      "Ġà¤ħà¤Ĺ": 669,
      "à¤°à¤¦à¤°": 670,
      "à¤ªà¤ı": 671,
      "Ġ12": 672,
      "Ġà¤ľà¤µ": 673,
      "Ġà¤¨à¤µ": 674,
      "Ġ15": 675,
      "Ġ9": 676,
      "Ġà¤µà¤ľà¤¹": 677,
      "Ġà¤¤à¤¹à¤¤": 678,
      "à¤ªà¤¸": 679,
      "Ġà¤¨à¤ľà¤°": 680,
      "Ġà¤¨à¤°": 681,
      "à¤¨à¤°": 682,
      "à¤Łà¤®": 683,
      "Ġà¤ĩà¤¸à¤²": 684,
      "Ġà¤¸à¤¦à¤¸": 685,
      "Ġà¤¨à¤ı": 686,
      "Ġà¤ļà¤²à¤¤": 687,
      "Ġà¤ĳà¤«": 688,
      "à¤§à¤°": 689,
      "Ġà¤ªà¤ķ": 690,
      "Ġà¤Ĭ": 691,
      "Ġà¤Ĩà¤¶": 692,
      "à¤ĩà¤ķ": 693,
      "à¤¹à¤®": 694,
      "Ġà¤ľà¤Ĺà¤¹": 695,
      "Ġà¤¸à¤®à¤¸": 696,
      "Ġà¤ħà¤²à¤Ĺ": 697,
      "à¤¦à¤®": 698,
      "...": 699,
      "Ġà¤¸à¤®à¤Ŀ": 700,
      "à¤¯à¤¦": 701,
      "Ġà¤¸à¤ª": 702,
      "Ġà¤¦à¤²": 703,
      "à¤®à¤µ": 704,
      "à¤§à¤µ": 705,
      "à¤łà¤¨": 706,
      "à¤ļà¤°": 707,
      "à¤¨à¤µ": 708,
      "Ġà¤®à¤§": 709,
      "à¤ķà¤Ł": 710,
      "Ġà¤®à¤¦à¤¦": 711,
      "Ġà¤¬à¤¦à¤²": 712,
      "à¤°à¤ª": 713,
      "Ġà¤ªà¤¢": 714,
      "Ġà¤Ĩà¤®": 715,
      "Ġà¤ıà¤®": 716,
      "Ġ11": 717,
      "à¤¤à¤®": 718,
      "Ġà¤ħà¤«": 719,
      "Ġà¤¹à¤®à¤²": 720,
      "Ġà¤°à¤¨": 721,
      "à¤¸à¤¸": 722,
      "Ġà¤¢": 723,
      "à¤Ĭ": 724,
      "Ġà¤¹à¤¤": 725,
      "à¤°à¤®à¤£": 726,
      "à¤ľà¤¸": 727,
      "à¤¬à¤Ī": 728,
      "à¥ĩ-": 729,
      "à¤¿,": 730,
      "Ġà¤¸à¤²": 731,
      "Ġà¤ļà¤°": 732,
      "à¤¶à¤¤": 733,
      "à¤¤à¤µ": 734,
      "in": 735,
      "à¤ıà¤¨": 736,
      "à¤ıà¤²": 737,
      "à¤°à¤ĸ": 738,
      "à¤¨à¤¦": 739,
      "Ġà¤µà¤ķ": 740,
      "Ġà¤°à¤ĸà¤¨": 741,
      "à¤Ĺà¤®": 742,
      "à¤Ĺà¤¨": 743,
      "Ġà¤²à¤ķ": 744,
      "Ġà¤ĩà¤¨à¤ķ": 745,
      "Ġ\"": 746,
      "Ġà¤ıà¤¨": 747,
      "Ġà¤Ĩà¤¸": 748,
      "Ġà¤ĸà¤¬à¤°": 749,
      "à¤¹à¤²": 750,
      "à¤°à¤¬": 751,
      "à¤ĸà¤¤": 752,
      "à¥ĩà¤Ĥ,": 753,
      "Ġà¤¤à¤°à¤«": 754,
      "Ġà¤§à¤°": 755,
      "an": 756,
      "à¤¨à¤¸à¤Ń": 757,
      "Ġà¤¶à¤¨": 758,
      "à¥Ģà¤Ĥ,": 759,
      "à¤Ĩà¤¤": 760,
      "Ġà¤®à¤¹à¤¤": 761,
      "Ġà¤¬à¥ľ": 762,
      "Ġà¤ľà¤¨à¤¤": 763,
      "Ġà¤ĩà¤¤à¤¨": 764,
      "Ġà¤¸à¤®à¤°": 765,
      "Ġà¤¯à¤¦": 766,
      "à¤Ĺà¤µ": 767,
      "à¤¯à¤°à¤¸": 768,
      "Ġà¤¤à¤¸": 769,
      "à¥Ģà¤Ĥà¥¤": 770,
      "à¤ľà¤Ĺ": 771,
      "ar": 772,
      "Ġà¤īà¤¸à¤¨": 773,
      "Ġà¤īà¤ªà¤²à¤¬": 774,
      "Ġà¤īà¤ļ": 775,
      "Ġà¤¬à¥Ŀ": 776,
      "Ġà¤ªà¥ľ": 777,
      "Ġà¤¬à¤¯": 778,
      "Ġà¤ķà¤°à¤µ": 779,
      "ĠĠĠĠĠĠĠĠ": 780,
      "à¤Ĺà¤²à¤µ": 781,
      "à¤Ńà¤Ĺ": 782,
      "à¤²à¤ķà¤°": 783,
      "Ġà¤ªà¤¶": 784,
      "Ġà¥": 785,
      "Ġ14": 786,
      "Ġà¤ķà¤Ń": 787,
      "à¤Ĺà¤¢": 788,
      "Ġà¤¨à¤¯": 789,
      "à¤°à¤²": 790,
      "à¤¸à¤µ": 791,
      "à¤ļà¤²": 792,
      "Ġà¤ħà¤¦": 793,
      "Ġ25": 794,
      "à¥ľà¤ķ": 795,
      "Ġ18": 796,
      "Ġà¤ķà¤°à¤ķ": 797,
      "à¤¯à¤µ": 798,
      "à¤¥à¤®": 799,
      "Ġà¤īà¤ªà¤¯": 800,
      "Ġà¤°à¤ķ": 801,
      "à¤īà¤¨": 802,
      "à¤¹à¤¤à¤°": 803,
      "Ġà¤²à¤Ĺà¤Ńà¤Ĺ": 804,
      "à¤¹à¤¸": 805,
      "à¤µà¤ľ": 806,
      "Ġà¤ķà¤¬": 807,
      "à¤¥à¤¨": 808,
      "à¤Ńà¤°": 809,
      "à¤ıà¤«": 810,
      "à¥Įà¤Ĥ": 811,
      "Ġà¤µà¤¨": 812,
      "à¤ĩà¤¸": 813,
      "Ġ200": 814,
      "Ġ30": 815,
      "Ġà¤ħà¤ªà¤°": 816,
      "à¤¥à¤²": 817,
      "Ġà¤²à¤Ĺà¤¤": 818,
      "Ġà¤ħà¤Ĺà¤²": 819,
      "Ġà¤¸à¤¡": 820,
      "à¥ī.": 821,
      "21": 822,
      "à¤µà¤ª": 823,
      "Ġà¤ªà¤Ł": 824,
      "Ġà¤ķà¤¹à¤¤": 825,
      "à¤Ĺà¤łà¤¨": 826,
      "à¤¸à¤¤": 827,
      "ĠS": 828,
      "à¤ªà¤²": 829,
      "Ġ,": 830,
      "Ġà¤ıà¤ľ": 831,
      "à¤°à¤ľ": 832,
      "Ġà¤¦à¤¸": 833,
      "Ġà¤ķà¤¨": 834,
      "19": 835,
      "Ġ13": 836,
      "ĠC": 837,
      "à¤¹à¤¦": 838,
      "ĠA": 839,
      "à¤¦à¤Ĺ": 840,
      "ĠR": 841,
      "Ġà¤īà¤²": 842,
      "000": 843,
      "Ġà¤¤à¤²": 844,
      "à¤¯à¤¸": 845,
      "Ġà¤Ĩà¤²": 846,
      "Ġà¤¹à¤µ": 847,
      "à¤·à¤¦": 848,
      "on": 849,
      "ĠP": 850,
      "à¤¬à¤¸": 851,
      "à¥ĭ,": 852,
      "à¤²à¤Ĺ": 853,
      "Ġà¤ķà¤Ł": 854,
      "Ġà¤¦à¤¬": 855,
      "à¤ĥ": 856,
      "Ġà¤§à¤¨": 857,
      "Ġà¤®à¤ľà¤¬": 858,
      "Ġà¤¨à¤ķ": 859,
      "Ġà¤¸à¤¹à¤¯": 860,
      "à¤¯à¤ķà¤°": 861,
      "Ġ16": 862,
      "Ġà¤Ĩà¤ķ": 863,
      "Ġà¤®à¤¤à¤¦": 864,
      "Ġ50": 865,
      "Ġà¤Ĺà¤¤": 866,
      "Ġ24": 867,
      "Ġà¤Ĩà¤µà¤¶": 868,
      "Ġà¤¹à¤Ł": 869,
      "Ġà¤¶à¤µ": 870,
      "Ġà¤Ľà¤¹": 871,
      "Ġà¤ıà¤¡": 872,
      "Ġà¤ħà¤ĸ": 873,
      "at": 874,
      "à¤¨à¤ª": 875,
      "er": 876,
      "Ġà¤ħà¤¶": 877,
      "à¤Ńà¤µ": 878,
      "Ġà¤µà¤¸": 879,
      "à¤¼à¥ĭà¤Ĥ": 880,
      "Ġà¤¤à¤¯": 881,
      "Ġà¤Ńà¤Ĺà¤µ": 882,
      "à¤°à¤ªà¤¤": 883,
      "à¤Ĥà¥¤": 884,
      "à¥ĭà¤Ĥ,": 885,
      "à¤ıà¤ļ": 886,
      "à¤²à¤¸": 887,
      "Ġà¤¤à¤¤": 888,
      "à¤ĩà¤¡": 889,
      "Ġà¤ħà¤µà¤¸à¤°": 890,
      "Ġ17": 891,
      "à¤Ľà¤¤": 892,
      "à¤·à¤¯": 893,
      "Ġà¤ħà¤ľ": 894,
      "à¤ľà¤ķ": 895,
      "ĠM": 896,
      "à¤¶à¤¨à¤²": 897,
      "Ġà¤ĸà¤¤": 898,
      "à¤ĺà¤°": 899,
      "Ġà¤¤à¤®": 900,
      "à¥Ģ)": 901,
      "à¤¦à¤²": 902,
      "Ġà¤ľà¤¨à¤µà¤°": 903,
      "Ġà¤Ĩà¤ĸ": 904,
      "à¤·à¤¤": 905,
      "or": 906,
      "ĠB": 907,
      "Ġà¤ªà¤¸": 908,
      "ĠN": 909,
      "Ġà¤ıà¤²": 910,
      "à¤¹à¤ķ": 911,
      "Ġà¤Ĩà¤ł": 912,
      "à¤«à¤°": 913,
      "Ġà¤®à¤ķ": 914,
      "Ġà¤ķà¤¶": 915,
      "à¤®à¤ª": 916,
      "ĠâĢĵ": 917,
      "Ġ2020": 918,
      "Ġà¤¸à¤ľ": 919,
      "à¤ĸà¤°": 920,
      "Ġà¤¹à¤²": 921,
      "Ġà¤ĸà¤¡": 922,
      "al": 923,
      "Ġà¤Ĺà¤²à¤¤": 924,
      "à¤£à¤¨": 925,
      "Ġ0": 926,
      "Ġà¤®à¤²": 927,
      "Ġà¤ıà¤¯à¤°": 928,
      "Ġà¤ªà¤¹à¤ļ": 929,
      "Ġà¤ľà¤¤": 930,
      "es": 931,
      "à¤²à¤¹": 932,
      "à¤Łà¤«": 933,
      "ĠH": 934,
      "Ġà¤®à¤¸": 935,
      "Ġà¤Ńà¤µ": 936,
      "à¤¼à¥ĩà¤Ĥ": 937,
      "Ġà¤¶à¤ķ": 938,
      "Ġà¤¬à¤¨à¤¨": 939,
      "à¤®à¤Ĺ": 940,
      "Ġà¤¨à¤¦": 941,
      "à¤µà¤µ": 942,
      "Ġà¤¦à¤µ": 943,
      "âĢĿ": 944,
      "ĠI": 945,
      "Ġà¤²à¤ĸà¤¨": 946,
      "Ġ21": 947,
      "à¤¬à¤¨": 948,
      "Ġà¤®à¤¶": 949,
      "ĠâĢľ": 950,
      "Ġà¤ħà¤Ĺà¤¸": 951,
      "Ġ|": 952,
      "à¤¾)": 953,
      "Ġà¤ķà¤¦à¤®": 954,
      "Ġà¤¦à¤ķ": 955,
      "Ġà¤īà¤ªà¤¸": 956,
      "Ġà¤ªà¤ķà¤¡": 957,
      "Ġà¤ĸà¤¤à¤°": 958,
      "Ġà¤®à¤Ī": 959,
      "Ġà¤ĩà¤¨à¤®": 960,
      "à¤ĩà¤µ": 961,
      "à¤£à¤¯": 962,
      "Ġ2021": 963,
      "à¤¨à¤Ł": 964,
      "à¤¤à¤ļ": 965,
      "à¤ªà¤£": 966,
      "Ġà¤ĳà¤¨à¤²": 967,
      "à¥ĭà¥¤": 968,
      "à¤¨à¤Ĺà¤°": 969,
      "Ġà¤Ĭà¤ªà¤°": 970,
      "à¤ķà¤µ": 971,
      "Ġà¤¸à¤¨": 972,
      "à¤µà¤Ł": 973,
      "Ġà¤²à¤ĸà¤¨à¤Ĭ": 974,
      "Ġà¤®à¤ļ": 975,
      "Ġà¤Ľà¤¤": 976,
      "Ġà¤ĩà¤¤": 977,
      "Ġ100": 978,
      "à¤ķà¤¸à¤Ń": 979,
      "Ġ2019": 980,
      "âĢ¦": 981,
      "Ġà¤«à¤°à¤µà¤°": 982,
      "Ġà¤¸à¥ľà¤ķ": 983,
      "à¤¼à¥ĭ": 984,
      "Ġà¤ļà¤°à¤£": 985,
      "Ġà¤ªà¤²": 986,
      "om": 987,
      "Ġà¤ªà¥Ŀ": 988,
      "Ġà¤ĭ": 989,
      "ad": 990,
      "à¤ĩà¤¯": 991,
      "à¤ªà¤¦": 992,
      "Ġà¤°à¤ĸà¤¤": 993,
      "à¤ĩà¤ľ": 994,
      "Ġ22": 995,
      "Ġà¤Ĩà¤ķà¤°": 996,
      "Ġà¤ļà¤ķ": 997,
      "Ġà¤ĩà¤ķ": 998,
      "à¤¤à¤ľ": 999,
      "à¤µà¤§": 1000,
      "Ġ26": 1001,
      "à¤µà¤°à¤£": 1002,
      "à¤ªà¤¹à¤°": 1003,
      "à¤ľà¤µ": 1004,
      "Ġà¤Ĺà¤£": 1005,
      "Ġà¤ľà¤¯": 1006,
      "Ġà¤®à¤ľà¤¦": 1007,
      "en": 1008,
      "Ġà¤ħà¤®à¤°": 1009,
      "Ġ40": 1010,
      "à¤ªà¤®": 1011,
      "Ġà¤¹à¤®à¤¨": 1012,
      "Ġà¤ķà¤ķ": 1013,
      "à¤µà¤ļ": 1014,
      "Ġà¤īà¤°": 1015,
      "Ġà¤ĵà¤µà¤°": 1016,
      "à¤¤à¤²": 1017,
      "à¤ĸà¤ķà¤°": 1018,
      "à¤ĩà¤®": 1019,
      "à¤µà¤¯": 1020,
      "à¤ħà¤¸à¤²": 1021,
      "à¤¦à¤¬": 1022,
      "âĢĺ": 1023,
      "à¤²à¤®": 1024,
      "à¤®à¤¸": 1025,
      "à¤¡à¤¨": 1026,
      "à¤ľà¤®": 1027,
      "Ġà¤ħà¤¹": 1028,
      "Ġà¤¦à¤°à¤ħà¤¸à¤²": 1029,
      "à¤°à¤ļ": 1030,
      "à¤¯à¤°à¤²": 1031,
      "Ġà¤°à¤ľ": 1032,
      "ĠT": 1033,
      "Ġà¤¶à¤¹": 1034,
      "50": 1035,
      "ĠD": 1036,
      "Ġà¤īà¤ªà¤ļ": 1037,
      "Ġà¤«à¤¸à¤²": 1038,
      "à¤ªà¤Ł": 1039,
      "à¤ľà¤§": 1040,
      "Ġà¤Ńà¤µà¤¨": 1041,
      "à¤¸à¤ķà¤°": 1042,
      "à¤Ĺà¤¦": 1043,
      "à¤ıà¤¸à¤ª": 1044,
      "Ġ23": 1045,
      "à¤¤à¤°à¤£": 1046,
      "Ġà¤ķà¤¡": 1047,
      "Ġà¤īà¤¸à¤¸": 1048,
      "à¤ıà¤ķ": 1049,
      "Ġà¤ķà¤¸": 1050,
      "à¤ľà¤¦": 1051,
      "à¤°à¤Ĺ": 1052,
      "Ġà¤ħà¤¸à¤°": 1053,
      "Ġà¤īà¤¤à¤°": 1054,
      "à¤ħà¤²à¤Ĺ": 1055,
      "Ġà¤¸à¤«à¤²à¤¤": 1056,
      "Ġà¤Ĩà¤¸à¤ª": 1057,
      "Ġà¤Ĺà¤ł": 1058,
      "à¤Ĺà¤¡": 1059,
      "Ġà¤Ĺà¤²": 1060,
      "Ġà¤¬à¤ľà¤Ł": 1061,
      "Ġà¤¤à¤¹à¤¸": 1062,
      "Ġà¤¸à¤¬à¤ķ": 1063,
      "Ġ27": 1064,
      "à¤ªà¤·": 1065,
      "à¥ĩà¤Ĥ.": 1066,
      "Ġ31": 1067,
      "à¤ļà¤ķ": 1068,
      "Ġà¤ļà¤¯à¤¨": 1069,
      "à¤Łà¤°à¤¨": 1070,
      "Ġà¤ħà¤µà¤§": 1071,
      "Ġà¤¤à¤¨": 1072,
      "Ġà¤īà¤¨à¤¸": 1073,
      "Ġà¤ķà¤®à¤°": 1074,
      "à¤¥à¤µ": 1075,
      "Ġà¤ıà¤«": 1076,
      "Ġà¤ĳà¤¸": 1077,
      "Ġ28": 1078,
      "di": 1079,
      "Ġà¤ıà¤¸à¤ª": 1080,
      "ĠĠĠĠĠĠĠĠĠĠĠĠĠĠĠĠ": 1081,
      "à¥Ĥ-": 1082,
      "à¤ķà¤ª": 1083,
      "à¤¸à¤¬": 1084,
      "Ġà¤īà¤¡": 1085,
      "à¤§à¤ķ": 1086,
      "Ġà¤¹à¤¸": 1087,
      "Ġà¤ĺà¤Ł": 1088,
      "à¤µà¤ľà¤¨": 1089,
      "Ġà¤¸à¤«à¤²": 1090,
      "30": 1091,
      "Ġà¤ıà¤ª": 1092,
      "à¤ĩà¤¨à¤²": 1093,
      "à¤īà¤Ł": 1094,
      "Ġà¤ķà¤¥": 1095,
      "),": 1096,
      "Ġà¤°à¤¸": 1097,
      "Ġà¤ªà¤°à¤®": 1098,
      "à¤¥à¤°": 1099,
      "à¤¨à¤ķà¤°": 1100,
      "à¥Ĥà¤Ĥà¥¤": 1101,
      "Ġà¤ĩà¤®": 1102,
      "Ġà¤ıà¤¸à¤¡": 1103,
      "Ġà¤¸à¤¸": 1104,
      "Ġà¤ļà¤²à¤¨": 1105,
      "Ġà¤¶à¤¬": 1106,
      "à¤¯à¤ķà¤¤": 1107,
      "Ġà¤ħà¤¹à¤®": 1108,
      "à¤·à¤®à¤¤": 1109,
      "à¤²à¤¦": 1110,
      "à¥¦": 1111,
      "Ġà¤īà¤¸à¤®": 1112,
      "à¥Ī?": 1113,
      "à¤¦à¤ķ": 1114,
      "à¥Ģ:": 1115,
      "Ġà¤²à¤Ĺà¤¨": 1116,
      "Ġà¤ķà¤®à¤²": 1117,
      "à¤®à¤¯": 1118,
      "ĠG": 1119,
      "à¤²à¤ª": 1120,
      "à¤Ĺà¤ľ": 1121,
      "Ġà¤¤à¤ķà¤¨": 1122,
      "à¤ķà¤¦à¤®": 1123,
      "à¤¡à¤µ": 1124,
      "ic": 1125,
      "à¤¼à¥į": 1126,
      "Ġà¤Ĩà¤Īà¤ª": 1127,
      "à¥Ĥ,": 1128,
      "Ġà¤¬à¤¹à¤¨": 1129,
      "Ġà¤¸à¤²à¤®": 1130,
      "Ġà¤¤à¤Ń": 1131,
      "Ġà¤®à¤Ĺà¤°": 1132,
      "à¤Īà¤ķ": 1133,
      "à¤¡à¤ķ": 1134,
      "st": 1135,
      "ĠâĢĺâĢĺ": 1136,
      "à¤¯à¤£": 1137,
      "Ġà¤ªà¤Łà¤¨": 1138,
      "Ġ2018": 1139,
      "Ġà¤ķà¤µ": 1140,
      "it": 1141,
      "à¤°à¤¥à¤®": 1142,
      "Ġà¤¡à¤°": 1143,
      "à¥ħ": 1144,
      "à¤¬à¤¤": 1145,
      "à¤¥à¤ķ": 1146,
      "à¤īà¤¸": 1147,
      "à¥ĭ-": 1148,
      "Ġà¤ıà¤ļ": 1149,
      "Ġà¤ľà¤®à¤ķà¤°": 1150,
      "Ġà¤¸à¤ĸ": 1151,
      "Ġà¤Ĩà¤¬": 1152,
      "le": 1153,
      "ĠRe": 1154,
      "Ġ29": 1155,
      "à¤¤à¤°à¤°": 1156,
      "Ġà¤¨à¤®": 1157,
      "Ġà¤Ńà¤ķ": 1158,
      "à¤§à¤¤": 1159,
      "Ġà¤Ĩà¤°à¤ķ": 1160,
      "Ġà¤ħà¤«à¤¸à¤°": 1161,
      "Ġà¤ħà¤¹à¤®à¤¦": 1162,
      "à¤¹à¤°à¤£": 1163,
      "Ġà¤®à¤¦": 1164,
      "Ġà¤¹à¤¥": 1165,
      "Ġ199": 1166,
      "âĢĻâĢĻ": 1167,
      "--": 1168,
      "Ġà¤ħà¤ľà¤¯": 1169,
      "à¤ĸà¤²": 1170,
      "à¤Łà¤¬": 1171,
      "à¤¡à¤¸": 1172,
      "Ġà¤°à¤®": 1173,
      "à¤¶à¤µ": 1174,
      "Ġ60": 1175,
      "Ġà¤§à¤®à¤ķ": 1176,
      "ĠÂ": 1177,
      "à¤«à¤²": 1178,
      "à¥ľà¤¨": 1179,
      "ĠW": 1180,
      "à¤Ĺà¥Ŀ": 1181,
      "Ġà¤ħà¤¯": 1182,
      "à¤¬à¤¦": 1183,
      "ĠâĢº": 1184,
      ")à¥¤": 1185,
      "Ġà¤ħà¤°à¤¬": 1186,
      "à¤ļà¤¤": 1187,
      "à¤ħà¤ª": 1188,
      "Ġà¤¬à¤¦à¤®": 1189,
      "ĠF": 1190,
      "Ġ35": 1191,
      "Ġà¤¦à¤®": 1192,
      "am": 1193,
      "Ġà¤¹à¤«": 1194,
      "Ġà¤ĵà¤²": 1195,
      "à¤¸à¤ļ": 1196,
      "à¥ĭ.": 1197,
      "Ġà¤°à¤£": 1198,
      "à¤Łà¤µ": 1199,
      "à¤Ĥ,": 1200,
      "à¤°à¤¤à¤²à¤¬": 1201,
      "Ġà¤Ĩà¤¦à¤®": 1202,
      "Ġà¤īà¤ľ": 1203,
      "à¤¨à¤Ī": 1204,
      "à¤ķà¤¶": 1205,
      "à¤¦à¤¯": 1206,
      "ĠK": 1207,
      "à¤µà¤¶": 1208,
      "Ġà¤Ĩà¤ĩ": 1209,
      "à¤ıà¤¶à¤¨": 1210,
      "Ġà¤Ńà¤²": 1211,
      "à¤·à¤®": 1212,
      "à¤ķà¤®": 1213,
      "Ġà¤¸à¤ªà¤¨": 1214,
      "à¤¶à¤°": 1215,
      "Ġà¤¹à¤¡": 1216,
      "ĠE": 1217,
      "Ġà¤®à¤¹à¤¸": 1218,
      "re": 1219,
      "ion": 1220,
      "Ġà¤ħà¤¸à¤®": 1221,
      "Ġà¤ĩà¤ľ": 1222,
      "Ġà¤ķà¤ł": 1223,
      "à¤ĺà¤Łà¤¨": 1224,
      "Ġ2017": 1225,
      "ĠL": 1226,
      "Ġà¤Ĺà¤¡": 1227,
      "à¤¯à¤¬": 1228,
      "Ġà¤«à¤²": 1229,
      "Ġà¤ĳà¤ķ": 1230,
      "22": 1231,
      "à¤¡à¤®": 1232,
      "à¤°à¤µà¤ķ": 1233,
      "Ġà¤ľà¤¯à¤ª": 1234,
      "Ġà¤ľà¤¨à¤ªà¤¦": 1235,
      "Ġà¤ıà¤ķà¤¤": 1236,
      "Ġà¤ıà¤Ł": 1237,
      "à¤ªà¤°à¤µ": 1238,
      "à¤°à¤·": 1239,
      "Ġà¤īà¤ªà¤Ń": 1240,
      "à¤°à¤¹à¤£": 1241,
      "Ġà¤²à¤¹à¤°": 1242,
      "Ġà¤¸à¤¦": 1243,
      "Ġà¤¨à¤¤": 1244,
      "Ġà¤ªà¤¹à¤¨": 1245,
      "à¤Ĺà¤°à¤£": 1246,
      "Ġà¤ľà¤¨à¤¸": 1247,
      "à¤¾:": 1248,
      "à¤¬à¤¡": 1249,
      "10": 1250,
      "Ġà¤¨à¤¶": 1251,
      "Ġà¤Ĩà¤ıà¤Ĺ": 1252,
      "à¥Ĥà¤ģ": 1253,
      "Ġà¤ļà¤¢": 1254,
      "à¤ĺà¤¨": 1255,
      "à¤ļà¤ķà¤°": 1256,
      "Ġà¤ķà¤®à¤ľ": 1257,
      "Ġà¤®à¤¤à¤²à¤¬": 1258,
      "ĠV": 1259,
      "Ġà¤Łà¤ķ": 1260,
      "à¤ħà¤²": 1261,
      "ew": 1262,
      "Ġà¤ıà¤¶": 1263,
      "as": 1264,
      "à¤®à¤£": 1265,
      "à¤²à¤ļ": 1266,
      "Ġà¤Ĺà¤¹à¤°": 1267,
      "à¤ıà¤¡": 1268,
      "Ġ2014": 1269,
      "id": 1270,
      "Ġà¤Ĩà¤ªà¤¸": 1271,
      "is": 1272,
      "à¤¤à¤¤": 1273,
      "Ġà¤īà¤¨à¤®": 1274,
      "Ġà¤ķà¤ªà¤¡": 1275,
      "à¤Łà¤ķà¤°": 1276,
      "Ġà¤°à¤«": 1277,
      "Ġà¤ħà¤°à¤µ": 1278,
      "Ġà¤ªà¤µ": 1279,
      "Ġà¤Ĩà¤īà¤Ł": 1280,
      "Ġ70": 1281,
      "Ġà¤¦à¤¹": 1282,
      "à¤·à¤ľ": 1283,
      "Ġà¤Ĺà¤łà¤¬": 1284,
      "à¤ķà¤²à¤¨": 1285,
      "Ġà¤¹à¤¨": 1286,
      "à¥Ģà¤Ĥ.": 1287,
      "à¤ľà¤¬": 1288,
      "Ġ2016": 1289,
      "99": 1290,
      "à¤¼à¤¾à¥¤": 1291,
      "à¤¾?": 1292,
      "Ġà¤Ĩà¤¹": 1293,
      "Ġà¤īà¤§à¤°": 1294,
      "Ġà¤ĸà¥ľ": 1295,
      "Ġà¤Ĺà¤łà¤¨": 1296,
      "à¤¯à¤µà¤¹": 1297,
      "Ġà¤īà¤ķ": 1298,
      "à¤°à¤ķà¤°": 1299,
      "Ġà¤§à¤°à¤¨": 1300,
      "Ġ>": 1301,
      "à¤ıà¤¸à¤Ł": 1302,
      "à¤µà¤¹à¤¨": 1303,
      "ing": 1304,
      "Ġà¤ĩà¤ļ": 1305,
      "Ġà¤Īà¤°": 1306,
      "à¥ŀ": 1307,
      "Ġ45": 1308,
      "Ġà¤°à¤¦": 1309,
      "ur": 1310,
      "Ġà¤Ńà¤Ł": 1311,
      "Ġà¤ĳà¤ªà¤°": 1312,
      "ĠU": 1313,
      "Ġà¤¸à¤¦à¤°": 1314,
      "ch": 1315,
      "à¤¯à¤¯à¤¨": 1316,
      "à¤ªà¤¡": 1317,
      "Ġà¤Ĭà¤°": 1318,
      "Ġà¤¸à¤¹à¤®à¤¤": 1319,
      "Ġ/": 1320,
      "Ġà¤¨à¤ľ": 1321,
      "ay": 1322,
      "à¤ķà¥ľ": 1323,
      "à¤¾à¤Ĥ,": 1324,
      "Ġà¤ĳà¤Ł": 1325,
      "à¥ĥà¤Ĥ": 1326,
      "Ġà¤ħà¤¸à¤²": 1327,
      "Ġà¤ħà¤«à¤Ĺ": 1328,
      "à¤¾'": 1329,
      "Ġ32": 1330,
      "à¤ľà¤¤": 1331,
      "à¤¨à¤¤à¤®": 1332,
      "à¤¦à¤¶": 1333,
      "Ġà¤¬à¤°à¤¸": 1334,
      "Ġà¤¬à¤ķ": 1335,
      "à¤¡à¤¬": 1336,
      "à¤ľà¤¨à¤ķ": 1337,
      "à¤ªà¤¥": 1338,
      "Ġ80": 1339,
      "15": 1340,
      "Ġà¤¬à¤§": 1341,
      "ĠRead": 1342,
      "18": 1343,
      "à¤®à¤¶": 1344,
      "Ġà¤ªà¤ķà¥ľ": 1345,
      "Ġà¤ªà¤¨": 1346,
      "Ġà¤ĩà¤°": 1347,
      "Ġà¤¦à¤¶à¤ķ": 1348,
      "Ġà¤ĩà¤§à¤°": 1349,
      "ome": 1350,
      "Ġà¤¬à¤¨à¤¤": 1351,
      "Ġà¤Ĳà¤²": 1352,
      "Ġ.": 1353,
      "Ġà¤ħà¤Ł": 1354,
      "....": 1355,
      "Ġà¤°à¤£à¤¨": 1356,
      "Ġ37": 1357,
      "Ġ500": 1358,
      "Ġà¤Ĩà¤ªà¤¨": 1359,
      "à¤Ńà¤ķ": 1360,
      "Ġà¤ĭà¤·": 1361,
      "Ġà¤ļà¤ª": 1362,
      "Ġà¤¬à¤Ĺ": 1363,
      "à¤ĩà¤«": 1364,
      "à¤¾âĢĻ": 1365,
      "Ġà¤ħà¤¡": 1366,
      "Ġà¤ľà¤¸": 1367,
      "à¤ıà¤®à¤¸": 1368,
      "ĠÂ»": 1369,
      "Ġà¤§à¤®": 1370,
      "Ġà¤īà¤ªà¤°": 1371,
      "Ġà¤Ĩà¤Īà¤¸": 1372,
      "âĢįà¤¿": 1373,
      "ol": 1374,
      "Ġà¤Ĩà¤Ĺà¤°": 1375,
      "Ġà¤Īà¤¶": 1376,
      "Ġ198": 1377,
      "et": 1378,
      "à¤¦à¤ª": 1379,
      "us": 1380,
      "Ġà¤Ĳà¤ª": 1381,
      "ra": 1382,
      "à¤·à¤°": 1383,
      "Ġà¤ĩà¤®à¤°": 1384,
      "à¤¨à¤¬": 1385,
      "Ġà¤¶à¤¤": 1386,
      "à¤¯à¤ľ": 1387,
      "à¤¯à¤¡": 1388,
      "Ġà¤ķà¤ļ": 1389,
      "Ġà¤¹à¤ķ": 1390,
      "Ġà¤®à¤®à¤¤": 1391,
      "ĠO": 1392,
      "à¤¹à¤¨à¤¤": 1393,
      "25": 1394,
      "à¤¾à¥ħ": 1395,
      "à¤£à¤¸": 1396,
      "à¤Ĩà¤ĩ": 1397,
      "Ġà¤ľà¤¨à¤°à¤²": 1398,
      "Ġà¤¬à¤¦à¤²à¤¨": 1399,
      "à¤ĳ": 1400,
      "Ġà¤ıà¤¯à¤°à¤ª": 1401,
      "ews": 1402,
      "à¤ªà¤Łà¤¨": 1403,
      "ir": 1404,
      "Ġà¤īà¤ªà¤ķà¤°à¤£": 1405,
      "Ġà¤¶à¤ĸ": 1406,
      "Ġà¤ļà¤¨": 1407,
      "Ġà¤²à¥ľà¤ķ": 1408,
      "Ġà¤ıà¤Ĺ": 1409,
      "à¤¨à¤¯": 1410,
      "Ġ2015": 1411,
      "à¤¹à¤¬": 1412,
      "à¤Łà¤¤": 1413,
      "à¤¸à¤Ĺà¤¢": 1414,
      "à¤¸à¤²à¤®": 1415,
      "el": 1416,
      "Ġà¤¬à¤°à¤¤": 1417,
      "à¥Ģ'": 1418,
      "à¤¼,": 1419,
      "à¤¯à¤°à¤®": 1420,
      "§à¥": 1421,
      "Ġà¤®à¤¹à¤ľ": 1422,
      "ĠHome": 1423,
      "à¤°à¤ķà¤¤": 1424,
      "Ġ36": 1425,
      "à¤ħà¤°": 1426,
      "à¥ģà¤ģ": 1427,
      "Ġà¤ıà¤°": 1428,
      "Ġà¤¬à¤ļà¤¨": 1429,
      "à¤¯à¤Łà¤¨": 1430,
      "à¤ĩà¤ª": 1431,
      "11": 1432,
      "Ġà¤Ĩà¤ļ": 1433,
      "à¤Ĥ.": 1434,
      "Ġà¤¤à¤¹à¤°": 1435,
      "Ġà¤Ńà¤¯": 1436,
      "Ġà¤Ŀà¤Łà¤ķ": 1437,
      "âĢĮ": 1438,
      "il": 1439,
      "Ġà¤¬à¤®": 1440,
      "ot": 1441,
      "Ġà¤Ńà¤°à¤¨": 1442,
      "Ġà¤Ĺà¤¨": 1443,
      "un": 1444,
      "à¤¿à¤¼": 1445,
      "à¤°à¤ĸà¤ª": 1446,
      "Ġà¤¸à¤®à¤ķ": 1447,
      "Ġà¤ıà¤¡à¤®": 1448,
      "''": 1449,
      "Ġà¤®à¤¨à¤®": 1450,
      "Ġà¤¸à¤«à¤°": 1451,
      "ĠJ": 1452,
      "à¤Ĩà¤°à¤ª": 1453,
      "à¤¤à¤ª": 1454,
      "Ġà¤¸à¤Ł": 1455,
      "à¤ĩà¤ľà¤°": 1456,
      "Ġà¤ĩà¤¶": 1457,
      "à¤Īà¤ĵ": 1458,
      "à¤¿-": 1459,
      "Ġ33": 1460,
      "Ġ34": 1461,
      "Ġà¤ľà¤¡": 1462,
      "Ġà¤¸à¤¦à¤¨": 1463,
      "Ġà¤µà¤¨à¤¡": 1464,
      "12": 1465,
      "Ġ75": 1466,
      "à¤¯à¤¹": 1467,
      "Ġà¤¦à¤°à¤µ": 1468,
      "Ġà¤ļà¤®": 1469,
      "Ġà¥Ľ": 1470,
      "à¤Łà¤µà¤°": 1471,
      "à¤°à¤ł": 1472,
      "à¤°à¤ķà¤°à¤£": 1473,
      "à¤ĩà¤¬à¤°": 1474,
      "à¤ıà¤¸à¤¸": 1475,
      "à¤°à¤µà¤°": 1476,
      "Ġà¤ĵà¤ªà¤¨": 1477,
      "Ġ[": 1478,
      "Ġà¤ªà¥ľà¤¤": 1479,
      "so": 1480,
      "Ġ)": 1481,
      "Ġà¤ªà¤¦à¤ķ": 1482,
      "Ġ90": 1483,
      "Ġà¤¶à¤ªà¤¥": 1484,
      "ĠIn": 1485,
      "ct": 1486,
      "Ġà¤¦à¤«": 1487,
      "Ġà¤Ľà¤ł": 1488,
      "à¤®à¤¹à¤¤": 1489,
      "Ġà¤Ĩà¤ľà¤®": 1490,
      "40": 1491,
      "Ġ...": 1492,
      "ent": 1493,
      "Ġm": 1494,
      "Ġà¤Ĩà¤Ń": 1495,
      "Ġà¤²à¤Ĺà¤µ": 1496,
      "à¤īà¤¨à¤²": 1497,
      "Ġt": 1498,
      "à¤¾à¥ĩ": 1499,
      "ĠĠĠĠĠĠĠĠĠĠĠĠĠĠĠĠĠĠĠĠĠĠĠĠĠĠĠĠĠĠĠĠ": 1500,
      "Ġà¤ĳà¤°": 1501,
      "17": 1502,
      "à¥ĢâĢĻ": 1503,
      "Ġà¤ľà¤ľ": 1504,
      "à¤Īà¤¸": 1505,
      "Ġà¤¦à¤¤": 1506,
      "Ġà¤µà¤ľà¤¨": 1507,
      "Ġà¤ħà¤ªà¤¡": 1508,
      "ĠâĢ¦": 1509,
      "Ġs": 1510,
      "Ġà¤¸à¤°à¤¸": 1511,
      "Ġà¤łà¤¹à¤°": 1512,
      "Ġp": 1513,
      "Ġà¤ıà¤¨à¤¸": 1514,
      "Ġà¥ŀ": 1515,
      "Ġà¤ħà¤µà¤¸": 1516,
      "ag": 1517,
      "à¤Ĺà¤ª": 1518,
      "Ġà¤®à¤£": 1519,
      "Ġà¤Ĩà¤ªà¤¦": 1520,
      "Ġà¤Īà¤®": 1521,
      "à¤¯à¤¶": 1522,
      "à¤¶à¤®": 1523,
      "à¤Īà¤µ": 1524,
      "Ġà¤®à¤¶à¤¹": 1525,
      "Ġà¤ħà¤¥à¤µ": 1526,
      "Ġà¤¬à¤¨à¤µ": 1527,
      "Ġà¤ĵà¤ª": 1528,
      "Ġà¤°à¤ļà¤¨": 1529,
      "har": 1530,
      "Ġà¤ªà¤¬": 1531,
      "à¤£à¤µà¤¤": 1532,
      "Ġà¤Ĩà¤¦à¤°": 1533,
      "Ġà¤Īà¤¸": 1534,
      "à¤¨à¤ľà¤°": 1535,
      "à¤Ĩà¤Īà¤Ĩà¤°": 1536,
      "à¤ķà¤¤à¤®": 1537,
      "Ġà¤ĭà¤£": 1538,
      "à¤ĩà¤µà¤°": 1539,
      "à¤²à¤Ń": 1540,
      "à¤¯à¤¸à¤Ń": 1541,
      "Ġ?": 1542,
      "à¤¸à¤«": 1543,
      "à¤ļà¤µ": 1544,
      "à¤Łà¤°à¤µ": 1545,
      "à¤ªà¤ļ": 1546,
      "ha": 1547,
      "Ġà¤ªà¤µà¤¨": 1548,
      "Ġà¤¨à¤¸": 1549,
      "à¤ľà¤«": 1550,
      "hi": 1551,
      "à¤°à¤¦à¤¸": 1552,
      "Ġ48": 1553,
      "16": 1554,
      "à¤²à¤¡": 1555,
      "Ġà¤īà¤¤à¤¨": 1556,
      "Ġ2013": 1557,
      "à¥ľà¤¤": 1558,
      "Ġà¤°à¤ķà¤®": 1559,
      "à¤¦à¤¤": 1560,
      "oo": 1561,
      "45": 1562,
      "ed": 1563,
      "and": 1564,
      "lso": 1565,
      "à¥Ī|": 1566,
      "à¤ıà¤Ł": 1567,
      "à¤°à¤Ĺà¤¤": 1568,
      "Ġ38": 1569,
      "à¤ıà¤¸à¤Ī": 1570,
      "Ġ197": 1571,
      "àª": 1572,
      "à¤¹à¤Ł": 1573,
      "à¤Ĩà¤Īà¤Ł": 1574,
      "Ġà¤Ĩà¤ªà¤¤": 1575,
      "à¤Ńà¤µà¤¤": 1576,
      "à¤ħà¤ªà¤¨": 1577,
      "ĠNews": 1578,
      "à¤®à¤¹": 1579,
      "Ġà¤ķà¥ľ": 1580,
      "Ġà¤¬à¤¨à¤°": 1581,
      "Ġà¤łà¤Ĺ": 1582,
      "Ġà¤ķà¤¤": 1583,
      "Ġà¤¤à¤Ł": 1584,
      "Ġà¤¬à¤¸à¤ª": 1585,
      "Ġc": 1586,
      "à¦": 1587,
      "à¤¶à¤Ńà¤°": 1588,
      "à¤łà¤Ń": 1589,
      "à¤ķà¤ľ": 1590,
      "60": 1591,
      "Ġà¤Ĳà¤¤": 1592,
      "Ġà¤Ńà¤°à¤ª": 1593,
      "14": 1594,
      "ov": 1595,
      "Ġà¤ıà¤¨à¤¡": 1596,
      "à¤¯à¤Łà¤ķ": 1597,
      "Ġà¤Ĩà¤Īà¤Ł": 1598,
      "à¤ķà¤ħà¤ª": 1599,
      "à¤ıà¤ª": 1600,
      "Ġà¤ĸà¤¨à¤¨": 1601,
      "Ġin": 1602,
      "Ġà¤¸à¤°à¤ª": 1603,
      "Ġà¤ĳà¤«à¤°": 1604,
      "Ġà¤Łà¤ķà¤°": 1605,
      "23": 1606,
      "Ġà¤ħà¤®à¤²": 1607,
      "Ġà¤¨à¤ķà¤¦": 1608,
      "à¤¯à¤ľà¤²": 1609,
      "Ġà¤Ĩà¤ĩà¤ı": 1610,
      "Ġà¤¸à¤®à¤Ŀà¤¨": 1611,
      "Ġà¤¬à¥Ŀà¤¤": 1612,
      "Ġà¤Ńà¤Ĺ": 1613,
      "Ġà¤¬à¤¨à¤ķà¤°": 1614,
      "Ġà¤ľà¤¬à¤°à¤¦à¤¸": 1615,
      "Ġà¤ıà¤«à¤Ĩà¤Īà¤Ĩà¤°": 1616,
      "Ġb": 1617,
      "Ġà¤¨à¤ľà¤¦": 1618,
      "Ġ''": 1619,
      "à¤ıà¤®à¤ĵ": 1620,
      "Ġ*": 1621,
      "ut": 1622,
      "Ġà¤Łà¤¨": 1623,
      "Ġà¤ĳà¤¡": 1624,
      "Ġà¤¸à¤®à¤¨": 1625,
      "Ġ55": 1626,
      "à¤°à¤¸à¤¨": 1627,
      "Ġà¤ľà¤Ĺà¤¤": 1628,
      "à¤µà¤¡": 1629,
      "Ġà¤Ĩà¤ªà¤°": 1630,
      "à®": 1631,
      "Ġà¤Ķà¤¦": 1632,
      "Ġà¤ļà¤¤": 1633,
      "Ġà¤¥à¤°": 1634,
      "Ġà¤ħà¤²à¤°": 1635,
      "à¤µà¤®": 1636,
      "à¥Īà¤Ĥ?": 1637,
      "ig": 1638,
      "Ġ2012": 1639,
      "Ġà¤ķà¤µà¤°": 1640,
      "35": 1641,
      "à¤¾...": 1642,
      "Ġ300": 1643,
      "Ġà¤ıà¤¸à¤ıà¤¸à¤ª": 1644,
      "à¤¸à¤Ĺà¥Ŀ": 1645,
      "à¤¡à¤ķà¤°": 1646,
      "Ġà¤Ķà¤¸à¤¤": 1647,
      "iv": 1648,
      "à¤ĸà¤ķ": 1649,
      "à¤µà¤¦": 1650,
      "Ġà¤¬à¤¹à¤°": 1651,
      "à¤°à¤°": 1652,
      "âĢĶ": 1653,
      "Ġà¤ħà¤µà¤¶": 1654,
      "Ġ150": 1655,
      "à¤Ĳ": 1656,
      "Ġà¤¬à¤Ł": 1657,
      "Ġà¤ľà¤¹à¤°": 1658,
      "Ġà¤Ńà¤¤": 1659,
      "Ġà¤¶à¤¤à¤ķ": 1660,
      "à¤Ĩà¤Īà¤ı": 1661,
      "à¥ĺ": 1662,
      "Ġ44": 1663,
      "Ġà¥¨": 1664,
      "à¤Ĺà¤£à¤¨": 1665,
      "à¤¹à¤ª": 1666,
      "Ġà¤¸à¤¤à¤°": 1667,
      "à¥ľà¤ķà¤°": 1668,
      "Ġà¥§à¥": 1669,
      "Ġà¤Ĩà¤ĩà¤¸": 1670,
      "Ġà¤ķà¤°à¤£": 1671,
      "Ġà¤ĸà¤¨": 1672,
      "24": 1673,
      "à¤ķà¤¤à¤°": 1674,
      "à¤Ĩà¤°à¤¸": 1675,
      "Ġà¤īà¤Ĺ": 1676,
      "à¤ıà¤¸à¤ıà¤¸": 1677,
      "ro": 1678,
      "Ġà¤Ľà¤µ": 1679,
      "Ġà¤²à¤²": 1680,
      "à¤Ĩà¤Īà¤¸": 1681,
      "Ġà¤°à¤ĸà¤ķà¤°": 1682,
      "Ġà¤¬à¤¹à¤¸": 1683,
      "Ġà¤ħà¤µà¤Ĺà¤¤": 1684,
      "Ġ65": 1685,
      "pp": 1686,
      "à¤¨à¤µà¤°": 1687,
      "Ġ!": 1688,
      "à¤ķà¤¥": 1689,
      "à¤µà¤¹": 1690,
      "Ġà¤ľà¤¨à¤ľ": 1691,
      "13": 1692,
      "à¤ıà¤ļà¤¸": 1693,
      "Ġà¤ĵà¤®": 1694,
      "Ġ2011": 1695,
      "à¤ıà¤¨à¤ıà¤¸": 1696,
      "Ġà¤ıà¤¡à¤µ": 1697,
      "Ġà¤¨à¤ķà¤²": 1698,
      "ac": 1699,
      "à¥ĩ?": 1700,
      "Ġà¤Ĺà¤µ": 1701,
      "Ġà¤®à¤Ľà¤²": 1702,
      "em": 1703,
      "à¤§à¤ª": 1704,
      "Ġ42": 1705,
      "indi": 1706,
      "Ġà¥Ļ": 1707,
      "Ġà¤Ĺà¤¢": 1708,
      "ĠâĢĶ": 1709,
      "Ġà¤ĸà¤¤à¤°à¤¨": 1710,
      "Ġà¤¹à¤°à¤ķà¤¤": 1711,
      "à¤¶à¤¬": 1712,
      "Ġà¤ĵà¤¬": 1713,
      "à¤²à¤ļà¤¸": 1714,
      "à¥Ĥà¤Ĥ,": 1715,
      "Ġà¤®à¤°à¤¨": 1716,
      "----": 1717,
      "Ġà¤Ńà¤¡": 1718,
      "à¤¼à¤¾,": 1719,
      "han": 1720,
      "ul": 1721,
      "à¤ļà¤¯": 1722,
      "Ġà¤ĵà¤¡": 1723,
      "à¤¯à¤¨à¤¶": 1724,
      "à¤¨à¤Ĺ": 1725,
      "Ġà¤Ľà¤ķ": 1726,
      "à¤¯à¤Ł": 1727,
      "à¤Ĺà¤ķà¤°": 1728,
      "Ġà¤¦à¤¶": 1729,
      "Ġà¤ľà¤¬à¤²à¤ª": 1730,
      "Ġà¤ħà¤ĸà¤¬": 1731,
      "80": 1732,
      "Ġà¤°à¤ĺ": 1733,
      "à¤©": 1734,
      "à¤Łà¤ª": 1735,
      "à¤¯à¤²à¤Ł": 1736,
      "70": 1737,
      "à¤Ĺà¤£": 1738,
      "Ġà¤²à¤µ": 1739,
      "à¤¡à¤ª": 1740,
      "Ġ39": 1741,
      "à¤¼à¥ģ": 1742,
      "Ġà¤ķà¤²à¤°": 1743,
      "Ġà¤ªà¤¹à¤¨à¤¨": 1744,
      "à¤£à¤®": 1745,
      "Ġà¤Ĩà¤«": 1746,
      "Ġà¤«à¤¤": 1747,
      "Ġà¤Łà¤°": 1748,
      "à¤Ĭà¤¦": 1749,
      "Ġà¤ıà¤¬": 1750,
      "Ġà¤°à¤ļ": 1751,
      "Ġà¤īà¤ªà¤¨": 1752,
      "Ġà¤Ĩà¤°à¤Ł": 1753,
      "à¥ģ,": 1754,
      "à¤Ľà¤¡": 1755,
      "Ġà¤ħà¤ªà¤¹à¤°à¤£": 1756,
      "Ġà¤ľà¤ĸ": 1757,
      "à¤īà¤¥": 1758,
      "Ġà¤ľà¤Ĺà¤¦": 1759,
      "à¤°à¤¥": 1760,
      "Ġà¤ªà¤ļ": 1761,
      "Ġà¤²à¤¦": 1762,
      "Ġà¤²à¥ľ": 1763,
      "à¤ıà¤¸à¤Ĩà¤Ī": 1764,
      "Ġà¤°à¤¤": 1765,
      "à¤£à¤ķ": 1766,
      "Ġà¤¨à¤¹à¤°": 1767,
      "av": 1768,
      "Ġà¤¹à¤¦": 1769,
      "à¤Ĺà¤ł": 1770,
      "Ġà¤ľà¤¬à¤°": 1771,
      "Ġà¤Ńà¤°à¤¤": 1772,
      "à¤Łà¤°à¤¸": 1773,
      "à¤Ĩà¤µà¤ľ": 1774,
      "ation": 1775,
      "Ġà¤®à¤¥": 1776,
      "Ġà¤®à¤¸à¤²": 1777,
      "Ġà¤¦à¤¯": 1778,
      "Ġà¤Ĩà¤²à¤®": 1779,
      "à¤Īà¤Ł": 1780,
      "à¤ĸà¤¦": 1781,
      "à¤¦à¤¨à¤¶": 1782,
      "Ġà¤¨à¤µà¤°": 1783,
      "Ġà¤¸à¤¹à¤ķ": 1784,
      "Ġh": 1785,
      "à¤¤à¤ķà¤°": 1786,
      "à¤ĸà¤Ń": 1787,
      "à¥Ĥà¤Ĥ.": 1788,
      "à¤¶à¤ª": 1789,
      "75": 1790,
      "à¤¶à¤¨à¤ķ": 1791,
      "ab": 1792,
      "Ġf": 1793,
      "à¤²à¤ľ": 1794,
      "Ġ46": 1795,
      "à¤Ĺà¥ľ": 1796,
      "Ġà¤¶à¤°à¤£": 1797,
      "Ġà¤īà¤ªà¤ľ": 1798,
      "à¤¥à¤Ĺ": 1799,
      "Ġà¤ĸà¤Ł": 1800,
      "à¥ĩ...": 1801,
      "Ġà¤®à¤°à¤®": 1802,
      "Ġà¤²à¤Łà¤ķ": 1803,
      "90": 1804,
      "à¤Īà¤¡": 1805,
      "Ġà¤ĳà¤²": 1806,
      "Ġà¤°à¤¹à¤ķà¤°": 1807,
      "à¤Łà¤¸": 1808,
      "Ġ400": 1809,
      "Ġà¤¨à¤Īà¤¦": 1810,
      "ow": 1811,
      "à¥ĩ)": 1812,
      "à¥Ģ...": 1813,
      "Ġà¤Ĩà¤¸à¤®": 1814,
      "Ġà¤²à¤ĸ": 1815,
      "Ġà¤ħà¤Łà¤²": 1816,
      "à¤ıà¤®à¤ıà¤¸": 1817,
      "à¤¯à¤°à¤¤": 1818,
      "Ġà¤¶à¤¶": 1819,
      "à¤ªà¤°à¤¸": 1820,
      "Ġà¤ľà¤²à¤µ": 1821,
      "à¤¯à¤¯": 1822,
      "ðŁ": 1823,
      "Ġà¤¨à¤·": 1824,
      "Ġà¤²à¤®": 1825,
      "Ġà¤¬à¤ļà¤ªà¤¨": 1826,
      "im": 1827,
      "Ġà¤ħà¤ªà¤®": 1828,
      "à¤Ĺà¤¸": 1829,
      "Ġà¤Ĩà¤°à¤¤": 1830,
      "Ġà¤ªà¤°à¤µ": 1831,
      "Ġà¤ĺà¤¨": 1832,
      "Ġà¤īà¥ľ": 1833,
      "Ġ43": 1834,
      "à¤¸à¤ªà¤°": 1835,
      "à¥Īà¥¤'": 1836,
      "Ġà¤§à¤µà¤¨": 1837,
      "Ġ47": 1838,
      "Ġ#": 1839,
      "ĠAlso": 1840,
      "Ġà¤ĩà¤µ": 1841,
      "à¤£à¤µ": 1842,
      "à¤ĩà¤¡à¤²": 1843,
      "Ġà¤¬à¤°à¤ķà¤°": 1844,
      "à¤²à¤ªà¤¤": 1845,
      "Ġà¤¶à¤®": 1846,
      "à¤®à¤§": 1847,
      "à¤ıà¤¨à¤ıà¤¨": 1848,
      "Ġ49": 1849,
      "Ġ196": 1850,
      "à¤ķà¤²à¤¤": 1851,
      "Ġà¤ıà¤ķà¤®": 1852,
      "ĠâĢĭ": 1853,
      "ak": 1854,
      "Ġà¤Ĺà¤¹à¤²": 1855,
      "Ġà¤Ĩà¤®à¤¤": 1856,
      "Ġà¤¡à¤¬": 1857,
      "Ġà¤¸à¤°à¤²": 1858,
      "à¤¸à¤¹": 1859,
      "Ġà¤¹à¤°à¤¦": 1860,
      "à¤Ĺà¤ªà¤¤": 1861,
      "à¤Ńà¤¦": 1862,
      "Ġà¤Ńà¤¦": 1863,
      "à¤łà¤ķà¤°": 1864,
      "est": 1865,
      "26": 1866,
      "55": 1867,
      "à¤²à¤ĸ": 1868,
      "Ġà¤ªà¤Łà¤°": 1869,
      "à¤ļà¤®": 1870,
      "Ġà¤¶à¤°à¤¦": 1871,
      "Ġà¤¬à¤ļà¤¤": 1872,
      "Ġà¤¨à¤®à¤ķ": 1873,
      "Ġà¤¯à¤®": 1874,
      "Ġà¤ªà¤°à¤«": 1875,
      "Ġà¤ĳà¤ª": 1876,
      "à¥Ģ?": 1877,
      "ore": 1878,
      "Ġà¤ĸà¤¦": 1879,
      "Ġ41": 1880,
      "Ġà¤Ĩà¤Īà¤¡": 1881,
      "à¥ĭà¤Ĥ-": 1882,
      "à¤Īà¤²": 1883,
      "Ġà¤ıà¤ķà¤ľ": 1884,
      "29": 1885,
      "à¤Łà¤ĩ": 1886,
      "Ġ64": 1887,
      "27": 1888,
      "Ġà¤¯à¤ķ": 1889,
      "Ġà¤®à¤ķà¤¸à¤¦": 1890,
      "Ġl": 1891,
      "Ġà¤¬à¤ĸ": 1892,
      "à¤Īà¤¯": 1893,
      "à¤ĩà¤Ĺà¤°": 1894,
      "um": 1895,
      "47": 1896,
      "à¤¸à¤«à¤°": 1897,
      "Ġà¤Ĺà¤¹à¤¨": 1898,
      "à¤ĺà¤µ": 1899,
      "Ġà¤°à¤£à¤µ": 1900,
      "à¤¨à¤¹": 1901,
      "Ġ2010": 1902,
      "Ġ2009": 1903,
      "à¤¤à¤°à¤ª": 1904,
      "th": 1905,
      "Ġo": 1906,
      "Ġà¤ķà¤ļà¤°": 1907,
      "âĢĭ": 1908,
      "os": 1909,
      "à¤²à¤Ŀ": 1910,
      "Ġà¤ªà¤¥": 1911,
      "âĢĵ": 1912,
      "Ġà¤¨à¤µà¤®": 1913,
      "à¤¼à¥ĩà¤Ĥ:": 1914,
      "Ġà¤Ĺà¤£à¤¤": 1915,
      "à¤Ĺà¤Łà¤¨": 1916,
      "Ġà¤ļà¤®à¤ķ": 1917,
      "à¤®à¤¨à¤Ĺà¤°": 1918,
      "à¤¿âĢį": 1919,
      "à¤²à¤«": 1920,
      "Ġà¤¸à¤°à¤¦": 1921,
      "Ġà¤Ĩà¤¯à¤ķà¤°": 1922,
      "Ġ56": 1923,
      "Ġà¤ıà¤¸à¤Ł": 1924,
      "dia": 1925,
      "28": 1926,
      "ex": 1927,
      "à¤¯à¤§": 1928,
      "Ġà¤¤à¤ķà¤°": 1929,
      "Ġà¤¸à¤®à¤Ŀà¤¤": 1930,
      "ess": 1931,
      "Ġà¤®à¤¯": 1932,
      "à¤§à¤ķà¤°": 1933,
      "à¤®à¤®": 1934,
      "à¤Ĺà¤®à¤¨": 1935,
      "Ġ2008": 1936,
      "à¥Ī-": 1937,
      "à¤īà¤¤": 1938,
      "Ġ51": 1939,
      "ide": 1940,
      "Ġà¤ħà¤ªà¤²": 1941,
      "Ġk": 1942,
      "à¤®à¤ľ": 1943,
      "Ġà¤°à¤ľà¤¨": 1944,
      "Ġ54": 1945,
      "Ġà¤ħà¤«à¤µ": 1946,
      "Ġà¤¸à¤Ĭà¤¦": 1947,
      "Ġà¤Ĩà¤ľà¤ķà¤²": 1948,
      "Ġà¤ªà¤ł": 1949,
      "à¤Ĩà¤īà¤Ł": 1950,
      "Ġà¤¬à¤ĺ": 1951,
      "Ġà¤Ĩà¤°à¤¬": 1952,
      "Ġà¤ľà¤¨à¤ª": 1953,
      "à¤ĩà¤¨à¤°": 1954,
      "à¤¿:": 1955,
      "à¤¹à¤Ĺ": 1956,
      "Ġ53": 1957,
      "Ġà¤®à¤¤à¤Ĺà¤£à¤¨": 1958,
      "Ġà¤ıà¤®à¤ª": 1959,
      "à¤¸à¤Ń": 1960,
      "à¤Łà¤¡": 1961,
      "à¤ķà¤ķà¤°": 1962,
      "Ġà¤Ĺà¤µà¤°": 1963,
      "Ġà¤ķà¤¹à¤°": 1964,
      "Ġ58": 1965,
      "à¤°à¤¨à¤Ĺà¤°": 1966,
      "Ġw": 1967,
      "à¤¾à¥ĩà¤Ĥ": 1968,
      "à¤¿à¥¤": 1969,
      "à¤·à¤§": 1970,
      "à¥Īà¥¤\"": 1971,
      "48": 1972,
      "à¤Ķ": 1973,
      "Ġà¤ĸà¤²": 1974,
      "ID": 1975,
      "à«": 1976,
      "Ġà¤¸à¤¶à¤ķ": 1977,
      "Ġà¤ľà¤¶": 1978,
      "Ġà¤°à¤¥": 1979,
      "à¤¬à¥ľ": 1980,
      "à¤ħà¤¨": 1981,
      "à¤µà¤£": 1982,
      "Ġà¤§à¤°à¤¤": 1983,
      "Ġ72": 1984,
      "Ġà¤ªà¤²à¤Ł": 1985,
      "à¤Łà¤¨à¤°": 1986,
      "hat": 1987,
      "à¤ĩà¤¶": 1988,
      "Ġà¤®à¤¹à¤°": 1989,
      "Ġà¤ķà¤®à¤²à¤¨": 1990,
      "art": 1991,
      "ĠPM": 1992,
      "à¤«à¤¨": 1993,
      "à¤¼à¥Ģ,": 1994,
      "Ġà¤Ĩà¤°à¤ª": 1995,
      "Ġà¤īà¤ªà¤®": 1996,
      "Ġà¤Ĩà¤¦à¤¤": 1997,
      "GB": 1998,
      "à¤µà¤Ń": 1999,
      "à¤ıà¤¸à¤ıà¤«": 2000,
      "Ġ2007": 2001,
      "com": 2002,
      "à¤¸à¤ıà¤ª": 2003,
      "à¤¼à¥ĩà¥¤": 2004,
      "à¥Ľà¤°": 2005,
      "Ġâ": 2006,
      "Ġà¤®à¤¦à¤¨": 2007,
      "Ġà¤ļà¤°à¤®": 2008,
      "ĠðŁ": 2009,
      "à¤§à¤¶": 2010,
      "Ġà¤§à¤ķ": 2011,
      "Ġà¤Ĩà¤Īà¤ı": 2012,
      "Ġà¤¨à¤µà¤ľ": 2013,
      "à¤ıà¤ļà¤ĵ": 2014,
      "33": 2015,
      "Ġà¤ķà¤¦": 2016,
      "Ġ52": 2017,
      "à¥¦à¥": 2018,
      "Ġà¤¬à¤µ": 2019,
      "à¤¬à¤°à¤®": 2020,
      "à¤°à¤¤à¤®": 2021,
      "Ġ2000": 2022,
      "Ġà¤Ńà¤Ĺà¤¤": 2023,
      "Ġà¤Ĺà¤ľ": 2024,
      "Ġà¤¹à¤¸à¤¨": 2025,
      "à¤Ľà¤¨": 2026,
      "Ġà¤ķà¤ªà¥ľ": 2027,
      "Ġv": 2028,
      "à¤¯à¤¥": 2029,
      "à¤Ĩà¤Īà¤ª": 2030,
      "Ġà¤ıà¤¨à¤ıà¤ļ": 2031,
      "ĠHindi": 2032,
      "Ġà¤ıà¤ļà¤¡": 2033,
      "he": 2034,
      "Ġà¤¬à¤¦à¤¨": 2035,
      "à¤¾à¤Ĥ-": 2036,
      "à¤¼à¥Ī": 2037,
      "Ġà¤¯à¤ľ": 2038,
      "à¤°à¤ķà¤Ł": 2039,
      "Ġà¤¬à¤°à¤¤à¤¨": 2040,
      "à¤°à¤ļà¤¨": 2041,
      "Ġà¤ħà¤®à¤¨": 2042,
      "à¤«à¤°à¤ª": 2043,
      "Ġ2022": 2044,
      "Ġà¤¬à¤¦à¤²à¤¤": 2045,
      "500": 2046,
      "ri": 2047,
      "Ġi": 2048,
      "Ġà¤Ĺà¤®": 2049,
      "46": 2050,
      "Ġà¤¥à¤®": 2051,
      "à¤ĩà¤¬": 2052,
      "Ġ250": 2053,
      "ap": 2054,
      "à¤ķà¤Ń": 2055,
      "à¤¹à¤µ": 2056,
      "Ġà¤Ĩà¤Ł": 2057,
      "à¤§à¤¡": 2058,
      "Ġà¤ļà¥Ŀ": 2059,
      "à¤ĩà¤¡à¤°": 2060,
      "à¤¶à¤¯": 2061,
      "Ġà¤Ńà¤ľà¤¨": 2062,
      "à¤ıà¤¸à¤ı": 2063,
      "Ġà¤īà¤łà¤¤": 2064,
      "SC": 2065,
      "à¤ļà¤¤à¤®": 2066,
      "Ġà¤łà¤ª": 2067,
      "à¤¼à¥ĩà¤Ĥ-": 2068,
      "à¤¨à¤Īà¤¦": 2069,
      "à¤µà¤¯à¤¨": 2070,
      "à¤Ĺà¤µà¤¤": 2071,
      "Ġà¤¨à¤µà¤¨": 2072,
      "Ġà¤Ľà¤ª": 2073,
      "à¤°à¤®à¤¶": 2074,
      "à¤¶à¤ķà¤¶": 2075,
      "Ġà¤·": 2076,
      "Ġà¤Ķà¤·à¤§": 2077,
      "ĠĠĠĠĠĠĠĠĠĠĠĠĠĠĠĠĠĠĠĠĠĠĠĠĠĠĠĠĠĠĠĠĠĠĠĠĠĠĠĠĠĠĠĠĠĠĠĠĠĠĠĠĠĠĠĠĠĠĠĠĠĠĠĠ": 2078,
      "49": 2079,
      "à¤¤à¤Ĺ": 2080,
      "Ġà¤ĩà¤Ł": 2081,
      "Ġ57": 2082,
      "à¤Ĺà¤¨à¤¬": 2083,
      "Ġd": 2084,
      "à¤¦à¤ķà¤°": 2085,
      "à¤Ĩà¤ª": 2086,
      "Ġà¤ªà¤¹à¤²à¤µ": 2087,
      "à¤°à¤¨à¤ª": 2088,
      "à¤ľà¤¶": 2089,
      "Ġ1000": 2090,
      "od": 2091,
      "ĠâĢĿ": 2092,
      "à¤ľà¤°à¤¨": 2093,
      "ment": 2094,
      "Ġà¤ıà¤¨à¤ľ": 2095,
      "Ġà¤īà¤§": 2096,
      "à¤Ĺà¤¦à¤°": 2097,
      "à¤¼à¥Ģà¥¤": 2098,
      "WE": 2099,
      "à¯": 2100,
      "Ġà¤®à¤ķà¤°": 2101,
      "à¤®à¤¬": 2102,
      "Ġà¤īà¤Ńà¤°": 2103,
      "à¤ĵà¤¸": 2104,
      "Ġà¤ĩà¤¨à¤¸": 2105,
      "Ġà¤Ĩà¤¨à¤¨": 2106,
      "Ġ63": 2107,
      "Ġà¤īà¤¤à¤°à¤¨": 2108,
      "65": 2109,
      "og": 2110,
      "à¥Ī:": 2111,
      "à¤ĸà¤µ": 2112,
      "Ġà¤ĸà¤ľ": 2113,
      "Ġà¤®à¤¨à¤°": 2114,
      "Ġà¤¥à¤ķ": 2115,
      "à¤§à¤¶à¤¤à¤ķ": 2116,
      "op": 2117,
      "à¤¾|": 2118,
      "Ġà¤ĳà¤¨": 2119,
      "à¤¸à¤®à¤¯": 2120,
      "Ġà¤Ĩà¤ķà¤²à¤¨": 2121,
      "ate": 2122,
      "ĠUP": 2123,
      "ter": 2124,
      "à¤¯à¤¸à¤µ": 2125,
      "Ġà¤¬à¤ľà¤°": 2126,
      "à¤Ĺà¤²à¤ª": 2127,
      "ĠRa": 2128,
      "à¤Ĺà¤¶": 2129,
      "Ġà¤ľà¤¦à¤¯": 2130,
      "Ġà¤ĩà¤¸à¤¨": 2131,
      "à¤ķà¤µà¤°": 2132,
      "Ġà¤ªà¤ª": 2133,
      "Ġà¤¬à¤¬": 2134,
      "Ġà¤¨à¤¨": 2135,
      "Ġà¤ħà¤µà¤¤": 2136,
      "Ġà¤ĩà¤ķà¤Ł": 2137,
      "Ġà¤ıà¤¸à¤¸": 2138,
      "à¤ľà¤Ĺà¤¹": 2139,
      "ĠIP": 2140,
      "à¤Īà¤ª": 2141,
      "à¤ĸà¤ª": 2142,
      "Ġà¤¬à¤ľà¤ķà¤°": 2143,
      "Ġà¤īà¤®à¤°": 2144,
      "one": 2145,
      "ĠWWE": 2146,
      "Ġà¤²à¤¤": 2147,
      "à¥ĭà¤Ĥà¥¤": 2148,
      "Ġà¤ħà¤¨à¤¦": 2149,
      "Ġ67": 2150,
      "Ġà¤ªà¤¥à¤°": 2151,
      "Ġà¤°à¤®à¤¨": 2152,
      "Ġà¤ªà¤°à¤¨": 2153,
      "Ġà¤ªà¤°à¤¸": 2154,
      "à¤Īà¤¨": 2155,
      "à¤¤à¤¸à¤°": 2156,
      "à¤Ĺà¤ķ": 2157,
      "Ġà¤¦à¤¹à¤¶à¤¤": 2158,
      "Ġà¤ľà¤¬à¤°à¤¨": 2159,
      "up": 2160,
      "à¤¸à¤Ł": 2161,
      "à¤¶à¤¨à¤°": 2162,
      "Ġà¤ľà¤²à¤¸": 2163,
      "Ġ73": 2164,
      "Ġ85": 2165,
      "43": 2166,
      "ĠY": 2167,
      "à¤¿.": 2168,
      "Ġà¤Ĺà¤¶": 2169,
      "Ġà¤ħà¤¬à¤¤à¤ķ": 2170,
      "',": 2171,
      "95": 2172,
      "à¤ªà¤¶": 2173,
      "Ġà¤Ĩà¤¡à¤µ": 2174,
      "Ġà¤Ĳà¤¶": 2175,
      "Ġ66": 2176,
      "Ġà¤Ĭà¤¨": 2177,
      "Ġà¤ħà¤«à¤°": 2178,
      "Ġof": 2179,
      "ce": 2180,
      "à¤¨à¤ļ": 2181,
      "Ġà¤Ĩà¤¸à¤¨": 2182,
      "Ġà¤Łà¤®": 2183,
      "Ġà¤ıà¤¸à¤¬": 2184,
      "Ġà¤ħà¤µà¤ķ": 2185,
      "ĠâĢĻ": 2186,
      "à¤īà¤¦": 2187,
      "à¤Ķà¤°": 2188,
      "Ġà¤²à¤ķà¤¡": 2189,
      "Ġà¤¤à¤¡": 2190,
      "à¥Īà¤Ĥ-": 2191,
      "Ġà¤¸à¤¹à¤¨": 2192,
      "à¤ħà¤®": 2193,
      "Ġà¤°à¤£à¤¬": 2194,
      "à¤Ĩà¤ľ": 2195,
      "Ġà¤īà¤¦à¤¯": 2196,
      "32": 2197,
      "Ġà¤ľà¤Ł": 2198,
      "Ġ195": 2199,
      "Ġà¤ħà¤ľà¤®": 2200,
      "Ġn": 2201,
      "Ġà¤¨à¤²": 2202,
      "Ġà¤ķà¤¹à¤ķà¤°": 2203,
      "Ġà¤²à¤ĺ": 2204,
      "à¤Ĺà¤¬": 2205,
      "Ġà¤ħà¤µà¤°": 2206,
      "Ġà¤Ķà¤ªà¤ļ": 2207,
      "Ġà¤¡à¤¬à¤²": 2208,
      "Ġà¤¦à¤°à¤¬": 2209,
      "à¤µà¤¸à¤¨": 2210,
      "à¤ħà¤¬": 2211,
      "oron": 2212,
      "ive": 2213,
      "ist": 2214,
      "Ġà¤Ńà¤Łà¤ķ": 2215,
      "Ġà¤¬à¤²à¤°": 2216,
      "Ġà¤Īà¤µ": 2217,
      "à¤ıà¤«à¤¸": 2218,
      "ip": 2219,
      "à¤¯à¤Ĺ": 2220,
      "à¤¦à¤Ń": 2221,
      "à¤¶à¤¦": 2222,
      "Ġà¤ıà¤®à¤¬": 2223,
      "JP": 2224,
      "à¤µà¥ľ": 2225,
      "Ġà¤§à¤¨à¤°": 2226,
      "Ġà¤ĭà¤¤": 2227,
      "Ġà¤ĺà¤Łà¤ķà¤°": 2228,
      "à¥ĩâĢĻ": 2229,
      "Ġà¤¨à¤¡": 2230,
      "Ġ59": 2231,
      "Ġà¤Ŀà¤¡": 2232,
      "Ġ68": 2233,
      "ĠPr": 2234,
      "Ġà¤ĩà¤®à¤°à¤ľ": 2235,
      "36": 2236,
      "Ġà¤¨à¤°à¤¸": 2237,
      "à¤¶à¤¸": 2238,
      "Ġà¤¯à¤¥": 2239,
      "à¤ĸà¤£": 2240,
      "à¤«à¤¬": 2241,
      "Ġà¤ĵà¤Ł": 2242,
      "Ġà¤Ŀà¤Ĺà¤¡": 2243,
      "Ġà¤ªà¤Łà¤µ": 2244,
      "à¥įâĢĮ": 2245,
      "Ġà¤®à¤¹à¤²": 2246,
      "Ġà¤ħà¤¸à¤¹": 2247,
      "Ġà¤ıà¤¸à¤ĵ": 2248,
      "Ġa": 2249,
      "Ġà¤°à¤¤à¤¨": 2250,
      "Ġ120": 2251,
      "Ġà¤ĺà¤¬à¤°": 2252,
      "à¤ªà¤¹": 2253,
      "Ġà¤¦à¤¸à¤µ": 2254,
      "Ġà¤°à¤¶": 2255,
      "Ġà¤Ĩà¤¡": 2256,
      "à¤Ĩà¤°à¤¡": 2257,
      "ĠSt": 2258,
      "Ġà¤¸à¤¨à¤¸à¤¨": 2259,
      "à¤ľà¤ķà¤°": 2260,
      "Ġà¤²à¤¹": 2261,
      "Ġà¤Īà¤¦": 2262,
      "if": 2263,
      "à¤ĩà¤®à¤°": 2264,
      "à¤Ĩà¤¨": 2265,
      "à¤¸à¤¨à¤²": 2266,
      "à¤¾)à¥¤": 2267,
      "200": 2268,
      "ia": 2269,
      "Ġ`": 2270,
      "à¤ķà¤¹": 2271,
      "Ġà¤Ĩà¤®à¤¨": 2272,
      "Ġ95": 2273,
      "BI": 2274,
      "à¤¤à¤¦": 2275,
      "Ġà¤®à¤²à¤¬": 2276,
      "Ġà¤Ĩà¤°à¤¸": 2277,
      "Ġà¤ıà¤¸à¤ıà¤¸": 2278,
      "Ġà¤ıà¤®à¤¡": 2279,
      "ht": 2280,
      "Ġà¤¹à¥ľà¤¤": 2281,
      "Ġà¤Ĺà¤£à¤¨": 2282,
      "Ġà¤ĩà¤ľà¤°": 2283,
      "à¥ĭ)": 2284,
      "à¤Łà¤ħà¤ª": 2285,
      "Ġà¤īà¤¬": 2286,
      "Ġà¤ĵà¤µ": 2287,
      "Ġà¤¬à¥Ŀà¤¨": 2288,
      "à¤Ĩà¤Īà¤ıà¤ıà¤¨à¤ıà¤¸": 2289,
      "38": 2290,
      "Ġà¤®à¤ª": 2291,
      "Ġà¤¡à¤ķ": 2292,
      "Ġà¤ħà¤¨à¤²": 2293,
      "Ġà¤īà¤ªà¤¹": 2294,
      "Ġà¤ħà¤Ńà¤¯": 2295,
      "Ġà¤Ĩà¤łà¤µ": 2296,
      "Ġ370": 2297,
      "à¤®à¤Ł": 2298,
      "à¤Łà¤°à¤ª": 2299,
      "Ġà¤ľà¤®à¤¶": 2300,
      "à¤¾!": 2301,
      "à¥Ģ/": 2302,
      "à¤ĸà¤¬": 2303,
      "à¤¾à¥¤'": 2304,
      "ers": 2305,
      "¯à¥": 2306,
      "à¤ķà¤Ī": 2307,
      "Ġà¤ĩà¤Łà¤²": 2308,
      "à¥Īà¥¤âĢĿ": 2309,
      "à¤Ĩà¤Īà¤ıà¤®": 2310,
      "Ġ62": 2311,
      "Ġ78": 2312,
      "Ġà¤ıà¤®à¤ıà¤¸": 2313,
      "à¥ĩ'": 2314,
      "à¤°à¤Ĺà¤°": 2315,
      "à¤¹à¤£": 2316,
      "à¤Ĩà¤®": 2317,
      "ĠðŁĶ": 2318,
      "42": 2319,
      "77": 2320,
      "eb": 2321,
      "Ġà¤¸à¤Ĺ": 2322,
      "Ġà¤¨à¤Ĺ": 2323,
      "à¥Ĥ)": 2324,
      "Ġà¤ıà¤ķà¤¦à¤®": 2325,
      "Ġà¤Ľà¤²": 2326,
      "Ġà¤ľà¤¨à¤¹": 2327,
      "Ġ69": 2328,
      "Ġà¤ĺà¤¡": 2329,
      "à¤īà¤²": 2330,
      "Ġà¤Ĩà¤Īà¤ľ": 2331,
      "à¤ıà¤¨à¤¯": 2332,
      "Ġà¤īà¤²à¤Ŀ": 2333,
      "ĠðŁĶĬ": 2334,
      "oc": 2335,
      "Ġà¤ĥ": 2336,
      "à¥ĩà¤Ĥ...": 2337,
      "Ġà¤µà¤ľ": 2338,
      "à¤ıà¤¨à¤¸": 2339,
      "à¤¼-": 2340,
      "Ġà¤īà¤¦à¤¯à¤ª": 2341,
      "à¥ĩà¤Ĥ:": 2342,
      "ĠĠĠ": 2343,
      "à¤Ŀà¤¸": 2344,
      "Ġ2005": 2345,
      "à¤¸à¤Ĺ": 2346,
      "à¤¹à¤ľà¤¹": 2347,
      "à¤ĩà¤ļ": 2348,
      "Ġà¤ķà¤²à¤ķ": 2349,
      "Ġà¤ªà¤¦à¤¸": 2350,
      "Ġà¤Ĩà¤¬à¤ķ": 2351,
      "à¥Īà¥¤âĢĻ": 2352,
      "à¤Ľà¤°": 2353,
      "à¤łà¤¤": 2354,
      "Ġà¤īà¤ªà¤¦": 2355,
      "Ġà¤§à¤¨à¤¬": 2356,
      "85": 2357,
      "à¤¨à¤Ńà¤°": 2358,
      "Ġà¤°à¤¬": 2359,
      "Ġà¤Ĩà¤°à¤ıà¤¸à¤ıà¤¸": 2360,
      "ine": 2361,
      "Ġà¤¬à¤¹à¤°à¤¹": 2362,
      "à¥Ī!": 2363,
      "Ġà¤¨à¤«": 2364,
      "Ġà¤¯à¤¶": 2365,
      "Ġà¤ıà¤ķà¤¡": 2366,
      "à¤ħà¤Ń": 2367,
      "Ġà¤®à¤¤à¤Ń": 2368,
      "Ġ2006": 2369,
      "Ġà¤¬à¤ķà¤°": 2370,
      "Ġà¤Ĺà¤¦": 2371,
      "Ġà¤ĩà¤°à¤«": 2372,
      "à¤ĸà¤¡": 2373,
      "Ġà¤ıà¤ķà¤²": 2374,
      "Ġà¤īà¤ªà¤µ": 2375,
      "34": 2376,
      "ob": 2377,
      "Ġà¤¸à¤¤à¤¨": 2378,
      "à¤ıà¤ı": 2379,
      "Ġà¤ıà¤ıà¤¸à¤ª": 2380,
      "Ġà¤«à¤Łà¤ķ": 2381,
      "Ġà¤§à¤¡": 2382,
      "Ġà¤ľà¤¨à¤¸à¤Ń": 2383,
      "02": 2384,
      "AN": 2385,
      "ub": 2386,
      "à¤®à¤Ń": 2387,
      "Ġà¤ĩà¤¬": 2388,
      "Ġà¤¤à¤²à¤µ": 2389,
      "Ġà¤ĩà¤¸à¤°": 2390,
      "Ġà¤ķà¤¹à¤²": 2391,
      "à¤ĵà¤µ": 2392,
      "à¤īà¤¡à¤°": 2393,
      "Ġà¤ķà¤²à¤¶": 2394,
      "Ġà¤Īà¤¡": 2395,
      "2021": 2396,
      "ard": 2397,
      "à¥ĩ:": 2398,
      "Ġà¤¦à¤®à¤¦": 2399,
      "Ġà¤«à¤¡": 2400,
      "à¤¼à¥ĩ-": 2401,
      "Ġà¤¨à¤Ĺà¤°à¤ª": 2402,
      "âĢ¦âĢ¦": 2403,
      "Ġà¥Ľà¤°": 2404,
      "37": 2405,
      "à¥ĩà¥ĩ": 2406,
      "Ġà¤ľà¤¯à¤°": 2407,
      "Ġà¤ĩà¤«": 2408,
      "io": 2409,
      "ya": 2410,
      "Ġà¤¨à¤ª": 2411,
      "à¤¼à¥Ĥ": 2412,
      "à¤Ĩà¤°à¤Ł": 2413,
      "esh": 2414,
      "05": 2415,
      "à¤®à¤ľà¤¦": 2416,
      "Ġà¤ıà¤¹à¤¸": 2417,
      "à¥Ī...": 2418,
      "à¤ıà¤¨à¤ľ": 2419,
      "ĠCh": 2420,
      "39": 2421,
      "ĠX": 2422,
      "Ġà¤ħà¤¥": 2423,
      "à¤¬à¤ķ": 2424,
      "à¤Īà¤¦": 2425,
      "Ġà¤Ŀà¤²à¤ķ": 2426,
      "Ġà¤ľà¤Ĺà¤¨": 2427,
      "Ġà¤ıà¤¨à¤ª": 2428,
      "ideo": 2429,
      "44": 2430,
      "Ġ600": 2431,
      "31": 2432,
      "88": 2433,
      "à¥Ł": 2434,
      "à¤£à¤¤": 2435,
      "Ġ108": 2436,
      "Ġ125": 2437,
      "Ġ99": 2438,
      "Ġà¤Ĺà¤¡à¤ķà¤°": 2439,
      "à¤Ĺà¤łà¤¬": 2440,
      "tt": 2441,
      "à¤µà¤ķà¤°": 2442,
      "à¤ªà¤¬": 2443,
      "Ġà¤ľà¤¨à¤ķ": 2444,
      "à¤¶à¤Ńà¤ķ": 2445,
      "Ġà¤Ĺà¤°à¤®": 2446,
      "Ġà¤ļà¤Ł": 2447,
      "Ġà¤«à¤Ł": 2448,
      "Ġà¤ħà¤Ńà¤¦": 2449,
      "Ġà¤ıà¤¸à¤Ĩà¤Ī": 2450,
      "ext": 2451,
      "76": 2452,
      "à¥ĩà¤Ĥ-": 2453,
      "à¤¶à¤¹": 2454,
      "Ġà¤ĺà¤°à¤µ": 2455,
      "Ġà¤Ĩà¤Īà¤Ĩà¤Īà¤Ł": 2456,
      "Ġà¥¨à¥": 2457,
      "à¤¬à¤Ĺ": 2458,
      "Ġà¤ıà¤ıà¤¨": 2459,
      "Ġà¤Ĩà¤Ĺà¤®à¤¨": 2460,
      "Ġà¤ķà¤Łà¤°": 2461,
      "Ġà¤ĵà¤®à¤ª": 2462,
      "Ġà¤ıà¤®à¤¸": 2463,
      "Ġ2004": 2464,
      "à¥¦à¥¦": 2465,
      "ĠQ": 2466,
      "Ġà¤Ĩà¤ĩà¤¡": 2467,
      "Ġà¤ĳà¤¯à¤²": 2468,
      "Ġà¤°à¤ľà¤¤": 2469,
      "):": 2470,
      "ik": 2471,
      "à¤¥à¤¡": 2472,
      "à¤ĵà¤²": 2473,
      "à¤°à¤¹à¤µ": 2474,
      "86": 2475,
      "ly": 2476,
      "Ġ$": 2477,
      "à¤¹à¤¡": 2478,
      "Ġà¤°à¤¹à¤®": 2479,
      "à¤ħà¤Ĺà¤°": 2480,
      "ast": 2481,
      "à¥Īà¤Ĥ:": 2482,
      "Ġà¤ªà¤¤à¤²": 2483,
      "Ġ77": 2484,
      "à¤¿)à¥¤": 2485,
      "Ġà¤®à¤¶à¤ķ": 2486,
      "à¤ľà¤°à¤¤": 2487,
      "Ġà¤ıà¤¨à¤ķ": 2488,
      "à¤Ńà¤°à¤¤": 2489,
      "Ġà¤¨à¤Ĺà¤¦": 2490,
      "à¤ªà¥ľ": 2491,
      "à¤ļà¤¸": 2492,
      "Ġà¤ıà¤¨à¤°": 2493,
      "Ġà¤°à¤¹à¤¸": 2494,
      "à¤ĩà¤ı": 2495,
      "à¤ĩà¤ķà¤²": 2496,
      "à¤ıà¤¨à¤ıà¤²": 2497,
      "Ġà¤ıà¤¯à¤°à¤²": 2498,
      "end": 2499,
      "ction": 2500,
      "CC": 2501,
      "Ġà¤ľà¤²à¤¨": 2502,
      "à¤ļà¤¢": 2503,
      "Ġà¤ªà¤°à¤¤": 2504,
      "à¤¹à¤¤à¤ķ": 2505,
      "Ġà¤īà¤łà¤¨": 2506,
      "ice": 2507,
      "Ġà¤²à¥ľà¤¨": 2508,
      "à¤ıà¤Ī": 2509,
      "Ġà¤īà¤Ľ": 2510,
      "à¥Īà¥¤âĢĻâĢĻ": 2511,
      "à¤¼à¤¾.": 2512,
      "Ġ84": 2513,
      "Ġ800": 2514,
      "Ġà¤Ĩà¤®à¤ľà¤¨": 2515,
      "ain": 2516,
      "Ġg": 2517,
      "à¥Ģà¤ĥ": 2518,
      "à¤¯à¤Ń": 2519,
      "à¤¹à¤«": 2520,
      "à¤Ńà¤²": 2521,
      "Ġà¤īà¤ªà¤ķ": 2522,
      "Ġ76": 2523,
      "ant": 2524,
      "Ġ01": 2525,
      "à¤¨à¤¶": 2526,
      "Ġà¤®à¤µ": 2527,
      "Ġà¤ħà¤¹à¤¸": 2528,
      "Ġà¤¤à¤ª": 2529,
      "Ġà¤¤à¤²à¤¬": 2530,
      "à¥Īà¤Ĥà¥¤'": 2531,
      "Ġà¤ħà¤¨à¤¶à¤¨": 2532,
      "à¤°à¤¸à¤µ": 2533,
      "Ġ2002": 2534,
      "ĠMe": 2535,
      "Ġà¤°à¤£à¤ľ": 2536,
      "ff": 2537,
      "à¤°à¤ľà¤¨": 2538,
      "à¤¨à¤ľ": 2539,
      "à¤®à¤¡": 2540,
      "Ġà¤¨à¥Ľà¤°": 2541,
      "à¤°à¤µà¤£": 2542,
      "Ġà¤®à¤¦à¤¦à¤Ĺ": 2543,
      "ang": 2544,
      "à¤¦à¤¶à¤¹à¤°": 2545,
      "IS": 2546,
      "ud": 2547,
      "à¤ķà¤¬": 2548,
      "Ġà¤¬à¤Ĺà¤²": 2549,
      "Ġà¤Ĩà¤ĩà¤Ł": 2550,
      "Ġà¤¦à¤°à¤Ń": 2551,
      "Ġà¤Ńà¤°à¤ķà¤°": 2552,
      "Ġà¤ħà¤ķà¤¬à¤°": 2553,
      "ET": 2554,
      "Ġà¤ħà¤Łà¤ķ": 2555,
      "à¥Ī.\"": 2556,
      "Ġà¤¤à¤ķà¤²": 2557,
      "à¤¸à¤®à¤¸": 2558,
      "à¤ħà¤§": 2559,
      "Ġà¤īà¤®à¤¡": 2560,
      "Ġà¤¸à¤¤à¤¹": 2561,
      "ĠNC": 2562,
      "Also": 2563,
      "EO": 2564,
      "Ġà¤¬à¤¬à¤²": 2565,
      "Ġà¤ıà¤¥à¤²": 2566,
      "à¤Ľà¥ľ": 2567,
      "Ġà¤ħà¤¸à¤«à¤²": 2568,
      "ĠIndia": 2569,
      "66": 2570,
      "ust": 2571,
      "à¤¾\"": 2572,
      "à¤¯à¤¬à¤°": 2573,
      "à¤Ĺà¤Ł": 2574,
      "Ġà¤¦à¤¹à¤¨": 2575,
      "à¤ĩà¤Łà¤°": 2576,
      "Ġà¤µà¤°à¤¨": 2577,
      "Ġ74": 2578,
      "Ġà¤ıà¤²à¤Īà¤¡": 2579,
      "Ġà¤Ĩà¤Īà¤ıà¤ıà¤¸": 2580,
      "à¤°à¤¬à¤²": 2581,
      "à¤¸à¤ĸ": 2582,
      "Ġà¤µà¤²": 2583,
      "Ġ61": 2584,
      "Ġà¤ķà¤ªà¤²": 2585,
      "Ġà¤ıà¤¨à¤Ł": 2586,
      "Ġà¤¦à¤®à¤ķà¤²": 2587,
      "IM": 2588,
      "Ġ+": 2589,
      "Ġà¤¸à¤Īà¤¦": 2590,
      "à¤®à¤°à¤£": 2591,
      "Ġà¤¨à¤¬": 2592,
      "à¤¼à¥Į": 2593,
      "à¤¸à¤²à¤°": 2594,
      "Ġ98": 2595,
      "ST": 2596,
      "Ġà¤ħà¤·": 2597,
      "à¤ļà¤¡": 2598,
      "à¤¯à¤°à¤¨": 2599,
      "à¤ıà¤®à¤¯": 2600,
      "Ġ71": 2601,
      "Ġà¤Īà¤¯à¤°": 2602,
      "Ġà¤¢à¤ķ": 2603,
      "Ġ2003": 2604,
      "ĠCM": 2605,
      "ĠBJP": 2606,
      "96": 2607,
      "à¤¤à¤¬": 2608,
      "à¤²à¤Ł": 2609,
      "Ġà¤¤à¤°à¤ķ": 2610,
      "Ġà¤īà¤¬à¤°": 2611,
      "Ġà¤Ĳà¤ķ": 2612,
      "Ġà¤¬à¤²à¤µ": 2613,
      "à¤Ĩà¤°à¤ıà¤«": 2614,
      "ĠOn": 2615,
      "ĠIPL": 2616,
      "ww": 2617,
      "à¤¾âĢ¦": 2618,
      "à¥ĩà¤¼": 2619,
      "Ġà¤ķà¤Łà¤¨": 2620,
      "à¤ıà¤µ": 2621,
      "Ġà¤Ķà¤°à¤¤": 2622,
      "à¤Ĩà¤Īà¤¡": 2623,
      "Ġà¤ıà¤®à¤ıà¤²": 2624,
      "à¤±": 2625,
      "à¤µà¤Ĺà¤¨": 2626,
      "Ġà¤ĩà¤¸à¤ªà¤°": 2627,
      "Ġà¤«à¤¹à¤°": 2628,
      "Ġ:-": 2629,
      "Ġ97": 2630,
      "à¤¥à¤ª": 2631,
      "Ġà¤ĸà¤ªà¤¤": 2632,
      "Ġà¤¸à¤®à¤Ĺ": 2633,
      "Ġà¤¬à¤¦à¤²à¤ķà¤°": 2634,
      "Ġà¤Ĩà¤®à¤¦à¤¨": 2635,
      "Ġà¤¦à¤¶à¤¹à¤°": 2636,
      "09": 2637,
      "co": 2638,
      "ru": 2639,
      "à¤¸à¤°à¤ķ": 2640,
      "Ġà¤Ĩà¤ī": 2641,
      "à¤Īà¤ľ": 2642,
      "Ġà¤¶à¤¹à¤¦": 2643,
      "à¤¥à¤¤": 2644,
      "Ġà¤ıà¤¹à¤¤": 2645,
      "à¤ĸà¤²à¤¨": 2646,
      "à¤«à¤°à¤¨à¤Ĺà¤°": 2647,
      "à¤ĵà¤®": 2648,
      "Ġà¥©": 2649,
      "ort": 2650,
      "age": 2651,
      "83": 2652,
      "Ġà¤ķà¤¯": 2653,
      "à¤¿à¤ĥ": 2654,
      "Ġ350": 2655,
      "Ġ1500": 2656,
      "100": 2657,
      "RC": 2658,
      "]]": 2659,
      "à¤¤à¤¸": 2660,
      "à¤¯à¤µà¤°": 2661,
      "à¥ģ-": 2662,
      "Ġà¤Ĩà¤°à¤ľ": 2663,
      "Ġà¤Ĩà¤¨à¤²": 2664,
      "67": 2665,
      "Ġà¤Ĺà¥ľ": 2666,
      "Ġà¤ĸà¤£": 2667,
      "à¤Ĩà¤Īà¤ľ": 2668,
      "Ġà¥§": 2669,
      "Ġ130": 2670,
      "ĠâĢĭâĢĭ": 2671,
      "aj": 2672,
      "ep": 2673,
      "Ġàª": 2674,
      "Ġà¤¹à¤¬": 2675,
      "Ġà¤¦à¤ĸà¤²": 2676,
      "à¤£à¤ª": 2677,
      "Ġà¤¸à¤¹à¤ľ": 2678,
      "à¤Ŀà¤ķà¤°": 2679,
      "Ġ87": 2680,
      "Ġà¤ħà¤Ĺà¤µ": 2681,
      "Ġà¤ıà¤®à¤ľ": 2682,
      "ĠAn": 2683,
      "999": 2684,
      "à¥¨": 2685,
      "Ġà¤ķà¤·": 2686,
      "Ġà¤¦à¤°à¤ķ": 2687,
      "Ġ86": 2688,
      "Ġà¤ıà¤¯à¤°à¤Ł": 2689,
      "Ġà¤ĩà¤ķà¤¬": 2690,
      "ĠEx": 2691,
      "ah": 2692,
      "à¤¨à¤µà¤¤": 2693,
      "Ġà¤¬à¤Łà¤¨": 2694,
      "Ġà¤ľà¤¦": 2695,
      "à¤¥à¤°à¤¸": 2696,
      "Ġà¤ıà¤¸à¤ķ": 2697,
      "Ġà¤®à¤¹à¤®": 2698,
      "Ġà¤ħà¤²à¤µ": 2699,
      "Ġ96": 2700,
      "Ġà¤ıà¤¨à¤ıà¤¸": 2701,
      "à¤Ĳà¤ª": 2702,
      "à¤¡à¤©": 2703,
      "Ġà¤ļà¤¹à¤²": 2704,
      "à¤¾à¥¤\"": 2705,
      "Ġ81": 2706,
      "à¤ĳà¤«": 2707,
      "--------": 2708,
      "own": 2709,
      "56": 2710,
      "97": 2711,
      "Ġon": 2712,
      "à¤ıà¤ľ": 2713,
      "Ġà¤ļà¤¶": 2714,
      "à¤¸à¤°à¤¸": 2715,
      "âĢĻ,": 2716,
      "Ġ88": 2717,
      "ari": 2718,
      "Ġà¤ªà¥Ŀà¤¨": 2719,
      "ĠGoo": 2720,
      "ĠVideo": 2721,
      "......": 2722,
      "57": 2723,
      "98": 2724,
      "Ġà¤Ķà¤¸": 2725,
      "à¤ĸà¤¬à¤°": 2726,
      "Ġà¤ıà¤ķà¥ľ": 2727,
      "Ġà¤ľà¤²à¤ķà¤°": 2728,
      "Ġ1999": 2729,
      "Ġà¤ħà¤Łà¤ķà¤²": 2730,
      "Ġà¥§à¥¯à¥": 2731,
      "ost": 2732,
      "pur": 2733,
      "à¤¾à¤¾": 2734,
      "à¥Īà¤Ĥ|": 2735,
      "à¤¼à¤Ĥ": 2736,
      "à¤°à¤¹à¤®": 2737,
      "âĢ¦]": 2738,
      "Ġ[âĢ¦]": 2739,
      "Ġà¤«à¤¡à¤£à¤µ": 2740,
      "Ph": 2741,
      "à¤¸à¤Ĳà¤ª": 2742,
      "à¤ªà¤£à¤¨": 2743,
      "à¤Łà¤°à¤®": 2744,
      "Ġà¤Ĩà¤Īà¤ıà¤¸à¤Ĩà¤Ī": 2745,
      "Ġ700": 2746,
      "2020": 2747,
      "Ġ1990": 2748,
      "AT": 2749,
      "gle": 2750,
      "à¤ıà¤®à¤ı": 2751,
      "ank": 2752,
      "Ġà¤Ńà¤Ĺà¤µà¤¤": 2753,
      "à¯į": 2754,
      "01": 2755,
      "OV": 2756,
      "Ġand": 2757,
      "à¥Īà¤Ĥà¥¤\"": 2758,
      "à¤¯à¤¤à¤¨": 2759,
      "irus": 2760,
      "Ġà¤·à¤¡": 2761,
      "ma": 2762,
      "ress": 2763,
      "Ġà¤ķà¤¤à¤°": 2764,
      "Ġà¤¹à¤Łà¤¨": 2765,
      "Ġà¤®à¤ł": 2766,
      "Ġà¤ªà¤®": 2767,
      "à¤Ńà¤¨": 2768,
      "à¤ĺà¤²": 2769,
      "Ġ89": 2770,
      "ĠÂ·": 2771,
      "In": 2772,
      "SE": 2773,
      "Ġà¤¸à¤¶à¤¸": 2774,
      "Ġà¤²à¤¹à¤¸": 2775,
      "à¤Ńà¤¯": 2776,
      "à¤£à¤ªà¤¤": 2777,
      "à¤ĩà¤«à¤²": 2778,
      "à¥ĩà¥¤'": 2779,
      "à¤Łà¤°à¤Ł": 2780,
      "Ġà¤¹à¤®à¤¸": 2781,
      "06": 2782,
      "ps": 2783,
      "à¤Ńà¤µà¤¨": 2784,
      "Ġà¤īà¤²à¤Ł": 2785,
      "Ġ[[": 2786,
      "78": 2787,
      "ai": 2788,
      "Ġre": 2789,
      "à¤¸à¤°à¤¤": 2790,
      "à¤®à¤ķà¤¤": 2791,
      "à¤¦à¤°à¤¤": 2792,
      "à¤ªà¤¹à¤²": 2793,
      "Ġà¤Ĩà¤¹à¤¤": 2794,
      "à¤§à¤®": 2795,
      "à¤«à¤¡": 2796,
      "à¥Ģà¤Ĥ-": 2797,
      "Ġà¤ĵà¤¸": 2798,
      "à¤¾à¤ģ,": 2799,
      "Ġ128": 2800,
      "à¥Ļ": 2801,
      "à¥ĩà¥į": 2802,
      "à¤°à¤¡": 2803,
      "Ġà¤īà¤¨à¤ªà¤°": 2804,
      "Ġà¤ħà¤¨à¤ľ": 2805,
      "à¤ĵà¤ª": 2806,
      "à¤ıà¤¸à¤ıà¤¨à¤ıà¤²": 2807,
      "à¤ıà¤®à¤¡": 2808,
      "Ġ83": 2809,
      "ind": 2810,
      "Ġà¤Ķà¤¸à¤¤à¤¨": 2811,
      "08": 2812,
      "UR": 2813,
      "pt": 2814,
      "à¥°": 2815,
      "Ġà¤¨à¤°à¤®": 2816,
      "à¤¼à¥¤": 2817,
      "à¤¤à¤°à¤¹": 2818,
      "à¥Ī.âĢĻ": 2819,
      "Ġ92": 2820,
      "à¤ıà¤ļà¤¡": 2821,
      "!!": 2822,
      "li": 2823,
      "à¥Ģ\"": 2824,
      "à¤¨à¤¹à¤°": 2825,
      "à¤¯à¤«": 2826,
      "à¤®à¤Ĺà¤¢": 2827,
      "Ġà¤ľà¥ľ": 2828,
      "à¤ıà¤Łà¤°": 2829,
      "Ġà¤ļà¤²à¤ķà¤°": 2830,
      "Ġà¤Ĩà¤Īà¤«": 2831,
      "Ġà¤¹à¤²à¤ļà¤²": 2832,
      "Ġà¤ĭà¤·à¤Ń": 2833,
      "03": 2834,
      "à¤°à¤ļà¤²": 2835,
      "Ġà¤¹à¤°à¤¸": 2836,
      "à¥ĪâĢ¦": 2837,
      "à¤Ĺà¤¤à¤¨": 2838,
      "Ġà¤ľà¤ª": 2839,
      "Ġà¤ľà¤¸à¤ª": 2840,
      "Ġà¤ıà¤¸à¤¯": 2841,
      "Ġ79": 2842,
      "Ġà¤ıà¤®à¤ıà¤®": 2843,
      "Ġà¤ıà¤¨à¤Ĩà¤Īà¤ı": 2844,
      "ath": 2845,
      "ND": 2846,
      "Ġà¤Ĺà¥Ŀ": 2847,
      "Ġà¤¶à¤¸": 2848,
      "à¥Ģà¥¤'": 2849,
      "à¤¯à¤¤à¤ķà¤°": 2850,
      "à¤ķà¤²à¤ķà¤°": 2851,
      "Ġà¤ıà¤¸à¤Ĩà¤Īà¤Ł": 2852,
      "Ġà¤ıà¤¸à¤ıà¤®à¤ıà¤¸": 2853,
      "Ġà¤ıà¤®à¤ı": 2854,
      "à¤¨à¤¦à¤¯": 2855,
      "OVID": 2856,
      "Ġà¤ªà¤¸à¤°": 2857,
      "à¤ıà¤¬": 2858,
      "à¤«à¤²à¤¤": 2859,
      "à¤Ĩà¤§": 2860,
      "Ġà¤Ĺà¤£à¤ªà¤¤": 2861,
      "à¥Ĥà¤ģà¥¤": 2862,
      "59": 2863,
      "IC": 2864,
      "à¥ĭ'": 2865,
      "à¤ªà¤µ": 2866,
      "Ġà¤µà¤§": 2867,
      "à¤¶à¤¹à¤°": 2868,
      "Ġà¤Ĩà¤ĩà¤¯": 2869,
      "Ġà¤īà¤ķà¤¸": 2870,
      "Ġà¤ļà¤¹": 2871,
      "Ġà¤ªà¤¹à¤¨à¤ķà¤°": 2872,
      "à¤¼à¥ĩ,": 2873,
      "Ġ82": 2874,
      "ass": 2875,
      "ult": 2876,
      "hats": 2877,
      "Ġà¤¨à¤«à¤°à¤¤": 2878,
      "07": 2879,
      "ach": 2880,
      "ec": 2881,
      "Ġà¤ķà¤¦à¤°": 2882,
      "Ġà¤¸à¤¹à¤°": 2883,
      "à¤¸à¤µà¤°": 2884,
      "Ġà¤¬à¤¹à¤¤": 2885,
      "Ġà¤ľà¤¸à¤µ": 2886,
      "à¤¬à¤ľ": 2887,
      "Ġà¤§à¤¨à¤¤": 2888,
      "à¤µà¤²à¤ªà¤®": 2889,
      "à¤Ĩà¤°à¤Ĩà¤Ī": 2890,
      "ĠNext": 2891,
      "Ġà¤®à¤¦à¤°à¤¸": 2892,
      "Ġà¤Ĺà¥ľà¤¬à¥ľ": 2893,
      "ev": 2894,
      "à¤¹à¤®à¤¨": 2895,
      "à¤µà¤¯à¤ķ": 2896,
      "à¤¦à¤¹": 2897,
      "à¤·à¤ª": 2898,
      "Ġà¤ıà¤ķà¤¦": 2899,
      "à¤ĩà¤¸à¤ķ": 2900,
      "Ġà¤īà¤ªà¤²à¤ķ": 2901,
      "à¤ıà¤¸à¤ıà¤²": 2902,
      "Ġà¤¨à¤µà¤¦": 2903,
      "ana": 2904,
      "Ġ1996": 2905,
      "41": 2906,
      "Ġst": 2907,
      "à¥Ģ!": 2908,
      "à¤ķà¤«": 2909,
      "à¤¤à¤«à¤°": 2910,
      "à¥ģ.": 2911,
      "à¤ªà¤ķà¤°": 2912,
      "à¤Ńà¤ª": 2913,
      "Ġà¤«à¤°à¤®": 2914,
      "Ġà¤ħà¤®à¤°à¤¨": 2915,
      "à¤ħà¤¸": 2916,
      "à¤Ĩà¤°à¤ıà¤¸": 2917,
      "Ġ110": 2918,
      "Ġà¥«": 2919,
      "ĠPro": 2920,
      "à¤ıà¤ļà¤¯": 2921,
      "ĠMP": 2922,
      "Ġà¤ħà¤¸à¤®à¤°": 2923,
      "ish": 2924,
      "à¤ĳà¤ķ": 2925,
      "58": 2926,
      "our": 2927,
      "Ġà¤ķà¤Ĺ": 2928,
      "Ġà¤¨à¤®à¤¸": 2929,
      "à¤Łà¤ľ": 2930,
      "à¥Ī.'": 2931,
      ".....": 2932,
      "ĠĠĠĠĠ": 2933,
      "à¤ıà¤¨à¤ı": 2934,
      "Ġà¤ªà¥ľà¤¨": 2935,
      "ity": 2936,
      "Ġvs": 2937,
      "II": 2938,
      "Ġà¤¹à¤²à¤ķ": 2939,
      "Ġà¤®à¤Ĭ": 2940,
      "à¤Łà¤¯": 2941,
      "Ġà¤Ĩà¤¯à¤°à¤¨": 2942,
      "à¤°à¤¶à¤¸": 2943,
      "Ġà¤¬à¥Ŀà¤ķà¤°": 2944,
      "Ġ2001": 2945,
      "ĠApp": 2946,
      "ĠMore": 2947,
      "Ġà¤¦à¤«à¤¨": 2948,
      "lo": 2949,
      "à¤¸à¤¡": 2950,
      "Ġà¤¤à¤¹": 2951,
      "Ġà¤®à¤¹à¤ķà¤®": 2952,
      "à¤¢à¤¨": 2953,
      "à¤µà¤¨à¤¸": 2954,
      "Ġà¤ľà¤¨à¤Ĺà¤£à¤¨": 2955,
      "Ġ5000": 2956,
      "ĠCom": 2957,
      "AR": 2958,
      "ĠZ": 2959,
      "à¥«": 2960,
      "à¥Ģ|": 2961,
      "à¤¨à¤¸à¤¨": 2962,
      "à¥Ī;": 2963,
      "à¤µà¤Ĺ": 2964,
      "à¤ľà¤¨à¤¯": 2965,
      "Ġà¤ħà¤¨à¤¨": 2966,
      "à¤Ĩà¤°à¤ĵ": 2967,
      "Ġ93": 2968,
      "ight": 2969,
      "à¤Ĳà¤¸": 2970,
      "Ġà¤Ńà¤°à¤¤à¤ª": 2971,
      "à«Ģ": 2972,
      "62": 2973,
      "SS": 2974,
      "ect": 2975,
      "à¤¾à¤ĥ": 2976,
      "à¥ĩâĢ¦": 2977,
      "à¥¤'": 2978,
      "Ġà¤¨à¤®à¤¨": 2979,
      "à¥Ĥ.": 2980,
      "à¤¬à¤¹à¤¨": 2981,
      "à¤§à¤²": 2982,
      "à¤¥à¤¯": 2983,
      "Ġà¤ĺà¤®": 2984,
      "Ġà¤®à¤¹à¤¬": 2985,
      "Ġà¤ķà¤¬à¤¡": 2986,
      "Ġ160": 2987,
      "Ġà¤Ĩà¤ľà¤®à¤Ĺà¤¢": 2988,
      "HO": 2989,
      "MP": 2990,
      "eal": 2991,
      "à¥ĩà¤Ĥ)": 2992,
      "à¤ıà¤Ĩà¤Ī": 2993,
      "à¤¬à¤ļ": 2994,
      "Ġà¤ıà¤ıà¤¸à¤Ĩà¤Ī": 2995,
      "à¤ľà¤¨à¤²": 2996,
      "à¤¤à¤°à¤«": 2997,
      "Ġà¤¸à¤ķà¤²": 2998,
      "Ġà¤ħà¤²à¤µà¤°": 2999,
      "Ġà¤°à¤ĸà¤°à¤ĸ": 3000,
      "Ġà¤Ĩà¤Īà¤ıà¤¸": 3001,
      "à¤ŀà¤ª": 3002,
      "Ġà¤¤à¤¬à¤ķ": 3003,
      "Ġà¤¹à¤²à¤«à¤¨": 3004,
      "und": 3005,
      "ĠĠĠĠĠĠĠĠĠĠĠĠĠĠĠĠĠĠĠĠĠĠĠĠĠĠĠĠĠĠĠĠĠĠĠĠĠĠĠĠĠĠĠĠĠĠĠĠĠĠĠĠĠĠĠĠĠĠĠĠĠĠĠĠĠĠĠĠĠĠĠĠĠĠĠĠĠĠĠĠĠĠĠĠĠĠĠĠĠĠĠĠĠĠĠĠĠĠĠĠĠĠĠĠĠĠĠĠĠĠĠĠĠĠĠĠĠĠĠĠĠĠĠĠĠĠĠĠ": 3006,
      "ĠGoogle": 3007,
      "//": 3008,
      "à¤¸à¤ľ": 3009,
      "Ġà¤µà¤¶": 3010,
      "Ġà¤²à¤ļ": 3011,
      "Ġà¤¯à¤¶à¤µ": 3012,
      "à¤Ńà¤®": 3013,
      "Ġ94": 3014,
      "Ġà¤ªà¤ķà¥ľà¤¨": 3015,
      "icle": 3016,
      ":-": 3017,
      "AA": 3018,
      "Ġj": 3019,
      "à¥ĭ...": 3020,
      "à¤¤à¤°à¤ķ": 3021,
      "Ġà¤ªà¤Łà¤ķ": 3022,
      "Ġà¤ªà¤ĸà¤µ": 3023,
      "à¤ĵà¤ıà¤¸": 3024,
      "à¤¶à¤¨à¤¶": 3025,
      "Ġà¤¸à¤¹à¤µ": 3026,
      "à¤ªà¤°à¤¹": 3027,
      "Ġà¤°à¤ĸà¤µ": 3028,
      "Ġà¤ľà¤¨à¤°": 3029,
      "ary": 3030,
      "Ġ02": 3031,
      "oronav": 3032,
      "79": 3033,
      "à¤ķà¤Ĺ": 3034,
      "Ġà¤®à¤®": 3035,
      "à¤¬à¤§": 3036,
      "Ġà¤īà¤·": 3037,
      "à¤·à¤°à¤¤": 3038,
      "à¤¼à¥ī": 3039,
      "à¥īà¥¤": 3040,
      "à¤ıà¤®à¤Ĩà¤°": 3041,
      "Ġà¤Ĩà¤Īà¤¬": 3042,
      "Ġà¤ľà¤²à¤Ńà¤°": 3043,
      "Ġà¤¬à¤¦à¤¹": 3044,
      "Ġà¤Īà¤ķ": 3045,
      "Ġ144": 3046,
      "oronavirus": 3047,
      "53": 3048,
      "à¤ķà¤Ĩà¤īà¤Ł": 3049,
      "Ġà¤®à¤Ŀ": 3050,
      "à¥Ī)": 3051,
      "à¤·à¤µà¤°": 3052,
      "à¤ĩà¤Łà¤²": 3053,
      "à¤ĵà¤µà¤°": 3054,
      "à¤°à¤£à¤¬": 3055,
      "à¤ıà¤¸à¤¡": 3056,
      "are": 3057,
      "Ġ05": 3058,
      "Ġà¤°à¤®à¤ľ": 3059,
      "ĠEn": 3060,
      "69": 3061,
      "AS": 3062,
      "aw": 3063,
      "sh": 3064,
      "Ġà®": 3065,
      "à¥ĩà¥ĩà¤Ĥ": 3066,
      "à¤¿)": 3067,
      "à¤ķà¤£": 3068,
      "à¥ģà¤ĥ": 3069,
      "Ġà¤ªà¤°à¤¹": 3070,
      "à¤Īà¤Ī": 3071,
      "Ġà¤ļà¤®à¤¤": 3072,
      "à¤¹à¤°à¤²": 3073,
      "à¤¾..": 3074,
      "à¤ıà¤¨à¤¬": 3075,
      "Ġà¤ĩà¤¨à¤ķà¤®": 3076,
      "ĠPre": 3077,
      "Ġà¤ķà¤ļà¤¹à¤°": 3078,
      "ill": 3079,
      "54": 3080,
      "à¤¾/": 3081,
      "à¥ĢâĢ¦": 3082,
      "Ġà¤¹à¥ľà¤ķ": 3083,
      "Ġà¤ħà¤µà¤¨": 3084,
      "Ġà¤Ľà¤ªà¤°": 3085,
      "à¤īà¤ľ": 3086,
      "all": 3087,
      "Ġ1998": 3088,
      "elhi": 3089,
      "Ġà¤Ĩà¤ĩà¤Łà¤®": 3090,
      "52": 3091,
      "PF": 3092,
      "ry": 3093,
      "Ġ&": 3094,
      "à¤Ļ": 3095,
      "à¥ĩà¤¾": 3096,
      "Ġà¤ľà¤¯à¤ķ": 3097,
      "Ġà¤°à¤¤à¤²": 3098,
      "Ġà¤µà¤°à¤¦": 3099,
      "à¤Ńà¤Ĺà¤¤": 3100,
      "à¤¦à¤°à¤²": 3101,
      "Ġà¤¹à¤ľà¤°à¤¤": 3102,
      "à¥Ģ),": 3103,
      "à¤ľà¤®à¤¹à¤²": 3104,
      "Ġà¤ıà¤«à¤¸": 3105,
      "ack": 3106,
      "ihar": 3107,
      "à¥Ī'": 3108,
      "à¤¶à¤®à¤¨": 3109,
      "à¤¶à¤ĸà¤¬à¤°": 3110,
      "à¤¡à¤«": 3111,
      "à¤¥à¤¶": 3112,
      "Ġà¤ļà¤¬": 3113,
      "à¥Īà¤Ĥ...": 3114,
      "Ġà¤¥à¤ª": 3115,
      "Ġà¤ħà¤¨à¤¸": 3116,
      "à¤µà¤°à¤ķà¤°": 3117,
      "à¤¦à¤°à¤Ĺ": 3118,
      "ite": 3119,
      "ĠQu": 3120,
      "64": 3121,
      "ax": 3122,
      "ial": 3123,
      "uc": 3124,
      "Ġr": 3125,
      "Ġà¦": 3126,
      "Ġà¤²à¤¶": 3127,
      "à¤ļà¤°à¤£": 3128,
      "Ġà¤Ĩà¤°à¤ıà¤¸": 3129,
      "Ġà¤ħà¤²à¤ķ": 3130,
      "Ġà¤ħà¤µà¤²": 3131,
      "ark": 3132,
      "Ġ08": 3133,
      "oto": 3134,
      "orona": 3135,
      "://": 3136,
      "Ġà¤ķà¤«": 3137,
      "Ġà¤ķà¤¸à¤¨": 3138,
      "à¥ĭâĢĻ": 3139,
      "Ġà¤¹à¤µà¤¨": 3140,
      "à¤Ĩà¤°à¤ıà¤®": 3141,
      "Ġà¤ıà¤¨à¤Ĩà¤°à¤¸": 3142,
      "Ġ180": 3143,
      "ĠPl": 3144,
      "51": 3145,
      "RA": 3146,
      "ue": 3147,
      "à¤¾;": 3148,
      "à¤¨à¤¡": 3149,
      "Ġà¤¹à¤°à¤®": 3150,
      "Ġà¤®à¤¦à¤°": 3151,
      "à¤ľà¤µà¤²": 3152,
      "à¤¡à¤Ĺ": 3153,
      "à¤Īà¤®": 3154,
      "Ġà¤¶à¤¹à¤¨": 3155,
      "à¤¾à¥¤âĢĻ": 3156,
      "à¤Ŀà¤¨": 3157,
      "à¤īà¤¡": 3158,
      "Ġà¤Ĩà¤Ĺà¤ľà¤¨": 3159,
      "Ġà¤¸à¤¤à¤¤": 3160,
      "Ġà¤ħà¤ľà¤¹à¤°": 3161,
      "Ġà¤ľà¤¯à¤¶": 3162,
      "ĠWhats": 3163,
      "ree": 3164,
      "Ġto": 3165,
      "IDEO": 3166,
      "71": 3167,
      "ey": 3168,
      "ear": 3169,
      "Âł": 3170,
      "à°": 3171,
      "Ġ@": 3172,
      "Ĥ¹": 3173,
      "à¥©": 3174,
      "à¤µà¤°à¤ķ": 3175,
      "à¤Łà¤®à¤°": 3176,
      "Ġà¤ħà¤ĺ": 3177,
      "à¤·à¤ķà¤°": 3178,
      "Ġà¤¡à¤Ł": 3179,
      "Ġà¤ħà¤¦à¤°à¤ķ": 3180,
      "ĠNE": 3181,
      "Ġ09": 3182,
      "Ġà¤ªà¤²à¤Łà¤µ": 3183,
      "ock": 3184,
      "ug": 3185,
      "Ġà¤ķà¤¸à¤°": 3186,
      "à¥ĭ?": 3187,
      "à¤ķà¤Ŀ": 3188,
      "Ġà¤ļà¤ļ": 3189,
      "à¤¼à¤¿à¤Ĥ": 3190,
      "Ġà¤ĺà¤Łà¤ķ": 3191,
      "à¥Ī..": 3192,
      "Ġà¤¸à¤¹à¤Ń": 3193,
      "Ġà¤ĳà¤²à¤°": 3194,
      "Ġà¤ħà¤µà¤®": 3195,
      "Ġà¤«à¤°à¤¹": 3196,
      "Ġ112": 3197,
      "ont": 3198,
      "Ġà¤ıà¤«à¤¡": 3199,
      "ook": 3200,
      "ĠNCR": 3201,
      "92": 3202,
      "à¤ķà¤ĺà¤°": 3203,
      "Ġà¤¨à¤Ĺà¤²": 3204,
      "Ġà¤īà¤ĸ": 3205,
      "Ġà¤«à¤Łà¤¨": 3206,
      "à¤ĺà¤Ł": 3207,
      "ĠPh": 3208,
      "à¤ĳà¤°": 3209,
      "me": 3210,
      "Ã¯": 3211,
      "à¤ĸà¤Ł": 3212,
      "à¤«à¤¤": 3213,
      "à¤Łà¤°à¤¨à¤²": 3214,
      "à¤¼à¥Ģ-": 3215,
      "Ġà¤®à¤¨à¤ª": 3216,
      "Ġà¤ħà¤¸à¤¦": 3217,
      "Ġà¤ıà¤¸à¤ıà¤ļà¤ĵ": 3218,
      "ans": 3219,
      "Ġ140": 3220,
      "Ġà¤¦à¤¬à¤¦à¤¬": 3221,
      "ĠâĤ¹": 3222,
      "Ġ..": 3223,
      "à¤ªà¤ª": 3224,
      "à¤ªà¤Ĺà¤¢": 3225,
      "Ġà¤ªà¤°à¤ĸ": 3226,
      "Ġà¤ļà¤Łà¤°": 3227,
      "Ġà¤ľà¤¨à¤®": 3228,
      "Ġà¤¨à¤ľà¤°à¤ħ": 3229,
      "à¤°à¤ĸà¤£": 3230,
      "Ġà¤²à¤ķà¥ľ": 3231,
      "Ġà¥ĺ": 3232,
      "ĠSh": 3233,
      "ĠVIDEO": 3234,
      "ingh": 3235,
      "Ġ1980": 3236,
      "Ġà¤Ĩà¤ļà¤°à¤£": 3237,
      "Ġmore": 3238,
      "à¤¤à¤«": 3239,
      "à¤²à¤¶": 3240,
      "Ġà¤®à¤Ĺ": 3241,
      "Ġà¤®à¤Ł": 3242,
      "Ġà¤®à¤Ľ": 3243,
      "Ġà¤ħà¤Ľ": 3244,
      "à¤¬à¤¬": 3245,
      "à¤Ńà¤ľà¤¨": 3246,
      "à¤¾à¥¤âĢĿ": 3247,
      "à¤ĩà¤°": 3248,
      "Ġà¤¤à¤°à¤²": 3249,
      "à¤¯à¤²à¤²": 3250,
      "à¤°à¤Ńà¤¦": 3251,
      "à¤Łà¤²à¤°": 3252,
      "Ġà¤Īà¤Ł": 3253,
      "68": 3254,
      "à¥§à¥": 3255,
      "à¤¾à¥Ī": 3256,
      "à¤¶à¤ľ": 3257,
      "Ġà¤Ķà¤±": 3258,
      "à¤¾à¥¤âĢĻâĢĻ": 3259,
      "à¤°à¤ķà¤²": 3260,
      "à¤¾.âĢĻ": 3261,
      "à¤Ĩà¤°à¤¬": 3262,
      "Ġ03": 3263,
      "Ġà¤°à¤£à¤¦": 3264,
      "ood": 3265,
      "400": 3266,
      "91": 3267,
      "IR": 3268,
      "MC": 3269,
      "ile": 3270,
      "odi": 3271,
      "Ġart": 3272,
      "à¤¾(": 3273,
      "à¥ĩ|": 3274,
      "à¤¨à¤ľà¤¨à¤ķ": 3275,
      "à¤²à¤¬à¤°": 3276,
      "à¤ľà¤Ńà¤µà¤¨": 3277,
      "Ġà¤Ĩà¤ķà¤¸": 3278,
      "Ġà¤ļà¤Łà¤ķ": 3279,
      "Ġà¤ıà¤²à¤°": 3280,
      "âĢľ": 3281,
      "à¤Ĩà¤ªà¤ķ": 3282,
      "à¥ĩà¥¤\"": 3283,
      "à¤¤à¤¨à¤®": 3284,
      "à¤¸à¤®à¤°": 3285,
      "Ġà¤¸à¤°à¤Ĺà¤¨": 3286,
      "Ġà¤īà¤®à¤¸": 3287,
      "ĠCOVID": 3288,
      "Ġ07": 3289,
      "ash": 3290,
      "72": 3291,
      "IT": 3292,
      "ber": 3293,
      "à¤¯à¤Ĺà¥Ŀ": 3294,
      "à¤®à¤°à¤¨": 3295,
      "Ġà¤²à¤Ł": 3296,
      "Ġà¤ĵà¤ķ": 3297,
      "à¤ıà¤®à¤Ī": 3298,
      "Ġà¤ıà¤®à¤ıà¤¸à¤ª": 3299,
      "à¤ıà¤«à¤ĵ": 3300,
      "ĠPol": 3301,
      "lection": 3302,
      "Ġthe": 3303,
      "Ġhtt": 3304,
      "04": 3305,
      "84": 3306,
      "93": 3307,
      "ef": 3308,
      "line": 3309,
      "ure": 3310,
      "à¥ļ": 3311,
      "à¤¨à¤ı": 3312,
      "à¤®à¤ĺ": 3313,
      "Ġà¤ªà¤Ľ": 3314,
      "à¥ĩà¤Ĥ?": 3315,
      "Ġà¤²à¤¯": 3316,
      "Ġà¤¤à¤ĸ": 3317,
      "à¤·à¤ľà¤¨à¤ķ": 3318,
      "Ġà¤ıà¤µà¤°": 3319,
      "Ġà¤ľà¤¨à¤¨": 3320,
      "à¤ıà¤¸à¤¬": 3321,
      "Ġà¤¸à¤°à¤¨": 3322,
      "à¤¦à¤°à¤ª": 3323,
      "Ġà¤ħà¤°à¤°": 3324,
      "Ġà¤īà¤łà¤ķà¤°": 3325,
      "Ġ91": 3326,
      "Ġà¤¢à¤¹": 3327,
      "à¤®à¤Ĺà¥Ŀ": 3328,
      "Ġà¤ĺà¤Łà¤¤": 3329,
      "ick": 3330,
      "Ġà¤ıà¤ļà¤ª": 3331,
      "ase": 3332,
      "Ġà¥Ļà¤¬à¤°": 3333,
      "SP": 3334,
      "à¤ķà¤ķ": 3335,
      "Ġà¤ľà¤¯à¤²à¤²": 3336,
      "à¤§à¤¸": 3337,
      "Ġà¤ıà¤Ĩà¤Ī": 3338,
      "Ġà¤Łà¤²": 3339,
      "à¥Ī.âĢĿ": 3340,
      "à¤¼à¤¾-": 3341,
      "Ġà¤ĵà¤Ŀ": 3342,
      "à¤ĺà¤®": 3343,
      "Ġà¤¬à¤¦à¤¬": 3344,
      "2019": 3345,
      "Ġ900": 3346,
      "Ġà¤ĳà¤«à¤²": 3347,
      "ĠSam": 3348,
      "ali": 3349,
      "Ġà¤Ĩà¤ĩà¤ª": 3350,
      "Ġà¥¨à¥¦à¥": 3351,
      "ime": 3352,
      "ies": 3353,
      "ok": 3354,
      "Ġch": 3355,
      "à¤°à¤¹à¤°": 3356,
      "à¤°à¤Ĺà¤¢": 3357,
      "Ġà¤¦à¤¹à¤²": 3358,
      "Ġà¤ªà¤°à¤¦": 3359,
      "Ġ3000": 3360,
      "à¤īà¤¨à¤ķ": 3361,
      "à¤²à¤¬à¤²": 3362,
      "Ġà¤ħà¤«à¤¸": 3363,
      "Ġà¤¸à¤¡à¤ķ": 3364,
      "ord": 3365,
      "Ġà¤ıà¤²à¤ª": 3366,
      "Ġ1984": 3367,
      "Ġarticle": 3368,
      "73": 3369,
      "PS": 3370,
      "à¥§": 3371,
      "à¥¤âĢĻ": 3372,
      "à¤¡à¤¤": 3373,
      "Ġà¤īà¤Ńà¤°à¤¤": 3374,
      "à¤Īà¤ļ": 3375,
      "à¤ıà¤®à¤ķ": 3376,
      "à¤ıà¤®à¤Ĩà¤Ī": 3377,
      "Ġà¤ĸà¤°à¤Ĺ": 3378,
      "ED": 3379,
      "Ġà¤¸à¤¨à¤°": 3380,
      "à¤¸à¤¶": 3381,
      "à¥ģà¥ģ": 3382,
      "à¥Ĥà¥¤": 3383,
      "à¤ļà¤ª": 3384,
      "Ġà¤Ńà¤°à¤®": 3385,
      "Ġà¤Ńà¥ľà¤ķ": 3386,
      "à¤·à¤Ĺ": 3387,
      "à¤Ĩà¤²": 3388,
      "Ġà¤¹à¤°à¤Ńà¤ľà¤¨": 3389,
      "Ġà¤¸à¤°à¤Ĺ": 3390,
      "Ġà¤ıà¤µà¤ľ": 3391,
      "Ġ--": 3392,
      "Ġà¤¸à¤®à¤Ŀà¤ķà¤°": 3393,
      "Ġà¥ª": 3394,
      "à¤ĩà¤¡à¤¨": 3395,
      "ĠBl": 3396,
      "ĠUp": 3397,
      "unt": 3398,
      "94": 3399,
      "app": 3400,
      "gar": 3401,
      "à¤°à¤Ł": 3402,
      "Ġà¤®à¤Łà¤°": 3403,
      "Ġà¤ıà¤¯": 3404,
      "Ġà¤¡à¤¸": 3405,
      "à¤łà¤®": 3406,
      "à¤łà¤¶": 3407,
      "Ġà¤īà¤¸à¤ªà¤°": 3408,
      "à¤¸à¤°à¤£": 3409,
      "Ġà¤ıà¤®à¤Ł": 3410,
      "ĠSingh": 3411,
      "Ġà¤ıà¤²à¤ľ": 3412,
      "ĠIS": 3413,
      "Ġà¤Ĺà¤£à¤®": 3414,
      "ĠâĨ": 3415,
      ").": 3416,
      "App": 3417,
      "uk": 3418,
      "Ġà¤ķà¤£": 3419,
      "Ġà¤µà¤¡": 3420,
      "Ġà¤µà¤¯à¤¸": 3421,
      "à¥Īà¤Ĥà¥¤âĢĻâĢĻ": 3422,
      "à¥ľà¤µ": 3423,
      "Ġà¤¬à¤¹à¤²": 3424,
      "à¤ıà¤®à¤ıà¤²": 3425,
      "Ġà¤ķà¤²à¤¹": 3426,
      "ens": 3427,
      "ovid": 3428,
      "61": 3429,
      "63": 3430,
      "81": 3431,
      "LA": 3432,
      "ld": 3433,
      "Ġà¤İ": 3434,
      "à¤¤à¤¹": 3435,
      "à¤Ĺà¤¨à¤µ": 3436,
      "à¤¡à¤§": 3437,
      "Ġà¤ĩà¤ķà¤²": 3438,
      "à¥Īà¥¤''": 3439,
      "à¥īà¤Ĥ": 3440,
      "à¤ĩà¤ªà¤°": 3441,
      "Ġà¤Ľà¤¤à¤°à¤ª": 3442,
      "à¤²à¤¨à¤ķ": 3443,
      "Ġà¤īà¤ªà¤Ĺ": 3444,
      "à¤µà¤¸à¤®": 3445,
      "à¤ħà¤ķ": 3446,
      "ance": 3447,
      "Ġ1991": 3448,
      "ĠKhan": 3449,
      "Ġà¤ĺà¤¨à¤¶": 3450,
      "ious": 3451,
      "Phone": 3452,
      "à¥ª": 3453,
      "à¤¨à¤ĸ": 3454,
      "à¤¯à¤¸à¤®": 3455,
      "à¤®à¤Ĭ": 3456,
      "à¤µà¤ľà¤¹": 3457,
      "à¤Ĺà¤¹": 3458,
      "à¤Īà¤¬": 3459,
      "Ġà¤¯à¤®à¤¨": 3460,
      "Ġà¤ĸà¤¸": 3461,
      "Ġà¤ªà¤¹à¤°": 3462,
      "Ġà¤§à¤ľ": 3463,
      "à¤¾.\"": 3464,
      "à¤īà¤°": 3465,
      "à¥Īà¤Ĥ.\"": 3466,
      "Ġà¤®à¤¨à¤¸": 3467,
      "Ġà¤Ĩà¤µà¤ķ": 3468,
      "Ġà¤ķà¤²à¤®": 3469,
      "Ġà¤īà¤®à¥ľ": 3470,
      "Ġà¤Īà¤ª": 3471,
      "à¤°à¤¬à¤¨": 3472,
      "ĠAd": 3473,
      "ĠAl": 3474,
      "ĠIm": 3475,
      "ĠRec": 3476,
      "87": 3477,
      "AM": 3478,
      "EE": 3479,
      "SD": 3480,
      "na": 3481,
      "ram": 3482,
      "à¥ĩ!": 3483,
      "Ġà¤¸à¤¦à¤®": 3484,
      "à¤ľà¤ªà¤¤": 3485,
      "Ġà¤µà¤ļà¤¨": 3486,
      "à¥ĭà¤Ĥ.": 3487,
      "à¤¡à¤°à¤¸à¤¨": 3488,
      "Ġà¤Ńà¤¨à¤ķ": 3489,
      "Ġà¤ļà¤¸": 3490,
      "à¤ķà¤°à¤®": 3491,
      "à¤Ĩà¤¯à¤¨": 3492,
      "à¥ľà¤Ľ": 3493,
      "Ġà¤¸à¤¹à¤Ĺà¤²": 3494,
      "Ġà¤¹à¤°à¤ª": 3495,
      "Ġà¤ĳà¥ŀ": 3496,
      "à¤¨à¤¦à¤¹": 3497,
      "Ġ1992": 3498,
      "à¤ĩà¤«à¤¸": 3499,
      "Ġfor": 3500,
      "Ġà¤ļà¤°à¤®à¤ª": 3501,
      "Ġ``": 3502,
      "CB": 3503,
      "à§": 3504,
      "à¤¿âĢĻ": 3505,
      "à¤Ĥà¥ĩ": 3506,
      "à¤¹à¤°à¤¦": 3507,
      "à¥¤\"": 3508,
      "à¤ľà¤¯à¤¨": 3509,
      "Ġà¤¦à¤®à¤¨": 3510,
      "Ġà¤²à¤ª": 3511,
      "à¤·à¤Ń": 3512,
      "à¤¥à¤¦": 3513,
      "à¥Ģà¤Ĥ?": 3514,
      "Ġà¤¡à¤°à¤¤": 3515,
      "à¤Ĺà¤°à¤ª": 3516,
      "Ġà¤ĩà¤¨à¤ª": 3517,
      "à¤īà¤§à¤°": 3518,
      "Ġ105": 3519,
      "Ġà¤¸à¤¤à¤ª": 3520,
      "Ġ1200": 3521,
      "Ġ1994": 3522,
      "Ġ1989": 3523,
      "Ġà¤ķà¤¤à¤Ī": 3524,
      "ĠâĢĻâĢĻ": 3525,
      "Ġà¤ıà¤¸à¤ıà¤¸à¤¬": 3526,
      "Ġà¤¸à¤¹à¤°à¤¸": 3527,
      "load": 3528,
      "ĠPrev": 3529,
      "iz": 3530,
      "qu": 3531,
      "à±": 3532,
      "à¥Ń": 3533,
      "Ġà¤īà¤«": 3534,
      "à¤§à¤°à¤¨": 3535,
      "à¤·à¤¸": 3536,
      "Ġà¤ļà¤¡": 3537,
      "à¥Īà¤Ĥà¥¤âĢĻ": 3538,
      "à¤Łà¤°à¤«": 3539,
      "Ġà¤ĩà¤¨à¤µ": 3540,
      "Ġà¤ħà¤²à¤®": 3541,
      "Ġà¤¸à¤¬à¤¬": 3542,
      "à¤ħà¤¤": 3543,
      "à¤ĸà¤¨à¤¨": 3544,
      "Ġ101": 3545,
      "Ġà¤¸à¤®à¤Ŀà¤¦": 3546,
      "à¤°à¤¬à¤¦à¤²": 3547,
      "ĠRo": 3548,
      "orld": 3549,
      "adesh": 3550,
      "old": 3551,
      "89": 3552,
      "800": 3553,
      "PC": 3554,
      "sp": 3555,
      "à¥¬": 3556,
      "à¤¨à¤«": 3557,
      "à¤¨à¤Ńà¤¦": 3558,
      "Ġà¤ªà¤²à¤ķ": 3559,
      "à¥ģà¥į": 3560,
      "à¤Ĺà¤¯": 3561,
      "à¤Ĺà¤«à¤²": 3562,
      "à¤ªà¤°à¤ķ": 3563,
      "à¤§à¥ľ": 3564,
      "à¥Ģà¥¤\"": 3565,
      "à¥ľà¤ª": 3566,
      "à¤¯à¤°à¤µ": 3567,
      "Ġà¤Ĩà¤°à¤¡": 3568,
      "à¤ĩà¤¨à¤¸": 3569,
      "anc": 3570,
      "ĠShar": 3571,
      "Ġ135": 3572,
      "ĠFor": 3573,
      "ise": 3574,
      "âĢĮà¤¿": 3575,
      "Ġà¤ĵà¤ªà¤¨à¤°": 3576,
      "ign": 3577,
      "ĠRaj": 3578,
      "Ġà¤ıà¤®à¤ıà¤²à¤¸": 3579,
      "ĠExam": 3580,
      "==": 3581,
      "NO": 3582,
      "Ġà¤ķà¤Ľ": 3583,
      "à¤¬à¤ª": 3584,
      "Ġà¤¶à¤®à¤¶": 3585,
      "à¥Īà¤Ĥà¥¤âĢĿ": 3586,
      "à¤µà¤ķà¤ª": 3587,
      "ina": 3588,
      "ory": 3589,
      "Ġ06": 3590,
      "ĠÂ¨": 3591,
      "Ġà¤ħà¤¸à¤²à¤¹": 3592,
      "Ġnews": 3593,
      "IP": 3594,
      "Ġà¤ķà¤¸à¤¤": 3595,
      "à¥ĭ)à¥¤": 3596,
      "Ġà¤µà¤¨à¤¸": 3597,
      "Ġà¤µà¥ĺ": 3598,
      "Ġà¤ħà¥ľ": 3599,
      "Ġà¤ĩà¤Ĺ": 3600,
      "à¤·à¤¦à¤°": 3601,
      "à¥Īà¤Ĥ!": 3602,
      "à¤°à¤ķà¤®": 3603,
      "Ġà¤ĺà¥ľ": 3604,
      "à¤ĵà¤ķ": 3605,
      "Ġà¤īà¤¤à¤°à¤¤": 3606,
      "à¤ıà¤®à¤ª": 3607,
      "à¤ıà¤®à¤Ł": 3608,
      "Ġà¤ħà¤ªà¤Ĺ": 3609,
      "Ġ2500": 3610,
      "ĠRs": 3611,
      "ĠBS": 3612,
      "Ġà¤ıà¤¯à¤°à¤µ": 3613,
      "Ġà¤ªà¤²à¤Łà¤¨": 3614,
      "Ġà¤¶à¤¹à¤ľ": 3615,
      "ĠDelhi": 3616,
      "::": 3617,
      "xx": 3618,
      "à¤¾âĢĶ": 3619,
      "à¤¤à¤°à¤¤": 3620,
      "Ġà¤ľà¤²à¤¤": 3621,
      "à¤¬à¤®": 3622,
      "Ġà¤ĩà¤£": 3623,
      "Ġà¤ħà¤¨à¤®": 3624,
      "ĠâĢ¢": 3625,
      "Ġà¤ªà¤¤à¤¨": 3626,
      "à¤¸à¤¨à¤Ĺà¤°": 3627,
      "Ġà¤¬à¤²à¤¦": 3628,
      "Ġà¤ħà¤ķà¤¸à¤°": 3629,
      "Ġà¤Īà¤ĵ": 3630,
      "2018": 3631,
      "ĠCr": 3632,
      "Ġà¤ıà¤¯à¤°à¤¬": 3633,
      "Ġà¤ıà¤¯à¤°à¤«": 3634,
      "à¤°à¤ľà¤¨à¤¨": 3635,
      "300": 3636,
      "Ch": 3637,
      "ss": 3638,
      "à¥®": 3639,
      "à¥Ģ(": 3640,
      "à¤¨à¤¸à¤°": 3641,
      "à¤ķà¤ļ": 3642,
      "Ġà¤¸à¤ľà¤Ĺ": 3643,
      "Ġà¤ªà¤£": 3644,
      "Ġà¤¨à¤µà¤²": 3645,
      "à¤¬à¤Ł": 3646,
      "Ġà¤¥à¤®à¤¨": 3647,
      "Ġà¤«à¤²à¤¸": 3648,
      "Ġà¤Łà¤ļ": 3649,
      "à¤Ĩà¤ĩà¤Ł": 3650,
      "à¤¯à¤®à¤¨": 3651,
      "à¤ıà¤¸à¤ķ": 3652,
      "Ġ124": 3653,
      "ĠRes": 3654,
      "ĠMi": 3655,
      "à¤¦à¤²à¤ª": 3656,
      "à¤¾),": 3657,
      "âĢĺâĢĺ": 3658,
      "Ġà¤§à¤®à¤¤à¤°": 3659,
      "ĠiPhone": 3660,
      "74": 3661,
      "AP": 3662,
      "ee": 3663,
      "hand": 3664,
      "oh": 3665,
      "ou": 3666,
      "à¤³": 3667,
      "à¥Ģà¤ģ": 3668,
      "Ġà¤¹à¥Ľ": 3669,
      "Ġà¤ľà¤¯à¤¸": 3670,
      "à¤ľà¤ķà¤¤": 3671,
      "à¤ļà¤²à¤¨": 3672,
      "Ġà¤Ńà¤¸": 3673,
      "Ġà¤ªà¤°à¤ļà¤®": 3674,
      "à¤Īà¤ķà¤°": 3675,
      "à¤Īà¤ıà¤¸": 3676,
      "Ġà¤ĸà¤²à¤¬à¤²": 3677,
      "Ġà¤ħà¤¨à¤µà¤°": 3678,
      "à¤°à¤µà¤ļà¤¨": 3679,
      "Ġà¤īà¤ªà¤ª": 3680,
      "à¤¼à¥Ģ.": 3681,
      "à¤īà¤®": 3682,
      "à¤ħà¤¡": 3683,
      "Ġ1947": 3684,
      "à¤ľà¤¯à¤µà¤°": 3685,
      "Ġà¤ıà¤®à¤ĵ": 3686,
      "à¤¼à¥ĩà¤Ĥà¤ĥ": 3687,
      "à¦¿": 3688,
      "ownload": 3689,
      "ĠUpd": 3690,
      "NG": 3691,
      "Ġ....": 3692,
      "à¤²à¤°à¤¶": 3693,
      "à¤²à¤ĸà¤¨": 3694,
      "à¤®à¤ķà¤°": 3695,
      "à¤®à¤¬à¤¤": 3696,
      "à¤ľà¤Ńà¤°": 3697,
      "à¤ļà¤¤à¤°": 3698,
      "Ġà¤Ńà¤°à¤µ": 3699,
      "Ġà¤°à¤¹à¤µ": 3700,
      "Ġà¤µà¤¹à¤¨": 3701,
      "à¥Ī.âĢĻâĢĻ": 3702,
      "Ġà¤§à¤°à¤®": 3703,
      "Ġà¤¤à¤°à¤¸": 3704,
      "Ġà¤¦à¤°à¤Ĺ": 3705,
      "à¤Ŀà¤®": 3706,
      "à¤īà¤ļ": 3707,
      "Ġà¤¸à¤°à¤¯": 3708,
      "à¥Ľà¤¨": 3709,
      "Ġà¤ľà¤Ĺà¤®à¤Ĺ": 3710,
      "à¤¨à¤°à¤²": 3711,
      "ern": 3712,
      "ĠBihar": 3713,
      "ĠHD": 3714,
      "Ġà¤®à¤¸à¤²à¤¨": 3715,
      "dit": 3716,
      "AD": 3717,
      "PM": 3718,
      "TC": 3719,
      "à¤¾âĢĿ": 3720,
      "Ġà¤ķà¤ľ": 3721,
      "à¤¨à¤ļà¤°": 3722,
      "à¥ĭ:": 3723,
      "à¤²à¤®à¤ª": 3724,
      "Ġà¤¸à¤ĺà¤¨": 3725,
      "à¤¯à¤ļ": 3726,
      "à¤®à¤¢": 3727,
      "à¥ĩà¤Ĥà¤Ĥ": 3728,
      "Ġà¤ķà¤°à¤¦": 3729,
      "Ġà¤ĸà¤®": 3730,
      "à¤łà¤Ĺ": 3731,
      "à¤°à¤£à¤µ": 3732,
      "à¤ľà¤°à¤²": 3733,
      "à¤ħà¤µ": 3734,
      "à¤°à¤¶à¤°": 3735,
      "Ġà¤ľà¤²à¤ª": 3736,
      "anch": 3737,
      "à¤ıà¤«à¤Ĩà¤Ī": 3738,
      "ĠMan": 3739,
      "ĠNew": 3740,
      "ĠIND": 3741,
      "Ġ1997": 3742,
      "iss": 3743,
      "Ġà¤Ĩà¤Īà¤ıà¤ıà¤¨à¤ıà¤¸": 3744,
      "Ġà¤ıà¤¨à¤ıà¤¸à¤¯": 3745,
      "ĠPrevious": 3746,
      "port": 3747,
      "à¤ķà¤¯": 3748,
      "à¤¸à¤¨à¤ķ": 3749,
      "Ġà¤¹à¤°à¤ķ": 3750,
      "à¤µà¤ĺà¤°": 3751,
      "à¤Łà¤¸à¤¨": 3752,
      "Ġà¤µà¤¨à¤µ": 3753,
      "Ġà¤ħà¤¹à¤²": 3754,
      "à¤¶à¤ļ": 3755,
      "à¤¡à¤Ī": 3756,
      "Ġà¤Ķà¤ļà¤ķ": 3757,
      "Ġà¤ĸà¤Ĺ": 3758,
      "Ġà¤ıà¤ķà¤¤à¤°à¤«": 3759,
      "à¤ĵà¤Ĺ": 3760,
      "Ġ104": 3761,
      "Ġà¤¹à¤Łà¤ķà¤°": 3762,
      "ĠDay": 3763,
      "82": 3764,
      "gov": 3765,
      "à´": 3766,
      "Ġ00": 3767,
      "Ġà¤¾": 3768,
      "à¤¨à¤ªà¤¤": 3769,
      "à¤¤à¤¶": 3770,
      "à¤¹à¥ľ": 3771,
      "à¤®à¤°à¤¸": 3772,
      "à¥ĪâĢĻ": 3773,
      "Ġà¤ľà¤¶à¤ª": 3774,
      "Ġà¤ħà¤°à¤¸": 3775,
      "à¤¡à¤¶": 3776,
      "Ġà¤Ĩà¤°à¤®": 3777,
      "Ġà¤ĩà¤¤à¤°": 3778,
      "Ġà¤ĩà¤¯à¤°": 3779,
      "Ġà¤¶à¤Łà¤°": 3780,
      "à¤Ńà¤¤": 3781,
      "Ġà¤ªà¤¹à¤¨à¤¤": 3782,
      "à¤īà¤ª": 3783,
      "Ġà¤ĳà¤¨à¤°": 3784,
      "à¤¤à¤¨à¤Ĺà¤°": 3785,
      "Ġ107": 3786,
      "Ġà¤¬à¤°à¤ª": 3787,
      "Ġà¤¶à¤¹à¤°à¤µ": 3788,
      "à¤®à¤¦à¤Ĺ": 3789,
      "Ġà¤ľà¤Ĺà¤ľ": 3790,
      "Ġà¤²à¤¡à¤ķ": 3791,
      "à¤ıà¤²à¤ĵ": 3792,
      "Ġ134": 3793,
      "ata": 3794,
      "ert": 3795,
      "ication": 3796,
      "Ġà¤°à¤£à¤§": 3797,
      "Ġ1971": 3798,
      "Ġà¤Ĩà¤«à¤¤": 3799,
      "oday": 3800,
      "Ġà¤ıà¤ıà¤¨à¤ıà¤®": 3801,
      "ĠOne": 3802,
      "ption": 3803,
      "gl": 3804,
      "Ġà¤ķà¤¥à¤¨": 3805,
      "à¤¯à¤Ĺà¤¢": 3806,
      "Ġà¤®à¤²à¤¯": 3807,
      "Ġà¤ľà¤ķ": 3808,
      "à¤Łà¤¦": 3809,
      "Ġà¤ħà¤£": 3810,
      "à¥ĭà¤Ĥ/": 3811,
      "à¥Ĥ'": 3812,
      "à¤¾à¤Ĥà¥¤": 3813,
      "Ġà¤¸à¤®à¤¤": 3814,
      "Ġà¤ĺà¤£": 3815,
      "à¤ķà¤²à¤µ": 3816,
      "à¤¸à¤®à¤Ŀ": 3817,
      "à¤ħà¤¦": 3818,
      "Ġà¤ıà¤¸à¤ıà¤¸à¤¸": 3819,
      "à¤ģà¥¤": 3820,
      "à¤°à¤¹à¤²": 3821,
      "Ġà¤Ĩà¤¶à¤¯": 3822,
      "ĠNot": 3823,
      "ĠTr": 3824,
      "ics": 3825,
      "Ġ1993": 3826,
      "Ġ1987": 3827,
      "à¤Ĩà¤ĩà¤Ĩà¤°": 3828,
      "Ġhindi": 3829,
      "AI": 3830,
      "IA": 3831,
      "NA": 3832,
      "PUR": 3833,
      "man": 3834,
      "out": 3835,
      "wit": 3836,
      "à¤°à¤ĺ": 3837,
      "à¤°à¤ĸà¤¨": 3838,
      "à¤¿à¥į": 3839,
      "à¤¨à¤¬à¤°": 3840,
      "Ġà¤¸à¤ķà¤°": 3841,
      "Ġà¤¸à¤µà¤°": 3842,
      "Ġà¤¹à¤¨à¤¨": 3843,
      "Ġà¤®à¤°à¤ķ": 3844,
      "à¤¹à¤ľ": 3845,
      "à¤µà¤¬": 3846,
      "à¤Ĺà¤«": 3847,
      "Ġà¤ľà¤¯à¤¦": 3848,
      "Ġà¤µà¤Ĺ": 3849,
      "Ġà¤ħà¤¤à¤°": 3850,
      "Ġà¤Ĺà¤²à¤µ": 3851,
      "Ġà¤Ĺà¤ľà¤¬": 3852,
      "Ġà¤Ńà¤Ĺà¤¦": 3853,
      "Ġà¤«à¤²à¤¦": 3854,
      "Ġà¤¸à¤®à¤²": 3855,
      "à¤¤à¤°à¤¦": 3856,
      "Ġà¤§à¥ľ": 3857,
      "Ġ4000": 3858,
      "Ġ450": 3859,
      "à¤¦à¤¨à¤Ĺà¤°": 3860,
      "à¤°à¤«à¤²": 3861,
      "Ġ115": 3862,
      "ĠPat": 3863,
      "Ġà¤ıà¤²à¤¡": 3864,
      "ĠTe": 3865,
      "dian": 3866,
      "Ġ1995": 3867,
      "endra": 3868,
      "CCI": 3869,
      "Ġà¥¨à¥¦à¥§à¥": 3870,
      "¿½": 3871,
      "ï¿½": 3872,
      "Ġe": 3873,
      "à¤°à¤¸à¤°": 3874,
      "à¥ģ:": 3875,
      "à¥Ī\"": 3876,
      "à¤µà¤¦à¤²": 3877,
      "à¥¤âĢĻâĢĻ": 3878,
      "à¥ĭà¤Ĥ?": 3879,
      "à¤¬à¤µ": 3880,
      "à¤¡à¤¯à¤¨": 3881,
      "à¤ļà¥ľ": 3882,
      "Ġà¤¥à¤²": 3883,
      "Ġà¤ħà¤§à¤°": 3884,
      "Ġà¤¸à¤¹à¤¸": 3885,
      "Ġà¤Ŀà¤Ĺà¥ľ": 3886,
      "Ġà¤¬à¤¦à¤¤à¤°": 3887,
      "Ġ103": 3888,
      "à¤°à¤®à¤£à¤ķ": 3889,
      "ong": 3890,
      "Ġà¤ķà¤Łà¤µ": 3891,
      "Ġà¤ĵà¤µà¤°à¤²": 3892,
      "Ġà¤¶à¤¹à¤¡": 3893,
      "Ġà¤¬à¤Ĺà¤¹": 3894,
      "Ġà¤ĸà¤Łà¤ĸà¤Ł": 3895,
      "âĢ¦âĢ¦âĢ¦âĢ¦": 3896,
      "Ġà¤īà¤¬à¤°à¤¨": 3897,
      "ĠWhatsApp": 3898,
      "Ġà¤İà¤¸": 3899,
      ".)": 3900,
      "700": 3901,
      "mi": 3902,
      "à¥¥": 3903,
      "à¤¾à¤¼": 3904,
      "à¤¯à¤ľà¤¨à¤ķ": 3905,
      "à¤¦à¤¡": 3906,
      "Ġà¤¬à¤¦à¤°": 3907,
      "à¤ıà¤¶": 3908,
      "à¤¬à¤¸à¤ª": 3909,
      "Ġà¤Ĩà¥ľ": 3910,
      "Ġà¤ļà¤°à¤¸": 3911,
      "à¤¼à¥ĩà¤Ĥà¥¤": 3912,
      "à¥ľà¤«": 3913,
      "à¤¾.âĢĿ": 3914,
      "à¤Ŀà¤ķ": 3915,
      "à¤ĺà¤ķ": 3916,
      "à¤ıà¤®à¤ľ": 3917,
      "à¤Ĺà¤²à¤ķ": 3918,
      "Ġà¤¸à¤°à¤«à¤°": 3919,
      "à¤ĩà¤¨à¤®": 3920,
      "Ġà¤ħà¤¸à¤«à¤²à¤¤": 3921,
      "à¤ħà¤«": 3922,
      "Ġà¤¬à¤²à¤¬": 3923,
      "à¤µà¤²à¤ª": 3924,
      "Ġà¤ħà¤ļà¤²": 3925,
      "Ġ1950": 3926,
      "2022": 3927,
      "à¤ıà¤ļà¤ª": 3928,
      "ĠModi": 3929,
      "Ġ04": 3930,
      "ĠTra": 3931,
      "à¦¾": 3932,
      "igh": 3933,
      "Ġà¥¨à¥¦": 3934,
      "oss": 3935,
      "ips": 3936,
      "MS": 3937,
      "ph": 3938,
      "à¤°à¤ľà¤ª": 3939,
      "à¥Ģ;": 3940,
      "Ġà¤°à¤ľà¤ķ": 3941,
      "Ġà¤Ĩà¤·": 3942,
      "Ġà¤¤à¤µ": 3943,
      "à¤¥à¤°à¤¬": 3944,
      "Ġà¤Łà¤¨à¤²": 3945,
      "à¤Ĩà¤¯": 3946,
      "à¤ıà¤®à¤ıà¤ļà¤ĵ": 3947,
      "à¤¼à¥ĩ.": 3948,
      "à¤µà¤²à¤¦": 3949,
      "Ġ122": 3950,
      "à¤¥à¤¨à¤Ĺà¤°": 3951,
      "ĠPC": 3952,
      "à¥ħà¤¾": 3953,
      "ĠKa": 3954,
      "Ġà¤Ĩà¤īà¤Łà¤¸": 3955,
      "ĠJob": 3956,
      "OS": 3957,
      "à¤¿...": 3958,
      "à¤¨à¤¯à¤¨": 3959,
      "à¤¤à¤¯": 3960,
      "à¤¸à¤Ī": 3961,
      "Ġà¤®à¥Ľ": 3962,
      "à¤¹à¤°à¤¤": 3963,
      "Ġà¤ªà¤Łà¤²": 3964,
      "Ġà¤ľà¤¯à¤¨": 3965,
      "à¥ĤâĢĻ": 3966,
      "Ġà¤ªà¤°à¤¶": 3967,
      "Ġà¤ıà¤²à¤¬": 3968,
      "à¤¼'": 3969,
      "Ġà¤«à¤µ": 3970,
      "ĠâĢĮ": 3971,
      "Ġà¤ħà¤®à¤°à¤ľ": 3972,
      "Ġà¤ıà¤®à¤Ĩà¤Ī": 3973,
      "à¤ıà¤¨à¤¡": 3974,
      "Ġà¥¬": 3975,
      "ĠAr": 3976,
      "Ġà¤ªà¤²à¤µà¤²": 3977,
      "eng": 3978,
      "ence": 3979,
      "Ġà¤ħà¤¸à¤²à¤®": 3980,
      "à¤Īà¤ĵà¤µà¤°": 3981,
      "hab": 3982,
      "ove": 3983,
      "Ġwww": 3984,
      "Ġà¤ıà¤¯à¤°à¤ķ": 3985,
      "witter": 3986,
      "IN": 3987,
      "ire": 3988,
      "ï¾": 3989,
      "Ġy": 3990,
      "Ġdi": 3991,
      "à¤²à¤²": 3992,
      "à¤®à¤Ī": 3993,
      "à¤Łà¤ĸ": 3994,
      "à¤ľà¤®à¤°": 3995,
      "Ġà¤¦à¤°à¤®": 3996,
      "Ġà¤²à¤ªà¤Ł": 3997,
      "à¤¡à¤°à¤®": 3998,
      "Ġà¤Ĺà¤Ĺà¤¨": 3999,
      "Ġà¤Ĩà¤®à¤¦": 4000,
      "Ġà¤ıà¤ıà¤¸": 4001,
      "Ġà¤ĺà¤¸": 4002,
      "à¥ĩà¥¤âĢĻ": 4003,
      "à¤¯à¤®à¤¯": 4004,
      "Ġà¤¸à¤¹à¤®": 4005,
      "Ġ102": 4006,
      "Ġà¤Ĭà¤·": 4007,
      "Ġà¥®": 4008,
      "Ġ145": 4009,
      "Ġà¤¹à¤Łà¤µ": 4010,
      "Ġà¤ıà¤«à¤Ĩà¤ĩà¤Ĩà¤°": 4011,
      "ith": 4012,
      "ĠFIR": 4013,
      "ell": 4014,
      "Ġà¤¸à¤®à¤ķà¤ķ": 4015,
      "ĠPradesh": 4016,
      "ruit": 4017,
      "CH": 4018,
      "TI": 4019,
      "act": 4020,
      "Ġà¤ķà¤¸à¤®": 4021,
      "à¥į,": 4022,
      "à¤Ĥ-": 4023,
      "Ġà¤¸à¤°à¤µ": 4024,
      "à¤¸à¤¬à¤°": 4025,
      "à¤µà¤µà¤°": 4026,
      "Ġà¤¨à¤¯à¤¨": 4027,
      "à¤ªà¤ľ": 4028,
      "Ġà¤°à¤¡": 4029,
      "à¥ĭà¤Ĥ)": 4030,
      "à¤¶à¤ķà¤°": 4031,
      "Ġà¤¤à¤ªà¤¸": 4032,
      "Ġà¤īà¤Ľà¤²": 4033,
      "à¤Īà¤ħà¤¡": 4034,
      "Ġà¤¯à¤¶à¤ª": 4035,
      "à¤łà¤²": 4036,
      "à¤Ŀà¤¤": 4037,
      "à¤²à¤¯à¤¨": 4038,
      "Ġà¤¸à¤®à¤¯à¤¸": 4039,
      "à¥Ģ.âĢĻ": 4040,
      "à¤¹à¤¨à¤²": 4041,
      "Ġà¤ıà¤¸à¤ıà¤¨": 4042,
      "à¤µà¤²à¤ªà¤°": 4043,
      "à¤¤à¤ķà¤¬": 4044,
      "à¤ıà¤¨à¤Ł": 4045,
      "à¤ıà¤²à¤ı": 4046,
      "Ġà¤µà¤¨à¤ª": 4047,
      "Ġà¤ħà¤¶à¤°à¤«": 4048,
      "Ġà¤ļà¤ķà¤®": 4049,
      "Ġà¤īà¤¤à¤°à¤ķà¤°": 4050,
      "ĠFree": 4051,
      "à¤¾à¥ħ.": 4052,
      "Ġà¤°à¤¥à¤¯": 4053,
      "hatt": 4054,
      "Ġà¤Ńà¤Łà¤ķà¤¨": 4055,
      "Ġà¤ıà¤ıà¤¨à¤Ĩà¤Ī": 4056,
      "DA": 4057,
      "ho": 4058,
      "vi": 4059,
      "à¥įà¤¼": 4060,
      "à¤®à¤µà¤°": 4061,
      "Ġà¤ªà¤§": 4062,
      "à¤¦à¤ĸ": 4063,
      "à¤¶à¤²à¤¤": 4064,
      "Ġà¤¤à¤Ĺà¤¡": 4065,
      "à¤ķà¤°à¤¶": 4066,
      "à¤ĵà¤ı": 4067,
      "Ġà¤¸à¤¹à¤ķà¤°": 4068,
      "Ġà¤¸à¤°à¤¹à¤¦": 4069,
      "Ġ650": 4070,
      "à¤ķà¤¤à¤µà¤°": 4071,
      "Ġ109": 4072,
      "Ġà¤¢à¤²": 4073,
      "Ġà¤ıà¤¨à¤¬": 4074,
      "Ġ1800": 4075,
      "ĠAM": 4076,
      "ĠAir": 4077,
      "ĠHigh": 4078,
      "à¤Īà¤ķà¤®": 4079,
      "à®ķ": 4080,
      "Ġ1962": 4081,
      "ï¾¥": 4082,
      "'à¥¤": 4083,
      "FC": 4084,
      "ail": 4085,
      "pr": 4086,
      "Ġà¤ķà¤Łà¤ķ": 4087,
      "Ġà¤¹à¤µà¤²à¤¦": 4088,
      "à¤®à¤ł": 4089,
      "à¤®à¤ķà¤°à¤£": 4090,
      "Ġà¤ħà¤ľà¤¨": 4091,
      "Ġà¤ħà¤ķà¤°à¤®": 4092,
      "à¥Īà¤Ĥ;": 4093,
      "à¤Ĩà¤°à¤ķ": 4094,
      "Ġà¤ħà¤¨à¤¹": 4095,
      "Ġ2024": 4096,
      "Ġà¤ĳà¤¬": 4097,
      "à¤¸à¤¨à¤°": 4098,
      "à¤¦à¤°à¤¨à¤Ĺà¤°": 4099,
      "Ġà¤ħà¤¸à¤°à¤¦": 4100,
      "Ġà¤Ŀà¤®": 4101,
      "Ġà¤Ŀà¤ľ": 4102,
      "Ġà¤ħà¤ªà¤µ": 4103,
      "à¥ĩ.\"": 4104,
      "à¤ķà¤Łà¤¤à¤®": 4105,
      "Ġ118": 4106,
      "ĠĠĠĠĠĠĠĠĠĠĠĠ": 4107,
      "Ġà¤¸à¤¡à¥ĺ": 4108,
      "ĠSC": 4109,
      "ĠThe": 4110,
      "ĠWHO": 4111,
      "ĠFl": 4112,
      "àªķ": 4113,
      "aceb": 4114,
      "AB": 4115,
      "Ah": 4116,
      "ge": 4117,
      "mer": 4118,
      "à¤ķà¤¦": 4119,
      "Ġà¤®à¤°à¤¤": 4120,
      "à¤¹à¤Ń": 4121,
      "à¤®à¤¸à¤®à¤°": 4122,
      "à¤Ĺà¤ļ": 4123,
      "à¤Łà¤Ĺ": 4124,
      "Ġà¤²à¤ªà¤ķ": 4125,
      "Ġà¤ħà¤ł": 4126,
      "Ġà¤ķà¤°à¤®": 4127,
      "Ġà¤¤à¤¬à¤²": 4128,
      "Ġà¤īà¤Ń": 4129,
      "Ġà¤ļà¤¤à¤°": 4130,
      "à¥Īà¤ĤâĢ¦": 4131,
      "Ġà¤ıà¤ķà¤¸": 4132,
      "Ġà¤¡à¤°à¤¨": 4133,
      "Ġà¤®à¤¹à¤ķ": 4134,
      "à¤®à¤²à¤¤": 4135,
      "à¤¾.'": 4136,
      "Ġà¤¬à¤¢à¤©": 4137,
      "Ġà¤ıà¤¸à¤ľ": 4138,
      "à¤Ĩà¤Īà¤µ": 4139,
      "Ġà¤¬à¤°à¤ĸ": 4140,
      "à¤ľà¤¯à¤ª": 4141,
      "à¤Ĩà¤°à¤ı": 4142,
      "Ġ117": 4143,
      "Ġà¤ıà¤ļà¤¸": 4144,
      "Ġ1986": 4145,
      "ĠOff": 4146,
      "à¤ĳà¤ªà¤°": 4147,
      "ung": 4148,
      "àª¸": 4149,
      "à«ĩ": 4150,
      "Ġà¤ħà¤¸à¤¹à¤®à¤¤": 4151,
      "ttar": 4152,
      "asthan": 4153,
      "Ġà¤Ĩà¤īà¤Łà¤«": 4154,
      "Ġàª¸": 4155,
      "Ġhttps": 4156,
      "à¤²à¤ĸà¤¨à¤Ĭ": 4157,
      "acebook": 4158,
      "IV": 4159,
      "af": 4160,
      "eat": 4161,
      "put": 4162,
      "Ãĵ": 4163,
      "à¥ĢâĢĿ": 4164,
      "à¤¤à¤ĸ": 4165,
      "à¤¸à¤¡à¤°": 4166,
      "à¤¦à¤ĸà¤²": 4167,
      "à¥¤âĢĿ": 4168,
      "Ġà¤²à¤°": 4169,
      "Ġà¤²à¤¬": 4170,
      "Ġà¤ĩà¤¯": 4171,
      "Ġà¤ıà¤ķà¤¬": 4172,
      "à¤Ĩà¤¶": 4173,
      "à¤¯à¤ķà¤µ": 4174,
      "à¤¶à¤¨à¤ª": 4175,
      "Ġà¤¸à¤¬à¤®": 4176,
      "à¤¸à¤²à¤µ": 4177,
      "à¤ŀà¤¤": 4178,
      "à¤¡à¤°à¤°": 4179,
      "Ġà¤Ĺà¤°à¤ľ": 4180,
      "Ġà¤°à¤ķà¤¬": 4181,
      "ĠCB": 4182,
      "ĠCR": 4183,
      "Ġà¤ªà¤°à¤®à¤ľ": 4184,
      "ical": 4185,
      "ĠElection": 4186,
      "ĠUn": 4187,
      "Ġ1985": 4188,
      "ational": 4189,
      "able": 4190,
      "Ġà¤ıà¤®à¤ıà¤¸à¤ıà¤®à¤Ī": 4191,
      "ealth": 4192,
      "Ġà¤ªà¤Łà¤ķà¤¥": 4193,
      "Al": 4194,
      "UC": 4195,
      "UP": 4196,
      "se": 4197,
      "à²": 4198,
      "à¥ĩ\"": 4199,
      "à¥Ģ..": 4200,
      "Ġà¤¬à¤¸à¤¨": 4201,
      "Ġà¤Ĺà¤¬à¤¨": 4202,
      "Ġà¤ıà¤ıà¤®à¤¯": 4203,
      "à¤ĩà¤Ĺ": 4204,
      "à¤ĩà¤ķà¤°": 4205,
      "Ġà¤®à¤¹à¤«": 4206,
      "à¤Łà¤°à¤²": 4207,
      "Ġà¤Ľà¤Ł": 4208,
      "à¤¨à¤ķà¤ª": 4209,
      "Ġà¤®à¤¨à¤¦": 4210,
      "Ġà¤ħà¤µà¤¹": 4211,
      "Ġà¤ħà¤ªà¤ķà¤®": 4212,
      "Ġà¤ªà¤¦à¤Ń": 4213,
      "Ġ6000": 4214,
      "à¤¡à¤°à¤ª": 4215,
      "Ġà¤ľà¤Ĺà¤¦à¤²à¤ª": 4216,
      "Ġà¤¸à¤ļà¤®": 4217,
      "ink": 4218,
      "Ġ256": 4219,
      "Ġ132": 4220,
      "ĠCoronavirus": 4221,
      "ĠAc": 4222,
      "Ġà¤ĵà¤µà¤°à¤¬": 4223,
      "Ġà¤ļà¤¯à¤¨à¤ķà¤°": 4224,
      "ashi": 4225,
      "Ġà¤ªà¤ķà¥ľà¤ķà¤°": 4226,
      "acc": 4227,
      "ebs": 4228,
      "Ġà¤īà¤²à¤Ŀà¤¨": 4229,
      "An": 4230,
      "ES": 4231,
      "WS": 4232,
      "hu": 4233,
      "à¤¨à¤Ĺà¤¢": 4234,
      "Ġà¤®à¤¡": 4235,
      "Ġà¤®à¤Łà¤ķ": 4236,
      "Ġà¤ªà¤¨à¤ª": 4237,
      "Ġà¤ľà¤«à¤°": 4238,
      "à¤ıà¤ıà¤«": 4239,
      "Ġà¤Ĺà¤ľà¤°": 4240,
      "Ġà¤¤à¤«": 4241,
      "à¤Īà¤«": 4242,
      "à¤ĸà¥ľ": 4243,
      "à¥ĩà¥¤âĢĻâĢĻ": 4244,
      "à¤ĵà¤¡": 4245,
      "à¤¯à¤°à¤¬": 4246,
      "à¤¡à¤°à¤²": 4247,
      "Ġà¤ªà¤ķà¤µ": 4248,
      "à¤¨à¤µà¤¦": 4249,
      "à¤ıà¤²à¤Ĩà¤°": 4250,
      "Ġà¤ıà¤¨à¤ĵà¤¸": 4251,
      "ates": 4252,
      "Ġ170": 4253,
      "ĠBank": 4254,
      "ĠTV": 4255,
      "ĠGo": 4256,
      "Ġ>>": 4257,
      "Ġà¥§à¥«": 4258,
      "ÃŃ": 4259,
      "à¤ķà¤ĩ": 4260,
      "à¤ªà¤°à¤¤": 4261,
      "à¤ªà¤°à¤®": 4262,
      "Ġà¤µà¤¤": 4263,
      "Ġà¤ħà¤°à¤®": 4264,
      "à¤ıà¤ıà¤¸": 4265,
      "Ġà¤Ĩà¤ĵ": 4266,
      "Ġà¤Ĩà¤¯à¤°à¤²": 4267,
      "à¤Īà¤Ĺ": 4268,
      "Ġà¤«à¤ķ": 4269,
      "Ġà¤¸à¤®à¤°à¤¸": 4270,
      "à¤Ĩà¤¦": 4271,
      "à¤Ĩà¤Ĺ": 4272,
      "à¥Īà¤Ĥ.âĢĻ": 4273,
      "à¤¹à¤¨à¤ª": 4274,
      "Ġà¤ıà¤¸à¤Ĩà¤°": 4275,
      "à¤Ĩà¤Īà¤ıà¤¸": 4276,
      "à¤ģ,": 4277,
      "Ġà¤ħà¤ªà¤¶": 4278,
      "Ġ153": 4279,
      "Ġà¤ħà¤«à¤ľà¤²": 4280,
      "ani": 4281,
      "Ġà¥Ń": 4282,
      "à¤¯à¤µà¤§": 4283,
      "à¤¥à¤²à¤Ĺ": 4284,
      "ĠCorona": 4285,
      "Ġ175": 4286,
      "Ġà¤ħà¤ľà¤Ĺà¤°": 4287,
      "Ġà¤Ĺà¤£à¤°": 4288,
      "ĠTo": 4289,
      "Ġà¤Ĺà¤łà¤ľ": 4290,
      "ĠGal": 4291,
      "ĠWorld": 4292,
      "Ġpr": 4293,
      "Ġ1970": 4294,
      "abad": 4295,
      "Ġà¤ļà¤°à¤®à¤°": 4296,
      "ruitment": 4297,
      ".\"": 4298,
      "600": 4299,
      "ead": 4300,
      "ka": 4301,
      "rol": 4302,
      "à¤ķà¤Łà¤°": 4303,
      "à¤¹à¤¯": 4304,
      "à¤®à¤¸à¤¨": 4305,
      "Ġà¤¨à¤²à¤ķ": 4306,
      "à¤ľà¤¤à¤¨": 4307,
      "Ġà¤°à¤Īà¤¸": 4308,
      "Ġà¤²à¤µà¤²": 4309,
      "Ġà¤ħà¤¹à¤¦": 4310,
      "Ġà¤Ĩà¤ĺ": 4311,
      "à¤ļà¤¬": 4312,
      "à¤·à¤µ": 4313,
      "à¥Īà¤Ĥ..": 4314,
      "à¤«à¤Ī": 4315,
      "à¤ķà¤°à¤¨": 4316,
      "à¤ĩà¤¸à¤¸": 4317,
      "à¥Ģà¥¤âĢĻ": 4318,
      "à¥ĩà¥¤âĢĿ": 4319,
      "Ġà¤Ľà¤®": 4320,
      "à¤°à¤®à¤¦": 4321,
      "à¤īà¤¸à¤ķ": 4322,
      "Ġ550": 4323,
      "Ġà¤¸à¤°à¤Ĺà¤°": 4324,
      "Ġà¤Ĩà¤Īà¤Ĩà¤°à¤¸": 4325,
      "2017": 4326,
      "Ġ121": 4327,
      "Ġ123": 4328,
      "Ġ114": 4329,
      "à¤ıà¤²à¤¸": 4330,
      "Ġà¥ļ": 4331,
      "ĠSBI": 4332,
      "ond": 4333,
      "atest": 4334,
      "ora": 4335,
      "Ġà¤®à¤¶à¤°": 4336,
      "Ġà¤ĭà¤ļ": 4337,
      "adh": 4338,
      "Ġà¤ıà¤ļà¤Ĩà¤Īà¤µ": 4339,
      "Ġà¤łà¤¹à¤°à¤¨": 4340,
      "count": 4341,
      "axy": 4342,
      "garh": 4343,
      "à¤¹à¤°à¤¦à¤Ĺ": 4344,
      "Ġà¤ıà¤®à¤ĵà¤¯": 4345,
      "az": 4346,
      "air": 4347,
      "mit": 4348,
      "Ġà¤Ĥ": 4349,
      "à¤°à¤¢": 4350,
      "à¤¿'": 4351,
      "à¤¯à¤¦à¤°": 4352,
      "Ġà¤¨à¤°à¤µ": 4353,
      "Ġà¤¦à¤£": 4354,
      "à¤¡à¤Ł": 4355,
      "Ġà¤Ĩà¥Ľ": 4356,
      "Ġà¤Ķà¤ļ": 4357,
      "Ġà¤ļà¤ķà¤°": 4358,
      "Ġà¤ıà¤®à¤ķ": 4359,
      "Ġà¤ıà¤ªà¤²": 4360,
      "à¤ĸà¤®": 4361,
      "à¤¼)": 4362,
      "à¤¼à¥ĩà¤Ĥ,": 4363,
      "à¤Ńà¤Ĺà¤µ": 4364,
      "Ġ220": 4365,
      "à¤Ĩà¤ķ": 4366,
      "à¤µà¤°à¤ª": 4367,
      "Ġà¤§à¤¬": 4368,
      "à¤ıà¤¸à¤¯": 4369,
      "à¤ıà¤®à¤ıà¤«": 4370,
      "à¤¦à¤°à¤ľ": 4371,
      "à¤ħà¤ļ": 4372,
      "Ġ106": 4373,
      "Ġà¤¨à¤ľà¤°à¤¬": 4374,
      "Ġà¤ıà¤¨à¤ıà¤¸à¤ıà¤¸": 4375,
      "à¤ľà¤Ĺà¤¢": 4376,
      "ĠCAA": 4377,
      "Ġ164": 4378,
      "erv": 4379,
      "ĠMah": 4380,
      "ĠBCCI": 4381,
      "Ġà¤ıà¤²à¤ĵà¤¸": 4382,
      "Ġ3500": 4383,
      "urr": 4384,
      "Ġà¤ªà¤¨à¤¡": 4385,
      "Ġ1977": 4386,
      "Ġapp": 4387,
      "Ġà¤ľà¤¨à¤ķà¤²": 4388,
      "pl": 4389,
      "ta": 4390,
      "ti": 4391,
      "à¤ĭ": 4392,
      "à¥ĩ..": 4393,
      "à¤°à¤¯à¤¤": 4394,
      "à¥į\"": 4395,
      "à¤¤à¤Ńà¤°": 4396,
      "à¤²à¤¶à¤¨": 4397,
      "Ġà¤®à¤ľà¤°": 4398,
      "à¤®à¤ĸ": 4399,
      "Ġà¤ªà¤¯": 4400,
      "à¤µà¤¤à¤¨": 4401,
      "à¤¦à¤ķà¤¤": 4402,
      "Ġà¤¨à¤Ł": 4403,
      "à¤¬à¤¢": 4404,
      "Ġà¤Ńà¤°à¤£": 4405,
      "Ġà¤ªà¤°à¤µà¤°": 4406,
      "à¤¥à¤¸": 4407,
      "Ġà¤ļà¤®à¤¨": 4408,
      "Ġà¤«à¤¨": 4409,
      "âĢļ": 4410,
      "à¤ĩà¤ªà¤²": 4411,
      "à¤Ĩà¤°à¤µ": 4412,
      "à¤¯à¤ķà¤®": 4413,
      "à¥ľà¤Ĺ": 4414,
      "Ġà¤¸à¤ķà¤¨": 4415,
      "à¤¹à¤°à¤¬": 4416,
      "à¤®à¤²à¤²": 4417,
      "Ġà¤Ĳà¤¨": 4418,
      "à¤µà¤¨à¤¶": 4419,
      "à¤²à¤ķà¤®": 4420,
      "Ġà¤ħà¤Ĺà¤°à¤¬à¤¤": 4421,
      "Ġà¤¦à¤²à¤¹à¤¨": 4422,
      "Ġ1400": 4423,
      "Ġà¤ķà¤Łà¤ĺà¤°": 4424,
      "ork": 4425,
      "Ġà¤ıà¤²à¤Ł": 4426,
      "à¤ĳà¤²": 4427,
      "Ġà¤Ľà¤łà¤µ": 4428,
      "Ġby": 4429,
      "umar": 4430,
      "ĠAnd": 4431,
      "Ġà¤Ĩà¤Īà¤ıà¤¸à¤Ĩà¤Īà¤ıà¤¸": 4432,
      "Ġà¤ıà¤®à¤ıà¤ıà¤ļ": 4433,
      "Ġà¤²à¤Łà¤ķà¤¤": 4434,
      "ĠBlog": 4435,
      "ĠRecruitment": 4436,
      "ĠResult": 4437,
      "ebsite": 4438,
      ")-": 4439,
      "rom": 4440,
      "Ġà¤¿": 4441,
      "à¥į-": 4442,
      "à¥ĭà¥ĩ": 4443,
      "à¤²à¤¹à¤°": 4444,
      "Ġà¤¹à¤²à¤µ": 4445,
      "à¤µà¤¹à¤°": 4446,
      "Ġà¤ĩà¤®à¤²": 4447,
      "Ġà¤¶à¤¤à¤°": 4448,
      "Ġà¤ıà¤¥": 4449,
      "Ġà¤ıà¤£": 4450,
      "à¤«à¤Ł": 4451,
      "Ġà¤ĸà¤²à¤¨": 4452,
      "Ġà¤Łà¤ª": 4453,
      "à¤ĩà¤¤": 4454,
      "à¤ľà¤¨à¤Ĺà¤°": 4455,
      "à¤ĵà¤¬": 4456,
      "à¤¶à¤¨à¤Ĺ": 4457,
      "Ġ2023": 4458,
      "Ġà¤ĵà¤²à¤®": 4459,
      "Ġà¤ľà¤¨à¤¸à¤®": 4460,
      "Ġ420": 4461,
      "à¤¯à¤²à¤®": 4462,
      "Ġ190": 4463,
      "Ġ1960": 4464,
      "Ġ113": 4465,
      "Ġ116": 4466,
      "Ġ138": 4467,
      "Ġà¤¨à¤ķà¤µ": 4468,
      "ĠNe": 4469,
      "ĠToday": 4470,
      "dic": 4471,
      "ĠRed": 4472,
      "ĠFar": 4473,
      "Ġà¤īà¤ªà¤¨à¤Ĺà¤°": 4474,
      "Ġà¤²à¤¹à¤ľ": 4475,
      "à¥¦à¥¦à¥¦": 4476,
      "ĠGalaxy": 4477,
      "BC": 4478,
      "]à¥¤": 4479,
      "la": 4480,
      "à¤¿à¤¾": 4481,
      "Ġà¤®à¤¢": 4482,
      "Ġà¤ªà¤Ľà¤¤": 4483,
      "Ġà¤°à¤ªà¤Ł": 4484,
      "Ġà¤²à¤¥": 4485,
      "Ġà¤Ĩà¤¢": 4486,
      "Ġà¤ĩà¤ľà¤¹": 4487,
      "à¤Īà¤ı": 4488,
      "Ġà¤¯à¤¤": 4489,
      "à¤¼)à¥¤": 4490,
      "à¤łà¤°": 4491,
      "Ġà¤¤à¤°à¤ľ": 4492,
      "à¤ıà¤¸à¤Ĩà¤°": 4493,
      "à¤¤à¤¨à¤ª": 4494,
      "à¥Īà¤Ĥ.âĢĿ": 4495,
      "à¤ħà¤¶": 4496,
      "Ġà¤ªà¤¦à¤¯": 4497,
      "à¤®à¤ķà¤¥": 4498,
      "Ġ126": 4499,
      "Ġ151": 4500,
      "à¤ıà¤²à¤ıà¤«": 4501,
      "Ġà¤¬à¥ľà¤µ": 4502,
      "Ġ147": 4503,
      "Ġ131": 4504,
      "ĠCBI": 4505,
      "ĠCovid": 4506,
      "ĠPost": 4507,
      "Ġ240": 4508,
      "ĠBo": 4509,
      "ĠBin": 4510,
      "Ġà¤ıà¤²à¤ı": 4511,
      "Ġ10000": 4512,
      "Ġà¤ĵà¤µà¤°à¤Ł": 4513,
      "ĠLive": 4514,
      "Ġà¤¹à¤ķà¤¦": 4515,
      "Ġth": 4516,
      "Ġà¥Ļà¤°": 4517,
      "umb": 4518,
      "\",": 4519,
      "DU": 4520,
      "TE": 4521,
      "eg": 4522,
      "ib": 4523,
      "oor": 4524,
      "ric": 4525,
      "yle": 4526,
      "Ġ=": 4527,
      "Ġha": 4528,
      "Ġup": 4529,
      "à¥¯": 4530,
      "Ġà¤ķà¤¢": 4531,
      "Ġà¤¹à¤¯": 4532,
      "à¤¹à¤µà¤°": 4533,
      "à¥ģà¥¤": 4534,
      "Ġà¤ľà¤ĺà¤¨": 4535,
      "Ġà¤²à¤¸": 4536,
      "Ġà¤ıà¤¤": 4537,
      "à¤£à¤Ĺ": 4538,
      "Ġà¤ĸà¤¯": 4539,
      "Ġà¤«à¤¸": 4540,
      "à¤ªà¤¨à¤Ĺà¤°": 4541,
      "Ġà¤¡à¤²à¤¹": 4542,
      "Ġà¤Ľà¤¡": 4543,
      "à¤¸à¤°à¤µ": 4544,
      "Ġà¤Ĳà¤ľ": 4545,
      "Ġà¤Ĳà¤¡": 4546,
      "Ġà¤¸à¤¹à¤ª": 4547,
      "à¤ªà¤°à¤«": 4548,
      "Ġà¤®à¤¨à¤ľ": 4549,
      "à¤¬à¤²à¤ª": 4550,
      "Ġà¤Īà¤²": 4551,
      "Ġà¤Īà¤¦à¤Ĺ": 4552,
      "Ġà¥¤à¥¤": 4553,
      "à¤ľà¤¹à¤¦": 4554,
      "Ġ148": 4555,
      "ĠID": 4556,
      "Ġà¤ļà¤°à¤£à¤¬à¤¦": 4557,
      "Ġà¤ªà¥Ŀà¤¤": 4558,
      "Ġà¤ĭà¤Ĺ": 4559,
      "à¤¤à¤²à¤¹à¤°": 4560,
      "ĠTh": 4561,
      "à¤¯à¤£à¤ª": 4562,
      "ame": 4563,
      "Ġà¤Ńà¤Łà¤ķà¤¤": 4564,
      "ush": 4565,
      "ĠJio": 4566,
      "Ġà¥Ľà¤®": 4567,
      "ĠInd": 4568,
      "Ġme": 4569,
      "à«į": 4570,
      "Ġà¤²à¤¥à¤ªà¤¥": 4571,
      ".âĢĻ": 4572,
      "SA": 4573,
      "US": 4574,
      "kar": 4575,
      "way": 4576,
      "Ġis": 4577,
      "à¤°à¤Ī": 4578,
      "Ġà¤ķà¤¨à¤ķ": 4579,
      "à¤¨à¤ªà¤°": 4580,
      "Ġà¤¸à¥ŀ": 4581,
      "à¥Īà¥į": 4582,
      "à¤µà¤°à¤¤": 4583,
      "Ġà¤¬à¤ł": 4584,
      "à¤ľà¤¡": 4585,
      "Ġà¤¦à¤¶à¤°": 4586,
      "à¥ĭà¤Ĥà¤Ĥ": 4587,
      "à¤ıà¤¦": 4588,
      "Ġà¤ķà¤°à¤Ĺ": 4589,
      "Ġà¤īà¤¥à¤²": 4590,
      "Ġà¤ıà¤¨à¤µ": 4591,
      "Ġà¤ıà¤Ĩà¤°à¤Ł": 4592,
      "à¤¼.": 4593,
      "Ġà¤ĸà¤°à¤¸": 4594,
      "à¤łà¤µ": 4595,
      "à¤µà¤°à¤²": 4596,
      "à¤¯à¤°à¤ªà¤°": 4597,
      "à¤¯à¤®à¤¸à¤¨": 4598,
      "à¤ıà¤¸à¤ĵ": 4599,
      "à¤ıà¤®à¤ıà¤®": 4600,
      "Ġà¤®à¤¨à¤µ": 4601,
      "Ġà¤Ĩà¤Īà¤ıà¤®à¤ı": 4602,
      "à¤¹à¤¨à¤Ĺà¤°": 4603,
      "à¤Ĩà¤Īà¤ĵà¤ıà¤¸": 4604,
      "Ġà¤ķà¤²à¤ķà¤¤": 4605,
      "Ġà¤¨à¤Īà¤®": 4606,
      "Ġ127": 4607,
      "Ġà¤¨à¤µà¤µà¤°": 4608,
      "Ġ182": 4609,
      "Ġ165": 4610,
      "Ġ506": 4611,
      "ere": 4612,
      "à¤ıà¤ļà¤Ī": 4613,
      "à¥Ģ)à¥¤": 4614,
      "ĠBH": 4615,
      "ĠBhar": 4616,
      "ĠNar": 4617,
      "ĠIC": 4618,
      "ĠGov": 4619,
      "à¥Ĥà¤ģ,": 4620,
      "char": 4621,
      "à¤¾',": 4622,
      "Ġ1988": 4623,
      "Ġ1978": 4624,
      "à®¿": 4625,
      "Ġka": 4626,
      "hattis": 4627,
      "Coronavirus": 4628,
      "GP": 4629,
      "IL": 4630,
      "ms": 4631,
      "Ġà¤¸à¤°à¤®": 4632,
      "Ġà¤¸à¤¬à¤°": 4633,
      "à¤Łà¤¶": 4634,
      "Ġà¤ħà¤¦à¤¨": 4635,
      "à¥ĭà¤Ĥ...": 4636,
      "à¤¬à¤¦à¤²": 4637,
      "à¤¶à¤Ł": 4638,
      "Ġà¤Ĺà¤§": 4639,
      "Ġà¤ķà¤°à¤ª": 4640,
      "à¤·à¤¨": 4641,
      "à¤¥à¤Ĺà¤¨": 4642,
      "à¤ĸà¤¸": 4643,
      "Ġà¤ĸà¤ª": 4644,
      "Ġà¤ĸà¤«": 4645,
      "à¤ĩà¤Łà¤¨": 4646,
      "à¤Ĩà¤µ": 4647,
      "à¤Ĩà¤ĩà¤¸": 4648,
      "à¤¤à¤°à¤®": 4649,
      "Ġà¤ħà¤¨à¤Ĺ": 4650,
      "à¤µà¤°à¤¨": 4651,
      "Ġà¤¤à¤°à¤¬": 4652,
      "Ġà¤īà¤ªà¤®à¤¹": 4653,
      "Ġà¤ĵà¤¢": 4654,
      "à¤Ĺà¤²à¤¸": 4655,
      "à¥Īà¤Ĥ.'": 4656,
      "à¤ħà¤ľ": 4657,
      "à¤°à¤¶à¤¦": 4658,
      "Ġ750": 4659,
      "Ġà¤Īà¤¨": 4660,
      "à¥Ľà¤²": 4661,
      "à¤®à¤ļà¤°": 4662,
      "Ġà¤¦à¤²à¤¦à¤²": 4663,
      "Ġà¤ļà¤°à¤ĸ": 4664,
      "à¤ıà¤²à¤ª": 4665,
      "Ġà¤Ĩà¤²à¤¸": 4666,
      "ĠICC": 4667,
      "Ġ270": 4668,
      "à¥Ĥà¤Ĥà¥¤'": 4669,
      "Ġà¤®à¤Ĺà¤°à¤®à¤ļ": 4670,
      "Ġà¤Ĩà¤īà¤Łà¤¡": 4671,
      "ings": 4672,
      "oll": 4673,
      "Ġ360": 4674,
      "Ġà¤Ńà¤¯à¤Ń": 4675,
      "ife": 4676,
      "Ġà¥§à¥¦": 4677,
      "hattisgarh": 4678,
      "AL": 4679,
      "DF": 4680,
      "MA": 4681,
      "ie": 4682,
      "mAh": 4683,
      "oin": 4684,
      "Ġ%": 4685,
      "à¤²à¤Ńà¤°": 4686,
      "à¤¯à¤Łà¤°": 4687,
      "à¤¯à¤ļà¤ķ": 4688,
      "à¤¯à¤«à¤²": 4689,
      "Ġà¤®à¤ĸ": 4690,
      "à¤¹à¤²à¤¤": 4691,
      "à¥ĩà¤ĤâĢ¦": 4692,
      "Ġà¤¨à¤¸à¤¬": 4693,
      "Ġà¤ľà¤®à¤¨": 4694,
      "à¤¡à¤¯": 4695,
      "Ġà¤Ĺà¤ľà¤²": 4696,
      "Ġà¤¤à¤®à¤¨": 4697,
      "Ġà¤¤à¥ľà¤ķ": 4698,
      "Ġà¤īà¤ĸà¤¡": 4699,
      "Ġà¤ªà¤°à¤Ĺà¤¨": 4700,
      "à¤¾à¥¤''": 4701,
      "à¤°à¤ķà¤ª": 4702,
      "à¤µà¤°à¤®": 4703,
      "à¤°à¤®à¤°": 4704,
      "Ġà¤īà¤ªà¤ĸ": 4705,
      "à¤ıà¤¸à¤ľ": 4706,
      "Ġà¤ıà¤¸à¤Īà¤¸": 4707,
      "à¤Ĩà¤Īà¤ıà¤¸à¤ıà¤«": 4708,
      "Ġà¤¬à¤ľà¤¤": 4709,
      "Ġà¤ľà¤²à¤®à¤Ĺ": 4710,
      "Ġ1948": 4711,
      "Ġà¤īà¤¦à¤ĺ": 4712,
      "à¤Ĩà¤°à¤ľ": 4713,
      "Ġ119": 4714,
      "à¤¤à¤®à¤¬": 4715,
      "Ġà¤ķà¤°à¤µà¤Ł": 4716,
      "ĠSc": 4717,
      "ĠCard": 4718,
      "ĠRBI": 4719,
      "ĠPay": 4720,
      "ĠMar": 4721,
      "Ġà¤ıà¤²à¤ıà¤¸": 4722,
      "omi": 4723,
      "à¤°à¤ļà¤²à¤¨": 4724,
      "ĠDev": 4725,
      "ĠDownload": 4726,
      "Ġà¤ķà¤¸à¤°à¤¤": 4727,
      "Ġà¤¤à¤¨à¤ĸ": 4728,
      "ĠĠĠĠĠĠĠĠĠĠĠĠĠĠĠĠĠĠ": 4729,
      "lect": 4730,
      "Ġà¤Ĩà¤¹à¤Ł": 4731,
      "Ġ1983": 4732,
      "à¥Ģ',": 4733,
      "Ġà¤ļà¤®à¤¡": 4734,
      "Ġà¤ļà¤®à¤ķà¤¤": 4735,
      "Ġ1975": 4736,
      "à¯Ĩ": 4737,
      "ĠJobs": 4738,
      ".'": 4739,
      "AC": 4740,
      "News": 4741,
      "TM": 4742,
      "à¤¾âĢĵ": 4743,
      "à¥ĩ;": 4744,
      "Ġà¤ķà¤µà¤ļ": 4745,
      "à¥į.": 4746,
      "à¤¸à¤ĸà¤£": 4747,
      "à¤®à¤µà¤¤": 4748,
      "Ġà¤ªà¤Ĺà¤¡": 4749,
      "à¤µà¤²à¤¨": 4750,
      "à¤Ĺà¥ľà¤¨": 4751,
      "à¥¤à¥¤": 4752,
      "Ġà¤¬à¤¶à¤°": 4753,
      "à¤Łà¤Ĩà¤īà¤Ł": 4754,
      "à¤ŁÃ¯": 4755,
      "Ġà¤µà¤«": 4756,
      "Ġà¤ħà¤°à¤¶à¤¦": 4757,
      "Ġà¤Ĺà¤¬": 4758,
      "Ġà¤Ĩà¤ĩà¤ľ": 4759,
      "Ġà¤¤à¤µà¤ľ": 4760,
      "Ġà¤Ńà¤£": 4761,
      "Ġà¤ıà¤®à¤µ": 4762,
      "Ġà¤ıà¤²à¤¸": 4763,
      "Ġà¤ıà¤Ĩà¤Īà¤ıà¤®": 4764,
      "Ġà¤¡à¤¬à¤°": 4765,
      "à¤ĩà¤¸à¤²": 4766,
      "à¥ľà¤ĸ": 4767,
      "à¥Ī.''": 4768,
      "à¤µà¤°à¤«": 4769,
      "Ġà¤¹à¤®à¤°": 4770,
      "Ġà¤¹à¤®à¤ķ": 4771,
      "Ġà¤¸à¤°à¤¬à¤ľ": 4772,
      "Ġà¤®à¤¨à¤ļ": 4773,
      "âĢĻà¥¤": 4774,
      "Ġà¤Ĩà¤Īà¤¨": 4775,
      "Ġà¤ªà¤¦à¤®": 4776,
      "à¤°à¤§à¤°": 4777,
      "Ġà¤Īà¤ıà¤®à¤Ĩà¤Ī": 4778,
      "Ġ129": 4779,
      "à¤Ĭà¤¸": 4780,
      "à¤ľà¤Ĺà¥Ŀ": 4781,
      "Ġ188": 4782,
      "ĠSp": 4783,
      "ĠSSC": 4784,
      "ĠCC": 4785,
      "Ġà¤ıà¤¡à¤µà¤°": 4786,
      "Ġ171": 4787,
      "Ġà¤ĵà¤µà¤°à¤¸": 4788,
      "ĠKumar": 4789,
      "Ġ1982": 4790,
      "raj": 4791,
      "iral": 4792,
      "ctor": 4793,
      "âĢĭâĢĭ": 4794,
      "ode": 4795,
      "ĠMedia": 4796,
      "India": 4797,
      "arket": 4798,
      "ĠNEET": 4799,
      "ĠNEWS": 4800,
      "ĠâĨĴ": 4801,
      "Ġà¤Ńà¤Ĺà¤¦à¤¡": 4802,
      "à¤¸à¤Īà¤ıà¤¨": 4803,
      "Ġà¤¦à¤¶à¤°à¤¥": 4804,
      "BJP": 4805,
      "OC": 4806,
      "day": 4807,
      "nic": 4808,
      "yal": 4809,
      "à¥įà¤Ĥ": 4810,
      "à¥ĭà¥ĩà¤Ĥ": 4811,
      "à¤¯à¤ľà¤¨": 4812,
      "à¤®à¤°à¤¤": 4813,
      "à¤®à¤Ŀ": 4814,
      "Ġà¤¬à¤Łà¤²à¤°": 4815,
      "Ġà¤ľà¤Ĺà¤°": 4816,
      "à¤Łà¤Ł": 4817,
      "à¤Łà¤°à¤ķ": 4818,
      "Ġà¤¦à¤¯à¤¨": 4819,
      "à¥Į,": 4820,
      "Ġà¤«à¤ľ": 4821,
      "Ġà¤«à¤«": 4822,
      "à¥Ģà¥¤âĢĿ": 4823,
      "à¤°à¤¦à¤¤": 4824,
      "à¤°à¤¦à¤¯": 4825,
      "Ġà¤Ĩà¤ªà¤¬": 4826,
      "à¤¢à¤ķ": 4827,
      "à¤®à¤¨à¤µ": 4828,
      "Ġà¤¸à¤¬à¤¨": 4829,
      "Ġà¤ľà¤¨à¤¶à¤ķ": 4830,
      "à¤īà¤ļà¤°": 4831,
      "Ġà¤Ĩà¤ľà¤¸": 4832,
      "Ġà¤Ŀà¤ķà¤Ŀ": 4833,
      "Ġà¤ĸà¤°à¤¬": 4834,
      "à¤Ĩà¤°à¤ıà¤²": 4835,
      "Ġ156": 4836,
      "arn": 4837,
      "ĠAL": 4838,
      "Ġ163": 4839,
      "erut": 4840,
      "à¤²à¤¸à¤ļ": 4841,
      "Ġ1700": 4842,
      "ĠBir": 4843,
      "omo": 4844,
      "ade": 4845,
      "enc": 4846,
      "ĠTips": 4847,
      "ream": 4848,
      "Ġà¤ħà¤¸à¤®à¤¯": 4849,
      "990": 4850,
      "ĠOf": 4851,
      "eld": 4852,
      "ents": 4853,
      "Ġ1979": 4854,
      "Ġcom": 4855,
      "Ġbl": 4856,
      "à¤¡à¤ķà¤°à¤¨à¤Ĺà¤°": 4857,
      "à¥ĺà¤°": 4858,
      "Ġ1965": 4859,
      "Ġà¤ħà¤¸à¤¹à¤ľ": 4860,
      "IMS": 4861,
      "ĠOnline": 4862,
      "www": 4863,
      "coin": 4864,
      "Ġà¤Ĩà¤īà¤Łà¤²": 4865,
      "ights": 4866,
      "ĠRajasthan": 4867,
      "AK": 4868,
      "Corona": 4869,
      "MR": 4870,
      "rat": 4871,
      "à¤Ĥ:": 4872,
      "à¤²à¤¹à¤¨": 4873,
      "Ġà¤®à¤¨à¤ķ": 4874,
      "à¥ģ)": 4875,
      "à¤µà¤Łà¤°": 4876,
      "Ġà¤¬à¤°à¤ķ": 4877,
      "Ġà¤¨à¤°à¤ķ": 4878,
      "Ġà¤°à¤¨à¤µ": 4879,
      "Ġà¤µà¤¤à¤¨": 4880,
      "Ġà¤ħà¥ŀ": 4881,
      "à¥ĭà¤ĤâĢĻ": 4882,
      "à¤¡à¤¡": 4883,
      "Ġà¤Ĺà¤ª": 4884,
      "Ġà¤Ńà¤°à¤ķà¤®": 4885,
      "Ġà¤ıà¤ķà¤°": 4886,
      "Ġà¤¥à¤ªà¤¥": 4887,
      "à¤ķà¤°à¤¤": 4888,
      "à¤Ĩà¤ĩà¤ľ": 4889,
      "à¥ľà¤®": 4890,
      "à¤Łà¤¨à¤°à¤¶": 4891,
      "à¤®à¤¨à¤°": 4892,
      "Ġà¤¹à¤°à¤ľ": 4893,
      "à¤ıà¤®à¤¡à¤¬": 4894,
      "Ġà¤Ĩà¤ľà¤ķ": 4895,
      "Ġà¤¬à¤¢à¤¤": 4896,
      "à¥Ģ.\"": 4897,
      "Ġà¤¬à¤²à¤ľ": 4898,
      "à¥ĩ.âĢĻ": 4899,
      "à¤¡à¤²à¤°": 4900,
      "Ġà¤®à¤ľà¤¹à¤¬": 4901,
      "Ġà¤ıà¤¨à¤ıà¤®": 4902,
      "Ġà¤ıà¤¨à¤ıà¤¸à¤Ī": 4903,
      "ĠCl": 4904,
      "ĠCo": 4905,
      "ĠCont": 4906,
      "ĠAP": 4907,
      "ĠIN": 4908,
      "Ġ230": 4909,
      "ĠGST": 4910,
      "its": 4911,
      "ital": 4912,
      "Ġà¤°à¤®à¤£": 4913,
      "ami": 4914,
      "Ġcon": 4915,
      "emb": 4916,
      "ull": 4917,
      "Ġà¤²à¤ĸà¤µ": 4918,
      "Ġà¤ıà¤¸à¤ĵà¤ľ": 4919,
      "ify": 4920,
      "Ġà¤Ĺà¥Ŀà¤µ": 4921,
      "ourt": 4922,
      "Ġà®ļ": 4923,
      "earch": 4924,
      "à§į": 4925,
      "ĠNote": 4926,
      "à¤¼']]": 4927,
      "900": 4928,
      "mp": 4929,
      "now": 4930,
      "rit": 4931,
      "sc": 4932,
      "sung": 4933,
      "ÛĮ": 4934,
      "âĪ": 4935,
      "ĠâĢį": 4936,
      "à¥ĭ!": 4937,
      "à¤¤à¥Ľ": 4938,
      "à¤¸à¤ĺ": 4939,
      "Ġà¤®à¤°à¤µ": 4940,
      "Ġà¤®à¤°à¤£": 4941,
      "à¥ĩà¤Ĥ!": 4942,
      "à¤Ĺà¤®à¤¤": 4943,
      "Ġà¤¬à¤Ĺà¤¦": 4944,
      "à¤ıà¤¯à¤°": 4945,
      "à¤ıà¤ıà¤²": 4946,
      "à¤Īà¤¶": 4947,
      "à¤ĸà¤®à¤°": 4948,
      "à¥Ģà¤Ĥ:": 4949,
      "Ġà¤Łà¤¨à¤ķà¤ª": 4950,
      "à¥Ģà¥¤âĢĻâĢĻ": 4951,
      "Ġà¤Ĳà¤¤à¤°": 4952,
      "Ġà¤ĩà¤¨à¤«": 4953,
      "Ġà¤Ĩà¤¯à¤¶": 4954,
      "à¥įâĢįâĢĮ": 4955,
      "Ġà¤ľà¤¨à¤µ": 4956,
      "à¤¸à¤¨à¤¹": 4957,
      "Ġà¤ħà¤®à¤°à¤ª": 4958,
      "Ġà¤ıà¤µà¤®": 4959,
      "Ġà¤Ĩà¤Īà¤ķ": 4960,
      "Ġà¤Ĩà¤Īà¤Ĩà¤Īà¤ıà¤®": 4961,
      "Ġà¤ıà¤¸à¤ı": 4962,
      "Ġà¤ľà¤Ĺà¤®": 4963,
      "à¤ķà¤¨à¤Ĺà¤°": 4964,
      "Ġ111": 4965,
      "ini": 4966,
      "Ġà¤¤à¤¸à¤µ": 4967,
      "Ġ302": 4968,
      "Ġà¤ķà¤¨à¤µà¤°": 4969,
      "ĠAI": 4970,
      "Ġ1600": 4971,
      "atch": 4972,
      "Ġà¤ħà¤ľà¤¬": 4973,
      "orn": 4974,
      "Ġà¤ıà¤²à¤Ĩà¤Īà¤¸": 4975,
      "ala": 4976,
      "ĠId": 4977,
      "à¤Ĺà¤¡à¤®": 4978,
      "Ġà¤ıà¤ļà¤Ĩà¤°": 4979,
      "ĠLove": 4980,
      "Ġ323": 4981,
      "Ġ1972": 4982,
      "Ġà¥§à¥¨": 4983,
      "Ġà¤«à¤¤à¤¹": 4984,
      "Ġà¤·à¤¡à¤¯": 4985,
      "uck": 4986,
      "ĠISIS": 4987,
      "ĠUpdate": 4988,
      "ĠCBSE": 4989,
      "à¤°à¤¢à¤®": 4990,
      "Ġà¤¥à¤ªà¤¥à¤ª": 4991,
      "IF": 4992,
      "IG": 4993,
      "RS": 4994,
      "eath": 4995,
      "ft": 4996,
      "ii": 4997,
      "ral": 4998,
      "war": 4999,
      "yp": 5000,
      "ĠØ": 5001,
      "à¥ĭà¤¼": 5002,
      "Ġà¤¹à¤¥à¤ķ": 5003,
      "à¤®à¤°à¤ķ": 5004,
      "à¤ļà¤²à¤¤": 5005,
      "Ġà¤¶à¤«": 5006,
      "à¥Īà¤Ĥ)": 5007,
      "Ġà¤ıà¤²à¤¨": 5008,
      "Ġà¤¡à¤Ĺ": 5009,
      "à¥Īà¤Ĥà¥¤''": 5010,
      "à¤Ľà¤¹": 5011,
      "Ġà¤Ľà¤¨": 5012,
      "Ġà¤§à¤¤": 5013,
      "à¤Łà¤¨à¤®": 5014,
      "à¤īà¤¡à¤¸": 5015,
      "à¤¹à¤¨à¤µ": 5016,
      "Ġà¤Ŀà¥ľà¤ª": 5017,
      "Ġà¤ķà¤²à¤¸": 5018,
      "Ġà¤ħà¤ªà¤¹": 5019,
      "Ġà¤ªà¤¡à¤¤": 5020,
      "Ġ---------": 5021,
      "Ġà¤Īà¤ľ": 5022,
      "Ġ159": 5023,
      "Ġà¤ħà¤«à¤ľ": 5024,
      "Ġ143": 5025,
      "Ġ189": 5026,
      "ĠCon": 5027,
      "ĠAB": 5028,
      "ĠAAP": 5029,
      "à¤²à¤Ĺà¤Ńà¤Ĺ": 5030,
      "att": 5031,
      "ĠMT": 5032,
      "ĠHealth": 5033,
      "ĠIAS": 5034,
      "omen": 5035,
      "ĠDi": 5036,
      "ĠLatest": 5037,
      "Ġ376": 5038,
      "à®¸": 5039,
      "Ġà¥§à¥®": 5040,
      "obile": 5041,
      "Ġà¤ħà¤ľà¤¨à¤¬": 5042,
      "Pr": 5043,
      "TV": 5044,
      "cess": 5045,
      "fer": 5046,
      "Ġx": 5047,
      "Ġex": 5048,
      "à¤°à¤§à¤¨": 5049,
      "à¤¿à¥ĩ": 5050,
      "à¤Ĥà¤Ĥ": 5051,
      "Ġà¤¹à¤ł": 5052,
      "à¤®à¤«": 5053,
      "à¤®à¤ļà¤¨": 5054,
      "à¤Ĺà¤Ī": 5055,
      "à¤Ĺà¥ľà¤¤": 5056,
      "à¤ªà¤Ĺà¥Ŀ": 5057,
      "Ġà¤°à¤¨à¤°": 5058,
      "à¥ĭà¤Ĥ'": 5059,
      "à¥Ĥ:": 5060,
      "à¤ıà¤°": 5061,
      "à¤¡à¤¸à¤¨": 5062,
      "à¤ļà¥Ŀ": 5063,
      "Ġà¤īà¤¬à¤²": 5064,
      "Ġà¤īà¤ĩà¤ķ": 5065,
      "à¤Īà¤°": 5066,
      "Ġà¤ļà¤µ": 5067,
      "à¤«à¤¸": 5068,
      "à¤Ĩà¤ĸ": 5069,
      "Ġà¤ħà¤¨à¤ª": 5070,
      "à¤°à¤®à¤¨": 5071,
      "Ġà¤§à¤®à¤¨": 5072,
      "à¤®à¤¨à¤µà¤®": 5073,
      "à¤Ŀà¤¬": 5074,
      "Ġà¤¹à¤°à¤«": 5075,
      "à¤ıà¤¸à¤µ": 5076,
      "à¤ľà¤ªà¤¥": 5077,
      "Ġà¤Ŀà¤°à¤¨": 5078,
      "à¤Ĩà¤Īà¤Ĩà¤Ī": 5079,
      "à¤Ĩà¤Īà¤ıà¤²": 5080,
      "Ġà¤ħà¤ªà¤¶à¤¬": 5081,
      "Ġà¤¬à¤¦à¤¸à¤²": 5082,
      "à¤°à¤§à¤°à¤ª": 5083,
      "à¤¡à¤°à¤Ł": 5084,
      "Ġ152": 5085,
      "Ġ1100": 5086,
      "Ġ187": 5087,
      "à¤ıà¤«à¤¡": 5088,
      "Ġ136": 5089,
      "ĠAli": 5090,
      "ĠPart": 5091,
      "Ġ166": 5092,
      "ati": 5093,
      "Ġ210": 5094,
      "Ġà¤ļà¤°à¤£à¤ľ": 5095,
      "ĠTH": 5096,
      "itcoin": 5097,
      "ĠFacebook": 5098,
      "ĠEV": 5099,
      "à¥Ĥà¤ģ.": 5100,
      "ĠUS": 5101,
      "olog": 5102,
      "Ġà¤ħà¤®à¤¨à¤¦": 5103,
      "ube": 5104,
      "ĠMeerut": 5105,
      "maz": 5106,
      "ĠApple": 5107,
      "ĠĠĠĠĠĠĠĠĠĠĠĠĠĠĠĠĠĠĠĠĠĠĠĠĠĠĠĠĠĠĠĠĠĠĠĠĠĠĠĠĠĠĠĠĠĠĠĠĠĠĠĠĠĠĠĠĠĠĠĠĠĠĠĠĠĠĠĠĠĠĠĠĠĠĠĠĠĠĠĠĠĠĠĠĠĠĠĠĠĠĠĠĠĠĠĠĠĠĠĠĠĠĠĠĠĠĠĠĠĠĠĠĠĠĠĠĠĠĠĠĠĠĠĠĠĠĠĠĠĠĠĠĠĠĠĠĠĠĠĠĠĠĠĠĠĠĠĠĠĠĠĠĠĠĠĠĠĠĠĠĠĠĠĠĠĠĠĠĠĠĠĠĠĠĠĠĠĠĠĠĠĠĠĠĠĠĠĠĠĠĠĠĠĠĠĠĠĠĠĠĠĠĠĠĠĠĠĠĠĠĠĠĠĠĠĠĠĠĠĠĠĠĠĠĠĠĠĠĠĠĠĠĠĠĠĠĠĠĠĠĠĠĠĠĠĠĠĠĠĠĠĠĠĠĠĠ": 5108,
      "ockd": 5109,
      "ancy": 5110,
      "NOW": 5111,
      "IPL": 5112,
      "ĠBSF": 5113,
      "Ġà¤ªà¤£à¤ľ": 5114,
      "IVE": 5115,
      "ĠRedmi": 5116,
      "**": 5117,
      "KNOW": 5118,
      "RO": 5119,
      "ahar": 5120,
      "à¥ĩ/": 5121,
      "à¤°à¤²à¤¯": 5122,
      "à¤°à¤Ĩà¤¨": 5123,
      "à¤Ĥà¥Īà¥¤": 5124,
      "à¤¹à¤Ĺà¤¢": 5125,
      "à¤Ĺà¤ľà¤¨": 5126,
      "Ġà¤¬à¤¸à¤°": 5127,
      "à¤Łà¤¹": 5128,
      "à¤¬à¤°à¤¤": 5129,
      "à¤ļà¤µà¤°": 5130,
      "Ġà¤ĩà¤¡": 5131,
      "Ġà¤¤à¤Łà¤¬": 5132,
      "à¤·à¤§à¤°": 5133,
      "à¤ĸà¤ļ": 5134,
      "à¤¼âĢįà¤¿": 5135,
      "à¤°à¤¤à¤µ": 5136,
      "Ġà¤Ľà¤²à¤ķ": 5137,
      "Ġà¤§à¤¨à¤µ": 5138,
      "Ġà¤Ĩà¤°à¤¯": 5139,
      "à¤¾.âĢĻâĢĻ": 5140,
      "Ġà¤ħà¤²à¤¸": 5141,
      "Ġà¤ħà¤²à¤ĸ": 5142,
      "à¤µà¤¨à¤¦": 5143,
      "Ġà¤¹à¤°à¤¨": 5144,
      "à¤Ĺà¤²à¤°": 5145,
      "Ġà¤Ĩà¤ľà¤®à¤Ĺà¥Ŀ": 5146,
      "Ġà¤®à¤¨à¤¨": 5147,
      "Ġà¤Ŀà¤²": 5148,
      "à¤Ĩà¤Īà¤¬": 5149,
      "Ġà¤ľà¤²à¤ľà¤®": 5150,
      "Ġà¤¬à¤¦à¤²à¤µ": 5151,
      "Ġà¤¸à¤«à¤¦à¤°à¤ľ": 5152,
      "à¤ıà¤¨à¤ª": 5153,
      "ĠSE": 5154,
      "ĠSe": 5155,
      "ĠCourt": 5156,
      "org": 5157,
      "âĢ¦.": 5158,
      "enef": 5159,
      "Ġ315": 5160,
      "à¥Ĥà¤Ĥà¥¤\"": 5161,
      "Ġà¤ıà¤ļà¤Ĩà¤°à¤Ł": 5162,
      "Ġ294": 5163,
      "amm": 5164,
      "ĠLUC": 5165,
      "ĠUttar": 5166,
      "otes": 5167,
      "ĠInst": 5168,
      "ement": 5169,
      "Ġà¥Ļà¤¤": 5170,
      "Ġ1969": 5171,
      "à¥¦à¥¨": 5172,
      "ope": 5173,
      "ĠYou": 5174,
      "Photo": 5175,
      "Ġà¤ªà¤°à¤ĸà¤ļ": 5176,
      "anchi": 5177,
      "ission": 5178,
      "view": 5179,
      "ĠLUCKNOW": 5180,
      "\"à¤¾": 5181,
      "??": 5182,
      "Te": 5183,
      "UB": 5184,
      "eep": 5185,
      "get": 5186,
      "ject": 5187,
      "mun": 5188,
      "nb": 5189,
      "ple": 5190,
      "press": 5191,
      "ĉĠ": 5192,
      "Ġag": 5193,
      "Ġà¤Ļ": 5194,
      "à¤¾à¥Ģ": 5195,
      "à¥ĭà¤ĥ": 5196,
      "à¤¤à¤§": 5197,
      "à¤¤à¤ĸà¤¤": 5198,
      "à¤²à¤ĺà¤°": 5199,
      "à¤¸à¤¯": 5200,
      "à¤¦à¤ľ": 5201,
      "Ġà¤¬à¤°à¤µ": 5202,
      "à¤ªà¤Łà¤ķ": 5203,
      "Ġà¤¦à¤¶à¤®": 5204,
      "Ġà¤°à¤¸à¤¦": 5205,
      "Ġà¤°à¤ľà¤µ": 5206,
      "à¤¬à¤°à¤¦à¤¸": 5207,
      "Ġà¤ĩà¤°à¤¶": 5208,
      "Ġà¤ıà¤Ĩà¤Īà¤¸": 5209,
      "Ġà¤¯à¤®à¤°": 5210,
      "à¤Ńà¤®à¤¨": 5211,
      "à¤¾à¥¤à¥¤": 5212,
      "Ġà¤¡à¤ļ": 5213,
      "à¤Ĩà¤°à¤¤": 5214,
      "à¤ľà¤¨à¤Ńà¤°": 5215,
      "Ġà¤ħà¤¨à¤°": 5216,
      "à¤Łà¤°à¤¸à¤¨": 5217,
      "à¤°à¤®à¤ľ": 5218,
      "à¤¯à¤°à¤§": 5219,
      "à¤°à¤µà¤¤": 5220,
      "Ġà¤¬à¤ļà¤ķà¤°": 5221,
      "Ġà¤ħà¤²à¤¬à¤¤": 5222,
      "Ġà¤Ŀà¤°": 5223,
      "Ġà¤ªà¤¡à¤©": 5224,
      "à¤¡à¤°à¤Ĺ": 5225,
      "Ġà¤Ĺà¤°à¤¬": 5226,
      "Ġà¤Ĩà¤®à¤¸à¤Ń": 5227,
      "ĠSm": 5228,
      "Ġ133": 5229,
      "Ġ139": 5230,
      "ĠCha": 5231,
      "ĠCup": 5232,
      "ĠRanchi": 5233,
      "ator": 5234,
      "ating": 5235,
      "ĠIT": 5236,
      "à¤®à¤¸à¤Ń": 5237,
      "Ġà¤ıà¤ļà¤Ł": 5238,
      "ĠKi": 5239,
      "ĠKey": 5240,
      "Ġ1981": 5241,
      "à¥ĢâĢĻ,": 5242,
      "Ġ1973": 5243,
      "àª¡": 5244,
      "à¦¸": 5245,
      "à¦ķ": 5246,
      "ember": 5247,
      "Ġ1967": 5248,
      "ĠUPI": 5249,
      "ĠRahu": 5250,
      "Ġàªµ": 5251,
      "ĠComment": 5252,
      "Ġà¦¸": 5253,
      "ĠâĨĳ": 5254,
      "à§ĩ": 5255,
      "ernment": 5256,
      "ĠGochar": 5257,
      "ĠBinomo": 5258,
      "ockdown": 5259,
      "'s": 5260,
      "150": 5261,
      "DO": 5262,
      "NI": 5263,
      "uj": 5264,
      "à¤²à¤ĺ": 5265,
      "à¤¯à¤²à¤¯": 5266,
      "à¤¹à¤®à¤¦": 5267,
      "à¤®à¤ľà¤¨": 5268,
      "à¤®à¤¬à¤°": 5269,
      "à¤®à¤ªà¤¤": 5270,
      "à¥ģâĢĻ": 5271,
      "Ġà¤¨à¤Łà¤°": 5272,
      "à¤ľà¤ľà¤¨": 5273,
      "Ġà¤²à¤²à¤ķ": 5274,
      "Ġà¤¤à¤¨à¤µ": 5275,
      "Ġà¤īà¤¥à¤ª": 5276,
      "Ġà¤ªà¤°à¤ļ": 5277,
      "Ġà¤¯à¤¸": 5278,
      "Ġà¤ĩà¤¸à¤¬": 5279,
      "Ġà¤ĸà¤¸à¤°": 5280,
      "à¤¾,'": 5281,
      "à¤¸à¤°à¤ª": 5282,
      "à¤¯à¤°à¤¡": 5283,
      "Ġà¤ľà¤¬à¤¸": 5284,
      "Ġà¤Ĩà¤¯à¤¤": 5285,
      "Ġ320": 5286,
      "Ġà¤ĵà¤¶": 5287,
      "à¤ıà¤®à¤¬": 5288,
      "à¥ĩ.'": 5289,
      "à¤®à¤¦à¤ª": 5290,
      "Ġ999": 5291,
      "Ġà¤ªà¤¢à¤¨": 5292,
      "ann": 5293,
      "ara": 5294,
      "Ġ185": 5295,
      "à¤ıà¤«à¤ª": 5296,
      "ĠSid": 5297,
      "ĠSch": 5298,
      "à¤°à¤ľà¤®": 5299,
      "alme": 5300,
      "omat": 5301,
      "adav": 5302,
      "Ġà¤ıà¤«à¤ıà¤¸à¤ıà¤²": 5303,
      "ĠGold": 5304,
      "ĠKap": 5305,
      "ident": 5306,
      "à¤ľà¤¬à¤ķ": 5307,
      "ages": 5308,
      "hip": 5309,
      "Ġ1974": 5310,
      "Ġà¥§à¥§": 5311,
      "Ġ1961": 5312,
      "à¤²à¤ĸà¤£": 5313,
      "Ġà¤ļà¤®à¤ķà¤¦": 5314,
      "Ġà¤Ĺà¤®à¤Ľ": 5315,
      "Ġà¤Ĩà¤¸à¤¨à¤¸": 5316,
      "iaomi": 5317,
      "ĠWhatsapp": 5318,
      "Ġà¤®à¤Ĺà¤§": 5319,
      "Ġhttp": 5320,
      "icket": 5321,
      "ĠSharma": 5322,
      "Ġà¤®à¤°à¤ķà¤ľ": 5323,
      "Ġà¤ıà¤²à¤ıà¤²à¤¬": 5324,
      "Ġà¤¹à¤°à¤«à¤¨à¤®": 5325,
      "nbsp": 5326,
      "=\"": 5327,
      "ME": 5328,
      "MI": 5329,
      "Me": 5330,
      "Pl": 5331,
      "USD": 5332,
      "sha": 5333,
      "wali": 5334,
      "Ġad": 5335,
      "Ġà¤ķà¥Ŀ": 5336,
      "Ġà¤¸à¤¯": 5337,
      "à¤®à¤¥": 5338,
      "Ġà¤ªà¤Ń": 5339,
      "à¥Īà¤¼": 5340,
      "à¥ĩà¤Ĥ'": 5341,
      "Ġà¤¬à¤ª": 5342,
      "Ġà¤¬à¤°à¤®": 5343,
      "Ġà¤ľà¤ķà¤¡": 5344,
      "à¤ľà¤Ń": 5345,
      "Ġà¤²à¤ļà¤°": 5346,
      "Ġà¤ħà¤¬à¤°": 5347,
      "à¤¬à¤Łà¤¨": 5348,
      "Ġà¤Ĺà¤²à¤¨": 5349,
      "à¤ļà¤²à¤°": 5350,
      "Ġà¤¤à¤¹à¤ķ": 5351,
      "Ġà¤¶à¤²": 5352,
      "à¤¼à¥Ģà¤Ĥ": 5353,
      "à¤ķà¤°à¤¬à¤°": 5354,
      "Ġà¤¡à¤²à¤µ": 5355,
      "à¤Ĩà¤¬": 5356,
      "à¤Ĩà¤Ĺà¤°": 5357,
      "à¤ĵà¤°": 5358,
      "à¤¾....": 5359,
      "à¤°à¤¸à¤ª": 5360,
      "à¤¹à¤¤à¤®": 5361,
      "à¤īà¤£": 5362,
      "à¤ıà¤®à¤Ĩà¤°à¤¸": 5363,
      "Ġà¤¬à¤¢à¤¨": 5364,
      "à¥Ģ.'": 5365,
      "à¤¦à¤°à¤¬": 5366,
      "à¤¤à¤ķà¤µ": 5367,
      "à¥Ľà¤Ĺ": 5368,
      "2016": 5369,
      "à¤¶à¤²à¤®": 5370,
      "Ġ155": 5371,
      "Ġà¤Ĭà¤§": 5372,
      "iness": 5373,
      "à¤ıà¤¨à¤Ĩà¤°à¤¸": 5374,
      "Ġà¤ıà¤¨à¤Ĩà¤Īà¤¸": 5375,
      "Ġ181": 5376,
      "Ġ186": 5377,
      "ĠCol": 5378,
      "ĠAmaz": 5379,
      "ĠPAT": 5380,
      "Ġ162": 5381,
      "Ġ178": 5382,
      "ĠBh": 5383,
      "ĠIB": 5384,
      "Ġà¤ĵà¤µà¤°à¤ĳà¤²": 5385,
      "ĠRealme": 5386,
      "---": 5387,
      "ĠFire": 5388,
      "reak": 5389,
      "à¤¯à¤¯à¤¨à¤°à¤¤": 5390,
      "à¤¦à¤¶à¤®": 5391,
      "à¦²": 5392,
      "Ġbe": 5393,
      "roid": 5394,
      "ave": 5395,
      "à«ĭ": 5396,
      "à¤¬à¤°à¤®à¤¤": 5397,
      "ĠUPSC": 5398,
      "Ġà¤°à¤¤à¤¨à¤ª": 5399,
      "à¤ªà¤¹à¤ļ": 5400,
      "ANCH": 5401,
      "Ġà¥©à¥¦": 5402,
      "indra": 5403,
      "Ġà¤¤à¤¹à¤²à¤ķ": 5404,
      "ĠEngl": 5405,
      "Ġà¤¹à¤ľà¤°à¤¤à¤Ĺ": 5406,
      "ĠPolice": 5407,
      "Ġà¥¨à¥¦à¥¦à¥": 5408,
      "puter": 5409,
      "ANCHI": 5410,
      ".âĢĿ": 5411,
      "250": 5412,
      ";\"": 5413,
      "CP": 5414,
      "Read": 5415,
      "ck": 5416,
      "mm": 5417,
      "Ġà¥Ģ": 5418,
      "Ġac": 5419,
      "à¤°à¤¥à¤²": 5420,
      "à¥Ģà¤¼": 5421,
      "à¤¨à¤®à¤¨": 5422,
      "à¤ķà¤¦à¤²": 5423,
      "à¤¤à¤µà¤°": 5424,
      "à¤¹à¤²à¤¨": 5425,
      "Ġà¤¬à¤¶": 5426,
      "Ġà¤¬à¤Ľà¤¡": 5427,
      "Ġà¤¦à¤²à¤¬": 5428,
      "Ġà¤µà¤¨à¤®": 5429,
      "Ġà¤ħà¤¯à¤¸": 5430,
      "Ġà¤Ĺà¤¹à¤®": 5431,
      "Ġà¤Ńà¤Łà¤¨": 5432,
      "Ġà¤Ķà¤²": 5433,
      "Ġà¤ıà¤¯à¤°à¤¸": 5434,
      "à¤£à¤¬": 5435,
      "Ġà¤¡à¤®": 5436,
      "à¤Ľà¤ª": 5437,
      "à¤Ĩà¤¸": 5438,
      "à¤¢à¤°": 5439,
      "Ġà¤Ĩà¤°à¤ĵ": 5440,
      "Ġà¤¹à¤°à¤Ĺ": 5441,
      "Ġà¤ļà¤²à¤µ": 5442,
      "à¤¸à¤²à¤Ł": 5443,
      "à¤ıà¤®à¤µ": 5444,
      "Ġà¤Ĩà¤Īà¤ĵà¤¸": 5445,
      "Ġà¤¬à¤¦à¤¤à¤®": 5446,
      "à¤¦à¤µà¤Ī": 5447,
      "Ġà¤¬à¤°à¤¨": 5448,
      "Ġ1945": 5449,
      "Ġ1946": 5450,
      "Ġ1949": 5451,
      "Ġà¤¨à¤µà¤µ": 5452,
      "Ġ154": 5453,
      "Ġ157": 5454,
      "Ġ158": 5455,
      "Ġà¤Ĭà¤¤à¤ķ": 5456,
      "à¤Ĭà¤¨": 5457,
      "inal": 5458,
      "Ġà¥¯": 5459,
      "Ġ142": 5460,
      "ĠSu": 5461,
      "ĠCO": 5462,
      "ĠAS": 5463,
      "Ġà¤ķà¤Łà¤¹à¤²": 5464,
      "ĠMot": 5465,
      "ĠNet": 5466,
      "ĠDis": 5467,
      "Ġ275": 5468,
      "ĠGB": 5469,
      "ĠGET": 5470,
      "Ġà¤ıà¤ļà¤ıà¤¸": 5471,
      "ĠENG": 5472,
      "Ġà¤ªà¤¨à¤ªà¤¨": 5473,
      "........": 5474,
      "à¤ĳà¤¨": 5475,
      "unj": 5476,
      "ĠJan": 5477,
      "ĠJEE": 5478,
      "ĠInter": 5479,
      "ĠIndian": 5480,
      "Ġsh": 5481,
      "hark": 5482,
      "àª¿": 5483,
      "igg": 5484,
      "ace": 5485,
      "thday": 5486,
      "Ġki": 5487,
      "ister": 5488,
      "ification": 5489,
      "Ġjust": 5490,
      "à±į": 5491,
      "ĠHighl": 5492,
      "ĠCRPF": 5493,
      "Ġà¤ıà¤Ĩà¤Īà¤ıà¤®à¤Ĩà¤Īà¤ıà¤®": 5494,
      "âĪĴ": 5495,
      "ĠTHIS": 5496,
      "499": 5497,
      "COVID": 5498,
      "NT": 5499,
      "RB": 5500,
      "Sh": 5501,
      "for": 5502,
      "rad": 5503,
      "àµ": 5504,
      "Ġor": 5505,
      "Ġle": 5506,
      "Ġim": 5507,
      "Ġxx": 5508,
      "à¤Ĥ)": 5509,
      "à¤Ĥà¤¾": 5510,
      "à¥ĭ\"": 5511,
      "à¥ĭâĢ¦": 5512,
      "à¤ķà¤¦à¤°": 5513,
      "à¤²à¤Ī": 5514,
      "Ġà¤¸à¤¶": 5515,
      "à¤¯à¤¨à¤ķ": 5516,
      "à¤¸à¤¹à¤¨": 5517,
      "à¤¸à¤¬à¤¸": 5518,
      "Ġà¤¹à¤°à¤µ": 5519,
      "Ġà¤®à¤ľà¤²": 5520,
      "Ġà¤ªà¤Ĺ": 5521,
      "Ġà¤ªà¤ĸ": 5522,
      "Ġà¤¬à¤ķà¤µ": 5523,
      "à¤ľà¤ľ": 5524,
      "à¤ľà¤ĺ": 5525,
      "à¤¡à¤°à¤¶": 5526,
      "Ġà¤Ĺà¤®à¤²": 5527,
      "Ġà¤Ĩà¤Ĭ": 5528,
      "Ġà¤ķà¤°à¤®à¤ļ": 5529,
      "Ġà¤¤à¤ľ": 5530,
      "Ġà¤Ńà¤Ń": 5531,
      "à¤¾à¤Ĥà¥ĩ": 5532,
      "à¤¼âĢĻ": 5533,
      "à¤Ńà¤°à¤ķà¤®": 5534,
      "Ġà¤ĸà¤ļ": 5535,
      "Ġà¤Łà¤ªà¤ķ": 5536,
      "Ġà¤Łà¤¹à¤²à¤¨": 5537,
      "à¤ĩà¤¸à¤°": 5538,
      "à¤ĩà¤®à¤²": 5539,
      "à¤ĩà¤¬à¤²": 5540,
      "à¤ľà¤¨à¤¸": 5541,
      "Ġà¤§à¤°à¤ª": 5542,
      "Ġ205": 5543,
      "Ġà¤Ĩà¤°à¤Ĩà¤°à¤¬": 5544,
      "âĢįà¤¿à¤Ĥ": 5545,
      "à¤¾.''": 5546,
      "Ġà¤ĵà¤µà¤²": 5547,
      "Ġà¤ľà¤¨à¤®à¤¤": 5548,
      "à¤¸à¤²à¤ª": 5549,
      "Ġà¤Ĩà¤¦à¤°à¤£": 5550,
      "à¤¯à¤²à¤°": 5551,
      "à¥Ŀà¤¤": 5552,
      "à¤µà¤²à¤Ĺ": 5553,
      "Ġà¤¬à¤¦à¤¸": 5554,
      "à¥ĩ.âĢĿ": 5555,
      "Ġ720": 5556,
      "Ġ192": 5557,
      "2015": 5558,
      "Ġà¤²à¤¡à¤©": 5559,
      "à¤ļà¤°à¤²": 5560,
      "à¤ıà¤¨à¤ıà¤®": 5561,
      "Ġ\"\"": 5562,
      "Ġ146": 5563,
      "Ġ149": 5564,
      "à¤ªà¤²à¤Ł": 5565,
      "Ġ137": 5566,
      "Ġ161": 5567,
      "atus": 5568,
      "à¤ıà¤ļà¤ı": 5569,
      "ĠBe": 5570,
      "ĠNZ": 5571,
      "ĠNo": 5572,
      "align": 5573,
      "Ġà¤ıà¤«à¤¬": 5574,
      "ĠWebsite": 5575,
      "ĠKh": 5576,
      "ĠED": 5577,
      "Ġà¤Ĩà¤īà¤Łà¤ª": 5578,
      "olly": 5579,
      "à¤Ĩà¤ĩà¤ª": 5580,
      "Ġà¤¬à¤°à¤¤à¤¤": 5581,
      "Ġ1976": 5582,
      "à®¯": 5583,
      "akhand": 5584,
      "ĠRail": 5585,
      "istan": 5586,
      "ubl": 5587,
      "Ġà¤Ĩà¤īà¤Łà¤°": 5588,
      "Ġà¤ıà¤¨à¤ıà¤¸à¤ľ": 5589,
      "ĠSamsung": 5590,
      "ĠImage": 5591,
      "ĠMahindra": 5592,
      "enefits": 5593,
      ";\">": 5594,
      "Ġjustify": 5595,
      "Ġà¤§à¤°à¤ªà¤ķà¤¡": 5596,
      "CD": 5597,
      "RP": 5598,
      "St": 5599,
      "UV": 5600,
      "tel": 5601,
      "text": 5602,
      "twitter": 5603,
      "udi": 5604,
      "Ġà°": 5605,
      "à¤¾âĢĻâĢĻ": 5606,
      "à¤¾âĢĮ": 5607,
      "Ġà¤¸à¤¨à¤ķ": 5608,
      "à¤¸à¤²à¤¨": 5609,
      "à¤®à¤®à¤¤": 5610,
      "à¥ĩà¤Ĥ|": 5611,
      "à¤ľà¤Ł": 5612,
      "Ġà¤¦à¤Ĺ": 5613,
      "Ġà¤°à¤Ĺ": 5614,
      "Ġà¤²à¤²à¤¨": 5615,
      "à¤ıà¤¬à¤²": 5616,
      "à¤¬à¤ķà¤°": 5617,
      "à¤¶à¤Ń": 5618,
      "à¤¡à¤°à¤µ": 5619,
      "Ġà¤Ĺà¤Ĺà¤°": 5620,
      "Ġà¤¤à¤Łà¤µà¤°": 5621,
      "à¤Īà¤Ĩà¤°à¤Ł": 5622,
      "à¥Īà¥¤à¥¤": 5623,
      "Ġà¤ļà¤°à¤¨": 5624,
      "Ġà¤¯à¤°": 5625,
      "à¤¼:": 5626,
      "à¤Ńà¤Ł": 5627,
      "Ġà¤°à¤¹à¤Ł": 5628,
      "à¥Į.": 5629,
      "à¤°à¤¤à¤µà¤°": 5630,
      "Ġà¤¡à¤¯": 5631,
      "à¤ĩà¤¸à¤®": 5632,
      "à¤łà¤ª": 5633,
      "Ġà¤ħà¤¨à¤µà¤°à¤¤": 5634,
      "à¤¢à¤¤": 5635,
      "à¤°à¤µà¤¶": 5636,
      "à¤¼à¥Ģ'": 5637,
      "Ġà¤ĵà¤ıà¤¨à¤ľ": 5638,
      "à¤Ŀà¤°": 5639,
      "à¤Ŀà¤Ł": 5640,
      "à¤¸à¤®à¤¤": 5641,
      "Ġà¤®à¤¨à¤ļà¤²": 5642,
      "Ġà¤Ĩà¤Īà¤ıà¤®à¤ıà¤«": 5643,
      "à¤Ĩà¤Īà¤ıà¤«": 5644,
      "à¥Ĥà¤Ĥ?": 5645,
      "Ġà¤ľà¤²à¤®": 5646,
      "Ġà¤ľà¤²à¤¦": 5647,
      "Ġà¤¬à¤°à¤¹": 5648,
      "à¤¡à¤°à¤µà¤°": 5649,
      "Ġà¤¨à¤µà¤Ĺ": 5650,
      "à¤ķà¤Łà¤µà¤°": 5651,
      "Ġà¤ıà¤®à¤ıà¤¸à¤¸": 5652,
      "Ġà¤ıà¤¨à¤Ĩà¤Īà¤Ł": 5653,
      "Ġà¥Ĳ": 5654,
      "Ġ1857": 5655,
      "à¤īà¤¨à¤¶": 5656,
      "ĠSy": 5657,
      "Ġ1300": 5658,
      "ĠAm": 5659,
      "ĠAss": 5660,
      "ĠRSS": 5661,
      "ĠRANCHI": 5662,
      "Ġà¤ħà¤ľà¤®à¤²": 5663,
      "ĠBoss": 5664,
      "ale": 5665,
      "Ġà¤²à¤ĸà¤¨à¤ª": 5666,
      "Ġ260": 5667,
      "Ġà¤ªà¤°à¤®à¤¬": 5668,
      "ĠGO": 5669,
      "ĠGro": 5670,
      "Ġ299": 5671,
      "Ġà¤ħà¤°à¤¬à¤ªà¤¤": 5672,
      "Ġà¤Ĩà¤ĩà¤¡à¤²": 5673,
      "ĠVi": 5674,
      "ĠViral": 5675,
      "ĠUSD": 5676,
      "Ġpic": 5677,
      "hah": 5678,
      "à¦Ĥ": 5679,
      "ivers": 5680,
      "Ġke": 5681,
      "Ġ1954": 5682,
      "Ġà¤ľà¤¨à¤ķà¤ª": 5683,
      "Ġà¦¬": 5684,
      "ĠPlay": 5685,
      "à¤ľà¤¯à¤¨à¤Ĺà¤°": 5686,
      "ĠPCS": 5687,
      "Ġà¤ıà¤ıà¤¸à¤Ĩà¤ĩ": 5688,
      "Ġà¤¸à¤®à¤°à¤¸à¤¤": 5689,
      "umbai": 5690,
      "ĠYouT": 5691,
      "HAB": 5692,
      "KH": 5693,
      "NL": 5694,
      "Raj": 5695,
      "bh": 5696,
      "bps": 5697,
      "cope": 5698,
      "ield": 5699,
      "oj": 5700,
      "ous": 5701,
      "per": 5702,
      "ver": 5703,
      "wari": 5704,
      "wood": 5705,
      "ys": 5706,
      "ï¼": 5707,
      "Ġ]": 5708,
      "Ġhi": 5709,
      "Ġab": 5710,
      "à¥ĢâĢĶ": 5711,
      "à¤Ĥà¥ģ": 5712,
      "à¤²à¤µà¤°": 5713,
      "à¤²à¤¸à¤°": 5714,
      "Ġà¤ªà¤¦à¤°": 5715,
      "Ġà¤ªà¤łà¤¨": 5716,
      "à¥ĪâĢĿ": 5717,
      "à¤¦à¤ķà¤Ł": 5718,
      "Ġà¤¬à¤ľà¤¨": 5719,
      "Ġà¤¨à¥Ľ": 5720,
      "Ġà¤¨à¤¨à¤¦": 5721,
      "Ġà¤¨à¤ľà¤®": 5722,
      "Ġà¤ľà¤¯à¤µ": 5723,
      "Ġà¤µà¤Ł": 5724,
      "Ġà¤²à¤ľ": 5725,
      "Ġà¤ħà¤ķà¤²": 5726,
      "à¤¬à¥ľà¤¤": 5727,
      "à¤¡à¤¹à¤°": 5728,
      "Ġà¤Ĺà¤¹à¤¨à¤¤": 5729,
      "Ġà¤ĩà¤ķà¤°": 5730,
      "Ġà¤īà¤Ĺà¤²": 5731,
      "Ġà¤Ķà¤ľ": 5732,
      "à¤¥à¤ķà¤µ": 5733,
      "Ġà¤ļà¤®à¤ļ": 5734,
      "Ġà¤ıà¤¤à¤°": 5735,
      "Ġà¤ĸà¤Ĺà¥ľ": 5736,
      "Ġà¤«à¥ľ": 5737,
      "à¥Ģà¤Ĥ...": 5738,
      "à¤Ĩà¤ı": 5739,
      "à¤Ĩà¤ĩà¤¡": 5740,
      "Ġà¤ħà¤¨à¤¬à¤¨": 5741,
      "à¤µà¤°à¤¸": 5742,
      "Ġ2025": 5743,
      "Ġà¤ĵà¤ıà¤¸à¤¡": 5744,
      "Ġà¤ľà¤¨à¤Ń": 5745,
      "Ġà¤Ĩà¤ľà¤¤à¤ķ": 5746,
      "âĢĻ.": 5747,
      "Ġà¤ıà¤¸à¤µ": 5748,
      "à¤ģ?": 5749,
      "Ġà¤ħà¤°à¤¹à¤°": 5750,
      "à¤²à¤ķà¤¨": 5751,
      "à¤¡à¤²à¤¸": 5752,
      "à¤ľà¤²à¤µ": 5753,
      "Ġ7000": 5754,
      "2014": 5755,
      "à¤Ĩà¤°à¤Ĩà¤°": 5756,
      "à¤ļà¤°à¤°": 5757,
      "à¤¤à¤®à¤¯": 5758,
      "inue": 5759,
      "à¤ıà¤²à¤Ł": 5760,
      "à¤ıà¤²à¤ıà¤¸": 5761,
      "à¤°à¤ĸà¤§": 5762,
      "à¤Ĺà¤®à¤Ĺ": 5763,
      "anj": 5764,
      "ĠSMS": 5765,
      "ĠCS": 5766,
      "ĠAct": 5767,
      "Ġà¤īà¤²à¤Łà¤«": 5768,
      "Ġà¤¹à¤Łà¤¤": 5769,
      "ater": 5770,
      "Ġ177": 5771,
      "ĠMin": 5772,
      "ĠMarket": 5773,
      "ĠHor": 5774,
      "Ġà¤īà¤°à¤Ī": 5775,
      "ĠDM": 5776,
      "à¥Ĥà¤Ĥà¥¤âĢĻ": 5777,
      "ich": 5778,
      "à¤īà¤¸à¤«": 5779,
      "ĠLo": 5780,
      "ĠVal": 5781,
      "Ġ4500": 5782,
      "etrol": 5783,
      "à¤ĳà¤¸": 5784,
      "irl": 5785,
      "Ġ365": 5786,
      "Ġà¤¬à¤®à¤¬": 5787,
      "Ġmm": 5788,
      "Ġpro": 5789,
      "hak": 5790,
      "Ġà¤¤à¤Łà¤°à¤ķ": 5791,
      "Ġfrom": 5792,
      "ake": 5793,
      "oscope": 5794,
      "Ġ1957": 5795,
      "----------------": 5796,
      "Ġstyle": 5797,
      "ĠCrime": 5798,
      "adhya": 5799,
      "urrent": 5800,
      "Ġhai": 5801,
      "ĠGovernment": 5802,
      "ĠBirthday": 5803,
      "ĠKapoor": 5804,
      "ĠAmazon": 5805,
      "ĠHighlights": 5806,
      "Ġxxx": 5807,
      "\".": 5808,
      "2000": 5809,
      "CA": 5810,
      "DR": 5811,
      "Vir": 5812,
      "bo": 5813,
      "gn": 5814,
      "ix": 5815,
      "mission": 5816,
      "ner": 5817,
      "»¿": 5818,
      "ï»¿": 5819,
      "Ġà¤ķà¤ķà¤°": 5820,
      "à¤Ĥ...": 5821,
      "à¤ķà¤Łà¤®": 5822,
      "à¤¤à¤¹à¤¸": 5823,
      "Ġà¤¸à¤²à¤µ": 5824,
      "à¥ģà¤¼": 5825,
      "à¤¦à¤°à¤ķ": 5826,
      "à¤Ĺà¤§": 5827,
      "à¤Ĺà¤°à¤ķ": 5828,
      "à¤Ĺà¤¹à¤®": 5829,
      "Ġà¤¬à¤«à¤°": 5830,
      "Ġà¤ľà¤¸à¤°": 5831,
      "à¤ľà¤¸à¤®": 5832,
      "Ġà¤²à¤£": 5833,
      "Ġà¤²à¤µà¤ķ": 5834,
      "à¤ıà¤¯": 5835,
      "à¤¬à¤ľà¤°": 5836,
      "Ġà¤Ĩà¤®à¤²": 5837,
      "à¤Īà¤µà¤°": 5838,
      "à¤·à¤¯à¤ķ": 5839,
      "Ġà¤ļà¤°à¤µ": 5840,
      "Ġà¤ļà¤Łà¤¨": 5841,
      "Ġà¤ļà¤ªà¤°": 5842,
      "à¥Īà¤Ĥ'": 5843,
      "Ġà¤ıà¤¡à¤²": 5844,
      "à¤«à¥ľ": 5845,
      "à¤«à¤°à¤²": 5846,
      "à¤ķà¤°à¤ª": 5847,
      "Ġà¤ıà¤ķà¤®à¤¤": 5848,
      "à¤°à¤¤à¤²": 5849,
      "Ġ221": 5850,
      "à¤¾,âĢĺâĢĺ": 5851,
      "Ġà¤Ľà¤¤à¤°": 5852,
      "Ġà¤Ĳà¤°": 5853,
      "Ġà¤īà¤ªà¤ĸà¤£": 5854,
      "Ġà¤Ĩà¤¯à¤²": 5855,
      "à¤µà¤¨à¤Ĺà¤°": 5856,
      "Ġà¤¸à¤®à¤¯à¤¬à¤¦": 5857,
      "à¤ħà¤¸à¤°": 5858,
      "à¤ħà¤®à¤°": 5859,
      "Ġà¤łà¤Ĺà¤¨": 5860,
      "ĠâĢĺâĢĻ": 5861,
      "Ġ193": 5862,
      "Ġ1942": 5863,
      "Ġà¤¸à¤ļà¤¦": 5864,
      "Ġà¤¨à¤°à¤Ĺ": 5865,
      "Ġà¤ªà¤¢à¤©": 5866,
      "Ġà¤ıà¤¨à¤«": 5867,
      "Ġ141": 5868,
      "Ġ184": 5869,
      "à¤¯à¤µà¤¶": 5870,
      "à¤ıà¤«à¤Ł": 5871,
      "ĠSur": 5872,
      "Ġà¤ķà¤¨à¤ªà¤Ł": 5873,
      "ĠAff": 5874,
      "à¤ĥ,": 5875,
      "Ġà¤ħà¤ĸà¤°": 5876,
      "à¤ıà¤ļà¤¬": 5877,
      "à¤ıà¤ļà¤ıà¤¸": 5878,
      "Ġ174": 5879,
      "ĠBitcoin": 5880,
      "ĠNT": 5881,
      "ĠIII": 5882,
      "Ġ225": 5883,
      "ĠTest": 5884,
      "ĠDI": 5885,
      "Ġà¤īà¤¤à¤°à¤µ": 5886,
      "led": 5887,
      "ĠReview": 5888,
      "à¤¾âĢĻ,": 5889,
      "usiness": 5890,
      "à¤ĳà¤¨à¤²": 5891,
      "otos": 5892,
      "hiv": 5893,
      "à®Ł": 5894,
      "Ġà¥§à¥Ń": 5895,
      "Ġà¤¹à¤¸à¤¨à¤ª": 5896,
      "Ġà¤ļà¥Ŀà¤ķà¤°": 5897,
      "Ġà¤īà¤§à¤®à¤ª": 5898,
      "ĠIPS": 5899,
      "ĠChhattisgarh": 5900,
      "à¤£à¤¤à¤¯": 5901,
      "Ġgoo": 5902,
      "ector": 5903,
      "LAHAB": 5904,
      "====": 5905,
      "à¦¾à¦Ĥ": 5906,
      "Ġà¤ıà¤²à¤¬à¤®": 5907,
      "Alive": 5908,
      "ĠPATNA": 5909,
      "harkhand": 5910,
      "ĠRailway": 5911,
      "LAHABAD": 5912,
      "Ar": 5913,
      "DP": 5914,
      "Delhi": 5915,
      "VP": 5916,
      "cc": 5917,
      "ne": 5918,
      "wj": 5919,
      "wal": 5920,
      "zwj": 5921,
      "Â¨": 5922,
      "ÃĹ": 5923,
      "Ġ;": 5924,
      "Ġ\\": 5925,
      "à¤°à¤Ľ": 5926,
      "à¤°à¤Īà¤¸": 5927,
      "à¥į&": 5928,
      "à¤¨à¤ĵà¤µà¤°": 5929,
      "à¤ķà¤ł": 5930,
      "à¤²à¤ªà¤°": 5931,
      "Ġà¤¸à¤§": 5932,
      "à¤¯à¤ªà¤°": 5933,
      "à¤¯à¤¬à¤²": 5934,
      "Ġà¤¹à¥ľ": 5935,
      "Ġà¤ªà¤ķà¤¨": 5936,
      "à¤µà¤¨à¤ķ": 5937,
      "à¤µà¤Ńà¤°": 5938,
      "à¤µà¤¦à¤¤": 5939,
      "à¤Ĺà¤²à¤¨": 5940,
      "Ġà¤¬à¤Łà¤°": 5941,
      "Ġà¤ľà¤°à¤¦": 5942,
      "à¤ľà¤Ī": 5943,
      "Ġà¤°à¤¬à¤°": 5944,
      "Ġà¤°à¤Ĺà¤¡": 5945,
      "à¥Ĥà¥į": 5946,
      "à¤ıà¤Ĩà¤°": 5947,
      "à¤¬à¤°à¤¦": 5948,
      "Ġà¤Ĺà¤Ĺ": 5949,
      "Ġà¤Ĺà¤«": 5950,
      "Ġà¤ªà¤°à¤ľ": 5951,
      "à¥Īà¥¤...": 5952,
      "Ġà¤ļà¤ªà¤¤": 5953,
      "à¤ķà¤°à¤ķ": 5954,
      "à¤ĩà¤¦": 5955,
      "Ġà¤ĺà¤ªà¤²": 5956,
      "Ġà¤²à¤Ĺà¤ķà¤°": 5957,
      "à¤¤à¤°à¤¨": 5958,
      "à¤ĵà¤¨": 5959,
      "à¥ľà¤²": 5960,
      "à¤¹à¤°à¤ª": 5961,
      "à¤¢à¤¸": 5962,
      "Ġà¤Ĳà¤¹à¤¤": 5963,
      "Ġà¤ľà¤¬à¤¤à¤ķ": 5964,
      "Ġà¤¸à¤¹à¤ľà¤¤": 5965,
      "Ġ330": 5966,
      "Ġà¤¸à¤¬à¤²": 5967,
      "Ġà¤¬à¤¹à¤ķ": 5968,
      "Ġà¤Ĩà¤¦à¤®à¤ª": 5969,
      "Ġà¤¸à¤°à¤ľà¤®": 5970,
      "Ġà¤®à¤¨à¤ªà¤¸": 5971,
      "Ġà¤ħà¤¸à¤¤": 5972,
      "Ġà¤Ĩà¤Īà¤ıà¤¨à¤ıà¤¸": 5973,
      "à¤Łà¤²à¤®": 5974,
      "Ġ1920": 5975,
      "Ġà¤¸à¤¤à¤Ĺ": 5976,
      "à¤®à¤ļà¤°à¤£": 5977,
      "à¤Ĭà¤²": 5978,
      "à¤Ĺà¤¨à¤¹à¤°": 5979,
      "Ġà¤µà¤¨à¤ķà¤°": 5980,
      "Ġ307": 5981,
      "à¤°à¤ľà¤ķ": 5982,
      "ĠChan": 5983,
      "ĠPP": 5984,
      "ĠPass": 5985,
      "Ġà¤¦à¤¬à¤ķà¤°": 5986,
      "Ġ243": 5987,
      "ated": 5988,
      "ĠBy": 5989,
      "ĠNRC": 5990,
      "ĠNIA": 5991,
      "Ġà¤¸à¤ľà¤Ĺà¤¤": 5992,
      "Ġ222": 5993,
      "Ġ272": 5994,
      "Ġ310": 5995,
      "Ġà¤ıà¤ļà¤¬": 5996,
      "ĠKoh": 5997,
      "ĠEPF": 5998,
      "reen": 5999,
      "ions": 6000,
      "ĠLIVE": 6001,
      "asht": 6002,
      "ĠUs": 6003,
      "à¤Ĩà¤ĩà¤ı": 6004,
      "Ġpl": 6005,
      "agram": 6006,
      "over": 6007,
      "Ġà¤Ĩà¤ĩà¤ıà¤ıà¤¸": 6008,
      "Ġà¤ĳà¤²à¤Ĩà¤īà¤Ł": 6009,
      "Ġ1963": 6010,
      "Ġwith": 6011,
      "ĠiOS": 6012,
      "Ġà¤ıà¤¸à¤ĵà¤ª": 6013,
      "Ġà¤ħà¤ķà¤¬à¤°à¤ª": 6014,
      "Indian": 6015,
      "Ġres": 6016,
      "Ġà¦Ń": 6017,
      "ĠNarendra": 6018,
      "ĠALLAHABAD": 6019,
      "ĠUttarakhand": 6020,
      "Plus": 6021,
      "ollywood": 6022,
      "ĠYouTube": 6023,
      "/-": 6024,
      "Com": 6025,
      "JD": 6026,
      "ON": 6027,
      "PSC": 6028,
      "RI": 6029,
      "der": 6030,
      "jgar": 6031,
      "mg": 6032,
      "ty": 6033,
      "ual": 6034,
      "Ġus": 6035,
      "à¤°à¤°à¤ķ": 6036,
      "à¤°à¤¡à¤®": 6037,
      "à¥ĭâĢĮ": 6038,
      "à¤ķà¤§": 6039,
      "à¤²à¤¸à¤¨": 6040,
      "à¤²à¤Ńà¤Ĺ": 6041,
      "Ġà¤¸à¤¨à¤¸": 6042,
      "Ġà¤¹à¤µà¤¸": 6043,
      "Ġà¤®à¥ľ": 6044,
      "Ġà¤®à¤ķà¤¡": 6045,
      "à¤¹à¤ķà¤°": 6046,
      "à¤µà¤§à¤°": 6047,
      "à¤ªï¾¥": 6048,
      "Ġà¤²à¤¨": 6049,
      "Ġà¤ħà¤¥à¤ķ": 6050,
      "à¥Ĥà¥Ĥ": 6051,
      "à¤¡à¤¹": 6052,
      "Ġà¤Ĺà¤¦à¤Ĺ": 6053,
      "Ġà¤Ĩà¤ĩà¤¨": 6054,
      "à¤ļà¤²à¤ķ": 6055,
      "à¤§à¤®à¤ķ": 6056,
      "à¤·à¤¶": 6057,
      "Ġà¤¶à¤¯à¤¨": 6058,
      "Ġà¤ıà¤Ī": 6059,
      "Ġà¤ıà¤Ĩà¤°": 6060,
      "à¤Ńà¤§": 6061,
      "à¤Ńà¤²à¤ķà¤°": 6062,
      "à¤«à¤ķ": 6063,
      "Ġà¤ĺà¤¨à¤¤": 6064,
      "à¤Ĩà¤ł": 6065,
      "à¤Łà¤°à¤¡": 6066,
      "à¤¸à¤°à¤Ĺ": 6067,
      "à¤²à¤¨à¤°à¤¤": 6068,
      "Ġ207": 6069,
      "Ġà¤Ĩà¤°à¤ıà¤®": 6070,
      "à¤²à¤¤à¤ª": 6071,
      "Ġà¤¸à¤¹à¤ľà¤¨": 6072,
      "à¤¼à¥ĢâĢĻ": 6073,
      "Ġà¤ľà¤¨à¤§à¤¨": 6074,
      "à¤īà¤°à¤ķ": 6075,
      "à¤īà¤ľà¤°": 6076,
      "Ġà¤¹à¤°à¤¬": 6077,
      "à¤ıà¤¸à¤ıà¤®": 6078,
      "à¤ıà¤¸à¤¡à¤¬": 6079,
      "Ġà¤®à¤¨à¤®à¤°": 6080,
      "à¤ħà¤Ĺ": 6081,
      "Ġà¤¶à¤°à¤ľ": 6082,
      "Ġà¤Ŀà¤ª": 6083,
      "Ġà¤Ŀà¤ªà¤Ł": 6084,
      "Ġà¤ķà¤ªà¤ķ": 6085,
      "Ġà¤¬à¤°à¤¬": 6086,
      "Ġà¤¬à¤°à¤Ĺà¤¦": 6087,
      "Ġ1930": 6088,
      "Ġ850": 6089,
      "à¤ķà¤¨à¤Ĺ": 6090,
      "Ġà¤¦à¤²à¤ľ": 6091,
      "Ġà¤Ĩà¤®à¤°à¤£": 6092,
      "Ġà¤ıà¤®à¤Ĩà¤°": 6093,
      "à¤¤à¤®à¤ª": 6094,
      "à¤ıà¤²à¤¡": 6095,
      "Ġà¤ıà¤¨à¤Ī": 6096,
      "Ġà¤ıà¤¨à¤ıà¤¸à¤ı": 6097,
      "Ġà¤ıà¤¨à¤Ĩà¤°à¤Ĩà¤Ī": 6098,
      "ĠSP": 6099,
      "ĠSw": 6100,
      "ĠPDF": 6101,
      "Ġ167": 6102,
      "Ġ168": 6103,
      "Ġà¤ħà¤ĸà¤£": 6104,
      "ĠMS": 6105,
      "ĠMet": 6106,
      "ĠBA": 6107,
      "ĠBud": 6108,
      "Ġ2100": 6109,
      "Ġà¤īà¤ªà¤¸à¤Ń": 6110,
      "Ġà¤ĩà¤ķà¤ł": 6111,
      "Ġà¤ľà¤¯à¤µà¤°": 6112,
      "ĠTop": 6113,
      "Ġ280": 6114,
      "Ġà¤¶à¤¬à¤¨à¤®": 6115,
      "idabad": 6116,
      "ĠOption": 6117,
      "ilas": 6118,
      "Ġmov": 6119,
      "andhi": 6120,
      "Ġà¤¤à¤Łà¤¸": 6121,
      "Ġà¥§à¥¬": 6122,
      "india": 6123,
      "Ġà¤Ĩà¤²à¤®à¤¬": 6124,
      "imach": 6125,
      "Ġ1968": 6126,
      "umber": 6127,
      "Ġà¤ļà¤®à¤ķà¤¨": 6128,
      "Ġvideo": 6129,
      "riend": 6130,
      "Ġdownload": 6131,
      "oney": 6132,
      "Ġ1951": 6133,
      "ipur": 6134,
      "ANPUR": 6135,
      "ĠXiaomi": 6136,
      "Ġà¥¨à¥«": 6137,
      "ike": 6138,
      "Ġà¥§à¥¯à¥Ń": 6139,
      "ĠQuotes": 6140,
      "Ġà¤¹à¤°à¤®à¤¨à¤ª": 6141,
      "ĠUpdates": 6142,
      "ĠOnePlus": 6143,
      "ĠTech": 6144,
      "ongress": 6145,
      "ĠAccount": 6146,
      "ĠNeem": 6147,
      "embly": 6148,
      "unjab": 6149,
      "AG": 6150,
      "CR": 6151,
      "CAA": 6152,
      "DI": 6153,
      "DS": 6154,
      "ER": 6155,
      "En": 6156,
      "Hz": 6157,
      "IND": 6158,
      "OR": 6159,
      "ran": 6160,
      "yan": 6161,
      "Ġ......": 6162,
      "à¥ĩâĢĿ": 6163,
      "à¥įà¤¾": 6164,
      "à¤ķà¤¬à¤¸": 6165,
      "à¤¤à¤ľà¤¨": 6166,
      "à¤¤à¤¬à¤°": 6167,
      "à¤¤à¤¹à¤¤": 6168,
      "Ġà¤¸à¥ľ": 6169,
      "Ġà¤¹à¤¶": 6170,
      "à¤Ĺà¤²à¤¤": 6171,
      "à¤ªà¤ªà¤¤": 6172,
      "à¤ľà¤¬à¤¹": 6173,
      "à¤ľà¤ĺà¤°": 6174,
      "Ġà¤ĩà¤·": 6175,
      "Ġà¤¤à¥ľ": 6176,
      "Ġà¤¤à¤«à¤°": 6177,
      "Ġà¤Ńà¤¨": 6178,
      "à¤§à¤ľà¤¨": 6179,
      "Ġà¤ªà¤°à¤ĸà¤¨": 6180,
      "à¤¾à¤Ĥ'": 6181,
      "à¤¾à¤Ĥ)": 6182,
      "à¤¾à¤ĤâĢĻ": 6183,
      "Ġà¤¯à¤¶à¤°": 6184,
      "à¤ĸà¤°à¤¨": 6185,
      "à¤£à¤°": 6186,
      "à¤«à¤¹à¤®": 6187,
      "à¤°à¤¤à¤ª": 6188,
      "à¤ĩà¤¤à¤¨": 6189,
      "à¤Ľà¤µ": 6190,
      "à¤Ľà¤ķà¤°": 6191,
      "à¥ĩà¥¤''": 6192,
      "Ġà¤Ľà¤²à¤¨": 6193,
      "Ġà¤Ĩà¤ªà¤®": 6194,
      "Ġ(\"": 6195,
      "à¤²à¤¨à¤Ĺà¤°": 6196,
      "à¤°à¤µà¤§": 6197,
      "Ġà¤¤à¤°à¤£": 6198,
      "Ġà¤Ĩà¤°à¤ıà¤«": 6199,
      "Ġà¤ĵà¤¹": 6200,
      "Ġà¤ĵà¤µà¤¨": 6201,
      "à¤īà¤ªà¤¯": 6202,
      "Ġ512": 6203,
      "Ġà¤ħà¤®à¤°à¤ķ": 6204,
      "Ġà¤ħà¤¸à¤Ĺà¤°": 6205,
      "à¤ħà¤ľà¤¯": 6206,
      "Ġà¤ıà¤¸à¤Ĩà¤ĩà¤Ł": 6207,
      "à¤ģ.": 6208,
      "à¥Ĥà¤Ĥ-": 6209,
      "Ġà¤Īà¤¯": 6210,
      "Ġà¤Īà¤¡à¤¨": 6211,
      "Ġ194": 6212,
      "Ġ1940": 6213,
      "Ġ1955": 6214,
      "Ġà¤¸à¤¤à¤µ": 6215,
      "Ġà¤ıà¤®à¤ıà¤ļ": 6216,
      "Ġà¤¢à¤²à¤¨": 6217,
      "à¤Ĺà¤®à¤°à¤®à¤°": 6218,
      "ĠServ": 6219,
      "Ġ,âĢĺâĢĺ": 6220,
      "ĠCar": 6221,
      "ĠRT": 6222,
      "Ġà¤§à¤¨à¤ĸà¤¡": 6223,
      "Ġà¤ħà¤ľà¤µ": 6224,
      "ĠBand": 6225,
      "ĠNS": 6226,
      "Ġ212": 6227,
      "Ġ215": 6228,
      "Ġà¤ªà¤ķà¤¡à¤©": 6229,
      "ĠTable": 6230,
      "ĠDig": 6231,
      "Ġà¤ıà¤«à¤ª": 6232,
      "Ġà¤ķà¤¥à¤ķ": 6233,
      "Ġà¤ªà¤°à¤®à¤¹": 6234,
      "Ġà¤ĩà¤®à¤°à¤¤": 6235,
      "ices": 6236,
      "stem": 6237,
      "à¤¯à¤£à¤¸": 6238,
      "Ġà¤Ĩà¤ĩà¤¸à¤²": 6239,
      "ĠEMI": 6240,
      "reme": 6241,
      "ĠUN": 6242,
      "ĠReading": 6243,
      "rak": 6244,
      "ĠOr": 6245,
      "ĠJam": 6246,
      "Ġph": 6247,
      "hik": 6248,
      "Ġ380": 6249,
      "Ġcl": 6250,
      "eme": 6251,
      "Ġà¤ħà¤ªà¤¹à¤°à¤£à¤ķà¤°": 6252,
      "imes": 6253,
      "akistan": 6254,
      "ideos": 6255,
      "à¯Ģ": 6256,
      "à¯ĭ": 6257,
      "ĠIPO": 6258,
      "Ġ1952": 6259,
      "Ġà®µ": 6260,
      "ĠRojgar": 6261,
      "Ġà¤§à¥ľà¤²": 6262,
      "à¤ħà¤«à¤Ĺ": 6263,
      "Ġà¤ľà¤¯à¤¨à¤Ĺà¤°": 6264,
      "ĠFaridabad": 6265,
      "ĠBoard": 6266,
      "munity": 6267,
      "Ġago": 6268,
      "ilaspur": 6269,
      ");": 6270,
      "120": 6271,
      "BT": 6272,
      "CL": 6273,
      "FI": 6274,
      "HS": 6275,
      "KR": 6276,
      "du": 6277,
      "eet": 6278,
      "eight": 6279,
      "live": 6280,
      "lication": 6281,
      "ox": 6282,
      "ool": 6283,
      "pm": 6284,
      "ror": 6285,
      "à³": 6286,
      "Ġ_": 6287,
      "Ġ{": 6288,
      "Ġà¥Ŀ": 6289,
      "Ġï»¿": 6290,
      "à¥įà¥¤": 6291,
      "à¥Ģ....": 6292,
      "à¤¿à¥įâĢĮ": 6293,
      "à¤Ĥ?": 6294,
      "à¤ķà¤ļà¤°": 6295,
      "à¤²à¤ĸà¤¤": 6296,
      "Ġà¤¸à¤ªà¤°": 6297,
      "à¤¯à¤ķà¤°à¤£": 6298,
      "à¤¸à¤ħà¤ª": 6299,
      "Ġà¤¹à¤¡à¤ķ": 6300,
      "Ġà¤®à¤²à¤ķ": 6301,
      "à¤®à¤¸à¤°": 6302,
      "à¥Īà¤ĥ": 6303,
      "à¤µà¤¥": 6304,
      "à¤µà¤«": 6305,
      "à¤¦à¥ľ": 6306,
      "à¤Ĺà¤Ń": 6307,
      "Ġà¤¨à¤¸à¤°": 6308,
      "à¤ªà¤Ĺ": 6309,
      "Ġà¤ľà¤¯à¤®": 6310,
      "Ġà¤¦à¤¨": 6311,
      "Ġà¤µà¤¯": 6312,
      "Ġà¤Ĩà¤¯à¤°": 6313,
      "Ġà¤Ĩà¤ĩà¤ķ": 6314,
      "à¤ļà¤¦": 6315,
      "Ġà¤ĩà¤¦à¤°": 6316,
      "Ġà¤Ńà¤ľ": 6317,
      "Ġà¤īà¤Ĺà¤¤": 6318,
      "Ġà¤¶à¤Ĺ": 6319,
      "Ġà¤ļà¤ĸ": 6320,
      "à¤ĸà¤®à¤¯": 6321,
      "Ġà¤Łà¤¹à¤¨": 6322,
      "à¤ĩà¤ĵ": 6323,
      "à¤ĩà¥Ľ": 6324,
      "Ġà¤ħà¤¨à¤«": 6325,
      "à¤¹à¤°à¤µ": 6326,
      "à¤¬à¤°à¤¨": 6327,
      "Ġ206": 6328,
      "Ġà¤¤à¤°à¤¨à¤¤": 6329,
      "à¤°à¤£à¤¯": 6330,
      "Ġà¤ĵà¤ıà¤¸": 6331,
      "Ġà¤ĵà¤ľà¤¸": 6332,
      "à¤¹à¤¤à¤Ĺ": 6333,
      "à¤īà¤Łà¤°": 6334,
      "Ġà¤ļà¤²à¤ļ": 6335,
      "Ġà¤¬à¤¹à¤ķà¤°": 6336,
      "Ġà¤¸à¤°à¤²à¤¤": 6337,
      "à¤ħà¤Ĺà¤¸": 6338,
      "à¤ħà¤¹à¤®à¤¦": 6339,
      "à¤µà¤¤à¤®": 6340,
      "Ġà¤¬à¤°à¤Ĺà¤²": 6341,
      "Ġà¤Īà¤¬": 6342,
      "à¤¨à¤¤à¤Ī": 6343,
      "à¤¤à¤ķà¤¨": 6344,
      "2010": 6345,
      "à¤Łà¤ķà¤Ł": 6346,
      "Ġà¤®à¤¤à¤ªà¤¤": 6347,
      "Ġà¤¨à¤µà¤¯": 6348,
      "Ġà¤¢à¤²à¤¤": 6349,
      "Ġà¤ıà¤¨à¤Ĩà¤°": 6350,
      "any": 6351,
      "à¤ıà¤«à¤ıà¤¸": 6352,
      "ĠSearch": 6353,
      "ĠCent": 6354,
      "ĠRTI": 6355,
      "ĠPS": 6356,
      "Ġ245": 6357,
      "Ġ179": 6358,
      "Ġà¤Ĩà¤ĸà¤°": 6359,
      "ĠNDA": 6360,
      "ĠDh": 6361,
      "ĠGandhi": 6362,
      "ĠFeb": 6363,
      "Ġ355": 6364,
      "ĠKANPUR": 6365,
      "Ġà¤Ĩà¤ĩà¤Ĩà¤ĩà¤Ł": 6366,
      "ĠLED": 6367,
      "222": 6368,
      "ures": 6369,
      "aya": 6370,
      "Ġ341": 6371,
      "Ġsc": 6372,
      "à¤ªà¤ļà¤¯": 6373,
      "àª°": 6374,
      "à¦¡": 6375,
      "ute": 6376,
      "uth": 6377,
      "Ġ!!": 6378,
      "akh": 6379,
      "Ġà¤ĸà¤²à¤²": 6380,
      "Ġà¤ıà¤¨à¤ıà¤ļà¤ıà¤Ĩà¤Ī": 6381,
      "ogi": 6382,
      "Ġ1958": 6383,
      "ĠPrice": 6384,
      "ocial": 6385,
      "Ġà¥¨à¥§": 6386,
      "Ġà¥¨à¥ª": 6387,
      "à¤¾âĢ¦.": 6388,
      "Ġà¥§à¥¯à¥¬": 6389,
      "mail": 6390,
      "ucation": 6391,
      "ĠPhoto": 6392,
      "âĢ¦âĢ¦âĢ¦âĢ¦âĢ¦âĢ¦âĢ¦âĢ¦": 6393,
      "ĠBHK": 6394,
      "ĠCCTV": 6395,
      "ency": 6396,
      "ĠHoroscope": 6397,
      "ĠKohli": 6398,
      "à¤²à¤Ńà¤Ĺà¤¢": 6399,
      "imachal": 6400,
      "%,": 6401,
      "370": 6402,
      "LY": 6403,
      "SH": 6404,
      "TP": 6405,
      "de": 6406,
      "ei": 6407,
      "fal": 6408,
      "kart": 6409,
      "min": 6410,
      "te": 6411,
      "ts": 6412,
      "ve": 6413,
      "Ġam": 6414,
      "à¥ĢâĢĻâĢĻ": 6415,
      "à¥ĢâĢĵ": 6416,
      "à¤¤à¤¥": 6417,
      "à¤¤à¤ļà¤°": 6418,
      "Ġà¤®à¤«": 6419,
      "à¤®à¤Ĺà¤°": 6420,
      "Ġà¤¬à¤ĸà¤°": 6421,
      "Ġà¤¨à¤ļ": 6422,
      "Ġà¤ľà¤ļ": 6423,
      "à¤Łà¥ŀ": 6424,
      "à¤ľà¤°à¤µ": 6425,
      "Ġà¤°à¤ļà¤¤": 6426,
      "Ġà¤²à¤µà¤°": 6427,
      "à¤¶à¤Ĺ": 6428,
      "à¤¡à¥ļ": 6429,
      "Ġà¤Ĩà¤ĩà¤²": 6430,
      "Ġà¤¤à¤ªà¤¨": 6431,
      "Ġà¤īà¥ľà¤¨": 6432,
      "Ġà¤ªà¤°à¤ķ": 6433,
      "à¤·à¤¨à¤Ĺà¤°": 6434,
      "à¤ĸà¤ªà¤¤": 6435,
      "à¤£à¤¦": 6436,
      "à¥Į-": 6437,
      "Ġà¤«à¤Ĺ": 6438,
      "à¥Ģà¤Ĥ'": 6439,
      "Ġà¤¸à¤®à¤¤à¤²": 6440,
      "à¥Ģà¥¤''": 6441,
      "à¤¯à¤ķà¤²": 6442,
      "à¤ľà¤¨à¤¤": 6443,
      "Ġà¤ħà¤¨à¤§": 6444,
      "à¤Łà¤°à¤¬": 6445,
      "Ġà¤Ľà¤°": 6446,
      "à¤¶à¤¨à¤¸": 6447,
      "Ġà¤Ĩà¤°à¤Ĩà¤°": 6448,
      "Ġà¤ĩà¤¨à¤°": 6449,
      "Ġà¤ĩà¤¨à¤¡": 6450,
      "Ġà¤ħà¤¬à¤ķ": 6451,
      "Ġà¤ĵà¤®à¤µ": 6452,
      "Ġà¤ĵà¤ıà¤®à¤Ĩà¤°": 6453,
      "à¤ıà¤¸à¤Ĩà¤ĩ": 6454,
      "à¥Īà¤Ĥ.âĢĻâĢĻ": 6455,
      "à¤¸à¤®à¤Ŀà¤ķà¤°": 6456,
      "Ġà¤¸à¤°à¤§à¤¨": 6457,
      "Ġ499": 6458,
      "Ġ425": 6459,
      "à¤¦à¤°à¤¬à¤¨": 6460,
      "à¤ħà¤¯": 6461,
      "Ġà¤Ńà¤°à¤Ńà¤°": 6462,
      "Ġà¤Ĩà¤Īà¤¯": 6463,
      "Ġà¤Ĩà¤Īà¤ĵà¤ıà¤¸": 6464,
      "à¤ľà¤ªà¤ķ": 6465,
      "Ġà¤¬à¤²à¤ª": 6466,
      "Ġà¤ªà¤¦à¤ļ": 6467,
      "à¤§à¤¨à¤Ĺà¤°": 6468,
      "Ġà¤ĵà¤°à¤²": 6469,
      "ĠĠĠĠĠĠ": 6470,
      "Ġ1939": 6471,
      "Ġà¤¬à¤¸à¤¤": 6472,
      "Ġ15000": 6473,
      "Ġ9000": 6474,
      "Ġà¤ıà¤®à¤Ĩà¤Īà¤¸": 6475,
      "Ġà¤¢à¤¹à¤¨": 6476,
      "Ġà¤īà¤ļà¤ķ": 6477,
      "à¤ĩà¤¸à¤ľ": 6478,
      "Ġà¤§à¤¨à¤¶": 6479,
      "Ġ172": 6480,
      "ĠMa": 6481,
      "ĠMain": 6482,
      "ĠMoto": 6483,
      "ors": 6484,
      "ĠBreak": 6485,
      "ĠBigg": 6486,
      "ĠBilaspur": 6487,
      "Ġà¤Ĺà¤²à¤¤à¤«à¤¹à¤®": 6488,
      "à¤µà¤°à¤£à¤µ": 6489,
      "Ġà¤ĵà¤µà¤°à¤¹": 6490,
      "ĠTMC": 6491,
      "ĠDC": 6492,
      "ĠDE": 6493,
      "ĠDr": 6494,
      "ĠDes": 6495,
      "ĠDec": 6496,
      "Ġà¤ıà¤«à¤ıà¤®à¤¸": 6497,
      "à¥Ĥà¤Ĥà¥¤âĢĿ": 6498,
      "Ġà¤ıà¤ļà¤ıà¤ıà¤²": 6499,
      "Ġ290": 6500,
      "ĠWomen": 6501,
      "ĠFill": 6502,
      "ama": 6503,
      "Ġà¤Ĩà¤ĩà¤¸à¤ķ": 6504,
      "isc": 6505,
      "Ġ325": 6506,
      "raph": 6507,
      "ĠJDU": 6508,
      "Ġà¤ĩà¤¶à¤°à¤¤": 6509,
      "123": 6510,
      "ags": 6511,
      "à¦ĵ": 6512,
      "Ġà¥§à¥ª": 6513,
      "estion": 6514,
      "Ġà¤®à¤¦à¤¨à¤²": 6515,
      "à¥¦à¥©": 6516,
      "ĠYadav": 6517,
      "ipkart": 6518,
      "ĠPride": 6519,
      "ĠStatus": 6520,
      "anti": 6521,
      "ĠMedic": 6522,
      "ruary": 6523,
      "ĠComp": 6524,
      "ĠEnter": 6525,
      "ĠQuora": 6526,
      "RAKH": 6527,
      "ĠPhone": 6528,
      "à¤ıà¤®à¤ıà¤²à¤ı": 6529,
      "China": 6530,
      "à¤³à¤°": 6531,
      "Ġà¤Ńà¤Ĺà¤¦à¥ľ": 6532,
      "ĠTractor": 6533,
      "ĠArt": 6534,
      "habar": 6535,
      "ĠAirtel": 6536,
      "Ġà¤Ľà¤Łà¤ªà¤Ł": 6537,
      "ĠSided": 6538,
      "ĠGORAKH": 6539,
      "ĠGORAKHPUR": 6540,
      ",,": 6541,
      ".,": 6542,
      "1000": 6543,
      "Cont": 6544,
      "Covid": 6545,
      "EUR": 6546,
      "GS": 6547,
      "IB": 6548,
      "JI": 6549,
      "LED": 6550,
      "Man": 6551,
      "NE": 6552,
      "ble": 6553,
      "date": 6554,
      "ga": 6555,
      "gram": 6556,
      "her": 6557,
      "jay": 6558,
      "pen": 6559,
      "rome": 6560,
      "ration": 6561,
      "uary": 6562,
      "yc": 6563,
      "ÂĴ": 6564,
      "à¤½": 6565,
      "à¤¾à¤¿": 6566,
      "à¤°à¤Ŀ": 6567,
      "à¤°à¤Ĺà¤²": 6568,
      "à¥Ģà¥ĩ": 6569,
      "à¤¿/": 6570,
      "à¤¨à¤Ĺà¥Ŀ": 6571,
      "à¤¤à¤²à¤¬": 6572,
      "à¤¤à¤¶à¤¤": 6573,
      "à¤¯à¤¸à¤¨": 6574,
      "Ġà¤®à¤²à¤µ": 6575,
      "Ġà¤ªï¾¥": 6576,
      "à¥Īà¥Īà¤Ĥà¥¤": 6577,
      "à¤µà¤¸à¤°": 6578,
      "à¤Ĺà¤Ĺ": 6579,
      "à¥¤''": 6580,
      "Ġà¤¨à¤¥": 6581,
      "à¤ªà¤µà¤°": 6582,
      "à¤¡à¤ķà¤ª": 6583,
      "Ġà¤ĩà¤¥": 6584,
      "Ġà¤¤à¤¦à¤¨": 6585,
      "à¤§à¤¬": 6586,
      "Ġà¤¶à¤²à¤Ń": 6587,
      "Ġà¤ļà¤¹à¤°": 6588,
      "Ġà¤ıà¤Łà¤²": 6589,
      "à¤¼à¤¾à¤Ĥ": 6590,
      "Ġà¤«à¤ľà¤²": 6591,
      "Ġà¤«à¤¤à¤µ": 6592,
      "à¤ķà¤°à¤µ": 6593,
      "Ġà¤Łà¤ļà¤¸": 6594,
      "Ġà¤¸à¤®à¤¦": 6595,
      "Ġà¤¡à¤Łà¤ķà¤°": 6596,
      "à¤ĩà¤¨à¤ķ": 6597,
      "à¤ľà¤¨à¤ªà¤¦": 6598,
      "Ġà¤ħà¤¨à¤Ń": 6599,
      "à¥ľà¤Ń": 6600,
      "Ġà¤Ľà¤Ĺ": 6601,
      "Ġà¤Ľà¤¬": 6602,
      "à¤Ĺà¤°à¤®": 6603,
      "à¤¯à¤°à¤«": 6604,
      "Ġà¤ľà¤¬à¤¡": 6605,
      "Ġà¤ĵà¤®à¤ķ": 6606,
      "à¤µà¤¨à¤¯": 6607,
      "Ġà¤ĳà¤ķà¤²": 6608,
      "à¤Ĺà¤²à¤¸à¤°": 6609,
      "à¥Īà¤Ĥ.''": 6610,
      "à¤¸à¤ķà¤¨": 6611,
      "à¤ħà¤ªà¤°": 6612,
      "Ġà¤Ĩà¤Īà¤Īà¤¡": 6613,
      "Ġà¤ıà¤¸à¤ıà¤®": 6614,
      "à¤Ĩà¤Īà¤¯": 6615,
      "à¤Ĩà¤Īà¤Ĩà¤Īà¤Ł": 6616,
      "Ġà¤ľà¤²à¤Ĺ": 6617,
      "à¥ĩ.âĢĻâĢĻ": 6618,
      "à¤²à¤¬à¤¹": 6619,
      "Ġ1080": 6620,
      "à¥ĩà¤Ĥà¥¤'": 6621,
      "2013": 6622,
      "Ġ8000": 6623,
      "Ġà¤¤à¤¬à¤¸": 6624,
      "Ġà¤¨à¤µà¤Ń": 6625,
      "à¤°à¤ªà¤¦": 6626,
      "à¤ıà¤²à¤ıà¤¡": 6627,
      "Ġà¤¬à¥ľà¤Ĺ": 6628,
      "arm": 6629,
      "Ġ301": 6630,
      "ĠSo": 6631,
      "ĠSer": 6632,
      "ĠSign": 6633,
      "ĠCor": 6634,
      "ĠRCB": 6635,
      "ĠPo": 6636,
      "ĠMy": 6637,
      "ĠMov": 6638,
      "ĠBenefits": 6639,
      "ĠNational": 6640,
      "ĠIG": 6641,
      "ĠII": 6642,
      "Ġ217": 6643,
      "Ġà¤ªà¥Ŀà¤ķà¤°": 6644,
      "adi": 6645,
      "Ġ228": 6646,
      "ena": 6647,
      "ĠDP": 6648,
      "ĠDGP": 6649,
      "Ġ233": 6650,
      "à¤°à¤Ĺà¥Ŀ": 6651,
      "Ġ273": 6652,
      "Ġà¤ıà¤«à¤Ł": 6653,
      "ited": 6654,
      "à¤¬à¤¤à¤ª": 6655,
      "ĠReg": 6656,
      "à¤¡à¤¸à¤ĩ": 6657,
      "Ġà¤¦à¤®à¤ĸà¤®": 6658,
      "Ġà¤Ĩà¤ĩà¤ķà¤¨": 6659,
      "reat": 6660,
      "Ġà¤ħà¤°à¤µà¤²": 6661,
      "Ġ324": 6662,
      "ili": 6663,
      "ĠJun": 6664,
      "àª¯": 6665,
      "144": 6666,
      "à®®": 6667,
      "iver": 6668,
      "ower": 6669,
      "ose": 6670,
      "ĠðŁĳ": 6671,
      "Ġ1956": 6672,
      "Ġà¤ħà¤¸à¤¹à¤¯": 6673,
      "ĠStory": 6674,
      "ustom": 6675,
      "!!!": 6676,
      "Ġà¥«à¥¦": 6677,
      "ĠPhotos": 6678,
      "Ġà¤ıà¤Ĩà¤Īà¤ıà¤¡": 6679,
      "iesel": 6680,
      "ize": 6681,
      "Ġà¤¨à¤µà¤²à¤ĸ": 6682,
      "ĠHDFC": 6683,
      "ĠTeam": 6684,
      "àªķàª¸": 6685,
      "ashifal": 6686,
      "ĠAndroid": 6687,
      "ĠEVM": 6688,
      "ology": 6689,
      "omato": 6690,
      "walior": 6691,
      "ublic": 6692,
      "Ġà¤Ĺà¤Ĺà¤¨à¤¦": 6693,
      "Ġà¤Ĺà¤¦à¤Ĺà¤¦": 6694,
      "ĠFebruary": 6695,
      ")'": 6696,
      "BS": 6697,
      "Le": 6698,
      "The": 6699,
      "Uttar": 6700,
      "au": 6701,
      "field": 6702,
      "hp": 6703,
      "kh": 6704,
      "ron": 6705,
      "rid": 6706,
      "sw": 6707,
      "Â°": 6708,
      "ÙĨ": 6709,
      "à¨": 6710,
      "âĤ": 6711,
      "Ġun": 6712,
      "à¤¾âĢį": 6713,
      "à¥ĩ.....": 6714,
      "Ġà¤ķà¤²à¤¯": 6715,
      "à¥Ģ+": 6716,
      "à¤¿\"": 6717,
      "à¤¨à¤ĺ": 6718,
      "à¥ĭ..": 6719,
      "à¤¤à¤¡": 6720,
      "à¤¤à¤Ĺà¤¤": 6721,
      "à¤²à¤Ĺà¤¢": 6722,
      "à¤¯à¤Ńà¤°": 6723,
      "à¤¸à¤Łà¤°": 6724,
      "à¤¸à¤¬à¤²": 6725,
      "à¤®à¤ķà¤²": 6726,
      "Ġà¤ªà¤¸à¤¨": 6727,
      "à¥Ī)à¥¤": 6728,
      "à¥ĩà¤Ĥ..": 6729,
      "à¤¦à¤¶à¤¨": 6730,
      "Ġà¤¨à¤¨à¤ķ": 6731,
      "à¤ªà¤¢": 6732,
      "Ġà¤ľà¤¸à¤²": 6733,
      "Ġà¤ľà¤¸à¤¬": 6734,
      "à¤Łà¤§": 6735,
      "Ġà¤ħà¤ľà¤°": 6736,
      "à¤ıà¤ĵ": 6737,
      "à¤¡à¤¦": 6738,
      "à¤¡à¤ªà¤®": 6739,
      "Ġà¤Ĩà¤µà¤°": 6740,
      "à¤ļà¤²à¤ķà¤°": 6741,
      "Ġà¤¤à¤¦": 6742,
      "à¤§à¤Ĺà¤¯": 6743,
      "à¤Īà¤ıà¤²": 6744,
      "à¤Īà¤ĺà¤°": 6745,
      "à¤·à¤²": 6746,
      "à¥Īà¥¤[": 6747,
      "Ġà¤ļà¤¯": 6748,
      "Ġà¤ıà¤®à¤°": 6749,
      "à¤¼à¤¼": 6750,
      "Ġà¤«à¤Ĺà¤µ": 6751,
      "à¥īà¥°": 6752,
      "Ġà¤¡à¤¹à¤°": 6753,
      "à¤ĩà¤ľà¤¨": 6754,
      "à¤ĩà¤°à¤¸": 6755,
      "à¤ĩà¤®à¤¨": 6756,
      "à¤°à¤ķà¤¬": 6757,
      "à¤°à¤ķà¤¶à¤¨": 6758,
      "à¤Ĩà¤Ľ": 6759,
      "à¤ľà¤¨à¤ľ": 6760,
      "à¤ľà¤¨à¤°à¤²": 6761,
      "à¤ĵà¤Ł": 6762,
      "à¤Łà¤°à¤°": 6763,
      "Ġà¤¤à¤ķà¤¦": 6764,
      "Ġ()": 6765,
      "à¤¬à¤°à¤²": 6766,
      "Ġ2050": 6767,
      "Ġ2030": 6768,
      "Ġà¤īà¤ªà¤²": 6769,
      "Ġ321": 6770,
      "Ġ399": 6771,
      "à¤ªà¤°à¤ĸ": 6772,
      "Ġà¤ĵà¤ĸà¤²": 6773,
      "à¤µà¤¨à¤Ńà¤°": 6774,
      "à¤ĺà¤¡": 6775,
      "à¤ĺà¤ļ": 6776,
      "à¤ıà¤¸à¤Ĩà¤Īà¤Ĩà¤°": 6777,
      "Ġà¤¸à¤°à¤¹": 6778,
      "à¥Ģ.âĢĿ": 6779,
      "Ġ470": 6780,
      "à¤¸à¤ķà¤¤": 6781,
      "Ġà¤Ĩà¤Īà¤ıà¤¨": 6782,
      "Ġà¤Ĩà¤Īà¤ıà¤®à¤¡": 6783,
      "Ġà¤ıà¤¸à¤Ĩà¤ĩ": 6784,
      "Ġà¤Ŀà¤£": 6785,
      "Ġà¤ľà¤²à¤ķ": 6786,
      "à¤°à¤Ńà¤ķ": 6787,
      "Ġà¤ĸà¤°à¤¨": 6788,
      "à¤¨à¤®à¤¸": 6789,
      "Ġà¤ħà¤ļà¤°à¤ľ": 6790,
      "à¤²à¤ķà¤¶": 6791,
      "Ġà¤¬à¤°à¤Ĺ": 6792,
      "Ġ790": 6793,
      "Ġà¤Īà¤ıà¤¸": 6794,
      "Ġà¤¨à¤Ĺà¤°à¤¨": 6795,
      "à¤¨à¤²à¤Ĺ": 6796,
      "à¤Ĩà¤°à¤ıà¤¸à¤ıà¤¸": 6797,
      "ination": 6798,
      "à¤°à¤ĸà¤°": 6799,
      "Ġ251": 6800,
      "à¤ıà¤«à¤ıà¤²": 6801,
      "à¤ıà¤«à¤ıà¤«": 6802,
      "ĠCA": 6803,
      "ĠCN": 6804,
      "ĠCP": 6805,
      "Ġà¤¤à¤²à¤¹à¤Ł": 6806,
      "ĠPur": 6807,
      "ĠPUB": 6808,
      "Ġà¤ķà¤Łà¤ķà¤°": 6809,
      "Ġ249": 6810,
      "Ġà¤¶à¤µà¤¦": 6811,
      "eral": 6812,
      "Ġ173": 6813,
      "Ġ176": 6814,
      "ĠMLA": 6815,
      "à¥Ģ):": 6816,
      "Ġà¤®à¤ķà¤Ī": 6817,
      "ĠHy": 6818,
      "ĠHow": 6819,
      "Ġ213": 6820,
      "Ġà¤ªà¤²à¤¡": 6821,
      "Ġ227": 6822,
      "Ġà¤ļà¤ķà¤¬": 6823,
      "ĠDR": 6824,
      "ĠDc": 6825,
      "ĠDe": 6826,
      "Ġ236": 6827,
      "Ġà¤īà¤ľà¤¡": 6828,
      "à¤ķà¤®à¤Ĺà¤¢": 6829,
      "isan": 6830,
      "eta": 6831,
      "ild": 6832,
      "Ġtra": 6833,
      "Ġse": 6834,
      "Ġpost": 6835,
      "hare": 6836,
      "Ġ480": 6837,
      "à®³": 6838,
      "âĢĶâĢĶ": 6839,
      "hant": 6840,
      "Ġ1964": 6841,
      "Ġoption": 6842,
      "Ġà¤®à¤¦à¤¨à¤ª": 6843,
      "rika": 6844,
      "Ġà¤ļà¥Ŀà¤¨": 6845,
      "à¤ıà¤¸à¤ıà¤²à¤µ": 6846,
      "Ġ1959": 6847,
      "ipe": 6848,
      "RCTC": 6849,
      "okia": 6850,
      "à±Ĩ": 6851,
      "ĠShare": 6852,
      "ĠBSNL": 6853,
      "ĠCricket": 6854,
      "ĠKaise": 6855,
      "engal": 6856,
      "Ġà¤¸à¤°à¤µà¤¨": 6857,
      "Ġà¤īà¤Ńà¤°à¤¨": 6858,
      "ĠBharat": 6859,
      "ojana": 6860,
      "ĠCSK": 6861,
      "Virat": 6862,
      "Ġà¤Ĩà¤°à¤ıà¤«à¤Ĩà¤Īà¤¡": 6863,
      "ĠTablet": 6864,
      "ĠRojgarlive": 6865,
      "ĠPUBG": 6866,
      "AH": 6867,
      "CS": 6868,
      "MD": 6869,
      "PG": 6870,
      "Ro": 6871,
      "TS": 6872,
      "UD": 6873,
      "XN": 6874,
      "ger": 6875,
      "ja": 6876,
      "ĠÃ": 6877,
      "Ġat": 6878,
      "Ġ),": 6879,
      "Ġro": 6880,
      "à¥ĩ(": 6881,
      "à¥ĩà¤ģ": 6882,
      "à¥ĩà¤ĥ": 6883,
      "à¤°à¥ŀ": 6884,
      "Ġà¤ķà¤ľà¤°": 6885,
      "à¥įà¥į": 6886,
      "à¥įâĢĻ": 6887,
      "à¤ķà¤®à¤²": 6888,
      "à¤¤à¤Ń": 6889,
      "Ġà¤¸à¤Ī": 6890,
      "à¤®à¥ľ": 6891,
      "à¤®à¤¦à¤°": 6892,
      "à¤®à¤ħ": 6893,
      "à¤®à¥Ŀ": 6894,
      "Ġà¤ªà¤ľ": 6895,
      "Ġà¤ªà¤²à¤¨": 6896,
      "à¥ģà¥ħ": 6897,
      "à¤µà¤Ī": 6898,
      "à¤µà¤ªà¤¨": 6899,
      "à¤µà¤Ńà¤ķ": 6900,
      "à¥ĩà¤Ĥ\"": 6901,
      "à¥ĩà¤Ĥ;": 6902,
      "à¤¦à¤¤à¤¨": 6903,
      "Ġà¤¨à¤µà¤¸": 6904,
      "Ġà¤¨à¤°à¤µà¤£": 6905,
      "à¤ªà¤®à¤¤": 6906,
      "Ġà¤ľà¤¤à¤¨": 6907,
      "Ġà¤¦à¤²à¤µ": 6908,
      "Ġà¤°à¤Ł": 6909,
      "Ġà¤²à¤¬à¤°": 6910,
      "Ġà¤²à¥ľà¤¤": 6911,
      "Ġà¤ħà¤¦à¤®": 6912,
      "Ġà¤ħà¤¥à¤°": 6913,
      "Ġà¤Ĩà¤°à¤µ": 6914,
      "à¤ļà¤Ł": 6915,
      "Ġà¤ĩà¤ķà¤¨": 6916,
      "Ġà¤Ńà¥ľ": 6917,
      "Ġà¤Ńà¤°à¤¸": 6918,
      "Ġà¤īà¤ĩà¤Ĺà¤°": 6919,
      "à¤§à¤°à¤£": 6920,
      "à¤Īà¤Ĺà¤°": 6921,
      "Ġà¤¶à¤°à¤¤": 6922,
      "Ġà¤Ķà¤¨": 6923,
      "Ġà¤Ķà¤ªà¤¨": 6924,
      "à¤¾à¤Ĥ...": 6925,
      "Ġà¤ıà¤¹": 6926,
      "Ġà¤ıà¤Łà¤®": 6927,
      "Ġà¤ıà¤ħà¤°": 6928,
      "à¤ĸà¤¤à¤°": 6929,
      "Ġà¤ĸà¤Ĺà¤¡": 6930,
      "Ġà¤«à¤¹": 6931,
      "Ġà¤ıà¤ķà¤²à¤µ": 6932,
      "Ġà¤¡à¤²": 6933,
      "à¤ĩà¤µà¤²": 6934,
      "à¤Ľà¤ķ": 6935,
      "à¤Ĩà¤¹": 6936,
      "à¤Ĩà¤ľà¤®": 6937,
      "à¤¾,\"": 6938,
      "Ġà¤®à¤¹à¤¨": 6939,
      "à¤¤à¤°à¤¬": 6940,
      "Ġà¤¬à¤¨à¤ķ": 6941,
      "Ġà¤¬à¤¤à¤²": 6942,
      "à¤¯à¤°à¤¹": 6943,
      "Ġà¤¹à¤®à¤¦à¤°": 6944,
      "Ġ202": 6945,
      "Ġà¤Ĩà¤°à¤ıà¤¨": 6946,
      "à¤°à¤£à¤µà¤¶": 6947,
      "à¤¯à¤®à¤µà¤°": 6948,
      "Ġ319": 6949,
      "Ġà¤ĵà¤¨": 6950,
      "Ġà¤ĵà¤ľ": 6951,
      "Ġà¤ĵà¤Ľ": 6952,
      "Ġà¤ĵà¤¨à¤°": 6953,
      "Ġà¤ĵà¤¸à¤µ": 6954,
      "à¤µà¤¨à¤°": 6955,
      "à¤Ŀà¤ªà¤¨": 6956,
      "à¤Ĺà¤²à¤®": 6957,
      "à¤Ĺà¤²à¤ªà¤¨": 6958,
      "Ġà¤¸à¤°à¤µà¤°": 6959,
      "Ġà¤®à¤¨à¤Ĺà¤¢": 6960,
      "à¤ĩà¤¨à¤ª": 6961,
      "Ġà¤Ĩà¤Īà¤²": 6962,
      "Ġà¤łà¤ķ": 6963,
      "à¤µà¤¤à¤ĸ": 6964,
      "Ġà¤ħà¤µà¤¯à¤µ": 6965,
      "à¥Ŀà¤¨": 6966,
      "Ġà¤ħà¤ªà¤¸": 6967,
      "ĠĠĠĠĠĠĠ": 6968,
      "à¤°à¤¨à¤Ł": 6969,
      "Ġà¤Īà¤¡à¤¬": 6970,
      "Ġ1919": 6971,
      "à¤ľà¤¯à¤¸": 6972,
      "à¤°à¤¹à¤¸": 6973,
      "Ġà¤¨à¤µà¤Ĺà¤ł": 6974,
      "Ġà¤¢à¤°": 6975,
      "à¤Ĭà¤°": 6976,
      "ins": 6977,
      "à¤ıà¤¨à¤ıà¤¸à¤Ī": 6978,
      "Ġ252": 6979,
      "ĠSn": 6980,
      "ĠSun": 6981,
      "ĠSub": 6982,
      "ĠSUV": 6983,
      "ĠCG": 6984,
      "ĠCase": 6985,
      "ĠAg": 6986,
      "ĠAk": 6987,
      "ĠAad": 6988,
      "ĠRE": 6989,
      "ĠRRB": 6990,
      "oni": 6991,
      "ĠPanch": 6992,
      "Ġ169": 6993,
      "Ġ244": 6994,
      "Ġ2400": 6995,
      "Ġà¤ıà¤¡à¤ľà¤¸": 6996,
      "ĠMic": 6997,
      "ĠNav": 6998,
      "Ġà¤®à¤ķà¤¬à¤°": 6999,
      "ĠHot": 7000,
      "Ġ211": 7001,
      "Ġ214": 7002,
      "Ġ218": 7003,
      "omain": 7004,
      "Ġ224": 7005,
      "Ġ226": 7006,
      "Ġ2200": 7007,
      "Ġ265": 7008,
      "Ġà¤ĵà¤µà¤°à¤«": 7009,
      "à¤²à¤®à¤Ł": 7010,
      "ĠTwitter": 7011,
      "à¥Ĥà¤Ĥà¥¤âĢĻâĢĻ": 7012,
      "ĠGu": 7013,
      "ĠGwalior": 7014,
      "Ġà¤¡à¤°à¤ķà¤°": 7015,
      "ĠÂ²": 7016,
      "Ġ353": 7017,
      "amil": 7018,
      "à¤ķà¤®à¤£": 7019,
      "ĠEC": 7020,
      "redit": 7021,
      "Ġà¤ķà¤łà¤ĺà¤°": 7022,
      "ĠLG": 7023,
      "ĠLAC": 7024,
      "ĠVis": 7025,
      "ĠVST": 7026,
      "Ġ327": 7027,
      ".......": 7028,
      "Ġ50000": 7029,
      "raat": 7030,
      "Ġbank": 7031,
      "137": 7032,
      "emic": 7033,
      "Ġà¤²à¤µà¤£": 7034,
      "Ġ468": 7035,
      "rib": 7036,
      "apt": 7037,
      "Ġà¤·à¤·": 7038,
      "ĠĠĠĠĠĠĠĠĠĠĠĠĠĠĠĠĠĠĠĠĠĠĠĠĠĠĠĠĠĠĠĠĠĠĠĠĠĠĠĠĠĠĠĠĠĠĠĠĠĠĠĠĠĠĠĠĠĠĠĠĠĠĠĠĠĠĠĠĠĠĠĠ": 7039,
      "ĠYojana": 7040,
      "Ġoff": 7041,
      "ĠXI": 7042,
      "Ġà¥¨à¥©": 7043,
      "Ġà¥¨à¥¬": 7044,
      "Ġà¥¨à¥Ń": 7045,
      "ika": 7046,
      "angu": 7047,
      "ustral": 7048,
      "Ġà¥§à¥¯à¥®": 7049,
      "rypt": 7050,
      "ĠSamraat": 7051,
      "à¥§à¥¦": 7052,
      "ĠRoyal": 7053,
      "ĠForm": 7054,
      "onda": 7055,
      "à¤ĭà¤·": 7056,
      "ollow": 7057,
      "Ġà¤ħà¥ŀà¥ļ": 7058,
      "eather": 7059,
      "Ġexam": 7060,
      "Ġaccount": 7061,
      "ĠMotor": 7062,
      "udio": 7063,
      "ĠGroup": 7064,
      "ĠDigital": 7065,
      "ustralia": 7066,
      "%)": 7067,
      ")(": 7068,
      ".-": 7069,
      "850": 7070,
      "MW": 7071,
      "TET": 7072,
      "XT": 7073,
      "aid": 7074,
      "come": 7075,
      "dress": 7076,
      "eop": 7077,
      "gh": 7078,
      "ni": 7079,
      "ount": 7080,
      "pad": 7081,
      "rest": 7082,
      "tm": 7083,
      "uaw": 7084,
      "ÙĪ": 7085,
      "Ġ000": 7086,
      "Ġal": 7087,
      "à¤¾à¥ĭà¤Ĥ": 7088,
      "à¤¿;": 7089,
      "à¤²à¤¦à¤¸": 7090,
      "Ġà¤¸à¤°à¤¤": 7091,
      "Ġà¤¸à¤¶à¤°": 7092,
      "à¤¸à¤ĩ": 7093,
      "à¤¸à¤¦à¤¨": 7094,
      "Ġà¤ªà¤¨à¤µ": 7095,
      "à¥Ī),": 7096,
      "à¤¦à¤«": 7097,
      "à¤Ĺà¤µà¤°": 7098,
      "à¤Ĺà¤ĩà¤¨": 7099,
      "Ġà¤¬à¤°à¤ķà¤¤": 7100,
      "Ġà¤¨à¤Łà¤µà¤°": 7101,
      "à¤ªà¤ł": 7102,
      "à¤Łà¤²à¤¤": 7103,
      "Ġà¤²à¤«": 7104,
      "à¤¬à¤¸à¤°": 7105,
      "à¤¬à¤²à¤¤": 7106,
      "à¤¡à¤¸à¤®": 7107,
      "à¤¡à¤ĵà¤µà¤°": 7108,
      "Ġà¤Ĺà¤¦à¤°": 7109,
      "Ġà¤Ĺà¤®à¤Ĺ": 7110,
      "Ġà¤Ĩà¤«à¤°": 7111,
      "Ġà¤Ĩà¤µà¤°à¤£": 7112,
      "Ġà¤ĩà¥Ľ": 7113,
      "Ġà¤¤à¤¸à¤²": 7114,
      "à¤§à¤Ĺ": 7115,
      "à¤§à¤°à¤¤": 7116,
      "à¤·à¤ļ": 7117,
      "à¤·à¤¸à¤¹": 7118,
      "à¥Īà¤Ĥ\"": 7119,
      "Ġà¤¯à¤¨": 7120,
      "Ġà¤¯à¤¶à¤¸": 7121,
      "à¤Ńà¤ļ": 7122,
      "Ġà¤«à¤²à¤ķ": 7123,
      "à¥Ģà¤Ĥ!": 7124,
      "à¥Ģà¤Ĥ)": 7125,
      "Ġà¤īà¤¨à¤²": 7126,
      "à¤°à¤¤à¤Ĺ": 7127,
      "Ġà¤¡à¤Ĺà¤®à¤Ĺ": 7128,
      "Ġà¤ĺà¤Ī": 7129,
      "à¤Ĩà¤¡": 7130,
      "à¤Ĩà¤ªà¤°": 7131,
      "Ġà¤ªà¤¹à¤²à¤Ĺ": 7132,
      "à¤°à¤µà¤²": 7133,
      "Ġ203": 7134,
      "Ġà¤¤à¤°à¥ŀ": 7135,
      "Ġà¤Ĳà¤ªà¤²": 7136,
      "Ġà¤¸à¤¹à¤¦": 7137,
      "à¤ªà¤°à¤¨": 7138,
      "Ġà¤ĵà¤®à¤¨": 7139,
      "Ġà¤ĵà¥Ŀ": 7140,
      "à¤¨à¤ķà¤ļ": 7141,
      "à¤µà¤¨à¤ª": 7142,
      "à¤ĺà¤¤": 7143,
      "à¤ķà¤²à¤®": 7144,
      "Ġà¤Ĩà¤¦à¤¤à¤¨": 7145,
      "Ġà¤¸à¤°à¤ľ": 7146,
      "à¤ħà¤Ĺà¤²": 7147,
      "Ġà¤Ĩà¤Īà¤µ": 7148,
      "Ġà¤ıà¤¸à¤Ī": 7149,
      "Ġà¤ıà¤¸à¤ıà¤¸à¤Ĩà¤Ī": 7150,
      "Ġà¤ıà¤¸à¤ıà¤²à¤Ĩà¤°": 7151,
      "Ġà¤Ŀà¤ªà¤ķ": 7152,
      "Ġà¤¬à¤²à¤Ńà¤¦": 7153,
      "Ġà¤ªà¤¡à¤°": 7154,
      "à¥ĩà¤Ĥà¥¤âĢĻ": 7155,
      "à¤¬à¤²à¤¡à¤¨": 7156,
      "Ġ1900": 7157,
      "Ġ855": 7158,
      "à¤ªà¤ķà¥ľ": 7159,
      "à¤ķà¤¨à¤ª": 7160,
      "à¤¨à¤¨à¤Ĺà¤°": 7161,
      "Ġà¤¤à¤¬à¤¤à¤ķ": 7162,
      "Ġ12000": 7163,
      "Ġ911": 7164,
      "à¤Łà¤®à¤ª": 7165,
      "Ġà¤ıà¤®à¤«": 7166,
      "Ġà¤ıà¤®à¤ıà¤®à¤ıà¤¸": 7167,
      "à¤¤à¤®à¤¸": 7168,
      "Ġ304": 7169,
      "Ġ306": 7170,
      "Ġà¤ªà¤Łà¤ĸà¤¨": 7171,
      "ĠSex": 7172,
      "ĠSup": 7173,
      "ĠChat": 7174,
      "ĠRating": 7175,
      "ĠRJD": 7176,
      "ĠPF": 7177,
      "Ġà¤ķà¤Łà¤ĺ": 7178,
      "Ġà¤§à¤¨à¤ª": 7179,
      "Ġà¤ħà¤ĸà¤²": 7180,
      "ĠMB": 7181,
      "ĠBest": 7182,
      "ĠBSE": 7183,
      "ĠBAR": 7184,
      "ĠNokia": 7185,
      "Ġà¤Ĩà¤łà¤µà¤²": 7186,
      "ĠHuaw": 7187,
      "ĠIST": 7188,
      "ĠIIT": 7189,
      "Ġ262": 7190,
      "Ġ263": 7191,
      "Ġ232": 7192,
      "Ġà¤ıà¤«à¤ıà¤®": 7193,
      "à¤¸à¤¬à¤ķ": 7194,
      "ĠGirl": 7195,
      "icial": 7196,
      "lease": 7197,
      "ĠÂ°": 7198,
      "ĠWest": 7199,
      "ĠLaw": 7200,
      "ĠVacc": 7201,
      "à¤®à¤£à¤µ": 7202,
      "inger": 7203,
      "à¥ŀà¤°": 7204,
      "Ġà¤¨à¤ľà¤«": 7205,
      "ĠOb": 7206,
      "ĠOly": 7207,
      "à¤Ĩà¤ĩà¤ıà¤®": 7208,
      "ility": 7209,
      "128": 7210,
      "Ġtr": 7211,
      "Ġsp": 7212,
      "Ġpol": 7213,
      "Ġindia": 7214,
      "Ġà¤ľà¤Ĺà¤¤à¤ª": 7215,
      "acancy": 7216,
      "ulator": 7217,
      "ations": 7218,
      "Ġlink": 7219,
      "Ġlife": 7220,
      "uman": 7221,
      "à¤¿:-": 7222,
      "à«ģ": 7223,
      "à¥¦à¥§": 7224,
      "Ġà¤Ľà¤ªà¤µ": 7225,
      "Ġdes": 7226,
      "Ġà¤īà¤Ńà¤°à¤ķà¤°": 7227,
      "ĠRaw": 7228,
      "ĠProt": 7229,
      "IMIM": 7230,
      "ĠGood": 7231,
      "à¥ĪâĢ¦.": 7232,
      "achar": 7233,
      "ĠComputer": 7234,
      "ĠĠĠĠĠĠĠĠĠĠĠĠĠĠĠĠĠĠĠĠĠĠĠĠĠĠĠĠĠĠĠĠĠĠĠĠĠĠĠĠĠĠĠĠĠĠĠĠĠĠĠĠĠĠĠĠĠĠĠĠĠĠĠĠĠĠĠĠĠĠĠĠĠĠĠĠĠĠĠĠĠĠĠĠĠĠĠĠĠĠĠĠĠĠĠĠĠĠĠĠĠĠĠĠĠĠĠĠĠĠĠĠĠĠĠĠĠĠĠĠĠĠĠĠĠĠĠĠĠĠĠĠĠĠĠĠĠĠĠĠĠĠĠĠĠĠĠĠĠĠĠĠĠĠĠĠĠĠĠĠĠĠĠĠĠĠĠĠĠĠĠĠĠĠĠĠĠĠĠĠĠĠĠĠĠĠĠĠĠĠĠĠĠĠĠĠĠĠĠĠ": 7235,
      "aryana": 7236,
      "ĠQual": 7237,
      "appy": 7238,
      "ĠImmunity": 7239,
      "à¤Īà¤ıà¤¸à¤Ĩà¤°": 7240,
      "acts": 7241,
      "ĠFlipkart": 7242,
      "ĠĠĠĠĠĠĠĠĠĠĠĠĠĠĠĠĠĠĠĠĠĠĠĠĠĠĠĠĠĠĠĠĠĠĠĠĠĠĠĠĠĠĠĠĠĠĠĠĠĠĠĠĠĠĠĠĠĠĠĠĠĠĠĠĠĠĠĠĠĠĠĠĠĠĠĠĠĠĠĠĠĠĠĠĠĠĠĠĠĠĠĠĠĠĠĠĠĠĠĠĠĠĠĠĠĠĠĠĠĠĠĠĠĠĠĠĠĠĠĠĠĠĠĠĠĠĠĠĠĠĠĠĠĠĠĠĠĠĠĠĠĠĠĠĠĠĠĠĠĠĠĠĠĠĠĠĠĠĠĠĠĠĠĠĠĠĠĠĠĠĠĠĠĠĠĠĠĠĠĠĠĠĠĠĠĠĠĠĠĠĠĠĠĠĠĠĠĠĠĠĠĠĠĠĠĠĠĠĠĠĠĠĠĠĠĠĠĠĠĠĠĠĠĠĠĠĠĠĠĠĠĠĠĠĠĠĠĠĠĠĠĠĠĠĠĠĠĠĠĠĠĠĠĠĠĠĠĠĠĠĠĠĠĠĠĠĠĠĠĠĠĠĠĠĠĠĠĠĠĠĠĠĠĠĠĠĠĠĠĠĠĠĠĠĠĠĠĠĠĠĠĠĠĠĠĠĠĠĠĠĠĠĠĠĠĠĠĠĠĠĠĠĠĠĠĠĠĠĠĠĠĠĠĠĠĠĠĠĠĠĠĠĠĠĠĠĠĠĠĠĠĠĠĠĠĠĠĠĠĠĠĠĠĠĠĠĠĠĠĠĠĠĠĠĠĠĠĠĠĠĠĠĠĠĠĠĠĠĠĠĠĠĠĠĠĠĠĠĠĠĠĠĠĠĠĠĠĠĠĠĠĠĠĠĠĠĠĠĠĠĠĠĠĠĠĠĠĠĠĠĠĠĠĠĠĠĠĠĠĠĠĠĠĠĠĠĠĠĠĠĠĠĠĠĠĠ": 7243,
      "ĠIBPS": 7244,
      "ĠASIC": 7245,
      "ĠSystem": 7246,
      "ĠReviewed": 7247,
      "anguage": 7248,
      "ĠHuawei": 7249,
      "ĠOlymp": 7250,
      "'.": 7251,
      ",(": 7252,
      "130": 7253,
      "125": 7254,
      "320": 7255,
      "Bl": 7256,
      "Ed": 7257,
      "EIL": 7258,
      "GO": 7259,
      "Nar": 7260,
      "NRC": 7261,
      "OW": 7262,
      "RE": 7263,
      "SSC": 7264,
      "Too": 7265,
      "[[": 7266,
      "con": 7267,
      "cast": 7268,
      "eh": 7269,
      "eed": 7270,
      "gy": 7271,
      "ian": 7272,
      "mir": 7273,
      "pc": 7274,
      "rand": 7275,
      "work": 7276,
      "ye": 7277,
      "Ġï¿½": 7278,
      "Ġà¤¼": 7279,
      "à¥Ĳ": 7280,
      "à¥ĩ),": 7281,
      "à¤°à¤ı": 7282,
      "à¤°à¤¶à¤¨": 7283,
      "à¤°à¤¬à¤°": 7284,
      "Ġà¤ķà¤ĩà¤¯": 7285,
      "à¤¨à¤Ń": 7286,
      "à¤²à¤®à¤¨": 7287,
      "à¤¯à¤µà¤¤": 7288,
      "Ġà¤®à¤Łà¤¨": 7289,
      "à¤®à¤ªà¤°": 7290,
      "à¤®à¤¸à¤®": 7291,
      "à¤µà¤ĺ": 7292,
      "à¤µà¤ķà¤²": 7293,
      "à¤µà¤¶à¤ķ": 7294,
      "à¥ĩà¤ĤâĢĻ": 7295,
      "Ġà¤¬à¤¬à¤¨": 7296,
      "à¤Łà¤ľà¤°à¤²": 7297,
      "à¤ľà¤ĸ": 7298,
      "Ġà¤°à¥ŀ": 7299,
      "à¤ıà¤ıà¤¨": 7300,
      "à¤¬à¤¯": 7301,
      "à¤¡à¤°à¤¸": 7302,
      "Ġà¤Ĩà¤²à¤°": 7303,
      "à¤ļà¤¯à¤¨": 7304,
      "Ġà¤¤à¤¹à¤¬": 7305,
      "Ġà¤īà¤Ł": 7306,
      "Ġà¤ªà¤°à¤²": 7307,
      "Ġà¤¶à¤°à¤®": 7308,
      "Ġà¤ļà¤®à¤Ĺ": 7309,
      "à¤ĸà¤ľ": 7310,
      "à¤£à¤§": 7311,
      "à¤ķà¤°à¤²": 7312,
      "à¥Ģà¤Ĥà¤Ĥ": 7313,
      "Ġà¤¡à¤Ĺà¤°": 7314,
      "Ġ219": 7315,
      "à¤łÃ¯": 7316,
      "Ġà¤®à¤¹à¤¦": 7317,
      "à¤ľà¤¨à¤ª": 7318,
      "à¤ľà¤¨à¤µà¤°": 7319,
      "à¥Ī....": 7320,
      "Ġà¤Ľà¤¦": 7321,
      "Ġà¤Ľà¤ªà¤¨": 7322,
      "à¤µà¤°à¤ļ": 7323,
      "Ġà¤Ĩà¤ªà¤²": 7324,
      "à¤¸à¤°à¤¶": 7325,
      "à¤¯à¤°à¤¨à¤®": 7326,
      "Ġà¤ķà¤°à¤¤à¤¬": 7327,
      "Ġà¤ĩà¤¨à¤¦": 7328,
      "Ġà¤īà¤ªà¤ķà¤°": 7329,
      "à¤°à¤¸à¤²": 7330,
      "à¤Łà¤¨à¤Ĺà¤°": 7331,
      "à¤®à¤¨à¤Ĺ": 7332,
      "à¤ªà¤°à¤²": 7333,
      "à¤ªà¤¤à¤µ": 7334,
      "Ġà¤ĵà¤¤à¤ª": 7335,
      "à¤īà¤¬": 7336,
      "Ġà¤ĳà¤¥": 7337,
      "à¤ıà¤¸à¤Ĩà¤Īà¤Ł": 7338,
      "à¤ķà¤²à¤°": 7339,
      "Ġ490": 7340,
      "à¤¦à¤°à¤ĸ": 7341,
      "à¤¦à¤°à¤Ń": 7342,
      "à¤ħà¤ĸ": 7343,
      "à¤¦à¤¨à¤¹": 7344,
      "à¥Ĥà¤Ĥ!": 7345,
      "Ġà¤ķà¤²à¤ª": 7346,
      "Ġà¤¶à¤¹à¤°à¤¯": 7347,
      "Ġ1944": 7348,
      "Ġà¤®à¤°à¤¹à¤®": 7349,
      "2011": 7350,
      "Ġà¤¸à¤¤à¤²": 7351,
      "Ġà¤¸à¤¤à¤¬": 7352,
      "à¤°à¤¹à¤Ł": 7353,
      "Ġà¤¨à¤°à¤ªà¤¤": 7354,
      "Ġà¤Ĭà¤¬": 7355,
      "Ġà¤ıà¤®à¤Ĩà¤°à¤Ĩà¤Ī": 7356,
      "int": 7357,
      "à¤ıà¤¨à¤Ĩà¤Īà¤ı": 7358,
      "Ġà¤ıà¤¨à¤ıà¤®à¤¡": 7359,
      "ane": 7360,
      "Ġà¤¬à¥ľà¤ķ": 7361,
      "ĠSat": 7362,
      "ĠCH": 7363,
      "ĠChar": 7364,
      "ĠAs": 7365,
      "ĠAut": 7366,
      "ĠATM": 7367,
      "ĠRK": 7368,
      "onor": 7369,
      "Ġ504": 7370,
      "Ġ242": 7371,
      "error": 7372,
      "ĠMI": 7373,
      "ĠMon": 7374,
      "ĠMem": 7375,
      "ĠBengal": 7376,
      "alk": 7377,
      "Ġà¤®à¤²à¤ĸ": 7378,
      "ĠHai": 7379,
      "ĠHimachal": 7380,
      "ĠHonda": 7381,
      "à¤¼à¥ĩà¤Ĥ.": 7382,
      "Ġ266": 7383,
      "Ġà¤ľà¤¯à¤¸à¤µ": 7384,
      "Ġ403": 7385,
      "ĠThar": 7386,
      "ĠTime": 7387,
      "ĠDiesel": 7388,
      "Ġ235": 7389,
      "Ġ237": 7390,
      "Ġ312": 7391,
      "Ġà¤ıà¤«à¤ıà¤Ł": 7392,
      "dies": 7393,
      "ica": 7394,
      "ition": 7395,
      "Ġ292": 7396,
      "ĠWar": 7397,
      "ĠWith": 7398,
      "ĠKar": 7399,
      "ĠEUR": 7400,
      "ĠVs": 7401,
      "ĠViv": 7402,
      "aye": 7403,
      "Ġà¤ªà¤¨à¤ªà¤¤": 7404,
      "oli": 7405,
      "etail": 7406,
      "rag": 7407,
      "ilm": 7408,
      "Ġ337": 7409,
      "ĠInf": 7410,
      "Ġpay": 7411,
      "haj": 7412,
      "edpur": 7413,
      "àª¾": 7414,
      "Ġà¤ķà¥ľà¤µ": 7415,
      "Ġcard": 7416,
      "row": 7417,
      "Ġfree": 7418,
      "Ġà¤ħà¤Łà¤²à¤ľ": 7419,
      "ðŁı": 7420,
      "Ġ1966": 7421,
      "555": 7422,
      "Ġà¤Ĺà¤ľà¤Ł": 7423,
      "ries": 7424,
      "apur": 7425,
      "tern": 7426,
      "Ġà¤īà¤¦à¤¯à¤Ń": 7427,
      "ific": 7428,
      "2009": 7429,
      "Ġà¤¦à¤®à¤¦à¤®": 7430,
      "ĠNCB": 7431,
      "anka": 7432,
      "shedpur": 7433,
      "ĠPolit": 7434,
      "ense": 7435,
      "ĠAdmit": 7436,
      "ĠAll": 7437,
      "PCR": 7438,
      "ancer": 7439,
      "ĠTrans": 7440,
      "ĠPatwari": 7441,
      "Ġà¤®à¥Ľà¤¬": 7442,
      "Ġà¤īà¤Ľà¤²à¤ķà¤°": 7443,
      "airs": 7444,
      "ĠAIIMS": 7445,
      "ammu": 7446,
      "Ġà¤ļà¤°à¤¨à¤ľ": 7447,
      "gnancy": 7448,
      "ĠNTPC": 7449,
      "à¤¡à¥ļà¤¢": 7450,
      "Ġà¤Ńà¤°à¤¸à¤ķ": 7451,
      "ĠMicro": 7452,
      "ĠBAREIL": 7453,
      "ĠBAREILLY": 7454,
      ".âĢĻâĢĻ": 7455,
      "375": 7456,
      "AE": 7457,
      "AF": 7458,
      "As": 7459,
      "BB": 7460,
      "Ex": 7461,
      "HRA": 7462,
      "NB": 7463,
      "Sp": 7464,
      "][": 7465,
      "aa": 7466,
      "ba": 7467,
      "dy": 7468,
      "land": 7469,
      "lock": 7470,
      "oot": 7471,
      "va": 7472,
      "word": 7473,
      "yl": 7474,
      "Ø³": 7475,
      "Ġan": 7476,
      "Ġso": 7477,
      "Ġà´": 7478,
      "Ġà¤£": 7479,
      "à¥¯à¥": 7480,
      "Ġà¤ķà¤«à¤¨": 7481,
      "à¥Ģà¥°": 7482,
      "à¥ĭ/": 7483,
      "à¤ķà¤·": 7484,
      "à¤ķà¤¶à¤¨": 7485,
      "à¤ķà¤Łà¤ķ": 7486,
      "à¤¤à¤ķà¤²": 7487,
      "à¤¤à¤Ĺà¤£": 7488,
      "à¤²à¤¥": 7489,
      "Ġà¤¸à¤ľà¤¨": 7490,
      "à¤¸à¤¹à¤°": 7491,
      "à¤¹à¤¸à¤¨": 7492,
      "à¤®à¤®à¤¨": 7493,
      "à¤®à¤§à¤¨": 7494,
      "Ġà¤ªà¤¤à¤°": 7495,
      "à¥ĪâĢĶ": 7496,
      "à¥ĩà¤ĤâĢĿ": 7497,
      "à¤¦à¤µà¤²": 7498,
      "à¤¦à¤Ĺà¤¢": 7499,
      "Ġà¤¨à¤Ĺà¤®": 7500,
      "à¤ªà¤Łà¤°": 7501,
      "à¤ªà¥ľà¤¤": 7502,
      "Ġà¤ľà¤¯à¤¤": 7503,
      "à¤Łà¤ļ": 7504,
      "à¤Łà¤Ń": 7505,
      "à¤ľà¤¹à¤°": 7506,
      "à¤ľà¤¬à¤²": 7507,
      "à¤ľà¤¬à¤²à¤ª": 7508,
      "Ġà¤ħà¤¢": 7509,
      "Ġà¤ħà¤¡à¤µ": 7510,
      "à¤ıà¤¨à¤µ": 7511,
      "à¤¶à¤µà¤°": 7512,
      "à¤¡à¤¬à¤²": 7513,
      "Ġà¤Ĺà¤ľà¤¨": 7514,
      "Ġà¤Ĺà¤¨à¤°": 7515,
      "à¤ļà¤¹": 7516,
      "à¤ļà¤¶": 7517,
      "à¤ļà¤ķà¤¤": 7518,
      "Ġà¤ķà¤°à¤¸": 7519,
      "Ġà¤ķà¤°à¤¹à¤²": 7520,
      "Ġà¤ĩà¤Ľ": 7521,
      "Ġà¤¤à¤¬à¤°": 7522,
      "à¤¥à¤ľ": 7523,
      "à¥Īà¤ĤâĢĻ": 7524,
      "à¥Īà¤Ĥà¤Ĥà¥¤": 7525,
      "à¤¼à¥Ĥà¤Ĥ": 7526,
      "Ġà¤°à¤¹à¤®à¤¤": 7527,
      "Ġà¤ĸà¤ľà¤°": 7528,
      "Ġà¤ĸà¤®à¤°": 7529,
      "Ġà¤«à¤°à¤ķ": 7530,
      "Ġà¤Łà¤¸": 7531,
      "Ġà¤Łà¤ĸà¤¨": 7532,
      "à¤°à¤¤à¤ħ": 7533,
      "à¥ī,": 7534,
      "Ġà¤¨à¤¹à¤²": 7535,
      "à¤Ĩà¤«": 7536,
      "à¤¾,âĢĻ": 7537,
      "à¤¾,âĢĺ": 7538,
      "à¥ľà¤¦": 7539,
      "Ġà¤Ľà¥ľ": 7540,
      "à¤¹à¤°à¤¨": 7541,
      "Ġà¤§à¤¨à¤¸": 7542,
      "à¤¢à¤¯": 7543,
      "à¤®à¤²à¤ĸà¤¨": 7544,
      "à¤²à¤¨à¤¸": 7545,
      "Ġà¤¹à¤®à¤µà¤¤à¤¨": 7546,
      "Ġ204": 7547,
      "Ġà¤Ĩà¤°à¤ıà¤²": 7548,
      "Ġà¤Ĩà¤°à¤ıà¤ıà¤¸": 7549,
      "Ġà¤Ĩà¤°à¤ĵà¤¬": 7550,
      "Ġà¤ĩà¤¨à¤¬": 7551,
      "Ġà¤īà¤ªà¤ķà¤ª": 7552,
      "Ġà¤īà¤ªà¤¸à¤°à¤ª": 7553,
      "Ġà¤¸à¤¹à¤²": 7554,
      "à¤¼à¥Ģ)": 7555,
      "Ġà¤¸à¤¬à¤®à¤°": 7556,
      "à¤īà¤Ĺ": 7557,
      "Ġà¤¹à¤°à¤²": 7558,
      "à¤ıà¤®à¤ıà¤ļ": 7559,
      "à¤ıà¤®à¤ıà¤¸à¤ª": 7560,
      "à¤ıà¤®à¤ıà¤¸à¤ıà¤¸": 7561,
      "à¤Ĺà¤²à¤¬": 7562,
      "Ġ460": 7563,
      "Ġà¤łà¤¹à¤°à¤¤": 7564,
      "Ġà¤Ŀà¥ľ": 7565,
      "à¤Ĩà¤Īà¤ıà¤ļ": 7566,
      "Ġà¤ľà¤²à¤§": 7567,
      "Ġà¤ħà¤°à¤¨": 7568,
      "Ġ680": 7569,
      "à¤µà¤²à¤®": 7570,
      "à¥ĩà¤Ĥà¥¤,": 7571,
      "Ġ799": 7572,
      "Ġà¤ľà¤¹à¤®à¤¤": 7573,
      "à¤®à¤¦à¤²": 7574,
      "Ġ1914": 7575,
      "2012": 7576,
      "à¤ªà¤ķà¤¨": 7577,
      "à¤ľà¤¯à¤µ": 7578,
      "Ġà¤Ĭà¤§à¤®": 7579,
      "à¤ıà¤¨à¤Ĩà¤°": 7580,
      "à¥Ģà¤Ĥà¥¤\"": 7581,
      "à¤ľà¤Ĺà¤¦": 7582,
      "ars": 7583,
      "arat": 7584,
      "ĠĠĠĠĠĠĠĠĠ": 7585,
      "Ġà¥¦": 7586,
      "Ġà¤ħà¤¦à¤²": 7587,
      "Ġà¤ħà¤¦à¤Ń": 7588,
      "Ġ25000": 7589,
      "Ġ183": 7590,
      "à¤¥à¤²à¤Ĺà¤¡": 7591,
      "ĠCurrent": 7592,
      "ĠAb": 7593,
      "ĠANI": 7594,
      "ĠRAM": 7595,
      "ĠPar": 7596,
      "ĠPal": 7597,
      "Ġ247": 7598,
      "erc": 7599,
      "Ġà¤ħà¤¶à¤«": 7600,
      "ĠMA": 7601,
      "ĠMay": 7602,
      "ĠBan": 7603,
      "ĠNH": 7604,
      "ĠNag": 7605,
      "ĠNXT": 7606,
      "Ġà¤®à¤²à¤®": 7607,
      "ĠHC": 7608,
      "ĠHaryana": 7609,
      "ĠHappy": 7610,
      "ĠIQ": 7611,
      "Ġà¤Ĺà¤£à¤µ": 7612,
      "Ġà¤ľà¤¯à¤ĺ": 7613,
      "ĠTata": 7614,
      "ĠDhan": 7615,
      "ĠDep": 7616,
      "Ġ279": 7617,
      "Ġ311": 7618,
      "ĠGen": 7619,
      "ĠGang": 7620,
      "itt": 7621,
      "Ġà¤ıà¤ļà¤ıà¤®": 7622,
      "Ġà¤ıà¤ļà¤ıà¤®à¤ıà¤¸": 7623,
      "ĠÂĳ": 7624,
      "ĠWatch": 7625,
      "ĠWeather": 7626,
      "Ġ354": 7627,
      "Ġà¤Ĩà¤ĩà¤«": 7628,
      "ĠEdit": 7629,
      "ĠElect": 7630,
      "ĠLe": 7631,
      "ĠLockdown": 7632,
      "101": 7633,
      "103": 7634,
      "109": 7635,
      "ases": 7636,
      "ural": 7637,
      "ays": 7638,
      "Ġ326": 7639,
      "Ġ328": 7640,
      "Ġ377": 7641,
      "Ġ379": 7642,
      "ets": 7643,
      "eli": 7644,
      "Ġ363": 7645,
      "Ġ366": 7646,
      "à¤ĩà¤ªà¤°à¤¸": 7647,
      "Ġ345": 7648,
      "Ġà¤¶à¤ªà¤¥à¤ªà¤¤": 7649,
      "ĠâĢ¦.": 7650,
      "Ġpm": 7651,
      "àªĵ": 7652,
      "ution": 7653,
      "Ġ390": 7654,
      "à¤°à¤¥à¤®à¤¦": 7655,
      "Ġà¤ªà¤ļà¤ª": 7656,
      "à¥Ĥà¤Ĥ.'": 7657,
      "à¥Ĥà¤Ĥ.âĢĻ": 7658,
      "osp": 7659,
      "Ġâĸ": 7660,
      "334": 7661,
      "ription": 7662,
      "Ġii": 7663,
      "odaf": 7664,
      "ograph": 7665,
      "ĠChrome": 7666,
      "Ġà¤ıà¤ıà¤¨à¤Ĩà¤ĩ": 7667,
      "ffect": 7668,
      "Ġà¤ıà¤®à¤ıà¤²à¤ı": 7669,
      "à¥¨à¥¦à¥": 7670,
      "Ġonline": 7671,
      "ICI": 7672,
      "ulture": 7673,
      "à¤¬à¤ľà¤Ł": 7674,
      "ĠProgram": 7675,
      "ishes": 7676,
      "ĠApplication": 7677,
      "Ġà¤¹à¥ľà¤ķà¤®": 7678,
      "ĠPlus": 7679,
      "ĠPoll": 7680,
      "ension": 7681,
      "ĠAdv": 7682,
      "Ġform": 7683,
      "à±ģ": 7684,
      "ĠNotification": 7685,
      "ĠTrade": 7686,
      "prise": 7687,
      "ĠFarm": 7688,
      "ĠIdeal": 7689,
      "ucknow": 7690,
      "ype": 7691,
      "ĠSmart": 7692,
      "ĠEngland": 7693,
      "ĠEnglish": 7694,
      "ĠAssembly": 7695,
      "ĠBudget": 7696,
      "ĠVivo": 7697,
      "ðŁı»": 7698,
      "odafone": 7699,
      "))": 7700,
      "350": 7701,
      "799": 7702,
      "AY": 7703,
      "CM": 7704,
      "Co": 7705,
      "DM": 7706,
      "GC": 7707,
      "Har": 7708,
      "JEE": 7709,
      "LC": 7710,
      "Moh": 7711,
      "NC": 7712,
      "PL": 7713,
      "PR": 7714,
      "Ram": 7715,
      "SO": 7716,
      "SR": 7717,
      "Sc": 7718,
      "UI": 7719,
      "VI": 7720,
      "aut": 7721,
      "cription": 7722,
      "df": 7723,
      "gan": 7724,
      "ging": 7725,
      "nd": 7726,
      "nel": 7727,
      "ound": 7728,
      "ris": 7729,
      "uch": 7730,
      "ware": 7731,
      "Ġà¥ĩ": 7732,
      "Ġet": 7733,
      "Ġatt": 7734,
      "Ļı": 7735,
      "à¤į": 7736,
      "à¥ĩ)à¥¤": 7737,
      "à¥ĩ....": 7738,
      "à¤°à¤ªà¤°": 7739,
      "à¤²à¤Łà¤¨": 7740,
      "à¤²à¤ĸà¤°": 7741,
      "à¤²à¤Ĩà¤īà¤Ł": 7742,
      "à¤¸à¤ł": 7743,
      "à¤¸à¤²à¤¤": 7744,
      "à¤¸à¤ĳà¤°": 7745,
      "Ġà¤¹à¤ı": 7746,
      "Ġà¤®à¥Ŀ": 7747,
      "à¤¹à¤Ńà¤°": 7748,
      "à¤¹à¤Ĺà¥Ŀ": 7749,
      "Ġà¤ªà¤Ĺà¤²": 7750,
      "à¥ģ'": 7751,
      "à¤µà¤ļà¤¨": 7752,
      "à¤µà¤¡à¤°": 7753,
      "Ġà¤¬à¤«": 7754,
      "Ġà¤¬à¤Ĺà¤µ": 7755,
      "Ġà¤¦à¤¦": 7756,
      "Ġà¤²à¤¹à¤²": 7757,
      "Ġà¤ħà¥Ļ": 7758,
      "à¤¬à¤¹à¤°": 7759,
      "à¤¬à¤¦à¤°": 7760,
      "à¤¶à¤°à¤µ": 7761,
      "à¤¡à¤ľ": 7762,
      "à¤¡à¤¬à¤°": 7763,
      "à¤¡à¥ĺà¤°": 7764,
      "Ġà¤Ĺà¤Ł": 7765,
      "Ġà¤Ĩà¤¸à¤°": 7766,
      "Ġà¤ķà¤°à¤ķà¤°": 7767,
      "Ġà¤ĩà¤ª": 7768,
      "Ġà¤¤à¤ªà¤¤": 7769,
      "Ġà¤īà¤«à¤¨": 7770,
      "à¤Īà¤ıà¤«": 7771,
      "Ġà¤ļà¤°à¤ķ": 7772,
      "à¥Īà¤Ĥ....": 7773,
      "à¤¾à¤Ĥà¤Ĥ": 7774,
      "Ġà¤ıà¤Łà¤ķ": 7775,
      "Ġà¤¯à¤®à¤¦": 7776,
      "Ġà¤¯à¤ľà¤®": 7777,
      "Ġà¤¯à¤µà¤¤à¤®": 7778,
      "à¤¼à¥ħ": 7779,
      "à¤Ńà¤ķà¤°": 7780,
      "Ġà¤¥à¤¨à¤¬à¤°": 7781,
      "Ġà¤ĸà¤ªà¤°": 7782,
      "à¤¾à¥¤[": 7783,
      "Ġà¤«à¤°à¤¸": 7784,
      "Ġà¤Łà¤¹à¤²": 7785,
      "à¤ĩà¤ĵà¤µà¤°": 7786,
      "à¤°à¤ķà¤¨": 7787,
      "à¤Ľà¤°à¤¦": 7788,
      "à¤łà¤®à¤²": 7789,
      "à¤Ĩà¤ĵ": 7790,
      "à¤¾,âĢĿ": 7791,
      "à¤¤à¤°à¤µ": 7792,
      "Ġà¤ħà¤§à¤®à¤°": 7793,
      "Ġà¤ħà¤¨à¤Ł": 7794,
      "Ġà¤Ľà¤ľ": 7795,
      "à¤¶à¤¨à¤Ĺà¤°": 7796,
      "à¤Ĺà¤°à¤Ĺà¥Ŀ": 7797,
      "à¤°à¤®à¤¯": 7798,
      "Ġà¤§à¤¨à¤ķ": 7799,
      "à¤²à¤¨à¤¶": 7800,
      "Ġà¤¹à¤®à¤®": 7801,
      "Ġà¤¤à¤°à¤²à¤¤": 7802,
      "Ġà¤Ĩà¤°à¤ı": 7803,
      "à¤ªà¤¤à¤²": 7804,
      "Ġà¤ĵà¤¬à¤°": 7805,
      "Ġà¤ľà¤¨à¤¸à¤¤": 7806,
      "à¤ĺà¤²à¤¨": 7807,
      "à¤ĺà¤µà¤¨": 7808,
      "Ġà¤ĳà¤ĩà¤²": 7809,
      "à¤Ĺà¤²à¤Ĺ": 7810,
      "à¤¤à¤¨à¤¤": 7811,
      "à¤¤à¤¨à¤µ": 7812,
      "à¤¤à¤¨à¤Ń": 7813,
      "Ġ525": 7814,
      "Ġà¤ħà¤®à¤ľà¤¦": 7815,
      "à¤¯à¤¨à¤°": 7816,
      "Ġà¤ľà¤°à¤¨": 7817,
      "Ġà¤ħà¤¸à¤¹à¤¨": 7818,
      "à¤ħà¤Ł": 7819,
      "à¤ħà¤°à¤µ": 7820,
      "à¤ħà¤¦à¤¬": 7821,
      "Ġà¤ıà¤¸à¤ıà¤«": 7822,
      "Ġà¤ıà¤¸à¤ıà¤ļ": 7823,
      "Ġà¤¬à¤¡à¤Ĺ": 7824,
      "à¤µà¤¤à¤ª": 7825,
      "Ġà¤Ŀà¤Ł": 7826,
      "Ġà¤Ŀà¥ľà¤¨": 7827,
      "à¥Ĥà¤Ĥ...": 7828,
      "Ġà¤¬à¤²à¤ķ": 7829,
      "Ġà¤ħà¤ªà¤ķ": 7830,
      "Ġà¤ĸà¤°à¤ĸ": 7831,
      "Ġ630": 7832,
      "Ġà¤ĵà¤°à¤Ľ": 7833,
      "Ġà¤¨à¤Ĺà¤°à¤¸": 7834,
      "Ġà¤¨à¤Ĺà¤°à¤µ": 7835,
      "Ġà¤¨à¤Ĺà¤°à¤ªà¤°": 7836,
      "à¤®à¤¦à¤¤": 7837,
      "Ġ1923": 7838,
      "Ġ1938": 7839,
      "à¤¾-'": 7840,
      "Ġà¥¤âĢĻâĢĻ": 7841,
      "Ġ960": 7842,
      "Ġà¤ıà¤®à¤Ĩà¤°à¤ª": 7843,
      "Ġà¤¢à¤ķà¤¨": 7844,
      "Ġà¤¢à¤ķà¤ķà¤°": 7845,
      "à¤ıà¤¨à¤ıà¤ļ": 7846,
      "Ġ\"à¤¾": 7847,
      "Ġà¤ıà¤¨à¤Ĩà¤ĩà¤ı": 7848,
      "anpur": 7849,
      "Ġ257": 7850,
      "Ġ259": 7851,
      "Ġà¤µà¤¨à¤°à¤ķ": 7852,
      "ĠSR": 7853,
      "ĠST": 7854,
      "ĠSk": 7855,
      "ĠCode": 7856,
      "ĠAug": 7857,
      "ĠAIMIM": 7858,
      "ĠRashifal": 7859,
      "ĠPand": 7860,
      "ĠPage": 7861,
      "ĠPAK": 7862,
      "ĠPetrol": 7863,
      "ĠPunjab": 7864,
      "Ġà¤ķà¤Łà¤¤": 7865,
      "Ġ246": 7866,
      "eri": 7867,
      "ero": 7868,
      "ery": 7869,
      "Ġà¤ħà¤¶à¤°": 7870,
      "Ġà¤ħà¤µà¤¸à¤°à¤µ": 7871,
      "ĠMC": 7872,
      "ĠMumbai": 7873,
      "alu": 7874,
      "ĠHonor": 7875,
      "âĢĿà¥¤": 7876,
      "ĠIF": 7877,
      "à¥ĭà¥¤âĢĻâĢĻ": 7878,
      "Ġà¤ļà¤°à¤£à¤¦": 7879,
      "Ġà¤ªà¤²à¤Łà¤¤": 7880,
      "Ġà¤Ĺà¤£à¤Ĺ": 7881,
      "Ġà¤¶à¤¹à¤¬": 7882,
      "ĠDL": 7883,
      "Ġà¤ķà¤¸à¤¬": 7884,
      "à¤°à¤Ĺà¤Ł": 7885,
      "Ġ278": 7886,
      "Ġ317": 7887,
      "Ġ283": 7888,
      "Ġ288": 7889,
      "Ġ289": 7890,
      "Ġà¤ħà¤¹à¤®à¤¦à¤¨à¤Ĺà¤°": 7891,
      "à¥Ī?âĢĿ": 7892,
      "ita": 7893,
      "itute": 7894,
      "ĠRep": 7895,
      "Ġ295": 7896,
      "ĠWTC": 7897,
      "ĠFull": 7898,
      "Ġ358": 7899,
      "ĠVol": 7900,
      "ĠVideos": 7901,
      "ĠVacancy": 7902,
      "ĠVodafone": 7903,
      "Ġà¤Łà¤ķà¤Łà¤ķ": 7904,
      "askar": 7905,
      "Ġà¤ĸà¥ľà¤Ĺà¤ª": 7906,
      "Ġ802": 7907,
      "Ġ375": 7908,
      "à¤¾âĢĻ.": 7909,
      "eth": 7910,
      "etry": 7911,
      "etty": 7912,
      "irst": 7913,
      "elf": 7914,
      "unav": 7915,
      "ĠJharkhand": 7916,
      "Ġ334": 7917,
      "Ġ338": 7918,
      "Ġ340": 7919,
      "Ġà¤¶à¤ªà¤¥à¤Ĺ": 7920,
      "Ġmobile": 7921,
      "Ġsw": 7922,
      "Ġpre": 7923,
      "harm": 7924,
      "harat": 7925,
      "Ġà¤ªà¤¬à¤ľ": 7926,
      "Ġ484": 7927,
      "Ġcont": 7928,
      "Ġà¥§à¥©": 7929,
      "à¥Ĥà¤Ĥ.\"": 7930,
      "Ġ465": 7931,
      "ðŁĳ": 7932,
      "ima": 7933,
      "Ġ471": 7934,
      "Ġ495": 7935,
      "Ġlist": 7936,
      "à¤¼à¥ĩà¤Ĥ:-": 7937,
      "Ġwebsite": 7938,
      "Ġà¤ıà¤¨à¤ıà¤ļà¤ª": 7939,
      "Ġà¤ıà¤¨à¤ıà¤ļà¤ıà¤®": 7940,
      "ĠYogi": 7941,
      "ĠStore": 7942,
      "ift": 7943,
      "à¤¾!!": 7944,
      "à¥ĩà¤Ĥ:-": 7945,
      "ANI": 7946,
      "Ġà¤ĩà¤«à¤ķ": 7947,
      "à¤¯à¤Ńà¤Ł": 7948,
      "Ġà¥§à¥¦à¥¦": 7949,
      "ĠàªĹ": 7950,
      "Ġà¥§à¥¯à¥«": 7951,
      "indow": 7952,
      "III": 7953,
      "ĠCommission": 7954,
      "ĠZomato": 7955,
      "HOT": 7956,
      "ĠEnfield": 7957,
      "Ġà¥ĺà¤°": 7958,
      "ashmir": 7959,
      "ĠISI": 7960,
      "Ġà¤µà¤ļà¤¨à¤¬à¤¦": 7961,
      "Ġà¤¦à¤®à¤¨à¤ķ": 7962,
      "ĠRoad": 7963,
      "Chhattisgarh": 7964,
      "eek": 7965,
      "Ġà¤§à¤°à¤®à¤ª": 7966,
      "à¥ĪâĢĻà¥¤": 7967,
      "à¤¹à¤°à¤¤à¤Ĺà¤¢": 7968,
      "ĠNeh": 7969,
      "Ġblog": 7970,
      "Ġà¤¹à¤łà¤§à¤°": 7971,
      "Ġà¤ħà¤¨à¤ªà¤¢": 7972,
      "Tech": 7973,
      "annel": 7974,
      "MeToo": 7975,
      "Ġà¤Ĭà¤§à¤®à¤ª": 7976,
      "Ġà¤Ĭà¤§à¤®à¤¸": 7977,
      "iversity": 7978,
      "Ġhigh": 7979,
      "Ġabout": 7980,
      "ĠLoan": 7981,
      "ĠPPE": 7982,
      "ranulator": 7983,
      "ĠArticle": 7984,
      "Continue": 7985,
      "Ġà¤Ĩà¤Īà¤ıà¤¨à¤ıà¤ķ": 7986,
      "eople": 7987,
      "Narendra": 7988,
      "HRADU": 7989,
      "Ø³ÛĮ": 7990,
      "à¥¨à¥¦à¥§à¥": 7991,
      "ĠIdealis": 7992,
      ",...": 7993,
      "=âĢĿ": 7994,
      "Am": 7995,
      "BD": 7996,
      "Down": 7997,
      "EC": 7998,
      "FD": 7999,
      "FT": 8000,
      "Mbps": 8001,
      "NU": 8002,
      "Ne": 8003,
      "OO": 8004,
      "On": 8005,
      "Pakistan": 8006,
      "RR": 8007,
      "aur": 8008,
      "action": 8009,
      "aipur": 8010,
      "bit": 8011,
      "cm": 8012,
      "dr": 8013,
      "go": 8014,
      "nath": 8015,
      "oy": 8016,
      "oom": 8017,
      "ser": 8018,
      "to": 8019,
      "ule": 8020,
      "upp": 8021,
      "yn": 8022,
      "zuk": 8023,
      "~~": 8024,
      "Ġ<": 8025,
      "Ġà¥ĭ": 8026,
      "Ġit": 8027,
      "Ġare": 8028,
      "à¥įà¤¿": 8029,
      "à¤¿!": 8030,
      "à¤Ĥà¥Ĥ": 8031,
      "à¤¨à¤Ŀ": 8032,
      "à¤ķà¤¬à¤¡": 8033,
      "à¤ķà¤ĵà¤µà¤°": 8034,
      "à¤¤à¤¹à¤°": 8035,
      "à¤¤à¤²à¤¨": 8036,
      "à¤²à¤§": 8037,
      "à¤²à¥ľ": 8038,
      "à¤²à¤ļà¤°": 8039,
      "à¤²à¤ªà¤®": 8040,
      "Ġà¤¸à¥Ľ": 8041,
      "Ġà¤¸à¤¸à¤®à¤¯": 8042,
      "à¤¸à¤Łà¤¨": 8043,
      "à¤¸à¤ıà¤ķ": 8044,
      "Ġà¤¹à¤°à¤¤": 8045,
      "Ġà¤®à¤ķà¤¸": 8046,
      "à¤¹à¤®à¤²": 8047,
      "à¤®à¤Ńà¤°": 8048,
      "à¤®à¤«à¤²": 8049,
      "à¤®à¤Ńà¤ķ": 8050,
      "à¥Īà¥Ī": 8051,
      "à¤µà¤¶à¤¤": 8052,
      "à¤¦à¤°à¤®": 8053,
      "à¤¦à¤°à¤µ": 8054,
      "à¤¦à¤°à¤¸": 8055,
      "à¤Ĺà¤¸à¤²": 8056,
      "à¥¤,": 8057,
      "Ġà¤¬à¤¥": 8058,
      "à¤ªà¤¤à¤°": 8059,
      "à¤ľà¤¯à¤ķ": 8060,
      "à¤ľà¤¤à¤¨à¤Ĺà¤°": 8061,
      "Ġà¤°à¤¬à¤¡": 8062,
      "Ġà¤µà¥ľ": 8063,
      "Ġà¤µà¤¨à¤°": 8064,
      "à¤¬à¤Ĺà¤²": 8065,
      "à¤¶à¤¶": 8066,
      "à¤¡à¤ħà¤ª": 8067,
      "Ġà¤Ĺà¤¹": 8068,
      "Ġà¤Ĩà¤£": 8069,
      "Ġà¤ĩà¤µà¤¨": 8070,
      "Ġà¤ĩà¤Ĺà¤²": 8071,
      "Ġà¤īà¤¹": 8072,
      "Ġà¤ªà¤°à¤¬": 8073,
      "Ġà¤ªà¤°à¤®à¤µ": 8074,
      "à¤·à¤°à¤£": 8075,
      "à¥Īà¥¤)": 8076,
      "Ġà¤ļà¤£": 8077,
      "Ġà¤ıà¥ľ": 8078,
      "Ġà¤ıà¤²à¤ķ": 8079,
      "à¤ĸà¤°à¤¸": 8080,
      "Ġà¤ĸà¤¤à¤¨": 8081,
      "à¤ķà¤°à¤ĸ": 8082,
      "Ġà¤ıà¤ķà¤¨": 8083,
      "Ġà¤Łà¤Ł": 8084,
      "Ġà¤Łà¤°à¤ķ": 8085,
      "à¤°à¤¤à¤¨": 8086,
      "âĢ¢": 8087,
      "à¤ĩà¤ĳà¤ķ": 8088,
      "à¤Ĩà¤ªà¤¨": 8089,
      "à¤Ĩà¤µà¤¶": 8090,
      "à¤ĵà¤ıà¤®": 8091,
      "à¤ĵà¤Ĩà¤Ī": 8092,
      "à¤Łà¤°à¤ļ": 8093,
      "à¤µà¤°à¤¬": 8094,
      "à¤¶à¤¨à¤Ń": 8095,
      "Ġ208": 8096,
      "à¤¯à¤®à¤¤": 8097,
      "à¤®à¤¨à¤¸": 8098,
      "Ġ322": 8099,
      "Ġà¤ľà¤¨à¤¸à¤®à¤¸": 8100,
      "à¤Ŀà¤²": 8101,
      "0000": 8102,
      "Ġ540": 8103,
      "Ġ422": 8104,
      "Ġ423": 8105,
      "à¤¦à¤°à¤ħà¤¸à¤²": 8106,
      "à¤ħà¤µà¤§": 8107,
      "à¤¹à¤¨à¤¦": 8108,
      "Ġà¤łà¤¹": 8109,
      "Ġ'''": 8110,
      "à¤Ĩà¤Īà¤ĵ": 8111,
      "à¤Ĩà¤Īà¤ĵà¤¸": 8112,
      "Ġà¤ħà¤µà¤¤à¤°à¤£": 8113,
      "à¤¯à¤²à¤ķ": 8114,
      "Ġà¤ĸà¤°à¤¡": 8115,
      "Ġ610": 8116,
      "à¤¬à¤²à¤°": 8117,
      "Ġà¤Īà¤Ī": 8118,
      "Ġà¤Īà¤ıà¤¨à¤Ł": 8119,
      "Ġ1917": 8120,
      "Ġ1905": 8121,
      "Ġ1931": 8122,
      "Ġà¤īà¤¦à¤¯à¤¨": 8123,
      "Ġà¤ľà¤Ĺà¤ª": 8124,
      "Ġà¤ľà¤Ĺà¤¬": 8125,
      "Ġà¤¸à¤ļà¤²": 8126,
      "Ġà¤²à¤¡à¥ĺ": 8127,
      "Ġ950": 8128,
      "à¤ķà¤Łà¤¤": 8129,
      "à¤ķà¤Łà¤Ĺ": 8130,
      "ines": 8131,
      "à¤ıà¤²à¤ĵà¤¸": 8132,
      "Ġà¤ıà¤¨à¤ıà¤®à¤¸": 8133,
      "Ġà¤§à¤°à¤ªà¤ķà¥ľ": 8134,
      "aran": 8135,
      "Ġ255": 8136,
      "Ġ1860": 8137,
      "Ġ303": 8138,
      "Ġ308": 8139,
      "Ġà¤ħà¤Ĺà¤²à¤Ĺ": 8140,
      "216": 8141,
      "ĠSO": 8142,
      "ĠSon": 8143,
      "ĠSour": 8144,
      "ĠSark": 8145,
      "ĠShiv": 8146,
      "190": 8147,
      "ĠCEO": 8148,
      "ĠCJI": 8149,
      "ĠAQ": 8150,
      "ĠAUS": 8151,
      "ĠAustralia": 8152,
      "ĠRA": 8153,
      "ĠPG": 8154,
      "ĠPort": 8155,
      "à¤²à¤Ĺà¥Ŀ": 8156,
      "Ġà¤ķà¤Łà¤ĳà¤«": 8157,
      "à¤ĥ-": 8158,
      "Ġà¤§à¤¨à¤Ĺà¤°": 8159,
      "atra": 8160,
      "era": 8161,
      "à¤¼à¥ĭà¤Ĥ,": 8162,
      "Ġà¤Ńà¤Ĺà¤µà¤¦": 8163,
      "à¤ıà¤ļà¤Īà¤¡": 8164,
      "ĠMus": 8165,
      "ĠMobile": 8166,
      "ĠBas": 8167,
      "ĠNov": 8168,
      "ĠNumber": 8169,
      "Ġà¤ıà¤²à¤ıà¤¨à¤ľ": 8170,
      "à¤²à¤¹à¤µ": 8171,
      "ĠIRCTC": 8172,
      "à¥ĭà¥¤âĢĻ": 8173,
      "à¤¨à¤Ĺà¤°à¤ª": 8174,
      "âĢ¦..": 8175,
      "ene": 8176,
      "Ġ407": 8177,
      "ĠDate": 8178,
      "ĠDream": 8179,
      "Ġ231": 8180,
      "Ġ234": 8181,
      "ĠGT": 8182,
      "ĠGam": 8183,
      "Ġà¤ıà¤ļà¤¯": 8184,
      "ĠWing": 8185,
      "ĠWord": 8186,
      "ĠWeight": 8187,
      "ĠFD": 8188,
      "amp": 8189,
      "ĠKare": 8190,
      "ĠKisan": 8191,
      "Ġà¤ķà¤łà¤ª": 8192,
      "ĠList": 8193,
      "ĠLIC": 8194,
      "ĠLok": 8195,
      "ĠLife": 8196,
      "ĠVer": 8197,
      "ĠVirus": 8198,
      "ason": 8199,
      "ayan": 8200,
      "ayat": 8201,
      "Ġà¤¬à¤°à¤¸à¤¤": 8202,
      "180": 8203,
      "Ġà¤ªà¤ķà¥ľà¤¤": 8204,
      "Ġ374": 8205,
      "uss": 8206,
      "rab": 8207,
      "ĠOct": 8208,
      "à¤ĳà¤¡": 8209,
      "Ġ3600": 8210,
      "111": 8211,
      "ote": 8212,
      "ĠJay": 8213,
      "Ġ333": 8214,
      "127": 8215,
      "Ġmin": 8216,
      "Ġmon": 8217,
      "Ġtoday": 8218,
      "Ġpass": 8219,
      "hard": 8220,
      "hary": 8221,
      "haar": 8222,
      "à¤ıà¤¸à¤Īà¤¬": 8223,
      "Ġ555": 8224,
      "à®¾": 8225,
      "à¤¨à¤µà¤°à¤¹": 8226,
      "Ġ428": 8227,
      "uly": 8228,
      "ular": 8229,
      "Ġhere": 8230,
      "Ġà¤²à¤Łà¤ķà¤ķà¤°": 8231,
      "aka": 8232,
      "à¤¨à¤¹à¤Ĺ": 8233,
      "Ġkey": 8234,
      "IDAI": 8235,
      "artment": 8236,
      "Ġâĺ": 8237,
      "Ġà¤īà¤§à¤®": 8238,
      "opal": 8239,
      "opra": 8240,
      "ĠYear": 8241,
      "istration": 8242,
      "ĠStep": 8243,
      "Ġà¤īà¤¬à¤²à¤¤": 8244,
      "ober": 8245,
      "ĠChopra": 8246,
      "ĠXS": 8247,
      "Ġà¥¨à¥¨": 8248,
      "aster": 8249,
      "aina": 8250,
      "ĠNCP": 8251,
      "à¤¾\",": 8252,
      "IMD": 8253,
      "à¥¨à¥¦": 8254,
      "Ġà¥§à¥¯à¥ª": 8255,
      "Ġrelease": 8256,
      "indust": 8257,
      "ecial": 8258,
      "anaut": 8259,
      "SSSC": 8260,
      "undai": 8261,
      "ackDown": 8262,
      "ĠQuestion": 8263,
      "uccess": 8264,
      "ĠPlan": 8265,
      "Ġà¤īà¤ĸà¥ľ": 8266,
      "à¥§à¥§": 8267,
      "à¥§à¥¨": 8268,
      "Ġà¤ħà¥ľà¤ļà¤¨": 8269,
      ":::": 8270,
      "Ġà¤Īà¤ĵà¤¡à¤¬": 8271,
      "ouch": 8272,
      "ĠManag": 8273,
      "ports": 8274,
      "ĠPatrika": 8275,
      "à¤ıà¤ıà¤«à¤ª": 8276,
      "urrency": 8277,
      "Ġthis": 8278,
      "ĠIndore": 8279,
      "ĠICICI": 8280,
      "ĠMarch": 8281,
      "à¤µà¤²à¤¨à¤¶": 8282,
      "Ġblood": 8283,
      "ĠØ³": 8284,
      "aharasht": 8285,
      "ĠInstagram": 8286,
      "ĠComments": 8287,
      "ĠJanuary": 8288,
      "ĠIntern": 8289,
      "Ġà¤ļà¤®à¤ļà¤®": 8290,
      "board": 8291,
      "ĠEPFO": 8292,
      "riends": 8293,
      "duct": 8294,
      "ĠBreaking": 8295,
      "ĠDEHRADU": 8296,
      "ĠEnterprise": 8297,
      "blem": 8298,
      "âĤ«": 8299,
      "ĠHyundai": 8300,
      "ĠSnap": 8301,
      "ĠLaws": 8302,
      "ĠObject": 8303,
      "etails": 8304,
      "ragon": 8305,
      "ospital": 8306,
      "Ġâĸº": 8307,
      "Ġà¤ħà¥Ļà¤¬": 8308,
      "HOTOS": 8309,
      "zuki": 8310,
      ")âĢĻ": 8311,
      "118": 8312,
      "299": 8313,
      "240": 8314,
      "699": 8315,
      "617": 8316,
      "Bihar": 8317,
      "Congress": 8318,
      "EM": 8319,
      "GHz": 8320,
      "IO": 8321,
      "Mumbai": 8322,
      "Madhya": 8323,
      "Nm": 8324,
      "OLED": 8325,
      "Pat": 8326,
      "Pad": 8327,
      "Press": 8328,
      "Sal": 8329,
      "Shah": 8330,
      "UK": 8331,
      "Un": 8332,
      "YC": 8333,
      "ao": 8334,
      "cl": 8335,
      "hya": 8336,
      "lam": 8337,
      "my": 8338,
      "sur": 8339,
      "tr": 8340,
      "tion": 8341,
      "tain": 8342,
      "wa": 8343,
      "wan": 8344,
      "yot": 8345,
      "Ø§": 8346,
      "Ú©": 8347,
      "Ġas": 8348,
      "Ġall": 8349,
      "à¤¾âĢļ": 8350,
      "à¥ĩ',": 8351,
      "à¥ĩ......": 8352,
      "à¥įà¥ĩ": 8353,
      "à¤¿âĢ¦": 8354,
      "à¤¿à¥°": 8355,
      "à¤Ĥ!": 8356,
      "à¤ķà¤ªà¤¤": 8357,
      "à¤¤à¤µà¤¨": 8358,
      "à¤²à¤ı": 8359,
      "à¤²à¤ķà¤¤": 8360,
      "à¤²à¤ªà¤Ł": 8361,
      "à¤¯à¤Ĺà¤£": 8362,
      "à¤¸à¤§": 8363,
      "à¤¸à¤ıà¤²": 8364,
      "Ġà¤¹à¥ľà¤ª": 8365,
      "Ġà¤®à¤ļà¤¨": 8366,
      "à¤¹à¤ľà¤¨à¤ķ": 8367,
      "à¤®à¤¹à¤°": 8368,
      "à¤®à¤ľà¤¸": 8369,
      "Ġà¤ªà¤¨à¤ķ": 8370,
      "Ġà¤ªà¤¸à¤²": 8371,
      "Ġà¤ªà¤Ĺà¤¬": 8372,
      "à¥ģà¤¾": 8373,
      "à¥Īà¤ģà¥¤": 8374,
      "à¥ĩà¤Ĥ.....": 8375,
      "à¤Ĺà¤Ŀ": 8376,
      "à¤Ĺà¤¬à¤²": 8377,
      "Ġà¤¨à¤¤à¤®à¤¸": 8378,
      "à¤ªà¤ĸ": 8379,
      "à¤ªà¤ķà¤²": 8380,
      "à¤ľà¤¯à¤°": 8381,
      "Ġà¤µà¤¦": 8382,
      "Ġà¤ħà¤°à¤¦": 8383,
      "Ġà¤ħà¤¯à¤ª": 8384,
      "à¥ĭà¤Ĥ\"": 8385,
      "à¤ıà¤Ĩà¤ĩ": 8386,
      "à¤¬à¤ĸ": 8387,
      "à¤¶à¤°à¤£": 8388,
      "à¤¡à¤ĩà¤¨": 8389,
      "Ġà¤Ĺà¤®à¤¨": 8390,
      "Ġà¤Ĩà¤¹à¤°": 8391,
      "Ġà¤Ĩà¤¹à¤²": 8392,
      "Ġà¤¤à¤²à¤¤": 8393,
      "Ġà¤¤à¤Ĺà¥ľ": 8394,
      "Ġà¤Ńà¤Ī": 8395,
      "Ġà¤Ńà¤Īà¤¯": 8396,
      "Ġà¤īà¥ľà¤¤": 8397,
      "à¤§à¤¦": 8398,
      "à¤§à¤µà¤¨": 8399,
      "à¤·à¤¯à¤µà¤¸": 8400,
      "Ġà¤¶à¤®à¤¨": 8401,
      "Ġà¤¶à¤Łà¤¡": 8402,
      "Ġà¤Ķà¤ķ": 8403,
      "Ġà¤ļà¤ķà¤¤": 8404,
      "Ġà¤ļà¤®à¤°": 8405,
      "à¤¾à¤Ĥ!": 8406,
      "à¤¾à¤Ĥ.": 8407,
      "Ġà¤ıà¤ıà¤«": 8408,
      "à¤¼à¥Ģà¤Ĥà¥¤": 8409,
      "à¤¼à¥ĭ,": 8410,
      "à¤¼à¥ĭà¥¤": 8411,
      "à¤Ńà¤²à¤¨": 8412,
      "Ġà¤¥à¤®à¤¤": 8413,
      "Ġà¤«à¤ĸ": 8414,
      "Ġà¤«à¤²à¤¤": 8415,
      "Ġà¤«à¤ĸà¤°": 8416,
      "à¥Ģà¤ĤâĢ¦": 8417,
      "à¥Īà¤Ĥà¥¤à¥¤": 8418,
      "à¤Ĩà¤Ł": 8419,
      "à¥ĩà¥¤à¥¤": 8420,
      "Ġà¤ħà¤¨à¤ļ": 8421,
      "à¥ľà¤ªà¤¤": 8422,
      "à¤Łà¤°à¤Ĺ": 8423,
      "à¤µà¤°à¤Ĺ": 8424,
      "à¤°à¤®à¤¸": 8425,
      "à¤²à¤¨à¤µ": 8426,
      "Ġà¤Ĩà¤°à¤Ĩà¤Ī": 8427,
      "Ġà¤Ĩà¤°à¤ıà¤ıà¤«": 8428,
      "Ġà¤ĩà¤¨à¤ªà¤°": 8429,
      "à¤¯à¤®à¤Ĺ": 8430,
      "à¤¯à¤®à¤¶": 8431,
      "à¥įâĢįà¤¿": 8432,
      "ĠâĢİ": 8433,
      "à¤®à¤¨à¤®": 8434,
      "Ġà¤¸à¤¹à¤¤": 8435,
      "Ġà¤ĵà¤Ĺ": 8436,
      "Ġà¤ĵà¤ıà¤²": 8437,
      "Ġà¤ĵà¤¹à¤¦": 8438,
      "à¤¯à¤¤à¤¯": 8439,
      "Ġà¤ľà¤¨à¤ªà¤¥": 8440,
      "à¤īà¤µ": 8441,
      "à¤īà¤¸à¤¨": 8442,
      "008": 8443,
      "à¤ıà¤¸à¤ıà¤¸à¤¸": 8444,
      "à¤¤à¤¨à¤¶": 8445,
      "Ġ530": 8446,
      "Ġà¤¸à¤°à¤ļ": 8447,
      "Ġà¤¸à¤°à¤«": 8448,
      "à¥Ģ.)": 8449,
      "Ġ430": 8450,
      "Ġ416": 8451,
      "Ġ424": 8452,
      "Ġà¤ħà¤®à¤°à¤¦": 8453,
      "à¤¦à¤°à¤Ĺà¤¢": 8454,
      "à¤ħà¤°à¤¶": 8455,
      "Ġà¤Ĩà¤Īà¤Ĩà¤°à¤¡": 8456,
      "Ġà¤ıà¤¸à¤ıà¤²": 8457,
      "Ġà¤łà¤£": 8458,
      "à¤°à¤¶à¤ķ": 8459,
      "à¥Ĥà¤Ĥ'": 8460,
      "Ġà¤ķà¤²à¤µ": 8461,
      "Ġà¤ħà¤ªà¤ļ": 8462,
      "Ġà¤ĸà¤°à¤ªà¤¤à¤µ": 8463,
      "à¤¨à¤®à¤ķ": 8464,
      "Ġ1925": 8465,
      "Ġ1927": 8466,
      "Ġ1907": 8467,
      "à¥Ľà¤¤": 8468,
      "à¤ľà¤¯à¤¶": 8469,
      "à¤Łà¤ķà¤ª": 8470,
      "à¤ĩà¤Łà¤µ": 8471,
      "à¤°à¤«à¤¤": 8472,
      "Ġà¤²à¤¡à¤¨": 8473,
      "Ġ980": 8474,
      "Ġà¤ĳà¤«à¤¸": 8475,
      "...,": 8476,
      "Ġà¤¦à¤²à¤¸": 8477,
      "Ġà¤¦à¤²à¤ªà¤¤": 8478,
      "à¤¨à¤µà¤µ": 8479,
      "Ġà¤°à¤¨à¤¬": 8480,
      "Ġà¤²à¤ķà¤µ": 8481,
      "aning": 8482,
      "ĠĠĠĠĠĠĠĠĠĠĠ": 8483,
      "Ġà¥¯à¥": 8484,
      "Ġ253": 8485,
      "Ġ254": 8486,
      "Ġ258": 8487,
      "Ġ1897": 8488,
      "à¤ıà¤«à¤ıà¤¸à¤¸": 8489,
      "Ġ305": 8490,
      "ĠSEO": 8491,
      "ĠSep": 8492,
      "ĠSHO": 8493,
      "ĠAE": 8494,
      "ĠAp": 8495,
      "ĠAtt": 8496,
      "ĠAaj": 8497,
      "ĠAudio": 8498,
      "Ġà¤īà¤²à¤®": 8499,
      "online": 8500,
      "ĠPHOTOS": 8501,
      "à¤²à¤Ĺà¤ª": 8502,
      "Ġ505": 8503,
      "Ġ248": 8504,
      "à¤ıà¤ļà¤ıà¤®": 8505,
      "à¤ľà¤ķà¤ª": 8506,
      "à¤ľà¤ķà¤®à¤²": 8507,
      "ĠMG": 8508,
      "ĠMO": 8509,
      "ĠMal": 8510,
      "ĠMadhya": 8511,
      "ĠBar": 8512,
      "ĠBack": 8513,
      "ĠBho": 8514,
      "ĠBusiness": 8515,
      "ĠBMW": 8516,
      "ĠNa": 8517,
      "Ġà¤ıà¤²à¤ıà¤ļà¤¬": 8518,
      "à¤«à¤°à¤µà¤°": 8519,
      "Ġà¤®à¤ķà¤µ": 8520,
      "ĠHard": 8521,
      "ĠHair": 8522,
      "à¤¾):": 8523,
      "ading": 8524,
      "Ġ261": 8525,
      "Ġ2600": 8526,
      "enn": 8527,
      "ĠData": 8528,
      "Ġ239": 8529,
      "Ġ285": 8530,
      "Ġ287": 8531,
      "ĠĠĠĠĠĠĠĠĠĠĠĠĠĠĠĠĠĠĠĠĠ": 8532,
      "Ġà¤¹à¤¸à¤°à¤¤": 8533,
      "Ġà¤¶à¤¬à¤¦": 8534,
      "ĠGl": 8535,
      "icy": 8536,
      "ites": 8537,
      "Ġà¤ıà¤ļà¤ĵà¤¡": 8538,
      "ĠWork": 8539,
      "ĠFile": 8540,
      "ĠFinal": 8541,
      "ĠKund": 8542,
      "Ġà¤Ĩà¤ĩà¤ıà¤¸à¤Ĩà¤ĩ": 8543,
      "ret": 8544,
      "108": 8545,
      "ida": 8546,
      "idd": 8547,
      "urf": 8548,
      "à¤¾''": 8549,
      "à¤¾âĢĻà¥¤": 8550,
      "ĠOm": 8551,
      "ĠODI": 8552,
      "Ġ364": 8553,
      "ila": 8554,
      "una": 8555,
      "'''": 8556,
      "ĠJAM": 8557,
      "Ġ332": 8558,
      "Ġ335": 8559,
      "soft": 8560,
      "ĠIndi": 8561,
      "Ġset": 8562,
      "Ġsub": 8563,
      "Ġsec": 8564,
      "haha": 8565,
      "àª¤": 8566,
      "àª¨": 8567,
      "igs": 8568,
      "à¤Ĳà¤ķ": 8569,
      "à¥ĺà¤¤": 8570,
      "134": 8571,
      "Ġ394": 8572,
      "abh": 8573,
      "abha": 8574,
      "Ġà¤²à¤Łà¤ķà¤¨": 8575,
      "Ġà¤īà¥ľà¤¦": 8576,
      "riy": 8577,
      "Ġdr": 8578,
      "ody": 8579,
      "oph": 8580,
      "ĠRah": 8581,
      "à¤ªà¤¶à¤¹à¤°": 8582,
      "Ġà¤¸à¤¹à¤¨à¤¶": 8583,
      "Ġà¤°à¤¤à¤¨à¤²": 8584,
      "2008": 8585,
      "ocum": 8586,
      "ikas": 8587,
      "ange": 8588,
      "angana": 8589,
      "hatsapp": 8590,
      "ASA": 8591,
      "à°¸": 8592,
      "à°ķ": 8593,
      "ITY": 8594,
      "ĠSamachar": 8595,
      "Ġchannel": 8596,
      "à¤ĩà¤ªà¤°à¤Ł": 8597,
      "ĠAlert": 8598,
      "ĠRecipe": 8599,
      "à¤¨à¤¬à¤°à¤¸": 8600,
      "Ġà¥¨à¥¦à¥§à¥¬": 8601,
      "aily": 8602,
      "ĠOffice": 8603,
      "ĠElections": 8604,
      "à¤ĭà¤£": 8605,
      "ingsman": 8606,
      "oint": 8607,
      "Ġà¤ıà¤¡à¤µà¤°à¤Ł": 8608,
      "ĠClick": 8609,
      "****": 8610,
      "ĠSmackDown": 8611,
      "ujarat": 8612,
      "ĠScheme": 8613,
      "ĠSchool": 8614,
      "ĠSuzuki": 8615,
      "ĠNetwork": 8616,
      "form": 8617,
      "Ġà°¸": 8618,
      "ĠMinister": 8619,
      "ĠMarketing": 8620,
      "ĠAffairs": 8621,
      "ĠBARC": 8622,
      "ĠService": 8623,
      "ĠNSG": 8624,
      "ĠJamshedpur": 8625,
      "Ġà¤®à¤«à¤²à¤°": 8626,
      "ĠMedical": 8627,
      "ĠSeries": 8628,
      "ĠMovie": 8629,
      "ĠðŁĳī": 8630,
      "Ġà¤ħà¤ľà¤°à¤¬": 8631,
      "Ġà¤Īà¤ıà¤¸à¤Ĩà¤Īà¤¸": 8632,
      "ĠDRDO": 8633,
      "Ġà¤¨à¤ľà¤«à¤Ĺà¤¢": 8634,
      "ĠMicrosoft": 8635,
      "Ġetc": 8636,
      "Ġà¤²à¤¹à¤²à¤¹": 8637,
      "ĠNehwal": 8638,
      "ĠWingora": 8639,
      "ĠOctober": 8640,
      "aharashtra": 8641,
      "ĠDEHRADUN": 8642,
      "\")": 8643,
      ")|": 8644,
      ",\"": 8645,
      "122": 8646,
      "221": 8647,
      "899": 8648,
      "BL": 8649,
      "BCCI": 8650,
      "HI": 8651,
      "Hindi": 8652,
      "LP": 8653,
      "Lockdown": 8654,
      "MB": 8655,
      "New": 8656,
      "Pol": 8657,
      "RBI": 8658,
      "Sun": 8659,
      "Saina": 8660,
      "TH": 8661,
      "TT": 8662,
      "WC": 8663,
      "WHO": 8664,
      "Women": 8665,
      "dragon": 8666,
      "fid": 8667,
      "iya": 8668,
      "les": 8669,
      "lig": 8670,
      "ness": 8671,
      "nite": 8672,
      "pra": 8673,
      "res": 8674,
      "ward": 8675,
      "yap": 8676,
      "Ã¼": 8677,
      "Ġra": 8678,
      "Ġà²": 8679,
      "Ġà¤į": 8680,
      "à¤¾]à¥¤": 8681,
      "à¤°à¤ľà¤°": 8682,
      "Ġà¤ķà¤ļà¤¨": 8683,
      "Ġà¤ķà¤ķà¤¡": 8684,
      "Ġà¤ķà¤¸à¤ķà¤°": 8685,
      "à¤ĤâĢĻ": 8686,
      "à¤¨à¤¦à¤¸": 8687,
      "à¤¨à¤¹à¤Ł": 8688,
      "à¤ķà¤ı": 8689,
      "à¤ķà¤¹à¤¤": 8690,
      "à¤ķà¤®à¤¤": 8691,
      "à¤ķà¤®à¤°": 8692,
      "à¤ķà¤®à¤Ĺà¥Ŀ": 8693,
      "à¤¤à¤¨à¤ķ": 8694,
      "à¤¯à¤¸à¤°": 8695,
      "à¤¯à¤ľà¤°": 8696,
      "à¤¯à¤ĺ": 8697,
      "à¤¯à¤µà¤ķ": 8698,
      "Ġà¤¹à¤°à¤£": 8699,
      "Ġà¤¹à¤¯à¤Ĺ": 8700,
      "à¤®à¤¹à¤²": 8701,
      "Ġà¤ªà¤²à¤¤": 8702,
      "Ġà¤ªà¤ŀ": 8703,
      "Ġà¤ªà¤¥à¤®": 8704,
      "à¥ģà¥ģà¤Ĥ": 8705,
      "à¤µà¤¦à¤°": 8706,
      "à¤¦à¤Ńà¤°": 8707,
      "à¤Ĺà¤®à¤²": 8708,
      "à¤Ĺà¤²à¤¯": 8709,
      "Ġà¤¬à¤Ľ": 8710,
      "Ġà¤¬à¤Ńà¤¨": 8711,
      "Ġà¤ľà¤²à¤¯": 8712,
      "à¤Łà¤°à¤¤": 8713,
      "à¤ľà¤ªà¤°": 8714,
      "Ġà¤¦à¤²à¤¬à¤²": 8715,
      "Ġà¤°à¤¯": 8716,
      "Ġà¤°à¤µà¤¨": 8717,
      "Ġà¤°à¤ļà¤¯": 8718,
[...]
