{
  "version": "1.0",
  "truncation": null,
  "padding": null,
  "added_tokens": [
    {
      "id": 0,
      "content": "[UNK]",
      "single_word": false,
      "lstrip": false,
      "rstrip": false,
      "normalized": false,
      "special": true
    },
    {
      "id": 1,
      "content": "[PAD]",
      "single_word": false,
      "lstrip": false,
      "rstrip": false,
      "normalized": false,
      "special": true
    },
    {
      "id": 2,
      "content": "[CLS]",
      "single_word": false,
      "lstrip": false,
      "rstrip": false,
      "normalized": false,
      "special": true
    },
    {
      "id": 3,
      "content": "[SEP]",
      "single_word": false,
      "lstrip": false,
      "rstrip": false,
      "normalized": false,
      "special": true
    },
    {
      "id": 4,
      "content": "[MASK]",
      "single_word": false,
      "lstrip": false,
      "rstrip": false,
      "normalized": false,
      "special": true
    }
  ],
  "normalizer": null,
  "pre_tokenizer": {
    "type": "ByteLevel",
    "add_prefix_space": true,
    "trim_offsets": true,
    "use_regex": true
  },
  "post_processor": null,
  "decoder": null,
  "model": {
    "type": "BPE",
    "dropout": null,
    "unk_token": "[UNK]",
    "continuing_subword_prefix": null,
    "end_of_word_suffix": null,
    "fuse_unk": false,
    "byte_fallback": false,
    "ignore_merges": false,
    "vocab": {
      "[UNK]": 0,
      "[PAD]": 1,
      "[CLS]": 2,
      "[SEP]": 3,
      "[MASK]": 4,
      "!": 5,
      "\"": 6,
      "#": 7,
      "$": 8,
      "%": 9,
      "&": 10,
      "'": 11,
      "(": 12,
      ")": 13,
      "*": 14,
      "+": 15,
      ",": 16,
      "-": 17,
      ".": 18,
      "/": 19,
      "0": 20,
      "1": 21,
      "2": 22,
      "3": 23,
      "4": 24,
      "5": 25,
      "6": 26,
      "7": 27,
      "8": 28,
      "9": 29,
      ":": 30,
      ";": 31,
      "<": 32,
      "=": 33,
      ">": 34,
      "?": 35,
      "@": 36,
      "A": 37,
      "B": 38,
      "C": 39,
      "D": 40,
      "E": 41,
      "F": 42,
      "G": 43,
      "H": 44,
      "I": 45,
      "J": 46,
      "K": 47,
      "L": 48,
      "M": 49,
      "N": 50,
      "O": 51,
      "P": 52,
      "Q": 53,
      "R": 54,
      "S": 55,
      "T": 56,
      "U": 57,
      "V": 58,
      "W": 59,
      "X": 60,
      "Y": 61,
      "Z": 62,
      "[": 63,
      "\\": 64,
      "]": 65,
      "^": 66,
      "_": 67,
      "`": 68,
      "a": 69,
      "b": 70,
      "c": 71,
      "d": 72,
      "e": 73,
      "f": 74,
      "g": 75,
      "h": 76,
      "i": 77,
      "j": 78,
      "k": 79,
      "l": 80,
      "m": 81,
      "n": 82,
      "o": 83,
      "p": 84,
      "q": 85,
      "r": 86,
      "s": 87,
      "t": 88,
      "u": 89,
      "v": 90,
      "w": 91,
      "x": 92,
      "y": 93,
      "z": 94,
      "{": 95,
      "|": 96,
      "}": 97,
      "~": 98,
      "¡": 99,
      "¢": 100,
      "£": 101,
      "¤": 102,
      "¥": 103,
      "¦": 104,
      "§": 105,
      "¨": 106,
      "©": 107,
      "ª": 108,
      "«": 109,
      "¬": 110,
      "®": 111,
      "¯": 112,
      "°": 113,
      "±": 114,
      "²": 115,
      "³": 116,
      "´": 117,
      "µ": 118,
      "¶": 119,
      "·": 120,
      "¸": 121,
      "¹": 122,
      "º": 123,
      "»": 124,
      "¼": 125,
      "½": 126,
      "¾": 127,
      "¿": 128,
      "À": 129,
      "Á": 130,
      "Â": 131,
      "Ã": 132,
      "Ä": 133,
      "Å": 134,
      "Æ": 135,
      "Ç": 136,
      "È": 137,
      "É": 138,
      "Ê": 139,
      "Ë": 140,
      "Ì": 141,
      "Í": 142,
      "Î": 143,
      "Ï": 144,
      "Ð": 145,
      "Ñ": 146,
      "Ò": 147,
      "Ó": 148,
      "Ô": 149,
      "Õ": 150,
      "Ö": 151,
      "×": 152,
      "Ø": 153,
      "Ù": 154,
      "Ú": 155,
      "Û": 156,
      "Ü": 157,
      "Ý": 158,
      "Þ": 159,
      "ß": 160,
      "à": 161,
      "á": 162,
      "â": 163,
      "ã": 164,
      "ä": 165,
      "å": 166,
      "æ": 167,
      "ç": 168,
      "è": 169,
      "é": 170,
      "ê": 171,
      "ë": 172,
      "ì": 173,
      "í": 174,
      "î": 175,
      "ï": 176,
      "ð": 177,
      "ñ": 178,
      "ò": 179,
      "ó": 180,
      "ô": 181,
      "õ": 182,
      "ö": 183,
      "÷": 184,
      "ø": 185,
      "ù": 186,
      "ú": 187,
      "û": 188,
      "ü": 189,
      "ý": 190,
      "þ": 191,
      "ÿ": 192,
      "Ā": 193,
      "ā": 194,
      "Ă": 195,
      "ă": 196,
      "Ą": 197,
      "ą": 198,
      "Ć": 199,
      "ć": 200,
      "Ĉ": 201,
      "ĉ": 202,
      "Ċ": 203,
      "ċ": 204,
      "Č": 205,
      "č": 206,
      "Ď": 207,
      "ď": 208,
      "Đ": 209,
      "đ": 210,
      "Ē": 211,
      "ē": 212,
      "Ĕ": 213,
      "ĕ": 214,
      "Ė": 215,
      "ė": 216,
      "Ę": 217,
      "ę": 218,
      "Ě": 219,
      "ě": 220,
      "Ĝ": 221,
      "ĝ": 222,
      "Ğ": 223,
      "ğ": 224,
      "Ġ": 225,
      "ġ": 226,
      "Ģ": 227,
      "ģ": 228,
      "Ĥ": 229,
      "ĥ": 230,
      "Ħ": 231,
      "ħ": 232,
      "Ĩ": 233,
      "ĩ": 234,
      "Ī": 235,
      "ī": 236,
      "Ĭ": 237,
      "ĭ": 238,
      "Į": 239,
      "į": 240,
      "İ": 241,
      "ı": 242,
      "Ĳ": 243,
      "ĳ": 244,
      "Ĵ": 245,
      "ĵ": 246,
      "Ķ": 247,
      "ķ": 248,
      "ĸ": 249,
      "Ĺ": 250,
      "ĺ": 251,
      "Ļ": 252,
      "ļ": 253,
      "Ľ": 254,
      "ľ": 255,
      "Ŀ": 256,
      "ŀ": 257,
      "Ł": 258,
      "ł": 259,
      "Ń": 260,
      "à¤": 261,
      "à¥": 262,
      "Ġà¤": 263,
      "à¤¾": 264,
      "à¥į": 265,
      "à¤°": 266,
      "à¥ĩ": 267,
      "à¥Ģ": 268,
      "à¤¤": 269,
      "à¤¯": 270,
      "à¤²": 271,
      "à¤¿": 272,
      "à¤¨": 273,
      "à¤Ĥ": 274,
      "à¤ķ": 275,
      "à¤µ": 276,
      "à¤ļ": 277,
      "à¤¸": 278,
      "à¤¹": 279,
      "à¤£": 280,
      "à¥ĭ": 281,
      "Ġà¤ķ": 282,
      "Ġà¤Ĩ": 283,
      "à¤®": 284,
      "à¥ģ": 285,
      "Ġà¤¸": 286,
      "Ġà¤ª": 287,
      "Ġà¤®": 288,
      "à¤¾à¤Ĥ": 289,
      "à¤ª": 290,
      "à¤¦": 291,
      "Ġà¤¤": 292,
      "à¥Ĥ": 293,
      "Ġà¤ħ": 294,
      "à¤Ĺ": 295,
      "à¤Ł": 296,
      "Ġà¤µ": 297,
      "à¤¡": 298,
      "à¤ľ": 299,
      "Ġà¤¯": 300,
      "Ġà¤¹": 301,
      "à¤§": 302,
      "Ġà¤¨": 303,
      "à¤³": 304,
      "Ġà¤¦": 305,
      "à¤¶": 306,
      "à¥ĩ.": 307,
      "Ġà¤Ĩà¤¹": 308,
      "à¤·": 309,
      "à¤¬": 310,
      "Ġà¤ľ": 311,
      "Ġà¤°": 312,
      "Ġà¤¬": 313,
      "Ġà¤ķà¤°": 314,
      "Ġà¤ħà¤¸": 315,
      "Ġà¤¶": 316,
      "à¤ł": 317,
      "Ġà¤Ĺ": 318,
      "Ġà¤²": 319,
      "à¤ĸ": 320,
      "à¤µà¤°": 321,
      "à¤¥": 322,
      "Ġà¤Ń": 323,
      "Ġà¤Ĩà¤£": 324,
      "Ġà¤ļ": 325,
      "Ġà¤ĺ": 326,
      "à¤Ń": 327,
      "Ġà¤ī": 328,
      "Ġà¤ı": 329,
      "à¥Ģ.": 330,
      "Ġà¥": 331,
      "âĢ": 332,
      "Ġà¤Ŀ": 333,
      "à¤°à¤ķ": 334,
      "à¤Ī": 335,
      "à¤¾.": 336,
      "à¤®à¤§": 337,
      "Ġà¤ĸ": 338,
      "à¤¤à¤°": 339,
      "Ġà¤ķà¤°à¤£": 340,
      "Ġà¤ıà¤ķ": 341,
      "Ġà¤«": 342,
      "à¤°à¤¤": 343,
      "Ġà¤Ĩà¤²": 344,
      "à¤¿à¤Ĥ": 345,
      "à¤¢": 346,
      "à¥ī": 347,
      "Ġà¤®à¤¹": 348,
      "Ġà¤Ł": 349,
      "à¤°à¤£": 350,
      "à¤¯à¤ķ": 351,
      "Ġà¤¤à¤°": 352,
      "à¤¹à¤£": 353,
      "Ġà¤ªà¤°": 354,
      "à¤ĺ": 355,
      "à¥ĥ": 356,
      "Ġà¤ĩ": 357,
      "à¥Ī": 358,
      "à¥ĩ,": 359,
      "à¤µà¤¸": 360,
      "à¤°à¤®": 361,
      "Ġà¤ł": 362,
      "à¤ķà¤°": 363,
      "à¥ĩà¤Ĥ": 364,
      "à¥ħ": 365,
      "à¤«": 366,
      "à¤Ĭ": 367,
      "à¥Ģ,": 368,
      "Ġà¤¡": 369,
      "à¤¤à¤²": 370,
      "à¤ķà¤¡": 371,
      "Ġà¤ħà¤¸à¤²": 372,
      "Ġà¤Ĩà¤ª": 373,
      "à¤°à¤µ": 374,
      "à¤ªà¤°": 375,
      "à¥¦": 376,
      "à¥ģà¤Ĥ": 377,
      "à¤±": 378,
      "Ġà¤§": 379,
      "Ġà¤¸à¤°": 380,
      "Ġà¤¸à¤®": 381,
      "Ġà¤ħà¤¨": 382,
      "Ġà¤µà¤°": 383,
      "ĠâĢ": 384,
      "à¤µà¤²": 385,
      "Ġà¤ħà¤¸à¤¤": 386,
      "Ġà¤ķà¤°à¤¤": 387,
      "à¤¾,": 388,
      "Ġà¤ħà¤¶": 389,
      "Ġà¤Ĩà¤ªà¤²": 390,
      "à¤°à¤¸": 391,
      "à¤µà¤£": 392,
      "Ġ(": 393,
      "à¤¯à¤®": 394,
      "à¤Ŀ": 395,
      "Ġà¤īà¤ª": 396,
      "Ġà¤ħà¤§": 397,
      "à¤°à¤ļ": 398,
      "à¤µà¤¤": 399,
      "§à¥": 400,
      "à¥Ģà¤Ĥ": 401,
      "Ġà¤¶à¤ķ": 402,
      "Ġà¤Ĩà¤¤": 403,
      "à¤Ĺà¤²": 404,
      "à¤°à¤²": 405,
      "à¤µà¤¡": 406,
      "à¥Į": 407,
      "..": 408,
      "Ġà¤¨à¤µ": 409,
      "à¤¦à¤°": 410,
      "âĢĻ": 411,
      "Ġà¤Ĩà¤°": 412,
      "à¤·à¤£": 413,
      "à¤¸à¤°": 414,
      "à¤¬à¤°": 415,
      "à¤ı": 416,
      "à¤ģ": 417,
      "à¤ľà¤¨": 418,
      "Ġà¥¨": 419,
      "à¤¡à¤²": 420,
      "à¤Ĺà¤¤": 421,
      "à¤¯à¤¤": 422,
      "à¤Ĺà¤°": 423,
      "Ġ1": 424,
      "ĠâĢĺ": 425,
      "à¤¬à¤¤": 426,
      "Ġà¤¸à¤°à¤ķ": 427,
      "à¤Łà¤²": 428,
      "Ġà¤ªà¤£": 429,
      "à¥ĭ.": 430,
      "Ġà¤Ĩà¤ľ": 431,
      "Ġà¤Ĩà¤®": 432,
      "à¤¬à¤Ī": 433,
      "à¤²à¤¯": 434,
      "à¤°à¤ª": 435,
      "à¤ħ": 436,
      "à¤¹à¤¤": 437,
      "Ġ2": 438,
      "à¤Ĭà¤¨": 439,
      "à¤Łà¤¨": 440,
      "à¤¶à¤¨": 441,
      "à¤Ĥ.": 442,
      "âĢį": 443,
      "à¤ªà¤¨": 444,
      "Ġà¥§à¥": 445,
      "à¤Ĺà¤£": 446,
      "Ġà¤ĳ": 447,
      "à¤Ĩ": 448,
      "à¤°à¤¶": 449,
      "à¤¯à¤ļ": 450,
      "à¤¤à¤ķ": 451,
      "à¤Łà¤°": 452,
      "à¤¯à¤²": 453,
      "à¤ķà¤²": 454,
      "Ġà¤®à¤§": 455,
      "Ġà¤īà¤¤": 456,
      "à¤µà¤³": 457,
      "à¤¸à¤²": 458,
      "à¤Īà¤²": 459,
      "à¤¹à¤°": 460,
      "Ġà¤¤à¤¸": 461,
      "à¤Łà¤ķ": 462,
      "Ġà¤Ĩà¤¯": 463,
      "à¤Ĺà¤³": 464,
      "à¥įâĢį": 465,
      "à¤¸à¤¨": 466,
      "Ġà¤¥": 467,
      "Ġà¤¸à¤¹": 468,
      "Ġà¤¶à¤ķà¤¤": 469,
      "Ġ:": 470,
      "à¤¦à¤²": 471,
      "à¤®à¤ļ": 472,
      "Ġà¤ķà¤®": 473,
      "Ġà¤ħà¤°": 474,
      "à¤ľà¤ª": 475,
      "à¤²à¤ķ": 476,
      "à¤¨à¤ļ": 477,
      "Ġà¤ĺà¤°": 478,
      "Ġà¤ħà¤Ń": 479,
      "à¤°à¤¦": 480,
      "Ġà¤īà¤¦": 481,
      "à¥ĭà¤Ĥ": 482,
      "à¤ªà¤£": 483,
      "à¤¸à¤¤": 484,
      "Ġà¤¹à¤ľ": 485,
      "à¤ªà¤¯": 486,
      "à¤²à¤¨": 487,
      "Ġà¤ĵ": 488,
      "à¤®à¤¨": 489,
      "Ġ'": 490,
      "à¤®à¤¤": 491,
      "Ġà¤®à¤¨": 492,
      "Ġà¤Ĩà¤µ": 493,
      "Ġà¤ªà¤¦": 494,
      "à¤ĩ": 495,
      "Ġà¤ĸà¤°": 496,
      "Ġà¤ªà¤ķ": 497,
      "à¤ĸà¤²": 498,
      "à¤¹à¤£à¤ľ": 499,
      "Ġà¤ªà¤¹": 500,
      "à¤³à¤¤": 501,
      "à¤ªà¤¤": 502,
      "Ġà¤¦à¤°": 503,
      "à¤¡à¤£": 504,
      "à¤¸à¤¹": 505,
      "Ġà¤®à¤¤": 506,
      "à¤¾à¤ģ": 507,
      "à¤µà¤¨": 508,
      "à¤¸à¤ļ": 509,
      "à¤°à¤ľ": 510,
      "Ġà¤ªà¤¤": 511,
      "à¤°à¤ĸ": 512,
      "à¤£à¤¤": 513,
      "à¤¨à¤²": 514,
      "à¥¨": 515,
      "Ġ-": 516,
      "Ġà¤®à¤²": 517,
      "à¤µà¤¡à¤£": 518,
      "Ġà¤ħà¤®": 519,
      "Ġà¤²à¤ķ": 520,
      "Ġà¤Ĩà¤ªà¤£": 521,
      "à¤·à¤ķ": 522,
      "Ġà¤ľà¤¨": 523,
      "Ġà¤ħà¤¤": 524,
      "Ġà¥¨à¥¦": 525,
      "à¤¯à¤¦": 526,
      "à¤ľà¤¯": 527,
      "à¤¤à¤ļ": 528,
      "à¤¬à¤¦": 529,
      "à¤¯à¤¨": 530,
      "à¤°à¤¨": 531,
      "à¥«": 532,
      "à¤£à¤¯": 533,
      "Ġà¤ħà¤ª": 534,
      "Ġà¤¶à¤¹à¤°": 535,
      "à¤¦à¤¨": 536,
      "Ġà¤Ľ": 537,
      "Ġà¤¸à¤¤": 538,
      "à¤°à¤ķà¤°à¤£": 539,
      "à¤ľà¤ķ": 540,
      "Ġà¤ķà¤²": 541,
      "à¤¹à¤¨": 542,
      "à¤ĵ": 543,
      "Ġà¤®à¤°": 544,
      "Ġà¥©": 545,
      "à¤³à¤£": 546,
      "à¤¨à¤¸": 547,
      "Ġà¤¤à¤¯": 548,
      "à¤¦à¤¤": 549,
      "à¤ķà¤¤": 550,
      "à¤ľà¤°": 551,
      "à¤ķà¤¸": 552,
      "Ġ20": 553,
      "Ġà¤¹à¤µ": 554,
      "ĠâĢĵ": 555,
      "à¤ŀ": 556,
      "à¤¯à¤µà¤¸": 557,
      "Ġà¤ļà¤°": 558,
      "à¤¤à¤µ": 559,
      "Ġà¥§": 560,
      "Ġà¤Ĩà¤¦": 561,
      "à¤¾-": 562,
      "à¤Ńà¤°": 563,
      "à¤®à¤ķ": 564,
      "à¤²à¤¤": 565,
      "Ġà¤ĺà¤Łà¤¨": 566,
      "Ġà¤¸à¤§": 567,
      "à¤Ľ": 568,
      "à¥§à¥": 569,
      "Ġà¤®à¤¹à¤¤": 570,
      "à¤ħà¤°": 571,
      "Ġà¤¬à¤°": 572,
      "à¤°à¤ªà¤Ł": 573,
      "Ġà¤Ĩà¤§": 574,
      "Ġà¤ħà¤ľ": 575,
      "Ġ3": 576,
      "à¤¡à¤¤": 577,
      "à¤°à¤¯à¤¤": 578,
      "Ġà¤¨à¤ķ": 579,
      "à¤§à¤µ": 580,
      "à¤§à¤¨": 581,
      "Ġà¤¦à¤°à¤®": 582,
      "à¤ķà¤°à¤£": 583,
      "à¤·à¤¯": 584,
      "Ġà¤Łà¤ķ": 585,
      "à¤ļà¤²": 586,
      "à¤¹à¤Łà¤²": 587,
      "Ġà¤ªà¤µ": 588,
      "à¤¡à¤ķ": 589,
      "Ġà¤ķà¤¸": 590,
      "à¤³à¤²": 591,
      "à¤²à¤ļ": 592,
      "Ġà¤°à¤¸": 593,
      "Ġà¤ľà¤°": 594,
      "à¤¢à¤²": 595,
      "à¥ª": 596,
      "à¤²à¤¬": 597,
      "Ġà¤¸à¤ķ": 598,
      "Ġà¤Ĩà¤ł": 599,
      "Ġà¤¬à¤¦à¤²": 600,
      "Ġà¤ĩà¤¤à¤°": 601,
      "Ġà¤®à¤¦à¤¤": 602,
      "Ġà¤ľà¤®": 603,
      "à¤¢à¤¤": 604,
      "...": 605,
      "à¤¤à¤®": 606,
      "Ġà¥«": 607,
      "à¤ļà¤¨": 608,
      "à¥§": 609,
      "à¤¤à¤ª": 610,
      "à¤¡à¤ļ": 611,
      "à¤µà¤ļ": 612,
      "à¥©": 613,
      "à¤¹à¤®": 614,
      "à¤¯à¤µ": 615,
      "à¤¬à¤²": 616,
      "à¤¸à¤®": 617,
      "Ġà¥ª": 618,
      "Ġ\"": 619,
      "à¤°à¤§": 620,
      "à¤¦à¤µ": 621,
      "à¤¨à¤µ": 622,
      "à¥¯": 623,
      "à¤¡à¤³": 624,
      "à¤ªà¤²": 625,
      "à¤ªà¤¦": 626,
      "à¥®": 627,
      "à¤Łà¤ļ": 628,
      "à¤°à¤¹": 629,
      "à¤Łà¤¤": 630,
      "à¥¬": 631,
      "à¤ĥ": 632,
      "Ġà¤ªà¤¡à¤²": 633,
      "Ġà¤ħà¤¸à¤£": 634,
      "Ġà¤¤à¤ª": 635,
      "Ġà¤¨à¤¸à¤²": 636,
      "Ġ5": 637,
      "à¥Ń": 638,
      "à¤ī": 639,
      "à¤µà¤ķ": 640,
      "Ġà¤īà¤ªà¤¸": 641,
      "Ġà¤¸à¤Ĺà¤³": 642,
      "à¤Ĺà¤¦": 643,
      "Ġà¤®à¤¤à¤¦": 644,
      "à¤§à¤¤": 645,
      "Ġà¤ľà¤£": 646,
      "Ġà¤µà¤¸": 647,
      "ĠĠ": 648,
      "à¤²à¤Ĺ": 649,
      "Ġà¤¬à¤¸": 650,
      "Ġà¤²à¤Ĺ": 651,
      "à¤µà¤¯": 652,
      "Ġà¤Ĩà¤¶": 653,
      "à¤ķà¤£": 654,
      "Ġà¤ľà¤Ĺ": 655,
      "Ġà¤īà¤®": 656,
      "Ġà¤Ķ": 657,
      "à¤µà¤¶": 658,
      "Ġà¤Ĺà¤°à¤ľ": 659,
      "à¤¸à¤ķ": 660,
      "à¤¶à¤²": 661,
      "Ġà¤īà¤Ń": 662,
      "Ġ4": 663,
      "à¥¦à¥¦": 664,
      "Ġà¤ķà¤§": 665,
      "à¤°à¤Ń": 666,
      "Ġà¤¦à¤¹": 667,
      "Ġà¤¬à¤¹": 668,
      "à¤Ĺà¤¡": 669,
      "Ġà¤Ĺà¤°": 670,
      "à¤§à¤ķ": 671,
      "à¤¨à¤¹": 672,
      "Ġà¤Ĩà¤µà¤¶": 673,
      "à¥Ģ-": 674,
      "à¥ĭ,": 675,
      "à¤ľà¤²": 676,
      "à¤¸à¤¦": 677,
      "à¥ī.": 678,
      "Ġà¤Ĩà¤®à¤¦": 679,
      "Ġà¤ħà¤²": 680,
      "Ġà¤Ĩà¤ķ": 681,
      "Ġà¤°à¤ķ": 682,
      "à¥Ĥà¤Ĥ": 683,
      "à¤ªà¤·": 684,
      "Ġà¤¶à¤°": 685,
      "Ġà¤²à¤¸": 686,
      "à¤Īà¤¨": 687,
      "Ġà¤ħà¤µ": 688,
      "à¤®à¤Ĺ": 689,
      "Ġà¤Ĳ": 690,
      "à¤¯à¤¸": 691,
      "00": 692,
      "Ġà¤Ĩà¤®à¤ļ": 693,
      "à¤¨à¤ķ": 694,
      "Ġà¤ľà¤µà¤³": 695,
      "Ġà¤¸à¤¦": 696,
      "à¤¾?": 697,
      "à¤³à¤µ": 698,
      "à¤łà¤ķ": 699,
      "Ġà¤ıà¤®": 700,
      "à¤Ĺà¤µ": 701,
      "à¤²à¤µ": 702,
      "à¤¤à¤¨": 703,
      "Ġà¥§à¥¯": 704,
      "Ġà¤ķà¤ª": 705,
      "Ġà¤¯à¤¶": 706,
      "Ġà¤Ĩà¤¢": 707,
      "à¤Ĥ,": 708,
      "à¤ªà¤ķ": 709,
      "à¤ıà¤¸": 710,
      "à¤¹à¤£à¤¤": 711,
      "Ġà¤®à¤Ĺ": 712,
      "à¤Ńà¤µ": 713,
      "Ġà¤Ĩà¤Ĺ": 714,
      "à¤¨à¤°": 715,
      "à¤·à¤¦": 716,
      "Ġà¤īà¤ªà¤²à¤¬": 717,
      "Ġà¤ĩà¤¤à¤ķ": 718,
      "âĢ¦": 719,
      "à¤¤à¤ķà¤±": 720,
      "à¤ķà¤¶": 721,
      "à¤¤à¤¹": 722,
      "à¥Ł": 723,
      "Ġ,": 724,
      "Ġà¤ıà¤ķà¤¦": 725,
      "à¤ĺà¤Łà¤¨": 726,
      "à¤¸à¤±": 727,
      "à¤ªà¤Ł": 728,
      "Ġà¤ĳà¤«": 729,
      "à¤¯à¤°": 730,
      "Ġà¤«à¤ķ": 731,
      "à¤¢à¤£": 732,
      "Ġà¤ħà¤ķ": 733,
      "Ġà¤¹à¤²": 734,
      "à¤Ĩà¤¯": 735,
      "à¤ľà¤¤": 736,
      "Ġà¤¬à¤¨": 737,
      "à¤ķà¤Ł": 738,
      "à¤µà¤¢": 739,
      "Ġà¥¬": 740,
      "à¤¯à¤ķà¤°": 741,
      "à¤µà¤ķà¤°": 742,
      "Ġà¤ªà¤°à¤¤": 743,
      "ĠâĢľ": 744,
      "Ġà¤¨à¤°": 745,
      "à¤¤à¤³": 746,
      "Ġà¤§à¤°": 747,
      "Ġà¤īà¤ªà¤ļ": 748,
      "à¤¡à¤µ": 749,
      "Ġà¤¸à¤²": 750,
      "Ġà¥¨à¥¦à¥§à¥": 751,
      "Ġà¤¨à¤¯": 752,
      "Ġà¤Ńà¤°": 753,
      "à¤ļà¤°": 754,
      "à¤¬à¤Īà¤¤": 755,
      "Ġà¤¬à¤ĺ": 756,
      "Ġà¤°à¤µ": 757,
      "à¤®à¤µ": 758,
      "à¤¶à¤ķ": 759,
      "Ġà¥Ń": 760,
      "Ġà¤īà¤²": 761,
      "Ġà¤Ĩà¤¨": 762,
      "à¤¸à¤£": 763,
      "à¤µà¤°à¤£": 764,
      "Ġà¤ħà¤Łà¤ķ": 765,
      "à¤łà¤²": 766,
      "à¤¬à¤³": 767,
      "Ġà¤ĵà¤³": 768,
      "à¤¤à¤ķà¤°": 769,
      "Ġà¤¸à¤Ń": 770,
      "à¤¨à¤Ĺà¤°": 771,
      "Ġà¤Ĺà¤£": 772,
      "à¤²à¤²": 773,
      "Ġ6": 774,
      "à¤ĸà¤°": 775,
      "Ġà¤ıà¤¸": 776,
      "Ġà¤ıà¤ĸ": 777,
      "à¤²à¤£": 778,
      "à¤ıà¤®": 779,
      "à¤¶à¤¯": 780,
      "à¤¯à¤ª": 781,
      "Ġà¤ħà¤ĸ": 782,
      "Ġà¤ľà¤¨à¤¤": 783,
      "Ġà¤¤à¤ķ": 784,
      "Ġà¤Ĩà¤£à¤ĸ": 785,
      "à¤µà¤ª": 786,
      "Ġà¤ĺà¤¡à¤²": 787,
      "à¤£à¤¸": 788,
      "à¤¨à¤Ĺ": 789,
      "à¤¿.": 790,
      "Ġà¤Ī": 791,
      "Ġà¤Ĩà¤ĺ": 792,
      "à¤¥à¤®": 793,
      "Ġà¥®": 794,
      "--": 795,
      "à¤¸à¤µ": 796,
      "à¤ķà¤ļ": 797,
      "à¤µà¤Ń": 798,
      "à¤¤à¤¤": 799,
      "à¤Ĺà¤ļ": 800,
      "à¤ľà¤ªà¤ļ": 801,
      "Ġà¥§à¥¦": 802,
      "à¤ļà¤£": 803,
      "à¥Ģ)": 804,
      "à¤Łà¤£": 805,
      "à¤¨à¤®à¤§": 806,
      "à¤µà¤Ł": 807,
      "Ġà¤Ĩà¤Ī": 808,
      "à¤ķà¤¨": 809,
      "Ġà¤ħà¤¹": 810,
      "Ġà¤īà¤ĺ": 811,
      "Ġà¤ĳà¤ķ": 812,
      "Ġà¤²à¤µà¤ķà¤°": 813,
      "âĢĿ": 814,
      "Ġà¤łà¤°à¤²": 815,
      "Ġà¤ĩà¤¥": 816,
      "Ġà¤īà¤ļ": 817,
      "à¤¹à¤ķ": 818,
      "à¤¨à¤¸à¤Ń": 819,
      "Ġ201": 820,
      "Ġ7": 821,
      "à¤°à¤ķà¤²": 822,
      "à¤µà¤§": 823,
      "Ġà¤¨à¤¸à¤¤": 824,
      "Ġ.": 825,
      "Ġà¤µà¤¡": 826,
      "à¤¾âĢĻ": 827,
      "à¤®à¤²": 828,
      "à¤¡à¤¸": 829,
      "Ġà¤²à¤¹": 830,
      "à¤°à¤®à¤§": 831,
      "à¤Łà¤®à¤§": 832,
      "à¤µà¤°à¤ļ": 833,
      "Ġà¤ħà¤¦": 834,
      "Ġà¤ľà¤¬": 835,
      "à¤¨à¤¨": 836,
      "à¤Ĺà¤¸": 837,
      "Ġà¤¸à¤ļ": 838,
      "à¤¥à¤³": 839,
      "Ġà¤ªà¤°à¤µ": 840,
      "à¤ķà¤®": 841,
      "Ġà¤¶à¤¬": 842,
      "Ġà¤ĩà¤®": 843,
      "à¤ķà¤¦": 844,
      "Ġà¤¬à¤¸à¤²": 845,
      "Ġà¤ķà¤¶": 846,
      "Ġà¥¯": 847,
      "à¤ĩà¤¨": 848,
      "Ġ8": 849,
      "Ġà¤¸à¤¦à¤¸": 850,
      "Ġà¤¨à¤¸": 851,
      "Ġà¤ªà¤¡à¤¤": 852,
      "Ġà¤ĳà¤¨à¤²": 853,
      "à¤¬à¤¤à¤ļ": 854,
      "Ġà¤µà¤ķ": 855,
      "à¤²à¤°": 856,
      "à¤®à¤¦": 857,
      "Ġà¤¢": 858,
      "à¤Ĺà¤ª": 859,
      "à¤³à¤ľ": 860,
      "à¤µà¤ľ": 861,
      "à¤®à¤¸": 862,
      "Ġ10": 863,
      "à¤¡à¤£à¤µ": 864,
      "Ġà¤¸à¤¹à¤ķ": 865,
      "à¤¥à¤ķ": 866,
      "à¤ªà¤ļ": 867,
      "Ġà¤¸à¤®à¤ľ": 868,
      "à¤¡à¤°": 869,
      "Ġà¤ĩà¤¨": 870,
      "Ġà¤ıà¤ķà¤¤": 871,
      "à¥ĢâĢĻ": 872,
      "Ġà¤«à¤¡à¤£à¤µ": 873,
      "Ġà¤§à¤ķ": 874,
      "Ġà¤ªà¤¸": 875,
      "),": 876,
      "Ġà¤ªà¤¡": 877,
      "à¤§à¤°": 878,
      "Ġ9": 879,
      "à¤ĺà¤°": 880,
      "an": 881,
      "Ġà¤īà¤¡": 882,
      "Ġà¤¸à¤¹à¤Ń": 883,
      "à¤¸à¤®à¤§": 884,
      "à¤®à¤°": 885,
      "Ġà¤Ĩà¤łà¤µà¤¡": 886,
      "Ġà¤¸à¤ª": 887,
      "Ġà¤ĩà¤¤": 888,
      "à¤§à¤²": 889,
      "Ġà¤ħà¤Ĺà¤¦": 890,
      "à¤Łà¤µà¤°": 891,
      "à¤Īà¤ķ": 892,
      "Ġà¤¹à¤¤": 893,
      "Ġà¤ħà¤¡": 894,
      "Ġà¤¨à¤Ĺà¤°": 895,
      "à¤łà¤µ": 896,
      "à¤°à¤¯": 897,
      "Ġà¤Ĩà¤°à¤ķ": 898,
      "Ġà¤ļà¤µ": 899,
      "Ġà¤¶à¤°à¤¦": 900,
      "Ġà¤¸à¤®à¤¸": 901,
      "Ġà¤µà¤¯": 902,
      "âĢįà¥ħ": 903,
      "++": 904,
      "à¤°à¤Ĺ": 905,
      "à¤Ĭà¤¸": 906,
      "Ġà¤Ĩà¤µà¤¡": 907,
      "Ġà¤ıà¤µà¤¢": 908,
      "à¤ļà¤µ": 909,
      "Ġà¤¦à¤²": 910,
      "Ġà¤®à¤ľ": 911,
      "Ġà¤ªà¤Ł": 912,
      "Ġà¥§à¥«": 913,
      "à¤³à¤Ĺ": 914,
      "à¤ľà¤µà¤³": 915,
      "à¤Ĺà¤¨": 916,
      "à¤¡à¤ķà¤°": 917,
      "Ġà¤°à¤¹": 918,
      "à¤¹à¤²": 919,
      "Ġà¤¸à¤¨": 920,
      "in": 921,
      "Ġà¤¤à¤¤": 922,
      "ar": 923,
      "à¤¸à¤Ĺ": 924,
      "Ġà¤ĵà¤³à¤ĸ": 925,
      "Ġà¤²à¤¢": 926,
      "Ġà¤ħà¤¹à¤µ": 927,
      "Ġà¤ĩà¤ļ": 928,
      "à¤ľà¤Ĺ": 929,
      "à¤Ĩà¤°": 930,
      "à¤ķà¤¸à¤Ń": 931,
      "20": 932,
      "à¤Łà¤ª": 933,
      "à¤·à¤§": 934,
      "Ġà¤ªà¤¶": 935,
      "à¤¤à¤¸": 936,
      "à¥ĩ?": 937,
      "Ġà¤łà¤°à¤µ": 938,
      "à¤²à¤®à¤§": 939,
      "Ġà¤¹à¤¸": 940,
      "à¤Īà¤Ł": 941,
      "à¤ķà¤ª": 942,
      "Ġà¤Ķà¤·à¤§": 943,
      "Ġà¤¤à¤¬": 944,
      "==": 945,
      "à¤¸à¤ª": 946,
      "Ġà¤ħà¤Ĺ": 947,
      "à¤ľà¤µ": 948,
      "à¤ľà¤ļ": 949,
      "à¤¥à¤µ": 950,
      "Ġà¤¸à¤µ": 951,
      "à¤¬à¤¸": 952,
      "à¤ľà¤¸": 953,
      "Ġà¤Ĺà¤Ł": 954,
      "à¤®à¤ª": 955,
      "Ġà¤Ńà¤µ": 956,
      "à¤¡à¤®à¤§": 957,
      "Ġà¤¹à¤°": 958,
      "à¤¤à¤µà¤£": 959,
      "on": 960,
      "Ġà¤¨à¤Ĺ": 961,
      "Ġà¤łà¤°": 962,
      "Ġà¤¶à¤¹": 963,
      "à¤ĸà¤®": 964,
      "Ġ19": 965,
      "Ġà¥§à¥¨": 966,
      "Ġà¤¨à¤¦": 967,
      "à¤¤à¤¦": 968,
      "à¤¦à¤°à¤®": 969,
      "à¤¶à¤®": 970,
      "Ġà¤ıà¤ª": 971,
      "à¤®à¤£": 972,
      "Ġà¤ļà¤ķ": 973,
      "à¥¨à¥¦": 974,
      "Ġ...": 975,
      "à¤°à¤µà¤ł": 976,
      "à¤®à¤¹à¤¤": 977,
      "Ġ?": 978,
      "à¤³à¤ķ": 979,
      "à¤ĸà¤µ": 980,
      "à¤Ĩà¤§": 981,
      "Ġà¤Łà¤ª": 982,
      "Ġà¤ıà¤¨": 983,
      "Ġà¤īà¤¤à¤°": 984,
      "Ġà¤ıà¤ķà¤®": 985,
      "à¤¡à¤ļà¤£": 986,
      "à¤¡à¤¨": 987,
      "Ġà¤ħà¤ªà¤ĺ": 988,
      "Ġà¤Ĩà¤£à¤²": 989,
      "à¤ĸà¤£": 990,
      "à¤¹à¤³": 991,
      "Ġà¤ľà¤¯": 992,
      "Ġ15": 993,
      "Ġà¤ħà¤¡à¤ļà¤£": 994,
      "à¤·à¤¤": 995,
      "à¤ķà¤³": 996,
      "Ġà¤¦à¤¹à¤¶": 997,
      "à¥ĩ-": 998,
      "at": 999,
      "à¤¦à¤ķ": 1000,
      "à¤ľà¤£": 1001,
      "à¤°à¤¦à¤°": 1002,
      "à¤¨à¤¦": 1003,
      "à¤¡à¤ª": 1004,
      "à¤§à¤£": 1005,
      "Ġà¤ľà¤ĸà¤®": 1006,
      "à¤°à¤ªà¤¤": 1007,
      "or": 1008,
      "Ġà¤Ĩà¤ķà¤¡": 1009,
      "à¤³à¤µà¤²": 1010,
      "Ġà¤ľà¤ª": 1011,
      "Ġà¤§à¤¨": 1012,
      "Ġà¤ķà¤¡": 1013,
      "Ġà¤¬à¤ļ": 1014,
      "Ġà¤®à¤¨à¤¸": 1015,
      "à¤ľà¤®": 1016,
      "à¤«à¤¤": 1017,
      "Ġà¤ĩà¤¶": 1018,
      "Ġà¤īà¤ªà¤¯": 1019,
      "à¤²à¤¦": 1020,
      "Ġà¤Ĩà¤ľà¤ļ": 1021,
      "à¤Łà¤®": 1022,
      "Ġà¤°à¤¦": 1023,
      "Ġà¤ħà¤ļ": 1024,
      "à¤¡à¤Ĺ": 1025,
      "Ġ12": 1026,
      "Ġà¤¦à¤ķ": 1027,
      "à¤Ĭà¤¤": 1028,
      "er": 1029,
      "Ġà¤¨à¤®": 1030,
      "à¤°à¤¬": 1031,
      "Ġà¤¶à¤¨": 1032,
      "Ġà¤Ĩà¤£à¤£": 1033,
      "à¤²à¤¸": 1034,
      "à¤°à¤µà¤°": 1035,
      "à¤¹à¤£à¤£": 1036,
      "à¤ķà¤µ": 1037,
      "à¥Ĥ,": 1038,
      "à¤¤à¤°à¤°": 1039,
      "à¤Łà¤¸": 1040,
      "à¤¾'": 1041,
      "Ġà¤ķà¤¨": 1042,
      "à¤Īà¤ļ": 1043,
      "Ġà¤µà¤¨": 1044,
      "à¤°à¤³": 1045,
      "Ġà¤¬à¤³": 1046,
      "à¤ªà¤®": 1047,
      "Ġà¤¦à¤¹à¤¶à¤¤à¤µ": 1048,
      "Ġà¤ĳà¤Ĺà¤¸": 1049,
      "Ġà¤ıà¤®à¤ª": 1050,
      "ĠĠĠĠ": 1051,
      "Ġà¤®à¤¸": 1052,
      "Ġà¤¨à¤Ĺà¤°à¤¸": 1053,
      "à¤°à¤¥à¤®": 1054,
      "à¤Ĺà¤³à¤µ": 1055,
      "Ġà¤īà¤°": 1056,
      "Ġà¤ķà¤ł": 1057,
      "à¤¢à¤µ": 1058,
      "ĠM": 1059,
      "Ġà¤«à¤²": 1060,
      "Ġà¤Ĭ": 1061,
      "Ġà¤īà¤¨": 1062,
      "Ġà¤ĳà¤¸": 1063,
      "Ġà¤¸à¤®à¤°": 1064,
      "Ġ|": 1065,
      "à¤¯à¤°à¤²": 1066,
      "Ġà¤¬à¤²": 1067,
      "à¤ıà¤²": 1068,
      "Ġà¥§à¥®": 1069,
      "Ġà¤ľà¤µà¤³à¤ª": 1070,
      "Ġà¤§à¤°à¤£": 1071,
      "Ġà¤Ķà¤°": 1072,
      "Ġà¤ħà¤«": 1073,
      "à¤¯à¤µà¤¹": 1074,
      "Ġà¤ķà¤µ": 1075,
      "ĠS": 1076,
      "à¤·à¤®à¤¤": 1077,
      "Ġà¤ĺà¤¡": 1078,
      "à¤°à¤¡": 1079,
      "Ġ!": 1080,
      "à¤¬à¤µ": 1081,
      "à¤Ĺà¤¦à¤°": 1082,
      "al": 1083,
      "à¤Łà¤«": 1084,
      "à¤°à¤ķà¤°": 1085,
      "à¤¯à¤£": 1086,
      "Ġà¤ķà¤¥": 1087,
      "ĠP": 1088,
      "à¤¬à¤°à¤ļ": 1089,
      "Ġà¤ªà¤¥à¤ķ": 1090,
      "Ġà¤²à¤µà¤ķà¤°à¤ļ": 1091,
      "à¥īà¤Ĥ": 1092,
      "à¤¶à¤µ": 1093,
      "ĠC": 1094,
      "Ġà¤ĩà¤¸": 1095,
      "ĠR": 1096,
      "à¤¹à¤¸": 1097,
      "à¤ªà¤¡à¤²": 1098,
      "à¤®à¤¹": 1099,
      "Ġà¤¬à¤ľ": 1100,
      "à¤¥à¤¨": 1101,
      "Ġà¥¨à¥¦à¥¦": 1102,
      "Ġà¥¨à¥«": 1103,
      "à¤ĸà¤¤": 1104,
      "----": 1105,
      "à¤³à¤µà¤£": 1106,
      "à¤Ŀà¤°": 1107,
      "Ġà¤¶à¤ķà¤²": 1108,
      "à¤¨à¤¤": 1109,
      "à¤ļà¤ķ": 1110,
      "Ġà¤¬à¤¨à¤µ": 1111,
      "Ġà¤ķà¤¦": 1112,
      "Ġà¤¯à¤¶à¤¸": 1113,
      "à¤ªà¤°à¤²": 1114,
      "Ġà¤ľà¤µ": 1115,
      "à¤µà¤ľà¤¨": 1116,
      "....": 1117,
      "à¤¹à¤°à¤£": 1118,
      "Ġ11": 1119,
      "à¤¨à¤®": 1120,
      "Ġà¤ħà¤¬": 1121,
      "Ġà¥§à¥ª": 1122,
      "à¤¸à¤µà¤°": 1123,
      "Ġà¤¹à¤³": 1124,
      "à¤¶à¤¨à¤ļ": 1125,
      "Ġà¤īà¤ĺà¤¡": 1126,
      "Ġà¤µà¤¤": 1127,
      "Ġà¥©à¥¦": 1128,
      "Ġà¤Ĩà¤¢à¤³à¤²": 1129,
      "es": 1130,
      "à¤ıà¤¨": 1131,
      "Ġà¤Ĩà¤¯à¤ª": 1132,
      "Ġà¥§à¥§": 1133,
      "Ġà¤łà¤°à¤¤": 1134,
      "Ġà¤°à¤£": 1135,
      "à¥Ģ'": 1136,
      "à¤¦à¤£": 1137,
      "Ġà¤ħà¤µà¤ĺ": 1138,
      "Ġà¤ĺà¤Łà¤ķ": 1139,
      "Ġà¤ªà¤ķà¤¡": 1140,
      "à¤¸à¤³": 1141,
      "Ġà¤ªà¤¡à¤£": 1142,
      "Ġ14": 1143,
      "à¤¯à¤°à¤¸": 1144,
      "à¤¤à¤¡": 1145,
      "Ġà¤īà¤ªà¤ķ": 1146,
      "à¤ªà¤¸": 1147,
      "à¤ıà¤«": 1148,
      "Ġ)": 1149,
      "à¤²à¤ķà¤°": 1150,
      "Ġà¤Ńà¤°à¤¤": 1151,
      "à¥Ģ?": 1152,
      "Ġà¤Ľà¤¤": 1153,
      "à¤ĸà¤µà¤²": 1154,
      "à¤Łà¤µ": 1155,
      "à¤°à¤ķà¤¡": 1156,
      "à¤ªà¤¡": 1157,
      "à¤µà¤°à¤¹": 1158,
      "à¤¼": 1159,
      "Ġà¤īà¤ļà¤²": 1160,
      "Ġà¤«à¤°": 1161,
      "Ġà¤«à¤³": 1162,
      "Ġà¥«à¥¦": 1163,
      "à¤ļà¤µà¤¡": 1164,
      "à¤¨à¤ª": 1165,
      "à¤¦à¤³": 1166,
      "à¤¤à¤ªà¤£": 1167,
      "ĠA": 1168,
      "à¤µà¤Łà¤ļ": 1169,
      "à¤£à¤ªà¤£": 1170,
      "Ġà¥§à¥¬": 1171,
      "à¤¾)": 1172,
      "à¤¸à¤¬": 1173,
      "à¤°à¤®à¤£": 1174,
      "à¤¥à¤²": 1175,
      "Ġ25": 1176,
      "à¤¯à¤¯": 1177,
      "à¤³à¤ļ": 1178,
      "à¤¢à¤ļ": 1179,
      "à¤ĸà¤¨": 1180,
      "Ġà¤¤à¤¥": 1181,
      "Ġà¤Ĺà¤¡": 1182,
      "à¤°à¤µà¤£": 1183,
      "à¤¶à¤Ńà¤°": 1184,
      "Ġà¤¹à¤ķ": 1185,
      "à¤¾!": 1186,
      "à¤łà¤µà¤²": 1187,
      "Ġà¤«à¤Łà¤ķ": 1188,
      "à¤Łà¤°à¤¨": 1189,
      "Ġà¤Ĩà¤¢à¤³": 1190,
      "Ġà¤Ĳà¤ķ": 1191,
      "Ġà¥¨à¥ª": 1192,
      "Ġà¤¤à¤¶": 1193,
      "à¤ĩà¤²": 1194,
      "à¤£à¤ķ": 1195,
      "Ġ18": 1196,
      "Ġ30": 1197,
      "Ġà¤¤à¤³": 1198,
      "Ġà¤Ńà¤°à¤ª": 1199,
      "21": 1200,
      "Ġà¤¬à¤¨à¤²": 1201,
      "à¥ĩâĢĻ": 1202,
      "à¤Ĺà¤®": 1203,
      "à¤·à¤®": 1204,
      "Ġà¤Ńà¤°à¤²": 1205,
      "à¤¬à¤Īà¤ļ": 1206,
      "Ġà¤ķà¤Ł": 1207,
      "à¤Ĳ": 1208,
      "Ġà¥§à¥©": 1209,
      "à¤¦à¤ļ": 1210,
      "Ġà¤ľà¤Ĺà¤Ńà¤°": 1211,
      "à¤²à¤®": 1212,
      "Ġà¤¸à¤¤à¤¤": 1213,
      "Ġà¤ķà¤³": 1214,
      "Ġà¤¦à¤°à¤µ": 1215,
      "à¤¬à¤¡": 1216,
      "à¤¸à¤¸": 1217,
      "Ġà¤¦à¤¤": 1218,
      "à¤°à¤¥": 1219,
      "Ġà¤ħà¤µà¤¸": 1220,
      "à¤¤à¤°à¤£": 1221,
      "en": 1222,
      "Ġ24": 1223,
      "à¤¯à¤Ł": 1224,
      "Ġà¤ħà¤¹à¤®": 1225,
      "ad": 1226,
      "Ġà¥§à¥Ń": 1227,
      "ĠI": 1228,
      "à¥ĩ)": 1229,
      "à¥ģ,": 1230,
      "Ġà¤Ĩà¤¸": 1231,
      "à¤ļà¤¤": 1232,
      "à¤¯à¤¬": 1233,
      "à¤£à¤§": 1234,
      "Ġà¤ķà¤ªà¤¡": 1235,
      "Ġà¤ĸà¤¡": 1236,
      "Ġà¤ªà¤°à¤¦": 1237,
      "++++": 1238,
      "Ġà¤ĭ": 1239,
      "Ġà¤®à¤¶": 1240,
      "à¤ķà¤®à¤§": 1241,
      "Ġà¤ľà¤¸": 1242,
      ">>": 1243,
      "Ġà¤Ńà¤°à¤£": 1244,
      "à¤ļà¤ª": 1245,
      "à¤£à¤µ": 1246,
      "à¥ĩ;": 1247,
      "Ġà¤Ĩà¤¦à¤°": 1248,
      "à¤¨à¤¯": 1249,
      "à¤Ĳà¤µà¤ľ": 1250,
      "à¤ļà¤¬à¤°": 1251,
      "à¤®à¤®à¤§": 1252,
      "à¤¾...": 1253,
      "Ġà¤µà¤ľà¤¨": 1254,
      "Ġà¤¸à¤ľ": 1255,
      "à¤ľà¤ªà¤¨": 1256,
      "Ġ50": 1257,
      "à¤°à¤ªà¤£": 1258,
      "Ġà¤·": 1259,
      "à¤¶à¤¨à¤²": 1260,
      "à¤Łà¤°à¤ļ": 1261,
      "à¤¦à¤¯": 1262,
      "à¤²à¤ª": 1263,
      "Ġà¤¤à¤ľ": 1264,
      "Ġ13": 1265,
      "à¤¡à¤®": 1266,
      "Ġà¤¦à¤°à¤°": 1267,
      "à¤¨à¤¶": 1268,
      "Ġà¤ĺà¤Ł": 1269,
      "Ġà¤ıà¤ķà¤ļ": 1270,
      "à¤¬à¤°à¤¦": 1271,
      "à¤ıà¤ļ": 1272,
      "Ġà¤ĵà¤²": 1273,
      "====": 1274,
      "Ġà¤Ĩà¤ľà¤¹": 1275,
      "Ġ200": 1276,
      "à¤£à¤ļ": 1277,
      "à¤¯à¤ķà¤¤": 1278,
      "Ġà¤ĩà¤²": 1279,
      "Ġà¤Ĩà¤łà¤µà¤£": 1280,
      "Ġà¤Ĺà¤³": 1281,
      "à¥ħà¤Ĥ": 1282,
      "à¤®à¤¯": 1283,
      "à¥Ĥ-": 1284,
      "Ġà¤¶à¤¤à¤ķ": 1285,
      "Ġà¤ħà¤¥à¤µ": 1286,
      "Ġà¤Ĩà¤µà¤¡à¤¤": 1287,
      "Ġà¤ķà¤²à¤®": 1288,
      "Ġà¤¶à¤¸": 1289,
      "Ġ16": 1290,
      "Ġà¤Ĺà¤¤": 1291,
      "à¤¤à¤°à¤ļ": 1292,
      "à¤¬à¤¨": 1293,
      "Ġà¤ĸà¤³": 1294,
      "it": 1295,
      "Ġà¤¤à¤²": 1296,
      "Ġà¤ħà¤Ł": 1297,
      "Ġà¤ħà¤µà¤²": 1298,
      "Ġà¥§à¥¦à¥¦": 1299,
      "à¥ĩ!": 1300,
      "Ġà¤ıà¤¸à¤Ł": 1301,
      "Ġà¤ĵà¤³à¤ĸà¤²": 1302,
      "Ġà¤ħà¤£": 1303,
      "à¤łà¤µà¤£": 1304,
      "Ġà¤īà¤²à¤Ł": 1305,
      "Ġà¤Ĩà¤ķà¤°": 1306,
      "à¤¬à¤°à¤²": 1307,
      "Ġà¤µà¤Ĺ": 1308,
      "Ġà¤ħà¤®à¤°": 1309,
      "Ġà¤īà¤ªà¤®": 1310,
      "à¤§à¤³": 1311,
      "à¤²à¤Ń": 1312,
      "Ġà¤°à¤¤": 1313,
      "ĠN": 1314,
      "Ġà¤ľà¤³à¤Ĺ": 1315,
      "à¤£à¤µà¤¤": 1316,
      "à¤¢à¤µà¤£": 1317,
      "à¤ªà¤µ": 1318,
      "Ġà¤ĩà¤°": 1319,
      "à¥Ģ;": 1320,
      "Ġà¤ĺà¤¸": 1321,
      "à¤¾;": 1322,
      "Ġà¥¤": 1323,
      "Ġà¤¸à¤®à¤ľà¤¤": 1324,
      "ĠB": 1325,
      "à¤ħà¤²": 1326,
      "âĢĮ": 1327,
      "à¤³à¤ķà¤°": 1328,
      "à¤ļà¤ļ": 1329,
      "à¤¯à¤ķà¤µ": 1330,
      "à¥Ģ!": 1331,
      "à¤¾à¥ħ": 1332,
      "Ġ/": 1333,
      "à¤¶à¤ļ": 1334,
      "Ġà¤«à¤¸": 1335,
      "Ġà¤ĵà¤µ": 1336,
      "Ġà¤°à¤¶": 1337,
      "Ġà¤ªà¤²": 1338,
      "Ġà¤īà¤¶": 1339,
      "Ġà¤¬à¤±": 1340,
      "à¤«à¤°": 1341,
      "ic": 1342,
      "à¤¥à¤¸": 1343,
      "Ġà¥ªà¥¦": 1344,
      "à¥Ģ...": 1345,
      "à¤®à¤¶": 1346,
      "à¤Ĭà¤²": 1347,
      "à¤¨à¤µà¤°": 1348,
      "Ġà¤¸à¤®à¤ľà¤²": 1349,
      "à¥Īà¤Ĥ": 1350,
      "Ġà¥¨à¥¨": 1351,
      "ĠT": 1352,
      "à¤¥à¤°": 1353,
      "Ġà¤Ĩà¤Ń": 1354,
      "à¤Łà¤¬": 1355,
      "Ġà¤ıà¤²": 1356,
      "Ġ17": 1357,
      "Ġà¤«à¤°à¤ķ": 1358,
      "à¤Łà¥Ł": 1359,
      "Ġà¤ªà¤¦à¤µ": 1360,
      "Ġà¤²à¤·": 1361,
      "Ġà¤Ńà¤ķ": 1362,
      "à¤¯à¤Łà¤¨": 1363,
      "Ġà¤ĳà¤²": 1364,
      "à¤¾..": 1365,
      "Ġà¤¸à¤¹à¤ľ": 1366,
      "as": 1367,
      "à¤¤à¤°à¤¹": 1368,
      "Ġ2020": 1369,
      "Ġ2021": 1370,
      "à¤¸à¤³à¤²": 1371,
      "Ġà¤ļà¤¹": 1372,
      "Ġà¤·à¤Łà¤ķ": 1373,
      "à¤ªà¤³": 1374,
      "Ġà¤ľà¤Ĺà¤¤": 1375,
      "Ġà¤²à¤¢à¤¤": 1376,
      "Ġà¤¬à¤ĺà¤¤": 1377,
      "à¤²à¤¬à¤ľ": 1378,
      "à¤ľà¤ªà¤²": 1379,
      "Ġà¤¨à¤ľà¤°": 1380,
      "Ġà¤¬à¤¦à¤²à¤²": 1381,
      "à¥ĩ...": 1382,
      "Ġà¤į": 1383,
      "à¤Ľà¤¤": 1384,
      "à¤¾à¥ĩ": 1385,
      "à¥¨à¥§": 1386,
      "Ġ100": 1387,
      "Ġà¤°à¤®": 1388,
      "Ġà¤ħà¤¯": 1389,
      "Ġà¤ĸà¤³à¤¬à¤³": 1390,
      "Ġà¤µà¤Ĺà¤³": 1391,
      "Ġà¤¤à¤°à¤¤": 1392,
      "Ġà¤īà¤·": 1393,
      "à¤·à¤¨": 1394,
      "Ġà¤§à¤®à¤ķ": 1395,
      "à¤°à¤·": 1396,
      "à¤ªà¤°à¤¤": 1397,
      "Ġ0": 1398,
      "à¤¦à¤Ĺ": 1399,
      "Ġà¤Ĩà¤«": 1400,
      "à¤ªà¤°à¤£": 1401,
      "ra": 1402,
      "à¤Īà¤¤": 1403,
      "à¤ħà¤¸": 1404,
      "à¤®à¤²à¤¬à¤ľ": 1405,
      "Ġà¤ªà¤³": 1406,
      "âĢĺ": 1407,
      "Ġà¤ªà¤¸à¤°à¤²": 1408,
      "à¤²à¤µà¤£": 1409,
      "à¤µà¤µ": 1410,
      "à¤²à¤ķà¤®": 1411,
      "à¤°à¤Ĺà¤¤": 1412,
      "Ġà¤¨à¤µà¤°": 1413,
      "Ġà¤łà¤°à¤£": 1414,
      "Ġà¤¦à¤Ĺà¤¡": 1415,
      "Ġà¤łà¤°à¤µà¤²": 1416,
      "Ġà¤¸à¤£": 1417,
      "ĠV": 1418,
      "Ġà¤Ĭà¤°": 1419,
      "Ġà¤ķà¤³à¤¤": 1420,
      "à¥ĩ..": 1421,
      "à¤ĳ": 1422,
      "Ġà¤ĵà¤¬": 1423,
      "à¥Įà¤Ĥ": 1424,
      "à¤¨à¤¤à¤³": 1425,
      "Ġà¤«à¤¸à¤µà¤£": 1426,
      "à¤°à¤µà¤²": 1427,
      "à¤ıà¤ķ": 1428,
      "à¤ĸà¤ķ": 1429,
      "Ġà¤¹à¤¦": 1430,
      "à¤¾:": 1431,
      "à¥Ĥ.": 1432,
      "Ġà¤ķà¤¡à¤ķ": 1433,
      "Ġà¤¦à¤ĸà¤²": 1434,
      "à¤ĩà¤Ł": 1435,
      "Ġà¤¦à¤°à¤µà¤°": 1436,
      "Ġà¤Ĩà¤¯à¤¸": 1437,
      "à¤¯à¤¥": 1438,
      "Ġ22": 1439,
      "Ġà¤¸à¤²à¤®": 1440,
      "à¤ªà¤¹": 1441,
      "Ġ21": 1442,
      "à¤µà¤¸à¤Ńà¤°": 1443,
      "Ġà¤¡à¤¬": 1444,
      "à¤°à¤Ł": 1445,
      "Ġà¤ıà¤ķà¤¹": 1446,
      "à¤¯à¤µà¤°": 1447,
      "à¤Łà¤°à¤µà¤°": 1448,
      "Ġà¤¸à¤¦à¤°": 1449,
      "Ġà¤ıà¤ķà¤Ł": 1450,
      "à¤ļà¤¸": 1451,
      "Ġà¥¨à¥§": 1452,
      "is": 1453,
      "à¥ĩ'": 1454,
      "Ġà¤¹à¤®": 1455,
      "Ġà¤¤à¤£": 1456,
      "à¤¨à¤Ĺà¤°à¤ª": 1457,
      "Ġà¤Ĺà¤®": 1458,
      "Ġà¤§à¤¡": 1459,
      "Ġà¤ľà¤²": 1460,
      "Ġà¤ĺà¤¡à¤¤": 1461,
      "à¤Ĺà¤®à¤§": 1462,
      "à¤ĸà¤¡": 1463,
      "à¤īà¤¨": 1464,
      "à¤¯à¤¡": 1465,
      "Ġà¤¦à¤¬": 1466,
      "à¤ľà¤®à¤§": 1467,
      "Ġà¤¸à¤²à¤Ĺ": 1468,
      "Ġà¤Ĺà¤£à¤ªà¤¤": 1469,
      "à¤°à¤®à¤ķ": 1470,
      "à¥§à¥¯": 1471,
      "Ġà¤®à¤¦": 1472,
      "Ġà¥¨à¥¬": 1473,
      "Ġà¤ķà¤ļ": 1474,
      "à¤¬à¤Ł": 1475,
      "à¤¢à¤¦": 1476,
      "à¤ªà¤¥": 1477,
      "Ġà¤¬à¤¨à¤µà¤£": 1478,
      "à¤¯à¤°à¤¤": 1479,
      "Ġà¤ıà¤ķà¤¨": 1480,
      "Ġà¤¬à¤¨à¤µà¤²": 1481,
      "19": 1482,
      "Ġà¤īà¤¸": 1483,
      "Ġ2019": 1484,
      "Ġà¥²": 1485,
      "à¤³à¤¸": 1486,
      "Ġà¤ħà¤¡à¤ķà¤²": 1487,
      "ha": 1488,
      "om": 1489,
      "à¤ķà¤ľ": 1490,
      "à¤Ĺà¤Ł": 1491,
      "Ġà¤ħà¤«à¤Ĺ": 1492,
      "à¤°à¤«": 1493,
      "Ġà¤¸à¤¹à¤¨": 1494,
      "à¤ħà¤ª": 1495,
      "à¤³à¤µà¤³": 1496,
      "Ġà¥¨à¥®": 1497,
      "à¤Ĺà¤¦à¤ªà¤¤": 1498,
      "Ġà¤¨à¤Ĭ": 1499,
      "à¤ªà¤¯à¤¶": 1500,
      "à¤¯à¤ķà¤²": 1501,
      "Ġà¤ķà¤¬": 1502,
      "Ġà¤ĸà¤¡à¤¸": 1503,
      "à¤·à¤ªà¤¦": 1504,
      "à¤ĸà¤³": 1505,
      "Ġà¤¬à¤¸à¤£": 1506,
      "Ġà¤īà¤ľ": 1507,
      "à¤¡à¤µà¤°": 1508,
      "Ġà¥§à¥¯à¥¯": 1509,
      "us": 1510,
      "Ġà¤ıà¤«": 1511,
      "à¤¢à¤°": 1512,
      "Ġà¥¨à¥¦à¥¨à¥¦": 1513,
      "Ġà¤ħà¤ªà¤¯à¤¶": 1514,
      "Ġà¥¨à¥Ń": 1515,
      "Ġà¤Ĺà¤°à¤®": 1516,
      "Ġà¤Ńà¤Ĺà¤µ": 1517,
      "à¤®à¤§à¤²": 1518,
      "Ġ23": 1519,
      "à¤²à¤®à¤¤": 1520,
      "un": 1521,
      "ĠD": 1522,
      "à¤ļà¤µà¤£": 1523,
      "à¤¡à¤µà¤²": 1524,
      "Ġà¤®à¤¹à¤¸": 1525,
      "âĢĻ,": 1526,
      "Ġ26": 1527,
      "Ġà¤®à¤ľà¤²": 1528,
      "à¤¦à¤®": 1529,
      "Ġà¤§à¤°à¤²": 1530,
      "ir": 1531,
      "à¤¯à¤Ńà¤°": 1532,
      "Ġà¥¨à¥©": 1533,
      "Ġà¤¹à¤ľà¤°": 1534,
      "le": 1535,
      "à¤ķà¤µà¤°": 1536,
      "à¤¯à¤¶": 1537,
      "à¤ľà¤¬": 1538,
      "Ġà¤Ńà¤¯": 1539,
      "Ġà¤ļà¤³à¤µà¤³": 1540,
      "Ġ40": 1541,
      "ion": 1542,
      "à¤·à¤Ńà¤°": 1543,
      "à¤¢à¤µà¤²": 1544,
      "à¤ĸà¤µà¤£": 1545,
      "à¤¬à¤ļ": 1546,
      "à¤¾âĢ¦": 1547,
      "Ġà¤ķà¤ļà¤°": 1548,
      "Ġà¤¸à¤µà¤¯": 1549,
      "à¤µà¤¦": 1550,
      "Ġ31": 1551,
      "Ġà¤īà¤¤à¤°à¤²": 1552,
      "à¤°à¤°": 1553,
      "Ġà¤ªà¤Ĺ": 1554,
      "Ġà¤ľà¤µà¤³à¤ļ": 1555,
      "Ġà¤Ĺà¤ª": 1556,
      "à¤¤à¤ªà¤¤": 1557,
      "Ġà¤¬à¤¦": 1558,
      "Ġà¤īà¤Ĺ": 1559,
      "à¤Īà¤¸": 1560,
      "Ġà¤¤à¤¹à¤¸": 1561,
      "Ġà¤¬à¤¸à¤¤": 1562,
      "à¥Ģ..": 1563,
      "Ġà¤ªà¤°à¤¤à¤²": 1564,
      "à¤¯à¤Łà¤ķ": 1565,
      "à¤ľà¤¦": 1566,
      "Ġà¤¬à¤¡": 1567,
      "à¤Īà¤¡": 1568,
      "Ġà¤ªà¤Łà¤ķ": 1569,
      "Ġà¥¨à¥¦à¥§à¥¯": 1570,
      "Ġà¤¦à¤¶à¤ķ": 1571,
      "à¥ĩ:": 1572,
      "à¤®à¤µà¤°": 1573,
      "à¤³à¤¨": 1574,
      "à¤Ĭà¤¨à¤ļ": 1575,
      "à¤ĺà¤¨": 1576,
      "Ġà¤Ĩà¤ªà¤¤": 1577,
      "Ġm": 1578,
      "Ġà¤Ĩà¤ļ": 1579,
      "à¤²à¤ĸ": 1580,
      "Ġà¤Īà¤¡": 1581,
      "Ġà¤¬à¤¦à¤²à¤¤": 1582,
      "ĠL": 1583,
      "Ġà¤Ĺà¤¡à¤ķà¤°": 1584,
      "Ġà¤ıà¤ħà¤°": 1585,
      "Ġà¤ªà¤¡à¤¦": 1586,
      "à¤Ĺà¤µà¤¡": 1587,
      "à¤¦à¤¨à¤Ĺà¤°": 1588,
      "à¤ªà¤®à¤§": 1589,
      "Ġà¤ĺà¤°à¤ļ": 1590,
      "Ġà¤¸à¤®à¤¨": 1591,
      "à¤ľà¤¨à¤ķ": 1592,
      "--------": 1593,
      "Ġà¤¶à¤ķà¤£": 1594,
      "à¤¯à¤Ĺà¤¡": 1595,
      "à¤¿,": 1596,
      "Ġà¤®à¤ľà¤¬": 1597,
      "Ġà¤ľà¤Ĺà¤£": 1598,
      "à¤·à¤°": 1599,
      "Ġà¤¬à¤¦à¤²à¤£": 1600,
      "ol": 1601,
      "ur": 1602,
      "à¥Ģ:": 1603,
      "Ġà¤¥à¤°": 1604,
      "Ġà¥©à¥§": 1605,
      "à¤¶à¤°": 1606,
      "Ġà¤ķà¤ķ": 1607,
      "à¤®à¤ľ": 1608,
      "à¤¶à¤ª": 1609,
      "ĠRe": 1610,
      "à¤¦à¤µà¤²": 1611,
      "à¤§à¤ļ": 1612,
      "à¤¯à¤¨à¤°": 1613,
      "à¤£à¤¨": 1614,
      "à¤Īà¤®": 1615,
      "Ġà¤ľà¤¨à¤ľ": 1616,
      "à¤¹à¤µ": 1617,
      "à¤łà¥Ł": 1618,
      "Ġà¤§à¤¡à¤ķ": 1619,
      "000": 1620,
      "à¤Ĥ?": 1621,
      "Ġ27": 1622,
      "à¥§à¥¦": 1623,
      "à¤Łà¤ķà¤°": 1624,
      "Ġ..": 1625,
      "à¤Ńà¤µà¤¤": 1626,
      "Ġà¤īà¤ĺà¤¡à¤ķ": 1627,
      "Ġà¤ıà¤ļ": 1628,
      "Ġà¥¦": 1629,
      "à¤ħà¤¨": 1630,
      "à¤¡à¥Ł": 1631,
      "à¤ľà¤¬à¤³": 1632,
      "Ġà¤Ĳà¤¤": 1633,
      "Ġà¤ķà¤³à¤²": 1634,
      "Ġà¤īà¤§": 1635,
      "à¤¯à¤Ĺ": 1636,
      "à¥ģ.": 1637,
      "Ġà¤¹à¤Ł": 1638,
      "Ġà¤°à¤ļà¤¨": 1639,
      "ĠĠĠĠĠĠĠĠ": 1640,
      "!!": 1641,
      "Ġà¤¸à¤«": 1642,
      "à¤Łà¤ªà¤Ł": 1643,
      "ing": 1644,
      "ay": 1645,
      "Ġà¤¸à¤°à¤ª": 1646,
      "Ġà¥¬à¥¦": 1647,
      "à¤ľà¤§": 1648,
      "à¤¤à¤°à¤¤": 1649,
      "à¤¨à¤¡": 1650,
      "à¤¯à¤®à¤ļ": 1651,
      "à¤°à¤ķà¤¤": 1652,
      "Ġà¤Īà¤¶": 1653,
      "Ġ*": 1654,
      "à¤¯à¤ªà¤¦": 1655,
      "à¤¦à¤¶": 1656,
      "à¤ĸà¤µà¤¤": 1657,
      "à¤Łà¤°à¤®à¤§": 1658,
      "ĠG": 1659,
      "à¥«à¥¦": 1660,
      "à¥©à¥¦": 1661,
      "à¤²à¤¹": 1662,
      "Ġà¤¨à¤¶": 1663,
      "à¤¬à¤£": 1664,
      "Ġà¤ĺà¤¡à¤µ": 1665,
      "Ġà¤¥à¤ķ": 1666,
      "ĠH": 1667,
      "ĠâĢĺâĢĺ": 1668,
      "à¤µà¤¸à¤¨": 1669,
      "Ġà¤Ĩà¤Īà¤ļ": 1670,
      "à¤²à¤µà¤¤": 1671,
      "à¤Ĺà¤ľ": 1672,
      "Ġà¤ıà¤Ł": 1673,
      "âĢĻâĢĻ": 1674,
      "Ġà¤ĳà¤«à¤°": 1675,
      "Ġà¤ķà¤¦à¤®": 1676,
      "Ġà¤µà¤¨à¤¸": 1677,
      "à¤£à¤ªà¤¤": 1678,
      "Ġà¤ªà¤¨": 1679,
      "à¤§à¤¶": 1680,
      "à¤Ĩà¤¯à¤ļ": 1681,
      "à¤µà¤²à¤¤": 1682,
      "à¤¬à¤Īà¤ķà¤°": 1683,
      "Ġà¤ĳà¤°": 1684,
      "Ġs": 1685,
      "à¤µà¤Ĺ": 1686,
      "à¤Łà¤²à¤®à¤§": 1687,
      "ed": 1688,
      "à¤µà¤¹": 1689,
      "Ġ28": 1690,
      "à¤ĩà¤®": 1691,
      "Ġà¥§à¥¯à¥®": 1692,
      "Ġc": 1693,
      "à¤¡à¤¬": 1694,
      "à¤¬à¤°à¤¦à¤¸": 1695,
      "Ġà¤¨à¤µà¤¨": 1696,
      "à¤ıà¤¸à¤Ł": 1697,
      "ĠK": 1698,
      "Ġà¤¤à¤¡": 1699,
      "Ġà¤¢à¤ķà¤²": 1700,
      "Ġà¤®à¤®à¤¤": 1701,
      "++++++++": 1702,
      "Ġà¤ľà¤¬à¤°à¤¦à¤¸": 1703,
      "am": 1704,
      "id": 1705,
      "à¤·à¤ª": 1706,
      "Ġà¤īà¤ł": 1707,
      "à¤Ŀà¤¨": 1708,
      "Ġ[": 1709,
      "à¥¦à¥¦à¥¦": 1710,
      "Ġà¥¨à¥¦à¥§à¥ª": 1711,
      "Ġà¤¸à¤µà¤²à¤¤": 1712,
      "à¤¬à¤µà¤£": 1713,
      "Ġà¥¨à¥¦à¥¨à¥§": 1714,
      "ĠE": 1715,
      "Ġà¤ĸà¤Łà¤²": 1716,
      "à¤ķà¤¹": 1717,
      "à¤Ĩà¤¯à¤¨": 1718,
      "à¤¸à¤³à¤§": 1719,
      "à¥¤": 1720,
      "à¤®à¤Ł": 1721,
      "Ġà¤ħà¤¡à¤¥à¤³": 1722,
      "à¤Łà¤¦": 1723,
      "Ġà¤Ĩà¤łà¤µà¤²": 1724,
      "Ġà¤ĩà¤¥à¤²": 1725,
      "Ġà¤ħà¤¹à¤®à¤¦à¤¨à¤Ĺà¤°": 1726,
      "ĠF": 1727,
      "à¤²à¤µà¤°": 1728,
      "à¤łà¤¡": 1729,
      "Ġà¤ļà¤¢": 1730,
      "Ġà¤ĭà¤¤": 1731,
      "Ġà¤Ĳà¤ķà¤²": 1732,
      "à¤¥à¤Ĺ": 1733,
      "à¥įâĢĮ": 1734,
      "à¤¬à¤¹": 1735,
      "à¤·à¤¯à¤ķ": 1736,
      "à¤¬à¤µà¤²": 1737,
      "il": 1738,
      "à¤°à¤ªà¤°": 1739,
      "à¤²à¤µà¤²": 1740,
      "à¥ĭ-": 1741,
      "Ġà¤ħà¤¹à¤®à¤¦": 1742,
      "ĠW": 1743,
      "Ġà¤²à¤¢à¤£": 1744,
      "à¤ľà¤ªà¤®à¤§": 1745,
      "à¥ģ:": 1746,
      "à¤¯à¤¬à¤°": 1747,
      "Ġà¤ªà¤°à¤®": 1748,
      "50": 1749,
      "Ġà¤Ĩà¤µà¤°": 1750,
      "Ġà¤¶à¤ªà¤¥": 1751,
      "Ġà¥¨à¥¯": 1752,
      "Ġà¤®à¤¨à¤®": 1753,
      "Ġà¤ªà¤ķà¤¡à¤²": 1754,
      "Ġà¤īà¤°à¤²": 1755,
      "à¤¹à¤ļà¤²": 1756,
      "à¤Ńà¤ķ": 1757,
      "Ġà¤īà¤ļà¤²à¤²": 1758,
      "à¤³à¤ĸ": 1759,
      "Ġà¤²à¤µ": 1760,
      "Ġà¤¬à¤¸à¤µ": 1761,
      "Ġà¤ıà¤®à¤Ĩà¤¯": 1762,
      "Ġ>>": 1763,
      "Ġà¥©à¥«": 1764,
      "à¥ĢâĢ¦": 1765,
      "Ġà¤ıà¤¨à¤¸": 1766,
      "Ġà¤ĵà¤¢": 1767,
      "à¤µà¤ļà¤·à¤ķ": 1768,
      "Ġà¤ħà¤µà¤ĺà¤¡": 1769,
      "et": 1770,
      "à¤¤à¤¬": 1771,
      "Ġà¥®à¥¦": 1772,
      "à¤Ĩà¤£": 1773,
      "à¤ķà¤µà¤£": 1774,
      "Ġà¤µà¤°à¤ļ": 1775,
      "Ġà¤°à¤¨": 1776,
      "à¤īà¤¤": 1777,
      "Ġà¥¨à¥¦à¥§à¥®": 1778,
      "à¤Ńà¤²": 1779,
      "ore": 1780,
      "Ġà¤Łà¤¨": 1781,
      "Ġà¤īà¤ªà¤¨à¤Ĺà¤°": 1782,
      "à¤¶à¤¦": 1783,
      "Ġà¤Ĺà¤µ": 1784,
      "à¤°à¤µà¤ķ": 1785,
      "========": 1786,
      "à¤µà¤¹à¤¨": 1787,
      "Ġà¤Ĩà¤³": 1788,
      "Ġà¤ħà¤ªà¤°": 1789,
      "Ġà¤Ķà¤¦": 1790,
      "à¤Ĺà¤¶": 1791,
      "à¤Ĺà¤µà¤¤": 1792,
      "Ġà¤ķà¤¸à¤²": 1793,
      "ĠâĢ¦": 1794,
      "Ġà¤łà¤³à¤ķ": 1795,
      "à¤¨à¤Ī": 1796,
      "Ġà¤Ĩà¤¢à¤³à¤¤": 1797,
      "Ġà¤ĺà¤¸à¤°à¤£": 1798,
      "Ġt": 1799,
      "Ġà¤ĳà¤ªà¤°": 1800,
      "Ġà¤¨à¤·": 1801,
      "à¤łà¤£": 1802,
      "Ġà¤Ĩà¤£à¤¤": 1803,
      "à¤¨à¤ĸ": 1804,
      "Ġà¤ħà¤ľà¤¯": 1805,
      "Ġà¤Ĺà¤²": 1806,
      "Ġ29": 1807,
      "à¤¯à¤¸à¤Ń": 1808,
      "Ġà¤¸à¤ĸ": 1809,
      "à¤¶à¤¨à¤®à¤§": 1810,
      "Ġ60": 1811,
      "à¤¯à¤°à¤¸à¤ļ": 1812,
      "hi": 1813,
      "Ġà¤ļà¤®à¤ļ": 1814,
      "à¤³à¤ª": 1815,
      "à¤Īà¤ªà¤°": 1816,
      "Ġà¥¨à¥¦à¥§à¥Ń": 1817,
      "à¤¬à¤§": 1818,
      "à¤§à¤¨à¤ķ": 1819,
      "Ġà¤²à¤ĺ": 1820,
      "ID": 1821,
      "Ġà¥Ńà¥¦": 1822,
      "Ġà¤¶à¤¤": 1823,
      "Ġà¤®à¤¨à¤ª": 1824,
      "Ġp": 1825,
      "Ġà¤ľà¤¹": 1826,
      "à¤¹à¤±": 1827,
      "à¤ħà¤Ń": 1828,
      "Ġà¤¬à¤Ł": 1829,
      "à¤ķà¤²à¤¨": 1830,
      "Ġà¤ªà¤°à¤¸": 1831,
      "Ġà¤Ŀà¤Łà¤ķ": 1832,
      "à¤¯à¤ľ": 1833,
      "à¤®à¤°à¤£": 1834,
      "Ġà¤µà¤³à¤£": 1835,
      "di": 1836,
      "Ġà¤ħà¤¨à¤§": 1837,
      "Ġà¤¤à¤®": 1838,
      "à¤¹à¤¨à¤¤": 1839,
      "Ġà¤¹à¤¨": 1840,
      "à¤¬à¤°à¤ª": 1841,
      "Ġà¥ªà¥«": 1842,
      "Ġà¥§à¥¯à¥Ń": 1843,
      "har": 1844,
      "Ġà¤¸à¤°à¤³": 1845,
      "Ġà¤¹à¤°à¤ķà¤¤": 1846,
      "à¤Ńà¤£": 1847,
      "ĠâĢĻ": 1848,
      "à¤¨à¤Ń": 1849,
      "Ġà¤ķà¤·": 1850,
      "Ġà¤ĸà¤¬à¤°à¤¦": 1851,
      "Ġà¤īà¤ĺà¤¡à¤²": 1852,
      "à¤ķà¤·": 1853,
      "Ġà¤ħà¤ķà¤°": 1854,
      "Ġà¤ļà¤²": 1855,
      "à¤ıà¤®à¤¸": 1856,
      "Ġà¤µà¤Ĺà¤³à¤¤": 1857,
      "ac": 1858,
      "à¤¨à¤ªà¤£": 1859,
      "à¤ıà¤²à¤ļ": 1860,
      "à¤¤à¤µà¤²": 1861,
      "Ġà¤ĺà¤°à¤Ĺ": 1862,
      "à¤¹à¤ļ": 1863,
      "à¥ģà¤ĥ": 1864,
      "Ġà¤°à¤ľ": 1865,
      "el": 1866,
      "Ġà¤Ĩà¤Ł": 1867,
      "Ġà¤īà¤ªà¤µ": 1868,
      "Ġà¤¤à¤ªà¤¶": 1869,
      "Ġà¤ıà¤ķà¤¦à¤®": 1870,
      "Ġà¥©à¥Ń": 1871,
      "ot": 1872,
      "Ġà¤Ĩà¤¸à¤ª": 1873,
      "Ġà¤¹à¤²à¤ķ": 1874,
      "Ġà¤Ĩà¤µà¤¡à¤²": 1875,
      "Ġà¤Ĺà¤ľ": 1876,
      "ĠRead": 1877,
      "à¤³à¤¶": 1878,
      "à¤¡à¤¯": 1879,
      "à¤¦à¤²à¤ļ": 1880,
      "à¥ĩâĢ¦": 1881,
      "à¤ķà¤°à¤¤": 1882,
      "à¤£à¤Ĺ": 1883,
      "Ġà¤¸à¤¬": 1884,
      "Ġà¤Ńà¤µà¤¨": 1885,
      "Ġà¤®à¤§à¤²": 1886,
      "à¤¯à¤¸à¤¨": 1887,
      "à¤¸à¤ķà¤¡": 1888,
      "à¤Łà¤ªà¤£": 1889,
      "à¤ĵà¤®à¤§": 1890,
      "Ġ2018": 1891,
      "Ġà¤īà¤ªà¤ķà¤°à¤£": 1892,
      "à¤µà¤¡à¤²": 1893,
      "Ġà¤ªà¤¦à¤ķ": 1894,
      "à¤²à¤Ł": 1895,
      "Ġà¤Ĩà¤¯à¤Ł": 1896,
      "à¤īà¤¦": 1897,
      "à¤ľà¤µà¤²": 1898,
      "Ġà¤¬à¤ķ": 1899,
      "Ġà¤ĸà¤¤": 1900,
      "and": 1901,
      "à¤³à¤µà¤¤": 1902,
      "Ġà¤ĭà¤·": 1903,
      "Ġà¤ªà¤ł": 1904,
      "av": 1905,
      "Ġà¤Ńà¤²": 1906,
      "Ġà¤ıà¤ľ": 1907,
      "Ġ35": 1908,
      "à¤¯à¤«": 1909,
      "à¤¢à¤°à¤ª": 1910,
      "Ġà¤ĩà¤ķ": 1911,
      "ew": 1912,
      "à¤¸à¤ħ": 1913,
      "Ġà¤ľà¤²à¤¸": 1914,
      "à¤ķà¤¡à¤ļ": 1915,
      "à¤ªà¤µà¤²": 1916,
      "Ġà¤īà¤ªà¤¨": 1917,
      "Ġà¤¨à¤«": 1918,
      "Ġà¤¸à¤°à¤¸": 1919,
      "Ġà¤īà¤¦à¤¯": 1920,
      "à¤ļà¤µà¤²": 1921,
      "à¤ªà¤µà¤°": 1922,
      "à¤ªà¤µà¤¯": 1923,
      "Ġà¤¯à¤¶à¤µ": 1924,
      "ri": 1925,
      "Ġà¤ħà¤¶à¤ķ": 1926,
      ").": 1927,
      "Ġà¤Ĩà¤ľà¤ªà¤°": 1928,
      "30": 1929,
      "Ġà¤ħà¤°à¤¬": 1930,
      "Ġà¤ħà¤ªà¤®": 1931,
      "Ġà¤°à¤ķà¤®": 1932,
      "à¤¤à¤®à¤§": 1933,
      "Ġà¤ĵà¤Ł": 1934,
      "ĠIn": 1935,
      "ht": 1936,
      "à¤¤à¤ľ": 1937,
      "à¤¨à¤¬": 1938,
      "Ġà¤ľà¤¡": 1939,
      "à¤ĩà¤¡": 1940,
      "Ġà¤¸à¤¤à¤°": 1941,
      "Ġà¤Łà¤°": 1942,
      "Ġà¤¬à¤ļà¤¤": 1943,
      "à¤¯à¤¨à¤²": 1944,
      "Ġà¤ªà¤°à¤°": 1945,
      "à¤Ĺà¤£à¤ķ": 1946,
      "ent": 1947,
      "à¤¦à¤¨à¤¶": 1948,
      "re": 1949,
      "Ġà¤ħà¤°à¤µ": 1950,
      "Ġà¤ıà¤ķà¤°": 1951,
      "Ġà¥©à¥¬": 1952,
      "Ġà¤¬à¤ĺà¤£": 1953,
      "à¤²à¤ĺà¤°": 1954,
      "à¤¶à¤¹": 1955,
      "Ġà¤Ŀà¤³": 1956,
      "Ġà¤Ĩà¤Ŀ": 1957,
      "à¤Īà¤µ": 1958,
      "à¤ħà¤°à¤ļ": 1959,
      "Ġà¤¨à¤Ĺà¤°à¤ª": 1960,
      "à¤µà¤°à¤¤": 1961,
      "Ġà¤īà¤¦à¤¯à¤¨à¤°": 1962,
      "à¤¸à¤«": 1963,
      "Ġà¤®à¤ļ": 1964,
      "Ġà¤¸à¤¹à¤¸": 1965,
      "Ġà¤ľà¤¨à¤°à¤²": 1966,
      "Ġà¤ħà¤µà¤ķ": 1967,
      "Ġb": 1968,
      "à¤¦à¤®à¤§": 1969,
      "à¤ĸà¤¦": 1970,
      "Ġà¤ķà¤®à¤¤à¤°à¤¤": 1971,
      "à¤ļà¤¯": 1972,
      "à¤¶à¤®à¤¨": 1973,
      "Ġ2014": 1974,
      "Ġà¤ķà¤³à¤µ": 1975,
      "Ġà¤¦à¤®à¤¦": 1976,
      "Ġà¤«à¤Ł": 1977,
      "à¤ĩà¤ķ": 1978,
      "Ġà¤ĳà¤¡": 1979,
      "Ġà¤ľà¤®à¤²": 1980,
      "Ġà¤¬à¤¨à¤¤": 1981,
      "ov": 1982,
      "à¤£à¤²": 1983,
      "à¤°à¤ļà¤¨": 1984,
      "à¤¯à¤Ń": 1985,
      "à¤¨à¤ªà¤°": 1986,
      "à¥¨à¥¨": 1987,
      "âĢĿ,": 1988,
      "à¤¹à¤¯": 1989,
      "Ġà¤Ĩà¤ľà¤µà¤°": 1990,
      "à¤²à¤¡": 1991,
      "à¥§à¥«": 1992,
      "',": 1993,
      "Ġ>": 1994,
      "à¤ªà¤¬": 1995,
      "Ġà¤¦à¤¶": 1996,
      "à¤ĩà¤¸": 1997,
      "Ġà¤Ĩà¤ĸ": 1998,
      "à¤ªà¤µà¤£": 1999,
      "Ġà¤Ĳà¤µà¤ľ": 2000,
      "Ġà¤ħà¤«à¤µ": 2001,
      "à¤¦à¤¹": 2002,
      "Ġà¤Ŀà¤ª": 2003,
      "à¤°à¤¸à¤¨": 2004,
      "Ġà¥«à¥¦à¥¦": 2005,
      "Ġà¤¬à¤¦à¤¨": 2006,
      "à¤Ĩà¤®": 2007,
      "Ġ;": 2008,
      "à¤ļà¤®à¤§": 2009,
      "Ġà¤ħà¤¡à¤ķ": 2010,
      "à¤Ĩà¤¤": 2011,
      "Ġà¥§à¥¯à¥¬": 2012,
      "Ġ80": 2013,
      "à¤ļà¤¦": 2014,
      "à¤Łà¤¯": 2015,
      "à¤¡à¤µà¤£": 2016,
      "à¤ļà¤¶": 2017,
      "Ġà¤¦à¤µ": 2018,
      "à¤¬à¤ķ": 2019,
      "Ġà¤Ĩà¤łà¤µ": 2020,
      "à¥ĭâĢĻ": 2021,
      "Ġà¤ĵà¤¸": 2022,
      "ĠU": 2023,
      "à¤ħà¤¶": 2024,
      "à¤ķà¤ľà¤£": 2025,
      "à¤¡à¤«": 2026,
      "Ġà¤Ĺà¤¹": 2027,
      "à¤°à¤£à¤ªà¤£": 2028,
      "Ġ45": 2029,
      "Ġà¤ªà¤¨à¤µ": 2030,
      "à¤¯à¤Ŀ": 2031,
      "Ġà¤Ĩà¤¯à¤¡": 2032,
      "à¤ĵà¤ļ": 2033,
      "à¥§à¥®": 2034,
      "Ġ37": 2035,
      "ut": 2036,
      "Ġà¤ķà¤¹": 2037,
      "Ġà¤¶à¤¶": 2038,
      "à¤ľà¤¨à¤ļ": 2039,
      "à¤ķà¤ªà¤£": 2040,
      "Ġà¤īà¤ķ": 2041,
      "Ġà¤īà¤ľà¤µ": 2042,
      "à¤Ĭà¤Ł": 2043,
      "Ġà¥¨à¥¦à¥§à¥«": 2044,
      "à¤¬à¤¦à¤²": 2045,
      "Ġà¥©à¥¨": 2046,
      "Ġ70": 2047,
      "Ġà¤¯à¤µà¤¤": 2048,
      "Ġà¤ļà¤¤": 2049,
      "Ġ2017": 2050,
      "à¥Ģ\"": 2051,
      "à¤ľà¤µà¤°": 2052,
      "à¤ħà¤§": 2053,
      "Ġà¤ĳà¤Ł": 2054,
      "Ġà¤Ĳà¤ķà¤¤": 2055,
      "Ġà¤Ĩà¤łà¤µà¤¤": 2056,
      "Ġà¥¯à¥¦": 2057,
      "à¤®à¤³": 2058,
      "à¤¬à¤Īà¤²": 2059,
      "à¤®à¤¡": 2060,
      "à¤ıà¤¶à¤¨": 2061,
      "Ġà¤ķà¤®à¤²": 2062,
      "Ġà¤§à¤®": 2063,
      "à¥§à¥¨": 2064,
      "à¤¾\"": 2065,
      "à¤®à¤®": 2066,
      "Ġà¤īà¤ĺà¤¡à¤£": 2067,
      "à¤°à¤¥à¤®à¤ļ": 2068,
      "Ġà¤¸à¤¸": 2069,
      "à¤Ĺà¤®à¤¨": 2070,
      "à¤ķà¤°à¤ļ": 2071,
      "Ġà¥§à¥¯à¥ª": 2072,
      "à¤¨à¤µà¤£": 2073,
      "Ġà¤°à¤ļà¤²": 2074,
      "Ġà¤Ńà¤Ł": 2075,
      "Ġà¤ļà¤²à¤¨": 2076,
      "Ġà¤ĸà¤¨": 2077,
      "à¤°à¤µà¤¤": 2078,
      "Ġà¤Ĩà¤ľà¤ª": 2079,
      "Ġà¥§à¥§à¥": 2080,
      "Ġf": 2081,
      "à¤¶à¤¸": 2082,
      "à¤łà¤ª": 2083,
      "Ġà¤ľà¤µà¤³à¤ľà¤µà¤³": 2084,
      "Ġà¤¯à¤µà¤¤à¤®": 2085,
      "à¤Łà¤¹": 2086,
      "Ġà¤¤à¤°à¤ļ": 2087,
      "Ġà¤ĵà¤®": 2088,
      "Ġà¥©à¥ª": 2089,
      "Ġà¤µà¤¹": 2090,
      "à¤łà¤®": 2091,
      "Ġà¤¸à¤°à¤ļ": 2092,
      "à¤¸à¤ĸ": 2093,
      "Ġà¤ªà¤¬": 2094,
      "à¤¶à¤®à¤§": 2095,
      "Ġà¤¹à¤³à¤¦": 2096,
      "à¤ķà¤µà¤²": 2097,
      "Ġà¤ıà¤¨à¤¡": 2098,
      "he": 2099,
      "à¤¤à¤£": 2100,
      "à¤ıà¤Ł": 2101,
      "Ġà¤ķà¤£": 2102,
      "EO": 2103,
      "à¤°à¤ªà¤¦": 2104,
      "oron": 2105,
      "à¤°à¤¹à¤£": 2106,
      "à¤£à¤®": 2107,
      "Ġà¤®à¤ķ": 2108,
      "à¤¡à¤ĸ": 2109,
      "à¤Ńà¤µà¤²": 2110,
      "à¤ħà¤®": 2111,
      "ation": 2112,
      "os": 2113,
      "à¤¦à¤°à¤ļ": 2114,
      "Ġà¤®à¤¤à¤Ń": 2115,
      "Ġà¥¨à¥¦à¥§à¥¬": 2116,
      "à¤§à¤¶à¤¤à¤ķ": 2117,
      "22": 2118,
      "Ġà¤īà¤ªà¤ľ": 2119,
      "Ġà¥Ńà¥«": 2120,
      "Ġ#": 2121,
      "à¤ĺà¤¤": 2122,
      "Ġà¤¸à¤°à¤¨": 2123,
      "Ġà¤¸à¤°à¤¦": 2124,
      "Ġà¤°à¤£à¤ľ": 2125,
      "Ġà¤ıà¤®à¤Ĩà¤¯à¤¡": 2126,
      "à¤¤à¤¶": 2127,
      "à¤Ĩà¤ľ": 2128,
      "Ġà¥©à¥©": 2129,
      "à¥§à¥§": 2130,
      "Ġ90": 2131,
      "à¤¯à¤¹": 2132,
      "à¤Ĩà¤°à¤ª": 2133,
      "Ġà¤Ĩà¤Ĺà¤®à¤¨": 2134,
      ".\"": 2135,
      "à¤·à¤°à¤¶": 2136,
      "Ġà¤²à¤¶": 2137,
      "Ġà¤ĸà¤¡à¤ķ": 2138,
      "Ġ36": 2139,
      "Ġà¤®à¤¯": 2140,
      "Ġà¤łà¤°à¤µà¤£": 2141,
      "ct": 2142,
      "ĠO": 2143,
      "Ġà¤ĺà¤Łà¤¸": 2144,
      "IDEO": 2145,
      "um": 2146,
      "à¤Ĩà¤ªà¤²": 2147,
      "Ġà¤ľà¤¨à¤¸": 2148,
      "Ġ199": 2149,
      "Ġà¤ħà¤µà¤¤": 2150,
      "à¤Ĺà¤¹": 2151,
      "Ġà¤ıà¤ħ": 2152,
      "Ġà¤ªà¤°à¤Ńà¤£": 2153,
      "Ġà¤ĵà¤°": 2154,
      "Ġà¥©à¥®": 2155,
      "ĠVIDEO": 2156,
      "??": 2157,
      "Ġà¤ľà¤²à¤¦": 2158,
      "à¤¬à¤°à¤®à¤§": 2159,
      "Ġà¤¢à¤Ĺ": 2160,
      "ĠÂ": 2161,
      "Ġâ": 2162,
      "à¤łà¤¯": 2163,
      "à¥¨à¥«": 2164,
      "Ġà¤µà¤¨à¤¡": 2165,
      "oo": 2166,
      "Ġà¤°à¤ĸ": 2167,
      "à¤ĩà¤¤à¤ķ": 2168,
      "à¤¨à¤§": 2169,
      "Ġà¤¹à¤¸à¤¨": 2170,
      "Ġà¤¹à¤²à¤µ": 2171,
      "Ġà¤ķà¤°à¤®": 2172,
      "Ġà¤ªà¤ķà¤¡à¤£": 2173,
      "**": 2174,
      "à¤Ĺà¤Ń": 2175,
      "Ġà¤µà¤§": 2176,
      "à¤¯à¤®à¤µà¤°": 2177,
      "Ġà¤¬à¤¨à¤µà¤¤": 2178,
      "Ġà¤Ĩà¤¯à¤ķà¤°": 2179,
      "à¤ľà¤µà¤Ł": 2180,
      "Ġà¤ħà¤ªà¤µ": 2181,
      "Ġà¤ĺà¤¸à¤°à¤²": 2182,
      "Ġà¤¨à¤µà¤²": 2183,
      "à¤ĺà¤ķ": 2184,
      "à¤ıà¤²à¤®à¤§": 2185,
      "à¤ľà¤ªà¤ķà¤¡": 2186,
      "ĠĠĠ": 2187,
      "ag": 2188,
      "Ġà¤Ńà¤Ĺà¤¤": 2189,
      "Ġ32": 2190,
      "Ġin": 2191,
      "Ġà¤®à¤°à¤£": 2192,
      "Ġà¤®à¤ķà¤°": 2193,
      "à¤¡à¤¶": 2194,
      "Ġà¤Ńà¤Łà¤ķ": 2195,
      "à¤¯à¤µà¤§": 2196,
      "à¥¯à¥¯": 2197,
      "à¤Ĩà¤¯à¤Ł": 2198,
      "à¤¦à¤ª": 2199,
      "à¥ĩ.\"": 2200,
      "à¤Ĭà¤¯": 2201,
      "iv": 2202,
      "à¤¨à¤ķà¤°": 2203,
      "Ġà¤°à¤¡": 2204,
      "à¤µà¤°à¤ķà¤°": 2205,
      "Ġà¤ıà¤°": 2206,
      "Ġà¥ªà¥®": 2207,
      "Ġà¤Ĺà¤¦": 2208,
      "Ġà¤łà¤ª": 2209,
      "à¤·à¤£à¤®": 2210,
      "Ġà¤ħà¤ªà¤¹à¤°à¤£": 2211,
      "ul": 2212,
      "Ġd": 2213,
      "Ġà¤Ĩà¤Īà¤²": 2214,
      "à¤·à¤²à¤µ": 2215,
      "Ġà¤ªà¤°à¤³": 2216,
      "18": 2217,
      "à¤°à¤®à¤¨": 2218,
      "à¥§à¥ª": 2219,
      "Ġ34": 2220,
      "Ġà¤ħà¤·": 2221,
      "Ġà¤īà¤łà¤²": 2222,
      "à¤Ĩà¤ª": 2223,
      "à¤ıà¤¸à¤¸": 2224,
      "à¤Ĭà¤ķ": 2225,
      "à¥§à¥©": 2226,
      "Ġà¤Ĭà¤¸": 2227,
      "à¤ªà¤¡à¤ªà¤Ł": 2228,
      "10": 2229,
      "à¥ĭ?": 2230,
      "Ġà¤ıà¤¡": 2231,
      "à¤«à¤°à¤¨": 2232,
      "Ġà¤Ľà¤Ĺà¤¨": 2233,
      "han": 2234,
      "à¤¨à¤ªà¤¤": 2235,
      "à¤£à¤ª": 2236,
      "Ġà¤ªà¤µà¤¨": 2237,
      "à¤Ĺà¤ķ": 2238,
      "Ġà¤ıà¤µ": 2239,
      "oc": 2240,
      "Ġà¤ªà¤Łà¤²": 2241,
      ".....": 2242,
      "Ġà¤ħà¤ªà¤ķ": 2243,
      "à¤·à¤Ń": 2244,
      "Ġà¤ıà¤¬": 2245,
      "à¤«à¤³": 2246,
      "Ġà¤µà¤¸à¤Ī": 2247,
      "à¤¹à¤ľ": 2248,
      "à¤Ĩà¤¯à¤¸": 2249,
      "Ġà¤ĵà¤ªà¤¨": 2250,
      "à¥§à¥Ń": 2251,
      "est": 2252,
      "ap": 2253,
      "à¤¶à¤¬": 2254,
      "à¤·à¤¸": 2255,
      "à¤²à¤ľ": 2256,
      "Ġà¤Ĩà¤Īà¤¨": 2257,
      "Ġà¤ĸà¤±": 2258,
      "Ġà¤ħà¤µà¤¯à¤µ": 2259,
      "Ġà¤Ĺà¤¡à¤ļ": 2260,
      "à¤¬à¤Īà¤®à¤§": 2261,
      "à¤Ĭà¤¨à¤®": 2262,
      "Ġ500": 2263,
      "Ġ2016": 2264,
      "à¤ķà¤§": 2265,
      "à¤£à¤µà¤²": 2266,
      "à¤Ĺà¤µà¤²": 2267,
      "à¤¬à¤°à¤ªà¤°": 2268,
      "Ġà¤Ľà¤³": 2269,
      "ai": 2270,
      "à¤¤à¤Ĺ": 2271,
      "à¤¸à¤°à¤²": 2272,
      "à¤¡à¤°à¤ļ": 2273,
      "Ġà¤¹à¤¸à¤¤": 2274,
      "Ġà¥«à¥«": 2275,
      "âĢ¦]": 2276,
      "Ġ[âĢ¦]": 2277,
      "ews": 2278,
      "à¤²à¤ªà¤£": 2279,
      "à¤¸à¤Ń": 2280,
      "Ġà¤Ĩà¤·": 2281,
      "à¥Ģ/": 2282,
      "à¤¸à¤°à¤ļ": 2283,
      "à¤Ĺà¤µà¤£": 2284,
      "Ġà¤ªà¤°à¤¬": 2285,
      "à¤«à¤²": 2286,
      "à¤¨à¤ķà¤¡": 2287,
      "Ġà¤¨à¤ľ": 2288,
      "à¥ĩ.âĢĻ": 2289,
      "Ġà¤ĩà¤µ": 2290,
      "Ġà¤§à¤°à¤¤": 2291,
      "Ġ48": 2292,
      "Ġà¥¨à¥¦à¥§à¥©": 2293,
      "Ġ+": 2294,
      "Ġv": 2295,
      "à¤¹à¤¨à¤ļ": 2296,
      "à¤®à¤Ń": 2297,
      "à¥§à¥¬": 2298,
      "ĠJ": 2299,
      "à¥ĩ.âĢĿ": 2300,
      "Ġà¤«à¤µ": 2301,
      "Ġà¤īà¤ļà¤²à¤£": 2302,
      "à¥ĩ\"": 2303,
      "à¤ķà¤ħà¤ª": 2304,
      "Ġà¥¥": 2305,
      "Ġà¤«à¤²à¤ķ": 2306,
      "Ġà¤ĩà¤ľ": 2307,
      "à¥Į.": 2308,
      "Ġà¤ħà¤Ńà¤¯": 2309,
      "Ġà¤ļà¤ķà¤®à¤ķ": 2310,
      "Ġà¤¦à¤¯": 2311,
      "Ġà¤ļà¤®à¤ķ": 2312,
      "une": 2313,
      "Ġà¤¤à¤¨": 2314,
      "à¤ľà¤µà¤£": 2315,
      "à¤ľà¤¦à¤°": 2316,
      "à¤°à¤µà¤¡": 2317,
      "à¤¼à¤¾": 2318,
      "15": 2319,
      "Ġà¤¤à¤²à¤µ": 2320,
      "à¤ªà¤°à¤¸": 2321,
      "12": 2322,
      "à¤łà¤°": 2323,
      "Ġà¤¸à¤®à¤¤": 2324,
      "à¤µà¤ĺ": 2325,
      "à¤¹à¤¬": 2326,
      "à¤®à¤¬": 2327,
      "Ġà¤¸à¤¯": 2328,
      "Ġà¥ªà¥ª": 2329,
      "Ġà¤ħà¤¡à¤µ": 2330,
      "à¤ĵà¤¤": 2331,
      "of": 2332,
      "Ġà¤Ĺà¤®à¤µ": 2333,
      "ĠâĢĿ": 2334,
      "Ġà¤ħà¤ªà¤¡": 2335,
      "à¤Ĭà¤¨à¤¹": 2336,
      "Ġà¤Ĳà¤¶": 2337,
      "Ġà¤īà¤¤à¤°à¤£": 2338,
      "Ġà¤Ĺà¤³à¤«": 2339,
      "à¤µà¤®": 2340,
      "Ġà¤µà¤³": 2341,
      "Ġà¤²à¤¢à¤µ": 2342,
      "Ġ`": 2343,
      "à¤ĸà¤Ń": 2344,
      "à¤¥à¤¤": 2345,
      "à¤¤à¤Ń": 2346,
      "à¤ķà¤ł": 2347,
      "à¤ªà¤¡à¤¤": 2348,
      "Ġà¤ľà¤¶": 2349,
      "Ġà¤¸à¤¹à¤®à¤¤": 2350,
      "Ġà¥©à¥¦à¥¦": 2351,
      "Ġà¤īà¤¤à¤°à¤¤": 2352,
      "Ġw": 2353,
      "à¤¯à¤Ŀà¤°": 2354,
      "à¤²à¤°à¤ļ": 2355,
      "à¤ĵà¤¨": 2356,
      "ig": 2357,
      "à¤Łà¤°à¤²": 2358,
      "Ġ33": 2359,
      "Ġà¤ħà¤Łà¤²": 2360,
      "Ġà¤¢à¤ķà¤²à¤£": 2361,
      ".âĢĻ": 2362,
      "Ġà¤Ĩà¤¬": 2363,
      "à¤ľà¤ªà¤£": 2364,
      "Ġà¥¨à¥¦à¥§à¥§": 2365,
      "----------------": 2366,
      "à¤ķà¤ķ": 2367,
      "à¤¸à¤ķà¤°": 2368,
      "Ġà¤¹à¤ª": 2369,
      "à¤¥à¤ļ": 2370,
      "Ġà¤Ĩà¤°à¤¬": 2371,
      "à¤Ĩà¤ĺ": 2372,
      "à¤Ĥ..": 2373,
      "à¤Ĺà¤ªà¤¤": 2374,
      "à¤ľà¤¶": 2375,
      "Ġà¤¨à¤¸à¤£": 2376,
      "Ġà¤²à¤²": 2377,
      "Ġà¤Ĩà¤°à¤¤": 2378,
      "à¤ľà¤¹": 2379,
      "Ġà¤¦à¤®": 2380,
      "à¤Īà¤ª": 2381,
      "Ġà¤Ĩà¤°à¤Ł": 2382,
      "à¤¼à¥į": 2383,
      ".âĢĿ": 2384,
      "à¤¨à¤ªà¤¦": 2385,
      "Ġà¤µà¤ļà¤¨": 2386,
      "à¤·à¤µ": 2387,
      "à¤·à¤µà¤°": 2388,
      "Ġà¤²à¤ĸà¤¨": 2389,
      "Ġà¤īà¤²à¤Ĺ": 2390,
      "à¤«à¤¨": 2391,
      "à¤¶à¤¨à¤µà¤°": 2392,
      "à¤Īà¤²à¤ļ": 2393,
      "Ġà¤°à¤ĸà¤¡à¤²": 2394,
      "à¤£à¤¬": 2395,
      "Ġà¤µà¤¨à¤µ": 2396,
      "Ġà¤ľà¤³": 2397,
      "Ġà¤ĺà¤¡à¤£": 2398,
      "Ġà¥ªà¥¨": 2399,
      "Ġà¥¬à¥«": 2400,
      "ab": 2401,
      "à¤²à¤«": 2402,
      "Ġà¤ķà¤°à¤µ": 2403,
      "Ġà¤īà¤ªà¤°": 2404,
      "à¤¬à¤¤à¤¹": 2405,
      "à¤Ĩà¤°à¤¡": 2406,
      "++++++++++++++++": 2407,
      "Ġà¤Ĩà¤µà¤³": 2408,
      "Ġà¤ªà¤¦à¤°": 2409,
      "Ġà¤ľà¤Ĺà¤¦": 2410,
      "Ġà¤īà¤¡à¤µ": 2411,
      "à¤ĺà¤¡à¤²": 2412,
      "ĠâĢĭ": 2413,
      "Ġ75": 2414,
      "Ġà¤°à¤£à¤¨": 2415,
      "Ġmore": 2416,
      "ter": 2417,
      "à¤¦à¤°à¤²": 2418,
      "Ġà¤¦à¤¸": 2419,
      "Ġà¤¶à¤®": 2420,
      "Ġà¤ıà¤ķà¤¤à¤°": 2421,
      "à¤°à¤¸à¤®à¤ľ": 2422,
      "Ġà¤Ĳà¤¨": 2423,
      "Ġà¤¦à¤¶à¤²à¤ķ": 2424,
      "à¤Ĥ!": 2425,
      "à¤Ĥ...": 2426,
      "à¤ļà¤®": 2427,
      "à¤Łà¤µà¤¡": 2428,
      "à¤¶à¤µà¤²": 2429,
      "à¤ĺà¤®": 2430,
      "Ġà¤§à¤¨à¤Ĺà¤°": 2431,
      "Ġà¤¨à¤µà¤¨à¤µ": 2432,
      "à¤ĵà¤µ": 2433,
      "Ġà¥©à¥¯": 2434,
      "à¥Ģ),": 2435,
      "à¤¨à¤£": 2436,
      "à¤§à¤®": 2437,
      "à¤¯à¤®à¤¸": 2438,
      "à¤µà¤¡à¤¤": 2439,
      "Ġà¥§à¥«à¥¦": 2440,
      ".)": 2441,
      "11": 2442,
      "ak": 2443,
      "à¤µà¤®à¤§": 2444,
      "Ġà¤ĩà¤ķà¤¡": 2445,
      "Ġà¤Ĩà¤¶à¤¯": 2446,
      "Ġà¤²à¤¡": 2447,
      "Ġà¤īà¤¡à¤µà¤²": 2448,
      "à¤¹à¤°à¤²": 2449,
      "à¤£à¤§à¤°": 2450,
      "à¤µà¤°à¤²": 2451,
      "à¤¢à¤µà¤¤": 2452,
      "Ġà¤§à¤µà¤¨": 2453,
      "à¤°à¤¸à¤¹": 2454,
      "à¤ĩà¤Łà¤µà¤°": 2455,
      "à¤¡à¤³à¤ķà¤°": 2456,
      "à¤ķà¤±": 2457,
      "à¤ªà¤¶": 2458,
      "Ġà¤¹à¤°à¤µà¤²": 2459,
      "Ġà¤¬à¤¸à¤ļ": 2460,
      "à¥ĥà¤Ĥ": 2461,
      "à¥¬à¥¦": 2462,
      "Ġà¤¬à¤¸à¤µà¤£": 2463,
      "à¤¸à¤ķà¤Ł": 2464,
      "PL": 2465,
      "à¤ĺà¤£": 2466,
      "Ġà¥§à¥¯à¥«": 2467,
      "Ġà¤ªà¤°à¤ķ": 2468,
      "à¤Īà¤Łà¤µà¤°": 2469,
      "à¤¯à¤²à¤Ł": 2470,
      "Ġà¤®à¤¤à¤®": 2471,
      "Ġà¤¬à¤¨à¤£": 2472,
      "Ġà¤¢à¤µà¤³": 2473,
      "Ġà¤ªà¤¸à¤°à¤¤": 2474,
      "à¤£à¤®à¤§": 2475,
      "à¤¨à¤§à¤¨": 2476,
      "à¤µà¤¬": 2477,
      "Ġà¤ªà¤§": 2478,
      "99": 2479,
      "à¤¦à¤µà¤£": 2480,
      "Ġà¤Ĺà¤³à¤¤": 2481,
      "Ġà¤¨à¤Ĺà¤°à¤ªà¤°": 2482,
      "Ġà¤Ńà¤¤": 2483,
      "Ġà¤§à¤¡à¤ª": 2484,
      "à¥¨à¥ª": 2485,
      "à¤¸à¤®à¤µ": 2486,
      "17": 2487,
      "à¥ĭ..": 2488,
      "à¤Īà¤¬": 2489,
      "Ġà¤ĩà¤Łà¤²": 2490,
      "Ġà¤ħà¤¨à¤²": 2491,
      "Ġà¤¸à¤¹à¤ľà¤ªà¤£": 2492,
      "Ġà¤Ńà¤°à¤Ńà¤°": 2493,
      "Ġ2015": 2494,
      "Ġà¤²à¤¢à¤µà¤£": 2495,
      "ĠÂ»": 2496,
      "à¤¾/": 2497,
      "à¤²à¤Ĺà¤¤": 2498,
      "Ġà¤®à¤£": 2499,
      "à¤¬à¤®à¤§": 2500,
      "Ġà¤²à¤ª": 2501,
      "à¤Ŀà¤²": 2502,
      "à¤µà¤¡à¤°": 2503,
      "Ġà¥¨à¥¦à¥§à¥¨": 2504,
      "à¤°à¤³à¤®à¤§": 2505,
      "à¤ķà¤¬": 2506,
      "à¤®à¤ĸ": 2507,
      "à¤¸à¤²à¤®": 2508,
      "================": 2509,
      "ch": 2510,
      "Ġà¤ªà¤¡à¤³à¤ķà¤°": 2511,
      "Ġà¤¹à¤Łà¤µ": 2512,
      "à¤Īà¤ľ": 2513,
      "Ġà¤ªà¤°à¤®à¤¬": 2514,
      "à¤£à¤¹": 2515,
      "à¤¬à¤°à¤¨": 2516,
      "40": 2517,
      "à¤¡à¤¹": 2518,
      "à¤Īà¤«": 2519,
      "Ġà¤ĸà¤²": 2520,
      "à¤ľà¤ªà¤µà¤°": 2521,
      "Ġ198": 2522,
      "od": 2523,
      "Ġof": 2524,
      "à¤¯à¤¬à¤³": 2525,
      "à¥ĤâĢĻ": 2526,
      "Ġà¤ĵà¤ł": 2527,
      "Ġ42": 2528,
      "ĠĠĠĠĠĠĠĠĠĠĠĠĠĠĠĠ": 2529,
      "BI": 2530,
      "à¤ķà¤¥": 2531,
      "Ġà¤®à¤Ĺà¤°": 2532,
      "Ġà¤ľà¤¯à¤ª": 2533,
      "Ġà¤Ĩà¤ľà¤ķ": 2534,
      "à¤ħà¤ĸ": 2535,
      "à¤ĩà¤µ": 2536,
      "à¤µà¤¨à¤¶": 2537,
      "ome": 2538,
      "Ġà¤¥à¤ķà¤¬": 2539,
      "à¤·à¤²": 2540,
      "Ġà¤¶à¤ª": 2541,
      "Ġà¤Ńà¤¨": 2542,
      "Ġà¥ŀ": 2543,
      "Ġ:-": 2544,
      "Ġà¤ĵà¤Ŀ": 2545,
      "à¤°à¤ªà¤Łà¤¸": 2546,
      "Ġà¥¬à¥ª": 2547,
      "à¤°à¤ĺ": 2548,
      "à¤łà¤¤": 2549,
      "à¤Ĩà¤°à¤¸": 2550,
      "Ġ38": 2551,
      "Ġà¥ªà¥©": 2552,
      "à¤ıà¤«à¤ļ": 2553,
      "''": 2554,
      "im": 2555,
      "à¤ļà¤¹": 2556,
      "à¤ªà¤Ĺ": 2557,
      "Ġà¤µà¤¸à¤¤": 2558,
      "à¤µà¤ľà¤£": 2559,
      "Ġ....": 2560,
      "à¥ĭ!": 2561,
      "à¤·à¤ļ": 2562,
      "Ġà¤°à¤ľà¤¨": 2563,
      "à¤Ńà¤§": 2564,
      "à¤ķà¤°à¤¨": 2565,
      "à¤ĵà¤²": 2566,
      "Ġà¥ªà¥Ń": 2567,
      "irus": 2568,
      "à¤°à¤Ńà¤°": 2569,
      "à¤Ĺà¤ł": 2570,
      "Ġà¤ıà¤ľà¤¨": 2571,
      "Ġà¤Ĩà¤µà¤ķ": 2572,
      "Ġ52": 2573,
      "ps": 2574,
      "à¤¯à¤¨à¤ļ": 2575,
      "Ġà¤Ĩà¤Ĭà¤Ł": 2576,
      "Ġà¤«à¤¡à¤ķ": 2577,
      "à¤¤à¤Ĺà¤¤": 2578,
      "à¤µà¤ł": 2579,
      "Ġà¤Ĩà¤ĸà¤²": 2580,
      "à¤§à¤ª": 2581,
      "Ġà¤Ĺà¤µà¤³": 2582,
      "à¤°à¤®à¤µ": 2583,
      "à¥ªà¥«": 2584,
      "à¤¸à¤¸à¤¹": 2585,
      "Ġà¤Ĩà¤¸à¤¨": 2586,
      "Ġà¤ħà¤µà¤¶": 2587,
      "à¤Łà¤°à¤¸": 2588,
      "à¤¬à¤°à¤®": 2589,
      "à¤łà¤µà¤¤": 2590,
      "Ġà¤ļà¤°à¤£": 2591,
      "Ġà¤ªà¤°à¤«": 2592,
      "à¤¶à¤¨à¤¨": 2593,
      "Ġà¤ĺà¤Łà¤²": 2594,
      "à¤ĺà¤Ł": 2595,
      "Ġà¤¬à¤¸à¤®à¤§": 2596,
      "à¤Ĩà¤¯à¤ª": 2597,
      "ĠNews": 2598,
      "à¤¡à¤ĺ": 2599,
      "à¤Ńà¤®": 2600,
      "à¤Ńà¤µà¤¨": 2601,
      "à¤¸à¤¨à¤Ĺà¤°": 2602,
      "Ġ47": 2603,
      "Ġà¤Ĳà¤ķà¤£": 2604,
      "Ġà¤¸à¤®à¤ľà¤£": 2605,
      "Ġà¤ĵà¤³à¤ĸà¤¤": 2606,
      "Âł": 2607,
      "à¤Ĺà¤§": 2608,
      "Ġà¤ĳà¤ª": 2609,
      "Ġà¤ħà¤®à¤²": 2610,
      "à¥ªà¥¦": 2611,
      "Ġ46": 2612,
      "Ġà¤¦à¤¹à¤¶à¤¤": 2613,
      "pp": 2614,
      "ro": 2615,
      "Ġà¤¨à¤¹": 2616,
      "Ġà¤ĸà¤ľ": 2617,
      "Ġà¤¨à¤µà¤ľ": 2618,
      "Ġà¤ĵà¤ķ": 2619,
      "Ġ''": 2620,
      "à¤¾âĢĻ,": 2621,
      "ĠMore": 2622,
      "Ġà¤¹à¤Łà¤µà¤£": 2623,
      "ide": 2624,
      "à¤®à¤ł": 2625,
      "à¤¡à¤ªà¤£": 2626,
      "Ġà¤Ĺà¤Łà¤¨": 2627,
      "Ġà¤Ŀà¤³à¤ķ": 2628,
      "Ġà¤ıà¤ķà¤µ": 2629,
      "Ġà¤łà¤°à¤µà¤¤": 2630,
      "Ġl": 2631,
      "Ġà¤ķà¤¹à¤°": 2632,
      "à¤ªà¤°à¤ķà¤°": 2633,
      "à¤Łà¤²à¤ļ": 2634,
      "Ġà¤¬à¤³à¤ķà¤Ł": 2635,
      "Ġà¤°à¤£à¤µ": 2636,
      "à¥ĭ...": 2637,
      "à¥¨à¥©": 2638,
      "à¤¦à¤¤à¤µ": 2639,
      "à¤¾),": 2640,
      "à¤Ĺà¤µà¤°": 2641,
      "Ġà¤¦à¤£": 2642,
      "à¥ĩ....": 2643,
      "Ġà¤µà¤°à¤³": 2644,
      "Ġà¤īà¤ªà¤Ĺ": 2645,
      "Ġà¤¨à¤µà¤µ": 2646,
      "à¤ıà¤®à¤ıà¤¸": 2647,
      "Ġà¤¶à¤ªà¤¥à¤µ": 2648,
      "14": 2649,
      "ma": 2650,
      "st": 2651,
      "Ġà¤Ĩà¤¡à¤µ": 2652,
      "Ġà¤¦à¤¸à¤°": 2653,
      "Ġà¤²à¤¤": 2654,
      "âĢĵ": 2655,
      "Ġà¤ªà¤°à¤µà¤¡à¤£": 2656,
      "à¤Ĩà¤¹": 2657,
      "Ġà¥ªà¥¬": 2658,
      "à¤µà¤ķà¤±": 2659,
      "Ġà¥®à¥«": 2660,
      "Ġà¤²à¤¢à¤µà¤²": 2661,
      "à¥ĭ'": 2662,
      "Ġà¤Ĩà¤¡": 2663,
      "Ġà¤Ńà¤¡": 2664,
      "Ġà¤°à¤¹à¤¸": 2665,
      "16": 2666,
      "à¤ķà¤°à¤®": 2667,
      "Ġà¤ıà¤°à¤µ": 2668,
      "Ġ56": 2669,
      "ĠPune": 2670,
      "dia": 2671,
      "25": 2672,
      "39": 2673,
      "à¤¨à¤µà¤¤": 2674,
      "Ġà¤ĩà¤¯à¤¤": 2675,
      "à¤Łà¤¨à¤®à¤§": 2676,
      "Ġà¥ªà¥¯": 2677,
      "Ġà¥ªà¥¦à¥¦": 2678,
      "à¥ĩà¥ĩ": 2679,
      "à¤¯à¤ªà¤£": 2680,
      "à¤Ĥ-": 2681,
      "Ġà¤ļà¤ª": 2682,
      "à¥Ī.": 2683,
      "à¤Ŀà¤µ": 2684,
      "à¤Ŀà¤®": 2685,
      "à¤ıà¤¡": 2686,
      "à¤Ĩà¤¡": 2687,
      "Ġ65": 2688,
      "ment": 2689,
      "Ġà¤µà¤ľ": 2690,
      "à¤ĸà¤ļ": 2691,
      "à¤Łà¤¨à¤ļ": 2692,
      "à¤Łà¤ķà¤¨": 2693,
      "Ġà¤¦à¤°à¤¬": 2694,
      "Ġà¤ĩà¤¤à¤°à¤¹": 2695,
      "ant": 2696,
      "ice": 2697,
      "à¤¨à¤ľ": 2698,
      "à¤µà¤¬à¤³": 2699,
      "Ġà¤µà¤¸à¤²": 2700,
      "à¤«à¤ļ": 2701,
      "à¤¯à¤®à¤¨": 2702,
      "à¤¬à¤Īà¤¤à¤²": 2703,
      "Ġ300": 2704,
      "Ġà¤¨à¤ķà¤³à¤¤": 2705,
      "Ġà¥«à¥¨": 2706,
      "Ġ44": 2707,
      "à¤¨à¤¸à¤°": 2708,
      "à¤¹à¤°à¤ļ": 2709,
      "Ġà¤¸à¤¦à¤¨": 2710,
      "à¤³à¤¯": 2711,
      "Ġà¤ľà¤¬à¤°": 2712,
      "Ġà¤ľà¤²à¤µ": 2713,
      "Ġà¤ĩà¤¸à¤®": 2714,
      "à¤ªà¤¦à¤ķ": 2715,
      "à¤ĭ": 2716,
      "à¤¯à¤°à¤ļ": 2717,
      "Ġà¤ªà¤¡à¤¸": 2718,
      "Ġà¤¯à¤ľà¤®": 2719,
      "à¤¥à¤ª": 2720,
      "Ġà¤ĳà¤¨": 2721,
      "Ġà¥²à¤ķ": 2722,
      "à¤ķà¤µà¤¤": 2723,
      "à¤¬à¤¡à¤¤": 2724,
      "Ġà¤ħà¤¸à¤¹": 2725,
      "à¤ĸà¤°à¤ļ": 2726,
      "à¤Ĩà¤®à¤ļ": 2727,
      "à¤ķà¤²à¤ļ": 2728,
      "Ġà¤ıà¤®à¤ıà¤®": 2729,
      "Ġà¤ıà¤¸à¤¬": 2730,
      "à¤ĳà¤ķ": 2731,
      "à¤ķà¤®à¤¤": 2732,
      "Ġà¤ªà¤¥": 2733,
      "Ġà¤ľà¤ªà¤£": 2734,
      "à¤Īà¤®à¤§": 2735,
      "Ġà¤ĸà¤Ł": 2736,
      "à¤¶à¤¨à¤¸": 2737,
      "Ġà¤ħà¤ªà¤²": 2738,
      "à¤ĵà¤ª": 2739,
      "Ġ55": 2740,
      "Ġà¤¬à¤¸à¤µà¤²": 2741,
      "Ġà¥¨à¥¦à¥¦à¥¯": 2742,
      "Ġà¤µà¤Ĺà¤³à¤£": 2743,
      "à¤²à¤¶": 2744,
      "à¤®à¤ķà¤¤": 2745,
      "Ġà¤®à¤ľà¤ķ": 2746,
      "Ġà¤°à¤ĺ": 2747,
      "Ġà¤ĵà¤¡": 2748,
      "Ġà¤ļà¤°à¤¬": 2749,
      "Ġà¥«à¥¬": 2750,
      "Ġ43": 2751,
      "à¤ľà¤µà¤³à¤ļ": 2752,
      "ate": 2753,
      "ce": 2754,
      "Ġà¤ķà¤¤": 2755,
      "Ġà¤ľà¤¯à¤¸": 2756,
      "Ġà¤ıà¤ķà¤¸": 2757,
      "Ġà¤Łà¤³à¤²": 2758,
      "Ġ54": 2759,
      "Ġà¤ħà¤µà¤§": 2760,
      "com": 2761,
      "Ġà¤¹à¤Łà¤ķ": 2762,
      "à¤¬à¤°à¤¤": 2763,
      "Ġà¤Ńà¤¡à¤ķ": 2764,
      "Ġà¤ĺà¤°à¤ķ": 2765,
      "à¤Ĭà¤¨à¤®à¤§": 2766,
      "Ġà¤Ĩà¤¯à¤«": 2767,
      "à¥¨à¥®": 2768,
      "à¤īà¤Ł": 2769,
      "à¥ĩâĢĻ,": 2770,
      "Ġà¤Ĩà¤°à¤¸": 2771,
      "Ġà¤®à¤³": 2772,
      "à¤¦à¤¯à¤µ": 2773,
      "à¤³à¤Ĺà¤£": 2774,
      "Ġà¤°à¤ļ": 2775,
      "Ġà¤²à¤ªà¤µ": 2776,
      "à¤¯à¤ķà¤¡": 2777,
      "à¤ħà¤°à¤®à¤§": 2778,
      "à¥ĩ),": 2779,
      "Ġà¤ķà¤£à¤ķ": 2780,
      "à¤Łà¤°à¤ª": 2781,
      "à¤ªà¤°à¤¹": 2782,
      "à¤¬à¤Īà¤¸à¤¹": 2783,
      "à¤ħà¤Ĺ": 2784,
      "à¤Łà¤°à¤¹": 2785,
      "Ġà¥¨à¥¦à¥§à¥¦": 2786,
      "Ġà¥«à¥ª": 2787,
      "Ġà¤¸à¤Ī": 2788,
      "Ġà¤ªà¤ª": 2789,
      "Ġà¤¨à¤®à¤¸": 2790,
      "Ġà¤°à¤¬": 2791,
      "à¥Ģ.\"": 2792,
      "Ġà¤¨à¤µà¤±": 2793,
      "à¤Ĺà¤£à¤¨": 2794,
      "Ġà¤ķà¤®à¤ķ": 2795,
      "à¤ĵà¤®": 2796,
      "à¥©à¥«": 2797,
      "In": 2798,
      "à¤¸à¤°à¤£": 2799,
      "à¤£à¤ªà¤¦à¤ķ": 2800,
      "Ġà¤Ńà¤ľà¤¨": 2801,
      "à¤°à¤£à¤¤": 2802,
      "Ġà¤¬à¤¸à¤¸": 2803,
      "Ġà¤¤à¤¡à¤ľ": 2804,
      "ow": 2805,
      "Ġà¤µà¤³à¤²": 2806,
      "à¤°à¤ķà¤Ł": 2807,
      "à¤¤à¤°à¤ª": 2808,
      "à¥¨à¥Ń": 2809,
      "Ġà¥«à¥§": 2810,
      "à¤ıà¤®à¤ª": 2811,
      "ers": 2812,
      "Ġà¤®à¤¯à¤¤": 2813,
      "à¤Ńà¤¯": 2814,
      "à¤«à¤ķ": 2815,
      "Ġà¤§à¤¬à¤§": 2816,
      "Ġà¥¯à¥«": 2817,
      "Ġà¤Ĺà¤¡à¤¦": 2818,
      "Ġà¤§à¤¬à¤§à¤¬": 2819,
      "à¤²à¤ªà¤°": 2820,
      "à¤¡à¤¦": 2821,
      "Ġà¤²à¤ĸ": 2822,
      "Ġà¤īà¤¡à¤¤": 2823,
      "Ġà¤īà¤łà¤µà¤²": 2824,
      "Ġà¤ĩà¤¬": 2825,
      "à¤°à¤¸à¤°à¤£": 2826,
      "art": 2827,
      "Ġà¤ıà¤ļà¤¡": 2828,
      "à¤Ļ": 2829,
      "à¤¾âĢĿ": 2830,
      "à¤¸à¤°à¤¤": 2831,
      "Ġà¤¹à¤¡à¤ª": 2832,
      "à¤¶à¤Ń": 2833,
      "Ġà¤ľà¤¤": 2834,
      "Ġà¤īà¤łà¤µ": 2835,
      "à¤ĺà¤¡": 2836,
      "à¤Ĺà¤£à¤µ": 2837,
      "à¤µà¤¨à¤¸à¤¤": 2838,
      "Ġà¥«à¥Ń": 2839,
      "à¤īà¤²à¤Ł": 2840,
      "umb": 2841,
      "ik": 2842,
      "Ġn": 2843,
      "à¤¸à¤§": 2844,
      "à¤¸à¤³à¤£": 2845,
      "Ġà¤µà¤²": 2846,
      "Ġà¤ĺà¤¡à¤µà¤£": 2847,
      "Ġà¤Ńà¤Ĺà¤¤à¤¸": 2848,
      "à¥ĩâĢĿ": 2849,
      "à¤µà¤ªà¤ķ": 2850,
      "à¤¸à¤ľ": 2851,
      "Ġà¤¹à¤¯": 2852,
      "Ġà¤¨à¤°à¤¸": 2853,
      "à¤³à¤®à¤§": 2854,
      "à¤ĸà¤Ł": 2855,
      "Ġà¤ļà¤®à¤¤": 2856,
      "à¤Ĭà¤¨à¤²": 2857,
      "à¥¨à¥¬": 2858,
      "Ġ39": 2859,
      "Ġà¥ªà¥§": 2860,
      "à¥®à¥¦": 2861,
      "Ġ57": 2862,
      "Ġ49": 2863,
      "Ġà¤ħà¤µà¤®": 2864,
      "Ġà¤Ĩà¤łà¤µà¤¡à¥Ł": 2865,
      "23": 2866,
      "60": 2867,
      "aw": 2868,
      "à¤ļà¤¡": 2869,
      "à¤¸à¤¶": 2870,
      "à¤ľà¤¡": 2871,
      "Ġà¤Ńà¤Ĺ": 2872,
      "à¤ıà¤®à¤ļ": 2873,
      "à¤°à¤ªà¤ķ": 2874,
      "à¤ĩà¤ľ": 2875,
      "à¤¯à¤¨à¤¶": 2876,
      "Ġà¥«à¥©": 2877,
      "Ġ64": 2878,
      "à¤µà¤ªà¤³": 2879,
      "Ġà¤µà¤¡à¤Ĺ": 2880,
      "ess": 2881,
      "24": 2882,
      "ia": 2883,
      "à¤¦à¤Ń": 2884,
      "Ġà¤µà¤³à¤µ": 2885,
      "Ġà¤¸à¤®à¤Ń": 2886,
      "à¤µà¤³à¤£": 2887,
      "Ġà¤ħà¤²à¤°": 2888,
      "Ġ197": 2889,
      "ĠIPL": 2890,
      "Ġà¤ĩà¤°à¤«": 2891,
      "à¤¬à¤µà¤¤": 2892,
      "Ġà¤°à¤¡à¤¤": 2893,
      "Ġà¤łà¤¸": 2894,
      "Ġà¤¡à¤¹": 2895,
      "Ġà¤Ĩà¤ªà¤Ł": 2896,
      "à¤¹à¤°à¤®à¤§": 2897,
      "Ġà¤¥à¤ķà¤µ": 2898,
      "à¤ľà¤ªà¤¤": 2899,
      "à¤§à¤µà¤Ł": 2900,
      "Ġ150": 2901,
      "avirus": 2902,
      "oronavirus": 2903,
      "à¤µà¤µà¤¤": 2904,
      "Ġà¤Ĩà¤ĸà¤£": 2905,
      "à¥ĩ.'": 2906,
      "à¤Ńà¤¦": 2907,
      "à¥Ģ....": 2908,
      "Ġà¤ıà¤ķà¤®à¤¤": 2909,
      "Ġà¤ħà¤¨à¤ª": 2910,
      "Ġà¤¦à¤°à¤¡": 2911,
      "à¤ıà¤¸à¤Ī": 2912,
      "Ġà¤īà¤²à¤Łà¤²": 2913,
      "à¥ĢâĢĻ,": 2914,
      "ang": 2915,
      "Ġà¤įà¤ķ": 2916,
      "Ġà¤§à¤¡à¤ªà¤¡": 2917,
      "Ġà¤Ĺà¤¸": 2918,
      "à¤ıà¤µà¤¢": 2919,
      "Ġà¤ĵà¤ĺ": 2920,
      "à¤ĩà¤«": 2921,
      "à¤¹à¤¨à¤¹": 2922,
      "Ġ99": 2923,
      "Ġà¤°à¤£à¤¬": 2924,
      "à¤¸à¤³à¤¤": 2925,
      "Ġà¤¶à¤°à¤£": 2926,
      "Ġà¤Ĺà¤µà¤¤": 2927,
      "Ġà¤ħà¤¨à¤¨": 2928,
      "Ġà¥¨à¥¦à¥¦à¥¦": 2929,
      "aj": 2930,
      "à¤¨à¤¤à¤°": 2931,
      "à¤¨à¤«": 2932,
      "Ġà¤ªà¤¸à¤°": 2933,
      "à¤¦à¤¸": 2934,
      "à¤łà¤ļ": 2935,
      "à¤ķà¤°à¤²": 2936,
      "à¤¸à¤°à¤ª": 2937,
      "à¤Ĩà¤¨": 2938,
      "Ġà¤īà¤®à¤Łà¤²": 2939,
      "Ġà¤Ĩà¤Īà¤¸": 2940,
      "Ġà¤ıà¤«à¤Ĩà¤¯": 2941,
      "orona": 2942,
      "à¤¤à¤ĸ": 2943,
      "Ġà¤ķà¤¬à¤¡": 2944,
      "à¤Łà¤Ĺ": 2945,
      "Ġà¤Ĺà¤ľà¤°": 2946,
      "Ġà¤ĸà¤°à¤ļ": 2947,
      "à¥¯à¥¦": 2948,
      "Ġ400": 2949,
      "Ġà¥¨à¥«à¥¦": 2950,
      "me": 2951,
      "op": 2952,
      "Âº": 2953,
      "à¤£à¤ĺ": 2954,
      "à¤³à¤®": 2955,
      "Ġà¤ľà¤®à¤¤": 2956,
      "Ġà¤īà¤£": 2957,
      "Ġà¤īà¤ªà¤®à¤¹": 2958,
      "à¤Łà¤ķà¤±": 2959,
      "Ġ51": 2960,
      "ĠHome": 2961,
      "Ġà¤¢à¤ķà¤²à¤²": 2962,
      "Ġà¤¦à¤£à¤ķ": 2963,
      "Ġà¤ĺà¤£": 2964,
      "Ġà¤īà¤ªà¤¦": 2965,
      "à¤ıà¤¶à¤¨à¤ļ": 2966,
      "end": 2967,
      "asht": 2968,
      "à¤¸à¤°à¤ķ": 2969,
      "Ġà¤ķà¤¡à¤µ": 2970,
      "Ġà¤ªà¤ļà¤¨": 2971,
      "Ġà¤®à¤ł": 2972,
      "Ġà¤²à¤¢à¤²": 2973,
      "à¤¢à¤¤à¤ļ": 2974,
      "à¥Ńà¥¦": 2975,
      "à¤ıà¤«à¤¸": 2976,
      "Ġà¤ķà¤ļà¤±": 2977,
      "SC": 2978,
      "if": 2979,
      "Ġg": 2980,
      "à¥¥": 2981,
      "à¤¯à¤¡à¤°": 2982,
      "à¤²à¤ªà¤Ł": 2983,
      "à¤ļà¤µà¤¤": 2984,
      "Ġà¤ªà¤³à¤µ": 2985,
      "à¤¶à¤Ńà¤ķ": 2986,
      "Ġà¤Ńà¤²à¤¤": 2987,
      "à¤Ńà¤¤": 2988,
      "à¤Īà¤ĵ": 2989,
      "Ġà¤ĸà¤ļ": 2990,
      "à¤Ĭà¤ļ": 2991,
      "Ġà¥«à¥®": 2992,
      "Ġà¤ľà¤¯à¤¶": 2993,
      "à¤°à¤Ĺà¤°": 2994,
      "à¤ªà¤±": 2995,
      "à¤ľà¤µà¤¤": 2996,
      "Ġà¤¯à¤·": 2997,
      "Ġà¤¶à¤µà¤µ": 2998,
      "à¤Ńà¤³": 2999,
      "Ġà¤ªà¤°à¤¶": 3000,
      "à¤°à¤ļà¤²": 3001,
      "Ġà¤¥à¤ķà¤²": 3002,
      "Ġà¤ķà¤²à¤°": 3003,
      "Ġà¤īà¤®à¤Ł": 3004,
      "Ġ85": 3005,
      "Ġà¤ªà¤Łà¤µ": 3006,
      "Ġà¤ĵà¤³à¤ĸà¤£": 3007,
      "à¤¨à¤¯à¤Ń": 3008,
      "Ġà¤ķà¤£à¤ķà¤µà¤²": 3009,
      "\",": 3010,
      "//": 3011,
      "://": 3012,
      "à¤¹à¤Ĺà¤¡": 3013,
      "Ġà¤¸à¤¬à¤¸": 3014,
      "Ġà¤Ĩà¤¦à¤®": 3015,
      "Ġà¤Ĩà¤Īà¤µà¤¡": 3016,
      "Ġà¥¯à¥¬": 3017,
      "ist": 3018,
      "htt": 3019,
      "70": 3020,
      "80": 3021,
      "up": 3022,
      "à¤®à¤ķà¤°": 3023,
      "à¤ľà¤¨à¤¨": 3024,
      "Ġà¤ķà¤®à¤°": 3025,
      "Ġà¤ªà¤°à¤¤à¤£": 3026,
      "arat": 3027,
      "Ġà¤ĵà¤³à¤ĸà¤ªà¤¤": 3028,
      "Ġà¤ķà¤¡à¤ķà¤¡": 3029,
      "Ġà¤ĸà¤³à¤¬à¤³à¤ľà¤¨à¤ķ": 3030,
      "Âºà¤¯": 3031,
      "13": 3032,
      "ly": 3033,
      "Ġ=": 3034,
      "Ġà¤®à¤Ĭ": 3035,
      "à¤¬à¤Ĺ": 3036,
      "à¤Ńà¤ª": 3037,
      "à¤¾....": 3038,
      "à¤¢à¤±": 3039,
      "à¤ĺà¤µ": 3040,
      "Ġà¤ĩà¤Ł": 3041,
      "à¤¸à¤²à¤ļ": 3042,
      "à¤Īà¤²à¤µà¤°": 3043,
      "à¤ľà¤ªà¤¸": 3044,
      "à¤¯à¤¨à¤²à¤®à¤§": 3045,
      "og": 3046,
      "Ġà¤ĥ": 3047,
      "à¤°à¤¤à¤°à¤¤": 3048,
      "à¤ķà¤ĺà¤°": 3049,
      "à¥ĭ)": 3050,
      "Ġà¤¦à¤Ĺ": 3051,
      "Ġà¤¶à¤²": 3052,
      "à¤łà¤Ń": 3053,
      "à¤Īà¤°": 3054,
      "Ġà¤ıà¤ķà¤ľ": 3055,
      "Ġà¤¸à¤°à¤¸à¤ķà¤Ł": 3056,
      "à¤Ĩà¤¯à¤ķà¤¡": 3057,
      "Ġà¤Īà¤®": 3058,
      "Ġà¤īà¤ļà¤²à¤¤": 3059,
      "harasht": 3060,
      "<<": 3061,
      "ĠX": 3062,
      "à¤ļà¤ªà¤¤": 3063,
      "à¤Ĺà¤°à¤®": 3064,
      "à¤Ĺà¤°à¤ļ": 3065,
      "Ġà¤¨à¤²": 3066,
      "à¥ĩ,âĢĿ": 3067,
      "à¤ķà¤°à¤°": 3068,
      "à¤ķà¤°à¤¦": 3069,
      "à¤ıà¤¸à¤ļ": 3070,
      "Ġà¤ľà¤¨à¤¹": 3071,
      "Ġà¤¦à¤°à¤®à¤¹": 3072,
      "Ġà¥«à¥¯": 3073,
      "Ġà¥¯à¥¯": 3074,
      "Ġà¤ªà¤¸à¤°à¤µ": 3075,
      "Ġà¤¦à¤Ĺà¤¡à¤«": 3076,
      "à¤¯à¤ĺà¤Łà¤¨": 3077,
      "Ġà¤Ĩà¤Ĺà¤³": 3078,
      "Ġà¤µà¤³à¤¤": 3079,
      "Ġà¤¨à¤Ł": 3080,
      "à¤¶à¤ķà¤°": 3081,
      "Ġà¤«à¤¸à¤µ": 3082,
      "à¤ĺà¤¡à¤£": 3083,
      "à¥ĩ,âĢĻ": 3084,
      "Ġà¤Ĩà¤°à¤¡": 3085,
      "à¤ħà¤°à¤®à¤¨": 3086,
      "à¤Ĩà¤ªà¤£": 3087,
      "à¤°à¤¶à¤ķ": 3088,
      "Ġà¤Ĩà¤¯à¤°": 3089,
      "à¤¤à¤ļà¤°": 3090,
      "Ġ63": 3091,
      "Ġ2013": 3092,
      "à¤¤à¤°à¤£à¤ļ": 3093,
      "ideo": 3094,
      "umbai": 3095,
      ".'": 3096,
      "th": 3097,
      "Ġhtt": 3098,
      "à¤¨à¤°à¤ļ": 3099,
      "à¥ĭ;": 3100,
      "à¤·à¤¶": 3101,
      "Ġà¤ļà¤·": 3102,
      "à¤Īà¤¨à¤ļ": 3103,
      "à¤Łà¤ķà¤ļ": 3104,
      "Ġà¤ĵà¤°à¤¡": 3105,
      "à¥¨à¥¯": 3106,
      "à¤īà¤¸": 3107,
      "à¤ıà¤®à¤Ł": 3108,
      "ya": 3109,
      "à¤¯à¤Ĺà¤°": 3110,
      "à¤²à¤¢": 3111,
      "Ġà¤ķà¤³à¤µà¤²": 3112,
      "à¤¦à¤¦": 3113,
      "Ġà¤µà¤³à¤¸": 3114,
      "à¤¡à¤µà¤¤": 3115,
      "Ġà¤¹à¤°à¤Ń": 3116,
      "à¤¥à¤¶": 3117,
      "Ġà¤ļà¤¢à¤¤": 3118,
      "à¤°à¤ªà¤Łà¤Ĺ": 3119,
      "Ġà¤ķà¤¸à¤¬": 3120,
      "Ġà¥®à¥ª": 3121,
      "Ġà¤ıà¤¨à¤Ĩà¤¯": 3122,
      "HO": 3123,
      "hat": 3124,
      "à¤¸à¤¦à¤°": 3125,
      "à¤Łà¤¶": 3126,
      "Ġà¤¬à¤¬": 3127,
      "à¤µà¤¡à¤ķ": 3128,
      "Ġà¤Ĩà¤ªà¤£à¤¹": 3129,
      "à¤ĵà¤¸": 3130,
      "à¤īà¤¨à¤ļ": 3131,
      "Ġà¤ªà¤°à¤¤à¤¤": 3132,
      "li": 3133,
      "à¤®à¤ªà¤£": 3134,
      "à¥ģ-": 3135,
      "à¤Łà¤ħà¤ª": 3136,
      "Ġà¤¨à¤³": 3137,
      "Ġà¤¨à¤ĸ": 3138,
      "à¤·à¤¬": 3139,
      "Ġà¤°à¤¥": 3140,
      "Ġà¤ĺà¤¸à¤°": 3141,
      "à¤Īà¤µà¤°": 3142,
      "à¤°à¤®à¤¸": 3143,
      "Ġà¤īà¤ªà¤¸à¤°à¤ª": 3144,
      "à¤¶à¤¨à¤¶": 3145,
      "Ġ58": 3146,
      "Ġà¥¬à¥¬": 3147,
      "Ġà¤Īà¤¸": 3148,
      "em": 3149,
      "Ġr": 3150,
      "à¤¨à¤Īà¤ļ": 3151,
      "Ġà¤¬à¤°à¤¸": 3152,
      "Ġà¤²à¤¯": 3153,
      "Ġà¤ıà¤¶": 3154,
      "Ġà¤¸à¤®à¤¶": 3155,
      "à¤¯à¤²à¤ļ": 3156,
      "Ġ41": 3157,
      ",âĢĻ": 3158,
      "45": 3159,
      "ðŁ": 3160,
      "à¤¨à¤Ł": 3161,
      "Ġà¤ķà¤¢": 3162,
      "Ġà¤ķà¤±": 3163,
      "Ġà¤¸à¤Ł": 3164,
      "à¤Łà¤ĸ": 3165,
      "à¤Łà¤¸à¤¹": 3166,
      "à¤ľà¤¯à¤ķ": 3167,
      "à¤¶à¤¤": 3168,
      "à¤īà¤²": 3169,
      "Ġà¤Ķà¤ļ": 3170,
      "Ġà¤¹à¤²à¤µà¤£": 3171,
      "Ġà¤Ĺà¤¤à¤µà¤°": 3172,
      "à¤¸à¤Ĺà¤¡": 3173,
      "à¤¹à¤ª": 3174,
      "à¤ľà¤³": 3175,
      "à¤³à¤ķà¤¤": 3176,
      "Ġà¤ļà¤¢à¤²": 3177,
      "à¤ħà¤ľ": 3178,
      "à¤Ĩà¤¯à¤²": 3179,
      "Ġà¥Ńà¥®": 3180,
      "Ġà¥Ńà¥Ń": 3181,
      "Ġ72": 3182,
      "ank": 3183,
      "Ġà¥¨à¥¦à¥¦à¥®": 3184,
      "Ġà¤ıà¤ħà¤°à¤Ł": 3185,
      "Ġà¤ļà¤®à¤ķà¤¦": 3186,
      "harashtra": 3187,
      "ec": 3188,
      "à¤½": 3189,
      "à¥ĢâĢĿ": 3190,
      "à¤¤à¤¸à¤°": 3191,
      "Ġà¤¸à¤¨à¤°": 3192,
      "à¤ªà¤¡à¤£": 3193,
      "à¥ĩ.)": 3194,
      "âĢĭ": 3195,
      "à¤Ĭà¤°": 3196,
      "Ġà¤Ĩà¤ªà¤£à¤ļ": 3197,
      "Ġà¥Ńà¥¨": 3198,
      "Ġà¥Ńà¥©": 3199,
      "ĠMa": 3200,
      "ĠPr": 3201,
      "esh": 3202,
      "Ġà¤ıà¤®à¤ıà¤®à¤Ĩà¤°à¤¡": 3203,
      "Ġà¤¹à¤¡à¤ªà¤¸à¤°": 3204,
      "35": 3205,
      "à¤µà¤¯à¤ķ": 3206,
      "à¤¸à¤«à¤°": 3207,
      "à¤¹à¤¦": 3208,
      "à¤£à¤µà¤£": 3209,
      "Ġà¤ķà¤³à¤£": 3210,
      "à¤ªà¤°à¤µ": 3211,
      "Ġà¤¹à¤°à¤µ": 3212,
      "à¤³à¤ªà¤Ł": 3213,
      "Ġà¤ľà¤¤à¤¨": 3214,
      "à¤ĺà¤²": 3215,
      "à¥Ī,": 3216,
      "à¤Ĭà¤¦": 3217,
      "Ġà¤µà¤°à¤¦": 3218,
      "Ġà¤¸à¤¹à¤µ": 3219,
      "à¤Ĩà¤¯à¤¡": 3220,
      "Ġ67": 3221,
      "Ġà¤Ĺà¤¡à¤¬à¤¡": 3222,
      "Ġà¤¹à¤Łà¤µà¤²": 3223,
      "ex": 3224,
      "ial": 3225,
      "à¤²à¤ĺ": 3226,
      "à¤¿:": 3227,
      "à¤¸à¤Ł": 3228,
      "Ġà¤®à¤Ł": 3229,
      "Ġà¤¤à¤¹": 3230,
      "Ġà¤¤à¤¹à¤ķ": 3231,
      "à¤¬à¤µà¤°": 3232,
      "Ġà¤ļà¤¢à¤µà¤²": 3233,
      "à¤Ńà¤¨": 3234,
      "à¤Ńà¤°à¤¤": 3235,
      "Ġà¤īà¤¬à¤¦": 3236,
      "Ġà¤ªà¤°à¤ª": 3237,
      "à¤ķà¤²à¤®à¤§": 3238,
      "à¤®à¤ķà¤°à¤£": 3239,
      "Ġ2012": 3240,
      "Ġà¤īà¤¤à¤°à¤µ": 3241,
      "Ġà¤ªà¤Łà¤ķà¤¨": 3242,
      "****": 3243,
      "à¤¾à¤¾": 3244,
      "à¥Ģ(": 3245,
      "à¤¤à¤¯": 3246,
      "Ġà¤ķà¤¤à¤°": 3247,
      "Ġà¤ľà¤¨à¤Ĺà¤£à¤¨": 3248,
      "à¥Ńà¥«": 3249,
      "Ġà¥Ńà¥ª": 3250,
      "Ġà¤ıà¤¸à¤¯": 3251,
      "ud": 3252,
      "à¤ķà¤«": 3253,
      "à¤ļà¤²à¤¨": 3254,
      "à¤¦à¥Ł": 3255,
      "Ġà¤¤à¤Łà¤ķà¤°": 3256,
      "Ġà¤¯à¤ķ": 3257,
      "à¥Ģ.âĢĻ": 3258,
      "Ġà¤ıà¤ķà¤ª": 3259,
      "à¤ıà¤¸à¤ķ": 3260,
      "à¤ħà¤¤": 3261,
      "Ġà¥¬à¥©": 3262,
      "Ġà¥¨à¥¦à¥¦à¥«": 3263,
      "à¤ĭà¤¤": 3264,
      ",âĢĿ": 3265,
      "à¤¾(": 3266,
      "à¤¨à¤¸à¤¹": 3267,
      "Ġà¤¤à¤¬à¤²": 3268,
      "à¤¡à¤¨à¤®à¤§": 3269,
      "à¤ľà¤µà¤¡": 3270,
      "Ġà¤¹à¤°à¤¯": 3271,
      "à¤¶à¤¤à¤ķ": 3272,
      "Ġà¤¬à¤Ĺ": 3273,
      "Ġà¤ķà¤°à¤¦": 3274,
      "à¤ıà¤Łà¤°": 3275,
      "à¤Ĩà¤²": 3276,
      "Ġà¤¸à¤¹à¤²": 3277,
      "Ġà¤Ľà¤ª": 3278,
      "Ġ59": 3279,
      "Ġà¤ľà¤Ĺà¤¨": 3280,
      "Ġà¤Īà¤µ": 3281,
      "Ġà¤īà¤ĺà¤¡à¤¤": 3282,
      "Ġà¤ªà¤¸à¤°à¤µà¤£": 3283,
      "ine": 3284,
      "Ġà¥©à¥Ńà¥¦": 3285,
      "CB": 3286,
      "à¤£à¤ķà¤°": 3287,
      "Ġà¤ªà¤Łà¤¤": 3288,
      "à¤Łà¤ªà¤°": 3289,
      "Ġà¤¯à¤ľ": 3290,
      "Ġà¤ķà¤°à¤ª": 3291,
      "Ġà¤ĺà¤¨": 3292,
      "à¤°à¤£à¤µ": 3293,
      "à¤ĺà¤Łà¤ķ": 3294,
      "Ġà¤ĩà¤«": 3295,
      "à¤ķà¤°à¤µ": 3296,
      "à¤Ĩà¤¶": 3297,
      "Ġ53": 3298,
      "à¤ıà¤®à¤®à¤§": 3299,
      "à¤¯à¤°à¤¸à¤®": 3300,
      "à¥ĩ/": 3301,
      "à¤ļà¤µà¤°": 3302,
      "à¤ļà¤ªà¤°": 3303,
      "Ġà¤¦à¤³à¤£": 3304,
      "Ġà¤¦à¤¡à¤ªà¤£": 3305,
      "Ġà¤Ĺà¤ł": 3306,
      "Ġà¤ļà¤®": 3307,
      "Ġà¤īà¤°à¤£": 3308,
      "Ġà¤īà¤ķà¤¡": 3309,
      "Ġ2022": 3310,
      "Ġà¤ıà¤®à¤ıà¤¸": 3311,
      "ĠSt": 3312,
      "Ġà¤Ŀà¤³à¤ķà¤²": 3313,
      "ive": 3314,
      "26": 3315,
      "29": 3316,
      "ck": 3317,
      "à¤¯à¤ªà¤°": 3318,
      "Ġà¤¹à¤°à¤²": 3319,
      "à¤¬à¤Īà¤¨": 3320,
      "Ġ74": 3321,
      "Ġ84": 3322,
      "one": 3323,
      "Ġà¤ĺà¤¡à¤µà¤²": 3324,
      "Ġà¥¨à¥¦à¥¦à¥ª": 3325,
      "Ġà¤įà¤¡": 3326,
      "?\"": 3327,
      "ww": 3328,
      "à¤ļà¤Ĺ": 3329,
      "Ġà¤Ńà¤°à¤§": 3330,
      "à¤Ńà¤µà¤£": 3331,
      "à¤¹à¤£à¤²": 3332,
      "Ġà¤Ĩà¤¯à¤Ĩà¤¯à¤Ł": 3333,
      "Ġà¤¸à¤¹à¤¯": 3334,
      "Ġ2000": 3335,
      "Ġà¤ľà¤®à¤µ": 3336,
      "Ġà¤īà¤ªà¤¸à¤Ń": 3337,
      "Ġà¤īà¤®à¤°": 3338,
      "à¤Īà¤¨à¤®à¤§": 3339,
      "Ġà¥Ńà¥¦à¥¦": 3340,
      "Ġà¤Ĺà¤£à¤¨": 3341,
      "Ġà¤īà¤¤à¤°à¤µà¤²": 3342,
      "Ġâļ": 3343,
      "Ġà¤Ńà¤¡à¤ķà¤²": 3344,
      "27": 3345,
      "ĠY": 3346,
      "à¤ľà¤Ńà¤µà¤¨": 3347,
      "à¤Ĺà¤²à¤ļ": 3348,
      "à¤¦à¤°à¤¨": 3349,
      "Ġà¥§à¥¯à¥©": 3350,
      "Ġà¥¬à¥¯": 3351,
      "Ġà¥¬à¥®": 3352,
      "Ġà¥¯à¥ª": 3353,
      "Ġà¤¨à¤Ĺà¤°à¤µ": 3354,
      "Ġà¤ıà¤«à¤Ĩà¤¯à¤Ĩà¤°": 3355,
      "Ġâļ¡": 3356,
      "her": 3357,
      "à¤Ĥ;": 3358,
      "Ġà¤¯à¤¥": 3359,
      "à¤³à¤Ĺà¤²": 3360,
      "à¤ĸà¤°à¤ª": 3361,
      "Ġà¤Ŀà¤²à¤ķ": 3362,
      "à¤¾.\"": 3363,
      "Ġà¤Ĩà¤¢à¤³à¤£": 3364,
      "Ġà¥®à¥¬": 3365,
      "à¤µà¤§à¤Ĺ": 3366,
      "Ġà¥¨à¥¦à¥¦à¥¬": 3367,
      "à¤ıà¤¨à¤ľ": 3368,
      "Ġ2008": 3369,
      "arathi": 3370,
      "55": 3371,
      "à¤¾à¤Ĥà¤Ĥ": 3372,
      "à¤ªà¤¦à¤°": 3373,
      "Ġà¤ħà¤³": 3374,
      "à¤¶à¤ľ": 3375,
      "Ġà¤Ĺà¤Ĺà¤¨": 3376,
      "Ġà¤ļà¤Łà¤ķ": 3377,
      "Ġhttps": 3378,
      "Ġà¤Ĩà¤¤à¤²": 3379,
      "Ġà¤¹à¤¸à¤²": 3380,
      "à¤¬à¤²à¤ķ": 3381,
      "Ġà¤ĺà¤¶": 3382,
      "à¤°à¤ķà¤ļ": 3383,
      "Ġà¤¸à¤°à¤ķà¤¤": 3384,
      "à¤ħà¤ķ": 3385,
      "à¤¸à¤¨à¤²": 3386,
      "Ġà¤ħà¤ľà¤¬": 3387,
      "Ġà¤īà¤®à¤Łà¤¤": 3388,
      "Ġ196": 3389,
      "à¥Ģ',": 3390,
      "à¥ĩ',": 3391,
      "Ġà¤²à¤ĸà¤¨à¤Ĭ": 3392,
      "28": 3393,
      "IC": 3394,
      "IS": 3395,
      "hin": 3396,
      "à¤£à¤£": 3397,
      "à¤ªà¤ªà¤¤": 3398,
      "à¤Ĺà¤¬": 3399,
      "à¤Ĺà¤ľà¤¨": 3400,
      "Ġà¤ľà¤¸à¤ª": 3401,
      "Ġà¤Ĺà¤ļ": 3402,
      "à¤Ńà¤Ł": 3403,
      "à¥Ģ.âĢĿ": 3404,
      "Ġà¤«à¤¸à¤²": 3405,
      "à¤ıà¤¬": 3406,
      "à¤¨à¤Ĺà¤°à¤®à¤§": 3407,
      "Ġ2011": 3408,
      "Ġ!!": 3409,
      "Ġà¤ħà¤¯à¤¶à¤¸": 3410,
      "Ġà¤²à¤ĺà¤µ": 3411,
      "ction": 3412,
      "io": 3413,
      "Ġ&": 3414,
      "à¤ļà¤ªà¤¦": 3415,
      "Ġà¤¨à¤¤": 3416,
      "Ġà¤¨à¤¯à¤¨": 3417,
      "Ġà¤Ŀà¤Łà¤ªà¤Ł": 3418,
      "à¤¶à¤¨à¤°": 3419,
      "Ġà¤ĵà¤¢à¤²": 3420,
      "Ġ68": 3421,
      "Ġ95": 3422,
      "Ġà¥¨à¥¦à¥¦à¥Ń": 3423,
      "hav": 3424,
      "Ġà¤īà¤²à¤Ĺà¤¡": 3425,
      "?âĢĻ": 3426,
      "ok": 3427,
      "à¤ķà¤¯": 3428,
      "à¤¹à¤¶": 3429,
      "à¤¦à¤¬": 3430,
      "à¤Łà¤ķà¤¡": 3431,
      "Ġà¤Ŀà¤°": 3432,
      "Ġà¤ĺà¤°à¤«": 3433,
      "Ġà¤ķà¤³à¤¸": 3434,
      "ity": 3435,
      "Ġà¤ıà¤«à¤¡": 3436,
      "ock": 3437,
      "Ġ$": 3438,
      "à¥ľ": 3439,
      "à¤¤à¤°à¤ķ": 3440,
      "à¤²à¤ķà¤²": 3441,
      "à¤ļà¤°à¤²": 3442,
      "à¤¸à¤ĺ": 3443,
      "à¤ªà¤ķà¤°": 3444,
      "Ġà¤¤à¤¡à¤ķ": 3445,
      "à¤Łà¤°à¤®": 3446,
      "à¤Łà¤Ńà¤°": 3447,
      "Ġà¤¬à¤¤": 3448,
      "à¤ĸà¤®à¤§": 3449,
      "Ġà¤Ńà¤°à¤µ": 3450,
      "Ġà¤īà¤¸à¤³à¤²": 3451,
      "à¤¾.....": 3452,
      "à¥ĩ,'": 3453,
      "à¤Ĩà¤ł": 3454,
      "à¤¹à¤°à¤¨": 3455,
      "à¤®à¤¨à¤¸": 3456,
      "Ġà¤ľà¤¨à¤°": 3457,
      "à¥¯à¥«": 3458,
      "Ġà¥¯à¥Ń": 3459,
      "à¤ļà¤µà¤¡à¤®à¤§": 3460,
      "à¤ĳà¤«": 3461,
      "Ġà¤ĭà¤·à¤Ń": 3462,
      "Ġk": 3463,
      "à¥ŀ": 3464,
      "à¤µà¤Ī": 3465,
      "à¤µà¤ªà¤¦": 3466,
      "Ġà¤ľà¤ªà¤²": 3467,
      "à¥ĩ,\"": 3468,
      "à¤°à¤®à¤¶": 3469,
      "à¥ĩà¤Ĥ.": 3470,
      "Ġà¤¡à¤¬à¤²": 3471,
      "à¥©à¥©": 3472,
      "à¤īà¤·": 3473,
      "Ġà¤Ķà¤ªà¤ļ": 3474,
      "à¤¾?,": 3475,
      "Ġà¤¸à¤«à¤°à¤ļ": 3476,
      "ĠIndia": 3477,
      "à¥į.": 3478,
      "à¤ķà¤ķà¤²": 3479,
      "à¤µà¤ªà¤Ł": 3480,
      "à¤£à¤¦": 3481,
      "Ġà¤Ĩà¤µà¤°à¤£": 3482,
      "Ġà¤¸à¤¡à¤ķ": 3483,
      "Ġà¤ħà¤²à¤ķ": 3484,
      "à¤Ĺà¤Ŀ": 3485,
      "à¤¡à¤°à¤²": 3486,
      "à¤¶à¤µà¤¤": 3487,
      "à¤²à¤ķà¤¤": 3488,
      "Ġà¤ĵà¤¤à¤£": 3489,
      "à¤ĩà¤¨à¤ļ": 3490,
      "à¥¨à¥¦à¥¦": 3491,
      "Ġà¥§à¥¯à¥¦": 3492,
      "Ġà¥¬à¥¦à¥¦": 3493,
      "Ġ62": 3494,
      "Ġ66": 3495,
      "Ġà¥®à¥®": 3496,
      "Ġà¤§à¤¡à¤ķà¤²": 3497,
      ",'": 3498,
      "47": 3499,
      "à¤Ķ": 3500,
      "à¤ķà¤¸à¤¤": 3501,
      "Ġà¤Ĩà¤¯à¤¤": 3502,
      "à¤°à¤ķà¤±": 3503,
      "à¤ķà¤°à¤ª": 3504,
      "à¤Ŀà¤¡": 3505,
      "à¤Īà¤²à¤®à¤§": 3506,
      "Ġà¤ķà¤®à¤³": 3507,
      "Ġ73": 3508,
      "Ġà¤¹à¤¤à¤¬à¤²": 3509,
      "Ġà¤ħà¤¡à¤µà¤£": 3510,
      "Ġà¥§à¥¨à¥¦": 3511,
      "Ġ2009": 3512,
      "und": 3513,
      "à¤¯à¤ªà¤¦à¤ķ": 3514,
      "à¤¨à¤Ńà¤°à¤ª": 3515,
      "++++++++++++++++++++++++++++++++": 3516,
      "ev": 3517,
      "Ġà¤¿": 3518,
      "Ġà¤¦à¤³à¤µ": 3519,
      "à¤¶à¤ķà¤¤": 3520,
      "Ġà¤Ĺà¤¯": 3521,
      "Ġà¤ļà¤¹à¤²": 3522,
      "à¤¬à¤°à¤µà¤°": 3523,
      "à¤¬à¤Īà¤¹": 3524,
      "à¤ĩà¤ª": 3525,
      "à¤¤à¤®à¤ľ": 3526,
      "Ġà¤¬à¤¸à¤ª": 3527,
      "Ġà¤ħà¤µà¤ľà¤¡": 3528,
      "Ġà¤¹à¤²à¤Ĺà¤°": 3529,
      "Ġà¥¬à¥Ń": 3530,
      "Ġà¤ªà¤°à¤¤à¤«": 3531,
      "Ġà¤ıà¤¸à¤ıà¤®à¤ıà¤¸": 3532,
      "Ġà¤ħà¤ĸà¤¤": 3533,
      "Ġà¥¯à¥©": 3534,
      "à¤¡à¤°à¤µà¤°": 3535,
      "Ġà¤īà¤ĺà¤¡à¤ªà¤£": 3536,
      "ĠVideo": 3537,
      "Ġ370": 3538,
      "Ġà¤ıà¤ħà¤°à¤²": 3539,
      "à¤°à¤µà¤¸": 3540,
      "à¤°à¤¬à¤³": 3541,
      "à¤ļà¤°à¤ļ": 3542,
      "Ġà¤ķà¤³à¤µà¤£": 3543,
      "Ġà¤¤à¤µ": 3544,
      "à¤¡à¤ķà¤¡": 3545,
      "Ġà¤¬à¤ķà¤°": 3546,
      "Ġà¤ķà¤°à¤¨": 3547,
      "Ġà¤Ĺà¤µà¤¸": 3548,
      "à¥ħà¤¾": 3549,
      "à¤°à¤¸à¤Ń": 3550,
      "à¤¯à¤®à¤¯": 3551,
      "à¤¯à¤®à¤®à¤§": 3552,
      "Ġà¤Ĩà¤°à¤ª": 3553,
      "à¤Ĺà¤¤à¤ļ": 3554,
      "à¤¬à¤Īà¤¸": 3555,
      "à¤¾?\"": 3556,
      "Ġà¤ıà¤®à¤¬": 3557,
      ">>>>": 3558,
      "à¤¾à¥ħ.": 3559,
      "over": 3560,
      "our": 3561,
      "à¥Ģà¤ĥ": 3562,
      "à¤ķà¤ķà¤°": 3563,
      "à¤¸à¤®à¤¨": 3564,
      "à¤¸à¤Ĩà¤ĺ": 3565,
      "Ġà¤ķà¤Łà¤ķ": 3566,
      "à¤³à¤Ĺà¤¤": 3567,
      "à¤«à¤¸à¤«": 3568,
      "à¤Ĩà¤ķ": 3569,
      "à¤¯à¤ļà¤ķ": 3570,
      "Ġà¥¨à¥¦à¥¨à¥¨": 3571,
      "Ġ600": 3572,
      "à¤ıà¤®à¤Ĩà¤¯": 3573,
      "Ġà¥®à¥Ń": 3574,
      "Ġà¥®à¥¦à¥¦": 3575,
      "à¤ıà¤¨à¤ı": 3576,
      "à¥ĩ).": 3577,
      "Ġà¥§à¥¦à¥¦à¥¦": 3578,
      "Ġà¤Ĩà¤ī": 3579,
      "Ġà¤¸à¤¡": 3580,
      "Ġà¤¸à¤°à¤¤": 3581,
      "Ġà¤ªà¤³à¤¤": 3582,
      "à¤ľà¤°à¤¨": 3583,
      "Ġà¤¨à¤¡": 3584,
      "à¤³à¤Ń": 3585,
      "Ġà¤¬à¤°à¤ĸ": 3586,
      "à¤ĸà¤¸": 3587,
      "à¤ĸà¤¹": 3588,
      "à¤°à¤£à¤¹": 3589,
      "à¤ĺà¤ļ": 3590,
      "à¤°à¤®à¤ļ": 3591,
      "à¤ħà¤°à¤¸": 3592,
      "à¤Ĩà¤°à¤ļ": 3593,
      "Ġ69": 3594,
      "ard": 3595,
      "Ġ195": 3596,
      "ort": 3597,
      "ish": 3598,
      "Ġvs": 3599,
      "ep": 3600,
      "pur": 3601,
      "ub": 3602,
      "à¥²": 3603,
      "à¤°à¤³à¤ķ": 3604,
      "à¤¯à¤§": 3605,
      "à¤¯à¤±": 3606,
      "à¤ĤâĢĻ": 3607,
      "à¤¹à¤ķà¤°": 3608,
      "à¥ĭ:": 3609,
      "Ġà¤ķà¤«": 3610,
      "Ġà¤ķà¤µà¤ļ": 3611,
      "Ġà¤¬à¤¨à¤¸": 3612,
      "Ġà¤²à¤ł": 3613,
      "Ġà¤ļà¤·à¤ķ": 3614,
      "Ġà¤ļà¤Łà¤£": 3615,
      "Ġà¤łà¤ªà¤ķ": 3616,
      "à¤ªà¤°à¤ļ": 3617,
      "à¤ªà¤°à¤Ĺ": 3618,
      "à¤ıà¤¤": 3619,
      "Ġ120": 3620,
      "à¤Ĩà¤Ĭà¤Ł": 3621,
      "à¤¸à¤¨à¤¨": 3622,
      "Ġà¤ķà¤®à¤ľ": 3623,
      "à¤īà¤ª": 3624,
      "à¤īà¤¨à¤²": 3625,
      "Ġà¤ĩà¤®à¤°": 3626,
      "Ġà¤ħà¤¡à¤µà¤²": 3627,
      "à¤¹à¤²à¤ªà¤®": 3628,
      "Ġà¤Ĭà¤¨": 3629,
      "Ġà¤¹à¤³à¤¹à¤³": 3630,
      "Ġ1000": 3631,
      "ram": 3632,
      "à¤°à¤«à¤³": 3633,
      "Ġà¥§à¥¯à¥¯à¥¯": 3634,
      "Ġà¤ıà¤ħà¤°à¤ª": 3635,
      "à¤¤à¤ĸà¤³à¤ķà¤°": 3636,
      "ax": 3637,
      "Ġ%": 3638,
      "à¤²à¤¥": 3639,
      "à¤ªà¤§": 3640,
      "Ġà¤¤à¤Ł": 3641,
      "Ġà¤ľà¤¯à¤¦": 3642,
      "Ġà¤¬à¤ľà¤°": 3643,
      "Ġà¤«à¤¡": 3644,
      "à¤µà¤¸à¤®": 3645,
      "à¤¶à¤¨à¤¹": 3646,
      "à¤Ĩà¤¯à¤µ": 3647,
      "à¤®à¤¨à¤Ĺà¤°": 3648,
      "Ġà¤ľà¤¨à¤ķ": 3649,
      "Ġà¥¯à¥®": 3650,
      "kar": 3651,
      "à¤¤à¤µà¤°": 3652,
      "à¤¿-": 3653,
      "à¤¸à¤ªà¤°": 3654,
      "Ġà¤®à¤°à¤¤": 3655,
      "Ġà¤®à¤¦à¤¨": 3656,
      "à¤Łà¤¡": 3657,
      "Ġà¤¯à¤®": 3658,
      "Ġà¤²à¤µà¤ļ": 3659,
      "à¤ĸà¤ª": 3660,
      "à¤¥à¤µà¤°": 3661,
      "à¤Łà¤°à¤Ł": 3662,
      "à¤¦à¤²à¤¹": 3663,
      "Ġà¤ĩà¤¤à¤°à¤¤": 3664,
      "à¤ıà¤¸à¤Ĩà¤¯": 3665,
      "Ġ76": 3666,
      "75": 3667,
      "MC": 3668,
      "Ġon": 3669,
      "à¤ªà¤³à¤Ĺ": 3670,
      "Ġà¤¤à¤Ĺ": 3671,
      "à¥Ĥ)": 3672,
      "Ġà¤ħà¤łà¤°": 3673,
      "à¤ľà¤«": 3674,
      "à¤¥à¤¡": 3675,
      "Ġà¤īà¤§à¤³": 3676,
      "Ġà¤ĸà¤¬à¤°": 3677,
      "à¥Ģ,âĢĿ": 3678,
      "Ġà¤¸à¤®à¤µ": 3679,
      "Ġà¤¨à¤µà¤µà¤°": 3680,
      "à¤ĵà¤°à¤¡": 3681,
      "à¥ªà¥ª": 3682,
      "Ġà¤ĳà¤«à¤²": 3683,
      "Ġ83": 3684,
      "ĠRa": 3685,
      "Ġà¤¦à¤£à¤¦à¤£": 3686,
      "CC": 3687,
      "à¥ĩ(": 3688,
      "à¤ķà¤¸à¤¹": 3689,
      "à¤®à¤°à¤¸": 3690,
      "Ġà¤¨à¤°à¤ķ": 3691,
      "à¤·à¤¹": 3692,
      "Ġà¤°à¤¤à¤¨": 3693,
      "Ġà¤¬à¤¡à¤Ĺ": 3694,
      "Ġà¤Ĺà¤¨": 3695,
      "Ġà¤ļà¤£": 3696,
      "Ġà¤īà¤łà¤µà¤£": 3697,
      "Ġà¤ıà¤²à¤ª": 3698,
      "Ġà¤ĸà¤²à¤¨": 3699,
      "Ġà¤Ĩà¤ªà¤¸": 3700,
      "Ġà¤¸à¤®à¤²": 3701,
      "âĢĻ.": 3702,
      "à¤ıà¤ª": 3703,
      "Ġà¤Ĩà¤®à¤¨": 3704,
      "Ġà¤ĵà¤¢à¤£": 3705,
      "à¤¡à¤ķà¤ª": 3706,
      "ana": 3707,
      "Ġà¤µà¤Ĺà¤³à¤²": 3708,
      "old": 3709,
      "49": 3710,
      "à¤µà¤ľà¤¯": 3711,
      "Ġà¤¨à¤µà¤¸": 3712,
      "à¤·à¤ªà¤£": 3713,
      "à¤¬à¤±": 3714,
      "Ġà¤°à¤¯à¤¤": 3715,
      "Ġà¤²à¤Łà¤ķ": 3716,
      "à¤Łà¤²à¤µà¤°": 3717,
      "à¤¬à¤Īà¤ķà¤¡": 3718,
      "à¤Ĩà¤Ī": 3719,
      "à¤ªà¤£à¤¨": 3720,
      "à¤²à¤¨à¤ķà¤°": 3721,
      "Ġà¥Ńà¥§": 3722,
      "Ġà¥®à¥©": 3723,
      "Ġ250": 3724,
      "ash": 3725,
      "Ġà¥²à¤¡": 3726,
      "Ġà¤¦à¤³à¤£à¤µà¤³à¤£": 3727,
      ",\"": 3728,
      "ĠZ": 3729,
      "à¤ķà¤Łà¤²": 3730,
      "à¤¸à¤¬à¤°": 3731,
      "Ġà¤¤à¤«": 3732,
      "Ġà¤ħà¤Ŀ": 3733,
      "à¤Łà¤Ł": 3734,
      "Ġà¤µà¤³à¤µà¤²": 3735,
      "à¤¡à¤¨à¤ļ": 3736,
      "Ġà¤°à¤®à¤£": 3737,
      "Ġà¤²à¤ªà¤²": 3738,
      "à¤¤à¤°à¤²": 3739,
      "Ġà¤īà¤ªà¤ª": 3740,
      "Ġà¤ĳà¤Īà¤²": 3741,
      "à¤ĵà¤µà¤°": 3742,
      "à¥¯à¥®": 3743,
      "Ġà¤Ĺà¤£à¤°": 3744,
      "Ġ78": 3745,
      "Ġ88": 3746,
      "Ġà¤īà¤¡à¤µà¤£": 3747,
      "à¥Ĥ-(": 3748,
      "à¤²à¤Ĺà¤¤à¤ļ": 3749,
      "48": 3750,
      "à¤¾à¤ĥ": 3751,
      "à¤¯à¤²à¤¯": 3752,
      "Ġà¤¸à¤ªà¤¨": 3753,
      "Ġà¤®à¤®": 3754,
      "Ġà¤®à¤Łà¤£": 3755,
      "à¤Ĺà¤°à¤£": 3756,
      "Ġà¤µà¤°à¤¤": 3757,
      "à¤³à¤ªà¤°": 3758,
      "à¤¶à¤¹à¤°": 3759,
      "Ġà¤Ĺà¤®à¤¤": 3760,
      "Ġà¤²à¤¹à¤°": 3761,
      "à¥Ģ,âĢĻ": 3762,
      "Ġà¤ªà¤¦à¤Ń": 3763,
      "à¤²à¤¬à¤ļ": 3764,
      "à¤ıà¤¸à¤ıà¤¸": 3765,
      "Ġà¥¯à¥¨": 3766,
      "Ġ96": 3767,
      "à¤Ĩà¤°à¤Ł": 3768,
      "Ġà¤Ĺà¤Łà¤µ": 3769,
      "GB": 3770,
      "IR": 3771,
      "ÃŃ": 3772,
      "à¤¯à¤¯à¤¨": 3773,
      "à¤¯à¤ľà¤°": 3774,
      "à¤¶à¤Ł": 3775,
      "Ġà¤ıà¤¨à¤°": 3776,
      "à¤Īà¤ķà¤ļ": 3777,
      "ĠâĢ¢": 3778,
      "à¤Łà¤ķà¤®à¤§": 3779,
      "à¤ľà¤ªà¤¶": 3780,
      "à¤ĩà¤²à¤ļ": 3781,
      "à¤µà¤¨à¤ķ": 3782,
      "à¥«à¥«": 3783,
      "à¥¬à¥¬": 3784,
      "Ġà¤ķà¤ªà¤®à¤§": 3785,
      "Ġà¥¬à¥§": 3786,
      "Ġ700": 3787,
      "Ġ97": 3788,
      "Ġà¤¨à¤Ĺà¤°à¤®à¤§": 3789,
      "Ġà¤²à¤¢à¤µà¤¤": 3790,
      "Ġà¤ĸà¤¡à¤¤à¤°": 3791,
      "à¤ıà¤ļà¤¡": 3792,
      "Ġà¤¹à¤®à¤ĸ": 3793,
      "Ġà¥§à¥¯à¥¯à¥¦": 3794,
      "à¤²à¤ķà¤¡": 3795,
      "à¤Ĥà¤Ĥ": 3796,
      "à¥Ĥ'": 3797,
      "Ġà¤¹à¤¬": 3798,
      "Ġà¤¹à¤°à¤ª": 3799,
      "Ġà¤ħà¤¸à¤®": 3800,
      "Ġà¤ħà¤¸à¤®à¤°": 3801,
      "Ġà¤ļà¤¢à¤µ": 3802,
      "Ġà¤īà¤ķà¤³": 3803,
      "Ġà¤«à¤ľ": 3804,
      "à¤¸à¤¨à¤ļ": 3805,
      "Ġà¤ĵà¤ª": 3806,
      "Ġà¤ħà¤ķà¤¬à¤°": 3807,
      "à¤µà¤§à¤°": 3808,
      "Ġà¤¸à¤¨à¤¦": 3809,
      "à¤¾',": 3810,
      "ĠMarathi": 3811,
      "Ġ2005": 3812,
      "================================": 3813,
      ".âĢĻâĢĻ": 3814,
      "IA": 3815,
      "Ġh": 3816,
      "Ġi": 3817,
      "à¥ĩâĢĿ,": 3818,
      "à¤²à¤¬à¤°": 3819,
      "à¤£à¤µà¤°": 3820,
      "à¤ªà¤ª": 3821,
      "à¥ĩ.....": 3822,
      "Ġà¤ľà¤¡à¤£": 3823,
      "Ġà¤Ńà¤¸": 3824,
      "à¥Ģ.'": 3825,
      "Ġà¤Ĩà¤ľà¤µà¤°à¤ļ": 3826,
      "à¤°à¤¶à¤¸": 3827,
      "à¤µà¤³à¤²": 3828,
      "à¥įâĢįâĢĮ": 3829,
      "Ġà¤ķà¤®à¤µ": 3830,
      "à¥«à¥Ń": 3831,
      "Ġà¤ķà¤¸à¤°à¤¤": 3832,
      "à¥©à¥¨": 3833,
      "à¥©à¥§": 3834,
      "à¥©à¥Ń": 3835,
      "à¤Īà¤¨à¤Ĺà¤°": 3836,
      "âĢ¦.": 3837,
      "Ġà¤Ńà¤°à¤ĺ": 3838,
      "Ġà¥®à¥¨": 3839,
      "à¤¯à¤°à¤¸à¤¨": 3840,
      "à¤ĩà¤²à¤µà¤°": 3841,
      "acc": 3842,
      "Ġà¤Ĩà¤Ŀà¤®": 3843,
      "imp": 3844,
      "ob": 3845,
      "ru": 3846,
      "ry": 3847,
      "Ġre": 3848,
      "à¤į": 3849,
      "à¤µà¤ĸ": 3850,
      "à¤¸à¤ªà¤£": 3851,
      "Ġà¤¸à¤µà¤°": 3852,
      "Ġà¤¸à¤ķà¤²": 3853,
      "Ġà¤ħà¤Ĺà¤°": 3854,
      "Ġà¤ħà¤ªà¤¤": 3855,
      "à¤¡à¤§": 3856,
      "Ġà¤¦à¤®à¤Ł": 3857,
      "Ġà¤¬à¤Łà¤°": 3858,
      "à¤¥à¤¤à¤ľ": 3859,
      "Ġà¤ļà¤¢à¤£": 3860,
      "Ġà¤Ĩà¤¤à¤®à¤§": 3861,
      "à¤¡à¤²à¤µà¤°": 3862,
      "à¤Ĩà¤īà¤Ł": 3863,
      "à¤¤à¤ķà¤®": 3864,
      "à¤·à¤¯à¤°": 3865,
      "à¤¤à¤ªà¤¦": 3866,
      "à¥©à¥®": 3867,
      "Ġà¤²à¤Ĺà¤¬à¤Ĺ": 3868,
      "Ġà¤ıà¤¸à¤ª": 3869,
      "Ġ77": 3870,
      "are": 3871,
      "à¤°à¤³à¤ļ": 3872,
      "all": 3873,
      "ĠAn": 3874,
      "Ġà¥§à¥¯à¥®à¥¦": 3875,
      ":-": 3876,
      "PF": 3877,
      "ta": 3878,
      "Ġand": 3879,
      "à¤°à¤¤à¤°": 3880,
      "à¤µà¤Ĺà¤£": 3881,
      "Ġà¤Ĩà¤µà¤¡à¤£": 3882,
      "Ġà¤Ĩà¤¡à¤¨": 3883,
      "Ġà¤¤à¤³à¤²": 3884,
      "Ġà¤¬à¤Łà¤£": 3885,
      "Ġà¤²à¤ªà¤µà¤²": 3886,
      "à¤µà¤°à¤¸": 3887,
      "Ġà¤Ŀà¤Ł": 3888,
      "à¤¾.âĢĻ": 3889,
      "Ġà¤īà¤ªà¤Ń": 3890,
      "à¤Ĺà¤²à¤¨": 3891,
      "à¤ľà¤¨à¤¶": 3892,
      "Ġà¤ªà¤£à¤ľ": 3893,
      "Ġà¤Ĩà¤ľà¤®": 3894,
      "à¤°à¤ªà¤¡": 3895,
      "à¤Łà¤¨à¤°": 3896,
      "à¤ķà¤²à¤ķ": 3897,
      "Ġà¤ħà¤®à¤³à¤¨": 3898,
      "Ġà¤¤à¤ªà¤ķ": 3899,
      "à¤īà¤°": 3900,
      "Ġà¤Ĭà¤¸à¤¤": 3901,
      "Ġà¥§à¥§à¥¦": 3902,
      "Ġà¤īà¤łà¤¤": 3903,
      "Ġto": 3904,
      "ood": 3905,
      "Ma": 3906,
      "ss": 3907,
      "à¥ĩà¤¼": 3908,
      "à¤¯à¤Łà¤°": 3909,
      "Ġà¤Ĩà¤ķà¤²à¤¨": 3910,
      "à¤®à¤«": 3911,
      "Ġà¤¸à¤ľà¤µ": 3912,
      "Ġà¤®à¤¦à¤°": 3913,
      "à¤łà¤ªà¤£": 3914,
      "Ġà¤Ĺà¤ľà¤¬": 3915,
      "Ġà¤Ĺà¤Ŀà¤²": 3916,
      "Ġà¤Ńà¤ľ": 3917,
      "Ġà¤ıà¤²à¤¬": 3918,
      "à¤Īà¤Łà¤ļ": 3919,
      "à¤±à¤¯": 3920,
      "Ġà¤¸à¤°à¤ķà¤²": 3921,
      "à¥ªà¥®": 3922,
      "à¤ıà¤¸à¤ª": 3923,
      "à¤ķà¤Łà¤µà¤°": 3924,
      "Ġà¤ªà¤¡à¤Ŀà¤¡": 3925,
      "Ġà¥¨à¥¦à¥¦à¥¨": 3926,
      "Ġà¤ªà¤ķà¤¡à¤¤": 3927,
      "Ġà¤®à¤¶à¤°": 3928,
      "awar": 3929,
      "?,": 3930,
      "Coronavirus": 3931,
      "jay": 3932,
      "à¤¨à¤Ĺà¤¡": 3933,
      "à¤Ĥ'": 3934,
      "Ġà¤ħà¤¥": 3935,
      "à¤§à¤µà¤°": 3936,
      "à¤¬à¤²à¤ļ": 3937,
      "Ġà¤ĺà¤°à¤ª": 3938,
      "Ġà¤ªà¤°à¤µà¤¡à¤¤": 3939,
      "Ġà¤īà¤ªà¤ħà¤§": 3940,
      "Ġà¤Ĩà¤¯à¤ı": 3941,
      "à¤ĩà¤¥": 3942,
      "à¤ľà¤¯à¤¸": 3943,
      "Ġà¤¸à¤¤à¤¤à¤ļ": 3944,
      "à¥¯à¥Ń": 3945,
      "à¥¬à¥«": 3946,
      "Ġà¤ľà¤Ĺà¤ľ": 3947,
      "Ġà¤Ĳà¤¨à¤µ": 3948,
      "Ġà¤ıà¤®à¤¸": 3949,
      "Ġà¥¬à¥¨": 3950,
      "à¤ıà¤®à¤ıà¤ļ": 3951,
      "Ġà¤Īà¤ª": 3952,
      "à¤µà¤Łà¤ªà¤°": 3953,
      "ans": 3954,
      "Ġà¥¨à¥¦à¥¦à¥§": 3955,
      "à¤¯à¤«à¤²": 3956,
      "Ġfor": 3957,
      "Ġà¤¹à¤°à¤Ńà¤ľà¤¨": 3958,
      "90": 3959,
      "__": 3960,
      "ric": 3961,
      "à¤¯à¤°à¤¨": 3962,
      "à¤µà¤¨à¤ļ": 3963,
      "à¤¦à¤µà¤¡": 3964,
      "Ġà¤ħà¤¥à¤ķ": 3965,
      "à¤¡à¤°à¤¸": 3966,
      "Ġà¤¯à¤¹": 3967,
      "à¤³à¤¹": 3968,
      "Ġà¤ľà¤³à¤ľ": 3969,
      "à¥Ģ.....": 3970,
      "à¤µà¤¸à¤ķà¤°": 3971,
      "à¤·à¤£à¤¹": 3972,
      "à¤·à¤£à¤Ńà¤°": 3973,
      "à¥«à¥®": 3974,
      "à¤ĵà¤¹": 3975,
      "Ġà¤ªà¤¸à¤°à¤£": 3976,
      "Ġ94": 3977,
      "Ġà¤§à¤°à¤£à¤Ĺ": 3978,
      "Ġà¤ªà¤Łà¤ķà¤¥": 3979,
      "!!!": 3980,
      "36": 3981,
      "ip": 3982,
      "à¤¨à¤µà¤¡": 3983,
      "à¤¨à¤°à¤¨": 3984,
      "à¤ķà¤Ĺ": 3985,
      "à¤¦à¤ĸ": 3986,
      "à¤Łà¤µà¤¸": 3987,
      "Ġà¤ľà¤Ł": 3988,
      "Ġà¤°à¤¡à¤£": 3989,
      "Ġà¤īà¤°à¤¤": 3990,
      "Ġà¤Ŀà¤Ĺ": 3991,
      "à¤ħà¤¹": 3992,
      "à¤·à¤ķà¤ªà¤¦": 3993,
      "à¤¨à¤¸à¤®": 3994,
      "à¤ķà¤£à¤ļ": 3995,
      "Ġà¤¹à¤²à¤µà¤²": 3996,
      "Ġ86": 3997,
      "ath": 3998,
      "ast": 3999,
      "Ġà¤°à¤®à¤ľ": 4000,
      "Ġà¤ħà¤Łà¤²à¤ľ": 4001,
      "endra": 4002,
      "Ġ@": 4003,
      "à¥į,": 4004,
      "à¤¤à¤¨à¤µ": 4005,
      "à¤ķà¤¸à¤¨": 4006,
      "à¤¸à¤Ńà¤°": 4007,
      "à¤¹à¤ļà¤¤": 4008,
      "Ġà¤ħà¤µà¤°": 4009,
      "à¤Ĺà¤¢": 4010,
      "à¤§à¤¡": 4011,
      "à¤·à¤¯à¤ļ": 4012,
      "Ġà¤¬à¤¸à¤¨": 4013,
      "Ġà¤¬à¤¢à¤¤": 4014,
      "Ġà¤ħà¤¸à¤¦": 4015,
      "à¤ĸà¤¨à¤¨": 4016,
      "à¤¥à¤¹": 4017,
      "Ġà¤ĸà¤Łà¤ķ": 4018,
      "Ġà¤¤à¤¸à¤ļ": 4019,
      "à¤®à¤ļà¤°": 4020,
      "à¤ľà¤ªà¤µ": 4021,
      "à¤ľà¤ķà¤¤": 4022,
      "à¥ªà¥¨": 4023,
      "à¤°à¤¹à¤ľà¤°": 4024,
      "Ġà¥Ńà¥¬": 4025,
      "Ġà¤«à¤²à¤Łà¤£": 4026,
      "Ġà¤īà¤ķà¤³à¤¤": 4027,
      "hats": 4028,
      "/-": 4029,
      "500": 4030,
      "à¤°à¤Ĺà¤²": 4031,
      "à¤¯à¤¡à¤¨": 4032,
      "à¤ļà¤ªà¤£": 4033,
      "à¤¹à¤¢": 4034,
      "Ġà¤Ĩà¤¦à¤²": 4035,
      "à¤ªà¤°à¤®": 4036,
      "à¤Łà¤µà¤£": 4037,
      "Ġà¤¦à¤¡à¤²": 4038,
      "à¤¬à¤¶": 4039,
      "Ġà¤ľà¤²à¤¯": 4040,
      "Ġà¤°à¤«": 4041,
      "à¥Ģ.)": 4042,
      "Ġà¤ĩà¤¯à¤°": 4043,
      "à¤ķà¤°à¤®à¤§": 4044,
      "Ġà¤¸à¤°à¤¬à¤¤": 4045,
      "à¤µà¤¨à¤¸": 4046,
      "à¤¨à¤²à¤ļ": 4047,
      "Ġ--": 4048,
      "Ġ-----------------": 4049,
      "Ġà¤®à¤²à¤Ī": 4050,
      "à¤ŀà¤¤": 4051,
      "à¤ıà¤¸à¤¬": 4052,
      "Ġ89": 4053,
      "Ġ92": 4054,
      "Ġà¥¨à¥¦à¥¦à¥©": 4055,
      "hack": 4056,
      "Ġà¤ľà¤³à¤ľà¤³": 4057,
      "31": 4058,
      "38": 4059,
      "ld": 4060,
      "ress": 4061,
      "Ġà¤±": 4062,
      "à¤ļà¤µà¤Ł": 4063,
      "à¤ĸà¤ªà¤£": 4064,
      "à¤¥à¤ªà¤£": 4065,
      "Ġà¤Ńà¤¦": 4066,
      "à¤µà¤¤à¤ļ": 4067,
      "à¤ıà¤ı": 4068,
      "à¤ħà¤µ": 4069,
      "à¤¯à¤²à¤²": 4070,
      "Ġà¤Ĩà¤¯à¤Łà¤®": 4071,
      "Ġà¤ĺà¤°à¤¬": 4072,
      "à¤®à¤ķà¤¥": 4073,
      "à¥ªà¥¬": 4074,
      "à¥®à¥®": 4075,
      "Ġà¥®à¥¯": 4076,
      "Ġà¤ªà¤¸à¤°à¤µà¤²": 4077,
      "Ġ98": 4078,
      "à¤Ĺà¤¨à¤®à¤¤": 4079,
      "Ġà¤ªà¤²à¤Łà¤µ": 4080,
      "Ġà¤ıà¤²à¤Īà¤¡": 4081,
      "à¥¤à¥¤": 4082,
      "Ġthe": 4083,
      "Ġà¤ķà¤±à¤£": 4084,
      "AA": 4085,
      "PSC": 4086,
      "iz": 4087,
      "Ġa": 4088,
      "à¤¤à¤¬à¤¦": 4089,
      "à¤¨à¤°à¤²": 4090,
      "à¤ķà¤ķà¤³": 4091,
      "à¤µà¤±": 4092,
      "à¤¹à¤Ĺ": 4093,
      "à¤ªà¤ľà¤¨à¤ķ": 4094,
      "Ġà¤¤à¤³à¤£": 4095,
      "à¥Ĥ?": 4096,
      "à¤Łà¤°à¤µ": 4097,
      "Ġà¤¦à¤¸à¤±": 4098,
      "Ġà¤ľà¤ķ": 4099,
      "Ġà¤Ńà¤°à¤®à¤¸": 4100,
      "à¤°à¤¤à¤ļ": 4101,
      "à¤¢à¤³": 4102,
      "Ġà¤łà¤£à¤ķ": 4103,
      "à¥Į-": 4104,
      "à¤¯à¤¤à¤ķ": 4105,
      "à¤µà¤³à¤¤": 4106,
      "Ġà¤ĵà¤¹": 4107,
      "à¥§à¥§à¥": 4108,
      "à¥ªà¥Ń": 4109,
      "Ġà¤Ĺà¤£à¤µ": 4110,
      "à¥Ģ).": 4111,
      "Ġ2010": 4112,
      "Ġ800": 4113,
      "Ġà¤ıà¤²à¤Ĩà¤¯à¤¸": 4114,
      "à¤ĳà¤°": 4115,
      "ust": 4116,
      "Ġst": 4117,
      "ife": 4118,
      "hacker": 4119,
      "200": 4120,
      "76": 4121,
      "MS": 4122,
      "ne": 4123,
      "à¤¨à¤Īà¤¤": 4124,
      "à¤µà¤Ĺà¤¡": 4125,
      "Ġà¤¸à¤ªà¤ķ": 4126,
      "Ġà¤¸à¤¶à¤ķ": 4127,
      "Ġà¤¸à¤¶à¤¸": 4128,
      "à¤¦à¤¯à¤°": 4129,
      "à¤§à¤¹": 4130,
      "à¤§à¤°à¤µà¤¡": 4131,
      "à¤¬à¤®": 4132,
      "à¤ĸà¤µà¤Ł": 4133,
      "Ġà¤ĺà¤¨à¤ķ": 4134,
      "à¤Ńà¤°à¤£": 4135,
      "Ġà¤īà¤ľà¤¨": 4136,
      "Ġà¤Ŀà¤ķ": 4137,
      "à¤Īà¤¸à¤°": 4138,
      "à¤¾.âĢĿ": 4139,
      "à¤¬à¤°à¤ł": 4140,
      "à¤ıà¤¸à¤¨": 4141,
      "à¤°à¤¦à¤¯": 4142,
      "Ġà¤ĵà¤¢à¤µà¤²": 4143,
      "Ġà¤Ľà¤Ł": 4144,
      "Ġà¤®à¤¦à¤¤à¤¨": 4145,
      "à¥©à¥¬": 4146,
      "Ġà¤Ĳà¤°à¤£": 4147,
      "Ġà¥§à¥¦à¥«": 4148,
      "Ġ81": 4149,
      "à¤®à¤¸à¤Ń": 4150,
      "Ġà¤īà¤¤à¤°à¤µà¤£": 4151,
      "Ġà¥§à¥®à¥¦": 4152,
      "Ġ2006": 4153,
      "Ġà¤Ĩà¤ļà¤°à¤£": 4154,
      "ingh": 4155,
      "Ġwww": 4156,
      "oday": 4157,
      "impri": 4158,
      "ST": 4159,
      "pd": 4160,
      "ue": 4161,
      "à¤°à¤°à¤ķ": 4162,
      "à¤ĤâĢ¦": 4163,
      "à¤¹à¥Ł": 4164,
      "à¤£à¤°": 4165,
      "à¤£à¤ľ": 4166,
      "Ġà¤ķà¤µà¤¡": 4167,
      "Ġà¤¸à¤ľà¤Ĺ": 4168,
      "Ġà¤¸à¤«à¤°": 4169,
      "à¤ªà¤ªà¤°": 4170,
      "Ġà¤ħà¤ĺ": 4171,
      "Ġà¤µà¤Łà¤µ": 4172,
      "Ġà¤¨à¤¥": 4173,
      "à¤·à¤°à¤¤": 4174,
      "Ġà¤¬à¤¬à¤¨": 4175,
      "Ġà¤Ĺà¤²à¤µ": 4176,
      "Ġà¤īà¤Ĺà¤®": 4177,
      "à¤Īà¤Łà¤¨": 4178,
      "Ġà¤«à¤¤": 4179,
      "Ġà¤Łà¤ªà¤°": 4180,
      "Ġà¤ķà¤®à¤²à¤¨": 4181,
      "Ġà¤īà¤¦à¤ĺ": 4182,
      "Ġà¤ĵà¤¢à¤¤": 4183,
      "Ġà¤ľà¤®à¤µà¤²": 4184,
      "à¤ķà¤£à¤ķà¤°": 4185,
      "Ġà¤Ĺà¤°à¤¬": 4186,
      "à¤µà¤°à¤£à¤ª": 4187,
      "à¤¤à¤¤à¤§": 4188,
      "ance": 4189,
      "Ġà¤Ĩà¤łà¤µà¤¡à¤¯": 4190,
      "Ġà¥§à¥®à¥®": 4191,
      "ĠCh": 4192,
      "Ġ2004": 4193,
      "Ġà¥§à¥¯à¥®à¥¯": 4194,
      "ĠâĢĭâĢĭ": 4195,
      "der": 4196,
      "gl": 4197,
      "odi": 4198,
      "uk": 4199,
      "Ġà¤Ļ": 4200,
      "à¤¤à¤Ł": 4201,
      "à¤¤à¤Ĳà¤µà¤ľ": 4202,
      "à¤²à¤°à¤¨": 4203,
      "à¤ļà¤°à¤£": 4204,
      "à¤ľà¤ľ": 4205,
      "Ġà¤¨à¤¬": 4206,
      "à¥ĩ.âĢ¦": 4207,
      "à¤łà¤¬à¤³": 4208,
      "Ġà¤īà¤¦à¤°à¤¨": 4209,
      "Ġà¤ĸà¤£": 4210,
      "à¤¤à¤°à¤¨": 4211,
      "à¤ĺà¤¡à¤¤": 4212,
      "à¤¾,âĢĻ": 4213,
      "Ġà¤īà¤ªà¤¹": 4214,
      "Ġà¤Ĩà¤ľà¤¤": 4215,
      "à¤ħà¤°à¤²": 4216,
      "à¤ħà¤°à¤¨": 4217,
      "à¤¨à¤¸à¤¶": 4218,
      "Ġà¤Ĩà¤¦à¤³à¤²": 4219,
      "Ġà¤ľà¤®à¤£": 4220,
      "Ġà¤¸à¤¦à¤°à¤ļ": 4221,
      "Ġà¥®à¥§": 4222,
      "Ġà¥§à¥¨à¥«": 4223,
      "......": 4224,
      "Ġà¤°à¤£à¤¦": 4225,
      "Ġà¤°à¤£à¤§": 4226,
      "Ġà¤ĭà¤£": 4227,
      "Ġà¤¨à¤µà¤°à¤¦": 4228,
      "Ġà¥§à¥¯à¥¯à¥§": 4229,
      "ĠWor": 4230,
      "ack": 4231,
      "Ġà¤Ŀà¤³à¤ķà¤£": 4232,
      "Ġà¤ľà¤¡à¤£à¤ĺà¤¡à¤£": 4233,
      "\".": 4234,
      "'.": 4235,
      "33": 4236,
      "44": 4237,
      "JP": 4238,
      "ies": 4239,
      "ou": 4240,
      "à¤¯à¤¦à¤°": 4241,
      "à¤¯à¤¦à¤²": 4242,
      "à¤¯à¤ĸà¤³": 4243,
      "à¤ķà¤ħ": 4244,
      "Ġà¤ķà¤ªà¤²": 4245,
      "à¤®à¤ªà¤°": 4246,
      "Ġà¤ªà¤Ĺà¤¡": 4247,
      "Ġà¤¤à¤±": 4248,
      "à¤Łà¤°à¤ķà¤¡": 4249,
      "Ġà¤µà¤¨à¤ķ": 4250,
      "à¤¡à¤Ľ": 4251,
      "à¤ľà¤°à¤ļ": 4252,
      "à¤¬à¤ª": 4253,
      "Ġà¤ķà¤°à¤¡": 4254,
      "Ġà¤ķà¤°à¤®à¤£": 4255,
      "à¤ĸà¤ªà¤¤": 4256,
      "Ġà¤®à¤¹à¤®": 4257,
      "Ġà¤¸à¤°à¤²": 4258,
      "à¤ıà¤¤à¤¨": 4259,
      "à¤Īà¤²à¤¨": 4260,
      "à¥«à¥¬": 4261,
      "à¤ħà¤°à¤µà¤°": 4262,
      "à¥¯à¥ª": 4263,
      "à¥¯à¥¬": 4264,
      "à¤¾?âĢĻ": 4265,
      "à¤ıà¤¸à¤Ĩà¤°": 4266,
      "à¤ıà¤¸à¤ıà¤®à¤Ł": 4267,
      "Ġà¤ħà¤«à¤²": 4268,
      "Ġà¤·à¤¡à¤¯": 4269,
      "à¤¯à¤Łà¤¨à¤¸": 4270,
      "Ġà¤ıà¤ļà¤Ĩà¤¯à¤µ": 4271,
      "ĠWHO": 4272,
      "Ġà¤ĵà¤¸à¤°à¤²": 4273,
      "?)": 4274,
      "RC": 4275,
      "à¤²à¤¸à¤°": 4276,
      "à¤¿à¤ĥ": 4277,
      "à¤¨à¤¬à¤¦": 4278,
      "à¤¸à¤ħà¤ª": 4279,
      "Ġà¤¤à¤Łà¤¸": 4280,
      "à¤Ĺà¤ķà¤°": 4281,
      "à¤·à¤¯à¤¨": 4282,
      "Ġà¤ļà¤¡": 4283,
      "à¤¢à¥Ł": 4284,
      "Ġà¤ĩà¤·": 4285,
      "Ġà¤ĩà¤¨à¤ķ": 4286,
      "Ġà¤Ĩà¤¤à¤¡": 4287,
      "à¤ıà¤¨à¤¸": 4288,
      "Ġà¤¸à¤¹à¤ľà¤¤": 4289,
      "à¤¯à¤¨à¤¨": 4290,
      "à¤°à¤¨à¤Ĺà¤°": 4291,
      "à¥Ńà¥Ń": 4292,
      "Ġà¤ıà¤¸à¤Ĩà¤¯à¤Ł": 4293,
      "Ġà¤Īà¤¦": 4294,
      "à¤µà¤Ńà¤ķ": 4295,
      "à¤Ĩà¤°à¤ıà¤«": 4296,
      "à¤°à¤¬à¤¦à¤²": 4297,
      "Ġà¤Ĭà¤¤": 4298,
      "ĠApp": 4299,
      "Ġ2003": 4300,
      "ase": 4301,
      "à¤¯à¤ķà¤²à¤µà¤°": 4302,
      "Ġ>>>": 4303,
      "dian": 4304,
      "rime": 4305,
      "IT": 4306,
      "SS": 4307,
      "Ġà¤Ĩà¤ķà¤¸": 4308,
      "Ġà¤®à¤Łà¤ķ": 4309,
      "à¤¡à¤ªà¤¤": 4310,
      "Ġà¤¬à¤Łà¤¨": 4311,
      "Ġà¤¬à¤¬à¤²": 4312,
      "Ġà¤²à¤ľ": 4313,
      "à¤ĸà¤¬à¤°": 4314,
      "Ġà¤ĺà¤¨à¤¦": 4315,
      "à¤Īà¤ıà¤®": 4316,
      "Ġà¤«à¤£à¤¸": 4317,
      "à¤°à¤®à¤ª": 4318,
      "Ġà¤ħà¤¨à¤°": 4319,
      "Ġà¤īà¤ªà¤¸à¤®": 4320,
      "à¤µà¤¤à¤¯": 4321,
      "à¤¦à¤°à¤ªà¤£": 4322,
      "à¤ľà¤¨à¤¸": 4323,
      "à¤Łà¤²à¤°": 4324,
      "à¤Łà¤°à¤ªà¤°": 4325,
      "Ġà¤¥à¤Ł": 4326,
      "Ġà¤ªà¤¤à¤¸": 4327,
      "Ġà¤ªà¤µà¤Ī": 4328,
      "à¥©à¥ª": 4329,
      "ĠSh": 4330,
      "ĠPawar": 4331,
      "ens": 4332,
      "ure": 4333,
      "Ġà¤īà¤ķà¤³à¤£": 4334,
      "app": 4335,
      "Ġà¤īà¤ķà¤¡à¤²": 4336,
      "ND": 4337,
      "oy": 4338,
      "sp": 4339,
      "Ġe": 4340,
      "à¤¨à¤¬à¤°": 4341,
      "à¤¹à¤®à¤§": 4342,
      "à¤¹à¤ļà¤µ": 4343,
      "Ġà¤ªà¤Łà¤¨": 4344,
      "Ġà¤ªà¤Łà¤£": 4345,
      "Ġà¤¤à¤Ĺà¤¡": 4346,
      "à¤Łà¤µà¤²": 4347,
      "à¤³à¤ĺ": 4348,
      "à¤ĸà¤²à¤¨": 4349,
      "Ġà¤ļà¤Ł": 4350,
      "Ġà¤īà¤«": 4351,
      "Ġà¤īà¤¡à¤£": 4352,
      "Ġà¤ĸà¤Ĺ": 4353,
      "à¤¤à¤°à¤¦": 4354,
      "à¤¤à¤°à¤ľ": 4355,
      "à¥Ī)": 4356,
      "à¤Ĭà¤¦à¤ļ": 4357,
      "à¤°à¤µà¤³": 4358,
      "à¤ªà¤°à¤Ńà¤£": 4359,
      "à¤¯à¤®à¤°": 4360,
      "à¤Ŀà¤ļ": 4361,
      "Ġà¤ªà¤£à¤¨": 4362,
      "à¤ħà¤ķà¤°": 4363,
      "à¤Ĩà¤¦": 4364,
      "à¤Łà¤°à¤¬": 4365,
      "à¤ĩà¤²à¤®à¤§": 4366,
      "Ġà¤®à¤²à¤®": 4367,
      "à¤Ľà¤¡": 4368,
      "Ġ350": 4369,
      "à¤¸à¤¦à¤¸": 4370,
      "Ġ61": 4371,
      "Ġ93": 4372,
      "Ġà¤īà¤¡à¤µà¤¤": 4373,
      "à¤Ĩà¤°à¤ıà¤¸": 4374,
      "Ġà¤¨à¤Ĺà¤°à¤ļ": 4375,
      "ĠPimpri": 4376,
      "Ġà¤¤à¤³à¤®à¤³": 4377,
      "Ġ04": 4378,
      "Ġ07": 4379,
      "Ġà¥§à¥¯à¥¯à¥«": 4380,
      "ung": 4381,
      "à¤¯à¤Ŀà¤°à¤ļ": 4382,
      "Ġà¤ĸà¤¡à¤ķà¤µ": 4383,
      "à¤½à¤½": 4384,
      "hackeray": 4385,
      "05": 4386,
      "Mumbai": 4387,
      "PC": 4388,
      "gov": 4389,
      "Ġy": 4390,
      "à¤°à¤ľà¤¨à¤¨": 4391,
      "à¤¤à¤ľà¤®": 4392,
      "à¤²à¤°à¤®à¤§": 4393,
      "à¤¸à¤ªà¤Ł": 4394,
      "Ġà¤Ĩà¤īà¤Ł": 4395,
      "Ġà¤ªà¤ļ": 4396,
      "à¤¦à¤¡": 4397,
      "Ġà¤ħà¤¡à¤¸": 4398,
      "Ġà¤ļà¤¨": 4399,
      "Ġà¤®à¤¹à¤°": 4400,
      "à¥ĪâĢĻ": 4401,
      "à¥Ģ,\"": 4402,
      "à¥Ģ,'": 4403,
      "Ġà¤¸à¤®à¤ķ": 4404,
      "Ġà¤Ĩà¤®à¤Ł": 4405,
      "Ġà¤ĳà¤ĩà¤²": 4406,
      "à¤Ĺà¤³à¤¸": 4407,
      "Ġà¤ĺà¤°à¤Ł": 4408,
      "à¤°à¤ĸà¤°": 4409,
      "à¤¸à¤®à¤¸": 4410,
      "Ġà¤Ķà¤¤": 4411,
      "à¤°à¤Ńà¤ķ": 4412,
      "Ġà¤ħà¤µà¤Ĺà¤¤": 4413,
      "2020": 4414,
      "ĠSp": 4415,
      "Ġà¤įà¤¨": 4416,
      "Ġà¥²à¤ª": 4417,
      "Ġà¥§à¥¯à¥¯à¥¨": 4418,
      "ovid": 4419,
      "ĠĠĠĠĠĠĠĠĠĠĠĠĠĠĠĠĠĠĠĠĠĠĠĠĠĠĠĠĠĠĠĠ": 4420,
      "AT": 4421,
      "ET": 4422,
      "IV": 4423,
      "ee": 4424,
      "ĠðŁ": 4425,
      "à¤°à¤¹à¤®": 4426,
      "à¤²à¤§": 4427,
      "à¤®à¤ĺ": 4428,
      "à¤®à¤ķà¤¡": 4429,
      "Ġà¤µà¤·": 4430,
      "Ġà¤µà¤°à¤£": 4431,
      "à¤ľà¤²à¤Ĺ": 4432,
      "à¤¶à¤Ŀ": 4433,
      "à¤¬à¤°à¤£": 4434,
      "Ġà¤ľà¤ªà¤¤": 4435,
      "Ġà¤īà¤¸à¤³": 4436,
      "Ġà¤ıà¤ıà¤¨": 4437,
      "à¤°à¤®à¤¦": 4438,
      "à¤Ĭà¤¥": 4439,
      "à¤°à¤¸à¤ª": 4440,
      "à¤Ĺà¤¤à¤ľ": 4441,
      "à¤Ĺà¤°à¤Ĺ": 4442,
      "à¤Łà¤¨à¤¨": 4443,
      "à¤¸à¤²à¤Ĺ": 4444,
      "à¤Łà¤ķà¤ķ": 4445,
      "Ġà¤Ĩà¤¯à¤¬": 4446,
      "Ġà¤ĵà¤¤": 4447,
      "à¥«à¥¦à¥¦": 4448,
      "à¤ĵà¤ķ": 4449,
      "Ġà¥©à¥«à¥¦": 4450,
      "à¤¨à¤µà¤Ł": 4451,
      "à¤īà¤¨à¤®à¤§": 4452,
      "à¤Ĩà¤¯à¤ı": 4453,
      "Ġà¥Ńà¥¯": 4454,
      "à¤¨à¤Ĺà¤°à¤ļ": 4455,
      "Ġ79": 4456,
      "à¤°à¤®à¤§à¤²": 4457,
      "Ġà¥¯à¥§": 4458,
      "à¤¡à¤®à¤§à¤²": 4459,
      "à¤ıà¤¨à¤¬": 4460,
      "Ġ01": 4461,
      "à¤ĳà¤¨": 4462,
      "à¤ĳà¤ªà¤°": 4463,
      "Ġà¤īà¤§à¤³à¤£": 4464,
      "Ġà¤īà¤§à¤³à¤²": 4465,
      "!!!!": 4466,
      "ĠEx": 4467,
      "Ġà¤ıà¤®à¤Ĩà¤¯à¤ıà¤®": 4468,
      "Ġà¥§à¥¯à¥ªà¥Ń": 4469,
      "67": 4470,
      "SE": 4471,
      "à¤µà¤ĸà¤°": 4472,
      "à¤¦à¤µà¤¨": 4473,
      "Ġà¤ľà¤Ĺà¤²": 4474,
      "Ġà¤°à¤¨à¤ļ": 4475,
      "Ġà¤°à¤ļà¤£": 4476,
      "à¤°à¤ķà¤¨": 4477,
      "à¤Īà¤ªà¤²": 4478,
      "à¤¤à¤°à¤ľà¤®": 4479,
      "Ġà¤ĩà¤¡": 4480,
      "à¤Ĩà¤µ": 4481,
      "à¥¬à¥Ń": 4482,
      "Ġà¤¬à¤¸à¤µà¤¤": 4483,
      "Ġà¤ľà¤Ĺà¤ª": 4484,
      "à¤Łà¤®à¤§à¤²": 4485,
      "Ġà¥§à¥«à¥¦à¥¦": 4486,
      "ong": 4487,
      "Ġà¤ıà¤¨à¤Ĩà¤°à¤¸": 4488,
      "Ġà¤µà¤¨à¤ª": 4489,
      "ĠPol": 4490,
      "ĠCO": 4491,
      "Ġ110": 4492,
      "à¤ıà¤¨à¤¯": 4493,
      "à¤ıà¤¨à¤ª": 4494,
      "Ġà¤įà¤ª": 4495,
      "Ġà¤īà¤ľà¤³": 4496,
      "Ġà¥§à¥¯à¥®à¥ª": 4497,
      "Ġà¤¤à¤¡à¤«": 4498,
      "ams": 4499,
      "Ġà¥§à¥¯à¥¬à¥¦": 4500,
      "ĠUpd": 4501,
      "Ġà¤ľà¤²à¤¦à¤Ĺà¤¤": 4502,
      "Ġà¤Ĩà¤¯à¤ıà¤ıà¤¸": 4503,
      "Ġà¤ĺà¤°à¤¬à¤¸à¤²": 4504,
      "42": 4505,
      "95": 4506,
      "AI": 4507,
      "TC": 4508,
      "ff": 4509,
      "had": 4510,
      "Ġj": 4511,
      "Ĥ¹": 4512,
      "à¤¨à¤Ĭ": 4513,
      "à¤ķà¤ķà¤¡": 4514,
      "à¤µà¤¤à¤°": 4515,
      "à¤µà¤§à¤¨": 4516,
      "à¤ļà¤¦à¤°à¤®": 4517,
      "à¤¸à¤Ĺà¤³": 4518,
      "Ġà¤ķà¤¯": 4519,
      "Ġà¤¸à¤ĸà¤²": 4520,
      "Ġà¤ħà¤Ŀà¤°": 4521,
      "à¤Ĺà¤Ĺ": 4522,
      "à¤¡à¤ªà¤²": 4523,
      "à¤³à¥Ł": 4524,
      "Ġà¤²à¤ªà¤µà¤£": 4525,
      "à¤µà¤°à¤®à¤§": 4526,
      "à¤¥à¤°à¤¸": 4527,
      "Ġà¤īà¤¬": 4528,
      "Ġà¤ĸà¤µà¤²": 4529,
      "à¤°à¤£à¤ļ": 4530,
      "à¤¹à¤£à¤µ": 4531,
      "Ġà¤ªà¤°à¤ĸà¤¡": 4532,
      "Ġà¤¡à¤ļ": 4533,
      "Ġà¤§à¤¸": 4534,
      "à¤Ŀà¤¨à¤®à¤§": 4535,
      "à¤Ĥ.\"": 4536,
      "à¤Ĩà¤°à¤ķ": 4537,
      "à¤Ĩà¤ªà¤ļ": 4538,
      "à¤¸à¤¨à¤¹": 4539,
      "Ġà¤ľà¤¨à¤®": 4540,
      "à¤¯à¤¦à¤³": 4541,
      "Ġà¤ıà¤®à¤Ł": 4542,
      "à¤ıà¤¸à¤ı": 4543,
      "Ġà¤ħà¤Łà¤ķà¤ª": 4544,
      "Ġ87": 4545,
      "Ġà¤ıà¤¨à¤ª": 4546,
      "Ġà¤ıà¤¨à¤Ł": 4547,
      "ĠCorona": 4548,
      "ĠRes": 4549,
      "Ġà¤«à¤°à¤«": 4550,
      "Ġà¥§à¥©à¥¦": 4551,
      "Ġ2007": 4552,
      "Ġà¥§à¥¯à¥¯à¥¬": 4553,
      "ill": 4554,
      "ĠWhats": 4555,
      "ult": 4556,
      "ight": 4557,
      "46": 4558,
      "UV": 4559,
      "ect": 4560,
      "hot": 4561,
      "à¤°à¤ĺà¤°": 4562,
      "à¤¸à¤°à¤¸": 4563,
      "Ġà¤Ĩà¤Łà¤ª": 4564,
      "Ġà¤¸à¤ľà¤²": 4565,
      "à¤ªà¤ķà¤¤": 4566,
      "Ġà¤¹à¤°à¤¤": 4567,
      "Ġà¤¹à¤°à¤£": 4568,
      "à¤³à¤ªà¤£": 4569,
      "Ġà¤¬à¤²à¤ķ": 4570,
      "Ġà¤ĺà¤Łà¤¤": 4571,
      "Ġà¤ĺà¤¨à¤¶": 4572,
      "Ġà¤ĸà¤¦": 4573,
      "à¤Ĭà¤³": 4574,
      "Ġà¤µà¤°à¤µà¤°": 4575,
      "à¤¯à¤®à¤²": 4576,
      "..!": 4577,
      "à¤¬à¤Īà¤µà¤°": 4578,
      "à¤Ĩà¤Ĺ": 4579,
      "à¤¯à¤²à¤®à¤§": 4580,
      "à¤°à¤ľà¤µà¤³": 4581,
      "à¤£à¤¤à¤£": 4582,
      "Ġà¤ħà¤ľà¤®": 4583,
      "à¤¡à¤ķà¤ªà¤®à¤§": 4584,
      "à¥©à¥¯": 4585,
      "Ġ71": 4586,
      "ari": 4587,
      "Ġà¤µà¤¨à¤®": 4588,
      "ĠPat": 4589,
      "ena": 4590,
      "lection": 4591,
      "Ġà¤ıà¤ħà¤°à¤µ": 4592,
      "ĠMaharashtra": 4593,
      "Ġ&#": 4594,
      ")-": 4595,
      "02": 4596,
      "58": 4597,
      "Ah": 4598,
      "ile": 4599,
      "ks": 4600,
      "à¤°à¤ł": 4601,
      "à¤ķà¤Ń": 4602,
      "à¤¸à¤°à¤ķà¤°": 4603,
      "à¤¹à¤ļà¤µà¤£": 4604,
      "à¤ľà¤±": 4605,
      "à¤§à¤Ĺ": 4606,
      "Ġà¤¦à¤¬à¤¦": 4607,
      "à¤¶à¤ĸà¤¬à¤°": 4608,
      "à¤¥à¤¸à¤¹": 4609,
      "Ġà¤ļà¤ªà¤²": 4610,
      "à¤¾.)": 4611,
      "Ġà¤ĸà¤ļà¤²": 4612,
      "à¤°à¤¤à¤ľ": 4613,
      "à¤«à¤¸": 4614,
      "Ġà¤¡à¤²": 4615,
      "Ġà¤¸à¤®à¤Ĺ": 4616,
      "à¤¯à¤®à¤¬": 4617,
      "à¤¦à¤°à¤®à¤§": 4618,
      "à¤¬à¤°à¤¡": 4619,
      "Ġà¤ªà¤£à¤¤": 4620,
      "à¤¬à¤²à¤µà¤°": 4621,
      "à¥Ńà¥®": 4622,
      "Ġà¤®à¤Ĺà¤ļ": 4623,
      "Ġà¥§à¥¦à¥®": 4624,
      "ont": 4625,
      "ĠMumbai": 4626,
      "ali": 4627,
      "Ġà¤ķà¤¥à¤¨": 4628,
      "Ġà¤«à¤³à¤¬": 4629,
      "Ġà¤Ĩà¤¢à¤³à¤°": 4630,
      "Ġà¤įà¤¸": 4631,
      "Ġà¤įà¤®": 4632,
      "Ġà¥§à¥¯à¥¯à¥©": 4633,
      "hiv": 4634,
      "Ġà¥§à¥¯à¥Ńà¥§": 4635,
      "à¤¨à¤Ńà¤µà¤¨": 4636,
      "act": 4637,
      "ĠâĤ¹": 4638,
      "Ġà¤ħà¤Łà¤²à¤¬": 4639,
      "Ġà¤ıà¤¨à¤Ĩà¤¯à¤ı": 4640,
      "Ġà¤ĺà¤¨à¤ķà¤ļà¤°": 4641,
      "App": 4642,
      "eb": 4643,
      "wit": 4644,
      "à´": 4645,
      "à¤ķà¤Łà¤ķ": 4646,
      "Ġà¤ķà¤³à¤ķ": 4647,
      "Ġà¤Ĩà¤Ĺà¤°": 4648,
      "Ġà¤Ĩà¤ĸà¤¤": 4649,
      "à¤¦à¤ķà¤°": 4650,
      "Ġà¤¤à¤Łà¤¬": 4651,
      "à¥Ĥ;": 4652,
      "Ġà¤µà¤³à¤µà¤£": 4653,
      "à¤³à¤°": 4654,
      "Ġà¤¦à¤ª": 4655,
      "Ġà¤¦à¤¡à¤ª": 4656,
      "Ġà¤Ĺà¤¬": 4657,
      "Ġà¤Ńà¤°à¤µà¤²": 4658,
      "Ġà¤«à¤°à¤¹": 4659,
      "à¤µà¤¸à¤°": 4660,
      "à¤°à¤®à¤¹": 4661,
      "à¥¦à¥¯": 4662,
      "Ġà¤īà¤ªà¤ķà¤°": 4663,
      "à¤ıà¤Īà¤®à¤§": 4664,
      "à¤Ĺà¤¤à¤ª": 4665,
      "à¤¯à¤¤à¤ļ": 4666,
      "Ġà¤¸à¤¹à¤ª": 4667,
      "à¤¨à¤²à¤µà¤°": 4668,
      "à¥«à¥©": 4669,
      "à¤īà¤ļ": 4670,
      "à¤¯à¤¸à¤ªà¤°": 4671,
      "Ġà¤ıà¤®à¤¡": 4672,
      "à¤ıà¤¸à¤ıà¤¨": 4673,
      "Ġà¤Ĺà¤£à¤²": 4674,
      "à¤²à¤°à¤µà¤°": 4675,
      "anc": 4676,
      "Ġà¤ļà¤µà¤¦": 4677,
      "Ġà¤Ĺà¤Łà¤¬": 4678,
      "ĠRBI": 4679,
      "à¤ļà¤µà¤¡à¤ļ": 4680,
      "Ġà¥²à¤¨": 4681,
      "Ġà¤īà¤Ĺà¤µà¤£": 4682,
      "ĠKhan": 4683,
      "ell": 4684,
      "Ġà¤¦à¤¬à¤¦à¤¬": 4685,
      "!\"": 4686,
      "68": 4687,
      "BC": 4688,
      "]]": 4689,
      "ear": 4690,
      "qu": 4691,
      "à¤ķà¤µà¤¸": 4692,
      "à¤¹à¤µà¤°": 4693,
      "à¤¹à¤ļà¤£": 4694,
      "à¤£à¤¬à¤¤": 4695,
      "à¤®à¤¸à¤¨": 4696,
      "à¤¾à¤ĤâĢĻ": 4697,
      "à¤ªà¤µà¤¤": 4698,
      "Ġà¤ħà¤ķà¤²": 4699,
      "à¤Ĺà¤¸à¤¹": 4700,
      "à¤¡à¤¸à¤¹": 4701,
      "à¤ľà¤ĺà¤°": 4702,
      "Ġà¤ľà¤¯à¤µ": 4703,
      "Ġà¤°à¤¹à¤®": 4704,
      "Ġà¤¬à¤¹à¤°": 4705,
      "à¤łà¤Ńà¤°": 4706,
      "Ġà¤Ĺà¤¡à¤ķ": 4707,
      "Ġà¤ĺà¤°à¤®": 4708,
      "Ġà¤ıà¤Ĩà¤¯": 4709,
      "Ġà¤Ŀà¤¡à¤¤": 4710,
      "à¤Īà¤¦": 4711,
      "à¤°à¤¤à¤®": 4712,
      "à¤Ĭà¤¬": 4713,
      "Ġà¤Ĩà¤ªà¤ļ": 4714,
      "à¤µà¤²à¤¨": 4715,
      "à¥ĭ.\"": 4716,
      "à¤°à¤ªà¤³": 4717,
      "à¤ħà¤¹à¤®": 4718,
      "Ġà¤ĵà¤¶": 4719,
      "Ġà¤ľà¤¨à¤®à¤¤": 4720,
      "à¤ĵà¤Ĺ": 4721,
      "à¤ħà¤°à¤¬": 4722,
      "à¥¬à¥®": 4723,
      "à¤īà¤¨à¤®": 4724,
      "Ġà¤Ĳà¤°": 4725,
      "à¤¤à¤¨à¤ª": 4726,
      "Ġà¤ıà¤¸à¤¸": 4727,
      "à¤¸à¤®à¤§à¤²": 4728,
      "à¤Īà¤ķà¤µà¤°": 4729,
      "Ġà¤ħà¤¡à¤ķà¤¤": 4730,
      "à¤Ĩà¤°à¤ı": 4731,
      "ates": 4732,
      "ĠPM": 4733,
      "ass": 4734,
      "Ġà¤®à¤¦à¤¤à¤ķ": 4735,
      "Ġà¤ıà¤®à¤Ĩà¤¯à¤ıà¤®à¤ļ": 4736,
      "Ġà¥§à¥¯à¥ªà¥¨": 4737,
      "own": 4738,
      "100": 4739,
      "41": 4740,
      "43": 4741,
      "65": 4742,
      "DA": 4743,
      "gle": 4744,
      "à¤°à¤Ĺà¤£": 4745,
      "à¤°à¤¬à¤¦": 4746,
      "à¥Ģà¤¼": 4747,
      "à¥ĢâĢĿ,": 4748,
      "à¤¤à¤¨à¤ķ": 4749,
      "à¤²à¤¸à¤¹": 4750,
      "à¤²à¤¸à¤ļ": 4751,
      "à¤¨à¤¸à¤¨": 4752,
      "à¤¨à¤µà¤¨": 4753,
      "à¤µà¤Ľà¤¤": 4754,
      "Ġà¤Ĩà¤Ĭ": 4755,
      "à¤®à¤ľà¤²": 4756,
      "à¤Łà¤ķà¤²": 4757,
      "Ġà¤µà¤¶": 4758,
      "Ġà¤¹à¤¸à¤£": 4759,
      "Ġà¤ľà¤¯à¤ķ": 4760,
      "à¤µà¤°à¤¦": 4761,
      "Ġà¤Ŀà¤¹": 4762,
      "Ġà¤Ŀà¤Ĺà¤¡": 4763,
      "Ġà¤ĸà¤¤à¤ª": 4764,
      "à¤¢à¤µà¤³": 4765,
      "à¥Ī'": 4766,
      "à¤°à¤®à¤²": 4767,
      "Ġà¤¡à¤®": 4768,
      "à¤ıà¤²à¤¸": 4769,
      "à¤¶à¤¨à¤®": 4770,
      "Ġà¤®à¤¤à¤ª": 4771,
      "à¥«à¥§": 4772,
      "à¥§à¥¦à¥¦": 4773,
      "Ġà¤Ķà¤·": 4774,
      "à¤¯à¤°à¤®à¤§": 4775,
      "Ġà¥¯à¥¦à¥¦": 4776,
      "à¤Ĩà¤°à¤ıà¤«à¤ļ": 4777,
      "Ġà¤¹à¤°à¤Ńà¤°": 4778,
      "Ġ180": 4779,
      "ĠToday": 4780,
      "rain": 4781,
      "iss": 4782,
      "à¤¦à¤¶à¤¹": 4783,
      "Ġpr": 4784,
      "ational": 4785,
      "à¤ķà¤¸à¤¨à¤¶": 4786,
      "ĠWorld": 4787,
      "witter": 4788,
      "77": 4789,
      "Corona": 4790,
      "MI": 4791,
      "PO": 4792,
      "VID": 4793,
      "co": 4794,
      "mp": 4795,
      "mit": 4796,
      "uc": 4797,
      "à¥įâĢĻ": 4798,
      "à¤°à¤¬à¤°": 4799,
      "à¤¨à¤Īà¤¨": 4800,
      "à¤¸à¤¯": 4801,
      "Ġà¤ªà¤łà¤£": 4802,
      "à¥Ĥ:": 4803,
      "Ġà¤ħà¤ľà¤°": 4804,
      "à¤¡à¤Ī": 4805,
      "Ġà¤¹à¤°à¤µà¤£": 4806,
      "à¤§à¤°à¤£": 4807,
      "à¤§à¤µà¤¨": 4808,
      "à¤¶à¤°à¤¦": 4809,
      "à¤°à¤ķà¤£": 4810,
      "à¤Īà¤Ī": 4811,
      "à¤Īà¤¡à¤ļ": 4812,
      "Ġà¤ĸà¤®": 4813,
      "Ġà¤ıà¤ķà¤²": 4814,
      "Ġà¤ĩà¤Ĺà¤¤à¤ª": 4815,
      "à¤µà¤¸à¤¹": 4816,
      "à¤°à¤µà¤ļà¤¨": 4817,
      "à¤ªà¤°à¤®à¤§": 4818,
      "Ġà¤ħà¤¨à¤®": 4819,
      "à¤µà¤²à¤²": 4820,
      "à¤ħà¤®à¤°": 4821,
      "à¤Ĩà¤ľà¤ļ": 4822,
      "à¤Łà¤°à¤¦": 4823,
      "à¤ľà¤¯à¤¨": 4824,
      "à¥«à¥¨": 4825,
      "Ġà¤Ĩà¤Ĺà¤°à¤ķà¤°": 4826,
      "anjay": 4827,
      "Ġà¤°à¤¹à¤¦": 4828,
      "ond": 4829,
      "Ġà¤¶à¤¹à¤°à¤µ": 4830,
      "ĠSingh": 4831,
      "ĠAl": 4832,
      "Ġà¤ħà¤¹à¤®à¤¦à¤¨": 4833,
      "ashi": 4834,
      "Ġà¤ıà¤«à¤Ĩà¤°à¤ª": 4835,
      "Ġà¤īà¤Ĺà¤µà¤¤": 4836,
      "Ġà¤Ŀà¤³à¤ķà¤¤": 4837,
      "à¤ıà¤¶à¤¨à¤¨": 4838,
      "oogle": 4839,
      "age": 4840,
      "********": 4841,
      "Ġà¤¹à¤°à¤ªà¤²": 4842,
      "OS": 4843,
      "dd": 4844,
      "ga": 4845,
      "oh": 4846,
      "out": 4847,
      "à¦": 4848,
      "à¤¾à¥Ī": 4849,
      "à¤¾à¥¤": 4850,
      "à¤°à¤ľà¤¨": 4851,
      "à¤ļà¤Ń": 4852,
      "Ġà¤Ĩà¤¯à¤²": 4853,
      "Ġà¤ªà¤Łà¤µà¤°": 4854,
      "à¤ªà¤¤à¤°": 4855,
      "Ġà¤ħà¤²à¤Ĺ": 4856,
      "à¤ľà¤Ĺà¤¡": 4857,
      "Ġà¤¦à¤¯à¤¨": 4858,
      "à¤¶à¤µà¤°": 4859,
      "à¥ĩ.âĢĻâĢĻ": 4860,
      "Ġà¤¬à¤§": 4861,
      "Ġà¤Ĺà¤¤à¤µ": 4862,
      "à¤ĸà¤ł": 4863,
      "Ġà¤Ńà¤°à¤µà¤£": 4864,
      "Ġà¤ļà¤Łà¤ķà¤¨": 4865,
      "à¤Ńà¤ļ": 4866,
      "âĢľ": 4867,
      "à¤°à¤ķà¤Łà¤²": 4868,
      "à¤Īà¤ĺ": 4869,
      "Ġà¤ĸà¤ª": 4870,
      "Ġà¤ıà¤ķà¤ľà¤£": 4871,
      "Ġà¤łà¤£": 4872,
      "Ġà¤¨à¤µà¤ĸ": 4873,
      "à¤ıà¤µ": 4874,
      "à¤ıà¤¶": 4875,
      "à¤¹à¤¤à¤Ĺ": 4876,
      "à¤ĩà¤¶": 4877,
      "à¤µà¤¨à¤¦": 4878,
      "à¤ĵà¤¬": 4879,
      "à¥ªà¥§": 4880,
      "à¤ļà¤¨à¤®à¤§": 4881,
      "à¥¬à¥¯": 4882,
      "à¤īà¤®": 4883,
      "Ġà¤ħà¤µà¤¤à¤°à¤²": 4884,
      "à¤¯à¤¸à¤°à¤ķ": 4885,
      "à¤Łà¤£à¤ķà¤°": 4886,
      "Ġà¤ĺà¤¡à¤µà¤¤": 4887,
      "Ġà¥§à¥¬à¥¦": 4888,
      "Ġ188": 4889,
      "à¤²à¤®à¤¡à¤²": 4890,
      "à¤¤à¤°à¤£à¤¨": 4891,
      "ĠIC": 4892,
      "Ġ2001": 4893,
      "ĠThe": 4894,
      "ĠThackeray": 4895,
      "Ġ05": 4896,
      "à¤°à¤®à¤ķà¤ªà¤£": 4897,
      "Ġà¤īà¤łà¤µà¤¤": 4898,
      "Ġà¤Ĩà¤µà¤°à¤¤": 4899,
      "Ġà¤¦à¤¶à¤°à¤¥": 4900,
      "Ġà¤ħà¤¡à¤ķà¤£": 4901,
      "Ġà¤Ĩà¤µà¤³à¤²": 4902,
      "India": 4903,
      "à¤Ķà¤°": 4904,
      "Ġà¤ķà¤³à¤ķà¤³": 4905,
      "PS": 4906,
      "la": 4907,
      "à¥ĩà¥¤": 4908,
      "à¤¯à¤īà¤¤": 4909,
      "à¤Ĥ....": 4910,
      "à¤ļà¤ĸ": 4911,
      "à¤¹à¤µà¤¤": 4912,
      "à¤£à¤Ń": 4913,
      "Ġà¤Ĩà¤¸à¤°": 4914,
      "Ġà¤Ĩà¤ļà¤°": 4915,
      "à¤®à¤¸à¤®": 4916,
      "Ġà¤®à¤¥": 4917,
      "à¤ªà¤°à¤ķ": 4918,
      "à¤ªà¤ķà¤²": 4919,
      "à¤ªà¤²à¤ļ": 4920,
      "à¤¦à¤Ĺà¤¡": 4921,
      "Ġà¤ħà¤µà¤¨": 4922,
      "Ġà¤ħà¤ķà¤¸": 4923,
      "Ġà¤¨à¤Łà¤²": 4924,
      "à¥ĩ.[": 4925,
      "à¤·à¤µà¤²": 4926,
      "à¤·à¤¦à¤°": 4927,
      "Ġà¤ľà¤¯à¤°": 4928,
      "Ġà¤¬à¤Ľà¤¡": 4929,
      "à¤µà¤°à¤¨": 4930,
      "à¤Ńà¤®à¤¨": 4931,
      "à¤Īà¤¶": 4932,
      "à¤Īà¤Ŀ": 4933,
      "à¤¾.'": 4934,
      "à¤ĺà¤³": 4935,
      "à¤Ĭà¤¸à¤®à¤§": 4936,
      "Ġà¤¡à¤Ŀà¤¨": 4937,
      "à¤°à¤¸à¤¦": 4938,
      "à¤Ŀà¤µà¤°": 4939,
      "Ġà¤Ĩà¤¤à¤ļ": 4940,
      "à¤ľà¤¨à¤²": 4941,
      "à¤Ĩà¤°à¤¨": 4942,
      "Ġà¤Ĩà¤¯à¤ıà¤®": 4943,
      "Ġà¤ĵà¤¨": 4944,
      "à¤ĩà¤¨à¤°": 4945,
      "à¤¹à¤¨à¤®à¤§": 4946,
      "à¤¹à¤¨à¤¤à¤³": 4947,
      "à¤īà¤¡": 4948,
      "Ġà¤īà¤Ńà¤¯": 4949,
      "Ġà¤Ĳà¤¸": 4950,
      "à¤Ĩà¤¯à¤ıà¤¸": 4951,
      "âĢĿ.": 4952,
      "Ġ82": 4953,
      "ary": 4954,
      "2021": 4955,
      "Ġà¤ıà¤¨à¤ıà¤¸": 4956,
      "Ġà¤§à¤¨à¤¤": 4957,
      "ĠSc": 4958,
      "à¤ıà¤¨à¤ıà¤¸": 4959,
      "à¤²à¤ķà¤°à¤ļ": 4960,
      "Ġà¤ĸà¤¡à¤¬à¤¡": 4961,
      "Ġ09": 4962,
      "à¤ĳà¤¨à¤²": 4963,
      "Ġà¥§à¥¯à¥¯à¥®": 4964,
      "Ġà¤īà¤ķà¤³à¤²": 4965,
      "Ġà¤ķà¤£à¤ĸà¤°": 4966,
      "ook": 4967,
      "ocial": 4968,
      "Ch": 4969,
      "eal": 4970,
      "eet": 4971,
      "ug": 4972,
      "à¤¸à¤µà¤¡": 4973,
      "à¥ĭ....": 4974,
      "Ġà¤Ĩà¤¯à¤ķ": 4975,
      "à¤¦à¤ľ": 4976,
      "à¤Łà¤ľ": 4977,
      "Ġà¤µà¤¯à¤¸": 4978,
      "Ġà¤µà¤£à¤µ": 4979,
      "à¤¡à¤¸à¤°": 4980,
      "à¤ľà¤°à¤²": 4981,
      "à¤§à¤¨à¤¸": 4982,
      "à¤¶à¤µà¤£": 4983,
      "à¤¬à¤ľ": 4984,
      "Ġà¤ľà¤²à¤ķ": 4985,
      "Ġà¤ľà¤²à¤ª": 4986,
      "Ġà¤¬à¤¢": 4987,
      "Ġà¤Ńà¤°à¤¦": 4988,
      "Ġà¤īà¤ķà¤²": 4989,
      "à¤°à¤¤à¤µ": 4990,
      "à¤Ĭà¤£": 4991,
      "..âĢĻ": 4992,
      "à¤¦à¤°à¤ª": 4993,
      "à¤ħà¤³": 4994,
      "à¤¤à¤ķà¤£": 4995,
      "Ġà¤Ĩà¤¯à¤Ĩà¤°à¤¸": 4996,
      "à¤ľà¤ªà¤¤à¤°": 4997,
      "Ġà¤ĵà¤¤à¤²": 4998,
      "à¤®à¤¨à¤°": 4999,
      "à¤ĩà¤Ŀ": 5000,
      "à¤ĩà¤¨à¤®à¤§": 5001,
      "à¤¡à¤ķà¤ªà¤ļ": 5002,
      "à¥ªà¥©": 5003,
      "à¥ªà¥¯": 5004,
      "à¤¬à¤²à¤ª": 5005,
      "à¥¯à¥¨": 5006,
      "Ġ5000": 5007,
      "Ġà¤īà¤²à¤¥": 5008,
      "Ġà¤Īà¤ıà¤®à¤Ĩà¤¯": 5009,
      "Ġà¤ªà¤¸à¤°à¤µà¤¤": 5010,
      "Ġà¤¸à¤ªà¤¶": 5011,
      "ind": 5012,
      "arm": 5013,
      "Ġà¤ıà¤¨à¤ľ": 5014,
      "ĠCom": 5015,
      "ĠCoronavirus": 5016,
      "à¤²à¤®à¤¡": 5017,
      "ital": 5018,
      "ĠNCB": 5019,
      "icle": 5020,
      "Ġà¥§à¥¯à¥®à¥®": 5021,
      "Ġà¤Ĩà¤³à¤¶": 5022,
      "Ġà¥§à¥¯à¥Ńà¥Ń": 5023,
      "Ġà¤ĩà¤¨à¤ķà¤®": 5024,
      "59": 5025,
      "AR": 5026,
      "PI": 5027,
      "ral": 5028,
      "Ġ<<": 5029,
      "à¤µà¤·": 5030,
      "à¤¹à¤ĸ": 5031,
      "Ġà¤ĨÃŃ": 5032,
      "Ġà¤¸à¤³": 5033,
      "Ġà¤¤à¤¦": 5034,
      "à¤Łà¤¬à¤¦": 5035,
      "à¤ľà¤Ń": 5036,
      "Ġà¤¹à¤²à¤¤": 5037,
      "Ġà¤¹à¤³à¤µ": 5038,
      "à¤§à¤³à¤²": 5039,
      "à¤³à¤¬": 5040,
      "Ġà¤²à¤¬": 5041,
      "à¤Īà¤¡à¤²": 5042,
      "à¤¤à¤°à¤®": 5043,
      "à¤¤à¤°à¤ªà¤¤": 5044,
      "à¥īà¤ģ": 5045,
      "à¥ħ.": 5046,
      "à¤«à¤£": 5047,
      "à¤Ŀà¤¨à¤ļ": 5048,
      "à¤ıà¤®à¤§": 5049,
      "Ġà¥¨à¥¨à¥¦": 5050,
      "à¤Ĺà¤°à¤®à¤§": 5051,
      "à¤Łà¤²à¤²": 5052,
      "à¤ħà¤°à¤µ": 5053,
      "à¤ħà¤¸à¤¤": 5054,
      "à¤¯à¤²à¤¨": 5055,
      "Ġà¤®à¤§à¤®": 5056,
      "à¤ľà¤ªà¤ª": 5057,
      "à¤²à¤ķà¤Ł": 5058,
      "Ġà¤īà¤¦à¤Ĺ": 5059,
      "à¤®à¤¨à¤¦": 5060,
      "Ġà¤ªà¤¦à¤ªà¤¥": 5061,
      "à¤¯à¤¨à¤®à¤§": 5062,
      "Ġà¤Ĩà¤¦à¤°à¤£": 5063,
      "à¤īà¤¥": 5064,
      "à¤¾?'": 5065,
      "à¤Ńà¤µà¤µ": 5066,
      "Ġà¤ĩà¤¤à¤ķà¤ļ": 5067,
      "Ġ125": 5068,
      "Ġà¤ķà¤µà¤ł": 5069,
      "ĠSBI": 5070,
      "ĠPre": 5071,
      "ĠRaj": 5072,
      "Ġà¤ħà¤Łà¤³": 5073,
      "à¤ħà¤¸à¤ªà¤°": 5074,
      "Ġà¥§à¥¯à¥®à¥¨": 5075,
      "Ġ[[": 5076,
      "harad": 5077,
      "Ġà¥§à¥¯à¥¬à¥¨": 5078,
      "maz": 5079,
      "ĠPrice": 5080,
      ",,": 5081,
      "66": 5082,
      "97": 5083,
      "AN": 5084,
      "à¤¯à¤ľà¤¨": 5085,
      "à¤²à¤¨à¤ļ": 5086,
      "à¤¸à¤¬à¤¦": 5087,
      "Ġà¤®à¤¡": 5088,
      "à¤¦à¤µà¤¤": 5089,
      "Ġà¤¤à¤¡à¤µ": 5090,
      "à¤¡à¤ªà¤Ł": 5091,
      "Ġà¤¯à¤²": 5092,
      "à¤³à¤¦": 5093,
      "Ġà¤ľà¤¡à¤²": 5094,
      "Ġà¤ľà¤³à¤¤": 5095,
      "Ġà¤°à¤®à¤²": 5096,
      "Ġà¤¬à¤³à¤ľ": 5097,
      "à¤°à¤ķà¤®": 5098,
      "Ġà¤«à¤²à¤¦": 5099,
      "Ġà¤Łà¤ļ": 5100,
      "Ġà¤Ĩà¤ªà¤Łà¤²": 5101,
      "à¤°à¤µà¤¨": 5102,
      "à¤°à¤µà¤¶": 5103,
      "à¤·à¤£à¤ļ": 5104,
      "à¤¸à¤°à¤¶": 5105,
      "à¤¯à¤¤à¤¦": 5106,
      "à¤Ĺà¤°à¤ª": 5107,
      "à¥ĭ.âĢĻ": 5108,
      "à¤ħà¤ļ": 5109,
      "à¤Ĩà¤°à¤®à¤§": 5110,
      "à¤Ĺà¤³à¤¯": 5111,
      "Ġà¤ĵà¤¢à¤µ": 5112,
      "Ġà¤ķà¤²à¤¶": 5113,
      "à¥¯à¥§": 5114,
      "à¥Ńà¥©": 5115,
      "à¥Ńà¥¬": 5116,
      "à¤īà¤ľ": 5117,
      "Ġà¤¬à¤¸à¤µà¤°": 5118,
      "à¤ķà¤£à¤µ": 5119,
      "Ġà¤ħà¤²à¤Ĺà¤¦": 5120,
      "Ġà¤²à¤¸à¤£": 5121,
      "ane": 5122,
      "à¤ıà¤«à¤ĵ": 5123,
      "Ġ06": 5124,
      "à¤ĳà¤²": 5125,
      "Ġà¤ıà¤«à¤¸": 5126,
      "iral": 5127,
      "Ġà¤¬à¤¡à¤¬à¤¡": 5128,
      "ĠLife": 5129,
      "Ġà¤ħà¤¡à¤ķà¤µ": 5130,
      "Ġà¤¸à¤Īà¤¦": 5131,
      "Ġà¤īà¤®à¤Łà¤µà¤²": 5132,
      "Ġà¤¬à¤¬à¤¨à¤°": 5133,
      ".,": 5134,
      "32": 5135,
      "34": 5136,
      "52": 5137,
      "?'": 5138,
      "ef": 5139,
      "hy": 5140,
      "na": 5141,
      "ĠQ": 5142,
      "à¥Ľ": 5143,
      "à¤¾à¤¼": 5144,
      "à¥įà¤Ĥ": 5145,
      "à¤¿...": 5146,
      "à¤Ĥ)": 5147,
      "à¤¹à¤°à¤®": 5148,
      "à¤¹à¤²à¤ļ": 5149,
      "à¥ĭâĢ¦": 5150,
      "Ġà¤ķà¤µà¤Ł": 5151,
      "Ġà¤ªà¤³à¤µà¤²": 5152,
      "Ġà¤®à¤µ": 5153,
      "Ġà¤®à¤²à¤ķ": 5154,
      "à¤¦à¤°à¤µ": 5155,
      "à¤Łà¤¸à¤¨": 5156,
      "Ġà¤µà¤£": 5157,
      "Ġà¤¹à¤¶": 5158,
      "Ġà¤¹à¤«": 5159,
      "Ġà¤ľà¤ľ": 5160,
      "Ġà¤°à¤¡à¤²": 5161,
      "Ġà¤¬à¤³à¤ķ": 5162,
      "à¤ĸà¤ķà¤°": 5163,
      "à¤µà¤°à¤ª": 5164,
      "à¤°à¤ķà¤®à¤§": 5165,
      "à¤«à¤¡à¤ķ": 5166,
      "à¤°à¤µà¤¯": 5167,
      "à¤ªà¤°à¤«": 5168,
      "à¤¾,\"": 5169,
      "Ġà¤¨à¤µà¤µà¤§": 5170,
      "à¤ıà¤ĸ": 5171,
      "à¤ħà¤Ĺà¤¦": 5172,
      "à¤¸à¤²à¤¤": 5173,
      "à¤¸à¤¹à¤ľ": 5174,
      "à¤°à¤ľà¤£": 5175,
      "à¤ĵà¤ıà¤¸": 5176,
      "Ġà¥©à¥¦à¥¦à¥¦": 5177,
      "Ġà¤µà¤¸à¤Īà¤¤": 5178,
      "à¤µà¤¶à¤ķ": 5179,
      "à¤¨à¤ķà¤ªà¤£": 5180,
      "Ġà¤ıà¤®à¤ľ": 5181,
      "à¤ıà¤®à¤Ĩà¤°à¤¡": 5182,
      "Ġà¤Īà¤¦à¤ļ": 5183,
      "Ġà¥§à¥¦à¥¬": 5184,
      "Ġà¤Ĩà¤Īà¤ķà¤¡": 5185,
      "Ġ105": 5186,
      "Ġ108": 5187,
      "à¤Ĩà¤°à¤¬": 5188,
      "à¤ıà¤²à¤¡": 5189,
      "ale": 5190,
      "ĠCrime": 5191,
      "ĠRT": 5192,
      "Ġ144": 5193,
      "ĠAir": 5194,
      "Ġà¥§à¥©à¥«": 5195,
      "Ġà¤ķà¤³à¤ª": 5196,
      "Ġà¤ľà¤¸à¤ľà¤¸": 5197,
      "ical": 5198,
      "à¤Łà¥Łà¤µà¤§": 5199,
      "Ġ08": 5200,
      "Ġà¤¬à¤¡à¤¤à¤°": 5201,
      "Ġ.....": 5202,
      "Ġà¥§à¥¯à¥®à¥¬": 5203,
      "Ġà¤ĵà¤¸à¤°à¤¤": 5204,
      "Ġà¤ĵà¤°à¤¡à¤²": 5205,
      "Ġà¤ħà¤µà¤¯à¤µà¤¦": 5206,
      "Ġà¤¦à¤®à¤Ľ": 5207,
      "999": 5208,
      "overn": 5209,
      "Ġà¤łà¤£à¤łà¤£": 5210,
      "Ġà¤ĨÃŃà¤¥à¤ķ": 5211,
      "!)": 5212,
      "'s": 5213,
      "37": 5214,
      "An": 5215,
      "BJP": 5216,
      "ED": 5217,
      "IPL": 5218,
      "MP": 5219,
      "down": 5220,
      "Ġx": 5221,
      "à¤¤à¤¤à¤³": 5222,
      "à¤²à¤ªà¤¤": 5223,
      "à¤ļà¤ľà¤£": 5224,
      "à¤¹à¤Ł": 5225,
      "Ġà¤Ĩà¤°à¤®": 5226,
      "à¤®à¤Ŀ": 5227,
      "à¤®à¤ľà¤¨": 5228,
      "Ġà¤¸à¤¬à¤¨": 5229,
      "à¤Ĺà¤°à¤ķ": 5230,
      "à¤¡à¤°à¤®à¤§": 5231,
      "à¤§à¤¸": 5232,
      "Ġà¤¨à¤Łà¤°": 5233,
      "Ġà¤¨à¤ķà¤²": 5234,
      "à¥ĩ.''": 5235,
      "à¤µà¤°à¤ķ": 5236,
      "Ġà¤ļà¤²à¤¤": 5237,
      "à¤Ńà¤¸": 5238,
      "à¤Ńà¤Ĺ": 5239,
      "à¤Īà¤Łà¤²": 5240,
      "à¤¯à¤ķà¤²à¤ļ": 5241,
      "à¥ĩà¤Ĥ,": 5242,
      "à¤«à¤µ": 5243,
      "Ġà¤¡à¤°": 5244,
      "à¤ıà¤ıà¤ļ": 5245,
      "à¥ĭ.âĢĿ": 5246,
      "à¤¶à¤¨à¤ķ": 5247,
      "à¤¶à¤¨à¤ª": 5248,
      "Ġà¤ªà¤¦à¤¯": 5249,
      "à¤ĩà¤¤": 5250,
      "à¤ĩà¤Łà¤ļ": 5251,
      "à¤µà¤¨à¤®": 5252,
      "Ġà¤ªà¤¤à¤§": 5253,
      "Ġà¤ħà¤ªà¤ª": 5254,
      "Ġà¤Ľà¤¡": 5255,
      "à¤Ńà¤°à¤¹": 5256,
      "Ġà¤ħà¤ľà¤Ĺà¤°": 5257,
      "à¤¤à¤®à¤°": 5258,
      "à¥¯à¥©": 5259,
      "Ġ900": 5260,
      "Ġà¤ħà¤Ĺà¤°à¤µ": 5261,
      "Ġ1500": 5262,
      "ati": 5263,
      "atest": 5264,
      "à¤¨à¤¦à¤¯": 5265,
      "ĠMot": 5266,
      "Ġà¥§à¥ªà¥ª": 5267,
      "Ġ140": 5268,
      "ĠAT": 5269,
      "ĠIND": 5270,
      ">>>": 5271,
      "Ġà¤ĸà¤³à¤ĸà¤³": 5272,
      "rav": 5273,
      "ister": 5274,
      "Ġà¤ľà¤²à¤¤à¤°à¤£": 5275,
      "Ġà¤īà¤Ĺà¤µà¤²": 5276,
      "Ġà¥§à¥¯à¥®à¥Ń": 5277,
      "Ġà¥§à¥¯à¥Ńà¥«": 5278,
      "Ġà¥§à¥§à¥«": 5279,
      "ost": 5280,
      "Ġ1999": 5281,
      "Ġà¤§à¤µà¤¨à¤¨": 5282,
      "Ġnews": 5283,
      "Ġà¤Ĺà¤µà¤¸à¤£": 5284,
      "Ġà¤ķà¤Łà¤ķà¤Ł": 5285,
      "Ġà¤Ĺà¤ľà¤¬à¤ľà¤²": 5286,
      "Ġà¤¬à¤³à¤ľà¤¬à¤°": 5287,
      "%)": 5288,
      "54": 5289,
      "56": 5290,
      "DR": 5291,
      "MR": 5292,
      "OC": 5293,
      "Raj": 5294,
      "TV": 5295,
      "ead": 5296,
      "ho": 5297,
      "hone": 5298,
      "ket": 5299,
      "Ġart": 5300,
      "à¤¯à¤µà¤¤": 5301,
      "à¤²à¤Ŀ": 5302,
      "à¤²à¤°à¤²": 5303,
      "à¤µà¤ªà¤°": 5304,
      "à¤µà¤¦à¤¤": 5305,
      "à¤£à¤¶": 5306,
      "à¤£à¤ĸà¤¤": 5307,
      "Ġà¤Ĩà¤ĩ": 5308,
      "à¤®à¤¥": 5309,
      "Ġà¤®à¤£à¤ķ": 5310,
      "à¤ªà¤Ĺà¤¡": 5311,
      "Ġà¤ħà¤¥à¤°": 5312,
      "à¤Ĺà¤¨à¤ļ": 5313,
      "Ġà¤µà¤±": 5314,
      "Ġà¤¨à¤¨": 5315,
      "Ġà¤¨à¤Ĺà¤£": 5316,
      "à¤³à¤§": 5317,
      "Ġà¤ľà¤²à¤®": 5318,
      "à¤Ĭà¤¡": 5319,
      "à¤ªà¤°à¤¨": 5320,
      "à¤°à¤¸à¤®": 5321,
      "à¤Ŀà¤µà¤£": 5322,
      "à¤·à¤£à¤¸": 5323,
      "à¤¯à¤¤à¤¨": 5324,
      "à¤ħà¤¡": 5325,
      "à¤ķà¤²à¤®": 5326,
      "Ġà¤¤à¤¸à¤¤à¤¸": 5327,
      "Ġà¤Ĩà¤¯à¤ıà¤¸": 5328,
      "Ġà¤ħà¤ªà¤¶à¤¬": 5329,
      "à¤ĵà¤ľ": 5330,
      "à¤Ľà¤ª": 5331,
      "à¥¬à¥§": 5332,
      "Ġà¤¸à¤Ĺà¤³à¥Ł": 5333,
      "Ġà¤ķà¤ªà¤ļ": 5334,
      "Ġà¤ªà¤°à¤¤à¤µ": 5335,
      "Ġà¤¨à¤°à¤¹à¤°": 5336,
      "à¤µà¤°à¤£à¤µ": 5337,
      "à¤µà¤°à¤£à¤ªà¤¤": 5338,
      "Ġ91": 5339,
      "Ġà¤ıà¤µà¤¢à¥Ł": 5340,
      "ins": 5341,
      "Ġà¥§à¥¨à¥®": 5342,
      "orm": 5343,
      "à¤³à¤µà¤²à¤ķà¤°": 5344,
      "ĠCS": 5345,
      "Ġà¥§à¥ªà¥¦": 5346,
      "à¤ıà¤¨à¤¡": 5347,
      "Ġà¤°à¤£à¤Ĺ": 5348,
      "ĠAd": 5349,
      "à¥ĩâĢĻ.": 5350,
      "Ġà¤¸à¤ľà¤µà¤£": 5351,
      "Ġ2002": 5352,
      "Ġà¥¤à¥¤": 5353,
      "ĠBank": 5354,
      "ĠTV": 5355,
      "ident": 5356,
      "ĠED": 5357,
      "Ġà¤ħà¤¹à¤®à¤¦à¤¨à¤Ĺà¤°à¤®à¤§": 5358,
      "Ġà¤¬à¤ļà¤¤à¤Ĺà¤Ł": 5359,
      "ĠCOVID": 5360,
      "98": 5361,
      "Gold": 5362,
      "US": 5363,
      "ge": 5364,
      "way": 5365,
      "à¥į-": 5366,
      "à¤²à¤°à¤¶": 5367,
      "à¤ķà¤Łà¤ļ": 5368,
      "à¥ĭ\"": 5369,
      "à¥ĭà¥ĩ": 5370,
      "à¥ģà¥ģ": 5371,
      "Ġà¤®à¤Łà¤¨": 5372,
      "Ġà¤¤à¤¨à¤ª": 5373,
      "Ġà¤ħà¤®à¤¨": 5374,
      "à¤Łà¤ħ": 5375,
      "à¤Łà¤Ńà¤Ł": 5376,
      "à¤¡à¤®à¤¨": 5377,
      "à¤¡à¤¨à¤²": 5378,
      "à¤ľà¤ķà¤¡": 5379,
      "Ġà¤¯à¤¤": 5380,
      "Ġà¤ľà¤¯à¤²à¤²": 5381,
      "Ġà¤°à¤¬à¤°": 5382,
      "Ġà¤°à¤ļà¤¤": 5383,
      "Ġà¤ħà¤¸à¤ļ": 5384,
      "Ġà¤¶à¤¬à¤°": 5385,
      "à¤łà¤¸": 5386,
      "Ġà¤²à¤Ĺà¤¤": 5387,
      "à¤ĸà¤ªà¤¦": 5388,
      "à¤µà¤°à¤Ĺ": 5389,
      "Ġà¤Ńà¤¡à¤Ĺ": 5390,
      "Ġà¤ļà¤¯": 5391,
      "Ġà¤ıà¤Ĺ": 5392,
      "Ġà¥Ĳ": 5393,
      "Ġà¤ĸà¤µ": 5394,
      "Ġà¤ĸà¤ªà¤µ": 5395,
      "à¤¤à¤°à¤µ": 5396,
      "à¤°à¤¤à¤®à¤§": 5397,
      "à¤Ĭà¤¸à¤ļ": 5398,
      "à¥¦à¥§": 5399,
      "à¤¸à¤°à¤¨": 5400,
      "à¤ľà¤¨à¤µà¤°": 5401,
      "à¤¬à¤Īà¤¤à¤¹": 5402,
      "à¤ħà¤¬": 5403,
      "Ġà¤ķà¤®à¤¬": 5404,
      "à¤°à¤¦à¤ķ": 5405,
      "Ġà¤ĵà¤®à¤°": 5406,
      "à¤ĩà¤°": 5407,
      "à¤²à¤¤à¤¤": 5408,
      "à¤ļà¤²à¤ķà¤°": 5409,
      "à¤¡à¤ķà¤³": 5410,
      "à¥®à¥«": 5411,
      "à¥¬à¥©": 5412,
      "Ġà¤¬à¤¹à¤°à¤²": 5413,
      "à¤Ĩà¤¯à¤¬": 5414,
      "à¤ıà¤®à¤Ĩà¤°": 5415,
      "Ġà¤Īà¤°": 5416,
      "à¤ªà¤ļà¤¯": 5417,
      "ani": 5418,
      "Ġ128": 5419,
      "ĠIT": 5420,
      "à¤²à¤Ńà¤Ń": 5421,
      "Ġ03": 5422,
      "à¤°à¤«à¤Łà¤ķ": 5423,
      "ush": 5424,
      "Ġà¥§à¥¯à¥®à¥«": 5425,
      "à¤¤à¤¬à¤Ĺ": 5426,
      "Ġà¥§à¥¯à¥ªà¥®": 5427,
      "Ġà¤ªà¤¬à¤ľ": 5428,
      "Ġà¤ĵà¤°à¤¡à¤¤": 5429,
      "ext": 5430,
      "Ġà¤¤à¤Łà¤°à¤ķ": 5431,
      "mazon": 5432,
      "57": 5433,
      "CP": 5434,
      "az": 5435,
      "ti": 5436,
      "Ġ),": 5437,
      "ĪĴ": 5438,
      "à¤°à¤Ĺà¤³": 5439,
      "à¥ĩà¤¾": 5440,
      "à¤¤à¤¨à¤ļ": 5441,
      "à¤¯à¤®à¤§": 5442,
      "à¤¨à¤Ŀ": 5443,
      "à¤¸à¤µà¤²": 5444,
      "Ġà¤¸à¤¶": 5445,
      "Ġà¤¸à¤°à¤®": 5446,
      "Ġà¤¸à¤ķà¤¸": 5447,
      "Ġà¤®à¤°à¤ķ": 5448,
      "à¤Łà¤®à¤¨": 5449,
      "à¤Łà¤ľà¤µà¤³": 5450,
      "à¤¡à¤°à¤¨": 5451,
      "à¤ľà¤¯à¤¦": 5452,
      "à¤¥à¤®à¤§": 5453,
      "Ġà¤īà¤°à¤ķ": 5454,
      "Ġà¤īà¤¥à¤³": 5455,
      "âĢĶ": 5456,
      "Ġà¤ĸà¤¤à¤°à¤¨": 5457,
      "à¤°à¤¤à¤Ńà¤°": 5458,
      "Ġà¤ĩà¤¡à¤²": 5459,
      "à¤¤à¤²à¤Ĺ": 5460,
      "Ġà¤¸à¤®à¤Ŀ": 5461,
      "Ġà¤Ĩà¤°à¤ľ": 5462,
      "à¤ıà¤Ī": 5463,
      "à¤Ĭà¤¨à¤¨": 5464,
      "à¤Ĺà¤£à¤ªà¤¤": 5465,
      "à¤ķà¤²à¤¸": 5466,
      "Ġà¤Ľà¤¬": 5467,
      "à¥Ńà¥ª": 5468,
      "à¤¾?âĢĿ": 5469,
      "à¤®à¤²à¤¦": 5470,
      "à¥ĩ?\"": 5471,
      "Ġà¤ķà¤¡à¤§": 5472,
      "à¤²à¤¦à¤¸": 5473,
      "Ġ1200": 5474,
      "Ġà¤µà¤¨à¤ªà¤°": 5475,
      "ĠModi": 5476,
      "ĠSams": 5477,
      "ala": 5478,
      "à¤¼à¥ĩ": 5479,
      "à¤¼à¤¾à¤Ĥ": 5480,
      "à¤¤à¤°à¤£à¤ķà¤¡": 5481,
      "Ġà¤ĺà¤¸à¤°à¤¤": 5482,
      "à¤®à¤¶à¤¹": 5483,
      "Ġ170": 5484,
      "Ġà¤ľà¤²à¤ªà¤°": 5485,
      "Ġà¥§à¥¯à¥¯à¥ª": 5486,
      "Ġà¤īà¤łà¤£": 5487,
      "ĠEn": 5488,
      "Ġà¤ļà¤¢à¤īà¤¤": 5489,
      "Ġà¤µà¤°à¤ļà¤¢": 5490,
      "Ġà¥§à¥§à¥®": 5491,
      "Ġà¤¬à¤°à¤¸à¤²": 5492,
      "ockdown": 5493,
      "ddhav": 5494,
      "lus": 5495,
      "ver": 5496,
      "Ġra": 5497,
      "à¤¿à¥į": 5498,
      "à¤ķà¤¤à¤ļ": 5499,
      "à¤µà¤ĺà¤°": 5500,
      "Ġà¤ªà¤Ľ": 5501,
      "à¤ªà¤ľ": 5502,
      "à¤¦à¤ķà¤¤": 5503,
      "à¥Ĥ!": 5504,
      "Ġà¤¦à¤«": 5505,
      "Ġà¤¦à¤¹à¤¨": 5506,
      "Ġà¤¬à¤µ": 5507,
      "Ġà¤²à¤Ĺà¤¤à¤ļ": 5508,
      "Ġà¤²à¤Łà¤ķà¤²": 5509,
      "Ġà¤īà¤¸à¤¨": 5510,
      "Ġà¤Ŀà¤Łà¤¤": 5511,
      "à¤°à¤£à¤®": 5512,
      "à¤¯à¤ķà¤¥": 5513,
      "Ġà¤ªà¤°à¤µà¤¡": 5514,
      "à¤°à¤®à¤°à¤£": 5515,
      "à¤°à¤®à¤ķà¤¤": 5516,
      "à¥ħà¤ģ": 5517,
      "ĠâĢĮ": 5518,
      "à¤Ŀà¤¡à¤¤": 5519,
      "à¤°à¤²à¤¯": 5520,
      "à¤·à¤£à¤µ": 5521,
      "à¤¬à¤°à¤¹": 5522,
      "à¤ıà¤Łà¤°à¤®à¤§": 5523,
      "à¤Ĺà¤¤à¤¦": 5524,
      "Ġà¤Ĩà¤®à¤²": 5525,
      "à¤ħà¤£": 5526,
      "à¤Łà¤¨à¤¸": 5527,
      "à¤Łà¤¨à¤ªà¤Ł": 5528,
      "à¤¶à¤¨à¤Ĺà¤°": 5529,
      "Ġà¤¥à¤°à¤¥": 5530,
      "Ġà¤®à¤¨à¤Ĺà¤Ł": 5531,
      "Ġà¤®à¤¤à¤¹": 5532,
      "à¤¨à¤²à¤²": 5533,
      "Ġà¤ħà¤®à¤°à¤¨": 5534,
      "Ġà¤ħà¤ªà¤¹": 5535,
      "Ġà¤ķà¤²à¤¹": 5536,
      "à¤¹à¤¨à¤§": 5537,
      "à¥®à¥¯": 5538,
      "à¥¬à¥ª": 5539,
      "Ġà¤¤à¤ªà¤¸": 5540,
      "à¤Īà¤¨à¤µà¤°": 5541,
      "à¤Ĩà¤¯à¤ıà¤®": 5542,
      "à¤µà¤¢à¥Ł": 5543,
      "Ġà¥§à¥¦à¥¯": 5544,
      "Ġà¤Ĩà¤Īà¤¬": 5545,
      "à¥ĩ?âĢĻ": 5546,
      "ĠCAA": 5547,
      "Ġà¤Ĺà¤¡à¤¹": 5548,
      "Ġà¤¸à¤ľà¤µà¤²": 5549,
      "à¥ĩ!!": 5550,
      "âĢĮà¤¿": 5551,
      "Ġà¤«à¤¸à¤µà¤²": 5552,
      "Ġ02": 5553,
      "let": 5554,
      "ĠLatest": 5555,
      "edia": 5556,
      "ĠEV": 5557,
      "Ġà¥§à¥¯à¥Ńà¥¦": 5558,
      "Ġà¥§à¥¯à¥Ńà¥¨": 5559,
      "Ġà¥§à¥¯à¥Ńà¥¯": 5560,
      "Ġà¥§à¥¯à¥¬à¥¯": 5561,
      "Ġà¤¨à¤ľà¤°à¤ķ": 5562,
      "Ġà¤īà¤²à¤Ĺà¤¡à¤²": 5563,
      "Ġà¤īà¤²à¤Ĺà¤¡à¤£": 5564,
      "Ġà¤īà¤²à¤Ĺà¤¡à¤¤": 5565,
      "Ġà¤²à¤ªà¤µà¤¤": 5566,
      "à¤¸à¤Ĺà¤¡à¤®à¤§": 5567,
      "à¤²à¤ĺà¤°à¤®à¤§": 5568,
      "Ġà¤Ĩà¤īà¤Łà¤«": 5569,
      "ĠWhatsApp": 5570,
      "overnment": 5571,
      "01": 5572,
      "?âĢĿ": 5573,
      "KR": 5574,
      "St": 5575,
      "ber": 5576,
      "rom": 5577,
      "twitter": 5578,
      "Ġ^": 5579,
      "à¤°à¤¡à¤²": 5580,
      "à¥Ģà¥¤": 5581,
      "à¤¨à¤²à¤¨": 5582,
      "à¤ķà¤Ĩà¤īà¤Ł": 5583,
      "à¤¸à¥²": 5584,
      "Ġà¤Ĩà¤¡à¤®": 5585,
      "Ġà¤Ĩà¤³à¤¸": 5586,
      "Ġà¤Ĩà¤ĩà¤¸": 5587,
      "à¥ģà¥į": 5588,
      "Ġà¤¸à¤£à¤¸": 5589,
      "à¤ªà¤Ń": 5590,
      "à¥Ĥ...": 5591,
      "Ġà¤ħà¤Ĺà¤¤": 5592,
      "à¤Ĺà¤«": 5593,
      "Ġà¤µà¤£à¤µà¤£": 5594,
      "Ġà¤¹à¤°à¤®": 5595,
      "Ġà¤¹à¤°à¤µà¤¤": 5596,
      "à¤³à¤«": 5597,
      "Ġà¤¦à¤¶à¤®": 5598,
      "à¤¶à¤¶": 5599,
      "à¥ĩ.(": 5600,
      "Ġà¤¬à¤Ĺà¤²": 5601,
      "Ġà¤ķà¤°à¤ķà¤°": 5602,
      "Ġà¤¶à¤µ": 5603,
      "à¤¯à¤ķà¤¶": 5604,
      "à¤ĺà¤³à¤²": 5605,
      "Ġà¤ĩà¤ļà¤²à¤ķà¤°": 5606,
      "à¤°à¤®à¤®à¤§": 5607,
      "à¥¦à¥¬": 5608,
      "Ġà¤ħà¤¨à¤¨à¤¸": 5609,
      "à¤Ŀà¤«": 5610,
      "à¤µà¤¨à¤Ĺà¤°": 5611,
      "Ġà¤ľà¤¨à¤Ĩ": 5612,
      "à¥«à¥ª": 5613,
      "à¤£à¤¯à¤¹": 5614,
      "à¤²à¤¬à¤®à¤§": 5615,
      "Ġà¥«à¥¦à¥¦à¥¦": 5616,
      "à¤¨à¤µà¤ľ": 5617,
      "à¥®à¥¨": 5618,
      "à¥®à¥©": 5619,
      "Ġà¤Ĺà¤°à¤ľà¤ļ": 5620,
      "Ġà¤ıà¤®à¤ıà¤²à¤¡": 5621,
      "Ġà¤¹à¤²à¤µà¤¤": 5622,
      "Ġà¥Ńà¥«à¥¦": 5623,
      "Ġà¤ıà¤¸à¤Ĩà¤¯à¤ª": 5624,
      "Ġà¤Īà¤¬": 5625,
      "---": 5626,
      "Ġà¥§à¥¦à¥¨": 5627,
      "à¤¨à¤®à¤§à¤²": 5628,
      "Ġà¤ĩà¤¥à¤ªà¤°": 5629,
      "Ġà¥§à¥¨à¥¦à¥¦": 5630,
      "Ġà¤ľà¤¯à¤ĺ": 5631,
      "ated": 5632,
      "ĠMi": 5633,
      "ĠMin": 5634,
      "Ġ||": 5635,
      "ĠCup": 5636,
      "à¤²à¤ķà¤°à¤¨": 5637,
      "ĠAm": 5638,
      "à¤¾).": 5639,
      "à¤°à¤®à¤£à¤§": 5640,
      "Ġà¤·à¤¡": 5641,
      "Ġà¤ĵà¤²à¤¸à¤°": 5642,
      "ĠNar": 5643,
      "ĠTest": 5644,
      "Ġà¥§à¥¯à¥¯à¥Ń": 5645,
      "ĠDay": 5646,
      "Ġà¤ıà¤ħà¤°à¤¬": 5647,
      "olog": 5648,
      "Ġà¥¦à¥ª": 5649,
      "ĠElection": 5650,
      "à¤®à¤°à¤£à¤¶à¤ķ": 5651,
      "oss": 5652,
      "hind": 5653,
      "accine": 5654,
      "ĠPolice": 5655,
      "ĠUpdate": 5656,
      "69": 5657,
      "ea": 5658,
      "mAh": 5659,
      "ve": 5660,
      "à®": 5661,
      "âĪĴ": 5662,
      "Ġ00": 5663,
      "à¤¿âĢį": 5664,
      "à¤¨à¤Īà¤²": 5665,
      "à¤ļà¤ķà¤°": 5666,
      "à¤¹à¤°à¤ª": 5667,
      "à¤®à¤¦à¤°": 5668,
      "à¤®à¤¨à¤ļ": 5669,
      "Ġà¤ħà¤¡à¤²": 5670,
      "Ġà¤ħà¤ªà¤¨": 5671,
      "à¤Łà¤¸à¤°": 5672,
      "à¤Łà¤µà¤°à¤ļ": 5673,
      "à¤ľà¤¯à¤ļ": 5674,
      "à¤§à¤µà¤¸": 5675,
      "à¤§à¤°à¤¨": 5676,
      "à¤§à¤¡à¤ķ": 5677,
      "à¤¬à¤²à¤¤": 5678,
      "Ġà¤ľà¤łà¤°": 5679,
      "Ġà¤°à¤Ŀ": 5680,
      "Ġà¤ķà¤°à¤¸": 5681,
      "Ġà¤¶à¤°à¤®": 5682,
      "Ġà¤¶à¤«": 5683,
      "Ġà¤Ĺà¤«": 5684,
      "Ġà¤ļà¤ªà¤°": 5685,
      "Ġà¤ļà¤ķà¤²": 5686,
      "Ġà¤ļà¤ªà¤³": 5687,
      "Ġà¤ıà¤ļà¤¸": 5688,
      "à¤°à¤£à¤¯": 5689,
      "Ġà¤ħà¤¨à¤¸": 5690,
      "à¤¾,'": 5691,
      "à¤¦à¤°à¤¹": 5692,
      "Ġà¤Ĩà¤°à¤¶": 5693,
      "à¤ľà¤¨à¤®à¤§": 5694,
      "à¤¬à¤Īà¤ª": 5695,
      "à¤Łà¤¨à¤²": 5696,
      "à¤Łà¤¨à¤°à¤¶": 5697,
      "à¤Ĺà¤£à¤ĺ": 5698,
      "Ġà¤ĳà¤²à¤°": 5699,
      "Ġà¤ĳà¤°à¤Ĺ": 5700,
      "à¤µà¤³à¤ļ": 5701,
      "à¤¹à¤°à¤¬": 5702,
      "Ġà¤¸à¤¹à¤ľà¤ļ": 5703,
      "à¤²à¤ķà¤ªà¤¦": 5704,
      "à¤ĩà¤¤à¤°": 5705,
      "à¤ĩà¤¤à¤ªà¤¤": 5706,
      "à¥®à¥§": 5707,
      "à¥®à¥¬": 5708,
      "à¥Ńà¥§": 5709,
      "Ġà¤¸à¤Ĺà¤³à¤¯": 5710,
      "Ġà¤Ķà¤¸": 5711,
      "Ġà¤Ķà¤Ł": 5712,
      "Ġà¤ħà¤²à¤µ": 5713,
      "Ġà¤ıà¤®à¤ıà¤ļ": 5714,
      "à¤¤à¤¨à¤Ĺà¤°": 5715,
      "à¤¤à¤ķà¤±à¤¯": 5716,
      "à¤Ĩà¤¯à¤ıà¤²": 5717,
      "Ġà¤Ĺà¤£à¤ªà¤¤à¤°": 5718,
      "à¤ıà¤®à¤ıà¤²": 5719,
      "à¤Łà¤£à¤®": 5720,
      "ination": 5721,
      "à¤®à¤£à¤Ĺ": 5722,
      "ord": 5723,
      "ory": 5724,
      "Ġà¤§à¤¨à¤¶": 5725,
      "à¤ľà¤®à¤¹": 5726,
      "à¤°à¤¥à¤®à¤¦à¤°": 5727,
      "Ġà¤ħà¤«à¤°": 5728,
      "eng": 5729,
      "Ġ130": 5730,
      "ick": 5731,
      "à¤°à¤«à¤¡": 5732,
      "ĠLive": 5733,
      "ĠGal": 5734,
      "ĠGoogle": 5735,
      "Ġà¥§à¥§à¥ª": 5736,
      "Ġ1998": 5737,
      "Ġà¤ķà¤¢à¤Īà¤¤": 5738,
      "Ġà¤ĸà¤£à¤ĸà¤£": 5739,
      "ĠSamsung": 5740,
      "!âĢĻ": 5741,
      "03": 5742,
      "51": 5743,
      "78": 5744,
      "82": 5745,
      "IN": 5746,
      "Pune": 5747,
      "br": 5748,
      "iew": 5749,
      "nb": 5750,
      "port": 5751,
      "sh": 5752,
      "à¤¯à¤¬à¤²": 5753,
      "à¤ķà¤¨à¤ļ": 5754,
      "à¤ļà¤ķà¤Ł": 5755,
      "à¤¹à¤¬à¤¦": 5756,
      "à¤¹à¤°à¤ļà¤¨": 5757,
      "Ġà¤ķà¤µà¤¯": 5758,
      "Ġà¤¤à¤³à¤µ": 5759,
      "à¤¡à¤°à¤¸à¤¨": 5760,
      "Ġà¤¦à¤°à¤¦": 5761,
      "Ġà¤¬à¤Ĺà¤¦": 5762,
      "Ġà¤¬à¤²à¤¸": 5763,
      "Ġà¤ħà¤¸à¤Ń": 5764,
      "Ġà¤¶à¤Łà¤°": 5765,
      "Ġà¤Ĺà¤¡à¤Ĺ": 5766,
      "Ġà¤Ńà¤Ĺà¤µà¤¤": 5767,
      "Ġà¤Ńà¤°à¤ķà¤Łà¤²": 5768,
      "Ġà¤ļà¤ļ": 5769,
      "Ġà¤ĺà¤¨à¤¤": 5770,
      "Ġà¤īà¤ĸ": 5771,
      "à¤¯à¤ķà¤®": 5772,
      "Ġà¤ĩà¤¯": 5773,
      "Ġà¤ĩà¤ħà¤°": 5774,
      "à¤ķà¤°à¤¶": 5775,
      "à¥¦à¥¨": 5776,
      "Ġà¤§à¤µà¤²": 5777,
      "Ġà¤§à¤¨à¤°": 5778,
      "Ġà¤ķà¤°à¤¤à¤ļ": 5779,
      "Ġà¤¨à¤µà¤¦": 5780,
      "à¤Ĩà¤¸": 5781,
      "à¤ķà¤²à¤²": 5782,
      "Ġà¤¥à¤µ": 5783,
      "à¤²à¤¨à¤¹": 5784,
      "Ġà¥¨à¥¦à¥§": 5785,
      "à¤ĵà¤¢": 5786,
      "à¤¤à¤®à¤¸": 5787,
      "à¥Ńà¥¨": 5788,
      "à¥Ńà¥¯": 5789,
      "Ġà¤ľà¤Ĺà¤µ": 5790,
      "Ġà¤ıà¤¸à¤ıà¤®": 5791,
      "Ġà¤Īà¤Ł": 5792,
      "Ġà¥§à¥¦à¥§": 5793,
      "à¤¾âĢĻ.": 5794,
      "Ġ104": 5795,
      "à¤Ĭà¤¸à¤µà¤°": 5796,
      "int": 5797,
      "ĠCC": 5798,
      "ĠCM": 5799,
      "Ġà¥¨à¥ªà¥¦": 5800,
      "ence": 5801,
      "Ġ160": 5802,
      "à¤²à¤Ńà¤¤": 5803,
      "ĠNIA": 5804,
      "ĠBh": 5805,
      "à¤¡à¤µà¤²à¤¦": 5806,
      "led": 5807,
      "Ġà¥¦à¥¬": 5808,
      "ings": 5809,
      "Ġ1991": 5810,
      "agram": 5811,
      "Ġ1980": 5812,
      "stagram": 5813,
      "Maharashtra": 5814,
      "Ġà¤¦à¤¡à¤ªà¤¶": 5815,
      "Ġarticle": 5816,
      "):": 5817,
      ",âĢ¦": 5818,
      "63": 5819,
      "?;": 5820,
      "CO": 5821,
      "FC": 5822,
      "eg": 5823,
      "war": 5824,
      "à°": 5825,
      "Ġis": 5826,
      "à¤°à¤Ĺà¤¡": 5827,
      "à¤°à¤°à¤¥": 5828,
      "à¤¤à¤«": 5829,
      "à¤¹à¤¹": 5830,
      "Ġà¤Ĩà¤¸à¤®": 5831,
      "Ġà¤ªà¤³à¤£": 5832,
      "Ġà¤®à¤¢": 5833,
      "à¤¦à¤°à¤¸": 5834,
      "Ġà¤¤à¤°à¤£": 5835,
      "à¤Ĺà¤°à¤²": 5836,
      "à¤¡à¤¬à¤°": 5837,
      "Ġà¤¨à¤¤à¤®à¤¸": 5838,
      "Ġà¤¦à¤¡": 5839,
      "Ġà¤¦à¤³": 5840,
      "à¤¶à¤ªà¤¤": 5841,
      "Ġà¤¬à¤¡à¤µ": 5842,
      "à¤µà¤°à¤®": 5843,
      "Ġà¤ĺà¤°à¤µ": 5844,
      "Ġà¤īà¤Ĺà¤µ": 5845,
      "à¤°à¤®à¤°": 5846,
      "à¤ķà¤°à¤¸": 5847,
      "à¥¦à¥«": 5848,
      "à¤µà¤²à¤Ĺ": 5849,
      "Ġà¤īà¤ªà¤ĸ": 5850,
      "à¤ıà¤®à¤¨": 5851,
      "à¤¡à¤²à¤ļ": 5852,
      "à¤Łà¤²à¤°à¤ļ": 5853,
      "Ġà¤Ĩà¤®à¤°à¤£": 5854,
      "à¤Ĩà¤®à¤¦": 5855,
      "Ġà¤¦à¤°à¤¹": 5856,
      "à¥«à¥¯": 5857,
      "à¤¦à¤¨à¤µà¤¨": 5858,
      "à¤§à¤µà¤ľ": 5859,
      "à¤§à¤¨à¤Ĺ": 5860,
      "...!": 5861,
      "...\"": 5862,
      "à¥®à¥¦à¥¦": 5863,
      "à¤§à¤¤à¤¶": 5864,
      "à¤ıà¤¸à¤¡": 5865,
      "Ġà¤ħà¤¡à¤¸à¤°": 5866,
      "à¤²à¤®à¤§à¤²": 5867,
      "à¥¨à¥¦à¥¨à¥¦": 5868,
      "à¤°à¤µà¤łà¥Ł": 5869,
      "ata": 5870,
      "ert": 5871,
      "ĠMPSC": 5872,
      "ĠSha": 5873,
      "ĠAr": 5874,
      "ĠAmazon": 5875,
      "Ġà¤Ĺà¤¡à¤Ĺà¤¡": 5876,
      "ĠIM": 5877,
      "ĠIS": 5878,
      "Ġ135": 5879,
      "ĠBS": 5880,
      "ics": 5881,
      "à¤¡à¤µà¤²à¤¶": 5882,
      "olha": 5883,
      "ĠUn": 5884,
      "Ġà¥§à¥§à¥©": 5885,
      "Ġà¤§à¤¡à¤ªà¤¡à¤¤": 5886,
      "Ġà¤ıà¤ķà¤µà¤Łà¤²": 5887,
      "à¤ĭà¤·": 5888,
      "à¤ķà¤®à¤¤à¤ļ": 5889,
      "Ġà¤ªà¤¥à¤¦": 5890,
      "à¤ļà¤ªà¤¦à¤¸": 5891,
      "axy": 5892,
      "IVE": 5893,
      "Ġà¤ħà¤¹à¤®à¤¦à¤¨à¤Ĺà¤°à¤ļ": 5894,
      "&#": 5895,
      "08": 5896,
      "85": 5897,
      "92": 5898,
      "AL": 5899,
      "RT": 5900,
      "bit": 5901,
      "goo": 5902,
      "¸ı": 5903,
      "ï¸ı": 5904,
      "à¤¾à¥ħà¤Ĥ": 5905,
      "à¥ĩà¤ĥ": 5906,
      "à¤¤à¤ķà¤¡": 5907,
      "à¤¯à¤Łà¤²": 5908,
      "à¤²à¤¸à¤®": 5909,
      "à¤¨à¤¹à¤°": 5910,
      "à¤ļà¤Ĺà¤£": 5911,
      "à¤ļà¤¨à¤ļ": 5912,
      "à¤¸à¤µà¤£": 5913,
      "à¤¸à¤®à¤¤": 5914,
      "à¤®à¤¸à¤²à¤¤": 5915,
      "Ġà¤ªà¤®": 5916,
      "Ġà¤®à¤ĸà¤°": 5917,
      "à¤¦à¤µà¤°": 5918,
      "à¤¦à¤ķà¤¡": 5919,
      "à¤¦à¤¶à¤®": 5920,
      "Ġà¤¤à¤³à¤µà¤²à¤ķà¤°": 5921,
      "Ġà¤ħà¤°à¤®": 5922,
      "Ġà¤µà¤¤à¤¨": 5923,
      "Ġà¤¨à¤Ń": 5924,
      "à¤³à¤¸à¤°": 5925,
      "Ġà¤¦à¤«à¤¨": 5926,
      "Ġà¤ľà¤¬à¤²à¤ª": 5927,
      "à¤łà¤¶": 5928,
      "Ġà¤Ĺà¤¹à¤²": 5929,
      "à¤Īà¤¹": 5930,
      "à¤¤à¤°à¤¸": 5931,
      "Ġà¤łà¤ķ": 5932,
      "Ġà¤¸à¤®à¤¯": 5933,
      "à¥Ģà¤Ĥ,": 5934,
      "Ġà¤Ĩà¤¤à¤·à¤¬": 5935,
      "à¤ıà¤Ĺ": 5936,
      "à¤ıà¤ħà¤°": 5937,
      "à¤ľà¤¨à¤¹": 5938,
      "à¤¯à¤¤à¤¶": 5939,
      "à¤Ĥ.âĢĻ": 5940,
      "à¤ªà¤¨à¤µ": 5941,
      "à¤ªà¤¨à¤¦": 5942,
      "à¤¤à¤ķà¤²": 5943,
      "Ġà¤Ĩà¤¯à¤¶": 5944,
      "à¤¸à¤¨à¤¸": 5945,
      "à¤ĩà¤¨à¤²": 5946,
      "Ġà¤ĸà¤°à¤¬": 5947,
      "à¤µà¤¨à¤Ĺ": 5948,
      "à¤°à¤ľà¤ļ": 5949,
      "Ġà¤®à¤²à¤¬": 5950,
      "Ġà¤ľà¤¨à¤¨": 5951,
      "à¤¦à¤¨à¤ķ": 5952,
      "à¤¤à¤µà¤µ": 5953,
      "à¥®à¥ª": 5954,
      "à¤Ĺà¤¡à¥Ł": 5955,
      "à¤¾?âĢĻâĢĻ": 5956,
      "à¤Ĥ,\"": 5957,
      "à¤ªà¤Łà¤£": 5958,
      "Ġà¤ıà¤¸à¤¡": 5959,
      "Ġà¤¨à¤Ĺà¤°à¤°à¤ļà¤¨": 5960,
      "ink": 5961,
      "à¤Īà¤Łà¤¸": 5962,
      "Ġ?,": 5963,
      "à¤¯à¤°à¤¸à¤ª": 5964,
      "its": 5965,
      "ĠTr": 5966,
      "Ġà¤ıà¤²à¤ľ": 5967,
      "à¤Łà¥Łà¤Ĺ": 5968,
      "à¤ĳà¤¸": 5969,
      "Ġà¤Ńà¤¯à¤Ń": 5970,
      "à¤¯à¤Ĺà¤¡à¤®à¤§": 5971,
      "ĠFIR": 5972,
      "Ġ>>>>": 5973,
      "Ġà¤¸à¤¬à¤®": 5974,
      "Ġà¤¸à¤¬à¤¬": 5975,
      "Ġà¥§à¥¯à¥ªà¥¯": 5976,
      "Ġà¥§à¥§à¥§": 5977,
      "Ġà¥§à¥§à¥¯": 5978,
      "Ġà¤¢à¤Ĺà¤«": 5979,
      "à¥¯à¥¯à¥¯": 5980,
      "Ġà¤Ĺà¤µà¤¸à¤²": 5981,
      "CCI": 5982,
      "Ġ---------------------------------": 5983,
      "Ġà¤ĸà¤¦à¤ĸà¤¦": 5984,
      "ashik": 5985,
      "nbsp": 5986,
      "olhapur": 5987,
      "62": 5988,
      "IP": 5989,
      "PM": 5990,
      "Shiv": 5991,
      "man": 5992,
      "oon": 5993,
      "se": 5994,
      "Ġï": 5995,
      "à¥Ħ": 5996,
      "à¤¯à¤ĺ": 5997,
      "à¤²à¤µà¤¡": 5998,
      "à¤¨à¤ĺ": 5999,
      "à¤¨à¤ĸà¤¡": 6000,
      "à¤¸à¤¤à¤°": 6001,
      "à¤¸à¤¸à¤®": 6002,
      "Ġà¤ķà¤Ń": 6003,
      "Ġà¤ķà¤¬à¤°": 6004,
      "à¤ªà¤Łà¤²": 6005,
      "à¤¦à¤®à¤°": 6006,
      "Ġà¤ħà¤¤à¤°": 6007,
      "Ġà¤µà¤ļà¤ķ": 6008,
      "à¤¡à¤ľ": 6009,
      "à¤¡à¤Ńà¤°": 6010,
      "à¤§à¤ªà¤£": 6011,
      "à¤¬à¤ķà¤°": 6012,
      "Ġà¤Ĺà¤¢": 6013,
      "Ġà¤Ĺà¤¹à¤¨": 6014,
      "Ġà¤²à¤°": 6015,
      "à¤µà¤°à¤µ": 6016,
      "à¤¥à¤¦": 6017,
      "Ġà¤ļà¤°à¤¸": 6018,
      "Ġà¤ļà¤¢à¤µà¤£": 6019,
      "Ġà¤ĺà¤Łà¤£": 6020,
      "Ġà¤īà¤ķà¤°": 6021,
      "à¤Īà¤ķà¤²": 6022,
      "à¤®à¤§à¤¡": 6023,
      "Ġà¤ĸà¤°à¤ª": 6024,
      "Ġà¤ıà¤ķà¤¬": 6025,
      "Ġà¤Łà¤³": 6026,
      "à¤¯à¤ķà¤ļ": 6027,
      "Ġà¤ªà¤°à¤Ĺ": 6028,
      "à¥ĩ,âĢĻâĢĻ": 6029,
      "à¤ķà¤°à¤¬à¤°": 6030,
      "à¤«à¤®à¤§": 6031,
      "Ġà¤¡à¤ķ": 6032,
      "à¤¤à¤²à¤ĸ": 6033,
      "Ġà¤Ĩà¤ªà¤Ĩà¤ªà¤²": 6034,
      "à¤ªà¤°à¤¦": 6035,
      "à¥¦à¥ª": 6036,
      "à¥¦à¥®": 6037,
      "Ġà¤§à¤¨à¤ķ": 6038,
      "Ġà¤§à¤µà¤¨à¤ļ": 6039,
      "à¤°à¤¸à¤¤": 6040,
      "à¤·à¤£à¤ķ": 6041,
      "à¤¸à¤°à¤µà¤°": 6042,
      "à¤Łà¤°à¤«": 6043,
      "Ġà¤¸à¤¹à¤¸à¤ļ": 6044,
      "à¤ĩà¤Łà¤¨": 6045,
      "à¤ľà¤¯à¤¨à¤Ĺà¤°": 6046,
      "à¤¯à¤¨à¤Ĺà¤°": 6047,
      "à¤®à¤ķà¤¹": 6048,
      "Ġà¤°à¤¸à¤¦": 6049,
      "Ġà¤®à¤¦à¤¤à¤¹": 6050,
      "Ġà¥ªà¥«à¥¦": 6051,
      "à¤¾??": 6052,
      "à¤¨à¤°à¤®à¤§": 6053,
      "à¤Ĩà¤¯à¤®à¤§": 6054,
      "Ġà¤¬à¤¨à¤ķà¤°": 6055,
      "Ġà¥¬à¥«à¥¦": 6056,
      "Ġà¥§à¥¦à¥ª": 6057,
      "Ġà¤¸à¤®à¤ľà¤µ": 6058,
      "Ġà¤ªà¤Łà¤µà¤£": 6059,
      "à¤¹à¤²à¤®à¤§": 6060,
      "à¤¹à¤²à¤ªà¤°": 6061,
      "à¤¸à¤Ĺà¤¢": 6062,
      "à¤¸à¤Ĺà¤¡à¤ļ": 6063,
      "à¤Ĩà¤°à¤Ĩà¤¯": 6064,
      "à¤®à¤£à¤°": 6065,
      "Ġà¤ľà¤¯à¤ľà¤¯à¤ķ": 6066,
      "atch": 6067,
      "Ġ122": 6068,
      "ĠĠĠĠĠĠĠ": 6069,
      "........": 6070,
      "à¤ıà¤«à¤Ł": 6071,
      "ĠAct": 6072,
      "Ġà¥§à¥¬à¥¦à¥¦": 6073,
      "ite": 6074,
      "ith": 6075,
      "ĠNag": 6076,
      "Ġà¤įà¤¡à¤®": 6077,
      "hak": 6078,
      "ĠHD": 6079,
      "Ġà¥§à¥¯à¥®à¥©": 6080,
      "Ġcom": 6081,
      "Ġà¤łà¤³à¤ķà¤ªà¤£": 6082,
      "Ġth": 6083,
      "ach": 6084,
      "à¤¯à¤«à¤³": 6085,
      "Ġà¥§à¥¯à¥¬à¥«": 6086,
      "Ġà¤Ńà¤Łà¤ķà¤¤": 6087,
      "ake": 6088,
      "Ġà¥§à¥¯à¥«à¥«": 6089,
      "Ġà¥ŀà¤ķ": 6090,
      "à¤¸à¤¨à¤Ĺà¤°à¤®à¤§": 6091,
      "Ġà¤ļà¤ªà¤ĸà¤²": 6092,
      "à¥ĩâĢĿ.": 6093,
      "ious": 6094,
      "à¤¬à¤²à¤ļà¤ķ": 6095,
      "ĠGalaxy": 6096,
      "af": 6097,
      "ms": 6098,
      "put": 6099,
      "à¤°à¤¯à¤¸": 6100,
      "à¤¤à¤µà¤¸": 6101,
      "à¤¤à¤µà¤¤": 6102,
      "à¤¯à¤°à¤®": 6103,
      "à¤²à¤®à¤¨": 6104,
      "à¤¿âĢĻ": 6105,
      "à¤¨à¤µà¤²": 6106,
      "à¤¨à¤ī": 6107,
      "à¤ĤâĢĻ,": 6108,
      "à¤ķà¤ªà¤°": 6109,
      "à¤ķà¤Ĩà¤Ĭà¤Ł": 6110,
      "à¤¹à¤°à¤¸": 6111,
      "Ġà¤ķà¤²à¤ķà¤¤": 6112,
      "à¤®à¤°à¤¤": 6113,
      "à¤®à¤¸à¤¹": 6114,
      "à¤ªà¤ķà¤¡": 6115,
      "Ġà¤ħà¤µà¤ļ": 6116,
      "à¤Ĺà¤¡à¤ļ": 6117,
      "à¤Łà¤¸à¤ļ": 6118,
      "à¤Łà¤®à¤°": 6119,
      "Ġà¤µà¤¨à¤°": 6120,
      "à¤¡à¤ħà¤³": 6121,
      "à¤ľà¤³à¤Ĺ": 6122,
      "Ġà¤°à¤¨à¤°": 6123,
      "Ġà¤¶à¤¯à¤¨": 6124,
      "Ġà¤¶à¤¹à¤¨": 6125,
      "à¤łà¤²à¤µ": 6126,
      "Ġà¤Ĺà¤³à¤ļ": 6127,
      "Ġà¤ĺà¤®": 6128,
      "Ġà¤ĺà¤µà¤ĺ": 6129,
      "Ġà¤ĺà¤¨à¤µà¤Ł": 6130,
      "à¤Ńà¤°à¤ļ": 6131,
      "Ġà¤īà¤¦à¤°": 6132,
      "Ġà¤ıà¤£": 6133,
      "Ġà¤ıà¤¯à¤°": 6134,
      "Ġà¤ıà¤²à¤°": 6135,
      "à¤°à¤ķà¤¸": 6136,
      "à¤Īà¤¦à¤²": 6137,
      "à¤¢à¤ª": 6138,
      "à¤«à¤¡": 6139,
      "Ġ(?)": 6140,
      "à¤Ŀà¤¬": 6141,
      "Ġà¤īà¤ªà¤¶": 6142,
      "à¥Ģà¤Ĥ.": 6143,
      "à¤Ĺà¤²à¤®": 6144,
      "à¤Ĺà¤²à¤µà¤°": 6145,
      "Ġà¤Ĩà¤°à¤ıà¤¸": 6146,
      "Ġà¤Ĩà¤°à¤ıà¤¸à¤ıà¤¸": 6147,
      "à¤ıà¤ķà¤¦": 6148,
      "à¤ľà¤¨à¤¬à¤¦": 6149,
      "à¤Ĺà¤£à¤¸": 6150,
      "Ġà¤ĳà¤¬": 6151,
      "à¤Ĩà¤ļ": 6152,
      "Ġà¤ĵà¤®à¤ª": 6153,
      "à¤ĩà¤Łà¤²": 6154,
      "Ġà¤ķà¤²à¤°à¤ļ": 6155,
      "à¤¹à¤¨à¤¸": 6156,
      "Ġà¤®à¤°à¤Ĺà¤³": 6157,
      "à¥¬à¥¨": 6158,
      "à¤Ĩà¤¯à¤ľ": 6159,
      "Ġà¤Ńà¤°à¤¡à¤²": 6160,
      "Ġ101": 6161,
      "à¥ĢâĢĻ.": 6162,
      "à¤Ĭà¤¸à¤«": 6163,
      "Ġà¤ıà¤µà¤¢à¤ļ": 6164,
      "ars": 6165,
      "erv": 6166,
      "ĠĠĠĠĠĠ": 6167,
      "Ġà¥¨à¥«à¥¦à¥¦": 6168,
      "à¤ıà¤¨à¤Ł": 6169,
      "ĠICC": 6170,
      "à¤®à¤®à¤§à¤²": 6171,
      "Ġà¤ªà¤²à¤Ł": 6172,
      "ĠTe": 6173,
      "ĠLIC": 6174,
      "ĠLok": 6175,
      "ĠEMI": 6176,
      "IDAI": 6177,
      "Ġpic": 6178,
      "Ġà¥§à¥¯à¥Ńà¥ª": 6179,
      "Ġà¥§à¥¯à¥Ńà¥¬": 6180,
      "à¥Ģ\",": 6181,
      "???": 6182,
      "hant": 6183,
      "Ġà¤ªà¤ļà¤¨à¤ķ": 6184,
      "Ġà¤Ńà¤°à¤µà¤¶": 6185,
      "ourt": 6186,
      "Ġà¤īà¤§à¤³à¤ªà¤Ł": 6187,
      "à¤ķà¤¸à¤¹à¤Ń": 6188,
      "Ġà¤ļà¤£à¤ļà¤£": 6189,
      "Ġà¤¬à¤²à¤ķà¤µà¤¡": 6190,
      ",âĢĻâĢĻ": 6191,
      "07": 6192,
      "71": 6193,
      "86": 6194,
      "Hz": 6195,
      "PE": 6196,
      "Te": 6197,
      "ib": 6198,
      "min": 6199,
      "pl": 6200,
      "ual": 6201,
      "yc": 6202,
      "Ġat": 6203,
      "à¤¾âĪĴ": 6204,
      "à¤°à¤¬à¤²": 6205,
      "à¤¤à¤Ĺà¤Ł": 6206,
      "à¤¿à¤¾": 6207,
      "à¤µà¤Ĺà¤¤": 6208,
      "à¤¸à¤·": 6209,
      "à¤¹à¤¡": 6210,
      "Ġà¤µà¤Ŀà¤°": 6211,
      "à¤¡à¤µà¤¡": 6212,
      "à¤§à¤ľà¤¨": 6213,
      "à¤¶à¤²à¤¤": 6214,
      "Ġà¤ľà¤ł": 6215,
      "Ġà¤ľà¤¯à¤¤": 6216,
      "à¤łà¤¦": 6217,
      "Ġà¤Ĺà¤³à¤£": 6218,
      "à¤¥à¤¨à¤Ĺà¤°": 6219,
      "à¤Īà¤ķà¤°": 6220,
      "Ġà¤ıà¤ķà¤°à¤ķà¤®": 6221,
      "Ġà¤«à¤°à¤¶": 6222,
      "à¤°à¤£à¤ª": 6223,
      "à¤ĺà¤¹": 6224,
      "à¤°à¤®à¤ľ": 6225,
      "Ġà¤ħà¤¨à¤µ": 6226,
      "Ġà¤ħà¤¨à¤Ń": 6227,
      "à¤¯à¤®à¤¸à¤¨": 6228,
      "à¤Ŀà¤¸": 6229,
      "à¤Ŀà¤£": 6230,
      "à¤Ĺà¤²à¤¬": 6231,
      "à¤¸à¤°à¤®à¤§": 6232,
      "à¤ıà¤ľ": 6233,
      "à¤ıà¤¸à¤²": 6234,
      "à¤¶à¤¨à¤¦": 6235,
      "à¤¹à¤°à¤¹": 6236,
      "à¤¹à¤°à¤Ł": 6237,
      "à¤Łà¤ķà¤¸à¤°": 6238,
      "Ġà¤ĺà¤°à¤Ń": 6239,
      "Ġà¤ĵà¤µà¤°": 6240,
      "Ġà¤ĵà¤¸à¤°": 6241,
      "à¤®à¤¨à¤¨": 6242,
      "à¤®à¤¨à¤µ": 6243,
      "à¤·à¤ķà¤¹": 6244,
      "à¤¯à¤¨à¤¸": 6245,
      "à¤ĵà¤¦": 6246,
      "à¤ĵà¤¡": 6247,
      "à¤§à¤µà¤ļ": 6248,
      "à¤ķà¤°à¤£à¤ļ": 6249,
      "à¤ķà¤°à¤£à¤¹": 6250,
      "Ġà¤ľà¤®à¤¶": 6251,
      "à¤ıà¤¸à¤Īà¤ļ": 6252,
      "Ġà¤ĳà¤«à¤¸": 6253,
      "Ġà¤Ńà¤°à¤µà¤¸": 6254,
      "Ġà¤īà¤²à¤Łà¤¸": 6255,
      "à¤ıà¤®à¤Ī": 6256,
      "Ġà¤ħà¤¡à¤Ĺà¤³": 6257,
      "à¥ĩ?,": 6258,
      "Ġà¥§à¥¨à¥¨": 6259,
      "ater": 6260,
      "ĠĠĠĠĠ": 6261,
      "ĠPro": 6262,
      "ĠCBI": 6263,
      "ade": 6264,
      "adn": 6265,
      "à¤¦à¤¯à¤¸à¤®": 6266,
      "ĠBl": 6267,
      "âĢĮà¥ħ": 6268,
      "Ġà¤¡à¤¬à¤ĺ": 6269,
      "Ġà¤ľà¤²à¤¶": 6270,
      "Ġà¤īà¤ľà¤³à¤£": 6271,
      "ĠDi": 6272,
      "Ġcr": 6273,
      "Ġà¤¢à¤ķà¤²à¤¤": 6274,
      "Ġà¤Ĩà¤µà¤°à¤²": 6275,
      "Ġà¥§à¥¯à¥Ńà¥©": 6276,
      "Ġà¥§à¥¯à¥Ńà¥®": 6277,
      "ots": 6278,
      "ave": 6279,
      "ĠIndian": 6280,
      "ove": 6281,
      "Ġà¥§à¥§à¥¨": 6282,
      "ĠOn": 6283,
      "Ġà¥§à¥¯à¥«à¥®": 6284,
      "Ġà¤®à¤³à¤®à¤³": 6285,
      "Ġà¤ªà¤ªà¤Ī": 6286,
      "à¥²à¤ķ": 6287,
      "Ġà¤«à¤°à¤«à¤Łà¤¤": 6288,
      "hoto": 6289,
      "Ġà¤ĺà¤µà¤ĺà¤µ": 6290,
      "09": 6291,
      "83": 6292,
      "84": 6293,
      "PG": 6294,
      "bh": 6295,
      "pr": 6296,
      "à¤°à¥Ł": 6297,
      "à¤¤à¤®à¤ļ": 6298,
      "à¤¯à¤°à¤ª": 6299,
      "à¤²à¤Łà¤²": 6300,
      "à¤¨à¤¸à¤²": 6301,
      "à¤¨à¤®à¤¸": 6302,
      "à¤ķà¤Łà¤¤": 6303,
      "à¤µà¤¦à¤°": 6304,
      "à¤µà¤ļà¤¨": 6305,
      "à¤ļà¤¬": 6306,
      "à¤¹à¤¨à¤²": 6307,
      "Ġà¤ķà¤¸à¤°": 6308,
      "Ġà¤ķà¤£à¤¸": 6309,
      "Ġà¤Ĩà¤¡à¤ķ": 6310,
      "Ġà¤¸à¤¬à¤³": 6311,
      "à¤ªà¤¸à¤®à¤§": 6312,
      "à¤¦à¤ªà¤£": 6313,
      "Ġà¤ħà¤¢à¤³": 6314,
      "à¤¡à¤¸à¤®": 6315,
      "Ġà¤¨à¤£": 6316,
      "Ġà¤¨à¤°à¤®": 6317,
      "à¤¶à¤Ĺ": 6318,
      "Ġà¤°à¤Ĺ": 6319,
      "Ġà¤¬à¤¶": 6320,
      "Ġà¤ļà¤®à¤ķà¤¤": 6321,
      "à¤Ńà¤Ĺà¤µ": 6322,
      "à¥Ģ.,": 6323,
      "à¥Ģ.âĢĻâĢĻ": 6324,
      "Ġà¥Ł": 6325,
      "à¤Īà¤ķà¤¡": 6326,
      "à¤°à¤¤à¤¹": 6327,
      "Ġà¤¤à¤°à¤²": 6328,
      "à¤°à¤®à¤¤à¤µ": 6329,
      "à¤«à¤ĸ": 6330,
      "Ġà¤Ĩà¤ªà¤¨": 6331,
      "à¥¦à¥Ń": 6332,
      "Ġà¤§à¤¸à¤ķ": 6333,
      "Ġà¤¸à¤®à¤¸à¤®": 6334,
      "à¤ıà¤®à¤ķ": 6335,
      "à¤ıà¤Ĩà¤¯": 6336,
      "à¤ıà¤ļà¤ª": 6337,
      "à¤Łà¤²à¤®": 6338,
      "à¤ħà¤°à¤®": 6339,
      "à¤ħà¤¡à¤ļà¤£": 6340,
      "Ġà¤ĳà¤¥": 6341,
      "à¤¯à¤ļà¤¯": 6342,
      "à¤¤à¤ķÂºà¤¯": 6343,
      "à¤¯à¤²à¤®": 6344,
      "à¤²à¤¨à¤Ĺà¤°": 6345,
      "à¤ªà¤¤à¤Ĺ": 6346,
      "Ġà¤®à¤¤à¤ªà¤¤": 6347,
      "à¤¨à¤²à¤®à¤§": 6348,
      "à¤ĵà¤Ł": 6349,
      "à¤Ľà¤Ł": 6350,
      "Ġà¤īà¤®à¤¦": 6351,
      "Ġà¤īà¤®à¤°à¤Ĺ": 6352,
      "Ġà¤īà¤®à¤Łà¤µ": 6353,
      "Ġ450": 6354,
      "à¤Īà¤¨à¤¨": 6355,
      "Ġà¤ħà¤µà¤ľ": 6356,
      "à¤ıà¤¸à¤ıà¤«à¤ļ": 6357,
      "Ġà¤ĳà¤«à¤®à¤§": 6358,
      "Ġà¤ħà¤Łà¤ķà¤¹": 6359,
      "Ġà¤¢à¤¸": 6360,
      "Ġ102": 6361,
      "Ġà¤®à¤ľà¤¦": 6362,
      "2019": 6363,
      "Ġ?\"": 6364,
      "Ġ126": 6365,
      "Ġà¤ķà¤łà¤¡": 6366,
      "ĠMS": 6367,
      "ĠST": 6368,
      "ĠPHO": 6369,
      "ĠRo": 6370,
      "à¤ıà¤«à¤¡": 6371,
      "à¥Ģ?,": 6372,
      "ĠAc": 6373,
      "Ġà¤¤à¤³à¤®à¤ľà¤²": 6374,
      "ĠNext": 6375,
      "à¤ĳà¤Ĺà¤¸": 6376,
      "Ġà¥²à¤®": 6377,
      "Ġà¤¨à¤Ĭà¤µ": 6378,
      "à¤¯à¤Ĺà¤¡à¤ļ": 6379,
      "Ġà¤¸à¤«à¤²": 6380,
      "à¤¯à¤¸à¤¨à¤®": 6381,
      "ree": 6382,
      "Ġà¤ħà¤¡à¤ķà¤µà¤²": 6383,
      "Ġà¥§à¥¯à¥¬à¥¬": 6384,
      "Ġ1990": 6385,
      "Ġà¥§à¥¯à¥«à¥¬": 6386,
      "Ġà¤°à¤¥à¤¯": 6387,
      "Ġà¤ħà¤Ĺà¤°à¤¬à¤¤": 6388,
      "ealth": 6389,
      "ĠATM": 6390,
      "à¤¸à¥²à¤ª": 6391,
      "ĠPHOT": 6392,
      "))": 6393,
      ".(": 6394,
      "400": 6395,
      "Me": 6396,
      "NL": 6397,
      "Pr": 6398,
      "RP": 6399,
      "get": 6400,
      "les": 6401,
      "mi": 6402,
      "à¤´": 6403,
      "à¤¨à¤Łà¤ķ": 6404,
      "à¤¨à¤¯à¤¨": 6405,
      "à¥ģâĢĻ": 6406,
      "Ġà¤¸à¤¨à¤¸": 6407,
      "à¤ªà¤ł": 6408,
      "à¤¦à¤°à¤¤": 6409,
      "à¥Ĥà¤ģ": 6410,
      "Ġà¤ħà¤¦à¤²": 6411,
      "à¤Łà¤°à¤ķ": 6412,
      "Ġà¤µà¤Ł": 6413,
      "Ġà¤µà¤Łà¤¹": 6414,
      "à¤¡à¤¸à¤¨": 6415,
      "à¤ľà¤¸à¤¹": 6416,
      "Ġà¤¹à¤Łà¤²": 6417,
      "Ġà¤¦à¤²à¤µ": 6418,
      "à¤·à¤ľ": 6419,
      "à¤¬à¤ķà¤¡": 6420,
      "à¤¬à¤ªà¤°": 6421,
      "Ġà¤ľà¤«à¤°": 6422,
      "Ġà¤¬à¤²à¤°": 6423,
      "à¤ĸà¤°à¤£": 6424,
      "à¤¥à¤°à¤²": 6425,
      "à¤¥à¤ļà¤ķ": 6426,
      "Ġà¤ĺà¤¬à¤°": 6427,
      "Ġà¤ĺà¤¨à¤®": 6428,
      "Ġà¤ĺà¤¨à¤«": 6429,
      "Ġà¤ıà¤²à¤¸": 6430,
      "Ġà¤Ŀà¤¡à¤ª": 6431,
      "Ġà¤«à¤¨": 6432,
      "Ġà¤«à¤¤à¤µ": 6433,
      "Ġà¤¤à¤°à¤¡": 6434,
      "Ġà¤¤à¤°à¤¬": 6435,
      "Ġà¤ĩà¤Ĺ": 6436,
      "Ġà¤ĩà¤ľà¤°": 6437,
      "à¤ķà¤°à¤¶à¤¹": 6438,
      "à¤ķà¤¡à¥Ł": 6439,
      "Ġà¤¸à¤°à¤¡": 6440,
      "Ġà¤¸à¤°à¤«à¤°": 6441,
      "à¤¾,âĢĿ": 6442,
      "à¤°à¤¸à¤ļ": 6443,
      "à¤°à¤¸à¤°à¤ķ": 6444,
      "Ġà¤īà¤ªà¤¸à¤ļ": 6445,
      "..?": 6446,
      "à¤ħà¤«": 6447,
      "à¤ħà¤¸à¤²": 6448,
      "Ġà¤ĵà¤Ŀà¤°": 6449,
      "Ġà¤ªà¤¦à¤Ńà¤°à¤¤": 6450,
      "à¤¡à¤£à¤Ĺà¤¡": 6451,
      "à¤µà¤¨à¤µ": 6452,
      "Ġà¤ªà¤¤à¤ª": 6453,
      "Ġà¤ľà¤¨à¤Ĩà¤¶": 6454,
      "Ġà¤ħà¤ªà¤ļà¤¨": 6455,
      "à¤¦à¤¨à¤¹": 6456,
      "Ġ2024": 6457,
      "Ġ3000": 6458,
      "Ġà¤ľà¤°à¤¬": 6459,
      "Ġà¤Ĩà¤łà¤ļ": 6460,
      "...'": 6461,
      "à¥©à¥¦à¥¦": 6462,
      "à¥®à¥Ń": 6463,
      "Ġà¤¤à¤ªà¤®": 6464,
      "à¤īà¤ķ": 6465,
      "Ġà¤ħà¤²à¤®": 6466,
      "Ġà¥§à¥¯à¥«à¥¦": 6467,
      "Ġà¤Īà¤¤à¤°": 6468,
      "à¤ķà¤ļà¤ķ": 6469,
      "Ġà¤¢à¤³": 6470,
      "à¤Łà¤µà¤°à¤¹": 6471,
      "Ġà¥§à¥«à¥§": 6472,
      "ara": 6473,
      "Ġà¤²à¤¢à¤µà¤¯": 6474,
      "2017": 6475,
      "Ġà¤¨à¤Ĺà¤°à¤ķà¤°": 6476,
      "à¥¨à¥¦à¥¨à¥§": 6477,
      "Ġà¤ıà¤¨à¤¬": 6478,
      "à¤ľà¤£à¤Ĺ": 6479,
      "ork": 6480,
      "orp": 6481,
      "Ġà¥§à¥®à¥¦à¥¦": 6482,
      "Ġà¤ħà¤«à¤ľà¤²": 6483,
      "ĠCase": 6484,
      "ĠRate": 6485,
      "Ġà¤ħà¤¬à¤ķ": 6486,
      "Ġ149": 6487,
      "à¤¯à¤°à¤¸à¤²": 6488,
      "à¤²à¤®à¤ľ": 6489,
      "enc": 6490,
      "ham": 6491,
      "hay": 6492,
      "ire": 6493,
      "ĠLIVE": 6494,
      "ĠâĢ¦.": 6495,
      "elhi": 6496,
      "Ġà¤ĩà¤ķà¤¬": 6497,
      "ĠInd": 6498,
      "Ġby": 6499,
      "Ġà¥§à¥¯à¥¬à¥©": 6500,
      "ĠUddhav": 6501,
      "Ġà¥§à¥¯à¥ªà¥«": 6502,
      "ĠOT": 6503,
      "Ġ1992": 6504,
      "ĠJio": 6505,
      "Ġ1989": 6506,
      "Indian": 6507,
      "Ġà¤īà¤®à¤Łà¤µà¤£": 6508,
      "Ġà¤ļà¤®à¤ķà¤²": 6509,
      "à¤ĳà¤«à¤®à¤§": 6510,
      "Ġà¤ľà¤¯à¤¦à¤¤": 6511,
      "ĠRaut": 6512,
      "ongress": 6513,
      "ĠPatil": 6514,
      "à¤ħà¤¹à¤®à¤¦à¤¨à¤Ĺà¤°": 6515,
      "ĠPrev": 6516,
      "ĠCSK": 6517,
      "Ġà¤¹à¤°à¤®à¤¨à¤ª": 6518,
      "06": 6519,
      "300": 6520,
      "53": 6521,
      "BP": 6522,
      "II": 6523,
      "IM": 6524,
      "NG": 6525,
      "Sharad": 6526,
      "gan": 6527,
      "ips": 6528,
      "jit": 6529,
      "line": 6530,
      "à²": 6531,
      "Ġ]": 6532,
      "Ġle": 6533,
      "à¤°à¤Ŀ": 6534,
      "à¤¯à¤¬à¤°à¤ļ": 6535,
      "à¤¨à¤¦à¤°": 6536,
      "à¤¨à¤¨à¤Ĺà¤°": 6537,
      "à¤¸à¤¡": 6538,
      "à¤£à¤ĸ": 6539,
      "à¤£à¤¥à¤³": 6540,
      "à¤®à¤¬à¤°": 6541,
      "Ġà¤¸à¤¢à¤³": 6542,
      "Ġà¤ªà¤ļà¤µ": 6543,
      "Ġà¤ªà¤³à¤µà¤£": 6544,
      "à¥ĤâĢ¦": 6545,
      "à¤Ĺà¤¯": 6546,
      "à¤Ĺà¤ķà¤¡": 6547,
      "à¤Łà¤µà¤¤": 6548,
      "à¤Łà¤ĩ": 6549,
      "Ġà¤µà¤Ĺà¤°": 6550,
      "à¤ľà¤ķà¤°": 6551,
      "à¤ľà¤ĺà¤Łà¤ķ": 6552,
      "Ġà¤¹à¤°à¤¦": 6553,
      "Ġà¤¹à¤Ńà¤ª": 6554,
      "Ġà¤¨à¤ª": 6555,
      "à¤³à¤µà¤¡": 6556,
      "Ġà¤ľà¤³à¤£": 6557,
      "Ġà¤°à¤ĸà¤®": 6558,
      "Ġà¤¬à¤°à¤ļ": 6559,
      "Ġà¤¬à¤²à¤µ": 6560,
      "Ġà¤¬à¤«à¤°": 6561,
      "Ġà¤ķà¤°à¤µà¤¸": 6562,
      "à¤łà¤³": 6563,
      "Ġà¤²à¤µà¤²": 6564,
      "à¤¥à¤¯": 6565,
      "à¤Īà¤®à¤ª": 6566,
      "à¤¾.âĢĻâĢĻ": 6567,
      "Ġà¤«à¤°à¤¸": 6568,
      "à¤ĺà¤¶": 6569,
      "à¤µà¤¸à¤ħà¤ĸ": 6570,
      "à¤ķà¤°à¤¦à¤¨": 6571,
      "à¤Ĭà¤ľ": 6572,
      "Ġà¤¸à¤°à¤³à¤¸": 6573,
      "à¤Ŀà¤°à¤¨": 6574,
      "à¤µà¤¡à¤°à¤ļ": 6575,
      "à¤ıà¤°": 6576,
      "à¤ıà¤ķà¤¡": 6577,
      "à¤Ĺà¤°à¤°": 6578,
      "à¤Łà¤²à¤¨": 6579,
      "à¤¬à¤Īà¤¤à¤ļ": 6580,
      "à¤Łà¤¨à¤¹": 6581,
      "à¤¸à¤¨à¤¤": 6582,
      "Ġà¤īà¤¦à¤¯à¤¸": 6583,
      "Ġà¤īà¤¦à¤¯à¤ª": 6584,
      "à¤²à¤¨à¤ª": 6585,
      "à¤ĩà¤¬": 6586,
      "à¤°à¤ĸà¤ª": 6587,
      "à¤ĵà¤ķà¤¡": 6588,
      "à¤ħà¤°à¤¹": 6589,
      "Ġà¤ħà¤ľà¤®à¤²": 6590,
      "à¤ļà¤²à¤°": 6591,
      "Ġà¥«à¥«à¥¦": 6592,
      "à¤¸à¤®à¤Ł": 6593,
      "Ġà¥ªà¥¨à¥¦": 6594,
      "à¤ªà¤²à¤µ": 6595,
      "à¤Łà¤¤à¤¯": 6596,
      "à¥¬à¥¦à¥¦": 6597,
      "à¤īà¤¡à¤µ": 6598,
      "Ġà¤µà¤¸à¤Īà¤ļ": 6599,
      "Ġà¤ľà¤Ĺà¤¨à¤®": 6600,
      "à¤¤à¤¨à¤¶": 6601,
      "Ġà¤ķà¤ªà¤Ł": 6602,
      "à¤ıà¤¸à¤ıà¤«": 6603,
      "à¤¨à¤°à¤µà¤°": 6604,
      "Ġà¤Ńà¤°à¤Ĺà¤ļ": 6605,
      "Ġà¤Īà¤¥": 6606,
      "Ġ750": 6607,
      "Ġà¤ľà¤¬à¤¡": 6608,
      "Ġ106": 6609,
      "à¤¡à¤°à¤°": 6610,
      "Ġà¥§à¥«à¥«": 6611,
      "ĠSu": 6612,
      "ĠShar": 6613,
      "Ġ!!!": 6614,
      "à¤¯à¤£à¤Ĺ": 6615,
      "ĠAM": 6616,
      "Ġ256": 6617,
      "à¤¾!âĢĻ": 6618,
      "Ġà¤Ĳà¤ķà¤µà¤²": 6619,
      "Ġà¤ķà¤³à¤¸à¤ķà¤°": 6620,
      "Ġà¤ķà¤ªà¤¡à¥Ł": 6621,
      "Ġà¤ĭà¤Ĺ": 6622,
      "Ġà¤ľà¤¸à¤ľà¤¶": 6623,
      "Ġà¤ıà¤²à¤«": 6624,
      "Ġà¤įà¤²": 6625,
      "Ġmar": 6626,
      "urder": 6627,
      "Ġà¥¦à¥§": 6628,
      "ĠKolhapur": 6629,
      "ĠFD": 6630,
      "Ġà¤¶à¤ªà¤¥à¤ªà¤¤": 6631,
      "Ġà¤Ĺà¤µà¤Ī": 6632,
      "ote": 6633,
      "Ġà¤Ĺà¤ľà¤Ń": 6634,
      "avis": 6635,
      "ĠUIDAI": 6636,
      "à¤¾\",": 6637,
      "Ġ1993": 6638,
      "????": 6639,
      "ocal": 6640,
      "à¤¤à¤Ńà¤Ł": 6641,
      "Ġà¤µà¤ļà¤¨à¤¨": 6642,
      "ĠXUV": 6643,
      "Ġà¤ıà¤¨à¤Ĩà¤¯à¤ıà¤ļ": 6644,
      "PFO": 6645,
      "PCR": 6646,
      "ology": 6647,
      "ĠNagpur": 6648,
      "ĠPrevious": 6649,
      "74": 6650,
      "88": 6651,
      "93": 6652,
      "NE": 6653,
      "SA": 6654,
      "Sanjay": 6655,
      "ain": 6656,
      "hon": 6657,
      "hil": 6658,
      "ke": 6659,
      "rol": 6660,
      "uj": 6661,
      "à¥Ĩ": 6662,
      "à¥Ĭ": 6663,
      "à¥ķ": 6664,
      "à¤¾âĢĿ,": 6665,
      "à¥ĢâĢĵ": 6666,
      "à¤²à¤¬à¤¦": 6667,
      "à¤²à¤®à¤°": 6668,
      "à¤¨à¤°à¤¸": 6669,
      "à¤¨à¤¤à¤®": 6670,
      "à¤¨à¤ªà¤Ł": 6671,
      "à¤ķà¤¦à¤µ": 6672,
      "à¤ķà¤ªà¤Ł": 6673,
      "à¤µà¤ķà¤²": 6674,
      "à¤µà¤ļà¤²": 6675,
      "Ġà¤ķà¤Łà¤°": 6676,
      "à¤®à¤²à¤¤": 6677,
      "Ġà¤¸à¤¬à¤²": 6678,
      "Ġà¤®à¤ĸ": 6679,
      "à¤¾à¤Ĥ,": 6680,
      "à¤ªà¤Łà¤°": 6681,
      "à¤ªà¤²à¤¨": 6682,
      "à¤ªà¤¸à¤¹": 6683,
      "à¤¦à¤°à¤ķ": 6684,
      "Ġà¤ħà¤¡à¤¤": 6685,
      "Ġà¤ħà¤ļà¤²": 6686,
      "à¤ľà¤ĸ": 6687,
      "à¤ľà¤®à¤¨": 6688,
      "Ġà¤¹à¤®à¤¸": 6689,
      "Ġà¤¦à¤ļ": 6690,
      "Ġà¤¦à¤®à¤²": 6691,
      "à¤¬à¤¬": 6692,
      "à¤¬à¤°à¤µ": 6693,
      "à¤¬à¤°à¤¸": 6694,
      "Ġà¤°à¤®à¤¤": 6695,
      "Ġà¤°à¤£à¤¸": 6696,
      "Ġà¤¬à¤°à¤£": 6697,
      "Ġà¤¬à¤ĸà¤°": 6698,
      "Ġà¤ļà¤ķà¤¤": 6699,
      "à¤Ńà¤°à¤ķà¤°": 6700,
      "Ġà¤īà¤Ĺà¤²": 6701,
      "Ġà¤ıà¤²à¤¨": 6702,
      "Ġà¤ıà¤¨à¤ķ": 6703,
      "Ġà¤ĸà¤µà¤¯": 6704,
      "Ġà¤ıà¤ķà¤¸à¤®": 6705,
      "Ġà¤Ĩà¤²à¤®": 6706,
      "à¤°à¤£à¤Ĺ": 6707,
      "Ġà¤¤à¤°à¤¤à¤°": 6708,
      "à¤¹à¤£à¤¨": 6709,
      "à¤¹à¤£à¤ķà¤°": 6710,
      "à¤ĺà¤³à¤£": 6711,
      "Ġà¤ĩà¤¸à¤µ": 6712,
      "à¤ªà¤°à¤µà¤°": 6713,
      "Ġà¤§à¤£": 6714,
      "Ġà¤ħà¤¨à¤ĺ": 6715,
      "ĠâĢĶ": 6716,
      "à¤¯à¤®à¤¹": 6717,
      "à¤Ŀà¤Ĺ": 6718,
      "à¤Ŀà¤®à¤ļ": 6719,
      "à¤Ĺà¤²à¤ª": 6720,
      "à¤¬à¤°à¤¦à¤°à¤®": 6721,
      "à¤ľà¤¨à¤¤": 6722,
      "Ġà¤¸à¤°à¤ķà¤°": 6723,
      "à¥ĭ.)": 6724,
      "Ġ220": 6725,
      "à¤¶à¤¨à¤ªà¤°": 6726,
      "Ġà¤ķà¤®à¤µà¤£": 6727,
      "à¤ľà¤ªà¤ķ": 6728,
      "à¤®à¤¤à¤¹": 6729,
      "à¤ĩà¤ļ": 6730,
      "Ġà¤®à¤¤à¤ķà¤°": 6731,
      "à¤µà¤¨à¤¯": 6732,
      "à¤¯à¤¦à¤ķ": 6733,
      "à¤¯à¤¨à¤®à¤¸": 6734,
      "à¤ĵà¤¥": 6735,
      "à¤·à¤¯à¤¹": 6736,
      "à¤¬à¤²à¤®à¤§": 6737,
      "Ġà¤Ķà¤ķ": 6738,
      "Ġà¥§à¥¯à¥©à¥¦": 6739,
      "âĢ¦âĢĻ": 6740,
      "à¤ļà¤°à¤®à¤§": 6741,
      "Ġà¤Īà¤¤à¤ķ": 6742,
      "Ġà¥§à¥¦à¥©": 6743,
      "Ġà¥§à¥¦à¥Ń": 6744,
      "Ġà¤ªà¤Łà¤¸": 6745,
      "Ġà¤¶à¤¹à¤°à¤ª": 6746,
      "Ġ1947": 6747,
      "Ġà¥§à¥¨à¥©": 6748,
      "Ġà¥§à¥¨à¥¯": 6749,
      "Ġ156": 6750,
      "Ġ123": 6751,
      "ĠMal": 6752,
      "ĠMedia": 6753,
      "Ġ!\"": 6754,
      "ĠCR": 6755,
      "ĠCovid": 6756,
      "Ġ112": 6757,
      "Ġ116": 6758,
      "Ġ119": 6759,
      "à¤ıà¤¨à¤ıà¤ļ": 6760,
      "à¤ªà¤¡à¥Ł": 6761,
      "à¤¼à¥Ģ": 6762,
      "Ġà¤¤à¤³à¤¹": 6763,
      "Ġà¥§à¥Ńà¥¦": 6764,
      "Ġ162": 6765,
      "Ġà¤ªà¤³à¤¸": 6766,
      "Ġà¤¸à¤£à¤¸à¤£": 6767,
      "Ġà¤§à¤¡à¤§": 6768,
      "à¤¬à¤Łà¤¯": 6769,
      "Ġà¥¨à¥®à¥®": 6770,
      "Ġ260": 6771,
      "Ġà¤¦à¤¶à¤ķà¤Ńà¤°": 6772,
      "ĠLe": 6773,
      "ĠReal": 6774,
      "à¤¨à¤Īà¤®à¤§": 6775,
      "Ġà¤Ĺà¤²à¤¥": 6776,
      "ace": 6777,
      "Ġà¤¸à¤¬à¤ķ": 6778,
      "Ġà¥©à¥¬à¥¦": 6779,
      "Ġà¥§à¥§à¥Ń": 6780,
      "à¤¤à¤¶à¤¤": 6781,
      "ctor": 6782,
      "ĠOne": 6783,
      "ivo": 6784,
      "à¥ĩ\",": 6785,
      "ign": 6786,
      "Ġà¤¢à¤µà¤³à¤¤": 6787,
      "à¤²à¤¢à¤ķà¤²": 6788,
      "à¤²à¤ĺà¤°à¤ļ": 6789,
      "udget": 6790,
      "Ġà¤²à¤ĸà¤¨à¤Ĭà¤®à¤§": 6791,
      "================================================================": 6792,
      "ĠAnd": 6793,
      "Ġà¤µà¤°à¤£à¤Ĺ": 6794,
      "à¤®à¤¸à¤®à¤°": 6795,
      "ĠCCTV": 6796,
      "\")": 6797,
      "87": 6798,
      "AC": 6799,
      "Dev": 6800,
      "NS": 6801,
      "ection": 6802,
      "oj": 6803,
      "oor": 6804,
      "Ġ++++++++++++++++++++++++++++++++": 6805,
      "Ġapp": 6806,
      "Ġà¤£": 6807,
      "à¥įà¤¼": 6808,
      "à¥ĩà¥į": 6809,
      "à¤¯à¤ªà¤¨": 6810,
      "à¤²à¤µà¤¸": 6811,
      "à¤²à¤ľà¤µà¤³": 6812,
      "à¤ļà¤§": 6813,
      "à¥ĭâĢĿ": 6814,
      "à¥ĭâĢĻ,": 6815,
      "à¤®à¤¸à¤°": 6816,
      "à¤®à¤Ńà¤°": 6817,
      "Ġà¤¸à¤Ĺ": 6818,
      "Ġà¤¸à¤¡à¤ª": 6819,
      "Ġà¤ªà¤ļà¤µà¤£": 6820,
      "à¥Ĥ\"": 6821,
      "à¤Ĺà¤ªà¤°": 6822,
      "à¤Ĺà¤®à¤°": 6823,
      "à¤Łà¤®à¤ļ": 6824,
      "à¤Łà¤°à¤¸à¤¹": 6825,
      "Ġà¤µà¤¦": 6826,
      "Ġà¤µà¤²à¤¯": 6827,
      "à¤§à¤Ł": 6828,
      "à¤§à¤¬": 6829,
      "Ġà¤¨à¤®à¤¨": 6830,
      "Ġà¤¨à¤Ĺà¤¦": 6831,
      "Ġà¤¦à¤¬à¤²": 6832,
      "à¤·à¤ķà¤°": 6833,
      "à¤·à¤±": 6834,
      "Ġà¤ľà¤³à¤²": 6835,
      "Ġà¤°à¤¨à¤µà¤°": 6836,
      "Ġà¤°à¤Īà¤¸": 6837,
      "Ġà¤ħà¤¸à¤¶": 6838,
      "Ġà¤ħà¤¸à¤®à¤¤": 6839,
      "à¤łà¤®à¤²": 6840,
      "Ġà¤īà¤Ŀà¤¬": 6841,
      "à¤Īà¤Ĺà¤¡": 6842,
      "Ġà¤ıà¤ķà¤ķ": 6843,
      "Ġà¤Ĩà¤²à¤¬": 6844,
      "à¤ĺà¤Ĺà¤°": 6845,
      "à¥Ī-": 6846,
      "à¥Ī:": 6847,
      "à¤ķà¤°à¤µà¤°": 6848,
      "à¤«à¤Ł": 6849,
      "Ġà¤¡à¤¸": 6850,
      "à¥¦à¥©": 6851,
      "Ġà¤§à¤°à¤ª": 6852,
      "Ġà¤§à¤Ĺà¤§": 6853,
      "à¤µà¤£à¤ķ": 6854,
      "à¤¯à¤®à¤¶": 6855,
      "à¤Ŀà¤°à¤®à¤§": 6856,
      "à¤Ĺà¤²à¤µ": 6857,
      "à¤Ĺà¤²à¤Ł": 6858,
      "à¤¦à¤°à¤°": 6859,
      "à¤·à¤£à¤ķà¤°": 6860,
      "à¤ıà¤¬à¤²": 6861,
      "à¤ľà¤¨à¤µ": 6862,
      "à¤ħà¤Ł": 6863,
      "à¤¶à¤¨à¤ķà¤¡": 6864,
      "à¤¶à¤¨à¤ľà¤µà¤³": 6865,
      "à¤Ĥ.'": 6866,
      "à¤Ĥ.âĢĿ": 6867,
      "à¤Ĩà¤Ĭ": 6868,
      "à¤Ĩà¤°à¤µ": 6869,
      "à¤Łà¤°à¤¨à¤²": 6870,
      "à¤µà¤³à¤ķà¤°": 6871,
      "à¤µà¤³à¤¸à¤°": 6872,
      "à¤Īà¤²à¤²": 6873,
      "Ġà¤Ĩà¤¯à¤¨": 6874,
      "Ġà¤ĵà¤ıà¤¨à¤ľ": 6875,
      "à¤®à¤¤à¤¦": 6876,
      "à¤ĩà¤¡à¤ļ": 6877,
      "à¤¸à¤¹à¤ķ": 6878,
      "Ġà¤ħà¤®à¤²à¤¬à¤ľ": 6879,
      "Ġà¥¨à¥¦à¥¨à¥ª": 6880,
      "à¤ľà¤¯à¤¶": 6881,
      "à¤ľà¤¯à¤µà¤°": 6882,
      "à¤ĵà¤°": 6883,
      "Ġ4000": 6884,
      "Ġà¤Ĳà¤ļ": 6885,
      "Ġà¤ĳà¤«à¤°à¤ļ": 6886,
      "à¤ķà¤Łà¤µ": 6887,
      "à¤µà¤°à¤£à¤®": 6888,
      "à¤ıà¤®à¤Ĩà¤°à¤¨": 6889,
      "à¤¿.,": 6890,
      "Ġà¤Ĩà¤Īà¤µà¤°": 6891,
      "à¤ĩà¤¨à¤µà¤°": 6892,
      "Ġà¤¨à¤¸à¤¬": 6893,
      "Ġà¤¢à¤®": 6894,
      "Ġ1950": 6895,
      "Ġà¥§à¥¨à¥¬": 6896,
      "à¥¨à¥¦à¥§à¥§": 6897,
      "atus": 6898,
      "Ġà¤ķà¤¡à¤¬": 6899,
      "Ġ124": 6900,
      "ĠMH": 6901,
      "ĠCB": 6902,
      ".......": 6903,
      "Ġ115": 6904,
      "à¥Ģ'.": 6905,
      "à¤¾!!": 6906,
      "Ġà¥§à¥Ńà¥«": 6907,
      "à¤ķà¤®à¤§à¤²": 6908,
      "Ġ132": 6909,
      "à¤ıà¤ļà¤ĵ": 6910,
      "ĠBy": 6911,
      "Ġà¤ªà¤²à¤Łà¤£": 6912,
      "ĠTH": 6913,
      "ases": 6914,
      "ise": 6915,
      "à¤ĸà¤¡à¥Ł": 6916,
      "à¤³à¤¸à¤ķà¤°": 6917,
      "Ġà¤¨à¤Ĭà¤ļ": 6918,
      "à¤¾âĢ¦.": 6919,
      "Ġsp": 6920,
      "ilway": 6921,
      "Ġpol": 6922,
      "à¤¯à¤¨à¤²à¤ļ": 6923,
      "Ġbe": 6924,
      "à¤¾\".": 6925,
      "umar": 6926,
      "Ġ1996": 6927,
      "hane": 6928,
      "igg": 6929,
      "++++++++++++++++++++": 6930,
      "tern": 6931,
      "Ġà¤ıà¤¨à¤Ĩà¤¯à¤ıà¤¨": 6932,
      "++++++++++++++++++++++++++++++++++++++++++++++++++++": 6933,
      "Ġà¤«à¤¡à¤ķà¤²": 6934,
      "accination": 6935,
      "Ġà¤®à¤¦à¤°à¤¶": 6936,
      "Ġà¤ıà¤ıà¤¨à¤Ĩà¤¯": 6937,
      "à¤ıà¤¸à¤ıà¤¨à¤ıà¤²à¤ļ": 6938,
      "Ġà¤Ķà¤·à¤§à¤¨": 6939,
      "gaon": 6940,
      "ĠNarendra": 6941,
      "hindra": 6942,
      "adnavis": 6943,
      "Ġ++++++++++++++++++++++++++++++++++++++++++++++++++++++++++++++++++++++++++++++++++++": 6944,
      "Ġà¤§à¤°à¤ªà¤ķà¤¡": 6945,
      ".-": 6946,
      "61": 6947,
      "72": 6948,
      "700": 6949,
      "Ad": 6950,
      "BS": 6951,
      "Read": 6952,
      "Ta": 6953,
      "Too": 6954,
      "WHO": 6955,
      "view": 6956,
      "yl": 6957,
      "yst": 6958,
      "Ġam": 6959,
      "à¤¾à¥į": 6960,
      "à¤°à¤Ĩ": 6961,
      "à¤¤à¤§": 6962,
      "à¤¯à¤ĸ": 6963,
      "à¤¯à¤¸à¤®": 6964,
      "à¤¿à¥ĩ": 6965,
      "à¤¨à¤°à¤ĸ": 6966,
      "à¤ķà¤¤à¤°": 6967,
      "à¤ķà¤¨à¤Ĺà¤°": 6968,
      "à¤¹à¤Łà¤ķà¤°": 6969,
      "à¤£à¤ķà¤¡": 6970,
      "à¥Ĥ..": 6971,
      "à¤Łà¤ĺà¤°": 6972,
      "Ġà¤µà¤°à¤ķà¤°à¤£": 6973,
      "Ġà¤¹à¤°à¤¸": 6974,
      "Ġà¤¹à¤Łà¤£": 6975,
      "Ġà¤¨à¤ļ": 6976,
      "Ġà¤¨à¤°à¤µà¤£": 6977,
      "Ġà¤°à¤®à¤¨": 6978,
      "Ġà¤¬à¤³à¤µ": 6979,
      "à¤¥à¤¬": 6980,
      "Ġà¤ıà¤¡à¤µà¤°": 6981,
      "âĢķ": 6982,
      "Ġà¤ĸà¤µà¤³à¤²": 6983,
      "Ġà¤ıà¤ķà¤Łà¥Ł": 6984,
      "Ġà¤®à¤¹à¤²": 6985,
      "Ġà¤Łà¤µ": 6986,
      "à¤¯à¤ķà¤²à¤¸": 6987,
      "Ġà¤ªà¤°à¤ľ": 6988,
      "Ġà¤ªà¤°à¤®à¤µ": 6989,
      "à¤°à¤®à¤Ĺà¤¡": 6990,
      "à¤«à¤¡à¤£à¤µ": 6991,
      "à¤ªà¤°à¤ĸ": 6992,
      "à¤µà¤²à¤ļ": 6993,
      "Ġà¤ħà¤¶à¤°à¤«": 6994,
      "Ġ(\"": 6995,
      "Ġ()": 6996,
      "à¤Ŀà¤²à¤ĸ": 6997,
      "Ġà¤īà¤ªà¤ħà¤Ń": 6998,
      "à¤·à¤£à¤ª": 6999,
      "à¤¸à¤°à¤³": 7000,
      "à¤ıà¤²à¤¬": 7001,
      "à¤ħà¤¯": 7002,
      "à¤¶à¤¨à¤¤à¤°": 7003,
      "à¤¶à¤¨à¤¸à¤¹": 7004,
      "à¤ªà¤¨à¤²": 7005,
      "à¤Ĩà¤¦à¤°": 7006,
      "à¤¤à¤ķà¤¥": 7007,
      "à¤Łà¤°à¤¡": 7008,
      "à¤¹à¤°à¤µà¤°": 7009,
      "Ġà¤ķà¤®à¤µà¤¤": 7010,
      "à¤²à¤ķà¤ļ": 7011,
      "à¤®à¤¨à¤µà¤®": 7012,
      "Ġà¤®à¤¨à¤°": 7013,
      "Ġà¤®à¤¨à¤¦": 7014,
      "à¤ĩà¤ªà¤²": 7015,
      "à¤°à¤ľà¤²": 7016,
      "Ġà¤ħà¤®à¤°à¤¸": 7017,
      "Ġà¤ľà¤¨à¤¸à¤®": 7018,
      "Ġà¤ħà¤ªà¤Ĺ": 7019,
      "à¤ĵà¤³à¤ĸ": 7020,
      "Ġà¤¸à¤ķà¤ª": 7021,
      "à¤¤à¤ªà¤Ł": 7022,
      "à¤°à¤¹à¤¸": 7023,
      "Ġà¤ıà¤®à¤ıà¤ıà¤ļ": 7024,
      "à¤Ĩà¤¯à¤Ĩà¤¯": 7025,
      "Ġà¤Ńà¤°à¤¡": 7026,
      "Ġà¤Ńà¤°à¤°à¤¸": 7027,
      "à¤łà¤²à¤°": 7028,
      "à¥Ģ)-": 7029,
      "Ġà¤Ĩà¤Īà¤¶": 7030,
      "à¤®à¤²à¤·": 7031,
      "Ġà¤¸à¤ļà¤¦": 7032,
      "à¤°à¤¯à¤·": 7033,
      "Ġà¤¦à¤²à¤¦à¤²": 7034,
      "Ġà¥§à¥«à¥ª": 7035,
      "ons": 7036,
      "Ġà¥§à¥¨à¥§": 7037,
      "à¥¨à¥¦à¥§à¥¯": 7038,
      "à¥¨à¥¦à¥§à¥¬": 7039,
      "Ġ??": 7040,
      "Ġà¤īà¤¤à¤°à¤µà¤¤": 7041,
      "Ġà¤ľà¤¯à¤µà¤°": 7042,
      "ĠMC": 7043,
      "à¤°à¤¡à¥Ł": 7044,
      "ĠPar": 7045,
      "ĠPay": 7046,
      "ĠCourt": 7047,
      "à¤ıà¤«à¤ıà¤¸": 7048,
      "ĠAt": 7049,
      "Ġà¥§à¥¬à¥¨": 7050,
      "Ġà¥§à¥©à¥Ń": 7051,
      "à¤¬à¤¡à¥Ł": 7052,
      "Ġà¤µà¤ľà¤¨à¤¦": 7053,
      "à¤¨à¤¶à¤°": 7054,
      "ĠBMC": 7055,
      "Ġ210": 7056,
      "Ġà¥¨à¥§à¥¦": 7057,
      "Ġà¤ľà¤²à¤¸à¤®": 7058,
      "Ġà¥¨à¥Ńà¥¦": 7059,
      "unt": 7060,
      "ions": 7061,
      "Ġmin": 7062,
      "ĠRec": 7063,
      "Ġà¤§à¤¡à¤ķà¤£": 7064,
      "Ġ288": 7065,
      "Ġcl": 7066,
      "ama": 7067,
      "ame": 7068,
      "ĠFor": 7069,
      "hip": 7070,
      "reat": 7071,
      "Ġà¥§à¥¯à¥¬à¥§": 7072,
      "Ġfl": 7073,
      "Ġâĸ": 7074,
      "Ġà¤ļà¤®à¤ķà¤£": 7075,
      "igh": 7076,
      "Ġà¤Ńà¤¡à¤ķà¤µà¤£": 7077,
      "angana": 7078,
      "Ġà¤ķà¤¡à¤µà¤Ł": 7079,
      "Ġà¤Ĩà¤īà¤Łà¤²": 7080,
      "ube": 7081,
      "à¤įà¤²": 7082,
      "Ġà¤Ŀà¤Ĺà¤¡à¤¤": 7083,
      "ĠApple": 7084,
      "Ġà¤ıà¤¨à¤Ĩà¤¯à¤ıà¤ķà¤¡": 7085,
      "à¤ħà¤¹à¤®à¤¦": 7086,
      "Ġà¤§à¤¨à¤ķà¤µà¤¡": 7087,
      "MeToo": 7088,
      "%,": 7089,
      "600": 7090,
      "79": 7091,
      "94": 7092,
      "AM": 7093,
      "Am": 7094,
      "Amit": 7095,
      "CM": 7096,
      "EE": 7097,
      "Phone": 7098,
      "eat": 7099,
      "gh": 7100,
      "hul": 7101,
      "ool": 7102,
      "ron": 7103,
      "zw": 7104,
      "ÃĹ": 7105,
      "àµ": 7106,
      "Ġ<": 7107,
      "Ġ\\": 7108,
      "Ġad": 7109,
      "Ġex": 7110,
      "Ġher": 7111,
      "à¤¾à¥Ģ": 7112,
      "à¥į/": 7113,
      "à¤°à¤Łà¥Ł": 7114,
      "à¤¯à¤¤à¤°": 7115,
      "à¤¯à¤¸à¤²": 7116,
      "à¤²à¤¡à¤¬": 7117,
      "à¤¨à¤¸à¤ļ": 7118,
      "à¤ĤâĢĿ": 7119,
      "à¤¸à¤®à¤ķ": 7120,
      "à¤¸à¤µà¤°à¤ļ": 7121,
      "à¤¸à¤ªà¤ļ": 7122,
      "à¤¸à¤į": 7123,
      "à¤£à¤ķà¤Ł": 7124,
      "Ġà¤ķà¤¨à¤ķ": 7125,
      "Ġà¤Ĩà¤ľà¤¨": 7126,
      "Ġà¤Ĩà¤¸à¤µ": 7127,
      "Ġà¤Ĩà¤¡à¤Ĺ": 7128,
      "à¤®à¤¹à¤°": 7129,
      "à¤®à¤²à¤²": 7130,
      "Ġà¤¸à¤°à¤µ": 7131,
      "Ġà¤¸à¤¡à¤²": 7132,
      "Ġà¤®à¤«": 7133,
      "Ġà¤®à¤³à¤²": 7134,
      "à¤ªà¤ĸ": 7135,
      "à¤ªà¤®à¤¤": 7136,
      "à¤¦à¤µà¤ļ": 7137,
      "Ġà¤ħà¤Ĺà¤£": 7138,
      "à¤Ĺà¤°à¤¸": 7139,
      "à¤Ĺà¤®à¤ª": 7140,
      "Ġà¤µà¤°à¤µ": 7141,
      "à¤ľà¤¯à¤²": 7142,
      "à¤ľà¤ķà¤²": 7143,
      "à¤§à¤Ń": 7144,
      "Ġà¤¦à¤ĸ": 7145,
      "Ġà¤¦à¤¡à¤µ": 7146,
      "à¤¶à¤ķà¤¡": 7147,
      "à¤¶à¤¸à¤¹": 7148,
      "à¤¶à¤²à¤ļ": 7149,
      "à¤·à¤²à¤Ĺ": 7150,
      "à¤¬à¤ĺ": 7151,
      "Ġà¤ķà¤°à¤¶": 7152,
      "Ġà¤ħà¤¸à¤¨": 7153,
      "Ġà¤²à¤ĸà¤²": 7154,
      "Ġà¤Ńà¤µà¤¤": 7155,
      "Ġà¤ļà¤ķà¤ļà¤ķ": 7156,
      "Ġà¤ıà¤®à¤ķ": 7157,
      "Ġà¤ıà¤ļà¤ª": 7158,
      "à¤Īà¤¯": 7159,
      "à¤Īà¤¨à¤²": 7160,
      "à¤Īà¤ķà¤¸": 7161,
      "Ġà¤ĸà¤°à¤®à¤°": 7162,
      "Ġà¤Łà¤®": 7163,
      "à¤¹à¤£à¤µà¤£": 7164,
      "à¥ĥ.": 7165,
      "à¤µà¤¸à¤ļ": 7166,
      "à¤«à¤°à¤ļ": 7167,
      "à¤«à¤°à¤²": 7168,
      "Ġà¤¡à¥Ł": 7169,
      "Ġà¤¸à¤°à¤¹à¤¦": 7170,
      "Ġà¤µà¤°à¤µà¤°à¤ļ": 7171,
      "à¤Ĺà¤²à¤²": 7172,
      "à¤¦à¤°à¤¬": 7173,
      "à¥ĭ.âĢĻâĢĻ": 7174,
      "Ġà¤Ĩà¤ľà¤°": 7175,
      "à¤ħà¤ªà¤°": 7176,
      "à¤¯à¤²à¤¢": 7177,
      "à¤Ĺà¤³à¤¤": 7178,
      "à¤¸à¤¨à¤ķà¤°": 7179,
      "Ġà¤¸à¤¹à¤ķà¤²": 7180,
      "à¤²à¤ķà¤¹": 7181,
      "Ġà¤īà¤¦à¤¯à¤¨": 7182,
      "Ġà¤¹à¤ľà¤°à¤¤": 7183,
      "à¤²à¤¨à¤¸": 7184,
      "Ġà¤ĵà¤°à¤ĸ": 7185,
      "Ġà¤®à¤¨à¤ľ": 7186,
      "Ġà¤ªà¤¦à¤¸": 7187,
      "à¤ĩà¤ķà¤ļ": 7188,
      "Ġà¤ľà¤¨à¤§à¤¨": 7189,
      "à¤¹à¤¨à¤¨": 7190,
      "Ġà¥©à¥¨à¥¦": 7191,
      "Ġà¤Ĩà¤¦à¤³": 7192,
      "Ġà¤¸à¤§à¤¨": 7193,
      "à¤ħà¤°à¤¡": 7194,
      "Ġà¤°à¤¸à¤Ĺ": 7195,
      "Ġà¤ľà¤®à¤¦à¤Ĺ": 7196,
      "à¥¯à¥¦à¥¦": 7197,
      "Ġà¤¬à¤¸à¤Ĺ": 7198,
      "Ġà¤ħà¤µà¤¹": 7199,
      "à¤³à¤µà¤Ł": 7200,
      "à¤Ĺà¤µà¤Ł": 7201,
      "Ġà¤¯à¤¶à¤°": 7202,
      "à¤ıà¤¸à¤¯": 7203,
      "à¤Ńà¤µà¤¹": 7204,
      "Ġà¤ıà¤ķà¤¦à¤®à¤ļ": 7205,
      "Ġà¤īà¤²à¤Łà¤¤": 7206,
      "Ġ6000": 7207,
      "Ġ650": 7208,
      "Ġà¤ıà¤¸à¤Īà¤¬": 7209,
      "à¤ıà¤®à¤Ĩà¤°à¤ļ": 7210,
      "Ġà¤ĩà¤¨à¤¬": 7211,
      "Ġà¤ªà¤¡à¤µà¤³": 7212,
      "Ġà¥§à¥¨à¥ª": 7213,
      "orn": 7214,
      "ĠMan": 7215,
      "ĠMar": 7216,
      "ĠMand": 7217,
      "ĠSMS": 7218,
      "à¤¯à¤£à¤¨": 7219,
      "ĠPl": 7220,
      "ĠCard": 7221,
      "ĠRane": 7222,
      "Ġà¥¨à¥«à¥¬": 7223,
      "Ġ118": 7224,
      "Ġà¥§à¥ªà¥¦à¥¦": 7225,
      "à¤ıà¤¨à¤Ĩà¤¯à¤ı": 7226,
      "Ġà¤°à¤£à¤¶": 7227,
      "Ġà¤«à¤³à¤Ŀ": 7228,
      "ĠAg": 7229,
      "à¤·à¤®à¤ªà¤£": 7230,
      "à¤Łà¥Łà¤ª": 7231,
      "raj": 7232,
      "rak": 7233,
      "ĠVi": 7234,
      "ĠVivo": 7235,
      "Ġà¤ķà¤³à¤¤à¤ļ": 7236,
      "à¤ĳà¤Ł": 7237,
      "à¤°à¤Łà¤¯": 7238,
      "ushant": 7239,
      "ĠDe": 7240,
      "Ġà¤¬à¤¡à¥Ł": 7241,
      "ĠLPG": 7242,
      "à¥Ģ:-": 7243,
      "Ġà¥¦à¥©": 7244,
      "Ġà¤¸à¤«à¤¦à¤°": 7245,
      "ĠGST": 7246,
      "ĠGovernment": 7247,
      "Ġà¥§à¥¯à¥®à¥§": 7248,
      "Ġà¥©à¥«à¥ª": 7249,
      "harat": 7250,
      "à¤¹à¤ļà¤µà¤²": 7251,
      "Ġà¥§à¥¯à¥¬à¥ª": 7252,
      "Ġà¥§à¥¯à¥¬à¥Ń": 7253,
      "Ġà¤ĸà¤¡à¤ķà¤ª": 7254,
      "ĠOf": 7255,
      "ĠâĹ": 7256,
      "Ġà¤¨à¤µà¤²à¤ĸ": 7257,
      "Ġde": 7258,
      "Ġà¥§à¥¯à¥«à¥¨": 7259,
      "Ġà¥§à¥¯à¥«à¥¯": 7260,
      "chn": 7261,
      "Ġ1985": 7262,
      "Ġoff": 7263,
      "Ġ......": 7264,
      "Ġà¤ħà¤¸à¤¹à¤®à¤¤": 7265,
      "ope": 7266,
      "Ġres": 7267,
      "Ġà¤¬à¤°à¤¸à¤£": 7268,
      "ĠMahindra": 7269,
      "Ġà¤¨à¤¯à¤¨à¤°à¤®": 7270,
      "à¤Ķà¤·à¤§": 7271,
      "obile": 7272,
      "Ġà¤ĸà¤Łà¤ķà¤¤": 7273,
      "Ġ-------------------------": 7274,
      "Ġà¤¤à¤¡à¤«à¤¡": 7275,
      "à¤ıà¤¸à¤ıà¤²à¤µ": 7276,
      "ontin": 7277,
      "à¤ıà¤¸à¤ıà¤¨à¤ıà¤²": 7278,
      "à¤°à¤Ĺà¤³à¤²": 7279,
      "ĠMinister": 7280,
      "ĠShah": 7281,
      "Ġà¤Ĩà¤°à¤ıà¤¸à¤ıà¤¸à¤ļ": 7282,
      "PEC": 7283,
      "à¤Īà¤Ĺà¤¡à¤¬à¤¡": 7284,
      "Ġà¤§à¤Ĺà¤§à¤Ĺà¤¤": 7285,
      ".''": 7286,
      "91": 7287,
      "AD": 7288,
      "CS": 7289,
      "New": 7290,
      "OT": 7291,
      "PR": 7292,
      "RBI": 7293,
      "Sa": 7294,
      "Social": 7295,
      "ail": 7296,
      "ahe": 7297,
      "day": 7298,
      "ka": 7299,
      "mart": 7300,
      "nath": 7301,
      "sena": 7302,
      "ty": 7303,
      "wad": 7304,
      "wali": 7305,
      "yan": 7306,
      "ÂĴ": 7307,
      "Ġan": 7308,
      "Ġun": 7309,
      "à¤©": 7310,
      "Ġà¤¾": 7311,
      "à¤¾à¥ĩà¤Ĥ": 7312,
      "à¤¾âĢĮ": 7313,
      "à¥į&": 7314,
      "à¤°à¤¡à¤£": 7315,
      "à¤°à¤Ĭà¤°": 7316,
      "à¥Ģ+": 7317,
      "à¤¤à¤¥": 7318,
      "à¤¤à¤ĺ": 7319,
      "à¤²à¤°à¤¤": 7320,
      "à¤¿âĢ¦": 7321,
      "à¤¨à¤¦à¤°à¤®": 7322,
      "à¤ļà¤®à¤¨": 7323,
      "à¤£à¥Ł": 7324,
      "Ġà¤ķà¤Łà¤²": 7325,
      "à¥ģ)": 7326,
      "Ġà¤ªà¤¢": 7327,
      "Ġà¤ªà¤¡à¤µ": 7328,
      "à¤ªà¤¸à¤²": 7329,
      "à¤ªà¤¬à¤¦": 7330,
      "à¤¦à¤³à¤µ": 7331,
      "Ġà¤¤à¤¸à¤²": 7332,
      "Ġà¤ħà¤¦à¤°": 7333,
      "à¤Ĺà¤ĸ": 7334,
      "à¤Łà¤¦à¤°": 7335,
      "à¤Łà¤®à¤¸": 7336,
      "à¤¡à¤ªà¤°": 7337,
      "à¤¡à¤Ŀ": 7338,
      "à¤¡à¤µà¤³": 7339,
      "à¤¡à¤µà¤°à¤ļ": 7340,
      "à¤¡à¤¨à¤¨": 7341,
      "à¤ľà¤¸à¤¤": 7342,
      "à¤ľà¤¬à¤¦": 7343,
      "Ġà¤¹à¤¸à¤°": 7344,
      "Ġà¤¹à¤°à¤¹": 7345,
      "Ġà¤¨à¤°à¤µ": 7346,
      "Ġà¤¨à¤°à¤Ńà¤ķ": 7347,
      "à¤³à¤Ĺà¤¡": 7348,
      "à¤¬à¤®à¤¨": 7349,
      "Ġà¤ľà¤¹à¤°": 7350,
      "Ġà¤ľà¤¸à¤µ": 7351,
      "à¤łà¤¬": 7352,
      "Ġà¤Ĺà¤Ŀ": 7353,
      "Ġà¤Ĺà¤Ĺà¤¨à¤ļ": 7354,
      "Ġà¤²à¤ķà¤¡": 7355,
      "à¤ĸà¤°à¤²": 7356,
      "Ġà¤Ńà¤°à¤µà¤¤": 7357,
      "Ġà¤Ńà¤°à¤Ńà¤ķ": 7358,
      "Ġà¤ĺà¤³": 7359,
      "Ġà¤ĺà¤°à¤¤": 7360,
      "à¤Ńà¤¹": 7361,
      "Ġà¤ıà¤¡à¤®": 7362,
      "à¤°à¤ķà¤ª": 7363,
      "à¤Īà¤Ĺ": 7364,
      "Ġà¤«à¤£": 7365,
      "à¤¢à¤¹": 7366,
      "Ġà¤Łà¤ķà¤²": 7367,
      "Ġà¤Łà¤°à¤¬": 7368,
      "à¤¯à¤ķà¤°à¤£": 7369,
      "à¤ĺà¤µà¤¨": 7370,
      "Ġà¤ĩà¤¨à¤¸": 7371,
      "à¤°à¤®à¤¯": 7372,
      "à¤Ĭà¤ªà¤£": 7373,
      "Ġà¤µà¤°à¤ª": 7374,
      "Ġà¤¨à¤µà¤®": 7375,
      "à¤·à¤£à¤¤à¤ľ": 7376,
      "Ġà¤Ĩà¤ľà¤ĺà¤¡": 7377,
      "à¤¬à¤Īà¤¬": 7378,
      "à¤°à¤ªà¤ļ": 7379,
      "à¤ħà¤¨à¤²": 7380,
      "à¤¶à¤¨à¤¬": 7381,
      "à¤¶à¤¨à¤ªà¤¤": 7382,
      "à¤ķà¤²à¤¶": 7383,
      "Ġà¤Ĩà¤¯à¤ĵà¤ıà¤¸": 7384,
      "à¤Ĺà¤³à¥Ł": 7385,
      "Ġà¤¥à¤°à¤ķ": 7386,
      "Ġà¤¸à¤¹à¤¦": 7387,
      "Ġà¤¸à¤¹à¤¨à¤¶": 7388,
      "Ġà¤ĵà¤®à¤ķ": 7389,
      "Ġà¤Ĩà¤µà¤Ł": 7390,
      "Ġà¤ªà¤¦à¤ļ": 7391,
      "à¤ĩà¤¨à¤¸": 7392,
      "Ġà¤ħà¤®à¤ľà¤¦": 7393,
      "à¤Ľà¤°": 7394,
      "à¤°à¤ªà¤Łà¤¹": 7395,
      "Ġà¤ħà¤ľà¤¯à¤ļ": 7396,
      "Ġà¤ħà¤ľà¤¹à¤°": 7397,
      "à¤ļà¤²à¤ļ": 7398,
      "à¤²à¤¬à¤¨": 7399,
      "à¤²à¤¬à¤¹": 7400,
      "Ġà¤¸à¤ķà¤Ł": 7401,
      "Ġà¤ľà¤®à¤µà¤£": 7402,
      "à¤¸à¤®à¤°": 7403,
      "à¤Łà¤ļà¤ķ": 7404,
      "Ġ,\"": 7405,
      "à¤Ĩà¤¯à¤Ĩà¤¯à¤Ł": 7406,
      "à¤¨à¤Ĺà¤°à¤¸": 7407,
      "Ġà¤Īà¤ķ": 7408,
      "Ġà¤Īà¤ļ": 7409,
      "Ġà¥¯à¥¯à¥¯": 7410,
      "Ġ107": 7411,
      "Ġà¤ĩà¤¨à¤ª": 7412,
      "Ġà¤ĩà¤¨à¤«": 7413,
      "Ġà¤ªà¤¡à¤ĺ": 7414,
      "Ġà¤ıà¤µà¤¢à¤¯": 7415,
      "à¤Ĩà¤°à¤ıà¤ļ": 7416,
      "Ġ193": 7417,
      "Ġà¤ıà¤¨à¤ıà¤®": 7418,
      "à¤Łà¤¸à¤ħ": 7419,
      "à¤ıà¤²à¤ª": 7420,
      "ĠSup": 7421,
      "ĠPand": 7422,
      "ĠRana": 7423,
      "Ġ111": 7424,
      "Ġ114": 7425,
      "Ġà¥§à¥ªà¥¯": 7426,
      "Ġà¥§à¥ªà¥¬": 7427,
      "Ġ145": 7428,
      "à¤¯à¤°à¤¸à¤µà¤°": 7429,
      "Ġ).": 7430,
      "à¥Ģ?'": 7431,
      "Ġà¤īà¤ļà¤²à¤¬": 7432,
      "Ġà¤ķà¤³à¤µà¤¤": 7433,
      "ĠIPO": 7434,
      "Ġà¤ĸà¤¡à¤ĸà¤¡": 7435,
      "Ġà¤ĭà¤ļ": 7436,
      "Ġ167": 7437,
      "ĠNRC": 7438,
      "ĠBJP": 7439,
      "icide": 7440,
      "Ġà¥¨à¥¨à¥«": 7441,
      "à¤¾..âĢĻ": 7442,
      "Ġà¤ļà¤¹à¤²à¤¨": 7443,
      "Ġà¤įà¤Ĺ": 7444,
      "Ġà¤įà¤²à¤°": 7445,
      "Ġ224": 7446,
      "isha": 7447,
      "Ġà¥²à¤£": 7448,
      "use": 7449,
      "ĠDig": 7450,
      "Ġà¥¨à¥©à¥¦": 7451,
      "oli": 7452,
      "ĠRed": 7453,
      "à¤Ĥ?,": 7454,
      "Ġà¤īà¤§à¤³à¤¤": 7455,
      "ĠHer": 7456,
      "ĠHigh": 7457,
      "Ġcon": 7458,
      "Ġà¤ļà¤¢à¤µà¤¤": 7459,
      "etrol": 7460,
      "Ġà¤¬à¤ķà¤±": 7461,
      "riv": 7462,
      "ĠUS": 7463,
      "Ġà¥§à¥¯à¥ªà¥¬": 7464,
      "ĠÂĳ": 7465,
      "ape": 7466,
      "Ġvideo": 7467,
      "Ġwith": 7468,
      "able": 7469,
      "Ġà¤«à¤¡à¤ķà¤µ": 7470,
      "Ġà¤¨à¤Łà¤¸à¤®": 7471,
      "Ġhttp": 7472,
      "liance": 7473,
      "Ġà¤¬à¤°à¤¸à¤¤": 7474,
      "à¤³à¤ķà¤¤à¤ķà¤°": 7475,
      "hina": 7476,
      "ruit": 7477,
      "Ġread": 7478,
      "Ġà¤Ĺà¤ľà¤¬à¤ľ": 7479,
      "____": 7480,
      "ukh": 7481,
      "ĠExp": 7482,
      "ĠUpdates": 7483,
      "Ġà¤«à¤°à¤«à¤Ł": 7484,
      "ebook": 7485,
      "ission": 7486,
      "****************": 7487,
      "ĠMotor": 7488,
      "DRF": 7489,
      "Ġà¤¥à¤°à¤¥à¤°à¤¤": 7490,
      "Ġà¤Ĺà¤¡à¤Ĺà¤¡à¤²": 7491,
      "$$": 7492,
      "04": 7493,
      "73": 7494,
      "BMC": 7495,
      "IB": 7496,
      "Man": 7497,
      "RD": 7498,
      "WS": 7499,
      "hal": 7500,
      "jp": 7501,
      "mat": 7502,
      "mad": 7503,
      "nd": 7504,
      "ns": 7505,
      "pt": 7506,
      "rad": 7507,
      "ï¿": 7508,
      "Ġz": 7509,
      "à¤¯à¤°à¤ķ": 7510,
      "à¤¯à¤£à¤¸": 7511,
      "à¤¯à¤°à¤ļà¤¨": 7512,
      "à¤¯à¤ıà¤¸à¤Ĩà¤°": 7513,
      "à¤²à¤¤à¤°": 7514,
      "à¤¨à¤¨à¤²": 7515,
      "à¤¨à¤µà¤°à¤ļ": 7516,
      "à¤ķà¤®à¤²": 7517,
      "à¤µà¤ķà¤¡": 7518,
      "à¤¸à¤Ŀ": 7519,
      "à¥ĭ',": 7520,
      "Ġà¤Ĩà¤Łà¤²": 7521,
      "Ġà¤®à¤³à¤£": 7522,
      "Ġà¤®à¤¡à¤ķ": 7523,
      "Ġà¤®à¤Ĺà¤¦": 7524,
      "Ġà¤®à¤¥à¤³": 7525,
      "à¤ªà¤Ľ": 7526,
      "Ġà¤¤à¤¡à¤¸": 7527,
      "à¥Ĥà¥į": 7528,
      "Ġà¤ħà¤¢": 7529,
      "à¤Łà¤§": 7530,
      "à¤¡à¤ľà¤µà¤³": 7531,
      "à¤ľà¤µà¤¸": 7532,
      "à¤ľà¤®à¤¤": 7533,
      "Ġà¤¯à¤®à¤ķ": 7534,
      "Ġà¤¨à¤®à¤µ": 7535,
      "Ġà¤¦à¤®à¤¨": 7536,
      "Ġà¤ľà¤ĸ": 7537,
      "Ġà¤ľà¤¸à¤²": 7538,
      "Ġà¤ľà¤¨à¤²": 7539,
      "Ġà¤°à¤ľà¤¤": 7540,
      "Ġà¤¬à¤®": 7541,
      "Ġà¤¬à¤Łà¤²à¤°": 7542,
      "Ġà¤¶à¤Łà¤²": 7543,
      "Ġà¤¶à¤®à¤¶": 7544,
      "Ġà¤Ĺà¤£à¤¤": 7545,
      "à¤ĸà¤ľ": 7546,
      "à¤ĸà¤³à¤¤": 7547,
      "à¤ĸà¤°à¤¨": 7548,
      "Ġà¤Ńà¤Ĺà¤¦": 7549,
      "Ġà¤ļà¤ªà¤Ł": 7550,
      "Ġà¤īà¤ĸà¤¡": 7551,
      "à¥Ģ.âĢ¦": 7552,
      "à¤°à¤ķà¤°à¤¨": 7553,
      "à¤ĺà¤²à¤ķ": 7554,
      "à¤ķà¤°à¤Ńà¤°à¤¤": 7555,
      "à¤«à¤°à¤ª": 7556,
      "à¤ķà¤¡à¤¯": 7557,
      "Ġà¤§à¤ľ": 7558,
      "Ġà¤§à¤®à¤¨": 7559,
      "Ġà¤¸à¤®à¤¦": 7560,
      "à¤µà¤²à¤£": 7561,
      "à¤µà¤²à¤ķà¤°": 7562,
      "à¤Ĺà¤²à¤Ĺ": 7563,
      "à¤¸à¤°à¤¡": 7564,
      "à¤ıà¤ıà¤¨": 7565,
      "Ġà¤Ĩà¤ľà¤¬": 7566,
      "à¤²à¤¯à¤ļ": 7567,
      "à¤Łà¤¨à¤ª": 7568,
      "Ġà¤ĳà¤¨à¤°": 7569,
      "à¤Ĩà¤³": 7570,
      "à¤Ĩà¤«": 7571,
      "à¤µà¤³à¤Ł": 7572,
      "Ġà¤¤à¤¸à¤¦": 7573,
      "Ġà¤Ĩà¤¯à¤ľ": 7574,
      "Ġà¤¥à¤²": 7575,
      "à¤®à¤¨à¤®": 7576,
      "à¤®à¤¤à¤¤": 7577,
      "Ġà¤®à¤¨à¤µ": 7578,
      "Ġà¤®à¤¨à¤§à¤°à¤£": 7579,
      "à¤ĩà¤¡à¤²": 7580,
      "Ġà¤ĸà¤°à¤Ĺ": 7581,
      "à¤ªà¤¤à¤¨": 7582,
      "Ġà¤ľà¤¨à¤¶à¤ķ": 7583,
      "Ġà¤ľà¤¨à¤Ĩà¤°": 7584,
      "Ġà¤Ĩà¤łà¤¶": 7585,
      "à¤¬à¤²à¤²": 7586,
      "à¤ķà¤£à¤¸": 7587,
      "Ġà¤¬à¤¹à¤²": 7588,
      "à¤§à¤ķà¤¹": 7589,
      "à¥ĭ,\"": 7590,
      "à¤łà¤ķà¤¹": 7591,
      "Ġà¤Ĩà¤Ĺà¤ª": 7592,
      "Ġà¤¹à¤²à¤£": 7593,
      "à¤ıà¤®à¤¡à¤¬": 7594,
      "à¤¨à¤Ĺà¤°à¤²": 7595,
      "Ġà¤īà¤ļà¤ķ": 7596,
      "à¤µà¤§à¤ªà¤£": 7597,
      "à¤ķà¤®à¤¹": 7598,
      "à¤ĩà¤¨à¤®": 7599,
      "à¤®à¤¦à¤¹à¤¨": 7600,
      "Ġ103": 7601,
      "Ġ109": 7602,
      "Ġà¤ĩà¤¤à¤ªà¤¤": 7603,
      "à¤Īà¤ķà¤µ": 7604,
      "Ġà¤¶à¤°à¤¦à¤ļ": 7605,
      "Ġà¥§à¥«à¥®": 7606,
      "à¥ĩ??": 7607,
      "Ġà¤ļà¤ķà¤µ": 7608,
      "à¥¨à¥¦à¥§à¥©": 7609,
      "Ġà¤µà¤¨à¤°à¤ķ": 7610,
      "Ġà¤ħà¤«à¤Ŀà¤²à¤ĸ": 7611,
      "ĠCl": 7612,
      "ĠCr": 7613,
      "ĠChe": 7614,
      "ĠRE": 7615,
      "Ġà¥§à¥ªà¥¨": 7616,
      "Ġà¤īà¤ĺà¤¡à¥Ł": 7617,
      "Ġà¥§à¥§à¥¦à¥¦": 7618,
      "Ġ143": 7619,
      "Ġ148": 7620,
      "Ġà¤Ńà¤°à¤¤à¤¨": 7621,
      "ĠAC": 7622,
      "à¤¾!)": 7623,
      "Ġà¥§à¥©à¥ª": 7624,
      "Ġà¥§à¥©à¥¯": 7625,
      "Ġà¥§à¥©à¥¬": 7626,
      "Ġà¤¦à¤°à¤µà¤³": 7627,
      "ĠIRC": 7628,
      "Ġà¤·à¤·": 7629,
      "Ġ137": 7630,
      "Ġ165": 7631,
      "Ġ166": 7632,
      "Ġ169": 7633,
      "à¥Ģ!!": 7634,
      "Ġà¥¨à¥¨à¥¦à¥¦": 7635,
      "à¥ĩ......": 7636,
      "ĠDI": 7637,
      "Ġà¤Īà¤¡à¤¬": 7638,
      "Ġ270": 7639,
      "Ġà¥¦à¥«": 7640,
      "ĠGB": 7641,
      "Ġsc": 7642,
      "ĠKKR": 7643,
      "amb": 7644,
      "ild": 7645,
      "ilver": 7646,
      "Ġà¤Ŀà¤Łà¤ķà¤£": 7647,
      "acebook": 7648,
      "eli": 7649,
      "otest": 7650,
      "avi": 7651,
      "Ġà¥§à¥§à¥¬": 7652,
      "osp": 7653,
      "Ġ1995": 7654,
      "Ġà¤ĵà¤°à¤¡à¤£": 7655,
      "ĠâĨ": 7656,
      "Ġà¤ĵà¤ªà¤¨à¤ļ": 7657,
      "Ġvaccine": 7658,
      "à¥ĩ\".": 7659,
      "--------------------------------": 7660,
      "abad": 7661,
      "Ġà¤ĸà¤²à¤¬à¤¤": 7662,
      "Ġ1983": 7663,
      "Ġà¤«à¤¡à¤ķà¤µà¤£": 7664,
      "rop": 7665,
      "à¤ķà¤®à¤¤à¤¨": 7666,
      "ika": 7667,
      "ific": 7668,
      "Ġà¤¹à¤°à¤Ńà¤±": 7669,
      "anka": 7670,
      "à¤Ĩà¤łà¤µà¤¡": 7671,
      ">>>>>": 7672,
      "IRAL": 7673,
      "Ġà¤Ŀà¤Ĺà¤¡à¤£": 7674,
      "Ġà¤Ŀà¤Ĺà¤®à¤Ĺ": 7675,
      "à¤ķà¤ħà¤ªà¤ļ": 7676,
      "Ġà¤ªà¤ļà¤¨à¤¸": 7677,
      "Ġà¤ıà¤ıà¤¨à¤Ĩà¤¯à¤¨": 7678,
      "Ġà¤ıà¤¨à¤ıà¤¸à¤ľ": 7679,
      "ĠQu": 7680,
      "à¤Łà¤ħà¤ªà¤ļ": 7681,
      "ĠSharma": 7682,
      "ĠRealme": 7683,
      "à¤Ĺà¤®à¤°à¤µà¤°": 7684,
      "ontinue": 7685,
      "!âĢĿ": 7686,
      ".âĢ¦": 7687,
      "?âĢĻâĢĻ": 7688,
      "AE": 7689,
      "DC": 7690,
      "Dr": 7691,
      "NC": 7692,
      "On": 7693,
      "Pol": 7694,
      "][": 7695,
      "ie": 7696,
      "oint": 7697,
      "rat": 7698,
      "vis": 7699,
      "weet": 7700,
      "Ġal": 7701,
      "Ġdi": 7702,
      "Ġover": 7703,
      "à¤¾âĢį": 7704,
      "à¥įà¥į": 7705,
      "à¥į...": 7706,
      "à¤¤à¤±": 7707,
      "à¤¯à¤ħ": 7708,
      "à¤¯à¤ĳà¤ķ": 7709,
      "à¤²à¤¸à¤¨": 7710,
      "à¤¿à¤¿": 7711,
      "à¤¨à¤ľà¤¨à¤ķ": 7712,
      "à¤¨à¤µà¤¸à¤¨": 7713,
      "à¤Ĥ.....": 7714,
      "à¤µà¤Ĩà¤ĺ": 7715,
      "à¤ļà¤°à¤¨": 7716,
      "à¤ļà¤ķà¤¤": 7717,
      "à¤ļà¤ªà¤Ł": 7718,
      "à¤¸à¤ªà¤¦": 7719,
      "à¤¸à¤Łà¤¤": 7720,
      "à¤¹à¤³à¤£": 7721,
      "à¥ĭ.....": 7722,
      "Ġà¤ķà¤Ŀ": 7723,
      "à¤®à¤°à¤ļ": 7724,
      "à¤®à¤¸à¤¤": 7725,
      "à¥ģ'": 7726,
      "Ġà¤¸à¤ªà¤¤": 7727,
      "Ġà¤¸à¤³à¤¸": 7728,
      "Ġà¤ªà¤¡à¤ķ": 7729,
      "Ġà¤®à¤¤à¤²": 7730,
      "à¤¾à¤Ĥ'": 7731,
      "à¤ªà¤Łà¤ķ": 7732,
      "à¤ªà¤ªà¤£": 7733,
      "à¤ªà¤¸à¤®": 7734,
      "à¤¦à¤¶à¤¨": 7735,
      "à¤¦à¤¯à¤¸": 7736,
      "Ġà¤ħà¤ľà¤¨": 7737,
      "à¤Łà¤°à¤¤": 7738,
      "Ġà¤µà¤Ŀ": 7739,
      "Ġà¤µà¤¹à¤¨": 7740,
      "Ġà¤µà¤¨à¤Ĺ": 7741,
      "Ġà¤µà¤ļà¤ª": 7742,
      "à¤¡à¤°à¤µ": 7743,
      "à¤ľà¤°à¤ª": 7744,
      "Ġà¤¨à¤µà¤¤": 7745,
      "à¤³à¤®à¤³": 7746,
      "Ġà¤°à¤¡à¤ķ": 7747,
      "Ġà¤¬à¤¯": 7748,
      "Ġà¤Ĺà¤Łà¤ª": 7749,
      "Ġà¤²à¤Ĺà¤¦": 7750,
      "à¤¥à¤Ĺà¤¤": 7751,
      "à¤Ńà¤µà¤ļ": 7752,
      "Ġà¤īà¤¹": 7753,
      "Ġà¤īà¤Īà¤ķ": 7754,
      "âĢ²": 7755,
      "Ġà¤Ŀà¤°à¤¦": 7756,
      "à¤°à¤ķà¤ªà¤£": 7757,
      "à¤Īà¤ķà¤¨": 7758,
      "Ġà¤ĸà¤¸à¤ĸ": 7759,
      "Ġà¤ķà¤°à¤£à¤¨": 7760,
      "Ġà¤ıà¤ķà¤¶": 7761,
      "à¤¿à¤Ĥ.": 7762,
      "à¤¢à¤¯": 7763,
      "Ġà¤Łà¤µà¤Ł": 7764,
      "à¤¯à¤ķà¤¹": 7765,
      "à¤«à¤°à¤¸": 7766,
      "à¤Ĭà¤³à¤Ĺ": 7767,
      "à¤¤à¤²à¤¯": 7768,
      "Ġà¤Ĩà¤ªà¤ķ": 7769,
      "Ġà¤§à¤¨à¤²": 7770,
      "Ġà¤¸à¤°à¤ªà¤Łà¤£": 7771,
      "Ġà¤ħà¤¨à¤ķ": 7772,
      "à¤¯à¤®à¤Ĺà¤¤": 7773,
      "à¤Ŀà¤ª": 7774,
      "à¤Ŀà¤®à¤§": 7775,
      "à¤Ŀà¤°à¤ļ": 7776,
      "Ġà¤īà¤ªà¤Ł": 7777,
      "Ġà¤īà¤ªà¤¸à¤²": 7778,
      "Ġà¤īà¤ªà¤ľà¤¤": 7779,
      "Ġà¤īà¤ªà¤¨à¤¦": 7780,
      "âĢĻ;": 7781,
      "à¤ľà¤¨à¤ª": 7782,
      "à¤Ĺà¤°à¤¨": 7783,
      "à¤Łà¤²à¤°à¤¨": 7784,
      "à¤ħà¤®à¤ļ": 7785,
      "à¤ħà¤¸à¤ª": 7786,
      "à¤Ĭà¤¨à¤¸": 7787,
      "Ġà¤ĳà¤¨à¤¸": 7788,
      "à¤¤à¤ķà¤ļ": 7789,
      "à¤¯à¤²à¤Łà¤ļ": 7790,
      "à¤Łà¤ķà¤³à¤¤": 7791,
      "Ġà¤Ĩà¤¯à¤µ": 7792,
      "Ġà¤¸à¤¹à¤Ĩà¤¯": 7793,
      "à¤ľà¤ªà¤¸à¤¹": 7794,
      "Ġà¤ĵà¤¦": 7795,
      "Ġà¤ªà¤¦à¤®": 7796,
      "à¤ĩà¤²à¤¨": 7797,
      "à¤ĸà¤²à¤ª": 7798,
      "à¤ĸà¤²à¤¦à¤°": 7799,
      "à¤°à¤ĸà¤¤": 7800,
      "Ġ---": 7801,
      "à¤¯à¤¨à¤µ": 7802,
      "à¤¦à¤¨à¤¸": 7803,
      "à¤ľà¤ķà¤¨": 7804,
      "à¤¹à¤¨à¤ªà¤°": 7805,
      "Ġ2023": 7806,
      "à¤¡à¤ķà¤¨": 7807,
      "à¤²à¤¬à¤²": 7808,
      "Ġà¤¬à¤¦à¤²à¤µ": 7809,
      "à¤µà¤ļà¤£": 7810,
      "à¤µà¤ļà¤ľà¤£": 7811,
      "à¤¸à¤®à¤¯": 7812,
      "à¤¸à¤®à¤ľ": 7813,
      "Ġà¥ªà¥¯à¥¯": 7814,
      "à¤°à¤§à¤°": 7815,
      "à¤īà¤ªà¤¨": 7816,
      "à¤²à¤Ĺà¤¡": 7817,
      "Ġà¥§à¥¯à¥¨à¥¦": 7818,
      "Ġà¤ķà¤ªà¤¸": 7819,
      "à¤ªà¤ķà¤¨": 7820,
      "à¤·à¤¦à¤ļ": 7821,
      "Ġà¥Ńà¥¨à¥¦": 7822,
      "Ġà¤ıà¤¸à¤Ĩà¤°à¤ª": 7823,
      "Ġà¤ıà¤¸à¤Ĩà¤°à¤ı": 7824,
      "Ġà¥¯à¥«à¥¦": 7825,
      "à¤®à¤¦à¤ļ": 7826,
      "à¤¡à¤°à¤Ĺ": 7827,
      "à¤ľà¤µà¤³à¤ª": 7828,
      "à¤¡à¤ķà¤°à¤µ": 7829,
      "inal": 7830,
      "ines": 7831,
      "2016": 7832,
      "à¥ĩ?âĢĿ": 7833,
      "Ġ?âĢĻ": 7834,
      "Ġ151": 7835,
      "Ġ157": 7836,
      "ator": 7837,
      "Ġà¤§à¤¨à¤ľ": 7838,
      "à¤ľà¤®à¤ľ": 7839,
      "Ġ127": 7840,
      "Ġ129": 7841,
      "ery": 7842,
      "à¤¾'.": 7843,
      "ĠMI": 7844,
      "ĠPF": 7845,
      "ĠCha": 7846,
      "ĠRam": 7847,
      "ĠRCB": 7848,
      "Ġà¤°à¤£à¤ķ": 7849,
      "Ġà¤«à¤³à¤ª": 7850,
      "Ġà¤«à¤³à¤Ń": 7851,
      "à¤ļà¤µà¤¡à¤ķà¤°": 7852,
      "à¤¾!!!": 7853,
      "Ġ302": 7854,
      "Ġà¤ķà¤³à¤µà¤³": 7855,
      "à¤°à¤¥à¤®à¤¤": 7856,
      "à¤¤à¤°à¤£à¤²": 7857,
      "Ġà¥§à¥Ńà¥ª": 7858,
      "Ġà¥§à¥Ńà¥¬": 7859,
      "ĠNE": 7860,
      "Ġà¤ĺà¤¸à¤ĺà¤¶": 7861,
      "à¤®à¤¶à¤¤": 7862,
      "à¤¾..!": 7863,
      "Ġà¤¸à¤¹à¤ľà¤Ĺà¤¤": 7864,
      "Ġà¤°à¤®à¤®": 7865,
      "rap": 7866,
      "Ġà¤ªà¤³à¤¶": 7867,
      "ĠVIRAL": 7868,
      "à¤¾:-": 7869,
      "Ġà¥²à¤¡à¤®": 7870,
      "hag": 7871,
      "irat": 7872,
      "à¥ĩ:-": 7873,
      "Ġma": 7874,
      "urg": 7875,
      "Ġà¤¹à¤Łà¤ķà¤²": 7876,
      "ayan": 7877,
      "ĠGold": 7878,
      "ĠGET": 7879,
      "Ġà¤¥à¤ķà¤µà¤²": 7880,
      "ĠInstagram": 7881,
      "ĠUPSC": 7882,
      "Ġà¥§à¥¯à¥ªà¥©": 7883,
      "osit": 7884,
      "Ġ1994": 7885,
      "uly": 7886,
      "ĠJune": 7887,
      "à¤Ĺà¤łà¤¬": 7888,
      "lip": 7889,
      "ðŁĺ": 7890,
      "www": 7891,
      "Ġà¥§à¥¯à¥©à¥¯": 7892,
      "Ġ1969": 7893,
      "Ġyou": 7894,
      "ĠResult": 7895,
      "Ġprice": 7896,
      "ĠEngl": 7897,
      "ĠBSNL": 7898,
      "à¤ħà¤«à¤Ĺ": 7899,
      "Ġà¤®à¤ĸà¤®à¤²": 7900,
      "Ġà¤ħà¤ļà¤²à¤ª": 7901,
      "ĠMalik": 7902,
      "Ġ+++++++++++++++++++++++++++++++++++++++++++++++++++++++++++++++++++++++++++++++++++++": 7903,
      "Taas": 7904,
      "ystem": 7905,
      "zwj": 7906,
      "Ġà¤ĵà¤°à¤ĸà¤¡": 7907,
      "aheb": 7908,
      "ĠIRCTC": 7909,
      "Ġà¤Łà¤µà¤Łà¤µ": 7910,
      "!'": 7911,
      "';": 7912,
      "81": 7913,
      "89": 7914,
      "96": 7915,
      "Bay": 7916,
      "ON": 7917,
      "SL": 7918,
      "TA": 7919,
      "ey": 7920,
      "form": 7921,
      "lic": 7922,
      "ner": 7923,
      "we": 7924,
      "||": 7925,
      "Ã©": 7926,
      "Ø§": 7927,
      "Ġhe": 7928,
      "Ġare": 7929,
      "à¤¾à¤¿": 7930,
      "à¤°à¤¹à¤°": 7931,
      "à¤°à¤µà¤°à¤ļ": 7932,
      "à¥ĩà¥ĩ.": 7933,
      "à¥Ģà¥ĩ": 7934,
      "à¤¤à¤ªà¤°": 7935,
      "à¤²à¤¤à¤ļ": 7936,
      "à¤²à¤Ĺà¤£à¤¨": 7937,
      "à¤¨à¤¯à¤ķ": 7938,
      "à¤¨à¤®à¤¨": 7939,
      "à¤ķà¤ľà¤¨": 7940,
      "à¤ķà¤Łà¤°": 7941,
      "à¤ķà¤¬à¤§": 7942,
      "à¤µà¤µà¤°": 7943,
      "à¤µà¤¥": 7944,
      "à¤¸à¤µà¤¤": 7945,
      "à¤¸à¤ķà¤²": 7946,
      "à¥ĭâĢĿ,": 7947,
      "Ġà¤ķà¤¦à¤°": 7948,
      "Ġà¤Ĩà¤µà¤¤": 7949,
      "à¤®à¤²à¤ķ": 7950,
      "à¤®à¤ªà¤¤": 7951,
      "à¤®à¤°à¤¨": 7952,
      "à¤®à¤ĺà¤°": 7953,
      "à¤®à¤Ńà¤ķ": 7954,
      "Ġà¤¸à¤°à¤£": 7955,
      "Ġà¤¸à¤¶à¤°": 7956,
      "Ġà¤ªà¤ļà¤£": 7957,
      "Ġà¤ªà¤¥à¤¨": 7958,
      "Ġà¤®à¤²à¤¨": 7959,
      "Ġà¤®à¤¡à¤Ĺ": 7960,
      "à¤ªà¤Łà¤¨": 7961,
      "Ġà¤¤à¤ĸ": 7962,
      "à¥Ĥà¥Ĥ": 7963,
      "à¥ĤâĢĻ,": 7964,
      "Ġà¤ħà¤°à¤£": 7965,
      "à¤Ĺà¤¡à¤¤": 7966,
      "à¤Ĺà¤¨à¤¨": 7967,
      "à¤ľà¤°à¤¸": 7968,
      "à¤ľà¤Ĺà¤¤": 7969,
      "Ġà¤¯à¤¡": 7970,
      "Ġà¤¹à¤¯à¤Ĺ": 7971,
      "Ġà¤¦à¤®à¤£": 7972,
      "à¤¶à¤«": 7973,
      "à¤¶à¤ªà¤°": 7974,
      "à¤¶à¤°à¤ļ": 7975,
      "à¤¶à¤¤à¤µ": 7976,
      "à¤¬à¤¨à¤µ": 7977,
      "Ġà¤ľà¤²à¤ļ": 7978,
      "Ġà¤°à¤Ł": 7979,
      "Ġà¤¬à¤«": 7980,
      "Ġà¤¬à¤Ĺà¤³": 7981,
      "Ġà¤¬à¤²à¤¦": 7982,
      "Ġà¤ħà¤¸à¤¹à¤ķ": 7983,
      "Ġà¤Ĺà¤°à¤µ": 7984,
      "Ġà¤²à¤³": 7985,
      "Ġà¤²à¤ļà¤ķ": 7986,
      "à¤ĸà¤¬": 7987,
      "à¤ĸà¤¨à¤ļ": 7988,
      "à¤¥à¤ªà¤°": 7989,
      "à¤Ńà¤¶": 7990,
      "à¤Ńà¤°à¤µà¤¶": 7991,
      "Ġà¤īà¤¥à¤ª": 7992,
      "à¤Īà¤Łà¤®à¤§": 7993,
      "à¤Īà¤Ńà¤ķ": 7994,
      "Ġà¤ĸà¤¯": 7995,
      "Ġà¤ĸà¤¬à¤±": 7996,
      "Ġà¤ıà¤ķà¤Łà¤ķ": 7997,
      "Ġà¤«à¤°à¤¦": 7998,
      "à¤°à¤£à¤¬": 7999,
      "Ġà¤¤à¤°à¤¸": 8000,
      "à¤ĺà¤³à¤¤": 8001,
      "Ġà¤ĩà¤ª": 8002,
      "Ġà¤¡à¤³à¤®à¤³": 8003,
      "Ġà¤§à¤¨à¤µ": 8004,
      "Ġà¤¸à¤°à¤¶": 8005,
      "Ġà¤ħà¤¨à¤Ł": 8006,
      "Ġà¤īà¤ªà¤²": 8007,
      "Ġà¤īà¤ªà¤µà¤¨à¤¸": 8008,
      "à¤Ĺà¤²à¤°": 8009,
      "à¤Ĺà¤²à¤ķ": 8010,
      "à¤¬à¤°à¤ħà¤ĸ": 8011,
      "à¤ıà¤²à¤²": 8012,
      "Ġà¥¨à¥§à¥¯": 8013,
      "Ġà¤¸à¤°à¤ķà¤£": 8014,
      "à¤¶à¤¨à¤§": 8015,
      "à¤Ĩà¤°à¤ľ": 8016,
      "à¤Łà¤°à¤Ĺ": 8017,
      "Ġà¤Ĩà¤¯à¤Ĩà¤°à¤ıà¤¸": 8018,
      "Ġà¤Ĩà¤¯à¤ıà¤¨à¤ıà¤¸": 8019,
      "Ġà¤¸à¤¹à¤ľà¤°": 8020,
      "Ġà¤¸à¤¹à¤ľà¤¸": 8021,
      "à¤²à¤ķà¤µ": 8022,
      "à¤¨à¤ļà¤°": 8023,
      "Ġà¤ĺà¤°à¤ĸà¤°": 8024,
      "Ġà¤ĵà¤ĸ": 8025,
      "Ġà¤ĵà¤°à¤¬": 8026,
      "à¤®à¤¤à¤ļ": 8027,
      "à¤ĩà¤ķà¤²": 8028,
      "à¤µà¤¨à¤ªà¤¦": 8029,
      "à¤°à¤¨à¤µà¤°": 8030,
      "Ġà¤ħà¤ªà¤¸": 8031,
      "Ġà¤Ľà¤ªà¤°": 8032,
      "à¤¹à¤¨à¤ª": 8033,
      "Ġà¥©à¥©à¥¦": 8034,
      "à¤ķà¤¤à¤®": 8035,
      "à¤§à¤µà¤µ": 8036,
      "à¤¡à¤ķà¤ªà¤¸": 8037,
      "Ġà¤Ĩà¤łà¤¹": 8038,
      "Ġà¤¬à¤¦à¤²à¤¹": 8039,
      "à¤¸à¤®à¤¸à¤ļ": 8040,
      "Ġà¥ªà¥¦à¥¦à¥¦": 8041,
      "à¤Łà¤ļà¤°": 8042,
      "à¤°à¤¹à¤ľ": 8043,
      "à¥Ńà¥¦à¥¦": 8044,
      "à¤īà¤Ń": 8045,
      "à¤ķà¤£à¤®à¤§": 8046,
      "Ġà¤ľà¤Ĺà¤µà¤£": 8047,
      "Ġà¤Ĺà¤°à¤ľà¤µ": 8048,
      "à¤¶à¤²à¤µà¤°": 8049,
      "à¤¾???": 8050,
      "à¤²à¤µà¤ķà¤°": 8051,
      "Ġà¥§à¥¯à¥§à¥®": 8052,
      "Ġà¤¯à¤¶à¤¹": 8053,
      "à¤¯à¤°à¤µà¤°": 8054,
      "à¤ķà¤Łà¤Ĺ": 8055,
      "à¤ıà¤®à¤ľ": 8056,
      "à¤ıà¤®à¤µà¤°": 8057,
      "à¤ıà¤®à¤ĵ": 8058,
      "à¤ıà¤®à¤ıà¤®à¤Ĩà¤°à¤¡": 8059,
      "Ġà¤Ĩà¤Īà¤ª": 8060,
      "Ġà¤ĩà¤¥à¤ª": 8061,
      "Ġ850": 8062,
      "Ġà¤¹à¤¤à¤¬à¤²à¤¤": 8063,
      "Ġà¤ħà¤¡à¤µà¤¤": 8064,
      "à¤°à¤Ĺà¤Ł": 8065,
      "Ġà¥§à¥«à¥©": 8066,
      "Ġà¤¸à¤¨à¤¸à¤¨": 8067,
      "ini": 8068,
      "iness": 8069,
      "arr": 8070,
      "à¥ĩ?'": 8071,
      "onal": 8072,
      "Ġà¤¶à¤¹à¤ľ": 8073,
      "Ġ192": 8074,
      "Ġ1960": 8075,
      "à¥¨à¥¦à¥§à¥®": 8076,
      "à¥¨à¥¦à¥§à¥Ń": 8077,
      "à¤ķà¤³à¤¦": 8078,
      "eric": 8079,
      "ĠMay": 8080,
      "Ġà¤¬à¤²à¤µà¤¤": 8081,
      "Ġà¥§à¥®à¥«": 8082,
      "ĠSch": 8083,
      "ĠSPEC": 8084,
      "ĠCap": 8085,
      "ĠRs": 8086,
      "Ġ117": 8087,
      "Ġà¥§à¥ªà¥«": 8088,
      "Ġà¤°à¤£à¤ª": 8089,
      "Ġà¤Ńà¤°à¤¤à¤ķ": 8090,
      "ĠAy": 8091,
      "ĠABP": 8092,
      "Ġà¥§à¥¬à¥ª": 8093,
      "Ġ2500": 8094,
      "Ġ181": 8095,
      "Ġ1800": 8096,
      "Ġà¥§à¥©à¥¨": 8097,
      "Ġà¥§à¥©à¥¦à¥¦": 8098,
      "adesh": 8099,
      "Ġà¥§à¥Ńà¥¦à¥¦": 8100,
      "Ġ136": 8101,
      "Ġ1300": 8102,
      "à¤ıà¤ļà¤ĵà¤ļ": 8103,
      "ĠNDRF": 8104,
      "ĠBoss": 8105,
      "ĠBCCI": 8106,
      "ĠTips": 8107,
      "à¤Łà¥Łà¤¸": 8108,
      "Ġà¤įà¤¡à¤µ": 8109,
      "Ġà¤¡à¤¬à¤ķ": 8110,
      "Ġà¥²à¤Ĺ": 8111,
      "Ġà¥²à¤Ł": 8112,
      "Ġà¥¨à¥®à¥¦": 8113,
      "Ġà¤īà¤ľà¤³à¤²": 8114,
      "Ġà¤Ńà¤Ĺà¤µà¤¦": 8115,
      "ĠLockdown": 8116,
      "Ġà¥¦à¥®": 8117,
      "Ġcorona": 8118,
      "Ġcase": 8119,
      "ĠKap": 8120,
      "ĠEd": 8121,
      "ĠEPFO": 8122,
      "Ġà¤ħà¤¹à¤®à¤¦à¤ª": 8123,
      "Ġà¥¨à¥¯à¥¦": 8124,
      "à¤µà¤¹à¤¨à¤®": 8125,
      "Ġà¤ļà¤®à¤ļà¤®": 8126,
      "hare": 8127,
      "achin": 8128,
      "ott": 8129,
      "à¥ĩâĢ¦.": 8130,
      "ande": 8131,
      "andhi": 8132,
      "ents": 8133,
      "entral": 8134,
      "Ġà¥©à¥¬à¥«": 8135,
      "à¤¦à¤¹à¤¶à¤¤à¤µ": 8136,
      "Ġà¥§à¥¯à¥¬à¥®": 8137,
      "Ġà¤īà¤ķà¤³à¤µ": 8138,
      "Ġ360": 8139,
      "Ġ365": 8140,
      "ĠOr": 8141,
      "agar": 8142,
      "à¥¯à¥¯à¥¦": 8143,
      "Ġà¥§à¥¯à¥«à¥§": 8144,
      "990": 8145,
      "ode": 8146,
      "à¤°à¤ĺà¤³à¤²": 8147,
      "Ġà¤«à¤¡à¤ķà¤µà¤²": 8148,
      "Ġà¤Ĺà¤µà¤³à¤£": 8149,
      "istan": 8150,
      "Ġà¤ıà¤®à¤ıà¤¸à¤ª": 8151,
      "ĠYou": 8152,
      "unde": 8153,
      "ishes": 8154,
      "ĠRain": 8155,
      "IAL": 8156,
      "à¤µà¤Ĺà¤£à¤ļ": 8157,
      "Ġà¤Ŀà¤Łà¤ķà¤²": 8158,
      "à¤¡à¤°à¤¸à¤¨à¤¨": 8159,
      "ustral": 8160,
      "Ġà¤®à¤²à¤®à¤ªà¤Ł": 8161,
      "ector": 8162,
      "Ġà¤¡à¤Ŀà¤¨à¤Ńà¤°": 8163,
      "ĠComm": 8164,
      "ARS": 8165,
      "ĠITR": 8166,
      "ĠEVM": 8167,
      "ĠTHIS": 8168,
      "ruitment": 8169,
      "Ġreading": 8170,
      "Ġà¤ĸà¤¸à¤ĸà¤¸": 8171,
      "Ġà¤¹à¤¯à¤Ĺà¤¯": 8172,
      "ustralia": 8173,
      "!âĢĻâĢĻ": 8174,
      "'!": 8175,
      ");": 8176,
      "800": 8177,
      "=âĢĿ": 8178,
      "Bl": 8179,
      "Co": 8180,
      "CBI": 8181,
      "ES": 8182,
      "Lockdown": 8183,
      "Nar": 8184,
      "NCP": 8185,
      "OM": 8186,
      "Ra": 8187,
      "Ram": 8188,
      "TI": 8189,
      "The": 8190,
      "Un": 8191,
      "air": 8192,
      "chan": 8193,
      "light": 8194,
      "vest": 8195,
      "»¿": 8196,
      "Â°": 8197,
      "Ã¬": 8198,
      "ĠÐ": 8199,
      "Ġas": 8200,
      "Ġag": 8201,
      "à¤°à¤¡à¤µ": 8202,
      "à¥ĢâĢĺ": 8203,
      "à¤¤à¤Ĺà¤£": 8204,
      "à¤¤à¤®à¤¤": 8205,
      "à¤¤à¤¸à¤¹": 8206,
      "à¤¤à¤Ĺà¤¡": 8207,
      "à¤¯à¤¸à¤ļ": 8208,
      "à¤²à¤ł": 8209,
      "à¤¨à¤Ĭà¤ļ": 8210,
      "à¤Ĥ\"": 8211,
      "à¤ļà¤Ł": 8212,
      "à¤ļà¤±": 8213,
      "à¤ļà¤²à¤ķ": 8214,
      "à¤ļà¤¨à¤¸": 8215,
      "à¤ļà¤ķà¤³": 8216,
      "à¤¸à¤ł": 8217,
      "à¤¸à¤ķà¤¤": 8218,
      "à¤£à¤¤à¤ķ": 8219,
      "Ġà¤Ĩà¤µà¤²": 8220,
      "Ġà¤Ĩà¤¸à¤²": 8221,
      "à¤®à¤°à¤ķ": 8222,
      "à¤®à¤¯à¤ķ": 8223,
      "à¤®à¤¯à¤¤": 8224,
      "à¤®à¤Ĩà¤°": 8225,
      "à¥ģà¤¼": 8226,
      "Ġà¤¸à¤Īà¤ļ": 8227,
      "Ġà¤¸à¤£à¤µ": 8228,
      "à¤¾à¤Ĥ.": 8229,
      "à¤ªà¤Łà¤¤": 8230,
      "à¤ªà¤¸à¤£": 8231,
      "à¤¦à¤¯à¤¦": 8232,
      "Ġà¤¤à¤ľà¤µ": 8233,
      "Ġà¤ħà¤ł": 8234,
      "à¤Ĺà¤¡à¤²": 8235,
      "à¤Ĺà¤¬à¤¦": 8236,
      "à¤Ĺà¤¨à¤Ĺà¤°": 8237,
      "à¤Łà¤Ń": 8238,
      "Ġà¤µà¤µ": 8239,
      "Ġà¤µà¤¡à¤²": 8240,
      "à¤¡à¤Ń": 8241,
      "à¤¡à¤°à¤¶": 8242,
      "à¤ľà¤¸à¤®": 8243,
      "Ġà¤¯à¤¦": 8244,
      "Ġà¤¹à¤°à¤ĸ": 8245,
      "Ġà¤¹à¤®à¤°": 8246,
      "Ġà¤¹à¤£à¤®": 8247,
      "Ġà¤¨à¤¸à¤°": 8248,
      "Ġà¤¨à¤°à¤ĸ": 8249,
      "Ġà¤¦à¤¡à¤ªà¤²": 8250,
      "à¤¶à¤²à¤¨": 8251,
      "à¤·à¤Ĺ": 8252,
      "à¤·à¤¯à¤¤": 8253,
      "à¤¬à¤ķà¤²": 8254,
      "à¤¬à¤¨à¤Ĺà¤°": 8255,
      "à¤¬à¤Łà¥Ł": 8256,
      "Ġà¤ľà¤¥": 8257,
      "Ġà¤ľà¤¡à¤¤": 8258,
      "Ġà¤¬à¤ª": 8259,
      "Ġà¤ķà¤°à¤µà¤¤": 8260,
      "à¤łà¤µà¤°": 8261,
      "Ġà¤²à¤«à¤¡": 8262,
      "à¤µà¤°à¤µà¤°": 8263,
      "à¤µà¤°à¤«": 8264,
      "à¤µà¤°à¤¨à¤Ĺà¤°": 8265,
      "Ġà¤ļà¤¶": 8266,
      "Ġà¤ļà¤ķà¤°": 8267,
      "Ġà¤ļà¤±": 8268,
      "Ġà¤ļà¤Łà¤ªà¤Ł": 8269,
      "Ġà¤ĺà¤¨à¤¸": 8270,
      "Ġà¤ĺà¤Łà¤µ": 8271,
      "Ġà¤Ŀà¤£": 8272,
      "Ġà¤Ŀà¤¡": 8273,
      "à¤°à¤ķà¤¹": 8274,
      "à¤°à¤ķà¤¶à¤ķ": 8275,
      "à¤¾.,": 8276,
      "Ġà¤«à¤¡à¤£": 8277,
      "Ġà¤«à¤¡à¤¤": 8278,
      "Ġà¤«à¤¡à¤¶": 8279,
      "à¤°à¤¤à¤ª": 8280,
      "à¤°à¤¤à¤³": 8281,
      "à¤°à¤¤à¤Ń": 8282,
      "à¤¢à¤¸": 8283,
      "Ġà¤ĩà¤µà¤²": 8284,
      "Ġà¤ĩà¤°à¤¸": 8285,
      "Ġà¤ĩà¤¤à¤®": 8286,
      "Ġà¤ĩà¤®à¤²": 8287,
      "Ġà¤ĩà¤ķà¤¡à¤ļ": 8288,
      "Ġà¤¡à¤Ĺà¤®": 8289,
      "à¤ªà¤°à¤ª": 8290,
      "Ġà¤§à¤¨à¤¦": 8291,
      "Ġà¤¸à¤®à¤ķà¤ķ": 8292,
      "à¤µà¤²à¤ķ": 8293,
      "à¤°à¤¸à¤°": 8294,
      "Ġ('": 8295,
      "à¤¯à¤®à¤®": 8296,
      "à¤µà¤¤à¤¨": 8297,
      "Ġà¤Ĩà¤¤à¤¡à¥Ł": 8298,
      "à¤Ĺà¤²à¤®à¤¯": 8299,
      "Ġà¤¨à¤µà¤ļ": 8300,
      "à¤¦à¤°à¤Ĺà¤¡": 8301,
      "âĢĻ!": 8302,
      "à¤ıà¤ķà¤Ł": 8303,
      "Ġà¥¨à¥§à¥¨": 8304,
      "à¤¡à¤²à¤°": 8305,
      "à¥ĭ.'": 8306,
      "Ġà¤ĳà¤²à¤®": 8307,
      "à¤Ĩà¤°à¤¤": 8308,
      "à¤Ĩà¤Īà¤ļ": 8309,
      "à¤Łà¤°à¤°": 8310,
      "à¤µà¤³à¤®à¤§": 8311,
      "à¤¸à¤²à¤°": 8312,
      "à¤¹à¤°à¤«": 8313,
      "Ġà¤¤à¤¸à¤¤à¤¶": 8314,
      "Ġà¤Ĩà¤¯à¤Īà¤¡": 8315,
      "Ġà¤Ĩà¤¯à¤Ĩà¤°à¤¬": 8316,
      "à¤¸à¤¨à¤°": 8317,
      "à¤¸à¤¨à¤µ": 8318,
      "à¤¸à¤¨à¤Ĺà¤°à¤ļ": 8319,
      "à¤¨à¤ļà¤ķ": 8320,
      "à¤ªà¤£à¤ĸ": 8321,
      "à¤®à¤¤à¤µ": 8322,
      "Ġà¤®à¤¨à¤¨": 8323,
      "à¤ĩà¤¸à¤ļ": 8324,
      "à¤ĩà¤«à¤²": 8325,
      "à¤µà¤¨à¤°": 8326,
      "à¤·à¤ķà¤ļ": 8327,
      "Ġà¥¨à¥¦à¥«": 8328,
      "Ġà¥¨à¥¦à¥¨à¥©": 8329,
      "à¤ľà¤¯à¤°": 8330,
      "Ġà¤¶à¤¹à¤°à¤Ńà¤°": 8331,
      "Ġà¤Ľà¤³à¤£": 8332,
      "à¤¹à¤¨à¤µ": 8333,
      "à¤²à¤¤à¤ľ": 8334,
      "à¤§à¤¨à¤µ": 8335,
      "Ġà¥«à¥¬à¥¦": 8336,
      "Ġà¥«à¥ªà¥«": 8337,
      "Ġ\"\"": 8338,
      "à¤¨à¤µà¤µ": 8339,
      "à¤īà¤ľà¤µ": 8340,
      "à¤Ĺà¤¦à¤°à¤®": 8341,
      "Ġà¤µà¤¸à¤®à¤¤": 8342,
      "Ġà¤²à¤Ĺà¤Ł": 8343,
      "Ġà¤īà¤®à¤²à¤¤": 8344,
      "à¤Ĺà¤¡à¤®à¤§": 8345,
      "Ġà¤ħà¤µà¤¤à¤°à¤£": 8346,
      "à¤¨à¤ķà¤ļ": 8347,
      "Ġà¥§à¥¯à¥¨à¥§": 8348,
      "Ġà¥§à¥¯à¥¨à¥®": 8349,
      "Ġà¥§à¥¯à¥¨à¥Ń": 8350,
      "âĢ¦âĢ¦": 8351,
      "à¤µà¤¢à¤¯": 8352,
      "à¤ļà¤°à¤µà¤°": 8353,
      "à¤ıà¤®à¤ıà¤®": 8354,
      "à¤ıà¤®à¤Ĩà¤¯à¤¡": 8355,
      "à¤¯à¤ªà¤ļ": 8356,
      "Ġà¥®à¥«à¥¦": 8357,
      "à¤ķà¤¨à¤°à¤ļ": 8358,
      "Ġà¤īà¤ļà¤ķà¤Ł": 8359,
      "Ġ720": 8360,
      "Ġà¤µà¤¡à¤¨": 8361,
      "Ġà¤¢à¤¬": 8362,
      "Ġà¥§à¥¨à¥Ń": 8363,
      "Ġ158": 8364,
      "oration": 8365,
      "Ġ121": 8366,
      "ĠMe": 8367,
      "ĠMet": 8368,
      "Ġà¤Ĭà¤Ń": 8369,
      "à¤ıà¤²à¤Ĩà¤°": 8370,
      "ĠSC": 8371,
      "ĠSUV": 8372,
      "ĠPU": 8373,
      "esident": 8374,
      "Ġà¤ħà¤µà¤ĺà¤¡à¤²": 8375,
      "Ġ141": 8376,
      "Ġ147": 8377,
      "à¤ıà¤«à¤®à¤§": 8378,
      "à¤ıà¤«à¤ıà¤ķ": 8379,
      "à¥Ģ?\"": 8380,
      "ĠAUS": 8381,
      "Ġà¥§à¥¬à¥«": 8382,
      "Ġà¥§à¥©à¥®": 8383,
      "Ġà¤ķà¤³à¤®à¤ķà¤°": 8384,
      "Ġ240": 8385,
      "adha": 8386,
      "Ġà¥§à¥Ńà¥¨": 8387,
      "ĠID": 8388,
      "Ġà¤ĭà¤ľ": 8389,
      "à¤¾......": 8390,
      "Ġ139": 8391,
      "à¤ıà¤ļà¤Ĩà¤°": 8392,
      "à¤ıà¤ļà¤ĵà¤¨": 8393,
      "Ġà¤Ĩà¤łà¤µà¤£à¤¹": 8394,
      "itt": 8395,
      "itya": 8396,
      "à¥ĩ!\"": 8397,
      "à¥ĩ!)": 8398,
      "ĠBi": 8399,
      "ĠBo": 8400,
      "ĠBudget": 8401,
      "icy": 8402,
      "Ġà¥¨à¥¨à¥®": 8403,
      "ĠTh": 8404,
      "Ġà¤ıà¤²à¤Ł": 8405,
      "Ġà¤ıà¤²à¤ıà¤²à¤¬": 8406,
      "Ġ175": 8407,
      "Ġà¤įà¤£": 8408,
      "ism": 8409,
      "à¥ĩ'.": 8410,
      "Ġà¤ľà¤²à¤ľ": 8411,
      "à¤Ĺà¤®à¤§à¤²": 8412,
      "à¤ĸà¤¡à¤¯": 8413,
      "Ġà¤®à¤¦à¤¨à¤²": 8414,
      "Ġà¥¨à¥¬à¥¦": 8415,
      "ĠDesh": 8416,
      "ĠDep": 8417,
      "irl": 8418,
      "ĠLocal": 8419,
      "---------": 8420,
      "à¤Ĥ?âĢĻ": 8421,
      "Ġà¥¦à¥¨": 8422,
      "Ġsu": 8423,
      "ĠKoh": 8424,
      "ĠFarm": 8425,
      "Ġà¤ıà¤®à¤Ĩà¤¯à¤Ł": 8426,
      "à¥ĢâĢ¦.": 8427,
      "Ġà¤ħà¤ľà¤¯à¤¨": 8428,
      "à¤ħà¤Ńà¤¯": 8429,
      "eld": 8430,
      "ands": 8431,
      "riend": 8432,
      "reme": 8433,
      "à¥§à¥«à¥¦": 8434,
      "Ġà¤Ĩà¤ĸà¤¡à¤¤": 8435,
      "ĠUP": 8436,
      "Ġà¥§à¥¯à¥ªà¥¦": 8437,
      "Ġà¥§à¥¯à¥ªà¥§": 8438,
      "ump": 8439,
      "ĠÂ°": 8440,
      "Ġà¤ķà¤°à¤®à¤°à¤ķà¤°": 8441,
      "Ġà¤ªà¤µà¤¨à¤°": 8442,
      "aik": 8443,
      "Ġ``": 8444,
[...]
