{
  "version": "1.0",
  "truncation": null,
  "padding": null,
  "added_tokens": [
    {
      "id": 0,
      "content": "[UNK]",
      "single_word": false,
      "lstrip": false,
      "rstrip": false,
      "normalized": false,
      "special": true
    },
    {
      "id": 1,
      "content": "[PAD]",
      "single_word": false,
      "lstrip": false,
      "rstrip": false,
      "normalized": false,
      "special": true
    },
    {
      "id": 2,
      "content": "[CLS]",
      "single_word": false,
      "lstrip": false,
      "rstrip": false,
      "normalized": false,
      "special": true
    },
    {
      "id": 3,
      "content": "[SEP]",
      "single_word": false,
      "lstrip": false,
      "rstrip": false,
      "normalized": false,
      "special": true
    },
    {
      "id": 4,
      "content": "[MASK]",
      "single_word": false,
      "lstrip": false,
      "rstrip": false,
      "normalized": false,
      "special": true
    }
  ],
  "normalizer": {
    "type": "NFC"
  },
  "pre_tokenizer": {
    "type": "Whitespace"
  },
  "post_processor": null,
  "decoder": null,
  "model": {
    "type": "BPE",
    "dropout": null,
    "unk_token": "[UNK]",
    "continuing_subword_prefix": null,
    "end_of_word_suffix": null,
    "fuse_unk": false,
    "byte_fallback": false,
    "ignore_merges": false,
    "vocab": {
      "[UNK]": 0,
      "[PAD]": 1,
      "[CLS]": 2,
      "[SEP]": 3,
      "[MASK]": 4,
      "!": 5,
      "\"": 6,
      "#": 7,
      "$": 8,
      "%": 9,
      "&": 10,
      "'": 11,
      "(": 12,
      ")": 13,
      "*": 14,
      "+": 15,
      ",": 16,
      "-": 17,
      ".": 18,
      "/": 19,
      "0": 20,
      "1": 21,
      "2": 22,
      "3": 23,
      "4": 24,
      "5": 25,
      "6": 26,
      "7": 27,
      "8": 28,
      "9": 29,
      ":": 30,
      ";": 31,
      "<": 32,
      "=": 33,
      ">": 34,
      "?": 35,
      "@": 36,
      "A": 37,
      "B": 38,
      "C": 39,
      "D": 40,
      "E": 41,
      "F": 42,
      "G": 43,
      "H": 44,
      "I": 45,
      "J": 46,
      "K": 47,
      "L": 48,
      "M": 49,
      "N": 50,
      "O": 51,
      "P": 52,
      "Q": 53,
      "R": 54,
      "S": 55,
      "T": 56,
      "U": 57,
      "V": 58,
      "W": 59,
      "X": 60,
      "Y": 61,
      "Z": 62,
      "[": 63,
      "\\": 64,
      "]": 65,
      "^": 66,
      "_": 67,
      "`": 68,
      "a": 69,
      "b": 70,
      "c": 71,
      "d": 72,
      "e": 73,
      "f": 74,
      "g": 75,
      "h": 76,
      "i": 77,
      "j": 78,
      "k": 79,
      "l": 80,
      "m": 81,
      "n": 82,
      "o": 83,
      "p": 84,
      "q": 85,
      "r": 86,
      "s": 87,
      "t": 88,
      "u": 89,
      "v": 90,
      "w": 91,
      "x": 92,
      "y": 93,
      "z": 94,
      "{": 95,
      "|": 96,
      "}": 97,
      "~": 98,
      "": 99,
      "": 100,
      "": 101,
      "": 102,
      "": 103,
      "": 104,
      "¡": 105,
      "£": 106,
      "¨": 107,
      "©": 108,
      "ª": 109,
      "­": 110,
      "®": 111,
      "°": 112,
      "´": 113,
      "·": 114,
      "º": 115,
      "»": 116,
      "¼": 117,
      "É": 118,
      "Î": 119,
      "Ñ": 120,
      "×": 121,
      "Ø": 122,
      "Þ": 123,
      "à": 124,
      "á": 125,
      "â": 126,
      "ã": 127,
      "ä": 128,
      "ç": 129,
      "è": 130,
      "é": 131,
      "ë": 132,
      "ì": 133,
      "í": 134,
      "ñ": 135,
      "ó": 136,
      "ö": 137,
      "÷": 138,
      "ø": 139,
      "ù": 140,
      "ü": 141,
      "ć": 142,
      "ě": 143,
      "ı": 144,
      "ł": 145,
      "ř": 146,
      "Š": 147,
      "š": 148,
      "ż": 149,
      "ǐ": 150,
      "́": 151,
      "͚": 152,
      "΄": 153,
      "Ι": 154,
      "Ω": 155,
      "π": 156,
      "Є": 157,
      "В": 158,
      "Д": 159,
      "Е": 160,
      "Ж": 161,
      "И": 162,
      "М": 163,
      "Н": 164,
      "Р": 165,
      "С": 166,
      "Т": 167,
      "Ч": 168,
      "а": 169,
      "б": 170,
      "в": 171,
      "г": 172,
      "д": 173,
      "е": 174,
      "з": 175,
      "и": 176,
      "к": 177,
      "л": 178,
      "м": 179,
      "н": 180,
      "о": 181,
      "п": 182,
      "р": 183,
      "с": 184,
      "т": 185,
      "у": 186,
      "ф": 187,
      "х": 188,
      "ч": 189,
      "ш": 190,
      "ъ": 191,
      "ь": 192,
      "я": 193,
      "і": 194,
      "ј": 195,
      "ћ": 196,
      "Հ": 197,
      "ա": 198,
      "ե": 199,
      "թ": 200,
      "ի": 201,
      "յ": 202,
      "ն": 203,
      "ո": 204,
      "պ": 205,
      "ս": 206,
      "տ": 207,
      "ր": 208,
      "ւ": 209,
      "ְ": 210,
      "ִ": 211,
      "ֵ": 212,
      "ּ": 213,
      "א": 214,
      "ב": 215,
      "ו": 216,
      "י": 217,
      "ל": 218,
      "ן": 219,
      "ר": 220,
      "ئ": 221,
      "ا": 222,
      "ب": 223,
      "ة": 224,
      "ت": 225,
      "ث": 226,
      "ج": 227,
      "ح": 228,
      "د": 229,
      "ر": 230,
      "س": 231,
      "ش": 232,
      "ص": 233,
      "ع": 234,
      "ف": 235,
      "ق": 236,
      "ل": 237,
      "م": 238,
      "ن": 239,
      "و": 240,
      "ي": 241,
      "َ": 242,
      "ُ": 243,
      "ِ": 244,
      "ّ": 245,
      "چ": 246,
      "ک": 247,
      "گ": 248,
      "ہ": 249,
      "ی": 250,
      "ऀ": 251,
      "ँ": 252,
      "ं": 253,
      "ः": 254,
      "अ": 255,
      "आ": 256,
      "इ": 257,
      "ई": 258,
      "उ": 259,
      "ऊ": 260,
      "ऋ": 261,
      "ऌ": 262,
      "ऍ": 263,
      "ऎ": 264,
      "ए": 265,
      "ऐ": 266,
      "ऑ": 267,
      "ऒ": 268,
      "ओ": 269,
      "औ": 270,
      "क": 271,
      "ख": 272,
      "ग": 273,
      "घ": 274,
      "ङ": 275,
      "च": 276,
      "छ": 277,
      "ज": 278,
      "झ": 279,
      "ञ": 280,
      "ट": 281,
      "ठ": 282,
      "ड": 283,
      "ढ": 284,
      "ण": 285,
      "त": 286,
      "थ": 287,
      "द": 288,
      "ध": 289,
      "न": 290,
      "ऩ": 291,
      "प": 292,
      "फ": 293,
      "ब": 294,
      "भ": 295,
      "म": 296,
      "य": 297,
      "र": 298,
      "ऱ": 299,
      "ल": 300,
      "ळ": 301,
      "ऴ": 302,
      "व": 303,
      "श": 304,
      "ष": 305,
      "स": 306,
      "ह": 307,
      "़": 308,
      "ऽ": 309,
      "ा": 310,
      "ि": 311,
      "ी": 312,
      "ु": 313,
      "ू": 314,
      "ृ": 315,
      "ॄ": 316,
      "ॅ": 317,
      "ॆ": 318,
      "े": 319,
      "ै": 320,
      "ॉ": 321,
      "ॊ": 322,
      "ो": 323,
      "ौ": 324,
      "्": 325,
      "ॐ": 326,
      "॑": 327,
      "॓": 328,
      "॔": 329,
      "ॕ": 330,
      "ॠ": 331,
      "ॢ": 332,
      "।": 333,
      "॥": 334,
      "०": 335,
      "१": 336,
      "२": 337,
      "३": 338,
      "४": 339,
      "५": 340,
      "६": 341,
      "७": 342,
      "८": 343,
      "९": 344,
      "॰": 345,
      "ॲ": 346,
      "ॽ": 347,
      "ং": 348,
      "ক": 349,
      "গ": 350,
      "ঙ": 351,
      "চ": 352,
      "জ": 353,
      "ঝ": 354,
      "ত": 355,
      "দ": 356,
      "ধ": 357,
      "ন": 358,
      "প": 359,
      "ব": 360,
      "ভ": 361,
      "ম": 362,
      "য": 363,
      "র": 364,
      "ল": 365,
      "শ": 366,
      "স": 367,
      "হ": 368,
      "়": 369,
      "া": 370,
      "ি": 371,
      "ী": 372,
      "ে": 373,
      "ো": 374,
      "্": 375,
      "ৰ": 376,
      "ਂ": 377,
      "ਦ": 378,
      "ਨ": 379,
      "ਪ": 380,
      "ਲ": 381,
      "ਹ": 382,
      "ਾ": 383,
      "ਿ": 384,
      "க": 385,
      "ங": 386,
      "ச": 387,
      "ட": 388,
      "ண": 389,
      "த": 390,
      "ன": 391,
      "ப": 392,
      "ம": 393,
      "ர": 394,
      "ல": 395,
      "ஹ": 396,
      "ா": 397,
      "ி": 398,
      "ெ": 399,
      "ே": 400,
      "ை": 401,
      "ோ": 402,
      "்": 403,
      "ం": 404,
      "ఖ": 405,
      "చ": 406,
      "ట": 407,
      "డ": 408,
      "ద": 409,
      "న": 410,
      "ప": 411,
      "బ": 412,
      "మ": 413,
      "య": 414,
      "ర": 415,
      "వ": 416,
      "శ": 417,
      "స": 418,
      "ా": 419,
      "ి": 420,
      "ు": 421,
      "ె": 422,
      "్": 423,
      "ಂ": 424,
      "ಅ": 425,
      "ಕ": 426,
      "ಗ": 427,
      "ಚ": 428,
      "ಡ": 429,
      "ಣ": 430,
      "ದ": 431,
      "ನ": 432,
      "ಬ": 433,
      "ಮ": 434,
      "ರ": 435,
      "ವ": 436,
      "ಸ": 437,
      "ಾ": 438,
      "ಿ": 439,
      "ೀ": 440,
      "ು": 441,
      "್": 442,
      "ം": 443,
      "അ": 444,
      "ക": 445,
      "ജ": 446,
      "ട": 447,
      "ണ": 448,
      "ദ": 449,
      "ന": 450,
      "പ": 451,
      "ബ": 452,
      "മ": 453,
      "യ": 454,
      "ര": 455,
      "റ": 456,
      "ല": 457,
      "വ": 458,
      "ഷ": 459,
      "സ": 460,
      "ഹ": 461,
      "ാ": 462,
      "ി": 463,
      "ീ": 464,
      "ു": 465,
      "േ": 466,
      "്": 467,
      "൦": 468,
      "ං": 469,
      "ණ": 470,
      "ද": 471,
      "ප": 472,
      "ම": 473,
      "ර": 474,
      "ස": 475,
      "හ": 476,
      "්": 477,
      "ා": 478,
      "ි": 479,
      "ේ": 480,
      "ก": 481,
      "ง": 482,
      "ช": 483,
      "ณ": 484,
      "ร": 485,
      "ล": 486,
      "ว": 487,
      "า": 488,
      "ิ": 489,
      "་": 490,
      "ད": 491,
      "ར": 492,
      "ས": 493,
      "ོ": 494,
      "ྐ": 495,
      "ក": 496,
      "ង": 497,
      "ប": 498,
      "ម": 499,
      "រ": 500,
      "ស": 501,
      "ា": 502,
      "ុ": 503,
      "ៀ": 504,
      "្": 505,
      "ễ": 506,
      "ồ": 507,
      "​": 508,
      "‌": 509,
      "‍": 510,
      "‎": 511,
      "‐": 512,
      "–": 513,
      "—": 514,
      "―": 515,
      "‘": 516,
      "’": 517,
      "“": 518,
      "”": 519,
      "„": 520,
      "†": 521,
      "‡": 522,
      "•": 523,
      "…": 524,
      "‪": 525,
      "‰": 526,
      "′": 527,
      "″": 528,
      "€": 529,
      "₹": 530,
      "№": 531,
      "™": 532,
      "←": 533,
      "↑": 534,
      "→": 535,
      "↩": 536,
      "⇨": 537,
      "−": 538,
      "⏩": 539,
      "│": 540,
      "■": 541,
      "▪": 542,
      "▲": 543,
      "►": 544,
      "◆": 545,
      "●": 546,
      "◼": 547,
      "◾": 548,
      "☆": 549,
      "☎": 550,
      "☝": 551,
      "☺": 552,
      "♥": 553,
      "♦": 554,
      "⚡": 555,
      "⚫": 556,
      "✅": 557,
      "✌": 558,
      "✍": 559,
      "✒": 560,
      "✓": 561,
      "✳": 562,
      "❇": 563,
      "❓": 564,
      "➚": 565,
      "➟": 566,
      "➡": 567,
      "⟶": 568,
      "⦁": 569,
      "ジ": 570,
      "テ": 571,
      "ビ": 572,
      "フ": 573,
      "ョ": 574,
      "レ": 575,
      "ン": 576,
      "一": 577,
      "世": 578,
      "会": 579,
      "克": 580,
      "力": 581,
      "原": 582,
      "城": 583,
      "大": 584,
      "娜": 585,
      "子": 586,
      "宗": 587,
      "山": 588,
      "島": 589,
      "州": 590,
      "広": 591,
      "式": 592,
      "所": 593,
      "拀": 594,
      "李": 595,
      "株": 596,
      "治": 597,
      "犬": 598,
      "発": 599,
      "社": 600,
      "福": 601,
      "立": 602,
      "第": 603,
      "花": 604,
      "赛": 605,
      "郑": 606,
      "鄭": 607,
      "里": 608,
      "钦": 609,
      "阿": 610,
      "電": 611,
      "順": 612,
      "顺": 613,
      "高": 614,
      "鯉": 615,
      "대": 616,
      "세": 617,
      "정": 618,
      "": 619,
      "": 620,
      "": 621,
      "ﷺ": 622,
      "️": 623,
      "﻿": 624,
      "（": 625,
      "￭": 626,
      "￰": 627,
      "￼": 628,
      "�": 629,
      "🌹": 630,
      "🍽": 631,
      "🎂": 632,
      "🎈": 633,
      "🎬": 634,
      "🏠": 635,
      "🏻": 636,
      "🏼": 637,
      "👅": 638,
      "👇": 639,
      "👉": 640,
      "👊": 641,
      "👍": 642,
      "👎": 643,
      "👏": 644,
      "💐": 645,
      "💠": 646,
      "💪": 647,
      "💰": 648,
      "💲": 649,
      "📌": 650,
      "📢": 651,
      "🔴": 652,
      "🔶": 653,
      "🗣": 654,
      "😀": 655,
      "😃": 656,
      "😉": 657,
      "😋": 658,
      "😎": 659,
      "😏": 660,
      "😐": 661,
      "😒": 662,
      "😔": 663,
      "😛": 664,
      "😜": 665,
      "😳": 666,
      "🙂": 667,
      "🙊": 668,
      "🙌": 669,
      "🙏": 670,
      "🚩": 671,
      "🚫": 672,
      "🛑": 673,
      "🥦": 674,
      "🧽": 675,
      "या": 676,
      "्या": 677,
      "ार": 678,
      "्र": 679,
      "ला": 680,
      "ना": 681,
      "हे": 682,
      "र्": 683,
      "का": 684,
      "ात": 685,
      "्य": 686,
      "ले": 687,
      "आहे": 688,
      "वा": 689,
      "च्या": 690,
      "सा": 691,
      "कर": 692,
      "ही": 693,
      "ती": 694,
      "स्": 695,
      "ने": 696,
      "मा": 697,
      "ली": 698,
      "त्या": 699,
      "चा": 700,
      "क्": 701,
      "ता": 702,
      "ून": 703,
      "ल्या": 704,
      "रा": 705,
      "प्र": 706,
      "वि": 707,
      "के": 708,
      "ची": 709,
      "पा": 710,
      "ण्या": 711,
      "चे": 712,
      "अस": 713,
      "हो": 714,
      "ते": 715,
      "हा": 716,
      "नी": 717,
      "ंत": 718,
      "वर": 719,
      "मु": 720,
      "नि": 721,
      "आण": 722,
      "कार": 723,
      "ंनी": 724,
      "आणि": 725,
      "सं": 726,
      "दि": 727,
      "दे": 728,
      "क्ष": 729,
      "हि": 730,
      "मध": 731,
      "ां": 732,
      "वे": 733,
      "त्": 734,
      "ील": 735,
      "ंग": 736,
      "्ये": 737,
      "ठी": 738,
      "म्": 739,
      "बा": 740,
      "झा": 741,
      "ंद": 742,
      "णा": 743,
      "जा": 744,
      "तर": 745,
      "मि": 746,
      "भा": 747,
      "रो": 748,
      "सु": 749,
      "ये": 750,
      "को": 751,
      "ित": 752,
      "साठी": 753,
      "मध्ये": 754,
      "्ट": 755,
      "पर": 756,
      "ळे": 757,
      "दा": 758,
      "ंच्या": 759,
      "की": 760,
      "ल्": 761,
      "ंना": 762,
      "णार": 763,
      "से": 764,
      "गा": 765,
      "शा": 766,
      "मी": 767,
      "िक": 768,
      "वी": 769,
      "व्": 770,
      "णी": 771,
      "पु": 772,
      "मो": 773,
      "ण्यात": 774,
      "रु": 775,
      "नाही": 776,
      "म्ह": 777,
      "णे": 778,
      "न्": 779,
      "लि": 780,
      "शी": 781,
      "तो": 782,
      "्री": 783,
      "आहेत": 784,
      "ंड": 785,
      "री": 786,
      "द्": 787,
      "ति": 788,
      "शि": 789,
      "ष्ट": 790,
      "एक": 791,
      "घे": 792,
      "कड": 793,
      "स्थ": 794,
      "लं": 795,
      "मुळे": 796,
      "राज": 797,
      "वार": 798,
      "दी": 799,
      "आप": 800,
      "ंब": 801,
      "टी": 802,
      "जी": 803,
      "त्र": 804,
      "पू": 805,
      "ळी": 806,
      "ळा": 807,
      "कि": 808,
      "रे": 809,
      "पो": 810,
      "तील": 811,
      "यांनी": 812,
      "जे": 813,
      "सो": 814,
      "सर": 815,
      "मे": 816,
      "लेल्या": 817,
      "सर्": 818,
      "ऱ्या": 819,
      "वर्": 820,
      "तात": 821,
      "ारा": 822,
      "धा": 823,
      "लो": 824,
      "गे": 825,
      "खा": 826,
      "ंतर": 827,
      "धी": 828,
      "डी": 829,
      "असे": 830,
      "शे": 831,
      "क्र": 832,
      "म्हण": 833,
      "श्": 834,
      "सि": 835,
      "टा": 836,
      "मार": 837,
      "..": 838,
      "ंची": 839,
      "तु": 840,
      "सी": 841,
      "होते": 842,
      "मात": 843,
      "चं": 844,
      "नंतर": 845,
      "दार": 846,
      "केली": 847,
      "दु": 848,
      "काही": 849,
      "रि": 850,
      "्यात": 851,
      "ग्र": 852,
      "जात": 853,
      "व्य": 854,
      "भार": 855,
      "द्या": 856,
      "कु": 857,
      "मान": 858,
      "चार": 859,
      "जि": 860,
      "ंचा": 861,
      "पास": 862,
      "वड": 863,
      "स्ट": 864,
      "अध": 865,
      "पर्": 866,
      "ग्": 867,
      "शक": 868,
      "यो": 869,
      "ठा": 870,
      "केले": 871,
      "रू": 872,
      "करण्या": 873,
      "रात": 874,
      "मह": 875,
      "लाग": 876,
      "गु": 877,
      "नु": 878,
      "करण्यात": 879,
      "देश": 880,
      "पूर्": 881,
      "असल्या": 882,
      "स्त": 883,
      "पी": 884,
      "दो": 885,
      "मंत": 886,
      "उप": 887,
      "यांच्या": 888,
      "पे": 889,
      "केला": 890,
      "सार": 891,
      "निर्": 892,
      "वर्ष": 893,
      "दर": 894,
      "सर्व": 895,
      "न्या": 896,
      "पण": 897,
      "क्त": 898,
      "करा": 899,
      "घा": 900,
      "दिव": 901,
      "गो": 902,
      "ंचे": 903,
      "परि": 904,
      "सांग": 905,
      "कर्": 906,
      "ंद्र": 907,
      "व्हा": 908,
      "घेत": 909,
      "यु": 910,
      "डा": 911,
      "कडे": 912,
      "होती": 913,
      "सरकार": 914,
      "आले": 915,
      "यंत": 916,
      "महा": 917,
      "सह": 918,
      "मुख": 919,
      "आता": 920,
      "आपल्या": 921,
      "ताना": 922,
      "स्था": 923,
      "प्": 924,
      "आज": 925,
      "डे": 926,
      "डि": 927,
      "गर": 928,
      "ातील": 929,
      "वाढ": 930,
      "ठे": 931,
      "होत": 932,
      "मुंब": 933,
      "काय": 934,
      "होता": 935,
      "द्ध": 936,
      "क्षा": 937,
      "र्थ": 938,
      "मुंबई": 939,
      "ष्ट्र": 940,
      "ऊन": 941,
      "बत": 942,
      "थे": 943,
      "गी": 944,
      "झाले": 945,
      "स्व": 946,
      "खे": 947,
      "टे": 948,
      "पासून": 949,
      "व्या": 950,
      "त्यामुळे": 951,
      "चि": 952,
      "मात्र": 953,
      "बो": 954,
      "मिळ": 955,
      "वारी": 956,
      "काम": 957,
      "नो": 958,
      "त्यांनी": 959,
      "जार": 960,
      "चित": 961,
      "एका": 962,
      "महि": 963,
      "त्य": 964,
      "माण": 965,
      "उत्": 966,
      "अने": 967,
      "जन": 968,
      "पड": 969,
      "असून": 970,
      "असा": 971,
      "ण्यासाठी": 972,
      "वळ": 973,
      "नं": 974,
      "त्यांच्या": 975,
      "व्ह": 976,
      "माहि": 977,
      "आली": 978,
      "घट": 979,
      "िका": 980,
      "ईल": 981,
      "पर्यंत": 982,
      "कोरो": 983,
      "दर्": 984,
      "कोरोना": 985,
      "झाली": 986,
      "लया": 987,
      "ब्": 988,
      "माहिती": 989,
      "करून": 990,
      "शन": 991,
      "अनेक": 992,
      "नस": 993,
      "बी": 994,
      "मंत्री": 995,
      "ंध": 996,
      "भाग": 997,
      "भू": 998,
      "पार": 999,
      "जिल्": 1000,
      "सुरू": 1001,
      "ष्": 1002,
      "वेळी": 1003,
      "झाला": 1004,
      "भाज": 1005,
      "सम": 1006,
      "म्हणून": 1007,
      "रुग्": 1008,
      "णाऱ्या": 1009,
      "अशी": 1010,
      "पि": 1011,
      "किं": 1012,
      "ेस": 1013,
      "आरो": 1014,
      "वात": 1015,
      "भि": 1016,
      "धार": 1017,
      "निवड": 1018,
      "तरी": 1019,
      "कडून": 1020,
      "कार्य": 1021,
      "ण्याची": 1022,
      "ंट": 1023,
      "मार्": 1024,
      "आला": 1025,
      "जो": 1026,
      "काळ": 1027,
      "त्यांना": 1028,
      "यला": 1029,
      "च्": 1030,
      "फो": 1031,
      "टो": 1032,
      "करत": 1033,
      "माग": 1034,
      "भे": 1035,
      "लोक": 1036,
      "पोलि": 1037,
      "तसे": 1038,
      "महारा": 1039,
      "दोन": 1040,
      "राह": 1041,
      "भर": 1042,
      "दाख": 1043,
      "बर": 1044,
      "मुख्य": 1045,
      "मत": 1046,
      "प्रा": 1047,
      "चाल": 1048,
      "दल": 1049,
      "२०": 1050,
      "पूर": 1051,
      "णां": 1052,
      "दिली": 1053,
      "असं": 1054,
      "पूर्ण": 1055,
      "न्हा": 1056,
      "ज्": 1057,
      "्रा": 1058,
      "ंदा": 1059,
      "पट": 1060,
      "झाल्या": 1061,
      "अशा": 1062,
      "पुढ": 1063,
      "कं": 1064,
      "समा": 1065,
      "सू": 1066,
      "आय": 1067,
      "लक्ष": 1068,
      "देख": 1069,
      "सांगित": 1070,
      "करी": 1071,
      "म्ही": 1072,
      "तसेच": 1073,
      "म्हणजे": 1074,
      "रुप": 1075,
      "वून": 1076,
      "बि": 1077,
      "यांना": 1078,
      "ध्या": 1079,
      "कोण": 1080,
      "फा": 1081,
      "सुरु": 1082,
      "शो": 1083,
      "कृ": 1084,
      "केल्या": 1085,
      "म्या": 1086,
      "हजार": 1087,
      "वाह": 1088,
      "दिस": 1089,
      "चित्र": 1090,
      "किंवा": 1091,
      "20": 1092,
      "विरो": 1093,
      "भाजप": 1094,
      "बे": 1095,
      "जय": 1096,
      "गाव": 1097,
      "विष": 1098,
      "आम": 1099,
      "देखील": 1100,
      "कांना": 1101,
      "मिळा": 1102,
      "वाट": 1103,
      "महाराष्ट्र": 1104,
      "मधील": 1105,
      "घड": 1106,
      "मृ": 1107,
      "ट्र": 1108,
      "पै": 1109,
      "्यातील": 1110,
      "म्हणा": 1111,
      "हात": 1112,
      "शिव": 1113,
      "ुन": 1114,
      "ूक": 1115,
      "ंवर": 1116,
      "फे": 1117,
      "विचार": 1118,
      "प्रति": 1119,
      "विद्या": 1120,
      "क्षे": 1121,
      "क्ती": 1122,
      "डॉ": 1123,
      "राज्य": 1124,
      "पत्र": 1125,
      "टर": 1126,
      "मला": 1127,
      "नात": 1128,
      "बाबत": 1129,
      "व्यव": 1130,
      "वले": 1131,
      "न्य": 1132,
      "क्षण": 1133,
      "आपण": 1134,
      "कमी": 1135,
      "बु": 1136,
      "येत": 1137,
      "ग्रा": 1138,
      "निवडण": 1139,
      "नाग": 1140,
      "होणार": 1141,
      "मन": 1142,
      "बंद": 1143,
      "शह": 1144,
      "करण": 1145,
      "म्यान": 1146,
      "अभि": 1147,
      "पोलिसा": 1148,
      "मद": 1149,
      "माझ": 1150,
      "स्थि": 1151,
      "ण्याचा": 1152,
      "ळ्या": 1153,
      "...": 1154,
      "ख्या": 1155,
      "ज्या": 1156,
      "दरम्यान": 1157,
      "शेत": 1158,
      "काँ": 1159,
      "पोली": 1160,
      "िया": 1161,
      "काढ": 1162,
      "ध्य": 1163,
      "स्ता": 1164,
      "प्रकार": 1165,
      "कॉ": 1166,
      "वास": 1167,
      "नुसार": 1168,
      "शास": 1169,
      "बंध": 1170,
      "निर्ण": 1171,
      "लाख": 1172,
      "ग्रेस": 1173,
      "पहि": 1174,
      "चर्": 1175,
      "यात": 1176,
      "कारण": 1177,
      "काँग्रेस": 1178,
      "िकार": 1179,
      "पोलीस": 1180,
      "बस": 1181,
      "वेग": 1182,
      "ांना": 1183,
      "नवी": 1184,
      "लाव": 1185,
      "मू": 1186,
      "असलेल्या": 1187,
      "ंगा": 1188,
      "नगर": 1189,
      "तया": 1190,
      "सोबत": 1191,
      "मोर": 1192,
      "ांच्या": 1193,
      "अर": 1194,
      "फि": 1195,
      "योग": 1196,
      "डो": 1197,
      "राष्ट्र": 1198,
      "प्रत": 1199,
      "त्यात": 1200,
      "नाव": 1201,
      "योज": 1202,
      "आर": 1203,
      "ंमध्ये": 1204,
      "तीन": 1205,
      "ंक": 1206,
      "येथे": 1207,
      "असेल": 1208,
      "वापर": 1209,
      "जु": 1210,
      "सात": 1211,
      "दिला": 1212,
      "बोल": 1213,
      "गत": 1214,
      "मरा": 1215,
      "स्थिती": 1216,
      "चौ": 1217,
      "पाट": 1218,
      "अधिक": 1219,
      "्रीय": 1220,
      "येथ": 1221,
      "त्याच्या": 1222,
      "एम": 1223,
      "केंद्र": 1224,
      "पूर्वी": 1225,
      "असते": 1226,
      "टि": 1227,
      "त्वा": 1228,
      "दिवसा": 1229,
      "ठर": 1230,
      "दिले": 1231,
      "खी": 1232,
      "द्य": 1233,
      "निक": 1234,
      "एस": 1235,
      "गेल्या": 1236,
      "समोर": 1237,
      "वाय": 1238,
      "ष्टी": 1239,
      "ोल": 1240,
      "विरोध": 1241,
      "करणार": 1242,
      "प्रश्": 1243,
      "वाद": 1244,
      "भारती": 1245,
      "ज्ञ": 1246,
      "जिल्ह": 1247,
      "सध्या": 1248,
      "कंप": 1249,
      "चांग": 1250,
      "ूर": 1251,
      "ंबर": 1252,
      "साय": 1253,
      "ल्ली": 1254,
      "करे": 1255,
      "पालि": 1256,
      "ंच": 1257,
      "पाह": 1258,
      "वादी": 1259,
      "धान": 1260,
      "यत्": 1261,
      "वृ": 1262,
      "न्स": 1263,
      "जग": 1264,
      "दुस": 1265,
      "व्हि": 1266,
      "कीय": 1267,
      "वाई": 1268,
      "सांगितले": 1269,
      "जर": 1270,
      "पक्ष": 1271,
      "यावर": 1272,
      "घात": 1273,
      "करण्यासाठी": 1274,
      "स्वत": 1275,
      "यी": 1276,
      "प्रयत्": 1277,
      "त्ता": 1278,
      "वै": 1279,
      "घटना": 1280,
      "त्याला": 1281,
      "ब्र": 1282,
      "प्रे": 1283,
      "ूप": 1284,
      "येणार": 1285,
      "शु": 1286,
      "विका": 1287,
      "ठेव": 1288,
      "लु": 1289,
      "वेश": 1290,
      "टक्": 1291,
      "निर्णय": 1292,
      "येथील": 1293,
      "दाखल": 1294,
      "शिवसे": 1295,
      "भी": 1296,
      "जून": 1297,
      "पाठ": 1298,
      "पुर": 1299,
      "म्हट": 1300,
      "विध": 1301,
      "ठिका": 1302,
      "‍या": 1303,
      "नेत": 1304,
      "स्प": 1305,
      "मोदी": 1306,
      "त्रा": 1307,
      "पेक्षा": 1308,
      "ट्": 1309,
      "बां": 1310,
      "टक": 1311,
      "जवळ": 1312,
      "ुकी": 1313,
      "लेले": 1314,
      "असल्याचे": 1315,
      "दिवस": 1316,
      "घ्या": 1317,
      "भारतीय": 1318,
      "देण्यात": 1319,
      "त्त": 1320,
      "आल्या": 1321,
      "आठ": 1322,
      "मोठ": 1323,
      "अनु": 1324,
      "तं": 1325,
      "त्व": 1326,
      "भाव": 1327,
      "गां": 1328,
      "बन": 1329,
      "यांची": 1330,
      "तीने": 1331,
      "खास": 1332,
      "पुन्हा": 1333,
      "कां": 1334,
      "दिल्ली": 1335,
      "लॉ": 1336,
      "श्य": 1337,
      "यक": 1338,
      "घो": 1339,
      "कल्": 1340,
      "अर्थ": 1341,
      "हेर": 1342,
      "प्रमाण": 1343,
      "प्रयत्न": 1344,
      "अप": 1345,
      "क्या": 1346,
      "साम": 1347,
      "देशा": 1348,
      "कोटी": 1349,
      "म्हणाले": 1350,
      "पाहि": 1351,
      "म्हा": 1352,
      "झालेल्या": 1353,
      "मंड": 1354,
      "वन": 1355,
      "केलं": 1356,
      "वत": 1357,
      "हवा": 1358,
      "बाब": 1359,
      "पाटील": 1360,
      "मृत्य": 1361,
      "त्यानंतर": 1362,
      "शक्य": 1363,
      "महिला": 1364,
      "च्छ": 1365,
      "पवार": 1366,
      "पाल": 1367,
      "वली": 1368,
      "कांनी": 1369,
      "तयार": 1370,
      "पणे": 1371,
      "जिल्हा": 1372,
      "गि": 1373,
      "विक": 1374,
      "हु": 1375,
      "मुख्यमंत्री": 1376,
      "ारी": 1377,
      "भारता": 1378,
      "असताना": 1379,
      "बॉ": 1380,
      "श्री": 1381,
      "पुढे": 1382,
      "प्रत्ये": 1383,
      "पात": 1384,
      "िकारी": 1385,
      "अर्": 1386,
      "आम्ही": 1387,
      "कॅ": 1388,
      "घेऊन": 1389,
      "था": 1390,
      "न्याया": 1391,
      "श्र": 1392,
      "परी": 1393,
      "वण": 1394,
      "रण": 1395,
      "मं": 1396,
      "मागणी": 1397,
      "ंतु": 1398,
      "व्यक्ती": 1399,
      "सग": 1400,
      "लेला": 1401,
      "१९": 1402,
      "वरील": 1403,
      "काळी": 1404,
      "बाहेर": 1405,
      "अध्य": 1406,
      "वरून": 1407,
      "ठाकरे": 1408,
      "ांची": 1409,
      "पाणी": 1410,
      "मुला": 1411,
      "होतं": 1412,
      "ल्याने": 1413,
      "वर्षी": 1414,
      "अव": 1415,
      "द्दल": 1416,
      "आयु": 1417,
      "इतर": 1418,
      "सर्वा": 1419,
      "धो": 1420,
      "मंत्र": 1421,
      "आव": 1422,
      "मिती": 1423,
      "विश्": 1424,
      "लयात": 1425,
      "मृत्यू": 1426,
      "यावेळी": 1427,
      "प्रमा": 1428,
      "क्रि": 1429,
      "नाहीत": 1430,
      "जास्त": 1431,
      "तुम": 1432,
      "ठिकाणी": 1433,
      "क्स": 1434,
      "वं": 1435,
      "प्रकर": 1436,
      "त्याने": 1437,
      "निय": 1438,
      "वान": 1439,
      "जाते": 1440,
      "भाष": 1441,
      "परंतु": 1442,
      "भागा": 1443,
      "निर्माण": 1444,
      "अंत": 1445,
      "खाली": 1446,
      "इत": 1447,
      "ण्याचे": 1448,
      "विधा": 1449,
      "श्यक": 1450,
      "क्रम": 1451,
      "बँ": 1452,
      "तेव्हा": 1453,
      "करू": 1454,
      "विद्यार्थ": 1455,
      "टु": 1456,
      "हार": 1457,
      "व्हे": 1458,
      "माझ्या": 1459,
      "फु": 1460,
      "उत्तर": 1461,
      "पती": 1462,
      "सुर": 1463,
      "पाव": 1464,
      "म्हाला": 1465,
      "मान्य": 1466,
      "प्रश्न": 1467,
      "अध्यक्ष": 1468,
      "वेळ": 1469,
      "रुपये": 1470,
      "सोड": 1471,
      "घेतला": 1472,
      "नेते": 1473,
      "पाच": 1474,
      "करणे": 1475,
      "न्न": 1476,
      "यांचा": 1477,
      "कधी": 1478,
      "कर्म": 1479,
      "रुग्णा": 1480,
      "जू": 1481,
      "खूप": 1482,
      "आधी": 1483,
      "दान": 1484,
      "१०": 1485,
      "बद्दल": 1486,
      "केट": 1487,
      "संख्या": 1488,
      "कंपनी": 1489,
      "भूमि": 1490,
      "लेली": 1491,
      "ंत्र": 1492,
      "टक्के": 1493,
      "आरोग": 1494,
      "राष्ट्रवादी": 1495,
      "पोलिसांनी": 1496,
      "चर्चा": 1497,
      "खो": 1498,
      "विविध": 1499,
      "होईल": 1500,
      "्टी": 1501,
      "रोजी": 1502,
      "क्रमा": 1503,
      "सुरुवात": 1504,
      "नव्ह": 1505,
      "चित्रपट": 1506,
      "करता": 1507,
      "राम": 1508,
      "याची": 1509,
      "शेष": 1510,
      "रोबर": 1511,
      "मोठ्या": 1512,
      "शोध": 1513,
      "पंत": 1514,
      "प्रि": 1515,
      "्थ": 1516,
      "दुर्": 1517,
      "द्धा": 1518,
      "यर": 1519,
      "ण्यास": 1520,
      "बै": 1521,
      "महत्": 1522,
      "गड": 1523,
      "संबंध": 1524,
      "बदल": 1525,
      "शल": 1526,
      "स्थाप": 1527,
      "याचा": 1528,
      "व्यक्त": 1529,
      "अड": 1530,
      "यन": 1531,
      "कल": 1532,
      "शासना": 1533,
      "च्च": 1534,
      "कला": 1535,
      "णं": 1536,
      "ज्ञा": 1537,
      "मदत": 1538,
      "तुम्ही": 1539,
      "माध्य": 1540,
      "तून": 1541,
      "जाणार": 1542,
      "तालु": 1543,
      "नला": 1544,
      "असतात": 1545,
      "पुणे": 1546,
      "काळात": 1547,
      "बाद": 1548,
      "स्थित": 1549,
      "कऱ्या": 1550,
      "सरकारने": 1551,
      "नुक": 1552,
      "असल्याने": 1553,
      "मग": 1554,
      "नागरि": 1555,
      "विकास": 1556,
      "खु": 1557,
      "दर्श": 1558,
      "र्स": 1559,
      "कामा": 1560,
      "ष्ट्रीय": 1561,
      "गार": 1562,
      "फार": 1563,
      "प्रमाणे": 1564,
      "त्यांची": 1565,
      "त्याच": 1566,
      "वर्षा": 1567,
      "पद": 1568,
      "ंसाठी": 1569,
      "राष्ट्रीय": 1570,
      "विशेष": 1571,
      "आवश्यक": 1572,
      "देत": 1573,
      "खात": 1574,
      "गृ": 1575,
      "मधून": 1576,
      "शिक": 1577,
      "यांचे": 1578,
      "वाज": 1579,
      "कडा": 1580,
      "घर": 1581,
      "कुटु": 1582,
      "राव": 1583,
      "देशात": 1584,
      "पहिल्या": 1585,
      "ढा": 1586,
      "बांध": 1587,
      "गेले": 1588,
      "घेतली": 1589,
      "पदा": 1590,
      "्यु": 1591,
      "खेळ": 1592,
      "बल": 1593,
      "स्पर्": 1594,
      "आमदार": 1595,
      "सहा": 1596,
      "ांचा": 1597,
      "त्याचा": 1598,
      "इंड": 1599,
      "बरोबर": 1600,
      "तीत": 1601,
      "खरे": 1602,
      "केत": 1603,
      "यासाठी": 1604,
      "पंतप्र": 1605,
      "अति": 1606,
      "होऊ": 1607,
      "शिवाय": 1608,
      "अं": 1609,
      "केलेल्या": 1610,
      "तिच्या": 1611,
      "क्षेत्र": 1612,
      "नवीन": 1613,
      "प्रत्येक": 1614,
      "राज्या": 1615,
      "ष्ठ": 1616,
      "न्ही": 1617,
      "रस्": 1618,
      "परा": 1619,
      "कांच्या": 1620,
      "00": 1621,
      "क्षक": 1622,
      "पक्षा": 1623,
      "पैकी": 1624,
      "महापालि": 1625,
      "थो": 1626,
      "कम": 1627,
      "रातील": 1628,
      "ंदोल": 1629,
      "यश": 1630,
      "करण्याची": 1631,
      "लव": 1632,
      "अमे": 1633,
      "आंदोल": 1634,
      "तपास": 1635,
      "असतो": 1636,
      "निवडणुकी": 1637,
      "होतो": 1638,
      "हर": 1639,
      "भारतात": 1640,
      "कशी": 1641,
      "हीर": 1642,
      "खर": 1643,
      "कारवाई": 1644,
      "पाय": 1645,
      "रुग्ण": 1646,
      "मार्ग": 1647,
      "दर्भ": 1648,
      "बैठ": 1649,
      "वू": 1650,
      "चो": 1651,
      "ब्ध": 1652,
      "वला": 1653,
      "्रे": 1654,
      "साध": 1655,
      "नंद": 1656,
      "ल्ला": 1657,
      "कार्या": 1658,
      "भो": 1659,
      "विभागा": 1660,
      "र्ट": 1661,
      "ण्याच्या": 1662,
      "माल": 1663,
      "स्त्र": 1664,
      "रुग्णां": 1665,
      "केवळ": 1666,
      "उपल": 1667,
      "ल्वे": 1668,
      "स्पष्ट": 1669,
      "उमे": 1670,
      "रेल्वे": 1671,
      "ड्या": 1672,
      "उपलब्ध": 1673,
      "फोटो": 1674,
      "हॉ": 1675,
      "नोंद": 1676,
      "पाद": 1677,
      "शेतकऱ्या": 1678,
      "यामुळे": 1679,
      "विरोधात": 1680,
      "कल्प": 1681,
      "वाच": 1682,
      "पार्": 1683,
      "भव": 1684,
      "संघ": 1685,
      "हिंद": 1686,
      "रंग": 1687,
      "स्थान": 1688,
      "शिक्षण": 1689,
      "लेख": 1690,
      "माजी": 1691,
      "तरु": 1692,
      "ंडे": 1693,
      "राज्यात": 1694,
      "परिस्थिती": 1695,
      "करो": 1696,
      "स्थे": 1697,
      "सिद्ध": 1698,
      "कोणत्या": 1699,
      "काल": 1700,
      "सद": 1701,
      "ल्यानंतर": 1702,
      "घाल": 1703,
      "परिष": 1704,
      "यंत्र": 1705,
      "ूण": 1706,
      "येईल": 1707,
      "आरोग्य": 1708,
      "टाक": 1709,
      "निधी": 1710,
      "जीव": 1711,
      "सिने": 1712,
      "धु": 1713,
      "त्यांचे": 1714,
      "परिसर": 1715,
      "फक्त": 1716,
      "प्त": 1717,
      "कळ": 1718,
      "ह्या": 1719,
      "य़": 1720,
      "पावसा": 1721,
      "आई": 1722,
      "कट": 1723,
      "उमेद": 1724,
      "उपस्थित": 1725,
      "जाहीर": 1726,
      "शक्यता": 1727,
      "राहि": 1728,
      "डू": 1729,
      "मॅ": 1730,
      "यचे": 1731,
      "पाहिजे": 1732,
      "फोन": 1733,
      "आरोप": 1734,
      "भागात": 1735,
      "त्यावर": 1736,
      "भेट": 1737,
      "व्ही": 1738,
      "रात्री": 1739,
      "दोन्ही": 1740,
      "कारा": 1741,
      "मराठी": 1742,
      "समिती": 1743,
      "करताना": 1744,
      "पंतप्रधान": 1745,
      "त्याची": 1746,
      "बॅ": 1747,
      "स्वी": 1748,
      "वाचा": 1749,
      "तू": 1750,
      "शिवसेने": 1751,
      "मुली": 1752,
      "करण्याचा": 1753,
      "योजना": 1754,
      "आर्थ": 1755,
      "साहे": 1756,
      "मध्य": 1757,
      "एन": 1758,
      "महिन्या": 1759,
      "संघा": 1760,
      "र्या": 1761,
      "घोष": 1762,
      "आलं": 1763,
      "घटने": 1764,
      "गोष्टी": 1765,
      "19": 1766,
      "अभ": 1767,
      "णारे": 1768,
      "्म": 1769,
      "परिणा": 1770,
      "ावर": 1771,
      "ग्राम": 1772,
      "ळून": 1773,
      "म्हटले": 1774,
      "पद्ध": 1775,
      "००": 1776,
      "ांचे": 1777,
      "फाय": 1778,
      "देव": 1779,
      "आर्थिक": 1780,
      "अधिकारी": 1781,
      "र्म": 1782,
      "विजय": 1783,
      "याबाबत": 1784,
      "मोठा": 1785,
      "प्रमाणात": 1786,
      "संप": 1787,
      "महत्त्वा": 1788,
      "सोशल": 1789,
      "गर्": 1790,
      "पणा": 1791,
      "प्रमुख": 1792,
      "पाकि": 1793,
      "शत": 1794,
      "एखा": 1795,
      "दृ": 1796,
      "गं": 1797,
      "त्ती": 1798,
      "संदर्भ": 1799,
      "योग्य": 1800,
      "गांधी": 1801,
      "लग्": 1802,
      "वारे": 1803,
      "न्यू": 1804,
      "सुद्धा": 1805,
      "--": 1806,
      "इन": 1807,
      "त्यांचा": 1808,
      "ंचं": 1809,
      "सिं": 1810,
      "सेवा": 1811,
      "सभा": 1812,
      "ांमध्ये": 1813,
      "आघा": 1814,
      "मांड": 1815,
      "ंबा": 1816,
      "भूमिका": 1817,
      "स्या": 1818,
      "भारत": 1819,
      "कात": 1820,
      "स्वा": 1821,
      "सिंग": 1822,
      "आरोपी": 1823,
      "किती": 1824,
      "घरी": 1825,
      "विद्यार्थ्या": 1826,
      "जाण": 1827,
      "करतात": 1828,
      "करुन": 1829,
      "घरा": 1830,
      "ातून": 1831,
      "आणखी": 1832,
      "खर्": 1833,
      "ताप": 1834,
      "तुम्हाला": 1835,
      "क्का": 1836,
      "ओळ": 1837,
      "आघाडी": 1838,
      "आत्": 1839,
      "शकते": 1840,
      "आपल्याला": 1841,
      "नये": 1842,
      "आढ": 1843,
      "बाजार": 1844,
      "राजकीय": 1845,
      "गण": 1846,
      "हून": 1847,
      "नाथ": 1848,
      "्‍या": 1849,
      "हान": 1850,
      "आलेल्या": 1851,
      "नव": 1852,
      "पं": 1853,
      "मै": 1854,
      "बहु": 1855,
      "स्टे": 1856,
      "सर्वात": 1857,
      "द्र": 1858,
      "्ड": 1859,
      "वेत": 1860,
      "बाजू": 1861,
      "अमेरि": 1862,
      "मंदि": 1863,
      "नाच्या": 1864,
      "स्तान": 1865,
      "करीत": 1866,
      "मंत्र्या": 1867,
      "एकूण": 1868,
      "तक्र": 1869,
      "भूमी": 1870,
      "राज्यातील": 1871,
      "२०१": 1872,
      "फड": 1873,
      "प्रकरणी": 1874,
      "करणाऱ्या": 1875,
      "एल": 1876,
      "त्याचे": 1877,
      "नावा": 1878,
      "अटक": 1879,
      "ुल": 1880,
      "न्यायालया": 1881,
      "दिसत": 1882,
      "मीडि": 1883,
      "ईन": 1884,
      "शकतो": 1885,
      "फर": 1886,
      "दारी": 1887,
      "परत": 1888,
      "संपूर्ण": 1889,
      "ट्या": 1890,
      "क्षित": 1891,
      "क्ट": 1892,
      "झो": 1893,
      "उद्ध": 1894,
      "10": 1895,
      "जण": 1896,
      "मतदार": 1897,
      "सन": 1898,
      "दला": 1899,
      "शर": 1900,
      "शांत": 1901,
      "छा": 1902,
      "द्यो": 1903,
      "साहेब": 1904,
      "नेह": 1905,
      "कुटुंब": 1906,
      "ध्यक्ष": 1907,
      "याच्या": 1908,
      "दिवशी": 1909,
      "एकदा": 1910,
      "वाहन": 1911,
      "टेल": 1912,
      "मागे": 1913,
      "प्रवा": 1914,
      "ऑक्": 1915,
      "धर": 1916,
      "वढ": 1917,
      "कौ": 1918,
      "ंडी": 1919,
      "जित": 1920,
      "वण्यात": 1921,
      "वक": 1922,
      "मुद्": 1923,
      "इंग": 1924,
      "पॉ": 1925,
      "असता": 1926,
      "लवकर": 1927,
      "झालं": 1928,
      "लक्षात": 1929,
      "चणी": 1930,
      "पर्या": 1931,
      "िकाऱ्या": 1932,
      "अभ्या": 1933,
      "नावर": 1934,
      "काश": 1935,
      "स्क": 1936,
      "मोठी": 1937,
      "झे": 1938,
      "नव्या": 1939,
      "चंद्र": 1940,
      "पोहो": 1941,
      "तुमच्या": 1942,
      "तिला": 1943,
      "सकाळी": 1944,
      "स्वतः": 1945,
      "लॅ": 1946,
      "असल्याची": 1947,
      "चना": 1948,
      "गेली": 1949,
      "विधानस": 1950,
      "फी": 1951,
      "गरज": 1952,
      "तालुक": 1953,
      "सचि": 1954,
      "यची": 1955,
      "ओळख": 1956,
      "मातून": 1957,
      "जातो": 1958,
      "णारा": 1959,
      "वीस": 1960,
      "दुसऱ्या": 1961,
      "याच": 1962,
      "खेळा": 1963,
      "नाचा": 1964,
      "क्षणा": 1965,
      "जागा": 1966,
      "िता": 1967,
      "खान": 1968,
      "समावेश": 1969,
      "खरेदी": 1970,
      "कुमार": 1971,
      "कार्यकर्": 1972,
      "ळ्यात": 1973,
      "नसल्या": 1974,
      "शय": 1975,
      "द्वारे": 1976,
      "आपले": 1977,
      "चारा": 1978,
      "शब्": 1979,
      "र्ड": 1980,
      "मालि": 1981,
      "कृती": 1982,
      "ल्ड": 1983,
      "ंडा": 1984,
      "सिंह": 1985,
      "मुल": 1986,
      "भागी": 1987,
      "पोलिस": 1988,
      "उद्धव": 1989,
      "षी": 1990,
      "बात": 1991,
      "आधार": 1992,
      "नरे": 1993,
      "मंग": 1994,
      "जणां": 1995,
      "मिक": 1996,
      "लय": 1997,
      "भु": 1998,
      "केच्या": 1999,
      "घरात": 2000,
      "प्रवेश": 2001,
      "जिक": 2002,
      "सै": 2003,
      "्व": 2004,
      "मल": 2005,
      "),": 2006,
      "प्रकरण": 2007,
      "णारी": 2008,
      "गेला": 2009,
      "ंका": 2010,
      "जबाब": 2011,
      "र्गत": 2012,
      "टका": 2013,
      "परिणाम": 2014,
      "जन्": 2015,
      "पॅ": 2016,
      "देशातील": 2017,
      "दिवसां": 2018,
      "पोहोच": 2019,
      "अॅ": 2020,
      "ऑनला": 2021,
      "वर्षां": 2022,
      "मित": 2023,
      "लागले": 2024,
      "आपली": 2025,
      "क्रिकेट": 2026,
      "डिओ": 2027,
      "थां": 2028,
      "चौकशी": 2029,
      "वय": 2030,
      "धावा": 2031,
      "संत": 2032,
      "सान": 2033,
      "शेव": 2034,
      "१५": 2035,
      "मता": 2036,
      "धे": 2037,
      "आनंद": 2038,
      "लढ": 2039,
      "राजे": 2040,
      "संजय": 2041,
      "व्हायर": 2042,
      "चीन": 2043,
      "उमेदवार": 2044,
      "निवडणूक": 2045,
      "नारा": 2046,
      "पाऊ": 2047,
      "लहान": 2048,
      "भरात": 2049,
      "्यू": 2050,
      "होत्या": 2051,
      "पैसे": 2052,
      "लॉकडा": 2053,
      "याला": 2054,
      "धिक": 2055,
      "दू": 2056,
      "ट्स": 2057,
      "दूर": 2058,
      "ंदे": 2059,
      "श्व": 2060,
      "बघ": 2061,
      "सिक": 2062,
      "अन": 2063,
      "समज": 2064,
      "सत्ता": 2065,
      "लोकांना": 2066,
      "यामध्ये": 2067,
      "गिरी": 2068,
      "चल": 2069,
      "उघड": 2070,
      "पथ": 2071,
      "गुन्हा": 2072,
      "प्ट": 2073,
      "शिवसेना": 2074,
      "म्हटलं": 2075,
      "नामा": 2076,
      "बळ": 2077,
      "अजून": 2078,
      "उपचार": 2079,
      "कांची": 2080,
      "नरेंद्र": 2081,
      "लसी": 2082,
      "हित": 2083,
      "लै": 2084,
      "करावी": 2085,
      "खासदार": 2086,
      "विषयी": 2087,
      "ंदाज": 2088,
      "वेळा": 2089,
      "कोणत्याही": 2090,
      "संदर्भात": 2091,
      "ंज": 2092,
      "शेतकरी": 2093,
      "तिक": 2094,
      "फडण": 2095,
      "अन्य": 2096,
      "मती": 2097,
      "टल": 2098,
      "पुढील": 2099,
      "खड": 2100,
      "र्मा": 2101,
      "टीम": 2102,
      "केंद": 2103,
      "माध्यमातून": 2104,
      "जिल्ह्यातील": 2105,
      "गदी": 2106,
      "आपला": 2107,
      "उत्पाद": 2108,
      "सामा": 2109,
      "विरु": 2110,
      "करतो": 2111,
      "षण": 2112,
      "ट्वि": 2113,
      "दिलेल्या": 2114,
      "युक्त": 2115,
      "खर्च": 2116,
      "बंदी": 2117,
      "जाईल": 2118,
      "करणा": 2119,
      "ठो": 2120,
      "पत्": 2121,
      "सोम": 2122,
      "प्रशासना": 2123,
      "येते": 2124,
      "धन": 2125,
      "करावा": 2126,
      "सांगितलं": 2127,
      "रंगा": 2128,
      "संधी": 2129,
      "करोना": 2130,
      "सारख्या": 2131,
      "गुन्": 2132,
      "जातात": 2133,
      "an": 2134,
      "असल्याचं": 2135,
      "रोज": 2136,
      "पाहा": 2137,
      "आमच्या": 2138,
      "घेण्यात": 2139,
      "15": 2140,
      "ऑफ": 2141,
      "वृत्त": 2142,
      "उद्": 2143,
      "देशी": 2144,
      "वेद": 2145,
      "दीप": 2146,
      "शकतात": 2147,
      "टन": 2148,
      "याचे": 2149,
      "जिल्ह्यात": 2150,
      "उद्यो": 2151,
      "विश्वास": 2152,
      "अगदी": 2153,
      "ंटर": 2154,
      "यचा": 2155,
      "आठवड": 2156,
      "नेहमी": 2157,
      "टीका": 2158,
      "लिहि": 2159,
      "घेतले": 2160,
      "पत्रकार": 2161,
      "अखे": 2162,
      "विरोधी": 2163,
      "मारे": 2164,
      "घोषणा": 2165,
      "कायम": 2166,
      "मेंट": 2167,
      "मिळत": 2168,
      "शरद": 2169,
      "विरुद्ध": 2170,
      "शेअर": 2171,
      "हन": 2172,
      "होऊन": 2173,
      "क्टर": 2174,
      "ग्राह": 2175,
      "गाडी": 2176,
      "जेव्हा": 2177,
      "यत": 2178,
      "राहुल": 2179,
      "आयुष": 2180,
      "रवि": 2181,
      "संबंधित": 2182,
      "अर्ज": 2183,
      "पाकिस्तान": 2184,
      "प्रो": 2185,
      "सरा": 2186,
      "जाने": 2187,
      "ष्ण": 2188,
      "संस्था": 2189,
      "कर्मचा": 2190,
      "ताच": 2191,
      "स्य": 2192,
      "त्यासाठी": 2193,
      "ंदर": 2194,
      "सल": 2195,
      "नाला": 2196,
      "पुरव": 2197,
      "गेल": 2198,
      "काला": 2199,
      "मुंबईत": 2200,
      "एकत्र": 2201,
      "गुरु": 2202,
      "अ‍": 2203,
      "शरी": 2204,
      "जिंक": 2205,
      "सर्ग": 2206,
      "मार्गा": 2207,
      "द्द": 2208,
      "दिवा": 2209,
      "केंद्रीय": 2210,
      "अ‍ॅ": 2211,
      "++": 2212,
      "भीर": 2213,
      "आदेश": 2214,
      "दहा": 2215,
      "त्यावेळी": 2216,
      "कुठ": 2217,
      "गंभीर": 2218,
      "बरे": 2219,
      "सर्वो": 2220,
      "वाल": 2221,
      "आयो": 2222,
      "स्ती": 2223,
      "शहरा": 2224,
      "हाय": 2225,
      "जोर": 2226,
      "प्रदेश": 2227,
      "सिनेमा": 2228,
      "बाध": 2229,
      "अभ्यास": 2230,
      "झि": 2231,
      "करण्याचे": 2232,
      "हळ": 2233,
      "वॉ": 2234,
      "सत": 2235,
      "क्रिया": 2236,
      "गृह": 2237,
      "बैठकी": 2238,
      "अनि": 2239,
      "फॉ": 2240,
      "पदार": 2241,
      "मिळाली": 2242,
      "कर्ज": 2243,
      "सामना": 2244,
      "कर्मचार": 2245,
      "प्रत्य": 2246,
      "दिल्या": 2247,
      "फ्": 2248,
      "अधिकाऱ्या": 2249,
      "सामान्य": 2250,
      "प्प": 2251,
      "खंड": 2252,
      "ळं": 2253,
      "स्कार": 2254,
      "फडणवीस": 2255,
      "in": 2256,
      "लागली": 2257,
      "उच्च": 2258,
      "धक्का": 2259,
      "पटा": 2260,
      "नेम": 2261,
      "कोणी": 2262,
      "वानगी": 2263,
      "चर": 2264,
      "पंचा": 2265,
      "याने": 2266,
      "तम": 2267,
      "वाडी": 2268,
      "खेळाडू": 2269,
      "ar": 2270,
      "साद": 2271,
      "सेल": 2272,
      "शकता": 2273,
      "जाऊ": 2274,
      "दोघ": 2275,
      "मंडळा": 2276,
      "परिसरात": 2277,
      "लागला": 2278,
      "सव": 2279,
      "१२": 2280,
      "अहवा": 2281,
      "गै": 2282,
      "लागेल": 2283,
      "दर्शन": 2284,
      "विभाग": 2285,
      "रक्": 2286,
      "जल": 2287,
      "जरा": 2288,
      "मार्च": 2289,
      "धिकारी": 2290,
      "सौ": 2291,
      "तिहा": 2292,
      "काने": 2293,
      "भूमीवर": 2294,
      "बार": 2295,
      "निमि": 2296,
      "प्रथ": 2297,
      "वंत": 2298,
      "सभे": 2299,
      "इच्छ": 2300,
      "गुंत": 2301,
      "औष": 2302,
      "थांब": 2303,
      "ल्स": 2304,
      "कण": 2305,
      "वणूक": 2306,
      "आतापर्यंत": 2307,
      "स्वर": 2308,
      "मित्र": 2309,
      "रुग्णालयात": 2310,
      "प्रसिद्ध": 2311,
      "लस": 2312,
      "णाला": 2313,
      "भाजपा": 2314,
      "क्की": 2315,
      "12": 2316,
      "नाची": 2317,
      "जोड": 2318,
      "यां": 2319,
      "इंडिया": 2320,
      "रावर": 2321,
      "बाळा": 2322,
      "ळेल": 2323,
      "दायक": 2324,
      "ल्यावर": 2325,
      "तिने": 2326,
      "नर": 2327,
      "प्रवास": 2328,
      "पीसी": 2329,
      "लॉकडाऊन": 2330,
      "इं": 2331,
      "दम": 2332,
      "यचं": 2333,
      "प्रकाश": 2334,
      "पारी": 2335,
      "सामाजिक": 2336,
      "नुकसान": 2337,
      "आहोत": 2338,
      "परवानगी": 2339,
      "काळजी": 2340,
      "लागू": 2341,
      "पार्श्व": 2342,
      "==": 2343,
      "यं": 2344,
      "म्प": 2345,
      "मागील": 2346,
      "य़ा": 2347,
      "यू": 2348,
      "आवड": 2349,
      "फल": 2350,
      "सगळ्या": 2351,
      "तालुक्यातील": 2352,
      "पत्नी": 2353,
      "पूर्व": 2354,
      "नेत्री": 2355,
      "कारी": 2356,
      "करावे": 2357,
      "तिथे": 2358,
      "वातावर": 2359,
      "पिं": 2360,
      "थी": 2361,
      "बाई": 2362,
      "अभिनेत्री": 2363,
      "कंपन्या": 2364,
      "नाशिक": 2365,
      "आढळ": 2366,
      "तक्रार": 2367,
      "शब्द": 2368,
      "शाळे": 2369,
      "जनते": 2370,
      "३०": 2371,
      "ांवर": 2372,
      "न्यात": 2373,
      "राब": 2374,
      "ट्रे": 2375,
      "दारा": 2376,
      "लंड": 2377,
      "तसं": 2378,
      "ँड": 2379,
      "कर्मचाऱ्या": 2380,
      "अत्य": 2381,
      "साई": 2382,
      "स्पर्धे": 2383,
      "प्रिय": 2384,
      "अखेर": 2385,
      "आंदोलन": 2386,
      "शहरात": 2387,
      "ल्हा": 2388,
      "स्तू": 2389,
      "व्हिडिओ": 2390,
      "खि": 2391,
      "्स": 2392,
      "५०": 2393,
      "पोस्ट": 2394,
      "कांत": 2395,
      "वण्यासाठी": 2396,
      "चित्रपटा": 2397,
      "पुस्त": 2398,
      "साहि": 2399,
      "मोबा": 2400,
      "श्वर": 2401,
      "कांचा": 2402,
      "गट": 2403,
      "मोठे": 2404,
      "on": 2405,
      "तत्": 2406,
      "चांगले": 2407,
      "सळ": 2408,
      "सुमारे": 2409,
      "कल्या": 2410,
      "छो": 2411,
      "18": 2412,
      "जाव": 2413,
      "दिसून": 2414,
      "न्याय": 2415,
      "क्‍": 2416,
      "क्षि": 2417,
      "जाऊन": 2418,
      "एवढ": 2419,
      "14": 2420,
      "एफ": 2421,
      "पुरा": 2422,
      "किंग": 2423,
      "महाराष्ट्रात": 2424,
      "१८": 2425,
      "सां": 2426,
      "कू": 2427,
      "मॉ": 2428,
      "एखाद्या": 2429,
      "शै": 2430,
      "न्यूज": 2431,
      "रिक्त": 2432,
      "वेळे": 2433,
      "समाज": 2434,
      "थेट": 2435,
      "करते": 2436,
      "देऊन": 2437,
      "मनो": 2438,
      "संगी": 2439,
      "वेंद्र": 2440,
      "माना": 2441,
      "चु": 2442,
      "करण्यास": 2443,
      "अजित": 2444,
      "दह": 2445,
      "लाच": 2446,
      "वर्त": 2447,
      "जरी": 2448,
      "षा": 2449,
      "भां": 2450,
      "संपर्": 2451,
      "यंदा": 2452,
      "समस्या": 2453,
      "ंकडून": 2454,
      "लाल": 2455,
      "आंतर": 2456,
      "आवाहन": 2457,
      "पुरु": 2458,
      "रीत": 2459,
      "शकत": 2460,
      "वूड": 2461,
      "तार": 2462,
      "वर्षे": 2463,
      "महाराष्ट्रा": 2464,
      "आव्हा": 2465,
      "आत्मह": 2466,
      "अपघात": 2467,
      "अत्यंत": 2468,
      "गणे": 2469,
      "झाल्यानंतर": 2470,
      "विद्यापी": 2471,
      "वैद्य": 2472,
      "निश्": 2473,
      "वातावरण": 2474,
      "नेट": 2475,
      "डीओ": 2476,
      "तुल": 2477,
      "मीर": 2478,
      "वाहत": 2479,
      "समाजा": 2480,
      "मीडियावर": 2481,
      "प्रतिनिधी": 2482,
      "लग्न": 2483,
      "लंब": 2484,
      "विक्री": 2485,
      "मंडळ": 2486,
      "र्य": 2487,
      "संख": 2488,
      "गावा": 2489,
      "गुण": 2490,
      "दुसरी": 2491,
      "विधानसभा": 2492,
      "ड्र": 2493,
      "शाळा": 2494,
      "मृत": 2495,
      "बाबा": 2496,
      "नका": 2497,
      "महिन्यात": 2498,
      "मज": 2499,
      "दौ": 2500,
      "वाढत": 2501,
      "लर": 2502,
      "21": 2503,
      "कप": 2504,
      "ज्ञान": 2505,
      "प्रथम": 2506,
      "पश्": 2507,
      "गावात": 2508,
      "कर्मचारी": 2509,
      "सरी": 2510,
      "सापड": 2511,
      "एकमे": 2512,
      "at": 2513,
      "मिळेल": 2514,
      "सत्": 2515,
      "गोल": 2516,
      "ब्बल": 2517,
      "अद्या": 2518,
      "िम": 2519,
      "भूत": 2520,
      "सादर": 2521,
      "चालक": 2522,
      "रोख": 2523,
      "दावा": 2524,
      "कुल": 2525,
      "अंतर्गत": 2526,
      "उल": 2527,
      "सुधार": 2528,
      "टोबर": 2529,
      "आदी": 2530,
      "करायला": 2531,
      "जानेवारी": 2532,
      "जख": 2533,
      "दिग्": 2534,
      "बाल": 2535,
      "मुख्यमंत्र्या": 2536,
      "ब्रि": 2537,
      "इमार": 2538,
      "राऊ": 2539,
      "अल": 2540,
      "उतर": 2541,
      "असलेले": 2542,
      "धारण": 2543,
      "जुलै": 2544,
      "गुन्हे": 2545,
      "फत": 2546,
      "कसे": 2547,
      "अधि": 2548,
      "कार्यक्रमा": 2549,
      "इन्": 2550,
      "चर्चे": 2551,
      "ंशी": 2552,
      "पोर्ट": 2553,
      "स्थानिक": 2554,
      "डिसे": 2555,
      "नोव्हे": 2556,
      "पसर": 2557,
      "मारा": 2558,
      "११": 2559,
      "संस्थे": 2560,
      "मते": 2561,
      "विड": 2562,
      "असणार": 2563,
      "or": 2564,
      "्याने": 2565,
      "पंच": 2566,
      "चांगली": 2567,
      "विण्यात": 2568,
      "णू": 2569,
      "किलो": 2570,
      "मीटर": 2571,
      "दहशत": 2572,
      "व्हिडीओ": 2573,
      "्मक": 2574,
      "अद्याप": 2575,
      "....": 2576,
      "काळा": 2577,
      "टाळ": 2578,
      "कुठे": 2579,
      "प्रतिक": 2580,
      "पार्श्वभूमीवर": 2581,
      "मिनि": 2582,
      "अधिकार": 2583,
      "शं": 2584,
      "धव": 2585,
      "सुट": 2586,
      "वेगवेग": 2587,
      "न्यायालयाने": 2588,
      "शहरातील": 2589,
      "मंगळ": 2590,
      "मूल": 2591,
      "शील": 2592,
      "ताब": 2593,
      "स्ट्रे": 2594,
      "तब्बल": 2595,
      "असतील": 2596,
      "गोष्ट": 2597,
      "उपाय": 2598,
      "हत्या": 2599,
      "सरकारी": 2600,
      "वती": 2601,
      "जबाबदारी": 2602,
      "डिसेंबर": 2603,
      "आश्": 2604,
      "नियंत्र": 2605,
      "प्रेम": 2606,
      "नक": 2607,
      "मिळणार": 2608,
      "कसा": 2609,
      "कामगार": 2610,
      "प्रिल": 2611,
      "गस्ट": 2612,
      "पुरवठा": 2613,
      "एप्रिल": 2614,
      "स्मार": 2615,
      "पाऊस": 2616,
      "कांचे": 2617,
      "सारखे": 2618,
      "पहा": 2619,
      "नदी": 2620,
      "खासगी": 2621,
      "प्रस्ता": 2622,
      "देवेंद्र": 2623,
      "कायद्या": 2624,
      "नेतृ": 2625,
      "प्रकारे": 2626,
      "जन्म": 2627,
      "असेही": 2628,
      "आम्हाला": 2629,
      "र्ती": 2630,
      "वाड": 2631,
      "शिवा": 2632,
      "फिर": 2633,
      "नोव्हेंबर": 2634,
      "निवडणुकीत": 2635,
      "इथे": 2636,
      "राणे": 2637,
      "क्ता": 2638,
      "परीक्षा": 2639,
      "बारा": 2640,
      "शहर": 2641,
      "संख्ये": 2642,
      "आयुक्त": 2643,
      "चव्हा": 2644,
      "फ्र": 2645,
      "ऑक्टोबर": 2646,
      "er": 2647,
      "असल्याचा": 2648,
      "स्त्री": 2649,
      "मिनी": 2650,
      "राजकारण": 2651,
      "नक्की": 2652,
      "ात्मक": 2653,
      "तास": 2654,
      "यानंतर": 2655,
      "पाळ": 2656,
      "ब्रु": 2657,
      "रद्द": 2658,
      "कालाव": 2659,
      "टॅ": 2660,
      "शनि": 2661,
      "लाभ": 2662,
      "शुक्र": 2663,
      "राजी": 2664,
      "क्षेत्रात": 2665,
      "ेड": 2666,
      "फायदा": 2667,
      "आंब": 2668,
      "तोड": 2669,
      "जाती": 2670,
      "वाहतूक": 2671,
      "सूचना": 2672,
      "कालावधी": 2673,
      "सरकारच्या": 2674,
      "महाराज": 2675,
      "वस्तू": 2676,
      "ग्रामी": 2677,
      "लाय": 2678,
      "सर्वाधिक": 2679,
      "ग्रामीण": 2680,
      "कोणती": 2681,
      "बू": 2682,
      "निरी": 2683,
      "वाजता": 2684,
      "नेता": 2685,
      "ल्यास": 2686,
      "उत्तम": 2687,
      "पद्धतीने": 2688,
      "स्थापन": 2689,
      "गौ": 2690,
      "धोका": 2691,
      "30": 2692,
      "शिंदे": 2693,
      "हवामान": 2694,
      "विमान": 2695,
      "नियम": 2696,
      "वलं": 2697,
      "पाड": 2698,
      "मराठा": 2699,
      "१४": 2700,
      "जमा": 2701,
      "महिले": 2702,
      "सीबी": 2703,
      "प्रत्यक्ष": 2704,
      "गर्दी": 2705,
      "है": 2706,
      "नाचे": 2707,
      "राय": 2708,
      "उपा": 2709,
      "50": 2710,
      "लात": 2711,
      "येतो": 2712,
      "बुध": 2713,
      "नागपूर": 2714,
      "तयारी": 2715,
      "टिव्ह": 2716,
      "बं": 2717,
      "लच्या": 2718,
      "उल्": 2719,
      "नर्": 2720,
      "इंग्": 2721,
      "ऐक": 2722,
      "ऑगस्ट": 2723,
      "२१": 2724,
      "भाजी": 2725,
      "ठाणे": 2726,
      "तरीही": 2727,
      "ीत": 2728,
      "प्पा": 2729,
      "पौ": 2730,
      "निर्मिती": 2731,
      "धाव": 2732,
      "वित": 2733,
      "२००": 2734,
      "वाटत": 2735,
      "सदस्य": 2736,
      "चंड": 2737,
      "२५": 2738,
      "केने": 2739,
      "वर्ग": 2740,
      "पदार्थ": 2741,
      "नकार": 2742,
      "परिषदे": 2743,
      "प्रक्रिया": 2744,
      "जोरदार": 2745,
      "सहभागी": 2746,
      "ट्रोल": 2747,
      "कृषी": 2748,
      "दरा": 2749,
      "योजित": 2750,
      "पत": 2751,
      "पाहून": 2752,
      "घु": 2753,
      "व्यवस्था": 2754,
      "आंतरराष्ट्रीय": 2755,
      "संघात": 2756,
      "होण्याची": 2757,
      "जिल्ह्या": 2758,
      "दै": 2759,
      "वरुन": 2760,
      "चिम": 2761,
      "विषय": 2762,
      "नगरसे": 2763,
      "जारी": 2764,
      "फेब्रु": 2765,
      "दृष्टी": 2766,
      "अल्": 2767,
      "जीवन": 2768,
      "गळ": 2769,
      "भ्र": 2770,
      "येऊ": 2771,
      "पर्य": 2772,
      "काढून": 2773,
      "फेब्रुवारी": 2774,
      "पुरुष": 2775,
      "सार्व": 2776,
      "शेती": 2777,
      "र्ष": 2778,
      "स्टा": 2779,
      "मनात": 2780,
      "वीज": 2781,
      "महत्वा": 2782,
      "समु": 2783,
      "साली": 2784,
      "योजने": 2785,
      "फॅ": 2786,
      "प्रचंड": 2787,
      "ठेवा": 2788,
      "वतीने": 2789,
      "संर": 2790,
      "भावना": 2791,
      "तंत्र": 2792,
      "जवळपास": 2793,
      "स्वच्छ": 2794,
      "पातळी": 2795,
      "प्टे": 2796,
      "मीन": 2797,
      "मिळाला": 2798,
      "हल्ला": 2799,
      "टिंग": 2800,
      "ध्": 2801,
      "लागणार": 2802,
      "यम": 2803,
      "संशोध": 2804,
      "अक्ष": 2805,
      "ळगाव": 2806,
      "शिष्ट": 2807,
      "मंत्रा": 2808,
      "पिंपरी": 2809,
      "सप्टे": 2810,
      "माय": 2811,
      "रक्कम": 2812,
      "होतात": 2813,
      "गरजे": 2814,
      "सरकारला": 2815,
      "जखमी": 2816,
      "कोल्हा": 2817,
      "व्यवसाय": 2818,
      "त्रास": 2819,
      "हिवा": 2820,
      "ंदी": 2821,
      "11": 2822,
      "दुका": 2823,
      "बॉलि": 2824,
      "उभार": 2825,
      "मर": 2826,
      "चालू": 2827,
      "इतिहा": 2828,
      "क्शन": 2829,
      "चव्हाण": 2830,
      "उड": 2831,
      "दिलं": 2832,
      "सप्टेंबर": 2833,
      "सुविधा": 2834,
      "कल्पना": 2835,
      "वेल": 2836,
      "क्यात": 2837,
      "सर्वोच्च": 2838,
      "रूप": 2839,
      "सोमवारी": 2840,
      "उदा": 2841,
      "वैद्यकीय": 2842,
      "al": 2843,
      "शहा": 2844,
      "भाऊ": 2845,
      "दक्षि": 2846,
      "असले": 2847,
      "असो": 2848,
      "णि": 2849,
      "टिक": 2850,
      "ल्ल्या": 2851,
      "देशमुख": 2852,
      "जाणून": 2853,
      "निश्चित": 2854,
      "नागर": 2855,
      "ंता": 2856,
      "विना": 2857,
      "झाल्याने": 2858,
      "घडली": 2859,
      "यशस्वी": 2860,
      "नै": 2861,
      "एसटी": 2862,
      "कामे": 2863,
      "शासन": 2864,
      "ंकडे": 2865,
      "कायदा": 2866,
      "अतिशय": 2867,
      "आग": 2868,
      "बला": 2869,
      "डीने": 2870,
      "निवडणु": 2871,
      "अडचणी": 2872,
      "वाहि": 2873,
      "म्हणतात": 2874,
      "उद्योग": 2875,
      "साहित्य": 2876,
      "१६": 2877,
      "लोकसभा": 2878,
      "स्वप्": 2879,
      "विद्यार्थी": 2880,
      "कोविड": 2881,
      "काँग्रेसचे": 2882,
      "साधारण": 2883,
      "शासकीय": 2884,
      "----": 2885,
      "राख": 2886,
      "सुनाव": 2887,
      "लवकरच": 2888,
      "शेवट": 2889,
      "मक": 2890,
      "एमपीसी": 2891,
      "राऊत": 2892,
      "वल": 2893,
      "केल्यानंतर": 2894,
      "आयपी": 2895,
      "शक्ती": 2896,
      "षे": 2897,
      "क्ति": 2898,
      "णाचा": 2899,
      "हिंदू": 2900,
      "माझा": 2901,
      "कसो": 2902,
      "मोर्": 2903,
      "माझी": 2904,
      "सामन": 2905,
      "सामन्यात": 2906,
      "वक्त": 2907,
      "अर्थात": 2908,
      "17": 2909,
      "ऐव": 2910,
      "ल्याचे": 2911,
      "संघटना": 2912,
      "णावर": 2913,
      "२४": 2914,
      "उर्": 2915,
      "उद्या": 2916,
      "सुरक्षा": 2917,
      "ताब्यात": 2918,
      "पहिला": 2919,
      "बँक": 2920,
      "पर्याय": 2921,
      "शिवाजी": 2922,
      "मनसे": 2923,
      "ज्ये": 2924,
      "बर्": 2925,
      "कार्यक्रम": 2926,
      "इश": 2927,
      "कोर": 2928,
      "राहणार": 2929,
      "16": 2930,
      "ृत": 2931,
      "वृत्ती": 2932,
      "प्रेक्ष": 2933,
      "कले": 2934,
      "नवा": 2935,
      "लांब": 2936,
      "लिक": 2937,
      "णाची": 2938,
      "डॉक्ट": 2939,
      "आत": 2940,
      "क्क": 2941,
      "संवाद": 2942,
      "णाच्या": 2943,
      "मुक्त": 2944,
      "माहितीनुसार": 2945,
      "तसंच": 2946,
      "सला": 2947,
      "वाना": 2948,
      "चिंच": 2949,
      "कामगिरी": 2950,
      "वाला": 2951,
      "लीन": 2952,
      "तपासणी": 2953,
      "यादी": 2954,
      "यातील": 2955,
      "विश्व": 2956,
      "कार्ड": 2957,
      "किंमत": 2958,
      "देणार": 2959,
      "ळीत": 2960,
      "डेल": 2961,
      "शाह": 2962,
      "नागरिक": 2963,
      "नार": 2964,
      "सीसी": 2965,
      "बैठक": 2966,
      "नियमा": 2967,
      "पाहायला": 2968,
      "कसोटी": 2969,
      "ज्येष्ठ": 2970,
      "गती": 2971,
      "नव्हे": 2972,
      "नासाठी": 2973,
      "सचिन": 2974,
      "बद": 2975,
      "धर्म": 2976,
      "रॉ": 2977,
      "रिक": 2978,
      "वडि": 2979,
      "गतिक": 2980,
      "अह": 2981,
      "गाने": 2982,
      "शाही": 2983,
      "प्रकरणात": 2984,
      "इशारा": 2985,
      "बाधित": 2986,
      "घेता": 2987,
      "टॉ": 2988,
      "बाळ": 2989,
      "मिर": 2990,
      "कोणता": 2991,
      "देण्यासाठी": 2992,
      "अंदाज": 2993,
      "लू": 2994,
      "संकट": 2995,
      "कोरोनाच्या": 2996,
      "प्राप्त": 2997,
      "हाता": 2998,
      "स्वात": 2999,
      "माणसा": 3000,
      "तेच": 3001,
      "बोलताना": 3002,
      "काश्": 3003,
      "म्हणजेच": 3004,
      "एच": 3005,
      "नोकरी": 3006,
      "स्ट्रेलि": 3007,
      "१७": 3008,
      "झालेली": 3009,
      "मिळाले": 3010,
      "विले": 3011,
      "महापालिका": 3012,
      "औरंगा": 3013,
      "बैठकीत": 3014,
      "25": 3015,
      "झालेले": 3016,
      "पुरस्कार": 3017,
      "वर्षीय": 3018,
      "नागरिकांना": 3019,
      "आत्महत्या": 3020,
      "ठाण्यात": 3021,
      "बॉलिवूड": 3022,
      "करणारे": 3023,
      "व्हायरल": 3024,
      "मंदिर": 3025,
      "सुरुवाती": 3026,
      "व्र": 3027,
      "जागतिक": 3028,
      "यांच्यावर": 3029,
      "प्रतिक्र": 3030,
      "अफ": 3031,
      "निघा": 3032,
      "ट्विट": 3033,
      "अनिल": 3034,
      "24": 3035,
      "ऑस्ट्रेलि": 3036,
      "राही": 3037,
      "विषा": 3038,
      "बोलत": 3039,
      "उद": 3040,
      "क्री": 3041,
      "त्यानुसार": 3042,
      "१३": 3043,
      "येत्या": 3044,
      "गामी": 3045,
      "अहवाल": 3046,
      "सार्वज": 3047,
      "मुंडे": 3048,
      "संस्": 3049,
      "es": 3050,
      "उत्प": 3051,
      "हळू": 3052,
      "द्धी": 3053,
      "शिक्षक": 3054,
      "बातमी": 3055,
      "मोबाईल": 3056,
      "ंढ": 3057,
      "येतात": 3058,
      "लागते": 3059,
      "अनुभव": 3060,
      "व्हर": 3061,
      "मतदान": 3062,
      "मंत्रि": 3063,
      "असल्यामुळे": 3064,
      "नाई": 3065,
      "नसल्याने": 3066,
      "ऑनलाईन": 3067,
      "याचि": 3068,
      "यापूर्वी": 3069,
      "वीर": 3070,
      "केंद्रा": 3071,
      "धि": 3072,
      "विधान": 3073,
      "येऊन": 3074,
      "कल्पा": 3075,
      "ऑनलाइन": 3076,
      "समर्थ": 3077,
      "असलेली": 3078,
      "हल": 3079,
      "प्रभा": 3080,
      "नियंत्रण": 3081,
      "टप्प": 3082,
      "स्पि": 3083,
      "चाचणी": 3084,
      "घेऊ": 3085,
      "अन्न": 3086,
      "नव्हते": 3087,
      "सार्वजनिक": 3088,
      "नाट": 3089,
      "जाधव": 3090,
      "वर्षात": 3091,
      "र्फे": 3092,
      "इंग्लंड": 3093,
      "आयोजित": 3094,
      "संघटने": 3095,
      "टीव्ही": 3096,
      "श्या": 3097,
      "रोड": 3098,
      "रविवारी": 3099,
      "ग्रस्त": 3100,
      "नग": 3101,
      "ांती": 3102,
      "प्रतिक्रिया": 3103,
      "य्य": 3104,
      "महाविद्या": 3105,
      "औरंगाबाद": 3106,
      "जमिनी": 3107,
      "सुंदर": 3108,
      "वारं": 3109,
      "ग्रह": 3110,
      "वादा": 3111,
      "केल": 3112,
      "परिषद": 3113,
      "13": 3114,
      "स्मार्ट": 3115,
      "संपर्क": 3116,
      "नाते": 3117,
      "कोर्": 3118,
      "पश्चिम": 3119,
      "साव": 3120,
      "व्यवहार": 3121,
      "भाषा": 3122,
      "पात्र": 3123,
      "बुधवारी": 3124,
      "पेट्रोल": 3125,
      "भाजपचे": 3126,
      "ंभ": 3127,
      "चेह": 3128,
      "हवे": 3129,
      "तेथे": 3130,
      "लागत": 3131,
      "दुपारी": 3132,
      "्रेस": 3133,
      "गॅ": 3134,
      "भांड": 3135,
      "विमा": 3136,
      "न्यायालयात": 3137,
      "सत्ते": 3138,
      "खल": 3139,
      "म्हणत": 3140,
      "व्याव": 3141,
      "मुंबईतील": 3142,
      "कल्याण": 3143,
      "ांसाठी": 3144,
      "औषध": 3145,
      "विषाणू": 3146,
      "काच्या": 3147,
      "असलेला": 3148,
      "मैदा": 3149,
      "नच्या": 3150,
      "हीत": 3151,
      "वेब": 3152,
      "साह": 3153,
      "सतत": 3154,
      "शुक्रवारी": 3155,
      "नको": 3156,
      "भविष": 3157,
      "्याच्या": 3158,
      "रुग्णांची": 3159,
      "इथ": 3160,
      "स्फो": 3161,
      "मंगळवारी": 3162,
      "चिंचवड": 3163,
      "फू": 3164,
      "शू": 3165,
      "देऊ": 3166,
      "सामन्या": 3167,
      "गुंतवणूक": 3168,
      "झालेला": 3169,
      "शोक": 3170,
      "इट": 3171,
      "होणाऱ्या": 3172,
      "अचा": 3173,
      "कुणी": 3174,
      "वार्": 3175,
      "ऐवजी": 3176,
      "आर्": 3177,
      "्यावर": 3178,
      "तीच्या": 3179,
      "वाढी": 3180,
      "अंतिम": 3181,
      "दक्षिण": 3182,
      "यल": 3183,
      "हवी": 3184,
      "ंग्रेस": 3185,
      "लाही": 3186,
      "नाने": 3187,
      "उन्हा": 3188,
      "चांगला": 3189,
      "राट": 3190,
      "सोन्या": 3191,
      "स्टार": 3192,
      "डॉक्टरा": 3193,
      "जरात": 3194,
      "प्रकल्प": 3195,
      "केलेली": 3196,
      "सुरक्षित": 3197,
      "करु": 3198,
      "ढी": 3199,
      "चाह": 3200,
      "तेल": 3201,
      "पालक": 3202,
      "जातील": 3203,
      "ठेवले": 3204,
      "अली": 3205,
      "उचल": 3206,
      "वल्या": 3207,
      "राजा": 3208,
      "वडिला": 3209,
      "क्रे": 3210,
      "मुलगा": 3211,
      "कोणतीही": 3212,
      "मूळ": 3213,
      "त्यातून": 3214,
      "पळ": 3215,
      "दिवसांपासून": 3216,
      "करण्याच्या": 3217,
      "कर्ण": 3218,
      "एकाच": 3219,
      "कार्यालया": 3220,
      "नाम": 3221,
      "सल्ला": 3222,
      "नव्हती": 3223,
      "ब्रा": 3224,
      "केलेले": 3225,
      "बुक": 3226,
      "कार्": 3227,
      "जनता": 3228,
      "मेल": 3229,
      "चुकी": 3230,
      "स्वीकार": 3231,
      "अचानक": 3232,
      "मर्या": 3233,
      "लावून": 3234,
      "असतं": 3235,
      "रिया": 3236,
      "दर्शक": 3237,
      "कै": 3238,
      "नील": 3239,
      "कोर्टा": 3240,
      "केचे": 3241,
      "विला": 3242,
      "सुमारा": 3243,
      "कौतु": 3244,
      "कशा": 3245,
      "’,": 3246,
      "तोंड": 3247,
      "कोकण": 3248,
      "निया": 3249,
      "प्ला": 3250,
      "रुग्णालया": 3251,
      "चोर": 3252,
      "रक्त": 3253,
      "वाटते": 3254,
      "खळ": 3255,
      "दास": 3256,
      "पृ": 3257,
      "नाटक": 3258,
      "गैर": 3259,
      "स्वातंत्र": 3260,
      "फुट": 3261,
      "अस्": 3262,
      "हॅ": 3263,
      "भरा": 3264,
      "२२": 3265,
      "डॉक्टर": 3266,
      "अमित": 3267,
      "लढा": 3268,
      "पोट": 3269,
      "कॉंग्रेस": 3270,
      "अत्या": 3271,
      "साजरा": 3272,
      "आजार": 3273,
      "कोल्हापूर": 3274,
      "यण": 3275,
      "बाय": 3276,
      "मुद": 3277,
      "कुटुंबा": 3278,
      "व्हायरस": 3279,
      "व्यात": 3280,
      "म्स": 3281,
      "चॅ": 3282,
      "वता": 3283,
      "भारतातील": 3284,
      "वेगवेगळ्या": 3285,
      "देवी": 3286,
      "गुजरात": 3287,
      "स्थितीत": 3288,
      "फेस": 3289,
      "देह": 3290,
      "भीती": 3291,
      "लिंग": 3292,
      "टक्क्या": 3293,
      "सुमारास": 3294,
      "पुरे": 3295,
      "हिंदु": 3296,
      "गल": 3297,
      "कथा": 3298,
      "द्दी": 3299,
      "बाजारात": 3300,
      "रोहित": 3301,
      "माध्यमा": 3302,
      "पडला": 3303,
      "ट्रो": 3304,
      "प्री": 3305,
      "नव्हता": 3306,
      "अथ": 3307,
      "रवी": 3308,
      "देण्याची": 3309,
      "इल": 3310,
      "धर्मा": 3311,
      "घालून": 3312,
      "पोलिसांना": 3313,
      "शर्मा": 3314,
      "असणाऱ्या": 3315,
      "पहिली": 3316,
      "भाषे": 3317,
      "पाला": 3318,
      "मुस्": 3319,
      "जिल्हाधिकारी": 3320,
      "येणाऱ्या": 3321,
      "तळ": 3322,
      "मधे": 3323,
      "वरि": 3324,
      "कलाकार": 3325,
      "धड": 3326,
      "फस": 3327,
      "लोकांनी": 3328,
      "सहज": 3329,
      "मूर्ती": 3330,
      "मुद्दा": 3331,
      "नारायण": 3332,
      "अन्": 3333,
      "असू": 3334,
      "स्टि": 3335,
      "त्यांच्यावर": 3336,
      "रस्त्यावर": 3337,
      "ग्री": 3338,
      "झी": 3339,
      "प्ले": 3340,
      "सोडून": 3341,
      "प्रकल्पा": 3342,
      "हाण": 3343,
      "त्रि": 3344,
      "श्रे": 3345,
      "ट्टी": 3346,
      "सोला": 3347,
      "आदि": 3348,
      "तिचा": 3349,
      "हॉटेल": 3350,
      "बाजूला": 3351,
      "गायक": 3352,
      "वडे": 3353,
      "४०": 3354,
      "संग": 3355,
      "बसला": 3356,
      "शनिवारी": 3357,
      "कोणताही": 3358,
      "व्यावसाय": 3359,
      "en": 3360,
      "जागे": 3361,
      "बाबतीत": 3362,
      "हाती": 3363,
      "वर्ण": 3364,
      "भारताच्या": 3365,
      "सांगत": 3366,
      "स्वयं": 3367,
      "200": 3368,
      "उठ": 3369,
      "निघ": 3370,
      "भेटी": 3371,
      "सगळे": 3372,
      "इच्छा": 3373,
      "रोजग": 3374,
      "स्टेशन": 3375,
      "निरीक्षक": 3376,
      "ad": 3377,
      "वास्त": 3378,
      "रत": 3379,
      "सोह": 3380,
      "प्रती": 3381,
      "गुरुवारी": 3382,
      "नॉ": 3383,
      "सर्वच": 3384,
      "माला": 3385,
      "सोबतच": 3386,
      "सचिव": 3387,
      "सदस्या": 3388,
      "उभे": 3389,
      "प्रवाश": 3390,
      "आयपीएल": 3391,
      "इंडि": 3392,
      "दिवसांपूर्वी": 3393,
      "बजाव": 3394,
      "साडे": 3395,
      "दिवसात": 3396,
      "पाठि": 3397,
      "मुलगी": 3398,
      "नमध्ये": 3399,
      "संचालक": 3400,
      "दुसरीकडे": 3401,
      "नाय": 3402,
      "दुसरा": 3403,
      "विद्यार्थ्यांना": 3404,
      "अजूनही": 3405,
      "सेस": 3406,
      "आव्हान": 3407,
      "ंसह": 3408,
      "तासा": 3409,
      "माझे": 3410,
      "ल्यामुळे": 3411,
      "घेण्यासाठी": 3412,
      "पोह": 3413,
      "लोकप्रिय": 3414,
      "++++": 3415,
      "अभिनेता": 3416,
      "महत्त्व": 3417,
      "उलट": 3418,
      "देणे": 3419,
      "त्रे": 3420,
      ">>": 3421,
      "इंटर": 3422,
      "सांगण्यात": 3423,
      "काहीही": 3424,
      "व्यवस्थे": 3425,
      "प्रस्ताव": 3426,
      "ॅम": 3427,
      "बाजी": 3428,
      "शिक्ष": 3429,
      "घेणे": 3430,
      "निमित्त": 3431,
      "ळक": 3432,
      "त्यातील": 3433,
      "बांधकाम": 3434,
      "तरुण": 3435,
      "पन": 3436,
      "कांमध्ये": 3437,
      "पकड": 3438,
      "कारणा": 3439,
      "पुण्या": 3440,
      "विज": 3441,
      "पुर्": 3442,
      ".’": 3443,
      "कच": 3444,
      "माने": 3445,
      "परे": 3446,
      "मुलांना": 3447,
      "धक्कादायक": 3448,
      "रस": 3449,
      "वस": 3450,
      "करिता": 3451,
      "राहील": 3452,
      "वणी": 3453,
      "आलेले": 3454,
      "पार्टी": 3455,
      "क्षेत्रा": 3456,
      "पंचायत": 3457,
      "विण्यासाठी": 3458,
      "निष्": 3459,
      "पालन": 3460,
      "वरिष्ठ": 3461,
      "किमान": 3462,
      "योजन": 3463,
      "जै": 3464,
      "ार्थ": 3465,
      "तात्": 3466,
      "व्यवसा": 3467,
      "आढळून": 3468,
      "ंमुळे": 3469,
      "सारखी": 3470,
      "महापौ": 3471,
      "काश्मीर": 3472,
      "ंती": 3473,
      "नॅ": 3474,
      "विजे": 3475,
      "इतकी": 3476,
      "देशीर": 3477,
      "शास्त्र": 3478,
      "हातात": 3479,
      "ब्रे": 3480,
      "संरक्षण": 3481,
      "काग": 3482,
      "पडली": 3483,
      "आरक्षण": 3484,
      "हाल": 3485,
      "षक": 3486,
      "लाई": 3487,
      "वितर": 3488,
      "गाय": 3489,
      "कोरोनाचा": 3490,
      "विकासा": 3491,
      "प्रसार": 3492,
      "आधीच": 3493,
      "पॉझि": 3494,
      "काप": 3495,
      "स्तु": 3496,
      "बदला": 3497,
      "मानसिक": 3498,
      "हॉस्पि": 3499,
      "ळात": 3500,
      "प्रयोग": 3501,
      "संशय": 3502,
      "मोह": 3503,
      "उल्लेख": 3504,
      "दिन": 3505,
      "येतील": 3506,
      "पंजा": 3507,
      "गणेश": 3508,
      "मिळते": 3509,
      "बळी": 3510,
      "चिंता": 3511,
      "सुनावणी": 3512,
      "कस": 3513,
      "कमा": 3514,
      "ज्य": 3515,
      "विराट": 3516,
      "पहिल्यांदा": 3517,
      "तक्रारी": 3518,
      "हृ": 3519,
      "आगामी": 3520,
      "पाहता": 3521,
      "बरी": 3522,
      "स्पे": 3523,
      "केश": 3524,
      "झाल्याचे": 3525,
      "क्षी": 3526,
      "वारा": 3527,
      "मंत्रालया": 3528,
      "वडी": 3529,
      "तीव्र": 3530,
      "लोकां": 3531,
      ".\"": 3532,
      "असंही": 3533,
      "असली": 3534,
      "अशोक": 3535,
      "सवाल": 3536,
      "होतील": 3537,
      "स्वतंत्र": 3538,
      "कित": 3539,
      "चाच": 3540,
      "्‍": 3541,
      "आरक्षणा": 3542,
      "कर्णधार": 3543,
      "पुण्यात": 3544,
      "सांगा": 3545,
      "बाळासाहेब": 3546,
      "आकार": 3547,
      "भागातील": 3548,
      "स्पर्धा": 3549,
      "पद्धती": 3550,
      "स्ते": 3551,
      "अपेक्षा": 3552,
      "ल्ल": 3553,
      "तिस": 3554,
      "हेच": 3555,
      "विभागाने": 3556,
      "तेही": 3557,
      "शिक्षणा": 3558,
      "केल्याने": 3559,
      "हिर": 3560,
      "शेतकऱ्यांना": 3561,
      "संबं": 3562,
      "ूल": 3563,
      "याशिवाय": 3564,
      "तातडीने": 3565,
      "केतील": 3566,
      "हिं": 3567,
      "22": 3568,
      "राग": 3569,
      "असल्यास": 3570,
      "रूग्": 3571,
      "दररोज": 3572,
      "गरी": 3573,
      "ूस": 3574,
      "बाकी": 3575,
      "निर्देश": 3576,
      "त्ये": 3577,
      "वाद्या": 3578,
      "धान्य": 3579,
      "मंडळी": 3580,
      "फॉर्म": 3581,
      "जगा": 3582,
      "जूर": 3583,
      "तथा": 3584,
      "कालीन": 3585,
      "मोहि": 3586,
      "ंडू": 3587,
      "अनेकदा": 3588,
      "भावा": 3589,
      "साखर": 3590,
      "महानगर": 3591,
      "महाराष्ट्रातील": 3592,
      "आक्रम": 3593,
      "बंग": 3594,
      "उपचारा": 3595,
      "दृष्टीने": 3596,
      "विन": 3597,
      "दंड": 3598,
      "कोरोनाची": 3599,
      "प्रतिसाद": 3600,
      "अल्प": 3601,
      "ळावर": 3602,
      "क्षेत्रातील": 3603,
      "तशी": 3604,
      "रोग": 3605,
      "मोड": 3606,
      "जणांना": 3607,
      "ंपासून": 3608,
      "अंग": 3609,
      "ठेवण्यात": 3610,
      "चढ": 3611,
      "सन्": 3612,
      "निर": 3613,
      "आजही": 3614,
      "====": 3615,
      "आंबेड": 3616,
      "महे": 3617,
      "हट": 3618,
      "केस": 3619,
      "नसेल": 3620,
      "चाकी": 3621,
      "त्यामध्ये": 3622,
      "पडले": 3623,
      "ट्विटर": 3624,
      "नल": 3625,
      "युती": 3626,
      "नेहमीच": 3627,
      "अका": 3628,
      "स्टो": 3629,
      "रुपयांची": 3630,
      "भाजपच्या": 3631,
      "नसल्याचे": 3632,
      "बंगा": 3633,
      "प्रदर्श": 3634,
      "मारी": 3635,
      "करणं": 3636,
      "इंग्र": 3637,
      "पान": 3638,
      "पराभव": 3639,
      "सुरे": 3640,
      "त्री": 3641,
      "आलेली": 3642,
      "पालिका": 3643,
      "इतके": 3644,
      "तोय": 3645,
      "मार्फत": 3646,
      "दिलासा": 3647,
      "निमित्ता": 3648,
      "ण्याचं": 3649,
      "म्हणूनच": 3650,
      "परिस्थितीत": 3651,
      "कांवर": 3652,
      "करेल": 3653,
      "उत्पादन": 3654,
      "लेज": 3655,
      "निकाल": 3656,
      "गुरू": 3657,
      "घ्यावी": 3658,
      "कपूर": 3659,
      "थि": 3660,
      "फ्ट": 3661,
      "लावा": 3662,
      "सुपर": 3663,
      "महाविकास": 3664,
      "लसीकरण": 3665,
      "इमारती": 3666,
      "उडा": 3667,
      "परिसरातील": 3668,
      "नवे": 3669,
      "याप्रकरणी": 3670,
      "तिथ": 3671,
      "दुष्": 3672,
      "प्लॅ": 3673,
      "फोड": 3674,
      "क्रमांक": 3675,
      "अथवा": 3676,
      "ुप": 3677,
      "संस्थ": 3678,
      "रव": 3679,
      "राहिले": 3680,
      "हॉस्पिटल": 3681,
      "कून": 3682,
      "णात": 3683,
      "मारहाण": 3684,
      "कौतुक": 3685,
      "चिक": 3686,
      "संसर्ग": 3687,
      "विधानसभे": 3688,
      "हेही": 3689,
      "ंडर": 3690,
      "प्राथ": 3691,
      "पटू": 3692,
      "अपे": 3693,
      "संध्या": 3694,
      "मिता": 3695,
      "दिवाळी": 3696,
      "कवि": 3697,
      "नंबर": 3698,
      "स्टर": 3699,
      "आत्म": 3700,
      "इतिहास": 3701,
      "प्रदेशा": 3702,
      "झाड": 3703,
      "एअर": 3704,
      "ार्": 3705,
      "ल्क": 3706,
      "ंदाजी": 3707,
      "केलेला": 3708,
      "सेंटर": 3709,
      "पट्टी": 3710,
      "चोरी": 3711,
      "प्राथमिक": 3712,
      "it": 3713,
      "आशि": 3714,
      "पूर्णपणे": 3715,
      "गाठ": 3716,
      "भात": 3717,
      "निरा": 3718,
      "मंदिरा": 3719,
      "बरेच": 3720,
      "बलात्": 3721,
      "आवाज": 3722,
      "महत्त्वाचे": 3723,
      "झु": 3724,
      "कुठल्या": 3725,
      "वण्याचा": 3726,
      "हंगा": 3727,
      "प्रचार": 3728,
      "जाता": 3729,
      "आजच्या": 3730,
      "यातून": 3731,
      "साकार": 3732,
      "मुळं": 3733,
      "ष्टा": 3734,
      "एकच": 3735,
      "गडा": 3736,
      "ठ्": 3737,
      "न्ट": 3738,
      "सोलापूर": 3739,
      "राहा": 3740,
      "देताना": 3741,
      "काहीच": 3742,
      "वाटा": 3743,
      "त्स": 3744,
      "चर्चेत": 3745,
      "पाठिंबा": 3746,
      "दश": 3747,
      "विद्यापीठ": 3748,
      "उमेदवारी": 3749,
      "वणे": 3750,
      "सले": 3751,
      "निवेद": 3752,
      "राजीनामा": 3753,
      "ल्याची": 3754,
      "क्रमात": 3755,
      "बऱ्या": 3756,
      "रड": 3757,
      "मास्क": 3758,
      "कॉल": 3759,
      "धोनी": 3760,
      "विनो": 3761,
      "सूल": 3762,
      "स्पर्धेत": 3763,
      "तित": 3764,
      "राज्याचे": 3765,
      "करि": 3766,
      "होणे": 3767,
      "नियोजन": 3768,
      "मोरे": 3769,
      "जोडी": 3770,
      "लीत": 3771,
      "मानले": 3772,
      "चांगल्या": 3773,
      "दूध": 3774,
      "जंग": 3775,
      "्वी": 3776,
      "लागतो": 3777,
      "कृत": 3778,
      "शेवटी": 3779,
      "2020": 3780,
      "साधला": 3781,
      "आकर्": 3782,
      "आकडे": 3783,
      "१००": 3784,
      "फटका": 3785,
      "६०": 3786,
      "ंदू": 3787,
      "युद्ध": 3788,
      "देण्याचा": 3789,
      "कॅमे": 3790,
      "अंध": 3791,
      "लगे": 3792,
      "प्रकारच्या": 3793,
      "चंद्रकांत": 3794,
      "घेणार": 3795,
      "ध्द": 3796,
      "घसर": 3797,
      "जम": 3798,
      "सत्य": 3799,
      "रिंग": 3800,
      "हू": 3801,
      "क्षमता": 3802,
      "सें": 3803,
      "ऑक्सि": 3804,
      "आशा": 3805,
      "जातं": 3806,
      "मदती": 3807,
      "वाईट": 3808,
      "आयोजन": 3809,
      "तज्": 3810,
      "नऊ": 3811,
      "सुख": 3812,
      "माती": 3813,
      "गैरे": 3814,
      "छत्र": 3815,
      "रत्": 3816,
      "पाई": 3817,
      "कारखा": 3818,
      "पुनर्": 3819,
      "दिसते": 3820,
      "फ्रे": 3821,
      "वगैरे": 3822,
      "शॉ": 3823,
      "हस्ते": 3824,
      "देवा": 3825,
      "दोघे": 3826,
      "2021": 3827,
      "यीन": 3828,
      "च्छा": 3829,
      "मोर्चा": 3830,
      "तिची": 3831,
      "शेख": 3832,
      "नावे": 3833,
      "गरजेचे": 3834,
      "पिका": 3835,
      "सभेत": 3836,
      "दिवसांत": 3837,
      "सर्वांना": 3838,
      "दृष्ट": 3839,
      "100": 3840,
      "जॉ": 3841,
      "टू": 3842,
      "डाय": 3843,
      "केल्यास": 3844,
      "जमीन": 3845,
      "झोप": 3846,
      "स्थळी": 3847,
      "मंजूर": 3848,
      "रॅ": 3849,
      "नास": 3850,
      "मराठ": 3851,
      "कत": 3852,
      "कोह": 3853,
      "!!": 3854,
      "रस्ता": 3855,
      "र्न": 3856,
      "विद्य": 3857,
      "कारक": 3858,
      "स्वामी": 3859,
      "निमित्ताने": 3860,
      "खां": 3861,
      "दिशे": 3862,
      "ष्य": 3863,
      "त्याचबरोबर": 3864,
      "मालिका": 3865,
      "दर्जा": 3866,
      "संगीत": 3867,
      "२८": 3868,
      "वापरा": 3869,
      "यांच्यासह": 3870,
      "भाजपने": 3871,
      "परीक्षे": 3872,
      "मां": 3873,
      "विनं": 3874,
      "पुरात": 3875,
      "हिंदी": 3876,
      "गाई": 3877,
      "लगेच": 3878,
      "२६": 3879,
      "संबंधी": 3880,
      "ic": 3881,
      "बरा": 3882,
      "चेंडू": 3883,
      "असला": 3884,
      "शात": 3885,
      "कोट": 3886,
      "नागरिकांनी": 3887,
      "प्रशासनाने": 3888,
      "लमध्ये": 3889,
      "उपयोग": 3890,
      "प्रश्ना": 3891,
      "तरुणी": 3892,
      "अँ": 3893,
      "जळगाव": 3894,
      "्मा": 3895,
      "ल्ले": 3896,
      "शिर": 3897,
      "दिल्लीत": 3898,
      "तुलनेत": 3899,
      "फळ": 3900,
      "वर्ल्ड": 3901,
      "सहकारी": 3902,
      "भारताने": 3903,
      "मतदारसंघात": 3904,
      "हृद": 3905,
      "रहा": 3906,
      "मुलाख": 3907,
      "दीड": 3908,
      "षिक": 3909,
      "कोर्ट": 3910,
      "स्वरूप": 3911,
      "र्क": 3912,
      "सायं": 3913,
      "उत्पन्न": 3914,
      "रं": 3915,
      "शस्त्र": 3916,
      "तेथ": 3917,
      "टाळा": 3918,
      "म्हणाला": 3919,
      "पर्यावर": 3920,
      "लष्": 3921,
      "्ज": 3922,
      "ट्रा": 3923,
      "सॉ": 3924,
      "घाट": 3925,
      "कदा": 3926,
      "खालील": 3927,
      "धम": 3928,
      "्याची": 3929,
      "रेट": 3930,
      "विनंती": 3931,
      "40": 3932,
      "ठेवून": 3933,
      "महापौर": 3934,
      "अंमल": 3935,
      "नोंदणी": 3936,
      "२७": 3937,
      "व्यक्ति": 3938,
      "सलमान": 3939,
      "स्फोट": 3940,
      "उन": 3941,
      "पक": 3942,
      "याद": 3943,
      "त्तर": 3944,
      "सारखा": 3945,
      "इतका": 3946,
      "ेल": 3947,
      "वीत": 3948,
      "नातून": 3949,
      "तृ": 3950,
      "ळकर": 3951,
      "वळी": 3952,
      "सुशांत": 3953,
      "यांच्यात": 3954,
      "टेस्ट": 3955,
      "कोहली": 3956,
      "काचे": 3957,
      "डिझे": 3958,
      "तः": 3959,
      "संकेत": 3960,
      "विद्यापीठा": 3961,
      "आश्वास": 3962,
      "वडील": 3963,
      "पंजाब": 3964,
      "as": 3965,
      "हस": 3966,
      "गाड्या": 3967,
      "पोहच": 3968,
      "समि": 3969,
      "शाळ": 3970,
      "शाळेत": 3971,
      "पाक": 3972,
      "लोकांच्या": 3973,
      "आंबेडकर": 3974,
      "साथ": 3975,
      "संस": 3976,
      "सोप": 3977,
      "कोसळ": 3978,
      "तिचे": 3979,
      "वरित": 3980,
      "जाणाऱ्या": 3981,
      "माणूस": 3982,
      "जुन्या": 3983,
      "ऑफि": 3984,
      "निशा": 3985,
      "नितीन": 3986,
      "कोल": 3987,
      "पूजा": 3988,
      "क्षणिक": 3989,
      "गायकवाड": 3990,
      "श्‍": 3991,
      "अतिरिक्त": 3992,
      "नगरसेवक": 3993,
      "कठी": 3994,
      "नवर": 3995,
      "प्रादुर्": 3996,
      "वाहना": 3997,
      "तसा": 3998,
      "२३": 3999,
      "क्रमांका": 4000,
      "नू": 4001,
      "धोरण": 4002,
      "फेसबुक": 4003,
      "बजावणी": 4004,
      "द्रा": 4005,
      "्रि": 4006,
      "आठवड्यात": 4007,
      "वारंवार": 4008,
      "23": 4009,
      "जप्त": 4010,
      "बघा": 4011,
      "आल्यानंतर": 4012,
      "राष्ट्रवादीचे": 4013,
      "घन": 4014,
      "सेल्": 4015,
      "बोला": 4016,
      "पृथ": 4017,
      "इले": 4018,
      "स्कर": 4019,
      "जाहि": 4020,
      "जागी": 4021,
      "राष्ट्रपती": 4022,
      "वर्षांपासून": 4023,
      "मार्गावर": 4024,
      "ांनी": 4025,
      "तुला": 4026,
      "कठीण": 4027,
      "डीत": 4028,
      "लागण": 4029,
      "ट्रॅ": 4030,
      "अण": 4031,
      "विली": 4032,
      "कता": 4033,
      "शनल": 4034,
      "पातळीवर": 4035,
      "्याला": 4036,
      "बाग": 4037,
      "कृष्ण": 4038,
      "याचिका": 4039,
      "नातेवाई": 4040,
      "छत्रपती": 4041,
      "टला": 4042,
      "रेल": 4043,
      "युवा": 4044,
      "दुर्लक्ष": 4045,
      "अहमद": 4046,
      "नेत्या": 4047,
      "तुझ": 4048,
      "फिर्या": 4049,
      "खळबळ": 4050,
      "वाघ": 4051,
      "सुनील": 4052,
      "नियमित": 4053,
      "ऊर्": 4054,
      "सिंध": 4055,
      "पडत": 4056,
      "करणारा": 4057,
      "आढा": 4058,
      "झील": 4059,
      "आयुष्य": 4060,
      "एक्स": 4061,
      "यांच्याकडे": 4062,
      "महिने": 4063,
      "झाल्यावर": 4064,
      "जुरी": 4065,
      "अवलंब": 4066,
      "कार्यकर्ते": 4067,
      "जगातील": 4068,
      "पॉझिटिव्ह": 4069,
      "बजा": 4070,
      "परं": 4071,
      "बीसी": 4072,
      "भरातील": 4073,
      "तीच": 4074,
      "दुरु": 4075,
      "दुचाकी": 4076,
      "निवडून": 4077,
      "कॉलेज": 4078,
      "कागद": 4079,
      "बड": 4080,
      "भाजपला": 4081,
      "कंपनीने": 4082,
      "आवश्यकता": 4083,
      "नेतृत्वा": 4084,
      "संस्कृती": 4085,
      "आदित्य": 4086,
      ".”": 4087,
      "करायचे": 4088,
      "लावली": 4089,
      "चित्रपटात": 4090,
      "तापमान": 4091,
      "नीय": 4092,
      "बिहार": 4093,
      "यंत्रणा": 4094,
      "आयोगा": 4095,
      "भग": 4096,
      "प्रिया": 4097,
      "विस्त": 4098,
      "शिक्षा": 4099,
      "पृथ्वी": 4100,
      "पाठी": 4101,
      "ऑक्सिजन": 4102,
      "भवा": 4103,
      "कृष्ट": 4104,
      "26": 4105,
      "डोळ्या": 4106,
      "महापालिकेच्या": 4107,
      "्यांना": 4108,
      "नाकार": 4109,
      "जावे": 4110,
      "आपलं": 4111,
      "क्रो": 4112,
      "खुला": 4113,
      "अब्": 4114,
      "क्रा": 4115,
      "पक्षाच्या": 4116,
      "माहीत": 4117,
      "ra": 4118,
      "मान्यता": 4119,
      "संघर्ष": 4120,
      "बचा": 4121,
      "हल्ल्या": 4122,
      "मोज": 4123,
      "चूक": 4124,
      "मना": 4125,
      "प्रक्रि": 4126,
      "मुले": 4127,
      "करायची": 4128,
      "मूद": 4129,
      "ट्ट": 4130,
      "यांचं": 4131,
      "गुला": 4132,
      "आलेला": 4133,
      "उभ": 4134,
      "मण": 4135,
      "संयुक्त": 4136,
      "झाल्यास": 4137,
      "प्रतिबंध": 4138,
      "वेगळे": 4139,
      "तालुका": 4140,
      "ंतर्गत": 4141,
      "धार्": 4142,
      "छान": 4143,
      "सर्गा": 4144,
      "घेतल्या": 4145,
      "शरीरा": 4146,
      "अंमलबजावणी": 4147,
      "आस": 4148,
      "एक्": 4149,
      "दखल": 4150,
      "निंग": 4151,
      "मिळवून": 4152,
      "शैक्षणिक": 4153,
      "हरण": 4154,
      "भरपूर": 4155,
      "अभिया": 4156,
      "स्वातंत्र्य": 4157,
      "जगात": 4158,
      "नसून": 4159,
      "शासनाने": 4160,
      "आफ्र": 4161,
      "लोकल": 4162,
      "सूत्र": 4163,
      "समुद्र": 4164,
      "तिकी": 4165,
      "जोशी": 4166,
      "निवडणुकीच्या": 4167,
      "मृतदेह": 4168,
      "सामान": 4169,
      "निषे": 4170,
      "प्ता": 4171,
      "व्हॉ": 4172,
      "अधिकृत": 4173,
      "मुस्लि": 4174,
      "याकडे": 4175,
      "प्रशासन": 4176,
      "मेट्रो": 4177,
      "जाहिरात": 4178,
      "सावर": 4179,
      "साथी": 4180,
      "काँग्रेसच्या": 4181,
      "आल्याने": 4182,
      "पक्षाचे": 4183,
      "धारा": 4184,
      "वाढली": 4185,
      "स्थापना": 4186,
      "रस्ते": 4187,
      "इत्या": 4188,
      "मेह": 4189,
      "मुद्दे": 4190,
      "वजन": 4191,
      "श्रा": 4192,
      "लेश": 4193,
      "जागां": 4194,
      "सर्‍या": 4195,
      "प्रकारचे": 4196,
      "पाहिले": 4197,
      "तिसऱ्या": 4198,
      "झर": 4199,
      "वाळ": 4200,
      "स्तर": 4201,
      "नक्कीच": 4202,
      "मत्": 4203,
      "चिन्": 4204,
      "सर्गिक": 4205,
      "७०": 4206,
      "देतात": 4207,
      "निर्बंध": 4208,
      "कांसाठी": 4209,
      "कोणाला": 4210,
      "णीव": 4211,
      "वाजे": 4212,
      "रांना": 4213,
      "विवाह": 4214,
      "टेड": 4215,
      "दात": 4216,
      "जागृ": 4217,
      "द्यावर": 4218,
      "डोंग": 4219,
      "अॅप": 4220,
      "माफी": 4221,
      "मोक": 4222,
      "असतानाच": 4223,
      "वितरण": 4224,
      "रच": 4225,
      "ऱ्यावर": 4226,
      "बीड": 4227,
      "देशाच्या": 4228,
      "रस्त्या": 4229,
      "इस": 4230,
      "नंदा": 4231,
      "दित": 4232,
      "सायंकाळी": 4233,
      "सदर": 4234,
      "देता": 4235,
      "पहिले": 4236,
      "रोजगार": 4237,
      "तणा": 4238,
      "बहि": 4239,
      "भाई": 4240,
      "सेने": 4241,
      "आढावा": 4242,
      "ठार": 4243,
      "चेन्न": 4244,
      "कडक": 4245,
      "दरवर्षी": 4246,
      "युक्ती": 4247,
      "नसते": 4248,
      "मुदत": 4249,
      "ओढ": 4250,
      "णाचे": 4251,
      "सातारा": 4252,
      "फुल": 4253,
      "कार्यालयात": 4254,
      "धुनिक": 4255,
      "कालावधीत": 4256,
      "सित": 4257,
      "साठ": 4258,
      "घटक": 4259,
      "आड": 4260,
      "काची": 4261,
      "८०": 4262,
      "कपडे": 4263,
      "आयुक्ता": 4264,
      "दुर्ग": 4265,
      "विभागाच्या": 4266,
      "वर्षांपूर्वी": 4267,
      "चहा": 4268,
      "पदी": 4269,
      "बेड": 4270,
      "सातत्याने": 4271,
      "पंचाय": 4272,
      "यादव": 4273,
      "उष्ण": 4274,
      "ऊस": 4275,
      "सकार": 4276,
      "हजर": 4277,
      "युरो": 4278,
      "बाधिता": 4279,
      "दहशतवादी": 4280,
      "जारा": 4281,
      "उपमुख्यमंत्री": 4282,
      "तालुक्यात": 4283,
      "ंपैकी": 4284,
      "मट": 4285,
      "गोंध": 4286,
      "डिंग": 4287,
      "इंग्रजी": 4288,
      "अग्": 4289,
      "शकेल": 4290,
      "तेला": 4291,
      "पासूनच": 4292,
      "झाल्याची": 4293,
      "मृता": 4294,
      "फेरी": 4295,
      "सावंत": 4296,
      "त्याचं": 4297,
      "समजून": 4298,
      "गावातील": 4299,
      "सहाय्य": 4300,
      "जणांचा": 4301,
      "रुपयांचा": 4302,
      "बरोबरच": 4303,
      "विसर": 4304,
      "नाईक": 4305,
      "चेन्नई": 4306,
      "सॅ": 4307,
      "कलम": 4308,
      "प्रदेशाध्यक्ष": 4309,
      "गला": 4310,
      "नमूद": 4311,
      "27": 4312,
      "कोळ": 4313,
      "दादा": 4314,
      "वडा": 4315,
      "हजारो": 4316,
      "बऱ्याच": 4317,
      "is": 4318,
      "अँड": 4319,
      "पटेल": 4320,
      "रळ": 4321,
      "सभाग": 4322,
      "िरी": 4323,
      "सिटी": 4324,
      "भरती": 4325,
      "माळ": 4326,
      "ंतून": 4327,
      "लास": 4328,
      "सभागृ": 4329,
      "जली": 4330,
      "टरी": 4331,
      "र्त": 4332,
      "वाटप": 4333,
      "डोस": 4334,
      "तेचा": 4335,
      "संपाद": 4336,
      "कार्यक्रमात": 4337,
      "करतील": 4338,
      "मिळू": 4339,
      "कधीही": 4340,
      "सकारात्मक": 4341,
      "भरून": 4342,
      "शंकर": 4343,
      "राजस्थान": 4344,
      "2019": 4345,
      "व्यावसायिक": 4346,
      "पाप": 4347,
      "णार्‍या": 4348,
      "सुरूवात": 4349,
      "अर्थसं": 4350,
      "महत्त्वाची": 4351,
      "छोट्या": 4352,
      "स्वप्न": 4353,
      "धार्मिक": 4354,
      "इत्यादी": 4355,
      "धू": 4356,
      "ंगे": 4357,
      "टीस": 4358,
      "करायचा": 4359,
      "शिवसेनेचे": 4360,
      "लप": 4361,
      "विक्रम": 4362,
      "णीत": 4363,
      "दारू": 4364,
      "आदिवा": 4365,
      "ोष": 4366,
      "दिशा": 4367,
      "येथून": 4368,
      "संशोधन": 4369,
      "तज्ज्ञ": 4370,
      "सेट": 4371,
      "बॉल": 4372,
      "प्रवासी": 4373,
      "स्ट्री": 4374,
      "नागरी": 4375,
      "दत्त": 4376,
      "संभाजी": 4377,
      "शुल्क": 4378,
      "इंजि": 4379,
      "सांगली": 4380,
      "डिझा": 4381,
      "पोलीसनामा": 4382,
      "ठरला": 4383,
      "१९९": 4384,
      "राजेश": 4385,
      "आक्रमक": 4386,
      "आदिवासी": 4387,
      "मनु": 4388,
      "जाणीव": 4389,
      "सेवे": 4390,
      "युव": 4391,
      "स्मार्टफोन": 4392,
      "गन": 4393,
      "३१": 4394,
      "क्षम": 4395,
      "योगी": 4396,
      "वाटतं": 4397,
      "अस्ति": 4398,
      "कंग": 4399,
      "पिक": 4400,
      "सर्वे": 4401,
      "वार्षिक": 4402,
      "आकडेवारी": 4403,
      "जम्": 4404,
      "ड्रा": 4405,
      "विधी": 4406,
      "व्यति": 4407,
      "वक्तव्य": 4408,
      "म्हणणे": 4409,
      "विधे": 4410,
      "पाण्या": 4411,
      "मधल्या": 4412,
      "परिषदेत": 4413,
      "पांडे": 4414,
      "ांकडून": 4415,
      "मध्यम": 4416,
      "नैसर्गिक": 4417,
      "अफगा": 4418,
      "कदाचित": 4419,
      "ांशी": 4420,
      "रिपोर्ट": 4421,
      "राहून": 4422,
      "खरं": 4423,
      "अश्": 4424,
      "वगळ": 4425,
      "लाखो": 4426,
      "धरण": 4427,
      "विंद": 4428,
      "वते": 4429,
      "हिता": 4430,
      "कायदेशीर": 4431,
      "वण्याची": 4432,
      "राशी": 4433,
      "ंगी": 4434,
      "काहीतरी": 4435,
      "सहभाग": 4436,
      "२०२०": 4437,
      "रुग्णांना": 4438,
      "मोफत": 4439,
      "ऱ्यात": 4440,
      "सलग": 4441,
      "शैली": 4442,
      "वाडा": 4443,
      "दुखा": 4444,
      "स्टॉ": 4445,
      "दारांनी": 4446,
      "यांवर": 4447,
      "लोकशाही": 4448,
      "हीम": 4449,
      "स्त्रा": 4450,
      "णांनी": 4451,
      "पीड": 4452,
      "संध्याकाळी": 4453,
      "साला": 4454,
      "मुख्या": 4455,
      "भारताला": 4456,
      "वर्षाच्या": 4457,
      "निवडणुका": 4458,
      "उर": 4459,
      "ंत्रा": 4460,
      "शान": 4461,
      "मिळून": 4462,
      "ज्यामुळे": 4463,
      "थोड": 4464,
      "नौ": 4465,
      "समान": 4466,
      "त्यापैकी": 4467,
      "स्थानी": 4468,
      "करणारी": 4469,
      "सुरुवातीला": 4470,
      "चळ": 4471,
      "विभागात": 4472,
      "घाला": 4473,
      "बिग": 4474,
      "बिन": 4475,
      "अभिन": 4476,
      "फरक": 4477,
      "बलात्कार": 4478,
      "ha": 4479,
      "अंतर": 4480,
      "आकडा": 4481,
      "वढा": 4482,
      "पीक": 4483,
      "पैसा": 4484,
      "om": 4485,
      "थ्या": 4486,
      "लावले": 4487,
      "देशभरात": 4488,
      "गरम": 4489,
      "प्रमाणावर": 4490,
      "काचा": 4491,
      "काळे": 4492,
      "स्वागत": 4493,
      "ग्राहकांना": 4494,
      "अपेक्षित": 4495,
      "व्यतिरिक्त": 4496,
      "कटा": 4497,
      "मधु": 4498,
      "नाराजी": 4499,
      "किलोमीटर": 4500,
      "ऑलि": 4501,
      "्मी": 4502,
      "पाण्यात": 4503,
      "ग्रं": 4504,
      "कार्यरत": 4505,
      "सूर्य": 4506,
      "मय": 4507,
      "पांढ": 4508,
      "मोहन": 4509,
      "खेड": 4510,
      "समाधान": 4511,
      "वेगळी": 4512,
      "तला": 4513,
      "याबद्दल": 4514,
      "घेण्याची": 4515,
      "सहन": 4516,
      "वैय": 4517,
      "वर्षांत": 4518,
      "नाना": 4519,
      "सोय": 4520,
      "कागदपत्र": 4521,
      "हाच": 4522,
      "मागित": 4523,
      "चन": 4524,
      "रशि": 4525,
      "डेटा": 4526,
      "ज्यो": 4527,
      "ध्व": 4528,
      "ष्ठा": 4529,
      "आयटी": 4530,
      "केल्याचा": 4531,
      "सुधारणा": 4532,
      "',": 4533,
      "गमा": 4534,
      "धरी": 4535,
      "लेट": 4536,
      "नेही": 4537,
      "मेड": 4538,
      "क्षेप": 4539,
      "पोलिसांच्या": 4540,
      "जबाबदार": 4541,
      "सीबीआय": 4542,
      "ळु": 4543,
      "नेत्यांनी": 4544,
      "निधन": 4545,
      "ज्ज": 4546,
      "थंड": 4547,
      "पंक": 4548,
      "मौ": 4549,
      "४५": 4550,
      "्याचे": 4551,
      "धानी": 4552,
      "त्यामुळेच": 4553,
      "विकसित": 4554,
      "शेतकऱ्यांच्या": 4555,
      "मुख्यमंत्र्यांनी": 4556,
      "शंका": 4557,
      "३५": 4558,
      "करार": 4559,
      "किशो": 4560,
      "टाय": 4561,
      "लागतात": 4562,
      "विभागाचे": 4563,
      "अक्षय": 4564,
      "गॅस": 4565,
      "28": 4566,
      "ध्ये": 4567,
      "आजारा": 4568,
      "उपाययोजना": 4569,
      "ंसोबत": 4570,
      "खरी": 4571,
      "शपथ": 4572,
      "सृ": 4573,
      "क्ल": 4574,
      "संदेश": 4575,
      "कोरोनामुळे": 4576,
      "पक्षी": 4577,
      "अरु": 4578,
      "ठरा": 4579,
      "मागण्या": 4580,
      "अग्र": 4581,
      "पुन": 4582,
      "एकही": 4583,
      "माता": 4584,
      "रिक्षा": 4585,
      "us": 4586,
      "प्रशिक्षण": 4587,
      "मदतीने": 4588,
      "क्रीडा": 4589,
      "ठ्ठ": 4590,
      "यासंदर्भात": 4591,
      "खाज": 4592,
      "ग्रहा": 4593,
      "कुटुंबी": 4594,
      "प्रादुर्भाव": 4595,
      "इम": 4596,
      "शाखे": 4597,
      "केल्याची": 4598,
      "वेगाने": 4599,
      "मिळालेल्या": 4600,
      "पाऊल": 4601,
      "एवढे": 4602,
      "प्रदर्शित": 4603,
      "गोळी": 4604,
      "Re": 4605,
      "प्रेस": 4606,
      "द्यावी": 4607,
      "कर्णी": 4608,
      "व्यवस्थाप": 4609,
      "काढले": 4610,
      "प्रकारची": 4611,
      "सरासरी": 4612,
      "तेज": 4613,
      "लिहिले": 4614,
      "भाडे": 4615,
      "स्टिक": 4616,
      "णांना": 4617,
      "पुढच्या": 4618,
      "un": 4619,
      "पल": 4620,
      "ताक": 4621,
      "होण्या": 4622,
      "गणपती": 4623,
      "वासा": 4624,
      "त्यांचं": 4625,
      "कधीच": 4626,
      "घोषित": 4627,
      "पालकमंत्री": 4628,
      "नॅशनल": 4629,
      "कने": 4630,
      "धिकाऱ्या": 4631,
      "सून": 4632,
      "विकेट": 4633,
      "वेध": 4634,
      "प्स": 4635,
      "लक्ष्मी": 4636,
      "निवास": 4637,
      "मध्येही": 4638,
      "पुला": 4639,
      "गृहमंत्री": 4640,
      "इंटरनेट": 4641,
      "दिशेने": 4642,
      "गडी": 4643,
      "तळा": 4644,
      "दीर्": 4645,
      "जनक": 4646,
      "माहित": 4647,
      "मार्केट": 4648,
      "केल्याचे": 4649,
      "अंबा": 4650,
      "जबर": 4651,
      "२९": 4652,
      "वावर": 4653,
      "बहुते": 4654,
      "एकी": 4655,
      "स्वि": 4656,
      "केची": 4657,
      "होण्यासाठी": 4658,
      "अधिका": 4659,
      "ठरले": 4660,
      "घटनास्थळी": 4661,
      "तेच्या": 4662,
      "एकनाथ": 4663,
      "ir": 4664,
      "तेवढ": 4665,
      "तुमची": 4666,
      "60": 4667,
      "रणा": 4668,
      "गोड": 4669,
      "आयुष्यात": 4670,
      "पुण्यातील": 4671,
      "्रो": 4672,
      "वर्षांच्या": 4673,
      "काढला": 4674,
      "मोदींनी": 4675,
      "भारताचा": 4676,
      "थोडा": 4677,
      "le": 4678,
      "अधी": 4679,
      "य्या": 4680,
      "नियुक्ती": 4681,
      "वर्धन": 4682,
      "गेट": 4683,
      "कर्नाटक": 4684,
      "सहकार्य": 4685,
      "उत्सु": 4686,
      "चौधरी": 4687,
      "शुभे": 4688,
      "हीच": 4689,
      "तां": 4690,
      "संदीप": 4691,
      "द्यावे": 4692,
      "मुंबईच्या": 4693,
      "२०१९": 4694,
      "वैशिष्ट": 4695,
      "तुमचे": 4696,
      "उडाली": 4697,
      "रहिवा": 4698,
      "प्रभाव": 4699,
      "यांनीही": 4700,
      "राहत": 4701,
      "31": 4702,
      "बीर": 4703,
      "धारी": 4704,
      "देण्याचे": 4705,
      "बोध": 4706,
      "खडसे": 4707,
      "आहार": 4708,
      "इरा": 4709,
      "प्रसाद": 4710,
      "यावरून": 4711,
      "पदवी": 4712,
      "ion": 4713,
      "उभा": 4714,
      "टणी": 4715,
      "खूपच": 4716,
      "मिनिट": 4717,
      "कूर": 4718,
      "असत": 4719,
      "सांगतात": 4720,
      "आधारित": 4721,
      "भ्रष्टा": 4722,
      "रल": 4723,
      "लगाव": 4724,
      "वतात": 4725,
      "पाने": 4726,
      "घेतलं": 4727,
      "सरकारकडून": 4728,
      "महत्त्वाचा": 4729,
      "पाकिस्ता": 4730,
      "्डा": 4731,
      "शेट्टी": 4732,
      "रिझ": 4733,
      "भेद": 4734,
      "पाहणी": 4735,
      "मीडिया": 4736,
      "आभार": 4737,
      "फिल्": 4738,
      "क्रिय": 4739,
      "उंची": 4740,
      "रज": 4741,
      "वीट": 4742,
      "--------": 4743,
      "खून": 4744,
      "तर्फे": 4745,
      "धनं": 4746,
      "तुट": 4747,
      "स्तरावर": 4748,
      "जगभरात": 4749,
      "लॉक": 4750,
      "शब्दा": 4751,
      "लंबित": 4752,
      "पहाटे": 4753,
      "झीलंड": 4754,
      ").": 4755,
      "अंगा": 4756,
      "उज": 4757,
      "वाही": 4758,
      "जाग": 4759,
      "सीमा": 4760,
      "पेट": 4761,
      "जन्य": 4762,
      "मॅच": 4763,
      "वलेल्या": 4764,
      "राज्याच्या": 4765,
      "सभापती": 4766,
      "चक": 4767,
      "षट": 4768,
      "सैनि": 4769,
      "कोर्टात": 4770,
      "अज": 4771,
      "दबा": 4772,
      "सागर": 4773,
      "विशिष्ट": 4774,
      "मोल": 4775,
      "दोघा": 4776,
      "श्रील": 4777,
      "रेड": 4778,
      "वर्क": 4779,
      "क्तिक": 4780,
      "घरातील": 4781,
      "प्रकृती": 4782,
      "अवघ्या": 4783,
      "वाने": 4784,
      "ल्याचा": 4785,
      "सुरेश": 4786,
      "तुझ्या": 4787,
      "धनंजय": 4788,
      "गम": 4789,
      "वणार": 4790,
      "कोठ": 4791,
      "गाळ": 4792,
      "गावी": 4793,
      "कडी": 4794,
      "ग्रुप": 4795,
      "सुरक्षे": 4796,
      "खाते": 4797,
      "सांभा": 4798,
      "डिझेल": 4799,
      "केचा": 4800,
      "सांगून": 4801,
      "आमची": 4802,
      "ट्रम्प": 4803,
      "नावाने": 4804,
      "मलिक": 4805,
      "वेळेत": 4806,
      "तै": 4807,
      "वायला": 4808,
      "पत्रा": 4809,
      "मंजुरी": 4810,
      "जागृती": 4811,
      "दरात": 4812,
      "हद्दी": 4813,
      "त्यानं": 4814,
      "त्सव": 4815,
      "मेळा": 4816,
      "यांच्याशी": 4817,
      "सामने": 4818,
      "रत्नाग": 4819,
      "रम": 4820,
      "स्तीत": 4821,
      "होम": 4822,
      "मिश्र": 4823,
      "दाखवून": 4824,
      "भुज": 4825,
      "ग्राहक": 4826,
      "वैयक्तिक": 4827,
      "कसं": 4828,
      "पला": 4829,
      "लोकांची": 4830,
      "सरकारवर": 4831,
      "आश्वासन": 4832,
      "एके": 4833,
      "तारा": 4834,
      "कावर": 4835,
      "कीस": 4836,
      "टीएम": 4837,
      "जेट": 4838,
      "लावला": 4839,
      "नव्याने": 4840,
      "दुरुस्ती": 4841,
      "प्या": 4842,
      "प्रसि": 4843,
      "जीत": 4844,
      "घेतलेल्या": 4845,
      "एमआय": 4846,
      "वणुकी": 4847,
      "मार्गदर्शन": 4848,
      "मोबाइल": 4849,
      "तात्काळ": 4850,
      "कविता": 4851,
      "आदेशा": 4852,
      "ल्ट": 4853,
      "सिनेमात": 4854,
      "क्रांती": 4855,
      "किंमती": 4856,
      "गडकरी": 4857,
      "गरीब": 4858,
      "कांब": 4859,
      "वासी": 4860,
      "सोयी": 4861,
      "वैध": 4862,
      "पुस्तक": 4863,
      "बाबासाहेब": 4864,
      "शेवटच्या": 4865,
      "प्रभावी": 4866,
      "70": 4867,
      "शिरा": 4868,
      "किमी": 4869,
      "मेश": 4870,
      "गेलं": 4871,
      "वेगळा": 4872,
      "सृष्टी": 4873,
      "आनंदा": 4874,
      "विर": 4875,
      "सेना": 4876,
      "सोसाय": 4877,
      "बिया": 4878,
      "निषेध": 4879,
      "दीर्घ": 4880,
      "अरे": 4881,
      "दोष": 4882,
      "पडतो": 4883,
      "काँग्रेसने": 4884,
      "फुले": 4885,
      "जसे": 4886,
      "महो": 4887,
      "क्ट्र": 4888,
      "म्ब": 4889,
      "मित्रा": 4890,
      "कीत": 4891,
      "णीच्या": 4892,
      "दुसर्‍या": 4893,
      "ठरणार": 4894,
      "मतदारसंघ": 4895,
      "मंडळाच्या": 4896,
      "लाट": 4897,
      "तालि": 4898,
      "युनि": 4899,
      "काढा": 4900,
      "बसून": 4901,
      "तुमचा": 4902,
      "न्यूझीलंड": 4903,
      "फलंदाज": 4904,
      "मूल्य": 4905,
      "बूत": 4906,
      "सन्मान": 4907,
      "ईडी": 4908,
      "कठो": 4909,
      "ख्": 4910,
      "सच्या": 4911,
      "ंगिक": 4912,
      "रेशन": 4913,
      "वाढत्या": 4914,
      "पर्यटन": 4915,
      "जम्मू": 4916,
      "29": 4917,
      "चंद": 4918,
      "याचं": 4919,
      "त्यातच": 4920,
      "मैत्री": 4921,
      "ol": 4922,
      "ur": 4923,
      "आदर्श": 4924,
      "तप": 4925,
      "तेथील": 4926,
      "ंमधील": 4927,
      "प्रसंगी": 4928,
      "िकल": 4929,
      "असावा": 4930,
      "दुकान": 4931,
      "कोर्टाने": 4932,
      "त्मक": 4933,
      "कोणतेही": 4934,
      "हार्": 4935,
      "बातम्या": 4936,
      "संतोष": 4937,
      ".'": 4938,
      "तरतू": 4939,
      "जेवण": 4940,
      "पीठा": 4941,
      "महिना": 4942,
      "प्राण": 4943,
      "समितीच्या": 4944,
      "पर्यावरण": 4945,
      "फ्रा": 4946,
      "ारे": 4947,
      "धाना": 4948,
      "लागलं": 4949,
      "काढण्यात": 4950,
      "कॉर्": 4951,
      "भोसले": 4952,
      "कली": 4953,
      "खं": 4954,
      "वतो": 4955,
      "ह्म": 4956,
      "खेळी": 4957,
      "नोटीस": 4958,
      "कुलकर्णी": 4959,
      "ट्यू": 4960,
      "्याचा": 4961,
      "देण्या": 4962,
      "अहमदनगर": 4963,
      "अफगाणि": 4964,
      "आहात": 4965,
      "दिना": 4966,
      "आढळले": 4967,
      "विनोद": 4968,
      "अट": 4969,
      "खोल": 4970,
      "त्सा": 4971,
      "पुरी": 4972,
      "धमकी": 4973,
      "नमु": 4974,
      "ल्यात": 4975,
      "व्यापारी": 4976,
      "शुभ": 4977,
      "इतक्या": 4978,
      "नव्हतं": 4979,
      "नेतृत्व": 4980,
      "अण्": 4981,
      "शुभेच्छा": 4982,
      "गज": 4983,
      "रांच्या": 4984,
      "प्रगती": 4985,
      "पाया": 4986,
      "उपक्रम": 4987,
      "वाढते": 4988,
      "फाई": 4989,
      "चर्य": 4990,
      "अमेरिकेत": 4991,
      "कचरा": 4992,
      "मशी": 4993,
      "ॉन": 4994,
      "तांना": 4995,
      "रुन": 4996,
      "असूनही": 4997,
      "घ्यावा": 4998,
      "पदार्": 4999,
      "याआधी": 5000,
      "नातील": 5001,
      "देसाई": 5002,
      "राजकारणात": 5003,
      "ठरेल": 5004,
      "ण्ड": 5005,
      "्यांच्या": 5006,
      "तीश": 5007,
      "योगा": 5008,
      "स्टेट": 5009,
      "तिहासिक": 5010,
      "खाजगी": 5011,
      "जयंत": 5012,
      "सक्रिय": 5013,
      "असणे": 5014,
      "वंचित": 5015,
      "कंत्रा": 5016,
      "झाडा": 5017,
      "पिंग": 5018,
      "वाहतु": 5019,
      "प्रत्येकी": 5020,
      "राहिली": 5021,
      "सत्र": 5022,
      "शिफार": 5023,
      "घेण्याचा": 5024,
      "सिड": 5025,
      "व्याज": 5026,
      "राहू": 5027,
      "खात्री": 5028,
      "मॉडेल": 5029,
      "गंगा": 5030,
      "जिथे": 5031,
      "व्यवस्थापन": 5032,
      "विकत": 5033,
      "व्यक्तीला": 5034,
      "उपाध्यक्ष": 5035,
      "डॉलर": 5036,
      "थोडे": 5037,
      "पार्क": 5038,
      "बहुतेक": 5039,
      "कठोर": 5040,
      ".)": 5041,
      "ओला": 5042,
      "खबर": 5043,
      "मानवी": 5044,
      "आपल्याकडे": 5045,
      "कामका": 5046,
      "कळत": 5047,
      "राहिला": 5048,
      "संघाचे": 5049,
      "बिल": 5050,
      "सगळं": 5051,
      "तिकीट": 5052,
      "जना": 5053,
      "सरपंच": 5054,
      "डिस्": 5055,
      "वाढला": 5056,
      "कार्यकारी": 5057,
      "अमेरिक": 5058,
      "बनाव": 5059,
      "विदर्भ": 5060,
      "वरच": 5061,
      "संचाल": 5062,
      "राजकार": 5063,
      "राष्ट्रा": 5064,
      "000": 5065,
      "सज्ज": 5066,
      "वाग": 5067,
      "रीज": 5068,
      "थोडी": 5069,
      "ing": 5070,
      "फसवणूक": 5071,
      "ay": 5072,
      "ऐतिहासिक": 5073,
      "लाँ": 5074,
      "लाटे": 5075,
      "चाली": 5076,
      "तेने": 5077,
      "सोने": 5078,
      "रूम": 5079,
      "सर्वत्र": 5080,
      "दिलीप": 5081,
      "अमेरिका": 5082,
      "महेश": 5083,
      "परंपरा": 5084,
      "व्हॅ": 5085,
      "छाया": 5086,
      "कर्मचाऱ्यांना": 5087,
      "वक्तव्या": 5088,
      "चाचण्या": 5089,
      "जवाना": 5090,
      "दगड": 5091,
      "वाजा": 5092,
      "निकाला": 5093,
      "दिक": 5094,
      "जान": 5095,
      "परदेशी": 5096,
      "स्थिर": 5097,
      "अंतरावर": 5098,
      "प्रमाणेच": 5099,
      "लैंगिक": 5100,
      "अवलंबून": 5101,
      "सारा": 5102,
      "हारा": 5103,
      "हक्क": 5104,
      "‘‘": 5105,
      "यावर्षी": 5106,
      "नांदे": 5107,
      "गाज": 5108,
      "शेल": 5109,
      "घाबर": 5110,
      "जाण्याची": 5111,
      "मोट": 5112,
      "विचारले": 5113,
      "कांकडून": 5114,
      "कपात": 5115,
      "धर्": 5116,
      "लोकांचा": 5117,
      "फेक": 5118,
      "मुस्लिम": 5119,
      "आधुनिक": 5120,
      "चला": 5121,
      "विवे": 5122,
      "पक्षनेते": 5123,
      "वृत्तसंस्था": 5124,
      "तरतूद": 5125,
      ",’": 5126,
      "कातील": 5127,
      "कामात": 5128,
      "आरोपा": 5129,
      "झाल्यामुळे": 5130,
      "राजेंद्र": 5131,
      "रत्नागिरी": 5132,
      "80": 5133,
      "कंपनीच्या": 5134,
      "पदाची": 5135,
      "ओबीसी": 5136,
      "कदम": 5137,
      "पत्ता": 5138,
      "यस": 5139,
      "प्रव": 5140,
      "लोड": 5141,
      "दिसतात": 5142,
      "ज्ञात": 5143,
      "पंतप्रधाना": 5144,
      "स्टाग्राम": 5145,
      "अमरा": 5146,
      "मने": 5147,
      "दागि": 5148,
      "वर्ती": 5149,
      "महात": 5150,
      "बिब": 5151,
      "कुठल्याही": 5152,
      "ऑफिस": 5153,
      "नांदेड": 5154,
      "यास": 5155,
      "देण्यास": 5156,
      "णीय": 5157,
      "रोखण्यासाठी": 5158,
      "दिग्दर्शक": 5159,
      "खुलासा": 5160,
      "In": 5161,
      "संताप": 5162,
      "सुभाष": 5163,
      "आयसी": 5164,
      "सायकल": 5165,
      "टप्प्यात": 5166,
      "फूट": 5167,
      "नेस": 5168,
      "क्लि": 5169,
      "विल": 5170,
      "वरच्या": 5171,
      "देते": 5172,
      "ांचं": 5173,
      "मोहीम": 5174,
      "राजू": 5175,
      "ंबि": 5176,
      ".....": 5177,
      "कर्त": 5178,
      "असाल": 5179,
      "टाकून": 5180,
      "खर्चा": 5181,
      "उघडकीस": 5182,
      "शाल": 5183,
      "ग्रॅम": 5184,
      "दहशतवाद्या": 5185,
      "प्रत्यक्षात": 5186,
      "इंडियन": 5187,
      "नने": 5188,
      "वाणी": 5189,
      "माघ": 5190,
      "मानी": 5191,
      "देतो": 5192,
      "उपयुक्त": 5193,
      "२०२१": 5194,
      "घातला": 5195,
      "मोठय़ा": 5196,
      "वट": 5197,
      "राजधानी": 5198,
      "चक्क": 5199,
      "थक": 5200,
      "साठा": 5201,
      "क्सी": 5202,
      "म्हणाल्या": 5203,
      "डोळे": 5204,
      "ग्रामपंचाय": 5205,
      "अमेरिकन": 5206,
      "आत्ता": 5207,
      "ज्यात": 5208,
      "ताण": 5209,
      "प्रदेशात": 5210,
      "होताना": 5211,
      "निरो": 5212,
      "त्वचे": 5213,
      "सगळी": 5214,
      "कामाला": 5215,
      "वेतन": 5216,
      "असतानाही": 5217,
      "फलंदाजी": 5218,
      "आश्चर्य": 5219,
      "हैदरा": 5220,
      "ईत": 5221,
      "उभी": 5222,
      "द्यावा": 5223,
      "लसीकरणा": 5224,
      "गोंधळ": 5225,
      "लक्ष्य": 5226,
      "पावसाळ्यात": 5227,
      "साईट": 5228,
      "उदाहर": 5229,
      "सिंधु": 5230,
      "गटा": 5231,
      "ऱ्": 5232,
      "वसु": 5233,
      "होई": 5234,
      "वरही": 5235,
      "डाव": 5236,
      "35": 5237,
      "रचना": 5238,
      "प्रशांत": 5239,
      "मुलं": 5240,
      "गेलेल्या": 5241,
      "उत्सा": 5242,
      "कित्ये": 5243,
      "फर्": 5244,
      "स्ला": 5245,
      "बाबी": 5246,
      "नाहीये": 5247,
      "महसूल": 5248,
      "आमचे": 5249,
      "एखादी": 5250,
      "सवल": 5251,
      "ंतील": 5252,
      "शारी": 5253,
      "केरळ": 5254,
      "कडील": 5255,
      "गोदर": 5256,
      "पट्ट": 5257,
      "यंत्रणे": 5258,
      "अधिकाऱ्यांनी": 5259,
      "ह्य": 5260,
      "प्रधान": 5261,
      "म्मद": 5262,
      "कोला": 5263,
      "अशीच": 5264,
      "राहतात": 5265,
      "घडा": 5266,
      "सक्षम": 5267,
      "संकटा": 5268,
      "प्राधान्य": 5269,
      "प्रतिमा": 5270,
      "दुर्दै": 5271,
      "स्थेत": 5272,
      "२०१४": 5273,
      "मजबूत": 5274,
      "पली": 5275,
      "हेल्": 5276,
      "सुच": 5277,
      "सेवक": 5278,
      "टाटा": 5279,
      "कुणाला": 5280,
      "राज्यमंत्री": 5281,
      "डोक्या": 5282,
      "त्तम": 5283,
      "रायगड": 5284,
      "महत्वाचे": 5285,
      "नजर": 5286,
      "किमती": 5287,
      "अशाच": 5288,
      "पुढा": 5289,
      "वेगळ्या": 5290,
      "वृक्ष": 5291,
      "जबरद": 5292,
      "भुजबळ": 5293,
      "टीत": 5294,
      "गीत": 5295,
      "आमचा": 5296,
      "शेतक": 5297,
      "आठवण": 5298,
      "मालिकेत": 5299,
      "भंग": 5300,
      "कांदा": 5301,
      "राणा": 5302,
      "पोर्": 5303,
      "सिस": 5304,
      "ठेवली": 5305,
      "भाषण": 5306,
      "इलेक्ट्र": 5307,
      "इंध": 5308,
      "बच्च": 5309,
      "ममता": 5310,
      "ed": 5311,
      "नीट": 5312,
      "लिया": 5313,
      "माझं": 5314,
      "चम": 5315,
      "जरे": 5316,
      "नम": 5317,
      "नक्ष": 5318,
      "त्वात": 5319,
      "किर": 5320,
      "स्वस्थ": 5321,
      "कृष्": 5322,
      "लावण्यात": 5323,
      "दीपक": 5324,
      "अ‍ॅप": 5325,
      "भविष्यात": 5326,
      "मोहिमे": 5327,
      "सवि": 5328,
      "प्रार": 5329,
      "रुपयां": 5330,
      "पालिकेच्या": 5331,
      "स्त्रिया": 5332,
      "सत्ताधारी": 5333,
      "++++++++": 5334,
      "अग्नि": 5335,
      "हैदराबाद": 5336,
      "खट": 5337,
      "आणले": 5338,
      "कोरोनाचे": 5339,
      "लक्षणे": 5340,
      "am": 5341,
      "id": 5342,
      "मनी": 5343,
      "सण": 5344,
      "पेपर": 5345,
      "पारं": 5346,
      "राज्यपाल": 5347,
      "सध्याच्या": 5348,
      "अत्याचार": 5349,
      "आफ्रि": 5350,
      "एकीकडे": 5351,
      "अगोदर": 5352,
      "ऑफर": 5353,
      "वर्गा": 5354,
      "दोषी": 5355,
      "पिढी": 5356,
      "समाजात": 5357,
      "कॉन्": 5358,
      "चौक": 5359,
      "तंत्रज्ञान": 5360,
      "चेहरा": 5361,
      "आकाश": 5362,
      "ऑपरे": 5363,
      "पून": 5364,
      "कोंडी": 5365,
      "महाग": 5366,
      "घ्यायला": 5367,
      "अवस्था": 5368,
      "परिणामी": 5369,
      "महत्त्वाच्या": 5370,
      "जनतेला": 5371,
      "खराब": 5372,
      "सब": 5373,
      "विष्ट": 5374,
      "विचारा": 5375,
      "मुर": 5376,
      "रात्र": 5377,
      "अनेकांना": 5378,
      "मतदा": 5379,
      "कार्यालय": 5380,
      "पद्धत": 5381,
      "हसील": 5382,
      "तहसील": 5383,
      "मुसळ": 5384,
      "निदर्श": 5385,
      "सर्वसाधारण": 5386,
      "सूत्रा": 5387,
      "अडथ": 5388,
      "शिवसेनेच्या": 5389,
      "वेदना": 5390,
      "आठवड्या": 5391,
      "अधिवेश": 5392,
      "पहिल्यांदाच": 5393,
      "मागा": 5394,
      "हानी": 5395,
      "ंबी": 5396,
      "पाहू": 5397,
      "महिलांना": 5398,
      "भागीय": 5399,
      "तालिबा": 5400,
      "लेलं": 5401,
      "विभागीय": 5402,
      "शीत": 5403,
      "कॉर्ड": 5404,
      "ठेवला": 5405,
      "समितीचे": 5406,
      "कोलका": 5407,
      "गू": 5408,
      "९०": 5409,
      "जेणे": 5410,
      "संघाने": 5411,
      "तांश": 5412,
      "अम": 5413,
      "डून": 5414,
      "ढकल": 5415,
      "धीश": 5416,
      "पूर्वक": 5417,
      "अभियं": 5418,
      "मर्यादा": 5419,
      "ुत": 5420,
      "७५": 5421,
      "वेशा": 5422,
      "चार्ज": 5423,
      "हळूहळू": 5424,
      "चक्र": 5425,
      "केदार": 5426,
      "राहते": 5427,
      "बाजारपे": 5428,
      "संख्येने": 5429,
      "किशोर": 5430,
      "मुसळधार": 5431,
      "पगार": 5432,
      "हरी": 5433,
      "समू": 5434,
      "चौथ्या": 5435,
      "ठिकाण": 5436,
      "अवघड": 5437,
      "कोणीही": 5438,
      "एकमेव": 5439,
      "कमि": 5440,
      "हस्त": 5441,
      "नानंतर": 5442,
      "रांनी": 5443,
      "केशन": 5444,
      "धाड": 5445,
      "दिवसें": 5446,
      "महाजन": 5447,
      "ट्वीट": 5448,
      "बहुतांश": 5449,
      "पुरावा": 5450,
      "सुट्टी": 5451,
      "उन्हाळ्यात": 5452,
      "ऊर्जा": 5453,
      "चात": 5454,
      "देणाऱ्या": 5455,
      "बोट": 5456,
      "शेतकर्": 5457,
      "अंश": 5458,
      "द्योग": 5459,
      "आधारे": 5460,
      "निशाणा": 5461,
      "चाही": 5462,
      "महाराष्ट्राच्या": 5463,
      "तेचे": 5464,
      "सुप्री": 5465,
      "सुवर्ण": 5466,
      "म्हणाली": 5467,
      "दिलेली": 5468,
      "विजयी": 5469,
      "निघून": 5470,
      "संस्कार": 5471,
      "डीए": 5472,
      "त्याचप्रमाणे": 5473,
      "अमरावती": 5474,
      "म्यु": 5475,
      "कान": 5476,
      "घातली": 5477,
      "अन्यथा": 5478,
      "मंत्रिमंडळ": 5479,
      "हृदय": 5480,
      "अजय": 5481,
      "नसा": 5482,
      "षित": 5483,
      "दिल": 5484,
      "मिलि": 5485,
      "सेंट": 5486,
      "पुष्": 5487,
      "वर्गी": 5488,
      "व्यास": 5489,
      "मिळतो": 5490,
      "समजा": 5491,
      "il": 5492,
      "राखी": 5493,
      "न्सर": 5494,
      "किरण": 5495,
      "व्हायला": 5496,
      "पाहत": 5497,
      "निवेदन": 5498,
      "प्रक्रिये": 5499,
      "दिवसेंदिवस": 5500,
      "सक": 5501,
      "यात्रे": 5502,
      "्यासाठी": 5503,
      "केवर": 5504,
      "संचार": 5505,
      "संमेल": 5506,
      "वेस्ट": 5507,
      "ग्रे": 5508,
      "कर्जा": 5509,
      "नोटा": 5510,
      "व्हर्": 5511,
      "०००": 5512,
      "ऑस्ट्रेलिया": 5513,
      "महाविद्यालया": 5514,
      "दां": 5515,
      "नृ": 5516,
      "ुक": 5517,
      "घेण्या": 5518,
      "घेतात": 5519,
      "पूल": 5520,
      "महागाई": 5521,
      "डोंबि": 5522,
      "एखादा": 5523,
      "प्रवासा": 5524,
      "उर्वरित": 5525,
      "क्रमांकावर": 5526,
      "90": 5527,
      "रेकॉर्ड": 5528,
      "सीमे": 5529,
      "सरकारची": 5530,
      "टोला": 5531,
      "ठरली": 5532,
      "प्रेमी": 5533,
      "अडक": 5534,
      "नुकताच": 5535,
      "२०१८": 5536,
      "तंत्रज्ञा": 5537,
      "विस्तार": 5538,
      "डोंबिवली": 5539,
      "उशिरा": 5540,
      "खरा": 5541,
      "पब्": 5542,
      "सदा": 5543,
      "डिजि": 5544,
      "भाज्या": 5545,
      "कृतिक": 5546,
      "ग्रामपंचायत": 5547,
      "पंढ": 5548,
      "बचाव": 5549,
      "अधीक्षक": 5550,
      "45": 5551,
      "अडी": 5552,
      "स्टी": 5553,
      "विक्रे": 5554,
      "असेच": 5555,
      "स्वस्त": 5556,
      "मिळालं": 5557,
      "शुद्ध": 5558,
      "जवळील": 5559,
      "पदाचा": 5560,
      "शिवसेनेने": 5561,
      "इड": 5562,
      "उंट": 5563,
      "चत": 5564,
      "मरण": 5565,
      "आणून": 5566,
      "स्थला": 5567,
      "डीसी": 5568,
      "पत्रक": 5569,
      "होणारी": 5570,
      "पक्षात": 5571,
      "संपत्ती": 5572,
      "ट्रेन": 5573,
      "वेळेस": 5574,
      "धडक": 5575,
      "मत्ता": 5576,
      "ल्यू": 5577,
      "वयाच्या": 5578,
      "वहन": 5579,
      "हवं": 5580,
      "लागल्या": 5581,
      "ंद्रा": 5582,
      "प्रकारा": 5583,
      "ड्रग्": 5584,
      "यादीत": 5585,
      "लीज": 5586,
      "तेची": 5587,
      "्यातून": 5588,
      "घाटन": 5589,
      "व्याया": 5590,
      "पार्ट": 5591,
      "रुपयांच्या": 5592,
      "राज्यपाला": 5593,
      "गर्भ": 5594,
      "अनो": 5595,
      "पद्": 5596,
      "पाण्याचा": 5597,
      "उपस्थितीत": 5598,
      "गोळा": 5599,
      "बोली": 5600,
      "वाटले": 5601,
      "बांगला": 5602,
      "खुर्": 5603,
      "थोरात": 5604,
      "जड": 5605,
      "तन": 5606,
      "३६": 5607,
      "यापुढे": 5608,
      "लेय": 5609,
      "प्रणा": 5610,
      "तुळ": 5611,
      "ग्रस्ता": 5612,
      "खिल": 5613,
      "संख्येत": 5614,
      "आजी": 5615,
      "खू": 5616,
      "मतीत": 5617,
      "स्मृ": 5618,
      "शेतात": 5619,
      "तुरु": 5620,
      "गणेशो": 5621,
      "दोघांनी": 5622,
      "दळ": 5623,
      "बारी": 5624,
      "प्रदू": 5625,
      "शकणार": 5626,
      "त्यांच्याकडे": 5627,
      "टोल": 5628,
      "वनस्प": 5629,
      "चोरट्या": 5630,
      "सुप्रीम": 5631,
      "थंडी": 5632,
      "यच्या": 5633,
      "सकाळ": 5634,
      "ुत्तर": 5635,
      "रेखा": 5636,
      "स्ट्र": 5637,
      "श्रम": 5638,
      "१९८": 5639,
      "स्वच्छता": 5640,
      "भाषेत": 5641,
      "सोहळा": 5642,
      "महात्मा": 5643,
      "संसर्गा": 5644,
      "जास्तीत": 5645,
      "मुंबईकर": 5646,
      "खुप": 5647,
      "पदाधिकारी": 5648,
      "गोलंदाज": 5649,
      "परिषदेच्या": 5650,
      "यात्रा": 5651,
      "साइट": 5652,
      "निदान": 5653,
      "सेलि": 5654,
      "गेलो": 5655,
      "कार्यकर्त्यांनी": 5656,
      "सांस्": 5657,
      "संपर्कात": 5658,
      "उदाहरण": 5659,
      "कथ": 5660,
      "ंगो": 5661,
      "वृद्ध": 5662,
      "मुलांच्या": 5663,
      "नगरा": 5664,
      "चिन्ह": 5665,
      "तब": 5666,
      "तारी": 5667,
      "पवि": 5668,
      "रमेश": 5669,
      "शिल्": 5670,
      "सरळ": 5671,
      "सर्वसामान्य": 5672,
      "मागच्या": 5673,
      "प्रोत्सा": 5674,
      "सौंद": 5675,
      "सेल्सि": 5676,
      "थर": 5677,
      "ुर": 5678,
      "क्ते": 5679,
      "क्षमते": 5680,
      "दाब": 5681,
      "शाली": 5682,
      "ठाकूर": 5683,
      "करांनी": 5684,
      "असावी": 5685,
      "बीसीसी": 5686,
      "बेस्ट": 5687,
      "विषयावर": 5688,
      "दुसरे": 5689,
      "प्रेमा": 5690,
      "रुग्णालय": 5691,
      "स्पर्ध": 5692,
      "घराबाहेर": 5693,
      "हिंसा": 5694,
      "et": 5695,
      "ऊंट": 5696,
      "पंड": 5697,
      "यावी": 5698,
      "वावे": 5699,
      "ताई": 5700,
      "विठ्ठ": 5701,
      "चार्य": 5702,
      "मिनिटा": 5703,
      "समितीने": 5704,
      "कांद": 5705,
      "खाद्य": 5706,
      "विषयक": 5707,
      "विचारला": 5708,
      "व्हॉट्स": 5709,
      "अज्ञात": 5710,
      "जर्": 5711,
      "वीण": 5712,
      "शीर": 5713,
      "लागतील": 5714,
      "स्वरू": 5715,
      "कारखान्या": 5716,
      "ओव्हर": 5717,
      "तड": 5718,
      "ोपाठ": 5719,
      "ंटि": 5720,
      "दिसणार": 5721,
      "मोठं": 5722,
      "ore": 5723,
      "ब्रेक": 5724,
      "कित्येक": 5725,
      "र्जी": 5726,
      "राने": 5727,
      "अनुभ": 5728,
      "मालमत्ता": 5729,
      "जीवनात": 5730,
      "नावाच्या": 5731,
      "एवढी": 5732,
      "सहाय्यक": 5733,
      "सिंधुदुर्ग": 5734,
      "पीठ": 5735,
      "प्ती": 5736,
      "मुलाला": 5737,
      "पावसाने": 5738,
      "म्पिक": 5739,
      "नगरसेव": 5740,
      "बंगाल": 5741,
      "सांस्कृतिक": 5742,
      "ंपर्यंत": 5743,
      "चांदी": 5744,
      "प्रचारा": 5745,
      "टाळून": 5746,
      "घडला": 5747,
      "ट्रक": 5748,
      "वाहिनी": 5749,
      "तणाव": 5750,
      "लगावला": 5751,
      "??": 5752,
      "अर्ध": 5753,
      "========": 5754,
      "वाहतुकी": 5755,
      "शारीरिक": 5756,
      "डु": 5757,
      "वसंत": 5758,
      "र्डी": 5759,
      "सारे": 5760,
      "नोट": 5761,
      "चालत": 5762,
      "समाजातील": 5763,
      "तंय": 5764,
      "लेखक": 5765,
      "मंदिरात": 5766,
      "मुद्द्या": 5767,
      "तत्कालीन": 5768,
      "सांभाळ": 5769,
      "पित": 5770,
      "लये": 5771,
      "हत्ये": 5772,
      "्डी": 5773,
      "स्वार": 5774,
      "होय": 5775,
      "तोच": 5776,
      "गुप्त": 5777,
      "णांची": 5778,
      "२०१७": 5779,
      "ंपेक्षा": 5780,
      "कमे": 5781,
      "हेतू": 5782,
      "तेश": 5783,
      "लंघन": 5784,
      "स्थायी": 5785,
      "आल्याचे": 5786,
      "पोहोचली": 5787,
      "पीडित": 5788,
      "ठळक": 5789,
      "पडा": 5790,
      "शौ": 5791,
      "सामोरे": 5792,
      "मध्येच": 5793,
      "तोपर्यंत": 5794,
      "पालघर": 5795,
      "संदर्भातील": 5796,
      "चण": 5797,
      "बद्ध": 5798,
      "सेक": 5799,
      "शाखा": 5800,
      "तिन्ही": 5801,
      "जेरी": 5802,
      "भारी": 5803,
      "करावं": 5804,
      "वाढले": 5805,
      "मिळतात": 5806,
      "वृष्टी": 5807,
      "कुटुंबातील": 5808,
      "डिजिटल": 5809,
      "एशन": 5810,
      "ख्रि": 5811,
      "वण्या": 5812,
      "प्रॉ": 5813,
      "सेज": 5814,
      "लिटर": 5815,
      "सोनिया": 5816,
      "खेडे": 5817,
      "पदक": 5818,
      "नाराज": 5819,
      "विश्वच": 5820,
      "फिर्यादी": 5821,
      "सोसायटी": 5822,
      "अजि": 5823,
      "नची": 5824,
      "समार": 5825,
      "साळ": 5826,
      "पडलेल्या": 5827,
      "केल्यामुळे": 5828,
      "ज्यांना": 5829,
      "मैदानात": 5830,
      "मोहम्मद": 5831,
      "ID": 5832,
      "आंध": 5833,
      "हारी": 5834,
      "णार्थ": 5835,
      "सेक्स": 5836,
      "शिंग": 5837,
      "परिवहन": 5838,
      "पडू": 5839,
      "योगदान": 5840,
      "स्पद": 5841,
      "पदावर": 5842,
      "अशात": 5843,
      "यावे": 5844,
      "वाच्या": 5845,
      "विज्ञान": 5846,
      "बायो": 5847,
      "जेव": 5848,
      "समृ": 5849,
      "पवारांनी": 5850,
      "मनुष्य": 5851,
      "कंत्राट": 5852,
      "होण्यास": 5853,
      "पोच": 5854,
      "सोपे": 5855,
      "चिनी": 5856,
      "पत्रात": 5857,
      "भारताचे": 5858,
      "शासनाच्या": 5859,
      "रुग्णांचा": 5860,
      "ऐकून": 5861,
      "नवाब": 5862,
      "अमिता": 5863,
      "आलो": 5864,
      "नष्ट": 5865,
      "मावळ": 5866,
      "असाच": 5867,
      "जयंती": 5868,
      "त्याच्यावर": 5869,
      "पर्यट": 5870,
      "समीर": 5871,
      "पुल": 5872,
      "रुख": 5873,
      "वायचे": 5874,
      "पाहु": 5875,
      "भीषण": 5876,
      "आल्यावर": 5877,
      "नंदन": 5878,
      "तथापि": 5879,
      "कॅमेरा": 5880,
      "पंध": 5881,
      "बंड": 5882,
      "४८": 5883,
      "वाल्या": 5884,
      "क्ला": 5885,
      "तिघ": 5886,
      "कडो": 5887,
      "लंय": 5888,
      "अध्या": 5889,
      "करायचं": 5890,
      "ठोड": 5891,
      "उपचारासाठी": 5892,
      "जनजागृती": 5893,
      "प्रश्‍": 5894,
      "शतक": 5895,
      "स्वतःच्या": 5896,
      "समाजाला": 5897,
      "ंबाबत": 5898,
      "एवढा": 5899,
      "पसं": 5900,
      "हरि": 5901,
      "सुटका": 5902,
      "गाणं": 5903,
      "सारखं": 5904,
      "बोर्": 5905,
      "लोकसंख्या": 5906,
      "पैशा": 5907,
      "चांगलं": 5908,
      "अहवाला": 5909,
      "अंदा": 5910,
      "तेत": 5911,
      "भावी": 5912,
      "गाड": 5913,
      "सरकारचा": 5914,
      "फेर": 5915,
      "विभागातील": 5916,
      "hi": 5917,
      "नचे": 5918,
      "द्यायला": 5919,
      "ठेवण्यासाठी": 5920,
      "उद्योज": 5921,
      "वनस्पती": 5922,
      "उस्": 5923,
      "प्रवेशा": 5924,
      "लिंक": 5925,
      "कायदे": 5926,
      "भरपाई": 5927,
      "प्रमाणपत्र": 5928,
      "उत्तरे": 5929,
      "शेतकऱ्यांनी": 5930,
      "समर्थन": 5931,
      "तुरुंग": 5932,
      "अस्वस्थ": 5933,
      "जवान": 5934,
      "वकि": 5935,
      "यापैकी": 5936,
      "एकदम": 5937,
      "बॉम्ब": 5938,
      "पावसामुळे": 5939,
      "बारामती": 5940,
      "बराच": 5941,
      "अफगाणिस्तान": 5942,
      "अडीच": 5943,
      "सवय": 5944,
      "५००": 5945,
      "येणे": 5946,
      "कोड": 5947,
      "पीएम": 5948,
      "प्रतिष्ठा": 5949,
      "आत्महत्ये": 5950,
      "प्रवाशांना": 5951,
      "आपाप": 5952,
      "ढो": 5953,
      "तरा": 5954,
      "हर्ष": 5955,
      "नाटका": 5956,
      "स्ताना": 5957,
      "बीआय": 5958,
      "विद्यार्थ्यांनी": 5959,
      "बाजूने": 5960,
      "पथकाने": 5961,
      "उल्लंघन": 5962,
      "मेडिकल": 5963,
      "रान": 5964,
      "राठोड": 5965,
      "टेक": 5966,
      "प्राणी": 5967,
      "येतं": 5968,
      "अनुदान": 5969,
      "दहावी": 5970,
      "सत्तेत": 5971,
      "बीसीसीआय": 5972,
      ",”": 5973,
      "अमोल": 5974,
      "आकारा": 5975,
      "लिहून": 5976,
      "ठाम": 5977,
      "उत्कृष्ट": 5978,
      "जुळ": 5979,
      "महिन्याच्या": 5980,
      "मिनिटे": 5981,
      "अक्षर": 5982,
      "नाट्य": 5983,
      "इस्ला": 5984,
      "वधी": 5985,
      "िल": 5986,
      "याविषयी": 5987,
      "वाक": 5988,
      "साप": 5989,
      "नेत्यांना": 5990,
      "त्यामुळं": 5991,
      "प्रवीण": 5992,
      "रित्या": 5993,
      "समन्": 5994,
      "अर्स": 5995,
      "प्रकरणा": 5996,
      "मासे": 5997,
      "लीम": 5998,
      "शालेय": 5999,
      "पुत्र": 6000,
      "सीरि": 6001,
      "गोवा": 6002,
      "पडून": 6003,
      "होणारे": 6004,
      "पुरस्": 6005,
      "अर्थव्यवस्थे": 6006,
      "शरीर": 6007,
      "ल्लक": 6008,
      "Read": 6009,
      "मुळात": 6010,
      "सोडा": 6011,
      "व्हावी": 6012,
      "भिंती": 6013,
      "प्राधि": 6014,
      "काढली": 6015,
      "शिवसेनेला": 6016,
      "संघाच्या": 6017,
      "धिकृत": 6018,
      "आर्यन": 6019,
      "जैन": 6020,
      "प्रणाली": 6021,
      "३८": 6022,
      "नाडू": 6023,
      "राई": 6024,
      "मिट": 6025,
      "दुकाने": 6026,
      "केलाय": 6027,
      "श्रद्धा": 6028,
      "शल्य": 6029,
      "स्कूल": 6030,
      "सविस्तर": 6031,
      "सल्": 6032,
      "हमी": 6033,
      "धीर": 6034,
      "व्हावे": 6035,
      "चांगलीच": 6036,
      "वाटे": 6037,
      "प्रेरणा": 6038,
      "एनसीबी": 6039,
      "मर्यादित": 6040,
      "र्ण": 6041,
      "ल्हे": 6042,
      "स्थळ": 6043,
      "पोषण": 6044,
      "मेगा": 6045,
      "मिळवला": 6046,
      "होणारा": 6047,
      "मालक": 6048,
      "वकील": 6049,
      "नसल्याचं": 6050,
      "महिलेने": 6051,
      "स्वरूपात": 6052,
      "अण्णा": 6053,
      "यशा": 6054,
      "लयीन": 6055,
      "सीन": 6056,
      "उत्सव": 6057,
      "न्यायाधीश": 6058,
      "मार्गदर्श": 6059,
      "एकत्रित": 6060,
      "अलीकडे": 6061,
      "di": 6062,
      "वस्तु": 6063,
      "प्रशासकीय": 6064,
      "निवृत्ती": 6065,
      "जाल": 6066,
      "सुल": 6067,
      "जिवंत": 6068,
      "ंत्रिक": 6069,
      "कार्यकर्त्या": 6070,
      "ब्रिटन": 6071,
      "गौरव": 6072,
      "माफ": 6073,
      "लिश": 6074,
      "द्वि": 6075,
      "असावे": 6076,
      "घडत": 6077,
      "पैश": 6078,
      "बुद्ध": 6079,
      "आठवले": 6080,
      "महापालिकेने": 6081,
      "धोकादायक": 6082,
      "बनावट": 6083,
      "अमिताभ": 6084,
      "जॅ": 6085,
      "वु": 6086,
      "त्यास": 6087,
      "राणी": 6088,
      "जीबी": 6089,
      "गोर": 6090,
      "अनेकांनी": 6091,
      "घ्यावे": 6092,
      "भारताची": 6093,
      "बॉस": 6094,
      "सैनिक": 6095,
      "बघित": 6096,
      "मैदानावर": 6097,
      "लाँच": 6098,
      "har": 6099,
      "समी": 6100,
      "९९": 6101,
      "नेच": 6102,
      "वरी": 6103,
      "कुणा": 6104,
      "महत्व": 6105,
      "व्यापार": 6106,
      "समजू": 6107,
      "प्राण्या": 6108,
      "फिट": 6109,
      "वगळता": 6110,
      "ताकद": 6111,
      "आख": 6112,
      "लाइ": 6113,
      "सेवन": 6114,
      "पूस": 6115,
      "गुती": 6116,
      "फेड": 6117,
      "पाणीपुरवठा": 6118,
      "यंदाच्या": 6119,
      "अत्याव": 6120,
      "फिल्म": 6121,
      "अटी": 6122,
      "मजु": 6123,
      "पाण्याची": 6124,
      "आणा": 6125,
      "शेजारी": 6126,
      "पडणार": 6127,
      "सूट": 6128,
      "जगताप": 6129,
      "आठवणी": 6130,
      "पुर्ण": 6131,
      "द्योगिक": 6132,
      "वस्ती": 6133,
      "आपत्ती": 6134,
      "प्शन": 6135,
      "णांचा": 6136,
      "राष्ट्रवादीच्या": 6137,
      "रुग्णांच्या": 6138,
      "अडचणीत": 6139,
      "ac": 6140,
      "कोणा": 6141,
      "पोटी": 6142,
      "उपस्थिती": 6143,
      "घटनेत": 6144,
      "वादग्रस्त": 6145,
      "तालुक्या": 6146,
      "दौरा": 6147,
      "शाहरुख": 6148,
      "डॉक्टरांनी": 6149,
      "दोघेही": 6150,
      "ऑलिम्पिक": 6151,
      "असणारे": 6152,
      "देणारे": 6153,
      "मेहन": 6154,
      "कोरोनाबाधित": 6155,
      "कामासाठी": 6156,
      "पक्षाला": 6157,
      "औद्योगिक": 6158,
      "जळ": 6159,
      "ोब": 6160,
      "बाज": 6161,
      "लागून": 6162,
      "करणार्‍या": 6163,
      "इतकं": 6164,
      "सुरवात": 6165,
      "रामदास": 6166,
      "घरगुती": 6167,
      "शरीरात": 6168,
      "सावध": 6169,
      "पंकजा": 6170,
      ",'": 6171,
      "गारा": 6172,
      "जाणे": 6173,
      "निर्मात": 6174,
      "2018": 6175,
      "पाठोपाठ": 6176,
      "कॅन": 6177,
      "टाकले": 6178,
      "मंत्र्यांनी": 6179,
      "अनधिकृत": 6180,
      "अर्जुन": 6181,
      "वर्तन": 6182,
      "इथं": 6183,
      "अंगावर": 6184,
      "बिबट्या": 6185,
      "सूत्रांनी": 6186,
      "शार": 6187,
      "न्ना": 6188,
      "लिन": 6189,
      "बोलले": 6190,
      "लायन्स": 6191,
      "बौ": 6192,
      "रणी": 6193,
      "वताना": 6194,
      "३७": 6195,
      "प्रसंग": 6196,
      "येण्याची": 6197,
      "मोद": 6198,
      "डोके": 6199,
      "खड्": 6200,
      "ot": 6201,
      "खळी": 6202,
      "षि": 6203,
      "दायी": 6204,
      "घेताना": 6205,
      "मारली": 6206,
      "राहणाऱ्या": 6207,
      "अपघातात": 6208,
      "इमारत": 6209,
      "आसपास": 6210,
      "दबाव": 6211,
      "खबरदारी": 6212,
      "ाने": 6213,
      "विमाना": 6214,
      "पांड": 6215,
      "तेंद्र": 6216,
      "जाम": 6217,
      "लागवड": 6218,
      "अंत्य": 6219,
      "तरुणा": 6220,
      "महिन्यांपासून": 6221,
      "पोहोचले": 6222,
      "पब्लिक": 6223,
      "ज्यु": 6224,
      "५५": 6225,
      "पाळी": 6226,
      "जाण्यासाठी": 6227,
      "घेण्यास": 6228,
      "बँकेच्या": 6229,
      "उद्देश": 6230,
      "मनोज": 6231,
      "बरीच": 6232,
      "हजेरी": 6233,
      "तीय": 6234,
      "विणे": 6235,
      "जीएसटी": 6236,
      "थोड्या": 6237,
      "फॅशन": 6238,
      "उदयन": 6239,
      "धात": 6240,
      "मस्त": 6241,
      "३४": 6242,
      "यासह": 6243,
      "मिन": 6244,
      "ठेवणे": 6245,
      "कांबळे": 6246,
      "तारीख": 6247,
      "el": 6248,
      "वण्याचे": 6249,
      "हवाई": 6250,
      "क्वारं": 6251,
      "ांसह": 6252,
      "झाडे": 6253,
      "टाकला": 6254,
      "ठाण्या": 6255,
      "रुपयांचे": 6256,
      "अंतरा": 6257,
      "उड्डा": 6258,
      "प्रसिद्धी": 6259,
      "भौ": 6260,
      "हेरी": 6261,
      "आहेच": 6262,
      "असती": 6263,
      "संकल्पना": 6264,
      "ंबद्दल": 6265,
      "योगे": 6266,
      "उपक्रमा": 6267,
      "चिं": 6268,
      "मिळनाडू": 6269,
      "वाहने": 6270,
      "केंद्रात": 6271,
      "फारच": 6272,
      "लातूर": 6273,
      "पुढाकार": 6274,
      "टप्पा": 6275,
      "तच": 6276,
      "वो": 6277,
      "मुळ": 6278,
      "शकले": 6279,
      "चांगलाच": 6280,
      "देशाला": 6281,
      "अवस्थेत": 6282,
      "स्थापने": 6283,
      "कोरडे": 6284,
      "महत्त्वपूर्ण": 6285,
      "भव्य": 6286,
      "लाड": 6287,
      "गाणी": 6288,
      "न्ड": 6289,
      "दुः": 6290,
      "प्रामुख": 6291,
      "भाजपमध्ये": 6292,
      "बेळगाव": 6293,
      "ंवरील": 6294,
      "व्हिड": 6295,
      "सगळ्यात": 6296,
      "ंडेशन": 6297,
      "संघाला": 6298,
      "धरून": 6299,
      "प्रेक्षकांच्या": 6300,
      "हालचाली": 6301,
      "भगवान": 6302,
      "ंमधून": 6303,
      "तपा": 6304,
      "वावा": 6305,
      "विशाल": 6306,
      "जामीन": 6307,
      "किट": 6308,
      "श्वास": 6309,
      "आजचा": 6310,
      "आजवर": 6311,
      "बोर्ड": 6312,
      "ठरत": 6313,
      "पाहिलं": 6314,
      "भाष्य": 6315,
      "प्रोत्साहन": 6316,
      "ताळ": 6317,
      "हिक": 6318,
      "फेरीत": 6319,
      "बुल": 6320,
      "स्पष्टी": 6321,
      "मार्गदर्शक": 6322,
      "लढत": 6323,
      "ड्राय": 6324,
      "वसुली": 6325,
      "प्रामुख्याने": 6326,
      "प्रदेशातील": 6327,
      "कारणां": 6328,
      "संस्थाप": 6329,
      "गाण्या": 6330,
      "डिट": 6331,
      "नागरिकांच्या": 6332,
      "नावावर": 6333,
      "मंत्रालयाने": 6334,
      "अकाऊंट": 6335,
      "पसंती": 6336,
      "नामुळे": 6337,
      "नित": 6338,
      "संकल्प": 6339,
      "रूर": 6340,
      "पीएफ": 6341,
      "टेक्": 6342,
      "सूर": 6343,
      "काँग्रेसला": 6344,
      "नसल्यामुळे": 6345,
      "and": 6346,
      "बच्चन": 6347,
      "ंसमोर": 6348,
      "हक्का": 6349,
      "चाळी": 6350,
      "ांमधील": 6351,
      "वेअर": 6352,
      "वाटलं": 6353,
      "मॅने": 6354,
      "सैन्या": 6355,
      "तारखे": 6356,
      "ब्रिटी": 6357,
      "रंजन": 6358,
      ",\"": 6359,
      "99": 6360,
      "आणण्यासाठी": 6361,
      "कुर": 6362,
      "समाविष्ट": 6363,
      "न्यायालयाच्या": 6364,
      "नर्जी": 6365,
      "रवींद्र": 6366,
      "कोलकाता": 6367,
      "av": 6368,
      "उमट": 6369,
      "दही": 6370,
      "फ्री": 6371,
      "यन्स": 6372,
      "३२": 6373,
      "नेश": 6374,
      "शकतं": 6375,
      "दिसले": 6376,
      "सोडले": 6377,
      "घरच्या": 6378,
      "लेखन": 6379,
      "बॅक": 6380,
      "मुलीला": 6381,
      "पॉलि": 6382,
      "शंभर": 6383,
      "छायाचित्र": 6384,
      "अन्याय": 6385,
      "अवैध": 6386,
      "वयीन": 6387,
      "्यांची": 6388,
      "स्को": 6389,
      "केजरी": 6390,
      "मिस": 6391,
      "सुरूच": 6392,
      "धोर": 6393,
      "यशवंत": 6394,
      "बॅनर्जी": 6395,
      "स्वतःला": 6396,
      "मंडळाने": 6397,
      "36": 6398,
      "ew": 6399,
      "फंड": 6400,
      "संगण": 6401,
      "मोडी": 6402,
      "टाका": 6403,
      "वाढू": 6404,
      "फायन": 6405,
      "बंधनकार": 6406,
      "अर्धा": 6407,
      "घटनेची": 6408,
      "गुणव": 6409,
      "दिग्दर्श": 6410,
      "पाकिस्तानी": 6411,
      "बाला": 6412,
      "दाद": 6413,
      "ाराम": 6414,
      "यांच्यातील": 6415,
      "च्चा": 6416,
      "राजीव": 6417,
      "बाळग": 6418,
      "वेबसाईट": 6419,
      "व्यायाम": 6420,
      "अयो": 6421,
      "आक्षेप": 6422,
      "ठि": 6423,
      "निध": 6424,
      "दिल्यानंतर": 6425,
      "भान": 6426,
      "भास": 6427,
      "शिल्लक": 6428,
      "सूचित": 6429,
      "अॅड": 6430,
      "बघून": 6431,
      "सलामी": 6432,
      "कमाई": 6433,
      "ग्रामपंचायती": 6434,
      "अत्यावश्यक": 6435,
      "क्वारंटा": 6436,
      "जहा": 6437,
      "नचा": 6438,
      "सराव": 6439,
      "लेखा": 6440,
      "पीडि": 6441,
      "आजपर्यंत": 6442,
      "डियम": 6443,
      "माणिक": 6444,
      "खात्यात": 6445,
      "सर्वोत्तम": 6446,
      "समाजाच्या": 6447,
      "लढाई": 6448,
      "कृष्णा": 6449,
      "बंधनकारक": 6450,
      "ऊट": 6451,
      "कळा": 6452,
      "लीग": 6453,
      "निलेश": 6454,
      "पुत": 6455,
      "रीच्या": 6456,
      "बहुजन": 6457,
      "अमेरिकेच्या": 6458,
      "क्रिकेटपटू": 6459,
      "शब्दात": 6460,
      "घुस": 6461,
      "स्थलांतर": 6462,
      "75": 6463,
      "ri": 6464,
      "आदर": 6465,
      "हल्ले": 6466,
      "काटे": 6467,
      "लेस": 6468,
      "वाले": 6469,
      "तासात": 6470,
      "केसा": 6471,
      "पाच्या": 6472,
      "निवि": 6473,
      "युवक": 6474,
      "महामार्गा": 6475,
      "कायला": 6476,
      "लोकसभे": 6477,
      "अतिवृष्टी": 6478,
      "स्क्री": 6479,
      "आयोगाने": 6480,
      "असोसि": 6481,
      "शेलार": 6482,
      "पळून": 6483,
      "ुण": 6484,
      "ल्याचं": 6485,
      "प्रका": 6486,
      "हाऊस": 6487,
      "शकतील": 6488,
      "कॉम": 6489,
      "वायचा": 6490,
      "मोदींच्या": 6491,
      "फुला": 6492,
      "नुकतीच": 6493,
      "पक्षाने": 6494,
      "संघाचा": 6495,
      "जणू": 6496,
      "ख्य": 6497,
      "वणाऱ्या": 6498,
      "तांत्रिक": 6499,
      "निष्ठ": 6500,
      "ंनाही": 6501,
      "रेकर": 6502,
      "मेट": 6503,
      "दारांना": 6504,
      "णांच्या": 6505,
      "पटका": 6506,
      "दिसतो": 6507,
      "वलेले": 6508,
      "अभिनंदन": 6509,
      "वेळो": 6510,
      "गृहात": 6511,
      "झोपड": 6512,
      "परिषदेचे": 6513,
      "सोहळ्या": 6514,
      "जाताना": 6515,
      "दृष्टि": 6516,
      "फौ": 6517,
      "रंज": 6518,
      "प्रार्थ": 6519,
      "निल": 6520,
      "लिटी": 6521,
      "झाल्याचं": 6522,
      "2014": 6523,
      "बॉक्स": 6524,
      "रविवार": 6525,
      "दोघांना": 6526,
      "तैनात": 6527,
      "फट": 6528,
      "टाई": 6529,
      "टोपे": 6530,
      "व्यवस्थित": 6531,
      "पूर्वीच": 6532,
      "वृत्ता": 6533,
      "दिवसभरात": 6534,
      "अडचण": 6535,
      "पावसाची": 6536,
      "बदली": 6537,
      "आकर्षक": 6538,
      "ht": 6539,
      "ंस": 6540,
      "उडी": 6541,
      "जर्स": 6542,
      "विरू": 6543,
      "मिली": 6544,
      "जिओ": 6545,
      "पेश": 6546,
      "ज्यामध्ये": 6547,
      "असल्याचेही": 6548,
      "पदासाठी": 6549,
      "मांडली": 6550,
      "ड्रेस": 6551,
      "हॉस्पिटलमध्ये": 6552,
      "उदयनराजे": 6553,
      "ठरू": 6554,
      "स्तरा": 6555,
      "डेट": 6556,
      "परीक्ष": 6557,
      "गुन्ह्या": 6558,
      "सीसीटीव्ही": 6559,
      "नियमांचे": 6560,
      "श्रीलं": 6561,
      "जेणेकरून": 6562,
      "पंढर": 6563,
      "वेळोवेळी": 6564,
      "वयोग": 6565,
      "पाली": 6566,
      "आणली": 6567,
      "दिल्याने": 6568,
      "शेकडो": 6569,
      "रिलीज": 6570,
      "सरकारचे": 6571,
      "वादळा": 6572,
      "र्डर": 6573,
      "वेदन": 6574,
      "स्वरु": 6575,
      "अजिबात": 6576,
      "कपि": 6577,
      "डब्": 6578,
      "लचा": 6579,
      "३३": 6580,
      "नेश्वर": 6581,
      "निवृत्त": 6582,
      "पूत": 6583,
      "दुखी": 6584,
      "गोळ्या": 6585,
      "घेतल्यानंतर": 6586,
      "डान्स": 6587,
      "चित्रपटाच्या": 6588,
      "भविष्य": 6589,
      "ent": 6590,
      "करिअर": 6591,
      "दृष्ट्या": 6592,
      "विठ्ठल": 6593,
      "अतुल": 6594,
      "आशी": 6595,
      "काद": 6596,
      "रोगा": 6597,
      "कुं": 6598,
      "जितेंद्र": 6599,
      "सरकारनं": 6600,
      "महावितरण": 6601,
      "त्यांच्याकडून": 6602,
      "बसले": 6603,
      "सर्वांनी": 6604,
      "आशिष": 6605,
      "re": 6606,
      "गरि": 6607,
      "गप्पा": 6608,
      "होण्याचा": 6609,
      "निका": 6610,
      "निसर्ग": 6611,
      "सुन": 6612,
      "परिक": 6613,
      "कीच्या": 6614,
      "चिटणी": 6615,
      "फास": 6616,
      "भूमिकेत": 6617,
      "भोवती": 6618,
      "पथक": 6619,
      "टक्क्यांनी": 6620,
      "अल्पवयीन": 6621,
      "भ्रष्टाचार": 6622,
      "स्पष्टीकरण": 6623,
      "चव": 6624,
      "भड": 6625,
      "प्रदान": 6626,
      "सीय": 6627,
      "पियन": 6628,
      "जवळच्या": 6629,
      "दिल्लीतील": 6630,
      "सैन्य": 6631,
      "कूल": 6632,
      "ब्रिटि": 6633,
      "प्रेक्षकांना": 6634,
      "उत्सुकता": 6635,
      "रिझर्": 6636,
      "फै": 6637,
      "ंतू": 6638,
      "मीठ": 6639,
      "तिनं": 6640,
      "गुगल": 6641,
      "व्यापा": 6642,
      "काळ्या": 6643,
      "कंटे": 6644,
      "बंदोब": 6645,
      "धावांची": 6646,
      "प्रकाशित": 6647,
      "वास्तव": 6648,
      "चळवळी": 6649,
      "वळा": 6650,
      "६५": 6651,
      "विवा": 6652,
      "्टा": 6653,
      "गुड": 6654,
      "अरविंद": 6655,
      "ओळखले": 6656,
      "इच्छित": 6657,
      "सर्वेक्षण": 6658,
      "दागिने": 6659,
      "संस्थापक": 6660,
      "उंच": 6661,
      "्यांनी": 6662,
      "स्ना": 6663,
      "पावले": 6664,
      "देईल": 6665,
      "मिळवण्यासाठी": 6666,
      "ज्यांनी": 6667,
      "च्छे": 6668,
      "अध्यक्षा": 6669,
      "प्रकरणाची": 6670,
      "विशेषत": 6671,
      "कमतर": 6672,
      "पाहिजेत": 6673,
      "उद्घाटन": 6674,
      "?’": 6675,
      "आरा": 6676,
      "कन्या": 6677,
      "जपा": 6678,
      "पणी": 6679,
      "४४": 6680,
      "क्वि": 6681,
      "ल्याच्या": 6682,
      "बाह्य": 6683,
      "लोकप्रतिनिधी": 6684,
      "विद्यमान": 6685,
      "ग्रंथ": 6686,
      "48": 6687,
      "एटीएम": 6688,
      "वसाह": 6689,
      "क्‍या": 6690,
      "वरे": 6691,
      "निस": 6692,
      "संभा": 6693,
      "दिष्ट": 6694,
      "म्हणता": 6695,
      "जनरल": 6696,
      "आरोपींना": 6697,
      "सापडले": 6698,
      "वाजेपर्यंत": 6699,
      "शत्र": 6700,
      "कास": 6701,
      "परभ": 6702,
      "गांभी": 6703,
      "कोटींची": 6704,
      "इंडस्ट्री": 6705,
      "लॉकडाउन": 6706,
      "उभ्या": 6707,
      "धडा": 6708,
      "मकर": 6709,
      "शमन": 6710,
      "विण्याचा": 6711,
      "परदेशात": 6712,
      "नाहीतर": 6713,
      "मानु": 6714,
      "नसतो": 6715,
      "बॉली": 6716,
      "सोमवार": 6717,
      "डोंगर": 6718,
      "मागितली": 6719,
      "फळे": 6720,
      "णासाठी": 6721,
      "पूजन": 6722,
      "शेखर": 6723,
      "दुसर": 6724,
      "मानव": 6725,
      "गुप्ता": 6726,
      "भूषण": 6727,
      "2017": 6728,
      "ंगाने": 6729,
      "देशाचे": 6730,
      "नुकसा": 6731,
      "इंजे": 6732,
      "गोलंदाजी": 6733,
      "तासांत": 6734,
      "हंगामात": 6735,
      "शिफारस": 6736,
      ":-": 6737,
      "एकर": 6738,
      "छात": 6739,
      "नावाचा": 6740,
      "नेपाळ": 6741,
      "जांनी": 6742,
      "म्हणणं": 6743,
      "यांच्याकडून": 6744,
      "मिळतील": 6745,
      "टोले": 6746,
      "चंद्रपूर": 6747,
      "पहायला": 6748,
      "पनवेल": 6749,
      "नेतृत्वाखाली": 6750,
      "क्लब": 6751,
      "अभियंता": 6752,
      "आंध्र": 6753,
      "बौद्ध": 6754,
      "ov": 6755,
      "मान्स": 6756,
      "राधा": 6757,
      "नुस": 6758,
      "देशपांडे": 6759,
      "आजू": 6760,
      "राहतील": 6761,
      "बरं": 6762,
      "बेल": 6763,
      "चीनच्या": 6764,
      "महत्वाची": 6765,
      "उस्माना": 6766,
      "चिटणीस": 6767,
      "दया": 6768,
      "फ़": 6769,
      "नेल": 6770,
      "कारणे": 6771,
      "ांपैकी": 6772,
      "सर्जन": 6773,
      "देशांमध्ये": 6774,
      "सांगता": 6775,
      "सहकार": 6776,
      "ब्लॅ": 6777,
      "खोली": 6778,
      "ग्रामस्थ": 6779,
      "इन्स्टाग्राम": 6780,
      "रूपये": 6781,
      "अरुण": 6782,
      "कामकाज": 6783,
      "स्मृती": 6784,
      "पंधरा": 6785,
      "ंविरोधात": 6786,
      "कवी": 6787,
      "बचत": 6788,
      "प्रताप": 6789,
      "ांतील": 6790,
      "महामारी": 6791,
      "कार्यवाही": 6792,
      "जगभरातील": 6793,
      "स्वाभि": 6794,
      "विरुद्धच्या": 6795,
      "दिग्गज": 6796,
      "सॉफ्ट": 6797,
      "किरकोळ": 6798,
      "ुती": 6799,
      "प्रवाह": 6800,
      "झालो": 6801,
      "मिथ": 6802,
      "दाल": 6803,
      "टीव्ह": 6804,
      "मेसेज": 6805,
      "सर्च": 6806,
      "दुधा": 6807,
      "१९७": 6808,
      "हरकत": 6809,
      "अधिकाऱ्यांना": 6810,
      "प्लॅट": 6811,
      "सीरिज": 6812,
      "आऊट": 6813,
      "घरे": 6814,
      "जणांनी": 6815,
      "रवाना": 6816,
      "त्याबाबत": 6817,
      "त्याबद्दल": 6818,
      "पाचे": 6819,
      "पांतर": 6820,
      "आणी": 6821,
      "दाबाद": 6822,
      "लिमि": 6823,
      "रेगाव": 6824,
      "होताच": 6825,
      "दाखवली": 6826,
      "लक्ष्म": 6827,
      "फान": 6828,
      "वाचून": 6829,
      "दृश्य": 6830,
      "छोटे": 6831,
      "संकटात": 6832,
      "VID": 6833,
      "मसा": 6834,
      "सतीश": 6835,
      "हवेत": 6836,
      "कारभार": 6837,
      "जीवा": 6838,
      "पीएस": 6839,
      "वानखेडे": 6840,
      "कारांनी": 6841,
      "फ्लॅ": 6842,
      "बारावी": 6843,
      "घसरण": 6844,
      "जबरदस्त": 6845,
      "लाभार": 6846,
      "र्दी": 6847,
      "माले": 6848,
      "प्रलंबित": 6849,
      "किल्ल्या": 6850,
      "दिवसीय": 6851,
      "परिवार": 6852,
      "उत्साह": 6853,
      "पार्थ": 6854,
      "प्रयत्ना": 6855,
      "अनुष": 6856,
      "कल्पात": 6857,
      "अब्दु": 6858,
      "एक्स्": 6859,
      "500": 6860,
      "दक्ष": 6861,
      "्याच": 6862,
      "वाया": 6863,
      "साडी": 6864,
      "प्रभाग": 6865,
      "रेज": 6866,
      "म्हणतो": 6867,
      "नसताना": 6868,
      "धुळे": 6869,
      "दीपिका": 6870,
      "बायको": 6871,
      "शही": 6872,
      "केज": 6873,
      "पाडा": 6874,
      "न्शन": 6875,
      "शिप": 6876,
      "राजपूत": 6877,
      "केलंय": 6878,
      "मृत्यु": 6879,
      "संस्थेच्या": 6880,
      "एंट": 6881,
      "तांब": 6882,
      "प्रदर्शन": 6883,
      "पाची": 6884,
      "तिसरा": 6885,
      "जिंग": 6886,
      "सर्वसामान": 6887,
      "गोपी": 6888,
      "महिलेला": 6889,
      "दिलेले": 6890,
      "कंपनीला": 6891,
      "स्थापित": 6892,
      "२०१५": 6893,
      "बर्‍या": 6894,
      "वकिला": 6895,
      "लेशन": 6896,
      "लीला": 6897,
      "ांकडे": 6898,
      "टीच्या": 6899,
      "ंद्रे": 6900,
      "झालाय": 6901,
      "बोलून": 6902,
      "ठरते": 6903,
      "व्हेरि": 6904,
      "नुकतेच": 6905,
      "गणित": 6906,
      "मैत्रि": 6907,
      "वसई": 6908,
      "गोळीबार": 6909,
      "कर्तव्य": 6910,
      "मच्छ": 6911,
      "नाखाली": 6912,
      "लोख": 6913,
      "वाढेल": 6914,
      "ध्यापक": 6915,
      "सामील": 6916,
      "देशाने": 6917,
      "स्त्रि": 6918,
      "पोहोचला": 6919,
      "व्यावसायिका": 6920,
      "बोर्डा": 6921,
      "असोसिएशन": 6922,
      "लाभार्थ": 6923,
      "बरो": 6924,
      "भया": 6925,
      "गुल": 6926,
      "कराल": 6927,
      "समस": 6928,
      "दलित": 6929,
      "वैभव": 6930,
      "कांशी": 6931,
      "त्याचवेळी": 6932,
      "तिच्यावर": 6933,
      "संघटनेचे": 6934,
      "वर्णन": 6935,
      "जाहिराती": 6936,
      "कंगना": 6937,
      "ज्योति": 6938,
      "बांगलादेश": 6939,
      "केजरीवाल": 6940,
      "कादंब": 6941,
      "उस्मानाबाद": 6942,
      "यवत": 6943,
      "कारणी": 6944,
      "शेड": 6945,
      "डाळ": 6946,
      "व्हल": 6947,
      "दिल्लीच्या": 6948,
      "विश्ले": 6949,
      "पायल": 6950,
      "सिद्धार्थ": 6951,
      "न्यायमूर्ती": 6952,
      "पुरावे": 6953,
      "टाळण्यासाठी": 6954,
      "शनिवार": 6955,
      "दुष्काळ": 6956,
      "सभागृहात": 6957,
      "लक्ष्मण": 6958,
      "ढे": 6959,
      "वळे": 6960,
      "साच्या": 6961,
      "महामार्ग": 6962,
      "डिस्ट": 6963,
      "काढण्यासाठी": 6964,
      "एमआर": 6965,
      "येणारे": 6966,
      "आल्याची": 6967,
      "विद्युत": 6968,
      "राष्ट्राध्यक्ष": 6969,
      "34": 6970,
      "अकरा": 6971,
      "आटो": 6972,
      "आराख": 6973,
      "४२": 6974,
      "४७": 6975,
      "माज": 6976,
      "ांनाही": 6977,
      "ठाण": 6978,
      "वर्षांचा": 6979,
      "जुने": 6980,
      "व्यक्तीच्या": 6981,
      "बँके": 6982,
      "पावसाचा": 6983,
      "महिन्यां": 6984,
      "फायदे": 6985,
      "प्रतिबंधक": 6986,
      "आराम": 6987,
      "बध": 6988,
      "मुक्ती": 6989,
      "भाविका": 6990,
      "वाढदिवस": 6991,
      "जिल्हाध्यक्ष": 6992,
      "विशेषतः": 6993,
      "महेंद्र": 6994,
      "फिर्याद": 6995,
      "बहिणी": 6996,
      "मशि": 6997,
      "रह": 6998,
      "ताच्या": 6999,
      "विखे": 7000,
      "्टर": 7001,
      "वाहून": 7002,
      "शहरी": 7003,
      "एमएस": 7004,
      "दिलेला": 7005,
      "पाठवले": 7006,
      "व्यक्तींना": 7007,
      "मुलीच्या": 7008,
      "प्लास्टिक": 7009,
      "संशयित": 7010,
      "फ्रेंड": 7011,
      "मतदारसंघातून": 7012,
      "डिझाइन": 7013,
      "कष्ट": 7014,
      "दड": 7015,
      "गाणे": 7016,
      "रीस": 7017,
      "योजनेत": 7018,
      "वापरले": 7019,
      "तिकि": 7020,
      "नेमके": 7021,
      "ब्राह्म": 7022,
      "उदाहरणार्थ": 7023,
      "वेदनशील": 7024,
      "?\"": 7025,
      "ut": 7026,
      "ंव्हा": 7027,
      "इंट": 7028,
      "धिकार": 7029,
      "वरा": 7030,
      "चांद": 7031,
      "कोन": 7032,
      "रिलायन्स": 7033,
      "राहतो": 7034,
      "जुनी": 7035,
      "ठरवले": 7036,
      "रॉय": 7037,
      "हद्दीत": 7038,
      "घडामोडी": 7039,
      "मागास": 7040,
      "ड्रग्ज": 7041,
      "खत": 7042,
      "गात": 7043,
      "झपाट": 7044,
      "नांद": 7045,
      "र्वे": 7046,
      "लेल": 7047,
      "साखळी": 7048,
      "विष्ण": 7049,
      "परता": 7050,
      "केल्यावर": 7051,
      "पालिकेने": 7052,
      "ंचन": 7053,
      "देशाची": 7054,
      "फायदेशीर": 7055,
      "मुलाखतीत": 7056,
      "बारीक": 7057,
      "पटोले": 7058,
      "भक्त": 7059,
      "िंग": 7060,
      "ेश": 7061,
      "संश": 7062,
      "व्हावा": 7063,
      "क्षेत": 7064,
      "नेहरू": 7065,
      "मालिके": 7066,
      "वातावरणात": 7067,
      "आशिया": 7068,
      "ओलांड": 7069,
      "आगी": 7070,
      "तळे": 7071,
      "षभ": 7072,
      "विके": 7073,
      "नियुक्त": 7074,
      "दाट": 7075,
      "टावर": 7076,
      "वापरून": 7077,
      "घातक": 7078,
      "श्रीमंत": 7079,
      "व्यक्तीने": 7080,
      "खोटे": 7081,
      "घरातून": 7082,
      "प्रत्युत्तर": 7083,
      "औषधे": 7084,
      "पुर्वी": 7085,
      "नक्षल": 7086,
      "अग्निशमन": 7087,
      "प्रश्‍न": 7088,
      "लिमिटेड": 7089,
      "चतु": 7090,
      "रकमे": 7091,
      "क्सि": 7092,
      "प्रशिक्षक": 7093,
      "त्वरित": 7094,
      "येण्या": 7095,
      "व्वा": 7096,
      "घेणाऱ्या": 7097,
      "टीने": 7098,
      "वर्धा": 7099,
      "गेम": 7100,
      "चित्री": 7101,
      "अभिनेते": 7102,
      "२०१६": 7103,
      "हिवाळ्यात": 7104,
      "चाहत्यांना": 7105,
      "ब्रिटिश": 7106,
      "आवा": 7107,
      "डर": 7108,
      "रसि": 7109,
      "वसूल": 7110,
      "हम": 7111,
      "वावी": 7112,
      "संबोध": 7113,
      "तुकडे": 7114,
      "दुब": 7115,
      "बुड": 7116,
      "घोटा": 7117,
      "खेळत": 7118,
      "मंडळाचे": 7119,
      "बाधितांची": 7120,
      "थोडक्यात": 7121,
      "पारंपरिक": 7122,
      "अना": 7123,
      "ऑटो": 7124,
      "वंडी": 7125,
      "असलं": 7126,
      "कोपर": 7127,
      "सूच": 7128,
      "घडले": 7129,
      "घडवून": 7130,
      "पाठवण्यात": 7131,
      "मध्यरात्री": 7132,
      "कितीही": 7133,
      "आघाडीच्या": 7134,
      "समजले": 7135,
      "कोठडी": 7136,
      "शहीद": 7137,
      "कन": 7138,
      "ख्यात": 7139,
      "३९": 7140,
      "नाका": 7141,
      "काका": 7142,
      "लेखी": 7143,
      "नीत": 7144,
      "संक्रम": 7145,
      "देणारी": 7146,
      "कोप": 7147,
      "लोकांचे": 7148,
      "मिळवले": 7149,
      "पोलिसांकडून": 7150,
      "नावश्यक": 7151,
      "दलाच्या": 7152,
      "चांगलेच": 7153,
      "ध्दा": 7154,
      "इथल्या": 7155,
      "रिझर्व्ह": 7156,
      "घडी": 7157,
      "चय": 7158,
      "रन": 7159,
      "”,": 7160,
      "लेखात": 7161,
      "केअर": 7162,
      "पाचा": 7163,
      "तुकारा": 7164,
      "केलीय": 7165,
      "डाऊन": 7166,
      "सांगितली": 7167,
      "वायची": 7168,
      "नुकत्याच": 7169,
      "अलि": 7170,
      "आयात": 7171,
      "बेस": 7172,
      "विहि": 7173,
      "संकल": 7174,
      "मिशन": 7175,
      "स्ट्रा": 7176,
      "श्रद्ध": 7177,
      "प्रकरणाचा": 7178,
      "तिकडे": 7179,
      "फॉर": 7180,
      "कर्जमाफी": 7181,
      "एकमेकांना": 7182,
      "चुकीचे": 7183,
      "लष्करा": 7184,
      "परभणी": 7185,
      "इंजेक्शन": 7186,
      "कन्": 7187,
      "ठराव": 7188,
      "फिक": 7189,
      "हेत": 7190,
      "दिसू": 7191,
      "पेड": 7192,
      "डिया": 7193,
      "वळण": 7194,
      "निवडणुकीसाठी": 7195,
      "अमेरिकेतील": 7196,
      "लवकरात": 7197,
      "जनतेच्या": 7198,
      "उदय": 7199,
      "प्रार्थना": 7200,
      "कपिल": 7201,
      "39": 7202,
      "अश्या": 7203,
      "चै": 7204,
      "बाट": 7205,
      "शांनी": 7206,
      "मेक": 7207,
      "कुर्": 7208,
      "असल्याच्या": 7209,
      "काळातील": 7210,
      "कामावर": 7211,
      "विद्यार्थ्यांच्या": 7212,
      "उत्पादक": 7213,
      "अफवा": 7214,
      "आपापल्या": 7215,
      "यवतमाळ": 7216,
      "आधारा": 7217,
      "टँ": 7218,
      "रंट": 7219,
      "त्यापेक्षा": 7220,
      "शिज": 7221,
      "घोळ": 7222,
      "मंत्रण": 7223,
      "स्टेडियम": 7224,
      "अहवालात": 7225,
      "मूलभूत": 7226,
      "पवित्र": 7227,
      "वयोगट": 7228,
      "प्लॅटफॉर्म": 7229,
      "st": 7230,
      "अमृता": 7231,
      "साक्षी": 7232,
      "ळाच्या": 7233,
      "आलाय": 7234,
      "विचारात": 7235,
      "दिवसांच्या": 7236,
      "जवळजवळ": 7237,
      "सहायक": 7238,
      "भोसरी": 7239,
      "आघाडीचे": 7240,
      "बघत": 7241,
      "विनायक": 7242,
      "अहम": 7243,
      "पंडित": 7244,
      "योगेश": 7245,
      "**": 7246,
      "ओटी": 7247,
      "पदे": 7248,
      "मजा": 7249,
      "नायक": 7250,
      "परवाना": 7251,
      "दरवाजा": 7252,
      "व्याख्या": 7253,
      "जोरावर": 7254,
      "सायबर": 7255,
      "वणं": 7256,
      "उत्पादना": 7257,
      "प्रथमच": 7258,
      "महोत्स": 7259,
      "मशीन": 7260,
      "धन्य": 7261,
      "लाखा": 7262,
      "वाटेल": 7263,
      "भाल": 7264,
      "वर्ड": 7265,
      "सिल": 7266,
      "वाढदिवसा": 7267,
      "ट्रस्ट": 7268,
      "सर्वांचे": 7269,
      "विश्‍": 7270,
      "समजते": 7271,
      "फुटबॉल": 7272,
      "विधानसभेत": 7273,
      "विधेय": 7274,
      "आग्रह": 7275,
      "कबु": 7276,
      "चक्री": 7277,
      "लता": 7278,
      "तरू": 7279,
      "दाय": 7280,
      "सेव": 7281,
      "ंडो": 7282,
      "मेंदू": 7283,
      "वर्च": 7284,
      "वर्षांची": 7285,
      "लुक": 7286,
      "सुरळीत": 7287,
      "पाकिस्तानच्या": 7288,
      "प्रियंका": 7289,
      "कुठेही": 7290,
      "षेक": 7291,
      "वास्तविक": 7292,
      "एमआयडीसी": 7293,
      "37": 7294,
      "भक्ती": 7295,
      "शर्": 7296,
      "र्वाद": 7297,
      "मासिक": 7298,
      "होण्याचे": 7299,
      "तरच": 7300,
      "किनार": 7301,
      "मारून": 7302,
      "टोळी": 7303,
      "ट्रि": 7304,
      "आरटी": 7305,
      "बनवि": 7306,
      "रुग्णांवर": 7307,
      "कुठली": 7308,
      "तपशील": 7309,
      "इंधन": 7310,
      "सल्लाग": 7311,
      "ँग": 7312,
      "टर्": 7313,
      "मांज": 7314,
      "मिल": 7315,
      "ंबरोबर": 7316,
      "दिव्या": 7317,
      "युद्धा": 7318,
      "कोणते": 7319,
      "वेगवान": 7320,
      "घातले": 7321,
      "खोरी": 7322,
      "पराभूत": 7323,
      "दमदार": 7324,
      "मजूर": 7325,
      "वेगवेगळे": 7326,
      "दराने": 7327,
      "वेबसाइट": 7328,
      "मेहता": 7329,
      "अभिनय": 7330,
      "नृत्य": 7331,
      "ब्लॅक": 7332,
      "ऋतू": 7333,
      "कपड": 7334,
      "यशी": 7335,
      "लित": 7336,
      "नाच": 7337,
      "करारा": 7338,
      "तामिळनाडू": 7339,
      "बाप्पा": 7340,
      "व्हो": 7341,
      "स्टॅ": 7342,
      "ट्रॉ": 7343,
      "कंपनीचे": 7344,
      "गृहा": 7345,
      "जिंकली": 7346,
      "लांबी": 7347,
      "पुरस्कारा": 7348,
      "जप": 7349,
      "भवन": 7350,
      "साची": 7351,
      "घट्ट": 7352,
      "रुपया": 7353,
      "ंकन": 7354,
      "अर्थमंत्री": 7355,
      "खोर": 7356,
      "पदाधिकाऱ्या": 7357,
      "नावाची": 7358,
      "दौऱ्यावर": 7359,
      "शूट": 7360,
      "कोकणात": 7361,
      "मांस": 7362,
      "तहसीलदार": 7363,
      "वर्गीय": 7364,
      "संभाव्य": 7365,
      "EO": 7366,
      "he": 7367,
      "हजारा": 7368,
      "लाईन": 7369,
      "त्यांच्यासाठी": 7370,
      "निकष": 7371,
      "त्वचा": 7372,
      "भूमिके": 7373,
      "मंगल": 7374,
      "मनोहर": 7375,
      "आव्हाड": 7376,
      "गुन्हेगार": 7377,
      "संपादक": 7378,
      "निविदा": 7379,
      "अनुषंगाने": 7380,
      "आसाम": 7381,
      "जर्म": 7382,
      "दंग": 7383,
      "हनु": 7384,
      "साच": 7385,
      "साजरी": 7386,
      "रांची": 7387,
      "ण्यावर": 7388,
      "तिचं": 7389,
      "घेतो": 7390,
      "सारी": 7391,
      "भरत": 7392,
      "प्रांत": 7393,
      "प्रकारचा": 7394,
      "अपयशी": 7395,
      "श्रीराम": 7396,
      "माझ्याकडे": 7397,
      "अध्यक्षते": 7398,
      "आनंदी": 7399,
      "जिंकून": 7400,
      "इन्स्टि": 7401,
      "नियमावली": 7402,
      "टॉप": 7403,
      "हाताळ": 7404,
      "रूग्ण": 7405,
      "अखिल": 7406,
      "तल": 7407,
      "भंड": 7408,
      "लख": 7409,
      "लशी": 7410,
      "राण": 7411,
      "खाल": 7412,
      "गीता": 7413,
      "पडते": 7414,
      "दिसला": 7415,
      "येणारा": 7416,
      "विधि": 7417,
      "महिलांच्या": 7418,
      "सोडण्यात": 7419,
      "कंपन्यांनी": 7420,
      "oron": 7421,
      "तोंडावर": 7422,
      "जागेवर": 7423,
      "बघायला": 7424,
      "ऐन": 7425,
      "याठिकाणी": 7426,
      "रोली": 7427,
      "सांगू": 7428,
      "टेबल": 7429,
      "झाल्याचा": 7430,
      "माध्यमिक": 7431,
      "वर्षापासून": 7432,
      "फरार": 7433,
      "सापडला": 7434,
      "ation": 7435,
      "निदर्शनास": 7436,
      "ंबीर": 7437,
      "व्यापाऱ्या": 7438,
      "वाचे": 7439,
      "तीचा": 7440,
      "विण": 7441,
      "न्सिंग": 7442,
      "सरचिटणीस": 7443,
      "म्हणुन": 7444,
      "महत्त": 7445,
      "घाई": 7446,
      "मोदींना": 7447,
      "कोटींचा": 7448,
      "कॅन्सर": 7449,
      "बँकेने": 7450,
      "गिरीश": 7451,
      "ठोस": 7452,
      "चुक": 7453,
      "अकाउंट": 7454,
      "कथित": 7455,
      "खड्डे": 7456,
      "कच्या": 7457,
      "खार": 7458,
      "ठिक": 7459,
      "नर्स": 7460,
      "पशु": 7461,
      "मळ": 7462,
      "र्‍या": 7463,
      "आणला": 7464,
      "भाविक": 7465,
      "दिसली": 7466,
      "मद्य": 7467,
      "लॉजी": 7468,
      "बदलून": 7469,
      "खात्या": 7470,
      "महत्त्वाचं": 7471,
      "शांतता": 7472,
      "कार्यकर्त्यांना": 7473,
      "फडणवी": 7474,
      "अभ्यासक्रमा": 7475,
      "अद्यापही": 7476,
      "कागदपत्रे": 7477,
      "उड्डाण": 7478,
      "?,": 7479,
      "इंद": 7480,
      "कंट": 7481,
      "फटा": 7482,
      "बजेट": 7483,
      "लूक": 7484,
      "नामी": 7485,
      "वाझे": 7486,
      "क्लिक": 7487,
      "वेशन": 7488,
      "दादर": 7489,
      "घेण्याचे": 7490,
      "शकला": 7491,
      "सांगतो": 7492,
      "आजपासून": 7493,
      "पहिल्याच": 7494,
      "प्रशासनाला": 7495,
      "नेमकं": 7496,
      "उर्फ": 7497,
      "निघाले": 7498,
      "निर्यात": 7499,
      "संसदे": 7500,
      "संसदेत": 7501,
      "इस्रा": 7502,
      "प्रवक्ते": 7503,
      "अशक्य": 7504,
      "कक्ष": 7505,
      "द्री": 7506,
      "र्‍": 7507,
      "गावे": 7508,
      "शास्त्रा": 7509,
      "शिबि": 7510,
      "शेजार": 7511,
      "टाइ": 7512,
      "यांच्यासोबत": 7513,
      "निर्धार": 7514,
      "करोनाच्या": 7515,
      "असतांना": 7516,
      "उद्दिष्ट": 7517,
      "शूटिंग": 7518,
      "रूग्णा": 7519,
      "क्रांत": 7520,
      "उंचा": 7521,
      "गंध": 7522,
      "मले": 7523,
      "राच्या": 7524,
      "ांमुळे": 7525,
      "सुविध": 7526,
      "कर्स": 7527,
      "डोक्यात": 7528,
      "महिलांनी": 7529,
      "वेळात": 7530,
      "घराच्या": 7531,
      "क्‍य": 7532,
      "उन्हाळा": 7533,
      "मार्गदर्शनाखाली": 7534,
      "सद्य": 7535,
      "हौ": 7536,
      "जाण्या": 7537,
      "कराव": 7538,
      "स्थानावर": 7539,
      "नसलेल्या": 7540,
      "भाग्य": 7541,
      "लक्षण": 7542,
      "शिवसेनेत": 7543,
      "गार्ड": 7544,
      "्युनि": 7545,
      "भाजपाचे": 7546,
      "ड्रो": 7547,
      "जमिनीवर": 7548,
      "एवढेच": 7549,
      "ऱ्हा": 7550,
      "प्रारंभ": 7551,
      "अडथळा": 7552,
      "अक्षरश": 7553,
      "मेहनत": 7554,
      "ct": 7555,
      "अव्": 7556,
      "अमर": 7557,
      "दवा": 7558,
      "लघु": 7559,
      "चेक": 7560,
      "संता": 7561,
      "संपदा": 7562,
      "परराष्ट्र": 7563,
      "द्वार": 7564,
      "सोना": 7565,
      "सिस्ट": 7566,
      "प्लस": 7567,
      "विरोधक": 7568,
      "पक्षांनी": 7569,
      "घालत": 7570,
      "आठवडा": 7571,
      "मुस्लीम": 7572,
      "शास्त्रज्ञ": 7573,
      "ऑपरेशन": 7574,
      "55": 7575,
      "oo": 7576,
      "अदा": 7577,
      "अख्": 7578,
      "लेंडर": 7579,
      "संग्रहा": 7580,
      "मध्या": 7581,
      "परवड": 7582,
      "प्राय": 7583,
      "कौशल्य": 7584,
      "अनंत": 7585,
      "पुस्तके": 7586,
      "मनोरंजन": 7587,
      "अपघाता": 7588,
      "चुकीच्या": 7589,
      "सेल्सियस": 7590,
      "मान्सून": 7591,
      "VIDEO": 7592,
      "महत्तवाचा": 7593,
      "um": 7594,
      "ड्स": 7595,
      "सज": 7596,
      "दिरा": 7597,
      "जायचे": 7598,
      "सेन": 7599,
      "किल्ला": 7600,
      "करण्याचं": 7601,
      "करण्याबाबत": 7602,
      "उत्तरा": 7603,
      "पिश": 7604,
      "वनडे": 7605,
      "बाबू": 7606,
      "जाणारी": 7607,
      "दौऱ्या": 7608,
      "रहिवासी": 7609,
      "सौंदर्य": 7610,
      "कमतरता": 7611,
      "47": 7612,
      "क्यु": 7613,
      "्यांचे": 7614,
      "त्तात": 7615,
      "सोया": 7616,
      "वाटू": 7617,
      "वैज्ञा": 7618,
      "लुट": 7619,
      "जाणारे": 7620,
      "हॉट": 7621,
      "र्याने": 7622,
      "वॉर्ड": 7623,
      "तत्त्व": 7624,
      "शस्त्रक्रिया": 7625,
      "शेतकर्‍": 7626,
      "विरूद्ध": 7627,
      "32": 7628,
      "38": 7629,
      "अकोला": 7630,
      "करांना": 7631,
      "राला": 7632,
      "नंतरही": 7633,
      "ग्लो": 7634,
      "पेशी": 7635,
      "चिड": 7636,
      "भाजपची": 7637,
      "कमीत": 7638,
      "मनपा": 7639,
      "लाखां": 7640,
      "दिवसांनी": 7641,
      "लॉग": 7642,
      "साधना": 7643,
      "छाप": 7644,
      "संतप्त": 7645,
      "उमेदवारा": 7646,
      "जलद": 7647,
      "तुलना": 7648,
      "उत्पन्": 7649,
      "ट्रान्स": 7650,
      "रुपयांपर्यंत": 7651,
      "नफा": 7652,
      "लाद": 7653,
      "नेने": 7654,
      "विचित्र": 7655,
      "होण्याच्या": 7656,
      "जाण्याचा": 7657,
      "मुंबईला": 7658,
      "तरीय": 7659,
      "पावसाळा": 7660,
      "भागीदारी": 7661,
      "गरजेचं": 7662,
      "वाहिन्या": 7663,
      "चाहते": 7664,
      "तुकाराम": 7665,
      "अतिक": 7666,
      "खरो": 7667,
      "णूक": 7668,
      "भारा": 7669,
      "४९": 7670,
      "यासारख्या": 7671,
      "स्पर": 7672,
      "हाणी": 7673,
      "संवेदनशील": 7674,
      "ंबिक": 7675,
      "वर्तु": 7676,
      "पेठ": 7677,
      "मिळताच": 7678,
      "प्रतिकार": 7679,
      "महापालिकेत": 7680,
      "आंदोलनात": 7681,
      "नावाखाली": 7682,
      "प्रशासनाकडून": 7683,
      "कार्यक्रमाचे": 7684,
      "मायक्रो": 7685,
      "नागरिकत्व": 7686,
      "संघटनेच्या": 7687,
      "IP": 7688,
      "गारी": 7689,
      "पडेल": 7690,
      "४६": 7691,
      "नाल्ड": 7692,
      "लिस्ट": 7693,
      "कुंभ": 7694,
      "चिमु": 7695,
      "वेळीच": 7696,
      "लोकं": 7697,
      "अपमान": 7698,
      "कॅप्ट": 7699,
      "कौटु": 7700,
      "प्रियांका": 7701,
      "दुखापत": 7702,
      "फडणवीसा": 7703,
      "ंटा": 7704,
      "नजरे": 7705,
      "भक्ता": 7706,
      "शिया": 7707,
      "तुर": 7708,
      "बोग": 7709,
      "बीएस": 7710,
      "बँकेत": 7711,
      "साधून": 7712,
      "आरोपीला": 7713,
      "बहुमत": 7714,
      "म्हटलंय": 7715,
      "विवेक": 7716,
      "उल्हा": 7717,
      "गडे": 7718,
      "मिला": 7719,
      "पुष्ट": 7720,
      "म्हात": 7721,
      "बनला": 7722,
      "अर्थाने": 7723,
      "प्रत्येकाला": 7724,
      "बांधून": 7725,
      "टाकली": 7726,
      "शहराच्या": 7727,
      "नेमकी": 7728,
      "दुकाना": 7729,
      "अँटी": 7730,
      "अंबानी": 7731,
      "इराण": 7732,
      "शब्दांत": 7733,
      "होईपर्यंत": 7734,
      "बर्‍याच": 7735,
      "कारणीभूत": 7736,
      "टं": 7737,
      "पचार": 7738,
      "भगत": 7739,
      "वज": 7740,
      "यावा": 7741,
      "्य़": 7742,
      "नेर": 7743,
      "चाकण": 7744,
      "दिया": 7745,
      "परम": 7746,
      "किरी": 7747,
      "घालव": 7748,
      "आजारी": 7749,
      "राहण्याची": 7750,
      "2016": 7751,
      "विचारणा": 7752,
      "चौकात": 7753,
      "बॅटरी": 7754,
      "नेटवर्क": 7755,
      "अतिक्र": 7756,
      "ag": 7757,
      "दन": 7758,
      "शून": 7759,
      "ॉप": 7760,
      "वाड्या": 7761,
      "तेंड": 7762,
      "देण्याच्या": 7763,
      "हिट": 7764,
      "मातो": 7765,
      "लागल्याने": 7766,
      "टेलि": 7767,
      "व्हरी": 7768,
      "प्रेमात": 7769,
      "बँका": 7770,
      "खरंच": 7771,
      "आलंय": 7772,
      "अखेरीस": 7773,
      "मार्गाने": 7774,
      "तत्काळ": 7775,
      "महाराष्ट्राचे": 7776,
      "कॉलनी": 7777,
      "दिनांक": 7778,
      "पदार्पण": 7779,
      "बॉलीवूड": 7780,
      "अहमदाबाद": 7781,
      "कौटुंबिक": 7782,
      "रशी": 7783,
      "साऱ्या": 7784,
      "माया": 7785,
      "असणारी": 7786,
      "देणारा": 7787,
      "सुप्रिया": 7788,
      "खाण": 7789,
      "णांमध्ये": 7790,
      "निवडणू": 7791,
      "दिवसभर": 7792,
      "पाचव्या": 7793,
      "जाणारा": 7794,
      "पराभवा": 7795,
      "रेल्वेच्या": 7796,
      "रंगी": 7797,
      "घालण्यात": 7798,
      "बॅं": 7799,
      "झोन": 7800,
      "सतर्क": 7801,
      "सत्कार": 7802,
      "उभारणी": 7803,
      "सोन्याच्या": 7804,
      "जागांवर": 7805,
      "प्रदूषण": 7806,
      "पंढरपूर": 7807,
      "सल्लागार": 7808,
      "ंही": 7809,
      "कमाल": 7810,
      "जां": 7811,
      "डां": 7812,
      "तट": 7813,
      "दत्ता": 7814,
      "हसन": 7815,
      "साफ": 7816,
      "शिस्त": 7817,
      "ळीच्या": 7818,
      "नोकर": 7819,
      "दाखवले": 7820,
      "प्राचीन": 7821,
      "आयकर": 7822,
      "पैलू": 7823,
      "बुद्धी": 7824,
      "ठेवत": 7825,
      "गिर": 7826,
      "धोक्यात": 7827,
      "महापालिके": 7828,
      "य़ात": 7829,
      "बाळाला": 7830,
      "खिड": 7831,
      "अस्तित्वात": 7832,
      "iv": 7833,
      "च्यु": 7834,
      "मधला": 7835,
      "सुखा": 7836,
      "देशभरातील": 7837,
      "मिळण्याची": 7838,
      "गांव": 7839,
      "पदाच्या": 7840,
      "२०१३": 7841,
      "कार्यक्रमाला": 7842,
      "दैनं": 7843,
      "अर्थातच": 7844,
      "सॅनि": 7845,
      "संचारबंदी": 7846,
      "उन्": 7847,
      "तही": 7848,
      "ममध्ये": 7849,
      "वणारा": 7850,
      "सने": 7851,
      "३००": 7852,
      "यान": 7853,
      "राचे": 7854,
      "निसर्गा": 7855,
      "कराड": 7856,
      "मार्क": 7857,
      "फेल": 7858,
      "अवय": 7859,
      "ज्ञांनी": 7860,
      "पीसीबी": 7861,
      "क्‍त": 7862,
      "्‍यांना": 7863,
      "फ्रान्स": 7864,
      "राखीव": 7865,
      "एक्स्प्रेस": 7866,
      "ul": 7867,
      "चमक": 7868,
      "टमध्ये": 7869,
      "ठप्प": 7870,
      "दय": 7871,
      "सक्ती": 7872,
      "लावर": 7873,
      "माच्या": 7874,
      "विण्याची": 7875,
      "ंत्य": 7876,
      "स्त्रीय": 7877,
      "गोव्या": 7878,
      "ज्यांच्या": 7879,
      "वापरली": 7880,
      "बॉडी": 7881,
      "स्थानका": 7882,
      "प्टर": 7883,
      "सगळ्यांना": 7884,
      "विमानतळ": 7885,
      "नातेवाईक": 7886,
      "मिश्रण": 7887,
      "नुकसानी": 7888,
      "ठण": 7889,
      "दमी": 7890,
      "सनी": 7891,
      "हत": 7892,
      "लेटर": 7893,
      "पाण्याच्या": 7894,
      "बाजारा": 7895,
      "जाळ": 7896,
      "परस्पर": 7897,
      "मोला": 7898,
      "धान्या": 7899,
      "दाखवला": 7900,
      "मतभेद": 7901,
      "चालली": 7902,
      "बनले": 7903,
      "म्हाडा": 7904,
      "पक्षाची": 7905,
      "अ‍ॅड": 7906,
      "अधिवेशन": 7907,
      "श्रेणी": 7908,
      "स्वयंपाक": 7909,
      "बंगळु": 7910,
      "कॉर्पो": 7911,
      "मिलिंद": 7912,
      "अवि": 7913,
      "अष्ट": 7914,
      "अचूक": 7915,
      "आळ": 7916,
      "टर्न": 7917,
      "पारा": 7918,
      "लर्स": 7919,
      "वण्याच्या": 7920,
      "सप": 7921,
      "हेड": 7922,
      "नीती": 7923,
      "लिहा": 7924,
      "किंमतीत": 7925,
      "प्रामाणिक": 7926,
      "मिळावी": 7927,
      "कुटुंबि": 7928,
      "लिहिलं": 7929,
      "गुंतवणुकी": 7930,
      "रुग्णालयातील": 7931,
      "फौज": 7932,
      "दैनंदिन": 7933,
      "आचार": 7934,
      "ऊक": 7935,
      "छगन": 7936,
      "जपान": 7937,
      "िकी": 7938,
      "काट": 7939,
      "वाची": 7940,
      "माही": 7941,
      "विश्र": 7942,
      "हिरे": 7943,
      "मुळेच": 7944,
      "असल्यानं": 7945,
      "गोल्ड": 7946,
      "बर्याच": 7947,
      "आयआर": 7948,
      "भाजपचा": 7949,
      "बेकायदेशीर": 7950,
      "मिळाल्या": 7951,
      "ठाकरेंनी": 7952,
      "कामाचा": 7953,
      "मालकी": 7954,
      "खंडपीठा": 7955,
      "पसरली": 7956,
      "उपांत्य": 7957,
      "उभारण्यात": 7958,
      "गुणवत्ता": 7959,
      "तेंडुल": 7960,
      "अजिंक": 7961,
      "झार": 7962,
      "वयात": 7963,
      "चाहत्या": 7964,
      "ठीक": 7965,
      "कोंब": 7966,
      "डीपी": 7967,
      "आयसीसी": 7968,
      "लावत": 7969,
      "केंद्रित": 7970,
      "गिती": 7971,
      "विभागाकडून": 7972,
      "संस्थेचे": 7973,
      "सीमेवर": 7974,
      "han": 7975,
      "आयोग": 7976,
      "तलाव": 7977,
      "धवन": 7978,
      "स्तरीय": 7979,
      "संपुष्ट": 7980,
      "किसान": 7981,
      "कुत्र": 7982,
      "गोदा": 7983,
      "चालना": 7984,
      "वाटचाल": 7985,
      "शोधून": 7986,
      "रस्त्याच्या": 7987,
      "द्दीन": 7988,
      "वैशिष्ट्य": 7989,
      "मैत्रिणी": 7990,
      "अजिंक्य": 7991,
      "संपुष्टात": 7992,
      "oc": 7993,
      "एन्": 7994,
      "कच्": 7995,
      "खऱ्या": 7996,
      "वणारे": 7997,
      "५६": 7998,
      "साचे": 7999,
      "तीला": 8000,
      "नेहा": 8001,
      "निवडी": 8002,
      "त्वे": 8003,
      "करण्यापूर्वी": 8004,
      "गुं": 8005,
      "मुखी": 8006,
      "चिर": 8007,
      "त्यांच्यात": 8008,
      "भागवत": 8009,
      "भेटा": 8010,
      "असंख्य": 8011,
      "त्यातही": 8012,
      "पक्षप्रमुख": 8013,
      "साधन": 8014,
      "करोनाचा": 8015,
      "इंदिरा": 8016,
      "संस्थेने": 8017,
      "टॅक्सी": 8018,
      "तोडगा": 8019,
      "गौरी": 8020,
      "नकारात्मक": 8021,
      "भेटीला": 8022,
      "विरार": 8023,
      "बाजारपेठे": 8024,
      "समस्ये": 8025,
      "कळी": 8026,
      "ग्या": 8027,
      "बिक": 8028,
      "माई": 8029,
      "प्रां": 8030,
      "क्षणी": 8031,
      "सुळे": 8032,
      "जेल": 8033,
      "मानला": 8034,
      "डाव्या": 8035,
      "चित्रा": 8036,
      "लोकसंख्ये": 8037,
      "ंवरून": 8038,
      "राज्यभरात": 8039,
      "डोनाल्ड": 8040,
      "वायू": 8041,
      "१९६": 8042,
      "आईला": 8043,
      "उद्योगा": 8044,
      "अभ्यासक्रम": 8045,
      "पिंप": 8046,
      "व्यवसायात": 8047,
      "ट्विटरवर": 8048,
      "शत्रू": 8049,
      "सोयाबी": 8050,
      "एबी": 8051,
      "झल": 8052,
      "मंदी": 8053,
      "वॅ": 8054,
      "सामू": 8055,
      "एकदिवसीय": 8056,
      "घेणं": 8057,
      "खाऊ": 8058,
      "डीच्या": 8059,
      "कुला": 8060,
      "महान": 8061,
      "शोधा": 8062,
      "कृषि": 8063,
      "अपयश": 8064,
      "महिन्यांत": 8065,
      "पॉवर": 8066,
      "मंगेश": 8067,
      "पॅकेज": 8068,
      "पोस्टर": 8069,
      "गटात": 8070,
      "est": 8071,
      "विद्यापीठाच्या": 8072,
      "अस्तित्व": 8073,
      "दक्षता": 8074,
      "खरोखर": 8075,
      "ap": 8076,
      "रक्षण": 8077,
      "रखड": 8078,
      "सफाई": 8079,
      "प्रण": 8080,
      "केव्हा": 8081,
      "ित्र": 8082,
      "सांगताना": 8083,
      "माणसं": 8084,
      "ब्लॉक": 8085,
      "दाखवत": 8086,
      "केंद्रावर": 8087,
      "अनुभवा": 8088,
      "नागरिकांची": 8089,
      "वर्षांनी": 8090,
      "वर्तमान": 8091,
      "विजेते": 8092,
      "मोजणी": 8093,
      "''": 8094,
      "मच्या": 8095,
      "हरिया": 8096,
      "ोबा": 8097,
      "मिंग": 8098,
      "येताच": 8099,
      "शास्त्रीय": 8100,
      "स्थगिती": 8101,
      "वारसा": 8102,
      "माणसे": 8103,
      "चित्रपटातील": 8104,
      "शेतकऱ्यांचे": 8105,
      "बघता": 8106,
      "करोनाची": 8107,
      "वर्गात": 8108,
      "मिरची": 8109,
      "गायब": 8110,
      "लष्कर": 8111,
      "तेंडुलकर": 8112,
      "46": 8113,
      "अंक": 8114,
      "उट": 8115,
      "तर्": 8116,
      "दण": 8117,
      "नही": 8118,
      "वित्त": 8119,
      "निलंबित": 8120,
      "संजीव": 8121,
      "जायला": 8122,
      "सुधीर": 8123,
      "म्हणते": 8124,
      "दुपार": 8125,
      "अभिमान": 8126,
      "स्पॉ": 8127,
      "तरुणांना": 8128,
      "तात्पुर": 8129,
      "गडावर": 8130,
      "डोक्यावर": 8131,
      "कबुली": 8132,
      "वर्चस्व": 8133,
      "उल्हास": 8134,
      "कलाव": 8135,
      "झळ": 8136,
      "नयेत": 8137,
      "बही": 8138,
      "म्य": 8139,
      "साध्य": 8140,
      "संपा": 8141,
      "क्ष्म": 8142,
      "व्यस्त": 8143,
      "चार्": 8144,
      "चालणार": 8145,
      "बिघड": 8146,
      "ज्याला": 8147,
      "काढत": 8148,
      "घोटाळा": 8149,
      "सामग्री": 8150,
      "इतरा": 8151,
      "राज्यांमध्ये": 8152,
      "द्रो": 8153,
      "अमेरिकेचे": 8154,
      "खेळाडूंना": 8155,
      "शेवटचा": 8156,
      "संघटनेने": 8157,
      "हिरव्या": 8158,
      "विनय": 8159,
      "अव्वल": 8160,
      "[…": 8161,
      "ai": 8162,
      "खित": 8163,
      "छळ": 8164,
      "वच": 8165,
      "सजाव": 8166,
      "हेक्टर": 8167,
      "ताबा": 8168,
      "शाला": 8169,
      "लागतं": 8170,
      "देशिक": 8171,
      "चिख": 8172,
      "उत्स": 8173,
      "मतं": 8174,
      "प्रादेशिक": 8175,
      "फेटाळ": 8176,
      "डोळ्यात": 8177,
      "नावं": 8178,
      "स्पर्श": 8179,
      "पाकिस्ताना": 8180,
      "आरोपींनी": 8181,
      "प्रोजे": 8182,
      "कर्जत": 8183,
      "ंढे": 8184,
      "नियंत्रणात": 8185,
      "श्रेय": 8186,
      "तिथल्या": 8187,
      "मराठवाड": 8188,
      "वाळू": 8189,
      "युवराज": 8190,
      "जालना": 8191,
      "क्वारंटाईन": 8192,
      "बंदोबस्त": 8193,
      "विश्रांती": 8194,
      "[…]": 8195,
      "बळा": 8196,
      "शांती": 8197,
      "८५": 8198,
      "वाऱ्या": 8199,
      "साल": 8200,
      "साक्ष": 8201,
      "माळी": 8202,
      "त्यावरून": 8203,
      "घेवून": 8204,
      "गुंडा": 8205,
      "जिल्हाधिकाऱ्या": 8206,
      "साहेबां": 8207,
      "घटनेनंतर": 8208,
      "२०११": 8209,
      "नदीच्या": 8210,
      "अर्थसंकल्प": 8211,
      "माघारी": 8212,
      "ews": 8213,
      "जर्मनी": 8214,
      "कमांड": 8215,
      "मनाला": 8216,
      "ह्यात": 8217,
      "ांक": 8218,
      "महादेव": 8219,
      "समवेत": 8220,
      "ंटल": 8221,
      "कामाच्या": 8222,
      "सोन्याचे": 8223,
      "अब्ज": 8224,
      "कोणालाही": 8225,
      "विधेयक": 8226,
      "आशीर्वाद": 8227,
      "कॅप्टन": 8228,
      "मनावर": 8229,
      "शक्ति": 8230,
      "पावड": 8231,
      "मुहू": 8232,
      "दिनेश": 8233,
      "त्कृष्ट": 8234,
      "सोनू": 8235,
      "सीच्या": 8236,
      "ंचाई": 8237,
      "गुंड": 8238,
      "परिधान": 8239,
      "गावकर": 8240,
      "वलेली": 8241,
      "वेगळं": 8242,
      "माझ्यासाठी": 8243,
      "मध्यवर्ती": 8244,
      "नवणे": 8245,
      "सोमय्या": 8246,
      "शुक्रवार": 8247,
      "महानगरपालिका": 8248,
      "कोट्य": 8249,
      "दुर्दैवी": 8250,
      "65": 8251,
      "आझा": 8252,
      "तह": 8253,
      "बळे": 8254,
      "रन्स": 8255,
      "तीचे": 8256,
      "क्टिव्ह": 8257,
      "टींग": 8258,
      "मारले": 8259,
      "विश्वा": 8260,
      "आघाडीवर": 8261,
      "मालिकेतील": 8262,
      "कर्मचाऱ्यांनी": 8263,
      "वडिलांनी": 8264,
      "इंडियन्स": 8265,
      "सवलत": 8266,
      "चकम": 8267,
      "मर्": 8268,
      "शक्‍य": 8269,
      "वागण": 8270,
      "चीही": 8271,
      "हिरा": 8272,
      "तिसरी": 8273,
      "शिक्षित": 8274,
      "ंबू": 8275,
      "ट्रिक": 8276,
      "पाटला": 8277,
      "ठरवलं": 8278,
      "ठेवलं": 8279,
      "वाचन": 8280,
      "गर्ल": 8281,
      "प्रकरणातील": 8282,
      "नेमका": 8283,
      "बाईक": 8284,
      "कंपन्यांना": 8285,
      "महिलेच्या": 8286,
      "प्रतीक्षा": 8287,
      "उभं": 8288,
      "आधारावर": 8289,
      "33": 8290,
      "तळावर": 8291,
      "प्य": 8292,
      "सायला": 8293,
      "रावा": 8294,
      "होणं": 8295,
      "शास्त्री": 8296,
      "रेस्टॉ": 8297,
      "सर्व्हि": 8298,
      "पेमेंट": 8299,
      "वाटतो": 8300,
      "अभिषेक": 8301,
      "गेल्यावर": 8302,
      "ठेवू": 8303,
      "अपहरण": 8304,
      "गडचि": 8305,
      "खुद्द": 8306,
      "कम्युनि": 8307,
      "इतिहासात": 8308,
      "विनाश": 8309,
      "टप्प्या": 8310,
      "विलास": 8311,
      "अल्पसंख्या": 8312,
      "अभियान": 8313,
      "पक्षीय": 8314,
      "उत्सुक": 8315,
      "अपक्ष": 8316,
      "नट": 8317,
      "मल्": 8318,
      "वसन": 8319,
      "तेसाठी": 8320,
      "हास": 8321,
      "निगे": 8322,
      "संसार": 8323,
      "हिने": 8324,
      "वर्ध": 8325,
      "खायला": 8326,
      "दारु": 8327,
      "उपनग": 8328,
      "सांगते": 8329,
      "कर्ष": 8330,
      "मागून": 8331,
      "विरोधकांनी": 8332,
      "कमल": 8333,
      "अमेरिके": 8334,
      "छोटी": 8335,
      "छोटा": 8336,
      "संगीता": 8337,
      "une": 8338,
      "कारणांमुळे": 8339,
      "चाळीस": 8340,
      "अभावी": 8341,
      "उध": 8342,
      "दशी": 8343,
      "वस्त्र": 8344,
      "िनी": 8345,
      "५८": 8346,
      "यायला": 8347,
      "्यांचा": 8348,
      "नाश": 8349,
      "वांद्रे": 8350,
      "पाथ": 8351,
      "देहा": 8352,
      "णास": 8353,
      "जावं": 8354,
      "परब": 8355,
      "क्रू": 8356,
      "पर्जन्य": 8357,
      "महाड": 8358,
      "स्वराज्य": 8359,
      "आयए": 8360,
      "फाटा": 8361,
      "पत्रिका": 8362,
      "बसणार": 8363,
      "जुना": 8364,
      "अनुकूल": 8365,
      "पाहिला": 8366,
      "मुलांसाठी": 8367,
      "वंश": 8368,
      "वंशी": 8369,
      "माझ्यावर": 8370,
      "कामाची": 8371,
      "रुग्णसंख्या": 8372,
      "पादन": 8373,
      "हल्ल्यात": 8374,
      "युरोप": 8375,
      "समूहा": 8376,
      "पद्म": 8377,
      "चोरट्यांनी": 8378,
      "टंचाई": 8379,
      "तज्ञ": 8380,
      "भट": 8381,
      "लिप": 8382,
      "सोनवणे": 8383,
      "करावेत": 8384,
      "कर्करो": 8385,
      "स्थानि": 8386,
      "नसता": 8387,
      "च्‍या": 8388,
      "बुडा": 8389,
      "चर्च": 8390,
      "मूल्या": 8391,
      "हवाल": 8392,
      "आरोग्यमंत्री": 8393,
      "झालंय": 8394,
      "चंद्रा": 8395,
      "तत्त्वा": 8396,
      "एवढ्या": 8397,
      "हिवाळा": 8398,
      "लिकॉ": 8399,
      "कोकणातील": 8400,
      "श्‍यक": 8401,
      "प्राधिकरणा": 8402,
      "अध्यक्षतेखाली": 8403,
      "सामूहिक": 8404,
      "पावडर": 8405,
      "गळा": 8406,
      "पाना": 8407,
      "हिमा": 8408,
      "सुध्दा": 8409,
      "सीएस": 8410,
      "रिटी": 8411,
      "सर्वप्रथम": 8412,
      "सहकार्या": 8413,
      "फाशी": 8414,
      "वलेला": 8415,
      "न्यु": 8416,
      "भावनिक": 8417,
      "राखून": 8418,
      "संस्कृत": 8419,
      "ग्रीन": 8420,
      "मराठवाडा": 8421,
      "धन्यवाद": 8422,
      "झन": 8423,
      "ीला": 8424,
      "ेरी": 8425,
      "४१": 8426,
      "प्रमोद": 8427,
      "विकार": 8428,
      "दिसेल": 8429,
      "ंगत": 8430,
      "तरि": 8431,
      "पोल": 8432,
      "विचारलं": 8433,
      "पाहण्यासाठी": 8434,
      "पाठपुरावा": 8435,
      "दानवे": 8436,
      "साधे": 8437,
      "सौर": 8438,
      "महाविद्यालय": 8439,
      "वाक्य": 8440,
      "दुबई": 8441,
      "os": 8442,
      "थै": 8443,
      "नशी": 8444,
      "यॉ": 8445,
      "पायी": 8446,
      "किना": 8447,
      "रेम": 8448,
      "डावात": 8449,
      "भिवंडी": 8450,
      "मिळाल्याने": 8451,
      "होतोय": 8452,
      "क्रिकेटमध्ये": 8453,
      "करतोय": 8454,
      "जनतेने": 8455,
      "चित्रपटाचे": 8456,
      "महिलेचा": 8457,
      "माणसाला": 8458,
      "दिवसांपूर्वीच": 8459,
      "विकासासाठी": 8460,
      "निराशा": 8461,
      "पृथ्वीराज": 8462,
      "ठराविक": 8463,
      "तुरुंगात": 8464,
      "अब्दुल": 8465,
      "कोट्यवधी": 8466,
      "49": 8467,
      "ईस": 8468,
      "वंद": 8469,
      "आहेस": 8470,
      "पाण": 8471,
      "निवासी": 8472,
      "मिक्स": 8473,
      "कोळी": 8474,
      "सरकारकडे": 8475,
      "पडद्यावर": 8476,
      "राहणे": 8477,
      "अनुष्": 8478,
      "बँकेचे": 8479,
      "१५०": 8480,
      "मंडळात": 8481,
      "विमानतळा": 8482,
      "हॉटेलमध्ये": 8483,
      "मोटार": 8484,
      "Coron": 8485,
      "of": 8486,
      "सॅम": 8487,
      "त्याप्रमाणे": 8488,
      "मुक्ता": 8489,
      "जाड": 8490,
      "नसतात": 8491,
      "भिज": 8492,
      "मार्गी": 8493,
      "बोलू": 8494,
      "मुलाच्या": 8495,
      "आंदोलनाला": 8496,
      "संघातील": 8497,
      "स्थानक": 8498,
      "चीनने": 8499,
      "उद्देशाने": 8500,
      "भ्रम": 8501,
      "समुद्रा": 8502,
      "सदस्यांनी": 8503,
      "इतकेच": 8504,
      "आत्मविश्वास": 8505,
      "मोकळा": 8506,
      "उतार": 8507,
      "द्यात": 8508,
      "दत्तात": 8509,
      "पन्": 8510,
      "बहा": 8511,
      "बळावर": 8512,
      "सही": 8513,
      "५७": 8514,
      "लाज": 8515,
      "हेलिकॉ": 8516,
      "ात्र": 8517,
      "वानी": 8518,
      "तीची": 8519,
      "नेत्यांच्या": 8520,
      "क्चर": 8521,
      "नितेश": 8522,
      "शिवी": 8523,
      "आयडी": 8524,
      "वादन": 8525,
      "प्रस्तावित": 8526,
      "इंग्लिश": 8527,
      "अधिकाधिक": 8528,
      "भ्रष्टाचारा": 8529,
      "वयोगटातील": 8530,
      "जनाव": 8531,
      "लँड": 8532,
      "ळू": 8533,
      "सकर": 8534,
      "तुन": 8535,
      "दुख": 8536,
      "एमसी": 8537,
      "वादळ": 8538,
      "कॅम्प": 8539,
      "प्रकरणे": 8540,
      "मार्गावरील": 8541,
      "पुरुषा": 8542,
      "कशाला": 8543,
      "----------------": 8544,
      "षटकार": 8545,
      "पदार्था": 8546,
      "आत्तापर्यंत": 8547,
      "निरोगी": 8548,
      "आझाद": 8549,
      "ऑन": 8550,
      "साहाय": 8551,
      "मुकेश": 8552,
      "कारकी": 8553,
      "मीरा": 8554,
      "कडं": 8555,
      "म्हणण्या": 8556,
      "रिपब्लिक": 8557,
      "ज्वल": 8558,
      "अनुसूचित": 8559,
      "कांचं": 8560,
      "सहाय": 8561,
      "मांडला": 8562,
      "एकूणच": 8563,
      "फिरत": 8564,
      "गळफास": 8565,
      "एचडी": 8566,
      "विषाणूचा": 8567,
      "कार्तिक": 8568,
      "गुलाब": 8569,
      "अरिंग": 8570,
      "ओम": 8571,
      "कमेंट": 8572,
      "्रोल": 8573,
      "नेले": 8574,
      "कोठे": 8575,
      "शिखर": 8576,
      "किन": 8577,
      "चालले": 8578,
      "फास्ट": 8579,
      "बैल": 8580,
      "भोर": 8581,
      "नवरा": 8582,
      "निरीक्षण": 8583,
      "पोटात": 8584,
      "रॅली": 8585,
      "समुद्रात": 8586,
      "ग्रंथा": 8587,
      "गणेशोत्सव": 8588,
      "सेलिब्रिटी": 8589,
      "पॉलिसी": 8590,
      "आवर": 8591,
      "आश्र": 8592,
      "ओरड": 8593,
      "टात": 8594,
      "वणारी": 8595,
      "हल्ली": 8596,
      "कामी": 8597,
      "काशी": 8598,
      "स्‍": 8599,
      "दावे": 8600,
      "खाना": 8601,
      "दरवाढी": 8602,
      "ज्जा": 8603,
      "चौकार": 8604,
      "पक्षातील": 8605,
      "येणारी": 8606,
      "पाठलाग": 8607,
      "अनुदा": 8608,
      "अपवाद": 8609,
      "तुमचं": 8610,
      "राबविण्यात": 8611,
      "ट्रेंड": 8612,
      "गौतम": 8613,
      "संभाजीराजे": 8614,
      "आराखडा": 8615,
      "42": 8616,
      "ig": 8617,
      "आमिर": 8618,
      "उस": 8619,
      "जमाती": 8620,
      "लगत": 8621,
      "४३": 8622,
      "साने": 8623,
      "रामा": 8624,
      "पाटी": 8625,
      "शिथि": 8626,
      "स्थळा": 8627,
      "मारुती": 8628,
      "प्पट": 8629,
      "गरजू": 8630,
      "पिक्स": 8631,
      "धारक": 8632,
      "यांनाही": 8633,
      "श्रीकांत": 8634,
      "अर्पण": 8635,
      "भागातून": 8636,
      "शरीरातील": 8637,
      "मुख्यमंत्र्यांना": 8638,
      "तितके": 8639,
      "अंधार": 8640,
      "अशातच": 8641,
      "विकेट्स": 8642,
      "आवर्": 8643,
      "झड": 8644,
      "पसंत": 8645,
      "५१": 8646,
      "स्सा": 8647,
      "स्मरण": 8648,
      "असणारा": 8649,
      "बापू": 8650,
      "मिश्रा": 8651,
      "तोंडा": 8652,
      "बोर": 8653,
      "पारित": 8654,
      "ळ्याच्या": 8655,
      "काँग्रेसमध्ये": 8656,
      "पाठविण्यात": 8657,
      "स्वतःचे": 8658,
      "चित्रपटाची": 8659,
      "भांडवल": 8660,
      "तिथं": 8661,
      "ध्वनी": 8662,
      "मानुसार": 8663,
      "झपाट्याने": 8664,
      "उकळ": 8665,
      "काऱ्या": 8666,
      "वाव": 8667,
      "वाजून": 8668,
      "होर": 8669,
      "संवर्धन": 8670,
      "देतील": 8671,
      "कोले": 8672,
      "लियन": 8673,
      "तोल": 8674,
      "सीई": 8675,
      "पीय": 8676,
      "वाढता": 8677,
      "टेल्स": 8678,
      "पडताळ": 8679,
      "वळ्या": 8680,
      "भूल": 8681,
      "लॉन्": 8682,
      "देशाचा": 8683,
      "बॉय": 8684,
      "आंदोलना": 8685,
      "मॅटो": 8686,
      "मुलींना": 8687,
      "संपन्न": 8688,
      "पणाने": 8689,
      "तापमा": 8690,
      "चलित": 8691,
      "फ्लू": 8692,
      "क्रेडिट": 8693,
      "स्टिंग": 8694,
      "स्वयंसेवक": 8695,
      "राहावे": 8696,
      "पुनर्वसन": 8697,
      "तेथून": 8698,
      "प्रक्रियेत": 8699,
      "जला": 8700,
      "डं": 8701,
      "ड्यु": 8702,
      "बटा": 8703,
      "हस्ता": 8704,
      "५२": 8705,
      "सास": 8706,
      "त्याकडे": 8707,
      "प्रदीप": 8708,
      "पाण्याचे": 8709,
      "परिसरा": 8710,
      "जोरात": 8711,
      "सूक्ष्म": 8712,
      "चर्स": 8713,
      "बसत": 8714,
      "पालखी": 8715,
      "शिवसेनेचा": 8716,
      "उमेदवारांना": 8717,
      "तिथेच": 8718,
      "ट्रेलर": 8719,
      ".’’": 8720,
      "मंदिराच्या": 8721,
      "वर्ल्डकप": 8722,
      "पायाभूत": 8723,
      "पंतप्रधानांनी": 8724,
      "समन्वय": 8725,
      "पायलट": 8726,
      "विष्णू": 8727,
      "आम्हा": 8728,
      "इक": 8729,
      "उपास": 8730,
      "ऑर्डर": 8731,
      "दरेकर": 8732,
      "साचा": 8733,
      "प्रीत": 8734,
      "आपो": 8735,
      "जेदार": 8736,
      "वाढून": 8737,
      "वाढणार": 8738,
      "थेर": 8739,
      "अशावेळी": 8740,
      "पाठवून": 8741,
      "ज्ञानेश्वर": 8742,
      "नागरिकांचे": 8743,
      "फायद्या": 8744,
      "नसल्याची": 8745,
      "सर्वोत्कृष्ट": 8746,
      "मंगळवार": 8747,
      "भाजीपाला": 8748,
      "दुकानात": 8749,
      "स्फोटा": 8750,
      "हिंदुत्व": 8751,
      "लाईट": 8752,
      "स्पेशल": 8753,
      "मदतीसाठी": 8754,
      "ट्यूट": 8755,
      "नमुने": 8756,
      "आउट": 8757,
      "डब": 8758,
      "नद्या": 8759,
      "कावून": 8760,
      "राकेश": 8761,
      "कारकि": 8762,
      "मिठा": 8763,
      "घेतील": 8764,
      "डिग्री": 8765,
      "टिळक": 8766,
      "ठेवण्याचा": 8767,
      "आल्यास": 8768,
      "ंत्रिकी": 8769,
      "शेतकऱ्यांची": 8770,
      "टाकण्यात": 8771,
      "मॅन": 8772,
      "संघाची": 8773,
      "धावांवर": 8774,
      "समजत": 8775,
      "आवडते": 8776,
      "कामगारांना": 8777,
      "जातीय": 8778,
      "आकर्षित": 8779,
      "आयुक्तांनी": 8780,
      "षटकात": 8781,
      "युनिट": 8782,
      "हार्दिक": 8783,
      "Indi": 8784,
      "अयोध्ये": 8785,
      "कादंबरी": 8786,
      "बहीण": 8787,
      "56": 8788,
      "एसी": 8789,
      "ड्रे": 8790,
      "दरो": 8791,
      "नाबाद": 8792,
      "वाशी": 8793,
      "मास्टर": 8794,
      "म्हणे": 8795,
      "मेला": 8796,
      "लोट": 8797,
      "चारी": 8798,
      "राहण्यासाठी": 8799,
      "सूर्या": 8800,
      "पक्षांच्या": 8801,
      "ब्रँड": 8802,
      "ब्रह्म": 8803,
      "प्रेक्षक": 8804,
      "सर्वांत": 8805,
      "मनोरंज": 8806,
      "टॅक्स": 8807,
      "कमाली": 8808,
      "लष्करी": 8809,
      "तसाच": 8810,
      "अग्रवाल": 8811,
      "डब्ल्यू": 8812,
      "आपोआप": 8813,
      "ंनुसार": 8814,
      "ण्य": 8815,
      "काठी": 8816,
      "प्रस": 8817,
      "प्रजा": 8818,
      "देणं": 8819,
      "पोटा": 8820,
      "मानस": 8821,
      "स्टु": 8822,
      "चिंग": 8823,
      "हजारां": 8824,
      "विरोधातील": 8825,
      "इतरांना": 8826,
      "आईच्या": 8827,
      "विद्यार्थ्यांची": 8828,
      "कुटुंबात": 8829,
      "पत्रकारांशी": 8830,
      "गुन्हेगारी": 8831,
      "इलेक्ट्रॉ": 8832,
      "विश्वचषक": 8833,
      "ab": 8834,
      "ch": 8835,
      "more": 8836,
      "क्यू": 8837,
      "झळक": 8838,
      "वन्य": 8839,
      "हेमंत": 8840,
      "स्की": 8841,
      "तांदू": 8842,
      "मारत": 8843,
      "कुंड": 8844,
      "वर्षभर": 8845,
      "डेकर": 8846,
      "फारसा": 8847,
      "199": 8848,
      "मांडले": 8849,
      "जन्माला": 8850,
      "मुख्यमंत्र्यांच्या": 8851,
      "कायद्याच्या": 8852,
      "तशीच": 8853,
      "हंगाम": 8854,
      "मुलाखत": 8855,
      "आयोगाच्या": 8856,
      "++++++++++++++++": 8857,
      "अलीकडेच": 8858,
      "दुःख": 8859,
      "महिन्यांपूर्वी": 8860,
      "\",": 8861,
      "कथे": 8862,
      "खंडा": 8863,
      "बसेस": 8864,
      "वण्यास": 8865,
      "९५": 8866,
      "साठे": 8867,
      "नेत्यांची": 8868,
      "प्रभू": 8869,
      "मुक": 8870,
      "निव्": 8871,
      "पुकार": 8872,
      "जेथे": 8873,
      "लोकांमध्ये": 8874,
      "चारही": 8875,
      "निर्वा": 8876,
      "घेतलेला": 8877,
      "कामं": 8878,
      "त्यांच्याशी": 8879,
      "बिला": 8880,
      "मिळालेली": 8881,
      "वापरला": 8882,
      "साता": 8883,
      "पेक्षाही": 8884,
      "अर्थव्यवस्था": 8885,
      "सर्वांच्या": 8886,
      "तेव्हापासून": 8887,
      "कंपनीत": 8888,
      "छापा": 8889,
      "शहरांमध्ये": 8890,
      "बॉलिवूडमध्ये": 8891,
      "वडिलांना": 8892,
      "तिथून": 8893,
      "समारंभ": 8894,
      "टँकर": 8895,
      "कंट्रोल": 8896,
      "हेलिकॉप्टर": 8897,
      "उग": 8898,
      "एज": 8899,
      "झटका": 8900,
      "लव्ह": 8901,
      "नाम्या": 8902,
      "त्याशिवाय": 8903,
      "प्रवृत्ती": 8904,
      "चीत": 8905,
      "होणा": 8906,
      "दिनी": 8907,
      "हिरो": 8908,
      "शाच्या": 8909,
      "न्सी": 8910,
      "स्थी": 8911,
      "सिलि": 8912,
      "कुश": 8913,
      "युजर्स": 8914,
      "पर्यंतच्या": 8915,
      "कोरोनावर": 8916,
      "करूनही": 8917,
      "ष्कार": 8918,
      "पिता": 8919,
      "्रास": 8920,
      "डॉलर्स": 8921,
      "मुलांची": 8922,
      "काराच्या": 8923,
      "बाजूच्या": 8924,
      "सैफ": 8925,
      "प्रशासनाच्या": 8926,
      "उपायुक्त": 8927,
      "हाताने": 8928,
      "निरोप": 8929,
      "गडचिरोली": 8930,
      "थैमान": 8931,
      "गित": 8932,
      "टर्स": 8933,
      "म्र": 8934,
      "रौ": 8935,
      "सखोल": 8936,
      "सव्वा": 8937,
      "नामे": 8938,
      "ाता": 8939,
      "माळा": 8940,
      "पासुन": 8941,
      "संग्राम": 8942,
      "हिंग": 8943,
      "कोल्हे": 8944,
      "ंडगे": 8945,
      "टेज": 8946,
      "समर्": 8947,
      "भाजपकडून": 8948,
      "चोप्रा": 8949,
      "स्पष्टपणे": 8950,
      "लॉकडाऊनमुळे": 8951,
      "मानाने": 8952,
      "लगेचच": 8953,
      "44": 8954,
      "अवत": 8955,
      "गल्ली": 8956,
      "पध्द": 8957,
      "लड": 8958,
      "लन": 8959,
      "तीर्ण": 8960,
      "मामा": 8961,
      "रायला": 8962,
      "मधली": 8963,
      "बाप": 8964,
      "दाम्प": 8965,
      "केलेलं": 8966,
      "परिवारा": 8967,
      "फोर्स": 8968,
      "बेपत्ता": 8969,
      "निर्णया": 8970,
      "तयारीत": 8971,
      "दिवसांचा": 8972,
      "रात्रीच्या": 8973,
      "स्वतःची": 8974,
      "सौदी": 8975,
      "शाळेतील": 8976,
      "हल्लाबोल": 8977,
      "केंद्राच्या": 8978,
      "प्रसारमाध्यमा": 8979,
      "ak": 8980,
      "शर्ट": 8981,
      "सई": 8982,
      "हत्ती": 8983,
      "क्कल": 8984,
      "निधि": 8985,
      "शिक्का": 8986,
      "एकट्या": 8987,
      "राजन": 8988,
      "सह्या": 8989,
      "खेच": 8990,
      "नसतं": 8991,
      "प्राध्यापक": 8992,
      "फेटाळून": 8993,
      "आल्यामुळे": 8994,
      "दुर्घटना": 8995,
      "कामाचे": 8996,
      "अतिरे": 8997,
      "मॅक्स": 8998,
      "जाणवत": 8999,
      "पर्यटक": 9000,
      "स्टाईल": 9001,
      "दशलक्ष": 9002,
      "जागीच": 9003,
      "निव्वळ": 9004,
      "धना": 9005,
      "मंद": 9006,
      "लग": 9007,
      "’.": 9008,
      "नाक": 9009,
      "विल्या": 9010,
      "मुद्या": 9011,
      "कार्ट": 9012,
      "बागे": 9013,
      "पोषक": 9014,
      "पडतात": 9015,
      "कोरोनाने": 9016,
      "व्हिंग": 9017,
      "धुरी": 9018,
      "वृत्तपत्र": 9019,
      "यांसारख्या": 9020,
      "महाराष्ट्राला": 9021,
      "महत्वाचा": 9022,
      "संघटनांनी": 9023,
      "पात्रता": 9024,
      "जंगलात": 9025,
      "उत्साहात": 9026,
      "नगराध्यक्ष": 9027,
      "मातोश्री": 9028,
      "तांदूळ": 9029,
      "com": 9030,
      "अहो": 9031,
      "अंडी": 9032,
      "एकाही": 9033,
      "डॅ": 9034,
      "तीर्थ": 9035,
      "लील": 9036,
      "सूद": 9037,
      "भाषणात": 9038,
      "घटनेचा": 9039,
      "ठोक": 9040,
      "खंडणी": 9041,
      "नाटकात": 9042,
      "चॅम्": 9043,
      "जंगल": 9044,
      "रहाणे": 9045,
      "पाकिस्तानला": 9046,
      "समृद्ध": 9047,
      "ter": 9048,
      "ऑल": 9049,
      "धनगर": 9050,
      "ळके": 9051,
      "वल्यानंतर": 9052,
      "क्टि": 9053,
      "प्रत्या": 9054,
      "प्रशास": 9055,
      "केमि": 9056,
      "वरचा": 9057,
      "दिवे": 9058,
      "परंतू": 9059,
      "ल्लो": 9060,
      "त्रिम": 9061,
      "उपनिरीक्षक": 9062,
      "डेसि": 9063,
      "वाढवून": 9064,
      "वळून": 9065,
      "भरण्यासाठी": 9066,
      "कृत्रिम": 9067,
      "प्रतिनिधि": 9068,
      "काढता": 9069,
      "कॉम्": 9070,
      "दिवसांची": 9071,
      "पातळ": 9072,
      "सगळा": 9073,
      "खेळला": 9074,
      "मैदान": 9075,
      "वॉर्": 9076,
      "रक्ता": 9077,
      "दिग्दर्शन": 9078,
      "वाढीव": 9079,
      "साडेतीन": 9080,
      "प्लॅन": 9081,
      "मुलाखती": 9082,
      "गणेशोत्स": 9083,
      "छाती": 9084,
      "मालेगाव": 9085,
      "उगा": 9086,
      "जस": 9087,
      "६६": 9088,
      "वास्तू": 9089,
      "स्क्रि": 9090,
      "प्रस्थापित": 9091,
      "विक्र": 9092,
      "आणण्यात": 9093,
      "सुधा": 9094,
      "रिस": 9095,
      "कर्ते": 9096,
      "उत्तीर्ण": 9097,
      "भिन्न": 9098,
      "असंच": 9099,
      "प्रश्नावर": 9100,
      "येणार्‍या": 9101,
      "अनुप": 9102,
      "साम्रा": 9103,
      "बॅग": 9104,
      "२०१२": 9105,
      "वॉटर": 9106,
      "विमानतळावर": 9107,
      "भांडण": 9108,
      "कुटुंबाला": 9109,
      "प्रश्नांची": 9110,
      "व्यवस्थापक": 9111,
      "ट्यूब": 9112,
      "सिडको": 9113,
      "डिस्चार्ज": 9114,
      "पलीकडे": 9115,
      "कॉन्फर": 9116,
      "उद्योजक": 9117,
      "85": 9118,
      "Pune": 9119,
      "ंटी": 9120,
      "ऋषी": 9121,
      "डच्या": 9122,
      "भयं": 9123,
      "ॉम": 9124,
      "साखरे": 9125,
      "सेवेत": 9126,
      "शिवार": 9127,
      "कुळ": 9128,
      "जोपर्यंत": 9129,
      "रुपयांनी": 9130,
      "बेन": 9131,
      "शिवसैनि": 9132,
      "निर्णयामुळे": 9133,
      "गेल्याने": 9134,
      "पालिके": 9135,
      "कंपनीची": 9136,
      "खुल्या": 9137,
      "पक्षाचा": 9138,
      "लग्नाच्या": 9139,
      "दोघी": 9140,
      "कर्मचाऱ्यांच्या": 9141,
      "ग्रहण": 9142,
      "चिकि": 9143,
      "अंधेरी": 9144,
      "कारखाना": 9145,
      "अधिवेशनात": 9146,
      "तारखेला": 9147,
      "बरोबरी": 9148,
      "ंभा": 9149,
      "धिका": 9150,
      "नजी": 9151,
      "ारो": 9152,
      "स्म": 9153,
      "मास": 9154,
      "तेंव्हा": 9155,
      "निबंध": 9156,
      "नियोजित": 9157,
      "बाधा": 9158,
      "जावर": 9159,
      "कोक": 9160,
      "धीत": 9161,
      "सिग्": 9162,
      "देशांच्या": 9163,
      "यांच्याविरोधात": 9164,
      "गोविंद": 9165,
      "वाढण्याची": 9166,
      "ठेऊन": 9167,
      "व्यापक": 9168,
      "मिळाल्यानंतर": 9169,
      "बंधन": 9170,
      "बनली": 9171,
      "देशांनी": 9172,
      "खोलीत": 9173,
      "पार्किंग": 9174,
      "टाकत": 9175,
      "आईने": 9176,
      "गोष्टींचा": 9177,
      "थांबा": 9178,
      "बैठकीला": 9179,
      "जानेवारीला": 9180,
      "महाविद्यालयात": 9181,
      "चेहऱ्यावर": 9182,
      "लोकांसाठी": 9183,
      "जोडीदारा": 9184,
      "इलेक्ट्रिक": 9185,
      "फ्लॅट": 9186,
      "प्रोजेक्ट": 9187,
      "आवर्जून": 9188,
      "उंड": 9189,
      "टिका": 9190,
      "शन्स": 9191,
      "सड": 9192,
      "साध्या": 9193,
      "होळी": 9194,
      "संक्र": 9195,
      "बांनी": 9196,
      "गेलेले": 9197,
      "सरकारमध्ये": 9198,
      "सहसा": 9199,
      "सायन": 9200,
      "न्यायालयीन": 9201,
      "दर्शनासाठी": 9202,
      "भोग": 9203,
      "कुठलाही": 9204,
      "वॉशिंग": 9205,
      "बार्": 9206,
      "आगमन": 9207,
      "परंपरे": 9208,
      "इंजिन": 9209,
      "हस्तक्षेप": 9210,
      "विश्वचष": 9211,
      "तपासा": 9212,
      "झोपडपट्टी": 9213,
      "भयंकर": 9214,
      "अटल": 9215,
      "चॉ": 9216,
      "तशा": 9217,
      "दंडा": 9218,
      "रच्या": 9219,
      "रक्षक": 9220,
      "हड": 9221,
      "तेमुळे": 9222,
      "निम": 9223,
      "देण": 9224,
      "्टन": 9225,
      "सरस": 9226,
      "सिंचन": 9227,
      "वाढल्याने": 9228,
      "सम्रा": 9229,
      "चालला": 9230,
      "अशाप्रकारे": 9231,
      "मिळावा": 9232,
      "व्यवहारा": 9233,
      "सायनिक": 9234,
      "भवती": 9235,
      "शाळेच्या": 9236,
      "समाजाचे": 9237,
      "उतरले": 9238,
      "अश्विन": 9239,
      "पुष्प": 9240,
      "हर्षवर्धन": 9241,
      "Ma": 9242,
      "अश्र": 9243,
      "अविनाश": 9244,
      "आक्षे": 9245,
      "ट्री": 9246,
      "काकडे": 9247,
      "सासू": 9248,
      "ण्याबाबत": 9249,
      "णाने": 9250,
      "पुरू": 9251,
      "गीकरण": 9252,
      "लोकसभेत": 9253,
      "2015": 9254,
      "झेंडा": 9255,
      "लॅब": 9256,
      "उद्भव": 9257,
      "तृण": 9258,
      "बजावली": 9259,
      "निवासस्थानी": 9260,
      "विश्लेषण": 9261,
      "वर्तुळात": 9262,
      "300": 9263,
      "67": 9264,
      "फ्टी": 9265,
      "भजन": 9266,
      "रजि": 9267,
      "कापूस": 9268,
      "सांड": 9269,
      "नेला": 9270,
      "असुन": 9271,
      "भाड्या": 9272,
      "शीर्ष": 9273,
      "तिवारी": 9274,
      "सरदार": 9275,
      "मेन": 9276,
      "बीज": 9277,
      "रेल्वेने": 9278,
      "याबाबतची": 9279,
      "कुठून": 9280,
      "फॉलो": 9281,
      "शाहू": 9282,
      "कॉंग्रेसचे": 9283,
      "पुरेसे": 9284,
      "शिक्षणासाठी": 9285,
      "विद्यापीठात": 9286,
      "सेल्फी": 9287,
      "रस्त्यांवर": 9288,
      "चमचा": 9289,
      "परमबीर": 9290,
      "उच्चा": 9291,
      "ऐश्वर": 9292,
      "तल्या": 9293,
      "पठाण": 9294,
      "रित": 9295,
      "राचा": 9296,
      "विलंब": 9297,
      "संघट": 9298,
      "हिणी": 9299,
      "ांसोबत": 9300,
      "तरतु": 9301,
      "शिष्य": 9302,
      "क्रमे": 9303,
      "महामार्गावर": 9304,
      "मुंबईचे": 9305,
      "बनवून": 9306,
      "अंतर्": 9307,
      "सुरुवातीच्या": 9308,
      "कैलास": 9309,
      "सगळेच": 9310,
      "ध्येय": 9311,
      "रेड्डी": 9312,
      "43": 9313,
      "ma": 9314,
      "ंला": 9315,
      "चरण": 9316,
      "ब्यु": 9317,
      "वया": 9318,
      "हर्": 9319,
      "्वारे": 9320,
      "प्रभारी": 9321,
      "मुन": 9322,
      "मिमी": 9323,
      "भास्कर": 9324,
      "दाबा": 9325,
      "रूपांतर": 9326,
      "डाख": 9327,
      "आजकाल": 9328,
      "चिंत": 9329,
      "कोरोनामुक्त": 9330,
      "अनेकजण": 9331,
      "पोलिसांची": 9332,
      "ज्याच्या": 9333,
      "कॉफी": 9334,
      "आरबीआय": 9335,
      "त्याच्याकडे": 9336,
      "गेल्यानंतर": 9337,
      "बदलत": 9338,
      "रावसाहेब": 9339,
      "बांधवा": 9340,
      "बांधणी": 9341,
      "योजनेचा": 9342,
      "मायबोली": 9343,
      "सहजपणे": 9344,
      "संशयिता": 9345,
      "रस्त्यावरील": 9346,
      "संपादन": 9347,
      "मतदारसंघातील": 9348,
      "शिवीगाळ": 9349,
      "BI": 9350,
      "क्के": 9351,
      "प्रथा": 9352,
      "केक": 9353,
      "चीच": 9354,
      "निता": 9355,
      "निंबा": 9356,
      "ांजली": 9357,
      "असावेत": 9358,
      "निवडा": 9359,
      "च्चार": 9360,
      "केल्याचं": 9361,
      "विरोधा": 9362,
      "बुकिंग": 9363,
      "ब्रॅ": 9364,
      "भीमा": 9365,
      "कांकडे": 9366,
      "धरला": 9367,
      "तुमच्यासाठी": 9368,
      "साधारणपणे": 9369,
      "निघाला": 9370,
      "पृष्ठ": 9371,
      "चेंडूत": 9372,
      "डिझेलच्या": 9373,
      "अर्थसंकल्पात": 9374,
      "पंकज": 9375,
      "================": 9376,
      "पांडु": 9377,
      "रेस्टॉरंट": 9378,
      "Ra": 9379,
      "इर": 9380,
      "कपा": 9381,
      "टय़ा": 9382,
      "सामंत": 9383,
      "वरचे": 9384,
      "रोप": 9385,
      "रोल": 9386,
      "जेवढ": 9387,
      "शेअर्स": 9388,
      "सिन्हा": 9389,
      "तुझा": 9390,
      "तुझी": 9391,
      "दुप्पट": 9392,
      "पेन्शन": 9393,
      "झालेलं": 9394,
      "बोलाव": 9395,
      "असाही": 9396,
      "आलीय": 9397,
      "केल्याप्रकरणी": 9398,
      "आमचं": 9399,
      "ठेवता": 9400,
      "वेळेवर": 9401,
      "वर्तवण्यात": 9402,
      "श्याम": 9403,
      "दुष्काळा": 9404,
      "अजुन": 9405,
      "माघार": 9406,
      "चित्रीकरण": 9407,
      "पन्नास": 9408,
      "अंब": 9409,
      "एड": 9410,
      "गरो": 9411,
      "७७": 9412,
      "याव्यतिरिक्त": 9413,
      "क्व": 9414,
      "लिका": 9415,
      "पूर्वे": 9416,
      "पेन": 9417,
      "गों": 9418,
      "व्हन": 9419,
      "पिढ": 9420,
      "नातं": 9421,
      "काँग्रेसचा": 9422,
      "काँग्रेसची": 9423,
      "पाहिली": 9424,
      "महिलांसाठी": 9425,
      "तपासात": 9426,
      "काराचा": 9427,
      "विद्यार्थ्यांचे": 9428,
      "रोजच्या": 9429,
      "मॉल": 9430,
      "केंद्राने": 9431,
      "पकडले": 9432,
      "सर्वांनाच": 9433,
      "ट्रॅक्टर": 9434,
      "सेनेचे": 9435,
      "आॅ": 9436,
      "उज्": 9437,
      "ओपन": 9438,
      "झट": 9439,
      "पन्न": 9440,
      "भय": 9441,
      "सनात": 9442,
      "ीय": 9443,
      "रासायनिक": 9444,
      "चेल": 9445,
      "निम्": 9446,
      "येई": 9447,
      "स्थगित": 9448,
      "सर्वजण": 9449,
      "मिळवली": 9450,
      "ंटन": 9451,
      "भाजपवर": 9452,
      "बसलेल्या": 9453,
      "दिवसांमध्ये": 9454,
      "मोठया": 9455,
      "गिल": 9456,
      "फारशी": 9457,
      "सिनेमे": 9458,
      "परतले": 9459,
      "आढळला": 9460,
      "महाराजांच्या": 9461,
      "य्यद": 9462,
      "्‍यांनी": 9463,
      "चिकन": 9464,
      "अभियांत्रिकी": 9465,
      "सावरकर": 9466,
      "इम्रा": 9467,
      "स्वाभिमानी": 9468,
      "झारखंड": 9469,
      "दत्तात्र": 9470,
      "पडताळणी": 9471,
      "प्रसन्न": 9472,
      "od": 9473,
      "छेड": 9474,
      "पच": 9475,
      "फवार": 9476,
      "वये": 9477,
      "माव": 9478,
      "विदेशी": 9479,
      "विसर्जन": 9480,
      "तेय": 9481,
      "निज": 9482,
      "येणा": 9483,
      "कोणाच्या": 9484,
      "्टि": 9485,
      "मेश्वर": 9486,
      "क्रॉ": 9487,
      "गुर": 9488,
      "पेयी": 9489,
      "गोव्यात": 9490,
      "वाढती": 9491,
      "भूक": 9492,
      "राज्यसभे": 9493,
      "बंधू": 9494,
      "मागणीसाठी": 9495,
      "पंप": 9496,
      "दलाचे": 9497,
      "लॅपट": 9498,
      "नसल्याचा": 9499,
      "जलसंपदा": 9500,
      "वर्तवली": 9501,
      "जिल्ह्याच्या": 9502,
      "फूड": 9503,
      "कुणीही": 9504,
      "सोन्याचा": 9505,
      "प्रतीक": 9506,
      "रिंगणात": 9507,
      "जागांसाठी": 9508,
      "थकबाकी": 9509,
      "पर्जन्यमान": 9510,
      "कारकिर्दी": 9511,
      "आरे": 9512,
      "थ्य": 9513,
      "भन्": 9514,
      "वचन": 9515,
      "तावडे": 9516,
      "विण्याचे": 9517,
      "निहाय": 9518,
      "सेन्": 9519,
      "ठाण्याच्या": 9520,
      "पेरणी": 9521,
      "टेनिस": 9522,
      "नसतील": 9523,
      "घडलेल्या": 9524,
      "ध्यक्षा": 9525,
      "मूर्": 9526,
      "पाहणे": 9527,
      "अपडेट": 9528,
      "बाहेरून": 9529,
      "तेव्हाच": 9530,
      "साधू": 9531,
      "घरीच": 9532,
      "ओळखी": 9533,
      "कुटुंबिया": 9534,
      "इंडियाच्या": 9535,
      "पुस्तकात": 9536,
      "काळापासून": 9537,
      "ठेवावे": 9538,
      "समर्थक": 9539,
      "उजव्या": 9540,
      "सगळीकडे": 9541,
      "सुलभ": 9542,
      "गरोदर": 9543,
      "किक": 9544,
      "कन्न": 9545,
      "खटला": 9546,
      "गजान": 9547,
      "चरा": 9548,
      "झॉन": 9549,
      "फ्यू": 9550,
      "लडाख": 9551,
      "ोरे": 9552,
      "काना": 9553,
      "कासाठी": 9554,
      "तीस": 9555,
      "माची": 9556,
      "चाळ": 9557,
      "क्लास": 9558,
      "प्रजाती": 9559,
      "वेन": 9560,
      "कीला": 9561,
      "सिरीज": 9562,
      "ठाऊक": 9563,
      "पीए": 9564,
      "सहकाऱ्या": 9565,
      "ठरलेल्या": 9566,
      "पालकांनी": 9567,
      "खोद": 9568,
      "विभागाला": 9569,
      "एनडीए": 9570,
      "स्मारक": 9571,
      "जिल्ह्याचे": 9572,
      "महत्वाच्या": 9573,
      "चेहऱ्या": 9574,
      "साथीदार": 9575,
      "अश्वि": 9576,
      "सेलिब्रे": 9577,
      "हिंसाचार": 9578,
      "गांभीर्याने": 9579,
      "अा": 9580,
      "जच्या": 9581,
      "बडे": 9582,
      "भै": 9583,
      "संतु": 9584,
      "४००": 9585,
      "वाटी": 9586,
      "माधव": 9587,
      "तावर": 9588,
      "रांगो": 9589,
      "भावे": 9590,
      "येण्यासाठी": 9591,
      "शिका": 9592,
      "किंब": 9593,
      "रेंज": 9594,
      "तुफान": 9595,
      "पेट्रो": 9596,
      "निर्मला": 9597,
      "असायला": 9598,
      "त्यांच्यासोबत": 9599,
      "फायर": 9600,
      "मनमोहन": 9601,
      "अनुक्रमे": 9602,
      "रुग्णवाहि": 9603,
      "जन्सी": 9604,
      "शहराध्यक्ष": 9605,
      "दोघांच्या": 9606,
      "जोडले": 9607,
      "तोडफोड": 9608,
      "जिल्ह्यांमध्ये": 9609,
      "मोहिते": 9610,
      "दशकात": 9611,
      "चळवळ": 9612,
      "सॉफ्टवेअर": 9613,
      "52": 9614,
      "तस": 9615,
      "पव": 9616,
      "पळा": 9617,
      "लरी": 9618,
      "षणा": 9619,
      "चालेल": 9620,
      "तांनी": 9621,
      "कारभारा": 9622,
      "संहिता": 9623,
      "त्मिक": 9624,
      "ंदु": 9625,
      "पुरो": 9626,
      "त्रु": 9627,
      "मेज": 9628,
      "टास्क": 9629,
      "द्यायची": 9630,
      "युनिय": 9631,
      "ठेवी": 9632,
      "बोल्ड": 9633,
      "फाऊ": 9634,
      "पोलीसा": 9635,
      "चौरस": 9636,
      "आरोग्यासाठी": 9637,
      "ग्रामविकास": 9638,
      "औषधी": 9639,
      "आवडत": 9640,
      "आव्हाना": 9641,
      "डिसेंबरला": 9642,
      "जगाला": 9643,
      "सभागृह": 9644,
      "कनेक्शन": 9645,
      "रजनी": 9646,
      "ठाण्यातील": 9647,
      "पुतळ्या": 9648,
      "घोटाळ्या": 9649,
      "IPL": 9650,
      "News": 9651,
      "ps": 9652,
      "पकडून": 9653,
      "सरो": 9654,
      "हीन": 9655,
      "स्पीड": 9656,
      "ताला": 9657,
      "मुका": 9658,
      "ांपासून": 9659,
      "ांमधून": 9660,
      "कोव्हिड": 9661,
      "पुण्याच्या": 9662,
      "धागा": 9663,
      "डाग": 9664,
      "डेड": 9665,
      "कृत्य": 9666,
      "विषयांवर": 9667,
      "यातच": 9668,
      "वायचं": 9669,
      "मुलांचे": 9670,
      "आवश्‍यक": 9671,
      "संपल्यानंतर": 9672,
      "सचिवा": 9673,
      "पाकिस्तानचे": 9674,
      "नेमणूक": 9675,
      "सौम्य": 9676,
      "भाजपाच्या": 9677,
      "स्पर्धेच्या": 9678,
      "चर्चेचा": 9679,
      "प्रीमि": 9680,
      "शिक्षकांना": 9681,
[...]
