{
  "version": "1.0",
  "truncation": null,
  "padding": null,
  "added_tokens": [
    {
      "id": 0,
      "content": "[UNK]",
      "single_word": false,
      "lstrip": false,
      "rstrip": false,
      "normalized": false,
      "special": true
    },
    {
      "id": 1,
      "content": "[PAD]",
      "single_word": false,
      "lstrip": false,
      "rstrip": false,
      "normalized": false,
      "special": true
    },
    {
      "id": 2,
      "content": "[CLS]",
      "single_word": false,
      "lstrip": false,
      "rstrip": false,
      "normalized": false,
      "special": true
    },
    {
      "id": 3,
      "content": "[SEP]",
      "single_word": false,
      "lstrip": false,
      "rstrip": false,
      "normalized": false,
      "special": true
    },
    {
      "id": 4,
      "content": "[MASK]",
      "single_word": false,
      "lstrip": false,
      "rstrip": false,
      "normalized": false,
      "special": true
    }
  ],
  "normalizer": {
    "type": "NFC"
  },
  "pre_tokenizer": {
    "type": "Whitespace"
  },
  "post_processor": null,
  "decoder": null,
  "model": {
    "type": "WordPiece",
    "unk_token": "[UNK]",
    "continuing_subword_prefix": "##",
    "max_input_chars_per_word": 100,
    "vocab": {
      "[UNK]": 0,
      "[PAD]": 1,
      "[CLS]": 2,
      "[SEP]": 3,
      "[MASK]": 4,
      "!": 5,
      "\"": 6,
      "#": 7,
      "$": 8,
      "%": 9,
      "&": 10,
      "'": 11,
      "(": 12,
      ")": 13,
      "*": 14,
      "+": 15,
      ",": 16,
      "-": 17,
      ".": 18,
      "/": 19,
      "0": 20,
      "1": 21,
      "2": 22,
      "3": 23,
      "4": 24,
      "5": 25,
      "6": 26,
      "7": 27,
      "8": 28,
      "9": 29,
      ":": 30,
      ";": 31,
      "<": 32,
      "=": 33,
      ">": 34,
      "?": 35,
      "@": 36,
      "A": 37,
      "B": 38,
      "C": 39,
      "D": 40,
      "E": 41,
      "F": 42,
      "G": 43,
      "H": 44,
      "I": 45,
      "J": 46,
      "K": 47,
      "L": 48,
      "M": 49,
      "N": 50,
      "O": 51,
      "P": 52,
      "Q": 53,
      "R": 54,
      "S": 55,
      "T": 56,
      "U": 57,
      "V": 58,
      "W": 59,
      "X": 60,
      "Y": 61,
      "Z": 62,
      "[": 63,
      "\\": 64,
      "]": 65,
      "^": 66,
      "_": 67,
      "`": 68,
      "a": 69,
      "b": 70,
      "c": 71,
      "d": 72,
      "e": 73,
      "f": 74,
      "g": 75,
      "h": 76,
      "i": 77,
      "j": 78,
      "k": 79,
      "l": 80,
      "m": 81,
      "n": 82,
      "o": 83,
      "p": 84,
      "q": 85,
      "r": 86,
      "s": 87,
      "t": 88,
      "u": 89,
      "v": 90,
      "w": 91,
      "x": 92,
      "y": 93,
      "z": 94,
      "{": 95,
      "|": 96,
      "}": 97,
      "~": 98,
      "": 99,
      "": 100,
      "": 101,
      "": 102,
      "": 103,
      "": 104,
      "": 105,
      "": 106,
      "": 107,
      "": 108,
      "": 109,
      "": 110,
      "": 111,
      "": 112,
      "": 113,
      "¡": 114,
      "¢": 115,
      "£": 116,
      "¤": 117,
      "¥": 118,
      "¦": 119,
      "§": 120,
      "¨": 121,
      "©": 122,
      "ª": 123,
      "«": 124,
      "¬": 125,
      "­": 126,
      "®": 127,
      "¯": 128,
      "°": 129,
      "±": 130,
      "²": 131,
      "³": 132,
      "´": 133,
      "µ": 134,
      "·": 135,
      "¸": 136,
      "º": 137,
      "»": 138,
      "¼": 139,
      "½": 140,
      "¾": 141,
      "¿": 142,
      "À": 143,
      "Á": 144,
      "Â": 145,
      "Ã": 146,
      "Ä": 147,
      "Å": 148,
      "Æ": 149,
      "Ç": 150,
      "È": 151,
      "É": 152,
      "Ê": 153,
      "Ì": 154,
      "Í": 155,
      "Î": 156,
      "Ð": 157,
      "Ò": 158,
      "Ó": 159,
      "Ô": 160,
      "Õ": 161,
      "Ö": 162,
      "×": 163,
      "Ø": 164,
      "Ú": 165,
      "Û": 166,
      "Ü": 167,
      "Þ": 168,
      "à": 169,
      "á": 170,
      "ã": 171,
      "ä": 172,
      "å": 173,
      "æ": 174,
      "ç": 175,
      "è": 176,
      "é": 177,
      "ê": 178,
      "ë": 179,
      "ì": 180,
      "í": 181,
      "î": 182,
      "ï": 183,
      "ð": 184,
      "ñ": 185,
      "ò": 186,
      "ó": 187,
      "ô": 188,
      "õ": 189,
      "ö": 190,
      "÷": 191,
      "ø": 192,
      "ù": 193,
      "ú": 194,
      "û": 195,
      "ü": 196,
      "ý": 197,
      "þ": 198,
      "Ā": 199,
      "ā": 200,
      "ď": 201,
      "đ": 202,
      "ē": 203,
      "ğ": 204,
      "ġ": 205,
      "Ĥ": 206,
      "ī": 207,
      "ı": 208,
      "ĵ": 209,
      "Ō": 210,
      "ō": 211,
      "Œ": 212,
      "Ś": 213,
      "Ş": 214,
      "Š": 215,
      "ū": 216,
      "ż": 217,
      "ƒ": 218,
      "ư": 219,
      "ǎ": 220,
      "ǒ": 221,
      "ǔ": 222,
      "ɑ": 223,
      "ə": 224,
      "ɛ": 225,
      "ɤ": 226,
      "ɪ": 227,
      "ʃ": 228,
      "ʊ": 229,
      "ʌ": 230,
      "ʒ": 231,
      "ʲ": 232,
      "ʻ": 233,
      "ʼ": 234,
      "ˈ": 235,
      "ː": 236,
      "ˠ": 237,
      "́": 238,
      "̈": 239,
      "̯": 240,
      "͡": 241,
      "Β": 242,
      "Δ": 243,
      "Ε": 244,
      "Η": 245,
      "Θ": 246,
      "Ι": 247,
      "Ο": 248,
      "Π": 249,
      "Σ": 250,
      "Τ": 251,
      "Υ": 252,
      "Φ": 253,
      "Ω": 254,
      "ή": 255,
      "ί": 256,
      "α": 257,
      "β": 258,
      "γ": 259,
      "ε": 260,
      "θ": 261,
      "ι": 262,
      "κ": 263,
      "λ": 264,
      "μ": 265,
      "ν": 266,
      "ο": 267,
      "π": 268,
      "ρ": 269,
      "ς": 270,
      "σ": 271,
      "τ": 272,
      "φ": 273,
      "ω": 274,
      "ύ": 275,
      "ϵ": 276,
      "А": 277,
      "В": 278,
      "И": 279,
      "М": 280,
      "Р": 281,
      "С": 282,
      "Ф": 283,
      "Ю": 284,
      "а": 285,
      "в": 286,
      "г": 287,
      "д": 288,
      "е": 289,
      "з": 290,
      "и": 291,
      "й": 292,
      "к": 293,
      "л": 294,
      "м": 295,
      "н": 296,
      "о": 297,
      "п": 298,
      "р": 299,
      "с": 300,
      "т": 301,
      "у": 302,
      "ф": 303,
      "х": 304,
      "ц": 305,
      "ч": 306,
      "ы": 307,
      "ь": 308,
      "ю": 309,
      "я": 310,
      "Ա": 311,
      "Յ": 312,
      "Ս": 313,
      "ա": 314,
      "ե": 315,
      "ի": 316,
      "լ": 317,
      "ճ": 318,
      "յ": 319,
      "ն": 320,
      "ո": 321,
      "ռ": 322,
      "վ": 323,
      "ր": 324,
      "ւ": 325,
      "ք": 326,
      "ְ": 327,
      "ִ": 328,
      "ָ": 329,
      "ֹ": 330,
      "ּ": 331,
      "ׁ": 332,
      "ד": 333,
      "ה": 334,
      "ו": 335,
      "י": 336,
      "ע": 337,
      "ק": 338,
      "ש": 339,
      "،": 340,
      "ؕ": 341,
      "؟": 342,
      "ء": 343,
      "آ": 344,
      "أ": 345,
      "إ": 346,
      "ا": 347,
      "ب": 348,
      "ة": 349,
      "ت": 350,
      "ث": 351,
      "ج": 352,
      "ح": 353,
      "خ": 354,
      "د": 355,
      "ذ": 356,
      "ر": 357,
      "ز": 358,
      "س": 359,
      "ش": 360,
      "ص": 361,
      "ض": 362,
      "ط": 363,
      "ظ": 364,
      "ع": 365,
      "غ": 366,
      "ـ": 367,
      "ف": 368,
      "ق": 369,
      "ك": 370,
      "ل": 371,
      "م": 372,
      "ن": 373,
      "ه": 374,
      "و": 375,
      "ى": 376,
      "ي": 377,
      "ً": 378,
      "ٌ": 379,
      "ٍ": 380,
      "َ": 381,
      "ُ": 382,
      "ِ": 383,
      "ّ": 384,
      "ْ": 385,
      "ٓ": 386,
      "ٔ": 387,
      "ٕ": 388,
      "ٖ": 389,
      "ٮ": 390,
      "ٰ": 391,
      "ڙ": 392,
      "ڠ": 393,
      "ک": 394,
      "ڪ": 395,
      "گ": 396,
      "ڻ": 397,
      "ھ": 398,
      "ہ": 399,
      "ی": 400,
      "ۚ": 401,
      "۞": 402,
      "މ": 403,
      "ސ": 404,
      "ޤ": 405,
      "ި": 406,
      "ު": 407,
      "ް": 408,
      "ँ": 409,
      "ं": 410,
      "ः": 411,
      "अ": 412,
      "ओ": 413,
      "औ": 414,
      "क": 415,
      "ग": 416,
      "घ": 417,
      "च": 418,
      "ज": 419,
      "ञ": 420,
      "ट": 421,
      "ड": 422,
      "ढ": 423,
      "ण": 424,
      "त": 425,
      "थ": 426,
      "द": 427,
      "ध": 428,
      "न": 429,
      "प": 430,
      "ब": 431,
      "भ": 432,
      "म": 433,
      "य": 434,
      "र": 435,
      "ल": 436,
      "ळ": 437,
      "व": 438,
      "श": 439,
      "ष": 440,
      "स": 441,
      "ह": 442,
      "़": 443,
      "ा": 444,
      "ि": 445,
      "ी": 446,
      "ु": 447,
      "ू": 448,
      "ृ": 449,
      "े": 450,
      "ै": 451,
      "ो": 452,
      "ौ": 453,
      "्": 454,
      "॑": 455,
      "॒": 456,
      "।": 457,
      "॥": 458,
      "॰": 459,
      "ঁ": 460,
      "ং": 461,
      "অ": 462,
      "আ": 463,
      "ও": 464,
      "ক": 465,
      "গ": 466,
      "ঘ": 467,
      "চ": 468,
      "জ": 469,
      "ঞ": 470,
      "ত": 471,
      "দ": 472,
      "ন": 473,
      "প": 474,
      "ব": 475,
      "ম": 476,
      "য": 477,
      "র": 478,
      "ল": 479,
      "শ": 480,
      "ষ": 481,
      "স": 482,
      "হ": 483,
      "়": 484,
      "া": 485,
      "ি": 486,
      "ী": 487,
      "ু": 488,
      "ে": 489,
      "ো": 490,
      "্": 491,
      "ৱ": 492,
      "৷": 493,
      "ਕ": 494,
      "ਤ": 495,
      "ਬ": 496,
      "ਮ": 497,
      "ਰ": 498,
      "ਲ": 499,
      "ਸ": 500,
      "ਾ": 501,
      "ਿ": 502,
      "ੀ": 503,
      "ੋ": 504,
      "ੰ": 505,
      "ત": 506,
      "પ": 507,
      "મ": 508,
      "લ": 509,
      "ા": 510,
      "િ": 511,
      "ી": 512,
      "્": 513,
      "କ": 514,
      "ଡ": 515,
      "ଣ": 516,
      "ତ": 517,
      "ମ": 518,
      "ର": 519,
      "ଲ": 520,
      "ଶ": 521,
      "଼": 522,
      "ା": 523,
      "ି": 524,
      "ୁ": 525,
      "୍": 526,
      "ஂ": 527,
      "ஃ": 528,
      "அ": 529,
      "ஆ": 530,
      "இ": 531,
      "ஈ": 532,
      "உ": 533,
      "ஊ": 534,
      "எ": 535,
      "ஏ": 536,
      "ஐ": 537,
      "ஒ": 538,
      "ஓ": 539,
      "ஔ": 540,
      "க": 541,
      "ங": 542,
      "ச": 543,
      "ஜ": 544,
      "ஞ": 545,
      "ட": 546,
      "஡": 547,
      "஢": 548,
      "ண": 549,
      "த": 550,
      "஦": 551,
      "ந": 552,
      "ன": 553,
      "ப": 554,
      "ம": 555,
      "ய": 556,
      "ர": 557,
      "ற": 558,
      "ல": 559,
      "ள": 560,
      "ழ": 561,
      "வ": 562,
      "ஶ": 563,
      "ஷ": 564,
      "ஸ": 565,
      "ஹ": 566,
      "ா": 567,
      "ி": 568,
      "ீ": 569,
      "ு": 570,
      "ூ": 571,
      "ெ": 572,
      "ே": 573,
      "ை": 574,
      "௉": 575,
      "ொ": 576,
      "ோ": 577,
      "ௌ": 578,
      "்": 579,
      "௦": 580,
      "௧": 581,
      "௨": 582,
      "௩": 583,
      "௪": 584,
      "௫": 585,
      "௬": 586,
      "௭": 587,
      "௮": 588,
      "௯": 589,
      "௲": 590,
      "ం": 591,
      "అ": 592,
      "క": 593,
      "ట": 594,
      "డ": 595,
      "ద": 596,
      "న": 597,
      "బ": 598,
      "మ": 599,
      "ర": 600,
      "ల": 601,
      "వ": 602,
      "శ": 603,
      "హ": 604,
      "ా": 605,
      "ి": 606,
      "ీ": 607,
      "ు": 608,
      "ో": 609,
      "్": 610,
      "ಂ": 611,
      "ಕ": 612,
      "ಗ": 613,
      "ಡ": 614,
      "ಣ": 615,
      "ತ": 616,
      "ದ": 617,
      "ಪ": 618,
      "ಮ": 619,
      "ರ": 620,
      "ಲ": 621,
      "ವ": 622,
      "ಶ": 623,
      "ಸ": 624,
      "ಾ": 625,
      "ಿ": 626,
      "ು": 627,
      "ೆ": 628,
      "ೇ": 629,
      "್": 630,
      "ം": 631,
      "എ": 632,
      "ക": 633,
      "ട": 634,
      "ഡ": 635,
      "ത": 636,
      "ദ": 637,
      "പ": 638,
      "ബ": 639,
      "മ": 640,
      "യ": 641,
      "ര": 642,
      "ല": 643,
      "വ": 644,
      "സ": 645,
      "ഹ": 646,
      "ാ": 647,
      "ി": 648,
      "ീ": 649,
      "ു": 650,
      "ൃ": 651,
      "ോ": 652,
      "്": 653,
      "ൻ": 654,
      "ං": 655,
      "ඇ": 656,
      "ක": 657,
      "ඞ": 658,
      "ඩ": 659,
      "ත": 660,
      "ද": 661,
      "න": 662,
      "ප": 663,
      "බ": 664,
      "ම": 665,
      "ඹ": 666,
      "ය": 667,
      "ර": 668,
      "ල": 669,
      "ව": 670,
      "ශ": 671,
      "ස": 672,
      "හ": 673,
      "්": 674,
      "ා": 675,
      "ැ": 676,
      "ි": 677,
      "ී": 678,
      "ු": 679,
      "ේ": 680,
      "ก": 681,
      "ค": 682,
      "ง": 683,
      "ช": 684,
      "ญ": 685,
      "ณ": 686,
      "ต": 687,
      "น": 688,
      "ย": 689,
      "ร": 690,
      "ล": 691,
      "ว": 692,
      "ษ": 693,
      "ั": 694,
      "า": 695,
      "ิ": 696,
      "่": 697,
      "้": 698,
      "์": 699,
      "་": 700,
      "ར": 701,
      "ྒ": 702,
      "ྱ": 703,
      "ა": 704,
      "ე": 705,
      "ვ": 706,
      "თ": 707,
      "ლ": 708,
      "ო": 709,
      "რ": 710,
      "ს": 711,
      "ქ": 712,
      "គ": 713,
      "ង": 714,
      "រ": 715,
      "អ": 716,
      "្": 717,
      "᳚": 718,
      "Ḥ": 719,
      "ḷ": 720,
      "ḻ": 721,
      "ṇ": 722,
      "ṉ": 723,
      "ṛ": 724,
      "Ṭ": 725,
      "ṭ": 726,
      "ả": 727,
      "ẩ": 728,
      "ậ": 729,
      "ệ": 730,
      "ỉ": 731,
      "ớ": 732,
      "ợ": 733,
      "​": 734,
      "‌": 735,
      "‍": 736,
      "‎": 737,
      "‏": 738,
      "‐": 739,
      "‑": 740,
      "–": 741,
      "—": 742,
      "‘": 743,
      "’": 744,
      "‛": 745,
      "“": 746,
      "”": 747,
      "„": 748,
      "‟": 749,
      "‡": 750,
      "•": 751,
      "…": 752,
      "‪": 753,
      "‬": 754,
      "‰": 755,
      "‱": 756,
      "′": 757,
      "″": 758,
      "‹": 759,
      "›": 760,
      "⁄": 761,
      "⁴": 762,
      "€": 763,
      "₹": 764,
      "℀": 765,
      "℁": 766,
      "℅": 767,
      "™": 768,
      "ⅰ": 769,
      "ⅱ": 770,
      "←": 771,
      "↑": 772,
      "→": 773,
      "∅": 774,
      "−": 775,
      "∞": 776,
      "∠": 777,
      "≃": 778,
      "≠": 779,
      "≡": 780,
      "≤": 781,
      "≥": 782,
      "⊰": 783,
      "⊱": 784,
      "⋅": 785,
      "①": 786,
      "②": 787,
      "▄": 788,
      "►": 789,
      "▼": 790,
      "●": 791,
      "☝": 792,
      "♡": 793,
      "♥": 794,
      "⛪": 795,
      "✆": 796,
      "✠": 797,
      "❖": 798,
      "❤": 799,
      "➡": 800,
      "⭕": 801,
      "。": 802,
      "に": 803,
      "の": 804,
      "は": 805,
      "び": 806,
      "る": 807,
      "ツ": 808,
      "一": 809,
      "中": 810,
      "乌": 811,
      "二": 812,
      "于": 813,
      "亦": 814,
      "以": 815,
      "会": 816,
      "作": 817,
      "光": 818,
      "公": 819,
      "冰": 820,
      "凯": 821,
      "利": 822,
      "加": 823,
      "北": 824,
      "区": 825,
      "南": 826,
      "卜": 827,
      "卡": 828,
      "卢": 829,
      "印": 830,
      "厦": 831,
      "台": 832,
      "号": 833,
      "合": 834,
      "吉": 835,
      "味": 836,
      "哈": 837,
      "器": 838,
      "固": 839,
      "国": 840,
      "國": 841,
      "地": 842,
      "场": 843,
      "坡": 844,
      "处": 845,
      "大": 846,
      "太": 847,
      "央": 848,
      "奥": 849,
      "威": 850,
      "子": 851,
      "字": 852,
      "孟": 853,
      "學": 854,
      "安": 855,
      "寅": 856,
      "寺": 857,
      "尔": 858,
      "尼": 859,
      "居": 860,
      "山": 861,
      "岛": 862,
      "峇": 863,
      "川": 864,
      "州": 865,
      "巴": 866,
      "帅": 867,
      "广": 868,
      "庄": 869,
      "度": 870,
      "廖": 871,
      "式": 872,
      "戦": 873,
      "所": 874,
      "手": 875,
      "技": 876,
      "拉": 877,
      "数": 878,
      "旋": 879,
      "日": 880,
      "旺": 881,
      "易": 882,
      "昔": 883,
      "星": 884,
      "是": 885,
      "曼": 886,
      "朗": 887,
      "木": 888,
      "末": 889,
      "本": 890,
      "朱": 891,
      "机": 892,
      "杨": 893,
      "林": 894,
      "株": 895,
      "楊": 896,
      "楠": 897,
      "欣": 898,
      "武": 899,
      "比": 900,
      "汽": 901,
      "泰": 902,
      "湾": 903,
      "特": 904,
      "独": 905,
      "电": 906,
      "甸": 907,
      "的": 908,
      "直": 909,
      "睿": 910,
      "矩": 911,
      "社": 912,
      "离": 913,
      "科": 914,
      "立": 915,
      "米": 916,
      "素": 917,
      "缅": 918,
      "美": 919,
      "群": 920,
      "能": 921,
      "臺": 922,
      "舰": 923,
      "苏": 924,
      "英": 925,
      "葉": 926,
      "蠶": 927,
      "製": 928,
      "视": 929,
      "语": 930,
      "豹": 931,
      "财": 932,
      "贵": 933,
      "距": 934,
      "身": 935,
      "车": 936,
      "轩": 937,
      "辖": 938,
      "达": 939,
      "运": 940,
      "里": 941,
      "野": 942,
      "际": 943,
      "陆": 944,
      "限": 945,
      "隆": 946,
      "马": 947,
      "驰": 948,
      "鲁": 949,
      "齐": 950,
      "꞉": 951,
      "공": 952,
      "국": 953,
      "면": 954,
      "인": 955,
      "전": 956,
      "정": 957,
      "제": 958,
      "천": 959,
      "항": 960,
      "": 961,
      "": 962,
      "": 963,
      "": 964,
      "": 965,
      "": 966,
      "": 967,
      "": 968,
      "": 969,
      "": 970,
      "": 971,
      "": 972,
      "": 973,
      "": 974,
      "": 975,
      "": 976,
      "": 977,
      "": 978,
      "": 979,
      "": 980,
      "": 981,
      "": 982,
      "": 983,
      "️": 984,
      "﻿": 985,
      "！": 986,
      "（": 987,
      "）": 988,
      "，": 989,
      "：": 990,
      "；": 991,
      "￼": 992,
      "�": 993,
      "🇰": 994,
      "🇵": 995,
      "🌶": 996,
      "🌷": 997,
      "🌹": 998,
      "🌻": 999,
      "🌽": 1000,
      "🌿": 1001,
      "🎰": 1002,
      "🏸": 1003,
      "👆": 1004,
      "👈": 1005,
      "👉": 1006,
      "👏": 1007,
      "👓": 1008,
      "💓": 1009,
      "💞": 1010,
      "💠": 1011,
      "💥": 1012,
      "💫": 1013,
      "📗": 1014,
      "📰": 1015,
      "🔗": 1016,
      "🔥": 1017,
      "🔮": 1018,
      "🔴": 1019,
      "😁": 1020,
      "😅": 1021,
      "😉": 1022,
      "😊": 1023,
      "😘": 1024,
      "😥": 1025,
      "😭": 1026,
      "🙂": 1027,
      "🙏": 1028,
      "🛑": 1029,
      "🛕": 1030,
      "🛡": 1031,
      "🦉": 1032,
      "##்": 1033,
      "##ர": 1034,
      "##ீ": 1035,
      "##ந": 1036,
      "##ி": 1037,
      "##வ": 1038,
      "##ா": 1039,
      "##ச": 1040,
      "##ப": 1041,
      "##0": 1042,
      "##7": 1043,
      "##8": 1044,
      "##ஆ": 1045,
      "##க": 1046,
      "##ய": 1047,
      "##ன": 1048,
      "##ம": 1049,
      "##த": 1050,
      "##ற": 1051,
      "##ோ": 1052,
      "##ெ": 1053,
      "##ள": 1054,
      "##ை": 1055,
      "##ு": 1056,
      "##ொ": 1057,
      "##ட": 1058,
      "##ல": 1059,
      "##u": 1060,
      "##l": 1061,
      "##a": 1062,
      "##t": 1063,
      "##h": 1064,
      "##e": 1065,
      "##r": 1066,
      "##f": 1067,
      "##o": 1068,
      "##d": 1069,
      "##ண": 1070,
      "##ங": 1071,
      "##ழ": 1072,
      "##ஜ": 1073,
      "##ௌ": 1074,
      "##ே": 1075,
      "##ஷ": 1076,
      "##I": 1077,
      "##1": 1078,
      "##9": 1079,
      "##ூ": 1080,
      "##m": 1081,
      "##n": 1082,
      "##ஸ": 1083,
      "##i": 1084,
      "##p": 1085,
      "##s": 1086,
      "##D": 1087,
      "##S": 1088,
      "##P": 1089,
      "##g": 1090,
      "##‌": 1091,
      "##ஃ": 1092,
      "##எ": 1093,
      "##ஞ": 1094,
      "##c": 1095,
      "##N": 1096,
      "##w": 1097,
      "##4": 1098,
      "##இ": 1099,
      "##k": 1100,
      "##ஐ": 1101,
      "##ஹ": 1102,
      "##b": 1103,
      "##y": 1104,
      "##5": 1105,
      "##q": 1106,
      "##O": 1107,
      "##L": 1108,
      "##v": 1109,
      "##E": 1110,
      "##G": 1111,
      "##M": 1112,
      "##அ": 1113,
      "##": 1114,
      "##R": 1115,
      "##A": 1116,
      "##K": 1117,
      "##B": 1118,
      "##U": 1119,
      "##-": 1120,
      "##>": 1121,
      "##z": 1122,
      "##é": 1123,
      "##6": 1124,
      "##,": 1125,
      "##\"": 1126,
      "##j": 1127,
      "##2": 1128,
      "##3": 1129,
      "##ஏ": 1130,
      "##T": 1131,
      "##x": 1132,
      "##V": 1133,
      "##C": 1134,
      "##Y": 1135,
      "##ิ": 1136,
      "##่": 1137,
      "##ง": 1138,
      "##ล": 1139,
      "##ั": 1140,
      "##ก": 1141,
      "##ษ": 1142,
      "##ณ": 1143,
      "##์": 1144,
      "##‍": 1145,
      "##X": 1146,
      "##ञ": 1147,
      "##्": 1148,
      "##च": 1149,
      "##ा": 1150,
      "##ल": 1151,
      "##ි": 1152,
      "##ං": 1153,
      "##හ": 1154,
      "##ල": 1155,
      "##…": 1156,
      "##F": 1157,
      "##.": 1158,
      "##?": 1159,
      "##!": 1160,
      "##W": 1161,
      "##À": 1162,
      "##Ú": 1163,
      "##௦": 1164,
      "##ஈ": 1165,
      "##_": 1166,
      "##ஊ": 1167,
      "##’": 1168,
      "##Q": 1169,
      "##॑": 1170,
      "##ஶ": 1171,
      "##}": 1172,
      "##;": 1173,
      "##ஒ": 1174,
      "##॒": 1175,
      "##உ": 1176,
      "##م": 1177,
      "##ن": 1178,
      "##ق": 1179,
      "##ذ": 1180,
      "##َ": 1181,
      "##ا": 1182,
      "##ل": 1183,
      "##أ": 1184,
      "##ف": 1185,
      "##ُ": 1186,
      "##س": 1187,
      "##ِ": 1188,
      "##/": 1189,
      "##J": 1190,
      "##H": 1191,
      "##'": 1192,
      "##​": 1193,
      "##ஓ": 1194,
      "##ä": 1195,
      "##ó": 1196,
      "##´": 1197,
      "##꞉": 1198,
      "##)": 1199,
      "##:": 1200,
      "##ْ": 1201,
      "##ت": 1202,
      "##ة": 1203,
      "##ε": 1204,
      "##σ": 1205,
      "##α": 1206,
      "##λ": 1207,
      "##ο": 1208,
      "##ν": 1209,
      "##ι": 1210,
      "##κ": 1211,
      "##ί": 1212,
      "##ς": 1213,
      "##<": 1214,
      "##μ": 1215,
      "##&": 1216,
      "##ش": 1217,
      "##ر": 1218,
      "##و": 1219,
      "##ه": 1220,
      "##ّ": 1221,
      "##€": 1222,
      "##*": 1223,
      "##–": 1224,
      "##‘": 1225,
      "##+": 1226,
      "##ٌ": 1227,
      "##−": 1228,
      "###": 1229,
      "##(": 1230,
      "##о": 1231,
      "##с": 1232,
      "##и": 1233,
      "##́": 1234,
      "##я": 1235,
      "##ஂ": 1236,
      "##£": 1237,
      "##”": 1238,
      "##ā": 1239,
      "##ç": 1240,
      "##ø": 1241,
      "##Z": 1242,
      "##ü": 1243,
      "##卢": 1244,
      "##固": 1245,
      "##语": 1246,
      "##“": 1247,
      "##ū": 1248,
      "##ī": 1249,
      "##💫": 1250,
      "##🌹": 1251,
      "##û": 1252,
      "##\\": 1253,
      "##—": 1254,
      "##卡": 1255,
      "##鲁": 1256,
      "##山": 1257,
      "##ò": 1258,
      "##¢": 1259,
      "##¨": 1260,
      "##¼": 1261,
      "##म": 1262,
      "##क": 1263,
      "##र": 1264,
      "##ד": 1265,
      "##ו": 1266,
      "##ש": 1267,
      "##ो": 1268,
      "##õ": 1269,
      "##]": 1270,
      "##ب": 1271,
      "##ي": 1272,
      "##ý": 1273,
      "##~": 1274,
      "##ö": 1275,
      "##ð": 1276,
      "##Î": 1277,
      "##Å": 1278,
      "##": 1279,
      "##ٰ": 1280,
      "##ٖ": 1281,
      "##Ð": 1282,
      "##=": 1283,
      "##‏": 1284,
      "##Δ": 1285,
      "##ṭ": 1286,
      "##ה": 1287,
      "##¾": 1288,
      "##{": 1289,
      "##ज": 1290,
      "##े": 1291,
      "##श": 1292,
      "##व": 1293,
      "##া": 1294,
      "##শ": 1295,
      "##å": 1296,
      "##د": 1297,
      "##௪": 1298,
      "##ड": 1299,
      "##ी": 1300,
      "##π": 1301,
      "##ہ": 1302,
      "##گ": 1303,
      "##州": 1304,
      "##二": 1305,
      "##手": 1306,
      "##车": 1307,
      "##星": 1308,
      "##旺": 1309,
      "##ع": 1310,
      "##": 1311,
      "##³": 1312,
      "##ì": 1313,
      "##ǒ": 1314,
      "##௧": 1315,
      "##ك": 1316,
      "##᳚": 1317,
      "##Ä": 1318,
      "##‎": 1319,
      "##ô": 1320,
      "##`": 1321,
      "##ি": 1322,
      "##ব": 1323,
      "##স": 1324,
      "##్": 1325,
      "##ర": 1326,
      "##ీ": 1327,
      "##హ": 1328,
      "##ి": 1329,
      "##క": 1330,
      "##ో": 1331,
      "##ట": 1332,
      "##ى": 1333,
      "##[": 1334,
      "##": 1335,
      "##ା": 1336,
      "##ଶ": 1337,
      "##ତ": 1338,
      "##ଣ": 1339,
      "##୍": 1340,
      "##ଡ": 1341,
      "##ି": 1342,
      "##º": 1343,
      "##Â": 1344,
      "##Á": 1345,
      "##ط": 1346,
      "##字": 1347,
      "##は": 1348,
      "##独": 1349,
      "##身": 1350,
      "##に": 1351,
      "##限": 1352,
      "##る": 1353,
      "##й": 1354,
      "##к": 1355,
      "##а": 1356,
      "##è": 1357,
      "##௨": 1358,
      "##Þ": 1359,
      "##%": 1360,
      "##ỉ": 1361,
      "##ୁ": 1362,
      "##ର": 1363,
      "##ମ": 1364,
      "##ଲ": 1365,
      "##ह": 1366,
      "##ि": 1367,
      "##न": 1368,
      "##य": 1369,
      "##प": 1370,
      "##ू": 1371,
      "##ō": 1372,
      "##ः": 1373,
      "##ـ": 1374,
      "##л": 1375,
      "##ص": 1376,
      "##": 1377,
      "##ظ": 1378,
      "##خ": 1379,
      "##á": 1380,
      "##ج": 1381,
      "##^": 1382,
      "##ඩ": 1383,
      "##්": 1384,
      "##ක": 1385,
      "##ු": 1386,
      "##ඹ": 1387,
      "##ර": 1388,
      "##ح": 1389,
      "##ک": 1390,
      "##": 1391,
      "##¡": 1392,
      "##§": 1393,
      "##ේ": 1394,
      "##ම": 1395,
      "##﻿": 1396,
      "##ָ": 1397,
      "##ּ": 1398,
      "##ִ": 1399,
      "##$": 1400,
      "##È": 1401,
      "##त": 1402,
      "##É": 1403,
      "##ú": 1404,
      "##ï": 1405,
      "##½": 1406,
      "##स": 1407,
      "##ả": 1408,
      "##¤": 1409,
      "##ء": 1410,
      "##ʼ": 1411,
      "##": 1412,
      "##隆": 1413,
      "##坡": 1414,
      "##国": 1415,
      "##际": 1416,
      "##机": 1417,
      "##场": 1418,
      "##±": 1419,
      "##ض": 1420,
      "##æ": 1421,
      "##ʒ": 1422,
      "##ə": 1423,
      "##ʊ": 1424,
      "##ḷ": 1425,
      "##Ê": 1426,
      "##‑": 1427,
      "##ൻ": 1428,
      "##ಶ": 1429,
      "##ಿ": 1430,
      "##•": 1431,
      "##ٍ": 1432,
      "##غ": 1433,
      "##బ": 1434,
      "##ా": 1435,
      "##式": 1436,
      "##会": 1437,
      "##社": 1438,
      "##日": 1439,
      "##立": 1440,
      "##製": 1441,
      "##作": 1442,
      "##所": 1443,
      "##ñ": 1444,
      "##à": 1445,
      "##ṉ": 1446,
      "##௬": 1447,
      "##²": 1448,
      "##р": 1449,
      "##ы": 1450,
      "##т": 1451,
      "##¿": 1452,
      "##Û": 1453,
      "##ध": 1454,
      "##科": 1455,
      "##巴": 1456,
      "##群": 1457,
      "##岛": 1458,
      "##Η": 1459,
      "##Σ": 1460,
      "##Ο": 1461,
      "##Υ": 1462,
      "##í": 1463,
      "##木": 1464,
      "##齐": 1465,
      "##电": 1466,
      "##视": 1467,
      "##台": 1468,
      "##घ": 1469,
      "##ट": 1470,
      "##财": 1471,
      "##运": 1472,
      "##🙏": 1473,
      "##ැ": 1474,
      "##ද": 1475,
      "##甸": 1476,
      "##以": 1477,
      "##南": 1478,
      "##大": 1479,
      "##厦": 1480,
      "##ë": 1481,
      "##ង": 1482,
      "##្": 1483,
      "##គ": 1484,
      "##រ": 1485,
      "##ư": 1486,
      "##ợ": 1487,
      "##ٓ": 1488,
      "##ँ": 1489,
      "##Ö": 1490,
      "##ण": 1491,
      "##葉": 1492,
      "##‛": 1493,
      "##ь": 1494,
      "##ി": 1495,
      "##ര": 1496,
      "##ു": 1497,
      "##മ": 1498,
      "##ല": 1499,
      "##്": 1500,
      "##വ": 1501,
      "##ാ": 1502,
      "##ം": 1503,
      "##∞": 1504,
      "##হ": 1505,
      "##ē": 1506,
      "##北": 1507,
      "##յ": 1508,
      "##ύ": 1509,
      "##β": 1510,
      "##Õ": 1511,
      "##в": 1512,
      "##н": 1513,
      "##ч": 1514,
      "##଼": 1515,
      "##௯": 1516,
      "##ා": 1517,
      "##ශ": 1518,
      "##ී": 1519,
      "##ය": 1520,
      "##÷": 1521,
      "##¸": 1522,
      "##‱": 1523,
      "##‪": 1524,
      "##ھ": 1525,
      "##వ": 1526,
      "##ు": 1527,
      "##ల": 1528,
      "##帅": 1529,
      "##舰": 1530,
      "##Ã": 1531,
      "##ã": 1532,
      "##ക": 1533,
      "##സ": 1534,
      "##പ": 1535,
      "##←": 1536,
      "##ớ": 1537,
      "##豹": 1538,
      "##ु": 1539,
      "##थ": 1540,
      "##ब": 1541,
      "##ं": 1542,
      "##द": 1543,
      "##|": 1544,
      "##": 1545,
      "##ո": 1546,
      "##ւ": 1547,
      "##ր": 1548,
      "##ի": 1549,
      "##ং": 1550,
      "##গ": 1551,
      "##্": 1552,
      "##র": 1553,
      "##ম": 1554,
      "##@": 1555,
      "##ੰ": 1556,
      "##ਮ": 1557,
      "##ੀ": 1558,
      "##ন": 1559,
      "##দ": 1560,
      "##ඞ": 1561,
      "##驰": 1562,
      "##ು": 1563,
      "##ರ": 1564,
      "##ೇ": 1565,
      "##್": 1566,
      "##ی": 1567,
      "##": 1568,
      "##آ": 1569,
      "##ٮ": 1570,
      "##ٕ": 1571,
      "##ؕ": 1572,
      "##ા": 1573,
      "##મ": 1574,
      "##િ": 1575,
      "##લ": 1576,
      "##ˈ": 1577,
      "##ɑ": 1578,
      "##ː": 1579,
      "##ग": 1580,
      "##威": 1581,
      "##ী": 1582,
      "##প": 1583,
      "##ু": 1584,
      "##ঞ": 1585,
      "##জ": 1586,
      "##Ì": 1587,
      "##哈": 1588,
      "##特": 1589,
      "##ệ": 1590,
      "##子": 1591,
      "##ൃ": 1592,
      "##ദ": 1593,
      "##യ": 1594,
      "##௫": 1595,
      "##น": 1596,
      "##ว": 1597,
      "##ต": 1598,
      "##ร": 1599,
      "##͡": 1600,
      "##ʌ": 1601,
      "##ۚ": 1602,
      "##ե": 1603,
      "##ն": 1604,
      "##ྒ": 1605,
      "##ྱ": 1606,
      "##加": 1607,
      "##末": 1608,
      "##ڙ": 1609,
      "##ڪ": 1610,
      "##ڻ": 1611,
      "##भ": 1612,
      "##器": 1613,
      "##美": 1614,
      "##Ò": 1615,
      "##Œ": 1616,
      "##": 1617,
      "##Ü": 1618,
      "##广": 1619,
      "##汽": 1620,
      "##吉": 1621,
      "##奥": 1622,
      "##米": 1623,
      "##尔": 1624,
      "##轩": 1625,
      "##ث": 1626,
      "##ʲ": 1627,
      "##🌽": 1628,
      "##ְ": 1629,
      "##ׁ": 1630,
      "##ֹ": 1631,
      "##정": 1632,
      "##국": 1633,
      "##ˠ": 1634,
      "##ɤ": 1635,
      "##̯": 1636,
      "##比": 1637,
      "##ע": 1638,
      "##ю": 1639,
      "##з": 1640,
      "##·": 1641,
      "##凯": 1642,
      "##旋": 1643,
      "##ż": 1644,
      "##ި": 1645,
      "##ސ": 1646,
      "##ް": 1647,
      "##މ": 1648,
      "##ު": 1649,
      "##ස": 1650,
      "##න": 1651,
      "##學": 1652,
      "##ı": 1653,
      "##￼": 1654,
      "##г": 1655,
      "##睿": 1656,
      "##ф": 1657,
      "##м": 1658,
      "##у": 1659,
      "##卜": 1660,
      "##拉": 1661,
      "##欣": 1662,
      "##௩": 1663,
      "##¦": 1664,
      "##ോ": 1665,
      "##ਾ": 1666,
      "##ਿ": 1667,
      "##ਲ": 1668,
      "##号": 1669,
      "##冰": 1670,
      "##川": 1671,
      "##ক": 1672,
      "##ো": 1673,
      "##х": 1674,
      "##Ô": 1675,
      "##ğ": 1676,
      "##­": 1677,
      "##": 1678,
      "##›": 1679,
      "##‐": 1680,
      "##亦": 1681,
      "##武": 1682,
      "##ٔ": 1683,
      "##ď": 1684,
      "##ġ": 1685,
      "##ĵ": 1686,
      "##Ĥ": 1687,
      "##е": 1688,
      "##ڠ": 1689,
      "##😭": 1690,
      "##💞": 1691,
      "##💓": 1692,
      "##😊": 1693,
      "##🌷": 1694,
      "##😘": 1695,
      "##ौ": 1696,
      "##林": 1697,
      "##‹": 1698,
      "##朗": 1699,
      "##௮": 1700,
      "##∠": 1701,
      "##ً": 1702,
      "##ª": 1703,
      "##ে": 1704,
      "##ঘ": 1705,
      "##ḻ": 1706,
      "##": 1707,
      "##ù": 1708,
      "##י": 1709,
      "##„": 1710,
      "##़": 1711,
      "##γ": 1712,
      "##τ": 1713,
      "##ή": 1714,
      "##า": 1715,
      "##ญ": 1716,
      "##ช": 1717,
      "##้": 1718,
      "##î": 1719,
      "##印": 1720,
      "##度": 1721,
      "##的": 1722,
      "##中": 1723,
      "##央": 1724,
      "##直": 1725,
      "##辖": 1726,
      "##区": 1727,
      "##😅": 1728,
      "##ʃ": 1729,
      "##ռ": 1730,
      "##ա": 1731,
      "##ք": 1732,
      "##լ": 1733,
      "##վ": 1734,
      "##び": 1735,
      "##太": 1736,
      "##ز": 1737,
      "##利": 1738,
      "##ത": 1739,
      "##ঁ": 1740,
      "##ৱ": 1741,
      "##Ι": 1742,
      "##천": 1743,
      "##제": 1744,
      "##공": 1745,
      "##항": 1746,
      "##ǔ": 1747,
      "##于": 1748,
      "##孟": 1749,
      "##湾": 1750,
      "##ढ": 1751,
      "##离": 1752,
      "##陆": 1753,
      "##公": 1754,
      "##里": 1755,
      "##Ó": 1756,
      "##¬": 1757,
      "##ත": 1758,
      "##ਰ": 1759,
      "##ੋ": 1760,
      "##ष": 1761,
      "##પ": 1762,
      "##્": 1763,
      "##ત": 1764,
      "##ી": 1765,
      "##ẩ": 1766,
      "##🔴": 1767,
      "##ం": 1768,
      "##డ": 1769,
      "##మ": 1770,
      "##న": 1771,
      "##朱": 1772,
      "##ळ": 1773,
      "##👏": 1774,
      "##ವ": 1775,
      "##ρ": 1776,
      "##楠": 1777,
      "##চ": 1778,
      "##য": 1779,
      "##়": 1780,
      "##ದ": 1781,
      "##": 1782,
      "##": 1783,
      "##®": 1784,
      "##🌶": 1785,
      "##": 1786,
      "##ബ": 1787,
      "##‰": 1788,
      "##ृ": 1789,
      "##": 1790,
      "##地": 1791,
      "##д": 1792,
      "##ц": 1793,
      "##技": 1794,
      "##∅": 1795,
      "##ა": 1796,
      "##ქ": 1797,
      "##რ": 1798,
      "##თ": 1799,
      "##ვ": 1800,
      "##ე": 1801,
      "##ლ": 1802,
      "##ო": 1803,
      "##ṛ": 1804,
      "##の": 1805,
      "##素": 1806,
      "##株": 1807,
      "##ै": 1808,
      "##能": 1809,
      "##寺": 1810,
      "##合": 1811,
      "##戦": 1812,
      "##ಪ": 1813,
      "##ೆ": 1814,
      "##ಡ": 1815,
      "##ತ": 1816,
      "##ಣ": 1817,
      "##‬": 1818,
      "##ল": 1819,
      "##🇰": 1820,
      "##Ç": 1821,
      "##ಲ": 1822,
      "##ಮ": 1823,
      "##ಾ": 1824,
      "##ɪ": 1825,
      "##ಂ": 1826,
      "##ಗ": 1827,
      "##达": 1828,
      "##曼": 1829,
      "##ǎ": 1830,
      "##«": 1831,
      "##©": 1832,
      "##৷": 1833,
      "##ṇ": 1834,
      "##▼": 1835,
      "##»": 1836,
      "##°": 1837,
      "##ậ": 1838,
      "##ত": 1839,
      "##ষ": 1840,
      "##×": 1841,
      "##ീ": 1842,
      "##்க": 1843,
      "##்த": 1844,
      "##ம்": 1845,
      "##ன்": 1846,
      "##ல்": 1847,
      "##க்க": 1848,
      "##்ட": 1849,
      "##்ப": 1850,
      "##த்த": 1851,
      "##ும்": 1852,
      "##ர்": 1853,
      "##ிய": 1854,
      "##ள்": 1855,
      "##ரு": 1856,
      "##ப்ப": 1857,
      "##ந்த": 1858,
      "##ட்ட": 1859,
      "##து": 1860,
      "##ில்": 1861,
      "##ங்க": 1862,
      "##ைய": 1863,
      "##ாக": 1864,
      "##ின்": 1865,
      "##ிற": 1866,
      "##டு": 1867,
      "##க்கு": 1868,
      "##ிர": 1869,
      "##்ச": 1870,
      "##று": 1871,
      "##ண்ட": 1872,
      "##ிக": 1873,
      "##ற்": 1874,
      "##ள்ள": 1875,
      "##ார": 1876,
      "##த்து": 1877,
      "மு": 1878,
      "##ில": 1879,
      "##ான": 1880,
      "##ற்ற": 1881,
      "செ": 1882,
      "##ார்": 1883,
      "##டி": 1884,
      "என்": 1885,
      "##ர்க": 1886,
      "##லை": 1887,
      "வி": 1888,
      "##ட்டு": 1889,
      "##தி": 1890,
      "##வி": 1891,
      "##ப்": 1892,
      "##ந்து": 1893,
      "##ரி": 1894,
      "கு": 1895,
      "##ிரு": 1896,
      "##ளை": 1897,
      "##வு": 1898,
      "##ால்": 1899,
      "இரு": 1900,
      "##க்": 1901,
      "கொ": 1902,
      "போ": 1903,
      "##ல்ல": 1904,
      "செய": 1905,
      "##ச்ச": 1906,
      "அவ": 1907,
      "##ின": 1908,
      "கா": 1909,
      "மா": 1910,
      "##த்": 1911,
      "##ான்": 1912,
      "பெ": 1913,
      "##த்தில்": 1914,
      "##மை": 1915,
      "##ப்பு": 1916,
      "அத": 1917,
      "##றி": 1918,
      "##ளு": 1919,
      "##ாய": 1920,
      "இந்த": 1921,
      "##னை": 1922,
      "ஒரு": 1923,
      "தொ": 1924,
      "வே": 1925,
      "##ையில்": 1926,
      "##க்கும்": 1927,
      "##ங்கள்": 1928,
      "##ண்டு": 1929,
      "##ம்ப": 1930,
      "##டை": 1931,
      "##ஸ்": 1932,
      "##ாவ": 1933,
      "##ற்க": 1934,
      "##ண்": 1935,
      "##ன்ற": 1936,
      "##ர்கள்": 1937,
      "##ுவ": 1938,
      "##மி": 1939,
      "##ால": 1940,
      "வெ": 1941,
      "பு": 1942,
      "##ாத": 1943,
      "##ிக்க": 1944,
      "##ாள": 1945,
      "##னர்": 1946,
      "##டிய": 1947,
      "##ப்பட்ட": 1948,
      "என": 1949,
      "##கு": 1950,
      "##கள்": 1951,
      "கூ": 1952,
      "தே": 1953,
      "##ிறது": 1954,
      "##ச்": 1955,
      "##றை": 1956,
      "##ன்ன": 1957,
      "நா": 1958,
      "உள்ள": 1959,
      "##மாக": 1960,
      "மற்ற": 1961,
      "##ரை": 1962,
      "##ட்ச": 1963,
      "##ளில்": 1964,
      "##்கள்": 1965,
      "பிர": 1966,
      "##ழு": 1967,
      "##ாம": 1968,
      "பா": 1969,
      "பொ": 1970,
      "##ற்ப": 1971,
      "##வே": 1972,
      "##திய": 1973,
      "தெ": 1974,
      "##த்தை": 1975,
      "மற்றும்": 1976,
      "##மான": 1977,
      "##டுத்த": 1978,
      "##ளுக்கு": 1979,
      "##ரிய": 1980,
      "பே": 1981,
      "##ாம்": 1982,
      "மே": 1983,
      "நட": 1984,
      "##வர்": 1985,
      "நீ": 1986,
      "##்த்த": 1987,
      "##ளி": 1988,
      "##ற்று": 1989,
      "##ரச": 1990,
      "இத": 1991,
      "##ையும்": 1992,
      "##வும்": 1993,
      "##ரும்": 1994,
      "வா": 1995,
      "வழ": 1996,
      "##வை": 1997,
      "என்று": 1998,
      "என்ற": 1999,
      "கோ": 2000,
      "##மு": 2001,
      "##டும்": 2002,
      "சு": 2003,
      "##ரா": 2004,
      "##ண்ண": 2005,
      "##்ய": 2006,
      "##ின்ற": 2007,
      "##ன்று": 2008,
      "##டுக": 2009,
      "##டன்": 2010,
      "##்வ": 2011,
      "##ளின்": 2012,
      "##ண்டும்": 2013,
      "##ணி": 2014,
      "தொட": 2015,
      "##ட்": 2016,
      "செய்த": 2017,
      "##ள்ளது": 2018,
      "அரச": 2019,
      "##ிகள்": 2020,
      "##ிட்ட": 2021,
      "##தாக": 2022,
      "##வில்": 2023,
      "##னு": 2024,
      "##னி": 2025,
      "சே": 2026,
      "##மிழ": 2027,
      "வரு": 2028,
      "##மா": 2029,
      "முத": 2030,
      "நில": 2031,
      "தமிழ": 2032,
      "சொ": 2033,
      "என்ப": 2034,
      "##லி": 2035,
      "##்கு": 2036,
      "மூ": 2037,
      "வை": 2038,
      "##ப்பட்டு": 2039,
      "##தை": 2040,
      "##டைய": 2041,
      "அமை": 2042,
      "##டம்": 2043,
      "து": 2044,
      "மீ": 2045,
      "கே": 2046,
      "செய்ய": 2047,
      "பி": 2048,
      "கி": 2049,
      "வீ": 2050,
      "பய": 2051,
      "நிற": 2052,
      "##ோது": 2053,
      "..": 2054,
      "அதிக": 2055,
      "பல": 2056,
      "சிற": 2057,
      "##னால்": 2058,
      "இது": 2059,
      "சி": 2060,
      "##ையை": 2061,
      "##ன்ப": 2062,
      "##ங்கு": 2063,
      "பார": 2064,
      "நே": 2065,
      "##டுத்து": 2066,
      "##களை": 2067,
      "குறி": 2068,
      "ஆக": 2069,
      "கட": 2070,
      "##திர": 2071,
      "##த்தின்": 2072,
      "##ிருந்த": 2073,
      "##ியில்": 2074,
      "இருந்த": 2075,
      "திரு": 2076,
      "வேண்டும்": 2077,
      "##ார்கள்": 2078,
      "##வர": 2079,
      "##்ப்ப": 2080,
      "அந்த": 2081,
      "தலை": 2082,
      "##ணை": 2083,
      "தெரி": 2084,
      "மக்க": 2085,
      "##ஞ்ச": 2086,
      "##சி": 2087,
      "##த்திய": 2088,
      "இருக்க": 2089,
      "##வத": 2090,
      "கொண்ட": 2091,
      "##ரோ": 2092,
      "##ற்கு": 2093,
      "அறி": 2094,
      "##ங்கள": 2095,
      "20": 2096,
      "##வா": 2097,
      "நி": 2098,
      "##நில": 2099,
      "##டிக்க": 2100,
      "##னா": 2101,
      "##ாய்": 2102,
      "##ிலும்": 2103,
      "##ிருக்க": 2104,
      "##மைய": 2105,
      "##ிக்": 2106,
      "##சிய": 2107,
      "இர": 2108,
      "##ேன்": 2109,
      "##ட்டி": 2110,
      "##க்கிய": 2111,
      "##ப்பி": 2112,
      "இந்திய": 2113,
      "##ளிய": 2114,
      "##ங்களை": 2115,
      "##்க்க": 2116,
      "ஏற்ப": 2117,
      "வர": 2118,
      "##லாம்": 2119,
      "##ய்": 2120,
      "##ும்ப": 2121,
      "##ிற்கு": 2122,
      "...": 2123,
      "தெரிவி": 2124,
      "##ர்ந்த": 2125,
      "##வர்க": 2126,
      "வந்த": 2127,
      "கார": 2128,
      "##ப்பட": 2129,
      "எதிர": 2130,
      "##ாட்ட": 2131,
      "உட": 2132,
      "##ட்சி": 2133,
      "##லம்": 2134,
      "##லு": 2135,
      "தீ": 2136,
      "##ழை": 2137,
      "இய": 2138,
      "##லக": 2139,
      "அவர்": 2140,
      "முதல்": 2141,
      "##மே": 2142,
      "##லா": 2143,
      "தி": 2144,
      "##ியு": 2145,
      "##டுக்க": 2146,
      "##ங்களில்": 2147,
      "சில": 2148,
      "##ழ்": 2149,
      "##வாக": 2150,
      "பண": 2151,
      "##ோம்": 2152,
      "##தும்": 2153,
      "##ற்றி": 2154,
      "வருக": 2155,
      "##ருக்கு": 2156,
      "கரு": 2157,
      "##ியை": 2158,
      "பின்": 2159,
      "வெளிய": 2160,
      "இட": 2161,
      "உய": 2162,
      "##ள்ளார்": 2163,
      "பிற": 2164,
      "சம": 2165,
      "##வர்கள்": 2166,
      "##ூர்": 2167,
      "##ாது": 2168,
      "முடிய": 2169,
      "##ளும்": 2170,
      "##ப்படுக": 2171,
      "##கா": 2172,
      "##ரம்": 2173,
      "##ிறார்": 2174,
      "##லில்": 2175,
      "ஆனால்": 2176,
      "##ழி": 2177,
      "##ரிக்க": 2178,
      "##ியல்": 2179,
      "##ாமல்": 2180,
      "##பு": 2181,
      "##க்கி": 2182,
      "சந்த": 2183,
      "மேல": 2184,
      "அப்ப": 2185,
      "அல்ல": 2186,
      "##கை": 2187,
      "##ர்ப": 2188,
      "##வ்வ": 2189,
      "##சு": 2190,
      "மிக": 2191,
      "##த்தி": 2192,
      "##ாலும்": 2193,
      "ஆண்டு": 2194,
      "முன்ன": 2195,
      "சா": 2196,
      "எழு": 2197,
      "தா": 2198,
      "##ெய": 2199,
      "பகு": 2200,
      "முடி": 2201,
      "இருந்து": 2202,
      "மாவ": 2203,
      "##ர்த்த": 2204,
      "##வில்லை": 2205,
      "வழங்க": 2206,
      "##ிரி": 2207,
      "##ப்படும்": 2208,
      "கொண்டு": 2209,
      "கூற": 2210,
      "##பி": 2211,
      "அனு": 2212,
      "பட": 2213,
      "அரசு": 2214,
      "அது": 2215,
      "கால": 2216,
      "தன": 2217,
      "##ினை": 2218,
      "இல": 2219,
      "என்ன": 2220,
      "மரு": 2221,
      "##ிருந்து": 2222,
      "##வது": 2223,
      "மாவட்ட": 2224,
      "பொரு": 2225,
      "அம": 2226,
      "##ியா": 2227,
      "##ொரு": 2228,
      "செய்து": 2229,
      "##கம்": 2230,
      "##ர்ந்து": 2231,
      "கை": 2232,
      "##தா": 2233,
      "##ணம்": 2234,
      "##பா": 2235,
      "##ல்லை": 2236,
      "திர": 2237,
      "##ப்பட்டது": 2238,
      "இப்ப": 2239,
      "கண": 2240,
      "தோ": 2241,
      "##ல்க": 2242,
      "##த்துவ": 2243,
      "##ாளர்": 2244,
      "##ின்றன": 2245,
      "##மும்": 2246,
      "நோ": 2247,
      "அள": 2248,
      "போல": 2249,
      "##ாரி": 2250,
      "##ோத": 2251,
      "##நா": 2252,
      "ரா": 2253,
      "ஆகிய": 2254,
      "நிறுவ": 2255,
      "சொல்ல": 2256,
      "19": 2257,
      "##ர்த": 2258,
      "##ரில்": 2259,
      "பூ": 2260,
      "பர": 2261,
      "##ங்கி": 2262,
      "##னம்": 2263,
      "##த்திர": 2264,
      "சீ": 2265,
      "##ட்க": 2266,
      "##ியாக": 2267,
      "##ியின்": 2268,
      "##விட்ட": 2269,
      "##கள": 2270,
      "##00": 2271,
      "குழ": 2272,
      "##ருக": 2273,
      "சட்ட": 2274,
      "##ாவது": 2275,
      "##ப்பா": 2276,
      "கல": 2277,
      "அனை": 2278,
      "என்பது": 2279,
      "ஆர": 2280,
      "##க்கொ": 2281,
      "உண": 2282,
      "##ஸ்ட": 2283,
      "##தான்": 2284,
      "##க்கம்": 2285,
      "சூ": 2286,
      "##மன்ற": 2287,
      "நான்": 2288,
      "இருக்கும்": 2289,
      "அவர்க": 2290,
      "கிர": 2291,
      "##ஷ்": 2292,
      "மக்கள்": 2293,
      "##கி": 2294,
      "கட்ட": 2295,
      "உரு": 2296,
      "##தம்": 2297,
      "விள": 2298,
      "உறு": 2299,
      "##பெ": 2300,
      "தமிழ்": 2301,
      "##ேய": 2302,
      "உள்ளது": 2303,
      "தொடர்ப": 2304,
      "##ப்பத": 2305,
      "ரூ": 2306,
      "##த்திற்கு": 2307,
      "##த்துக்கு": 2308,
      "##திக்க": 2309,
      "பொது": 2310,
      "##ேச": 2311,
      "##ிகளை": 2312,
      "குறை": 2313,
      "தான்": 2314,
      "உத": 2315,
      "அல்லது": 2316,
      "மேலும்": 2317,
      "##ையின்": 2318,
      "##்தான்": 2319,
      "பத": 2320,
      "வாழ": 2321,
      "நெ": 2322,
      "##ச்சி": 2323,
      "##ினார்": 2324,
      "##கவ": 2325,
      "நடை": 2326,
      "##ினர்": 2327,
      "டி": 2328,
      "##ையா": 2329,
      "பயன்ப": 2330,
      "##களில்": 2331,
      "##ப்படுத்த": 2332,
      "மொ": 2333,
      "##ங்களுக்கு": 2334,
      "##ரே": 2335,
      "அடி": 2336,
      "##சை": 2337,
      "##ங்": 2338,
      "##போ": 2339,
      "##ட்டை": 2340,
      "##ின்றனர்": 2341,
      "வள": 2342,
      "திட்ட": 2343,
      "கடந்த": 2344,
      "##ாவில்": 2345,
      "தொழ": 2346,
      "##ிலிருந்து": 2347,
      "##ன்னை": 2348,
      "நக": 2349,
      "தய": 2350,
      "##ிறார்கள்": 2351,
      "##ப்பட்டுள்ளது": 2352,
      "விச": 2353,
      "##ச்சு": 2354,
      "விர": 2355,
      "போன்ற": 2356,
      "இல்ல": 2357,
      "##த்தார்": 2358,
      "##வுக்கு": 2359,
      "கூட்ட": 2360,
      "##தல்": 2361,
      "எல்ல": 2362,
      "கிடை": 2363,
      "##ப்படுகிறது": 2364,
      "##ந்திர": 2365,
      "##்சி": 2366,
      "201": 2367,
      "சேர்ந்த": 2368,
      "##ாள்": 2369,
      "இல்லை": 2370,
      "##ந்தை": 2371,
      "##ாவின்": 2372,
      "##தியில்": 2373,
      "##க்கான": 2374,
      ".,": 2375,
      "நீங்கள்": 2376,
      "வரை": 2377,
      "கொள்ள": 2378,
      "தவ": 2379,
      "பிரத": 2380,
      "##ர்வு": 2381,
      "##திப": 2382,
      "##ரின்": 2383,
      "காண": 2384,
      "##ராக": 2385,
      "பெய": 2386,
      "உலக": 2387,
      "##ந்": 2388,
      "##ள்ளனர்": 2389,
      "##்ப்பு": 2390,
      "##றிய": 2391,
      "அமைச்ச": 2392,
      "இன்று": 2393,
      "தேர்த": 2394,
      "பார்த்த": 2395,
      "அவர்கள்": 2396,
      "பெற்ற": 2397,
      "வய": 2398,
      "வில": 2399,
      "நிக": 2400,
      "##சா": 2401,
      "தமிழக": 2402,
      "விவ": 2403,
      "##ர்வ": 2404,
      "##ம்ம": 2405,
      "தர": 2406,
      "##ெல்ல": 2407,
      "எந்த": 2408,
      "மோ": 2409,
      "ஆய": 2410,
      "பதி": 2411,
      "தூ": 2412,
      "##ந்தது": 2413,
      "அல": 2414,
      "வரும்": 2415,
      "நிலையில்": 2416,
      "வந்து": 2417,
      "##ோடு": 2418,
      "##முறை": 2419,
      "##ட்ப": 2420,
      "நேர": 2421,
      "##ோர்": 2422,
      "போட்ட": 2423,
      "எப்ப": 2424,
      "எண்ண": 2425,
      "##ாங்க": 2426,
      "போது": 2427,
      "##போது": 2428,
      "##றைய": 2429,
      "மாநில": 2430,
      "மூலம்": 2431,
      "##தால்": 2432,
      "ஒன்ற": 2433,
      "##ல்ப": 2434,
      "முக்கிய": 2435,
      "வேலை": 2436,
      "வெளி": 2437,
      "இருப்ப": 2438,
      "கொரோ": 2439,
      "நிறுவன": 2440,
      "பரி": 2441,
      "##கிறது": 2442,
      "மாண": 2443,
      "##திக": 2444,
      "மன": 2445,
      "அதை": 2446,
      "சம்ப": 2447,
      "நல்ல": 2448,
      "தெரிய": 2449,
      "##ாதார": 2450,
      "##முக": 2451,
      "##க்காக": 2452,
      "##ீர்": 2453,
      "##விய": 2454,
      "##ப்பை": 2455,
      "பழ": 2456,
      "மட்டு": 2457,
      "பட்ட": 2458,
      "##ென": 2459,
      "நினை": 2460,
      "கூட": 2461,
      "வேண்ட": 2462,
      "##விட": 2463,
      "##ட்டில்": 2464,
      "கீ": 2465,
      "மக": 2466,
      "எடுத்து": 2467,
      "மருத்துவ": 2468,
      "தற்ப": 2469,
      "கவ": 2470,
      "##வீ": 2471,
      "அதிகார": 2472,
      "பாது": 2473,
      "காரண": 2474,
      "பெரிய": 2475,
      "##வரை": 2476,
      "##க்கூ": 2477,
      "நடைபெ": 2478,
      "##டுப்ப": 2479,
      "##கொ": 2480,
      "ஆம்": 2481,
      "அறிவி": 2482,
      "##வடிக்க": 2483,
      "எம்": 2484,
      "##ட்டும்": 2485,
      "##வன்": 2486,
      "கல்": 2487,
      "தனது": 2488,
      "நிலை": 2489,
      "##ர்க்க": 2490,
      "புதிய": 2491,
      "பிரி": 2492,
      "நடவடிக்க": 2493,
      "தெரிவித்து": 2494,
      "வாய": 2495,
      "விடு": 2496,
      "''": 2497,
      "பாதுகா": 2498,
      "ராஜ": 2499,
      "கொரோனா": 2500,
      "வார": 2501,
      "தகவ": 2502,
      "இரண்டு": 2503,
      "##்ர": 2504,
      "கட்டு": 2505,
      "##னித": 2506,
      "##வரும்": 2507,
      "பேச": 2508,
      "தொகு": 2509,
      "##தில்": 2510,
      "இன்ன": 2511,
      "ஆத": 2512,
      "##ேயே": 2513,
      "செல்ல": 2514,
      "இணை": 2515,
      "படி": 2516,
      "##ிற்க": 2517,
      "முதல": 2518,
      "10": 2519,
      "##ோக": 2520,
      "முன்": 2521,
      "மணி": 2522,
      "##ங்கை": 2523,
      "உங்கள்": 2524,
      "##ற்கொ": 2525,
      "##க்கள்": 2526,
      "போலீ": 2527,
      "திற": 2528,
      "பால": 2529,
      "##ங்கிய": 2530,
      "எஸ்": 2531,
      "##டும்ப": 2532,
      "##வற்ற": 2533,
      "வைத்து": 2534,
      "மத்திய": 2535,
      "இற": 2536,
      "##ஸ்த": 2537,
      "##க்கப்பட்ட": 2538,
      "அதன்": 2539,
      "பெரும்": 2540,
      "##யில்": 2541,
      "பெண": 2542,
      "##டா": 2543,
      "##ளாக": 2544,
      "சென்ற": 2545,
      "அண": 2546,
      "##ற்றிய": 2547,
      "தன்": 2548,
      "சென்னை": 2549,
      "##வெ": 2550,
      "கண்ட": 2551,
      "குழந்தை": 2552,
      "##ங்கே": 2553,
      "தொடர்ந்து": 2554,
      "##ரவ": 2555,
      "மீது": 2556,
      "மெ": 2557,
      "கட்ச": 2558,
      "##ள்க": 2559,
      "பயன்படுத்த": 2560,
      "குறித்து": 2561,
      "##ிகி": 2562,
      "அமெ": 2563,
      "##an": 2564,
      "##ள்ளி": 2565,
      "ஆரம்ப": 2566,
      "##ற்காக": 2567,
      "குடும்ப": 2568,
      "ஸ்ட": 2569,
      "போரா": 2570,
      "##ிருக்கும்": 2571,
      "##ப்பில்": 2572,
      "##ாளர்க": 2573,
      "##றும்": 2574,
      "வச": 2575,
      "என்றும்": 2576,
      "அமெரிக்க": 2577,
      "##ச்சை": 2578,
      "அழை": 2579,
      "அக": 2580,
      "பெரு": 2581,
      "##களுக்கு": 2582,
      "##ையாக": 2583,
      "நம்ப": 2584,
      "##யம்": 2585,
      "நேற்று": 2586,
      "தனி": 2587,
      "இந்": 2588,
      "##ழக": 2589,
      "நடவடிக்கை": 2590,
      "##வ்": 2591,
      "##மார்": 2592,
      "##ழ்ச": 2593,
      "பாட": 2594,
      "##am": 2595,
      "மர": 2596,
      "முறை": 2597,
      "##ப்பட்டுள்ள": 2598,
      "தின": 2599,
      "##க்கோ": 2600,
      "முக": 2601,
      "விட": 2602,
      "##டுப": 2603,
      "அவர": 2604,
      "##ப்பாக": 2605,
      "##ையான": 2606,
      "முய": 2607,
      "பேர்": 2608,
      "##ாளர்கள்": 2609,
      "சமூ": 2610,
      "பிறகு": 2611,
      "அரசியல்": 2612,
      "தற்போது": 2613,
      "##ளுடன்": 2614,
      "குறிப்பி": 2615,
      "தேசிய": 2616,
      "##மர்": 2617,
      "##ாண": 2618,
      "நூ": 2619,
      "என்பதை": 2620,
      "நீதி": 2621,
      "மிகவும்": 2622,
      "##ளா": 2623,
      "நாம்": 2624,
      "பார்க்க": 2625,
      "ரூப": 2626,
      "விரு": 2627,
      "##ர்ம": 2628,
      "மாத": 2629,
      "அதி": 2630,
      "வழி": 2631,
      "மாற்ற": 2632,
      "விசார": 2633,
      "முடியும்": 2634,
      "வக": 2635,
      "##விட்டு": 2636,
      "##படி": 2637,
      "இவர்": 2638,
      "##டித்த": 2639,
      "மனித": 2640,
      "தலைவர்": 2641,
      "##ல்கள்": 2642,
      "சக": 2643,
      "##ிட": 2644,
      "வட": 2645,
      "காவ": 2646,
      "##ளம்": 2647,
      "அனைத்து": 2648,
      "தேவ": 2649,
      "##சாய": 2650,
      "உருவா": 2651,
      "##வேறு": 2652,
      "##ுக": 2653,
      "முழு": 2654,
      "நடத்த": 2655,
      "பல்": 2656,
      "##மையான": 2657,
      "##ிறேன்": 2658,
      "##த்தர": 2659,
      "நிலைய": 2660,
      "##ன்க": 2661,
      "##மது": 2662,
      "##ப்பது": 2663,
      "##ிரிய": 2664,
      "செய்வ": 2665,
      "##ளுக்கும்": 2666,
      "##in": 2667,
      "அதே": 2668,
      "கலந்து": 2669,
      "##er": 2670,
      "பின்னர்": 2671,
      "##த்தம்": 2672,
      "மேற்கொ": 2673,
      "##ராஜ": 2674,
      "##at": 2675,
      "அவரது": 2676,
      "##ில்லை": 2677,
      "##தான": 2678,
      "##ளவு": 2679,
      "வருகிறது": 2680,
      "இவ்வ": 2681,
      "பற்றி": 2682,
      "சென்று": 2683,
      "லட்ச": 2684,
      "நான": 2685,
      "##ற்கான": 2686,
      "##தே": 2687,
      "வழக்க": 2688,
      "சங்க": 2689,
      "பொறு": 2690,
      "##ினி": 2691,
      "##ினால்": 2692,
      "குற்ற": 2693,
      "நிய": 2694,
      "அடுத்த": 2695,
      "##வம்": 2696,
      "##தாகவும்": 2697,
      "##ில்ல": 2698,
      "திரும": 2699,
      "சமூக": 2700,
      "##ர்ப்ப": 2701,
      "செல்": 2702,
      "##நிலையில்": 2703,
      "##டித்து": 2704,
      "மறு": 2705,
      "##ழுவ": 2706,
      "வைத்த": 2707,
      "##னின்": 2708,
      "அனும": 2709,
      "##ுக்கு": 2710,
      "இருக்கிறது": 2711,
      "##ிலேயே": 2712,
      "##ாறு": 2713,
      "செயல": 2714,
      "ஆண்ட": 2715,
      "கடை": 2716,
      "##ணைய": 2717,
      "##ார்ப": 2718,
      "நிர்": 2719,
      "விவசாய": 2720,
      "புது": 2721,
      "##வான": 2722,
      "##டியாக": 2723,
      "சோ": 2724,
      "பெற்று": 2725,
      "##ைப்": 2726,
      "அருக": 2727,
      "மீண்டும்": 2728,
      "##டுகள்": 2729,
      "##ைக்": 2730,
      "தேதி": 2731,
      "##ாரம்": 2732,
      "ஒவ்வ": 2733,
      "கிராம": 2734,
      "##ங்களின்": 2735,
      "எனக்கு": 2736,
      "உறுப்ப": 2737,
      "யா": 2738,
      "ஒன்று": 2739,
      "##ின்றது": 2740,
      "##னே": 2741,
      "உரி": 2742,
      "எடுக்க": 2743,
      "விட்ட": 2744,
      "##ாகி": 2745,
      "##்து": 2746,
      "##ர்ச்ச": 2747,
      "##ப்போ": 2748,
      "இதில்": 2749,
      "##னும்": 2750,
      "புக": 2751,
      "##ையே": 2752,
      "##ப்படு": 2753,
      "##வரு": 2754,
      "மட்டுமே": 2755,
      "##களின்": 2756,
      "##்ட்": 2757,
      "##ெல்லாம்": 2758,
      "என்க": 2759,
      "##ராட்சி": 2760,
      "விஷ": 2761,
      "இதனால்": 2762,
      "உண்": 2763,
      "##றையில்": 2764,
      "நிறை": 2765,
      "சொன்ன": 2766,
      "போராட்ட": 2767,
      "பல்வேறு": 2768,
      "##ளிடம்": 2769,
      "விட்டு": 2770,
      "ஈடுப": 2771,
      "அமைச்சர்": 2772,
      "##ிகளில்": 2773,
      "நம்": 2774,
      "உற": 2775,
      "சுவ": 2776,
      "சிறு": 2777,
      "பணி": 2778,
      "##ஜி": 2779,
      "செயல்ப": 2780,
      "##த்துடன்": 2781,
      "வேறு": 2782,
      "அடை": 2783,
      "200": 2784,
      "சந்தி": 2785,
      "நடிக": 2786,
      "கல்ல": 2787,
      "##தியாக": 2788,
      "வல": 2789,
      "##ிறோம்": 2790,
      "##ெட்": 2791,
      "##ியது": 2792,
      "##ளையும்": 2793,
      "##சிரிய": 2794,
      "மட்டும்": 2795,
      "##ிருக்கிறது": 2796,
      "##த்தது": 2797,
      "##ஸ்ப": 2798,
      "நாள": 2799,
      "வீர": 2800,
      "##வதற்கு": 2801,
      "##ங்கும்": 2802,
      "பாதி": 2803,
      "##்ரீ": 2804,
      "துறை": 2805,
      "கைது": 2806,
      "அளி": 2807,
      "ஜெய": 2808,
      "மூன்று": 2809,
      "##ாட்டு": 2810,
      "##பை": 2811,
      "##யில": 2812,
      "##ர்களை": 2813,
      "தேர்தல்": 2814,
      "##லோ": 2815,
      "தொழில்": 2816,
      "நீதிமன்ற": 2817,
      "இருந்தது": 2818,
      "உள்ளிட்ட": 2819,
      "##றுக": 2820,
      "மி": 2821,
      "##ுள்ள": 2822,
      "எனவே": 2823,
      "இலங்கை": 2824,
      "##ிக்கை": 2825,
      "அலுவ": 2826,
      "நு": 2827,
      "அணி": 2828,
      "மது": 2829,
      "விற": 2830,
      "மதி": 2831,
      "டெ": 2832,
      "##ிக்கொ": 2833,
      "##ந்தி": 2834,
      "ஏற்படுத்த": 2835,
      "அரு": 2836,
      "##ுடன்": 2837,
      "வாழ்க்க": 2838,
      "##al": 2839,
      "##il": 2840,
      "முயற": 2841,
      "##நக": 2842,
      "##ar": 2843,
      "அதில்": 2844,
      "காரணமாக": 2845,
      "ஆகும்": 2846,
      "##ாவை": 2847,
      "##த்தான்": 2848,
      "##பர": 2849,
      "திரை": 2850,
      "##ார்க": 2851,
      "##''": 2852,
      "வெற்றி": 2853,
      "இதை": 2854,
      "அட": 2855,
      "##ிட்டு": 2856,
      "ஒவ்வொரு": 2857,
      "##யா": 2858,
      "##ாகும்": 2859,
      "சிவ": 2860,
      "##டக": 2861,
      "15": 2862,
      "மல": 2863,
      "##ஸ்ட்": 2864,
      "பெண்": 2865,
      "தவிர": 2866,
      "எப்படி": 2867,
      "##த்தையும்": 2868,
      "##ியுள்ளது": 2869,
      "உத்தர": 2870,
      "வெளியே": 2871,
      "12": 2872,
      "செலு": 2873,
      "##ியும்": 2874,
      "##ண்ப": 2875,
      "##ண்டி": 2876,
      "கேள்": 2877,
      "வாங்க": 2878,
      "தயாரி": 2879,
      "போக": 2880,
      "##ஷ்ட": 2881,
      "இரண்ட": 2882,
      "பாதுகாப்பு": 2883,
      "கட்சி": 2884,
      "அதிகரி": 2885,
      "நிர": 2886,
      "வழக்கு": 2887,
      "##னுக்கு": 2888,
      "##விர": 2889,
      "##த்தால்": 2890,
      "##ின்ன": 2891,
      "##நாய": 2892,
      "பாதிக்க": 2893,
      "வடி": 2894,
      "நாள்": 2895,
      "இதன்": 2896,
      "##சார்": 2897,
      "முடிவு": 2898,
      "ஆர்": 2899,
      "##on": 2900,
      "அதற்கு": 2901,
      "##ியன்": 2902,
      "குறித்த": 2903,
      "கேட்ட": 2904,
      "##லுக்கு": 2905,
      "##திகள்": 2906,
      "இந்நிலையில்": 2907,
      "அம்": 2908,
      "##ஆம்": 2909,
      "##ம்பு": 2910,
      "பிரச்ச": 2911,
      "##ிலான": 2912,
      "இன்": 2913,
      "வைக்க": 2914,
      "##த்தக": 2915,
      "##ர்ச்சி": 2916,
      "கலை": 2917,
      "##ஸ்க": 2918,
      "ம்": 2919,
      "திரும்ப": 2920,
      "விரும்ப": 2921,
      "அங்கு": 2922,
      "தேவை": 2923,
      "##ய்வு": 2924,
      "பகுதியில்": 2925,
      "கண்டு": 2926,
      "விஜ": 2927,
      "செல": 2928,
      "18": 2929,
      "இன்னும்": 2930,
      "நடந்த": 2931,
      "குழு": 2932,
      "##சிக": 2933,
      "##நிலை": 2934,
      "உள்ளன": 2935,
      "##ம்பெ": 2936,
      "அங்க": 2937,
      "அப்போது": 2938,
      "முடியாது": 2939,
      "##ார்த்த": 2940,
      "##மையாக": 2941,
      "சிகி": 2942,
      "முன்ப": 2943,
      "##ீர": 2944,
      "கருத்து": 2945,
      "இந்தியா": 2946,
      "##நாட்ட": 2947,
      "##ர்களின்": 2948,
      "கண்ண": 2949,
      "##தற்கு": 2950,
      "ரூபாய்": 2951,
      "##வர்களுக்கு": 2952,
      "இறு": 2953,
      "காங்க": 2954,
      "##ிகளுக்கு": 2955,
      "##ாச": 2956,
      "##ர்த்து": 2957,
      "நோய": 2958,
      "##ப்பெ": 2959,
      "##es": 2960,
      "##க்கை": 2961,
      "##ணுவ": 2962,
      "விமான": 2963,
      "அரசாங்க": 2964,
      "ஆயிர": 2965,
      "வெள்ள": 2966,
      "##திபதி": 2967,
      "பார்": 2968,
      "##மையில்": 2969,
      "##ளால்": 2970,
      "##நி": 2971,
      "பெற": 2972,
      "##லாக": 2973,
      "##ழிய": 2974,
      "##ானது": 2975,
      "படை": 2976,
      "விசாரணை": 2977,
      "பேர": 2978,
      "சரி": 2979,
      "##வின்": 2980,
      "நிர்வாக": 2981,
      "##ழ்ச்ச": 2982,
      "கொடுத்த": 2983,
      "மூல": 2984,
      "உணவு": 2985,
      "சரிய": 2986,
      "இப்போது": 2987,
      "##ட்கள்": 2988,
      "கொடுக்க": 2989,
      "##ப்புகள்": 2990,
      "வேண்டிய": 2991,
      "சுக": 2992,
      "##or": 2993,
      "பார்த்து": 2994,
      "##ிருந்தது": 2995,
      "உட்ப": 2996,
      "##பர்": 2997,
      "##ிருப்ப": 2998,
      "பெரும்ப": 2999,
      "கன": 3000,
      "தண்ண": 3001,
      "ராம": 3002,
      "வைர": 3003,
      "11": 3004,
      "##லைக்க": 3005,
      "செய்யப்பட்ட": 3006,
      "தொழில": 3007,
      "காங்கிர": 3008,
      "தங்க": 3009,
      "விலை": 3010,
      "##ந்துள்ளது": 3011,
      "30": 3012,
      "ஆன": 3013,
      "ஏற்பட்ட": 3014,
      "##்களை": 3015,
      "வரலா": 3016,
      "மண": 3017,
      "##மெ": 3018,
      "குறிப்பிட": 3019,
      "##ியம்": 3020,
      "##மீ": 3021,
      "##ப்பிட்ட": 3022,
      "கோடி": 3023,
      "விளையா": 3024,
      "சாத": 3025,
      "வாக": 3026,
      "சத": 3027,
      "##களும்": 3028,
      "மனை": 3029,
      "##..": 3030,
      "##ீர்கள்": 3031,
      "கல்வி": 3032,
      "பள்ள": 3033,
      "##ீடு": 3034,
      "எதிர்ப": 3035,
      "##ங்களும்": 3036,
      "##வதாக": 3037,
      "##ிகளின்": 3038,
      "பதிவு": 3039,
      "விழ": 3040,
      "##ர்களுக்கு": 3041,
      "மேல்": 3042,
      "ஒரே": 3043,
      "##ேக": 3044,
      "வகையில்": 3045,
      "##த்திற்க": 3046,
      "வயது": 3047,
      "இன": 3048,
      "துவ": 3049,
      "##த்துறை": 3050,
      "மாதம்": 3051,
      "##ங்கில": 3052,
      "உடல்": 3053,
      "நிறு": 3054,
      "சர்": 3055,
      "##னைய": 3056,
      "ஒருவர்": 3057,
      "என்றார்": 3058,
      "சார்ப": 3059,
      "##த்துக்": 3060,
      "முழுவ": 3061,
      "##ண்ட்": 3062,
      "தகவல்": 3063,
      "##ினும்": 3064,
      "ஸ்ரீ": 3065,
      "##கோ": 3066,
      "##லின்": 3067,
      "தள": 3068,
      "இழ": 3069,
      "பக்க": 3070,
      "##ரன்": 3071,
      "காய": 3072,
      "##ளுமன்ற": 3073,
      "##்த்து": 3074,
      "விற்ப": 3075,
      "யார": 3076,
      "##ப்படை": 3077,
      "வீட்டு": 3078,
      "உறுப்பின": 3079,
      "##த்தா": 3080,
      "ஜன": 3081,
      "##்டர்": 3082,
      "),": 3083,
      "ஜி": 3084,
      "##ருக்க": 3085,
      "பக": 3086,
      "சார்": 3087,
      "கொள்க": 3088,
      "##ாடு": 3089,
      "நாடுக": 3090,
      "மருத்துவம": 3091,
      "புல": 3092,
      "##க்கொண்ட": 3093,
      "##ஷ்ண": 3094,
      "##க்கல்": 3095,
      "வாய்ப்பு": 3096,
      "கெ": 3097,
      "##ந்துள்ள": 3098,
      "##க்கில்": 3099,
      "##ன்னு": 3100,
      "நாட்ட": 3101,
      "##வாத": 3102,
      "சிக்க": 3103,
      "##டையே": 3104,
      "தெரிவிக்க": 3105,
      "##ளே": 3106,
      "முதல்வர்": 3107,
      "##தலை": 3108,
      "##ியான": 3109,
      "சிகிச்சை": 3110,
      "இங்கு": 3111,
      "##மையை": 3112,
      "##ப்ட": 3113,
      "தேர்வு": 3114,
      "##ைகள்": 3115,
      "காட்ட": 3116,
      "##ஷன்": 3117,
      "##த்தக்க": 3118,
      "செய்யும்": 3119,
      "##தியை": 3120,
      "##க்குள்": 3121,
      "மாதிர": 3122,
      "##ளுக்கான": 3123,
      "முன்னாள்": 3124,
      "பெண்கள்": 3125,
      "நாட்க": 3126,
      "சிறப்பு": 3127,
      "##ஜ்": 3128,
      "ஏற்க": 3129,
      "தெரிவித்தார்": 3130,
      "##ிருந்தார்": 3131,
      "##ம்பர்": 3132,
      "நகர": 3133,
      "பொருள": 3134,
      "அவரை": 3135,
      "பிரப": 3136,
      "உறுதி": 3137,
      "வகை": 3138,
      "இயக்க": 3139,
      "கிழ": 3140,
      "அர": 3141,
      "##வரி": 3142,
      "இயக்கு": 3143,
      "##்தி": 3144,
      "கடி": 3145,
      "அவன்": 3146,
      "மைய": 3147,
      "##வில": 3148,
      "அலுவலக": 3149,
      "அடைய": 3150,
      "டிர": 3151,
      "நடைபெற்ற": 3152,
      "பிரதமர்": 3153,
      "மேற்ப": 3154,
      "பிரதேச": 3155,
      "கதை": 3156,
      "என்றால்": 3157,
      "வரி": 3158,
      "##ோதனை": 3159,
      "உயர்": 3160,
      "குடிய": 3161,
      "##ார்க்க": 3162,
      "தெரிவித்துள்ளார்": 3163,
      "சுகாதார": 3164,
      "பயண": 3165,
      "ஜனா": 3166,
      "##பே": 3167,
      "##ிருக்கிறார்": 3168,
      "நாங்கள்": 3169,
      "##சம்": 3170,
      "பயிற": 3171,
      "என்னை": 3172,
      "இள": 3173,
      "வேண்டு": 3174,
      "##en": 3175,
      "பங்கு": 3176,
      "##ந்தார்": 3177,
      "நேரம்": 3178,
      "##த்திலும்": 3179,
      "பற்றிய": 3180,
      "துணை": 3181,
      "தாக்கு": 3182,
      "##ங்கா": 3183,
      "அமைப்பு": 3184,
      "இந்தப்": 3185,
      "##ியுள்ள": 3186,
      "##மொ": 3187,
      "போன": 3188,
      "அற": 3189,
      "##த்தும்": 3190,
      "சுற்று": 3191,
      "தலைமை": 3192,
      "பொலி": 3193,
      "விழு": 3194,
      "சொல்": 3195,
      "ஆவ": 3196,
      "##ாக்": 3197,
      "##க்குப்": 3198,
      "##ூட": 3199,
      "தயார": 3200,
      "இடம்பெ": 3201,
      "ஆரம்பி": 3202,
      "வருகின்றனர்": 3203,
      "இப்படி": 3204,
      "##வதை": 3205,
      "##ியார்": 3206,
      "அவ்வ": 3207,
      "பண்ண": 3208,
      "##நாடு": 3209,
      "##ாப": 3210,
      "##மோ": 3211,
      "காலை": 3212,
      "மறை": 3213,
      "##ப்பின்": 3214,
      "மாவட்டம்": 3215,
      "படம்": 3216,
      "##த்தனர்": 3217,
      "ஆட்ச": 3218,
      "கேட்டு": 3219,
      "தொடர்பு": 3220,
      "##திகளில்": 3221,
      "வண": 3222,
      "மை": 3223,
      "பரிச": 3224,
      "##வோ": 3225,
      "ஆசிரிய": 3226,
      "ஊராட்சி": 3227,
      "நண்ப": 3228,
      "##புரம்": 3229,
      "வடிவ": 3230,
      "##ரான": 3231,
      "இரா": 3232,
      "கல்லூ": 3233,
      "இன்ற": 3234,
      "மகி": 3235,
      "##வாய": 3236,
      "##ன்மை": 3237,
      "எல்லாம்": 3238,
      "கீழ": 3239,
      "##த்துள்ளது": 3240,
      "காரணம்": 3241,
      "எல்": 3242,
      "தங்கள்": 3243,
      "சிறந்த": 3244,
      "அழு": 3245,
      "போலீசார்": 3246,
      "செய்க": 3247,
      "25": 3248,
      "தீவிர": 3249,
      "மின்": 3250,
      "##ியுள்ளார்": 3251,
      "இதற்கு": 3252,
      "##it": 3253,
      "ஆய்வு": 3254,
      "போட்டு": 3255,
      "கிள": 3256,
      "கேட்க": 3257,
      "சொல்லி": 3258,
      "கிடைக்க": 3259,
      "அவருக்கு": 3260,
      "##வேண்டும்": 3261,
      "##ிருஷ்ண": 3262,
      "ஜெ": 3263,
      "மாக": 3264,
      "கால்": 3265,
      "##ல்களை": 3266,
      "பல்க": 3267,
      "விரை": 3268,
      "##மானது": 3269,
      "##க்கொள்ள": 3270,
      "ரோ": 3271,
      "முழுவதும்": 3272,
      "##ாளி": 3273,
      "##வர்களை": 3274,
      "##மூ": 3275,
      "##க்கே": 3276,
      "வாழ்": 3277,
      "நேரத்தில்": 3278,
      "விளை": 3279,
      "இல்லாத": 3280,
      "வங்க": 3281,
      "பாத": 3282,
      "##ட்டர்": 3283,
      "குடி": 3284,
      "சொந்த": 3285,
      "##ன்றி": 3286,
      "##ருக்கும்": 3287,
      "##மிட": 3288,
      "லட்சம்": 3289,
      "##னையில்": 3290,
      "அவற்ற": 3291,
      "##வர்களின்": 3292,
      "தடை": 3293,
      "தொற்று": 3294,
      "திக": 3295,
      "இளை": 3296,
      "எது": 3297,
      "கீழ்": 3298,
      "இடை": 3299,
      "புரி": 3300,
      "##களையும்": 3301,
      "தல": 3302,
      "##டியோ": 3303,
      "யோ": 3304,
      "##amil": 3305,
      "கொடுத்து": 3306,
      "அப": 3307,
      "நடக்க": 3308,
      "##ாரா": 3309,
      "வருட": 3310,
      "வியா": 3311,
      "##த்தின": 3312,
      "நிறுவனம்": 3313,
      "கவி": 3314,
      "நிதி": 3315,
      "காங்கிரஸ்": 3316,
      "##த்தொ": 3317,
      "##ிலோ": 3318,
      "புற": 3319,
      "##கொண்ட": 3320,
      "##வுகள்": 3321,
      "பை": 3322,
      "வாக்கு": 3323,
      "ஏன்": 3324,
      "குறிப்பிட்ட": 3325,
      "000": 3326,
      "தொடங்க": 3327,
      "##வராக": 3328,
      "வகு": 3329,
      "உற்ப": 3330,
      "##ெடுக்க": 3331,
      "இளைஞ": 3332,
      "ஏற்று": 3333,
      "##சாமி": 3334,
      "##நாயக": 3335,
      "16": 3336,
      "அச": 3337,
      "##ழமை": 3338,
      "கைய": 3339,
      "கவன": 3340,
      "கண்க": 3341,
      "கிடைக்கும்": 3342,
      "வாகன": 3343,
      "கூறினார்": 3344,
      "##க்கெ": 3345,
      "இவ்வாறு": 3346,
      "எவ்வ": 3347,
      "##னில்": 3348,
      "தொடர்பாக": 3349,
      "ஆதர": 3350,
      "இல்": 3351,
      "தீர்": 3352,
      "விஷய": 3353,
      "##ரிக்கை": 3354,
      "##மடை": 3355,
      "##லர்": 3356,
      "கொள்": 3357,
      "மாவட்டத்தில்": 3358,
      "டீ": 3359,
      "அளிக்க": 3360,
      "##சார": 3361,
      "13": 3362,
      "அன்று": 3363,
      "##மார": 3364,
      "##தாவது": 3365,
      "நிகழ்": 3366,
      "நீர்": 3367,
      "உரிமை": 3368,
      "ஆப": 3369,
      "வட்ட": 3370,
      "##வின": 3371,
      "பீ": 3372,
      "##செய": 3373,
      "சேர்த்து": 3374,
      "கேள்வி": 3375,
      "##ற்றா": 3376,
      "##ாயம்": 3377,
      "##ணா": 3378,
      "##ப்பான": 3379,
      "ரெ": 3380,
      "எதிராக": 3381,
      "##மைப்பு": 3382,
      "##த்தைப்": 3383,
      "##ரல்": 3384,
      "பெயர்": 3385,
      "##ுத": 3386,
      "கர": 3387,
      "அவள்": 3388,
      "பெண்ண": 3389,
      "கூறிய": 3390,
      "எல்லா": 3391,
      "##க்கூடிய": 3392,
      "மேற்கொள்ள": 3393,
      "14": 3394,
      "அளவு": 3395,
      "##க்களை": 3396,
      "##ரிடம்": 3397,
      "ஆறு": 3398,
      "இடம்": 3399,
      "கேர": 3400,
      "பெண்க": 3401,
      "##க்கார": 3402,
      "##மாறு": 3403,
      "##ர்த்தி": 3404,
      "உச்ச": 3405,
      "பணம்": 3406,
      "காலத்தில்": 3407,
      "மத": 3408,
      "##சன": 3409,
      "##ிலுள்ள": 3410,
      "அவர்களின்": 3411,
      "##தோ": 3412,
      "##சன்": 3413,
      "திரைப்பட": 3414,
      "##நாத": 3415,
      "முறைய": 3416,
      "##சனை": 3417,
      "##ிடம்": 3418,
      "கொஞ்ச": 3419,
      "ரீ": 3420,
      "பள்ளி": 3421,
      "நான்கு": 3422,
      "எங்க": 3423,
      "##நீ": 3424,
      "மட்டும": 3425,
      "அதிகாரிகள்": 3426,
      "##டியே": 3427,
      "வந்தது": 3428,
      "தடுப்ப": 3429,
      "எதிர்க": 3430,
      "வேல": 3431,
      "சுமார்": 3432,
      "உதவி": 3433,
      "##ரிக": 3434,
      "##ருவ": 3435,
      "முயற்ச": 3436,
      "அருகே": 3437,
      "##ed": 3438,
      "##ic": 3439,
      "தொலை": 3440,
      "##ப்பிர": 3441,
      "சேவை": 3442,
      "ஜோ": 3443,
      "##ப்படுகின்றன": 3444,
      "அவை": 3445,
      "##களாக": 3446,
      "நடந்து": 3447,
      "##ஞ்சி": 3448,
      "##ும": 3449,
      "போல்": 3450,
      "ஆலோ": 3451,
      "வேக": 3452,
      "உயிரி": 3453,
      "நப": 3454,
      "பதில": 3455,
      "17": 3456,
      "கத": 3457,
      "##ew": 3458,
      "அளவில்": 3459,
      "உயிர": 3460,
      "##ியோ": 3461,
      "ஆண்டில்": 3462,
      "##டுகிறது": 3463,
      "அனுப": 3464,
      "##த்தல்": 3465,
      "சென்ன": 3466,
      "##ளிக்க": 3467,
      "விப": 3468,
      "மாகாண": 3469,
      "வித": 3470,
      "50": 3471,
      "இதனை": 3472,
      "##ியே": 3473,
      "விடுதலை": 3474,
      "ஊழிய": 3475,
      "பத்திர": 3476,
      "செயல்": 3477,
      "பிரச்": 3478,
      "பேசிய": 3479,
      "ஊர": 3480,
      "பின்ன": 3481,
      "அன்ப": 3482,
      "அனுப்ப": 3483,
      "வீட்டில்": 3484,
      "##த்தைக்": 3485,
      "ஜனாதிபதி": 3486,
      "##டுப்பு": 3487,
      "##ம்பி": 3488,
      "அதனால்": 3489,
      "சீன": 3490,
      "குறைந்த": 3491,
      "கூடு": 3492,
      "கோயில்": 3493,
      "இனி": 3494,
      "மண்ட": 3495,
      "##க்கிர": 3496,
      "##விட்டது": 3497,
      "உயிரிழ": 3498,
      "202": 3499,
      "##ீப": 3500,
      "இணைய": 3501,
      "##ிகை": 3502,
      "அனுமதி": 3503,
      "நாய": 3504,
      "##வருக்கு": 3505,
      "மழை": 3506,
      "ஆட்சி": 3507,
      "##ும்போது": 3508,
      "பொருளாதார": 3509,
      "சர": 3510,
      "போக்கு": 3511,
      "##்டு": 3512,
      "##மாகும்": 3513,
      "உண்டு": 3514,
      "சூழ": 3515,
      "ஆன்": 3516,
      "##நாட்டு": 3517,
      "என்னும்": 3518,
      "##வரின்": 3519,
      "என்பத": 3520,
      "ஜூ": 3521,
      "##லும்": 3522,
      "அதிப": 3523,
      "தமிழகத்தில்": 3524,
      "##வற்றை": 3525,
      "இல்லாமல்": 3526,
      "அண்ண": 3527,
      "தான": 3528,
      "ரி": 3529,
      "##வார": 3530,
      "சார்பில்": 3531,
      "##ாலி": 3532,
      "##ட்டம்": 3533,
      "இரவு": 3534,
      "##ீஸ்": 3535,
      "##வுடன்": 3536,
      "கூடிய": 3537,
      "உள்ளனர்": 3538,
      "இந்தியாவில்": 3539,
      "இந்து": 3540,
      "##ப்பே": 3541,
      "##ிற்": 3542,
      "வாழ்க்கை": 3543,
      "குறிப்பிடத்தக்க": 3544,
      "பெறு": 3545,
      "வைரஸ்": 3546,
      "சின்ன": 3547,
      "அழ": 3548,
      "அழக": 3549,
      "##ெல்": 3550,
      "சை": 3551,
      "உருவாக்க": 3552,
      "அம்மா": 3553,
      "100": 3554,
      "விற்பனை": 3555,
      "நாடா": 3556,
      "அக்க": 3557,
      "ஆண": 3558,
      "நீண்ட": 3559,
      "சுத": 3560,
      "மன்ன": 3561,
      "##த்தனை": 3562,
      "இலங்க": 3563,
      "ஒது": 3564,
      "கொடு": 3565,
      "##வித": 3566,
      "##த்தைச்": 3567,
      "பிரபல": 3568,
      "மக்களின்": 3569,
      "வான": 3570,
      "##ெக": 3571,
      "##த்தான": 3572,
      "சிறிய": 3573,
      "இதுவரை": 3574,
      "கூறுக": 3575,
      "செய்தி": 3576,
      "மாட்ட": 3577,
      "உடன": 3578,
      "முஸ்": 3579,
      "##ங்களையும்": 3580,
      "மொத்த": 3581,
      "ஸ்": 3582,
      "பிறந்த": 3583,
      "##ோட": 3584,
      "உங்களுக்கு": 3585,
      "##ச்சே": 3586,
      "##னாக": 3587,
      "போய்": 3588,
      "செயலாளர்": 3589,
      "உர": 3590,
      "##வார்கள்": 3591,
      "நாடாளுமன்ற": 3592,
      "பொதும": 3593,
      "இயற்க": 3594,
      "##ுங்கள்": 3595,
      "##ழ்வ": 3596,
      "அவசிய": 3597,
      "##ழ்ச்சி": 3598,
      "முதலில்": 3599,
      "##ிகளும்": 3600,
      "எடுத்த": 3601,
      "##ண்டை": 3602,
      "அதிகம்": 3603,
      "கொலை": 3604,
      "காட்டு": 3605,
      "திருப்ப": 3606,
      "அப்படி": 3607,
      "தேர்தலில்": 3608,
      "நாடு": 3609,
      "பணிய": 3610,
      "மனைவி": 3611,
      "##வைய": 3612,
      "கடு": 3613,
      "##க்கூட": 3614,
      "24": 3615,
      "##ஞ்சு": 3616,
      "அமைக்க": 3617,
      "##யூ": 3618,
      "பாதிப்பு": 3619,
      "ஓர்": 3620,
      "##ளுக்காக": 3621,
      "தடுப்பூ": 3622,
      "சேர்க்க": 3623,
      "பிள்ள": 3624,
      "##நு": 3625,
      "பல்கலைக்க": 3626,
      "தண்ணீர்": 3627,
      "##om": 3628,
      "இருந்தால்": 3629,
      "##ப்படையில்": 3630,
      "ஆகியோர்": 3631,
      "தீர்மான": 3632,
      "கழி": 3633,
      "கண்டுபி": 3634,
      "நாட்டு": 3635,
      "##ப்படுத்து": 3636,
      "மாலை": 3637,
      "வீட்ட": 3638,
      "மருந்து": 3639,
      "ஃப": 3640,
      "##ப்படி": 3641,
      "##விடும்": 3642,
      "தனியார்": 3643,
      "##கால": 3644,
      "ஏற்பட்டு": 3645,
      "யூ": 3646,
      "பங்கே": 3647,
      "##ழுது": 3648,
      "போய": 3649,
      "அடையாள": 3650,
      "மூன்ற": 3651,
      "கொண்டிருந்த": 3652,
      "நிறைவே": 3653,
      "சிறி": 3654,
      "##வியல்": 3655,
      "##ன்கள்": 3656,
      "##ியர்": 3657,
      "எங்கள்": 3658,
      "##ந்த்": 3659,
      "பகுதி": 3660,
      "ஒப்ப": 3661,
      "நல": 3662,
      "##is": 3663,
      "##ற்றம்": 3664,
      "பரவ": 3665,
      "போட்டிய": 3666,
      "##டங்கு": 3667,
      "சர்வத": 3668,
      "உதவ": 3669,
      "விதி": 3670,
      "விரி": 3671,
      "எண்ணிக்கை": 3672,
      "மேற்பட்ட": 3673,
      "##ளிலும்": 3674,
      "முடியாத": 3675,
      "##விக்க": 3676,
      "சர்வதேச": 3677,
      "இடங்களில்": 3678,
      "விஜய": 3679,
      "இவை": 3680,
      "எதி": 3681,
      "##ாகு": 3682,
      "அறிவு": 3683,
      "அறிய": 3684,
      "புகை": 3685,
      "கட்டி": 3686,
      "ரசிக": 3687,
      "திட": 3688,
      "எளி": 3689,
      "##சக": 3690,
      "ஏற்படும்": 3691,
      "ரொ": 3692,
      "புர": 3693,
      "அவரு": 3694,
      "மோச": 3695,
      "இறை": 3696,
      "##ad": 3697,
      "தாய": 3698,
      "மனு": 3699,
      "##லாம": 3700,
      "தெளி": 3701,
      "அரசின்": 3702,
      "அவர்களை": 3703,
      "ஆயிரம்": 3704,
      "நாக": 3705,
      "##சிக்க": 3706,
      "என்கிற": 3707,
      "##நாள்": 3708,
      "குரு": 3709,
      "இதே": 3710,
      "இருக்கு": 3711,
      "##he": 3712,
      "அதிகமாக": 3713,
      "வேட்ப": 3714,
      "##ந்திய": 3715,
      "மொழி": 3716,
      "##ப்பதால்": 3717,
      "காவல": 3718,
      "##ews": 3719,
      "##மக்கு": 3720,
      "கள": 3721,
      "எழுதிய": 3722,
      "தொகை": 3723,
      "##ாலை": 3724,
      "##as": 3725,
      "கூறி": 3726,
      "டே": 3727,
      "##நோ": 3728,
      "எனவும்": 3729,
      "அவர்களுக்கு": 3730,
      "##லே": 3731,
      "##ப்புற": 3732,
      "##ப்படைய": 3733,
      "##ாட": 3734,
      "##த்தன": 3735,
      "அரசிய": 3736,
      "##ென்ற": 3737,
      "199": 3738,
      "##ப்பாளர்": 3739,
      "‘‘": 3740,
      "##ெய்": 3741,
      "ஐந்து": 3742,
      "காலம்": 3743,
      "அனுமதிக்க": 3744,
      "சாப்பி": 3745,
      "##பார": 3746,
      "##கார": 3747,
      "##ச்சுவ": 3748,
      "இடத்தில்": 3749,
      "தோல்": 3750,
      "முன்பு": 3751,
      "ஆணைய": 3752,
      "நாளை": 3753,
      "ஆங்கில": 3754,
      "இஸ்": 3755,
      "செலுத்த": 3756,
      "காத": 3757,
      "கோயில": 3758,
      "##ப்பட்டுள்ளன": 3759,
      "இந்தக்": 3760,
      "செல்லும்": 3761,
      "கூடாது": 3762,
      "தந்த": 3763,
      "உப": 3764,
      "##ிர்": 3765,
      "##குதி": 3766,
      "இணைந்து": 3767,
      "இசை": 3768,
      "தொடர்பான": 3769,
      "அடிப்படையில்": 3770,
      "தேவையான": 3771,
      "உடை": 3772,
      "சிர": 3773,
      "தமிழ்நாடு": 3774,
      "மதுரை": 3775,
      "ஆர்வ": 3776,
      "##ட்டிய": 3777,
      "##ன்ச": 3778,
      "##ற்கும்": 3779,
      "##ளுடைய": 3780,
      "நிகழ்ச்ச": 3781,
      "##ைக்கு": 3782,
      "மோடி": 3783,
      "##்ச்ச": 3784,
      "##ங்களாக": 3785,
      "தொகுதி": 3786,
      "Tamil": 3787,
      "அதனை": 3788,
      "##ாவும்": 3789,
      "நாட்டின்": 3790,
      "ஊடக": 3791,
      "##ஸ்தான்": 3792,
      "##ப்பாட்ட": 3793,
      "##த்திலிருந்து": 3794,
      "கிலோ": 3795,
      "##மலை": 3796,
      "சதவீ": 3797,
      "தண்ட": 3798,
      "ஒளி": 3799,
      "குண": 3800,
      "சமீப": 3801,
      "நோய்": 3802,
      "##ாட்சி": 3803,
      "மாதிரி": 3804,
      "செயற்ப": 3805,
      "எனும்": 3806,
      "ஆராய": 3807,
      "பற": 3808,
      "##ையடுத்து": 3809,
      "##ிலை": 3810,
      "இருந்தாலும்": 3811,
      "ஜெயல": 3812,
      "##ஃப்": 3813,
      "நடந்தது": 3814,
      "##க்கொண்டு": 3815,
      "யார்": 3816,
      "மேம்ப": 3817,
      "##டுகளை": 3818,
      "குறிப்பாக": 3819,
      "##வதால்": 3820,
      "பொருட்க": 3821,
      "மக்களுக்கு": 3822,
      "அந்தப்": 3823,
      "சினி": 3824,
      "##ட்டா": 3825,
      "பணியா": 3826,
      "முஸ்லி": 3827,
      "##ில்லி": 3828,
      "சம்பவ": 3829,
      "##வந்த": 3830,
      "அபி": 3831,
      "##ரத்தில்": 3832,
      "##ுற": 3833,
      "கிருஷ்ண": 3834,
      "நடி": 3835,
      "தேர்ந்த": 3836,
      "இராணுவ": 3837,
      "##ோதும்": 3838,
      "எதிர்ப்பு": 3839,
      "டாக": 3840,
      "##ய்ய": 3841,
      "வீடியோ": 3842,
      "##பட்ட": 3843,
      "##ணு": 3844,
      "##nd": 3845,
      "##தியான": 3846,
      "சுதந்திர": 3847,
      "ஓட்ட": 3848,
      "வரவே": 3849,
      "##ூர்வ": 3850,
      "வலியு": 3851,
      "உண்ட": 3852,
      "மாணவர்கள்": 3853,
      "பகுதிகளில்": 3854,
      "ஸ்ப": 3855,
      "தவற": 3856,
      "##ஞர்": 3857,
      "ஜெயலலி": 3858,
      "##விரு": 3859,
      "##டியில்": 3860,
      "குறிப்பிடத்தக்கது": 3861,
      "விருது": 3862,
      "##பாடு": 3863,
      "பதில்": 3864,
      "திருமணம்": 3865,
      "##ிழமை": 3866,
      "##ங்கம்": 3867,
      "##ியுடன்": 3868,
      "விமர்": 3869,
      "வெளியிட்டு": 3870,
      "##வியை": 3871,
      "##சே": 3872,
      "இவர": 3873,
      "##ரீ": 3874,
      "##ிகா": 3875,
      "##ங்களிலும்": 3876,
      "##ணும்": 3877,
      "சுய": 3878,
      "##ப்பதற்கு": 3879,
      "எரி": 3880,
      "முறையில்": 3881,
      "நிறைய": 3882,
      "சட்டமன்ற": 3883,
      "##வார்": 3884,
      "##ர்களும்": 3885,
      "வலியுறு": 3886,
      "##த்துப்": 3887,
      "##விழ": 3888,
      "வெற்ற": 3889,
      "மருத்து": 3890,
      "##ச்சர்": 3891,
      "கட்சியின்": 3892,
      "என்பதால்": 3893,
      "21": 3894,
      "வளர்ச்சி": 3895,
      "ஆளு": 3896,
      "யு": 3897,
      "##்த்": 3898,
      "பிரச்னை": 3899,
      "திருமண": 3900,
      "அடிக்க": 3901,
      "##விடு": 3902,
      "பாதிக்கப்பட்ட": 3903,
      "நடிகர்": 3904,
      "உள": 3905,
      "அரை": 3906,
      "மொழ": 3907,
      "வலை": 3908,
      "##களைப்": 3909,
      "அழைக்க": 3910,
      "##நாட்டில்": 3911,
      "##நிதி": 3912,
      "உங்க": 3913,
      "மாற": 3914,
      "போக்குவர": 3915,
      "சப": 3916,
      "##ing": 3917,
      "குள": 3918,
      "வணிக": 3919,
      "நன்ற": 3920,
      "பல்கலைக்கழக": 3921,
      "அரி": 3922,
      "##ளவில்": 3923,
      "படத்தில்": 3924,
      "பதவி": 3925,
      "மன்ற": 3926,
      "##த்தகைய": 3927,
      "கர்": 3928,
      "##ிலே": 3929,
      "##ur": 3930,
      "முயற்சி": 3931,
      "##le": 3932,
      "##டியும்": 3933,
      "பிரதி": 3934,
      "இந்தியாவின்": 3935,
      "திட்டம்": 3936,
      "##ாளராக": 3937,
      "ல்": 3938,
      "முன்னே": 3939,
      "ஆற்ற": 3940,
      "ஈடுபட்ட": 3941,
      "சால": 3942,
      "##தன்": 3943,
      "ஸ்டால": 3944,
      "##நீர்": 3945,
      "##நுட்ப": 3946,
      "தரு": 3947,
      "##வச": 3948,
      "நடத்தி": 3949,
      "பிரிவு": 3950,
      "காட்ச": 3951,
      "தொடர்பில்": 3952,
      "காவல்": 3953,
      "##ம்தான்": 3954,
      "##ிரா": 3955,
      "விண்ண": 3956,
      "சிலர்": 3957,
      "விளையாட்டு": 3958,
      "##ன்ட்": 3959,
      ").": 3960,
      "தன்னை": 3961,
      "##ிறு": 3962,
      "வார்த்த": 3963,
      "அழைத்து": 3964,
      "##ப்பர்": 3965,
      "எனது": 3966,
      "அடுத்து": 3967,
      "##த்தே": 3968,
      "##கொள்ள": 3969,
      "பாகி": 3970,
      "இறுதி": 3971,
      "பயிற்சி": 3972,
      "வருகிறார்": 3973,
      "எழுத": 3974,
      "கோப": 3975,
      "##்துறை": 3976,
      "##ழும்ப": 3977,
      "வீடு": 3978,
      "உருவாக": 3979,
      "தட": 3980,
      "##த்துள்ள": 3981,
      "அதாவது": 3982,
      "##தியின்": 3983,
      "வாங்கி": 3984,
      "கோரிக்கை": 3985,
      "அமைந்துள்ள": 3986,
      "புரிந்து": 3987,
      "டெல்ல": 3988,
      "ரயில்": 3989,
      "##ங்களைப்": 3990,
      "மகன்": 3991,
      "அம்ம": 3992,
      "மற": 3993,
      "##மிக்க": 3994,
      "##லிய": 3995,
      "வருமான": 3996,
      "##ion": 3997,
      "நாட்டில்": 3998,
      "##ரியில்": 3999,
      "##ூரில்": 4000,
      "வெளியிட்ட": 4001,
      "ஆட்ட": 4002,
      "திமுக": 4003,
      "உட்பட": 4004,
      "கிழக்கு": 4005,
      "கம": 4006,
      "தாம": 4007,
      "விழா": 4008,
      "வர்த்த": 4009,
      "ஒப்பந்த": 4010,
      "எச்ச": 4011,
      "ப்": 4012,
      "##ிறான்": 4013,
      "##ந்தர": 4014,
      "தாய்": 4015,
      "##மண": 4016,
      "##க்கள": 4017,
      "அறிக்கை": 4018,
      "##ராஜ்": 4019,
      "##ரசு": 4020,
      "##வதற்காக": 4021,
      "##வருக்கும்": 4022,
      "##டல்": 4023,
      "##த்தைத்": 4024,
      "ஏன": 4025,
      "அனைவரும்": 4026,
      "உண்மை": 4027,
      "உள்": 4028,
      "புத்தக": 4029,
      "22": 4030,
      "இவர்கள்": 4031,
      "##வோம்": 4032,
      "##வீன": 4033,
      "நவ": 4034,
      "செய்தனர்": 4035,
      "கார்": 4036,
      "##னவே": 4037,
      "##ோர": 4038,
      "கூறு": 4039,
      "##ைத்": 4040,
      "உடனடியாக": 4041,
      "##ய்வ": 4042,
      "சம்பவம்": 4043,
      "மாற்று": 4044,
      "வாழ்வ": 4045,
      "விருப்ப": 4046,
      "நடத்திய": 4047,
      "போலீஸ்": 4048,
      "##ீட்டு": 4049,
      "##த்துல": 4050,
      "ஜே": 4051,
      "தன்ன": 4052,
      "ரே": 4053,
      "##ளான": 4054,
      "ஏற்ற": 4055,
      "##க்ஸ்": 4056,
      "##திகளை": 4057,
      "எழுதி": 4058,
      "உற்பத்தி": 4059,
      "ஆல": 4060,
      "திருவ": 4061,
      "அறிக்க": 4062,
      "ஒழு": 4063,
      "##ளது": 4064,
      "##சல்": 4065,
      "##ன்ஸ்": 4066,
      "##டிக": 4067,
      "##க்கண": 4068,
      "வெளியிட": 4069,
      "பழைய": 4070,
      "வேண்டாம்": 4071,
      "##ாமி": 4072,
      "##ஃப": 4073,
      "போட": 4074,
      "சென்னையில்": 4075,
      "##மதி": 4076,
      "நூற்றா": 4077,
      "எத": 4078,
      "சாலை": 4079,
      "மருத்துவமனை": 4080,
      "பால்": 4081,
      "பஞ்ச": 4082,
      "##த்திட்ட": 4083,
      "40": 4084,
      "சமய": 4085,
      "வலி": 4086,
      "தோன்ற": 4087,
      "நோக்கி": 4088,
      "சம்பந்த": 4089,
      "##றையை": 4090,
      "சிறுவ": 4091,
      "##வதற்கான": 4092,
      "ஏற்கனவே": 4093,
      "23": 4094,
      "ஸ்க": 4095,
      "தொழில்நுட்ப": 4096,
      "(\"": 4097,
      "உடன்": 4098,
      "##ண்டிய": 4099,
      "##ிருக்கிறார்கள்": 4100,
      "##ப்பட்டன": 4101,
      "மணிக்கு": 4102,
      "இரண்டாவது": 4103,
      "கம்ப": 4104,
      "அம்ப": 4105,
      "##த்தியில்": 4106,
      "அறிமுக": 4107,
      "கற்ப": 4108,
      "பார்ப்ப": 4109,
      "கொஞ்சம்": 4110,
      "மஹ": 4111,
      "##மின்": 4112,
      "மாநக": 4113,
      "பலர்": 4114,
      "குழந்தைகள்": 4115,
      "ரஜ": 4116,
      "பேரு": 4117,
      "கிட": 4118,
      "தெரிவித்த": 4119,
      "##ழல்": 4120,
      "அறிவிக்க": 4121,
      "##ோட்ட": 4122,
      "##சர": 4123,
      "இருப்பது": 4124,
      "நிற்க": 4125,
      "தலைமைய": 4126,
      "##னார்": 4127,
      "வெங்க": 4128,
      "அப்பா": 4129,
      "##போல்": 4130,
      "##நர்": 4131,
      "##டாக": 4132,
      "பிடி": 4133,
      "##ஸ்திர": 4134,
      "##ின்று": 4135,
      "##ாலான": 4136,
      "வைத்திய": 4137,
      "##வதில்லை": 4138,
      "News": 4139,
      "##போல": 4140,
      "கடன்": 4141,
      "கடவு": 4142,
      "##ப்படவில்லை": 4143,
      "சான்": 4144,
      "##நே": 4145,
      "##ாளைய": 4146,
      "நடு": 4147,
      "##கின்றன": 4148,
      "##ஸார்": 4149,
      "அதன்ப": 4150,
      "##றித்து": 4151,
      "சேர்ந்து": 4152,
      "##ிக்கொண்ட": 4153,
      "##மான்": 4154,
      "##ரியா": 4155,
      "##குதியில்": 4156,
      "மேற்கு": 4157,
      "பட்டிய": 4158,
      "புகார்": 4159,
      "சார்ந்த": 4160,
      "இங்கே": 4161,
      "லி": 4162,
      "##ில்தான்": 4163,
      "தமது": 4164,
      "மார்": 4165,
      "போட்டி": 4166,
      "அருகில்": 4167,
      "இருக்கிற": 4168,
      "கூட்டம்": 4169,
      "சபை": 4170,
      "ராணுவ": 4171,
      "வழக்கில்": 4172,
      "இடம்பெற்ற": 4173,
      "##ிறி": 4174,
      "##னுடைய": 4175,
      "அந்தக்": 4176,
      "சிந்த": 4177,
      "நுழை": 4178,
      "##ஸ்தான": 4179,
      "##றையின்": 4180,
      "பொதுவாக": 4181,
      "##பதி": 4182,
      "##டர்": 4183,
      "ஐக்கிய": 4184,
      "##னிடம்": 4185,
      "ஆலோசனை": 4186,
      "பாவ": 4187,
      "##ற்றும்": 4188,
      "நடைமுறை": 4189,
      "சோதனை": 4190,
      "மாறி": 4191,
      "மக்களை": 4192,
      "##ப்பும்": 4193,
      "நமது": 4194,
      "##ினம்": 4195,
      "பொருள்": 4196,
      "அளவுக்கு": 4197,
      "சூழ்": 4198,
      "பயன்படுத்து": 4199,
      "நினைவு": 4200,
      "புதி": 4201,
      "செய்யப்பட்டு": 4202,
      "##ப்படம்": 4203,
      "##வுள்ள": 4204,
      "இவரது": 4205,
      "மலை": 4206,
      "இக்கோ": 4207,
      "ஆகியோ": 4208,
      "பன்ன": 4209,
      "பாஜ": 4210,
      "கருத": 4211,
      "பொருட்கள்": 4212,
      "படிக்க": 4213,
      "##ணியில்": 4214,
      "சரியான": 4215,
      "##னிய": 4216,
      "##ர்ட": 4217,
      "போராட்டம்": 4218,
      "எனக்": 4219,
      "போதும்": 4220,
      "திகதி": 4221,
      "டை": 4222,
      "##ai": 4223,
      "சந்தேக": 4224,
      "முருக": 4225,
      "செய்வது": 4226,
      "பாக": 4227,
      "##த்துள்ளார்": 4228,
      "கூட்டணி": 4229,
      "ஓட்டு": 4230,
      "நம்பிக்கை": 4231,
      "##ப்பிய": 4232,
      "##களைக்": 4233,
      "##ங்கியது": 4234,
      "##ழ்க": 4235,
      "இந்தத்": 4236,
      "விவசாயிகள்": 4237,
      "அரசாங்கம்": 4238,
      "அச்ச": 4239,
      "சொல்க": 4240,
      "##th": 4241,
      "அமைந்துள்ளது": 4242,
      "தடுப்பூசி": 4243,
      "##ol": 4244,
      "##ம்பர": 4245,
      "சட்டம்": 4246,
      "பக்த": 4247,
      "அதிபர்": 4248,
      "##தள": 4249,
      "கொல்ல": 4250,
      "தலைமையில்": 4251,
      "நிச்ச": 4252,
      "உட்க": 4253,
      "##ஷா": 4254,
      "##மாகக்": 4255,
      "அணு": 4256,
      "##னியா": 4257,
      "வழியாக": 4258,
      "நிமிட": 4259,
      "##ோதைய": 4260,
      "##ாதாரண": 4261,
      "சகோத": 4262,
      "கேரள": 4263,
      "##ன்த": 4264,
      "கூறியுள்ளார்": 4265,
      "in": 4266,
      "##ியூ": 4267,
      "வரலாறு": 4268,
      "அறு": 4269,
      "##ர்ப்பு": 4270,
      "போர்": 4271,
      "##ப்பாடு": 4272,
      "ஒன்றை": 4273,
      "பங்க": 4274,
      "இன்றைய": 4275,
      "இலக்கிய": 4276,
      "வடக்கு": 4277,
      "பரிசோதனை": 4278,
      "##ீன்": 4279,
      "##னோ": 4280,
      "##ுமா": 4281,
      "அலை": 4282,
      "##வாய்": 4283,
      "##ழிப்பு": 4284,
      "198": 4285,
      "கண்டி": 4286,
      "##ன்னி": 4287,
      "நெரு": 4288,
      "செய்தார்": 4289,
      "முக்கியமான": 4290,
      "##டுக்கும்": 4291,
      "ஆகியவற்ற": 4292,
      "கல்லூரி": 4293,
      "போக்குவரத்து": 4294,
      "##மம்": 4295,
      "##ஸி": 4296,
      "##ஸ்வர": 4297,
      "##ாஸ்": 4298,
      "விவர": 4299,
      "பின்ப": 4300,
      "27": 4301,
      "பேரும்": 4302,
      "நிறுவனங்கள்": 4303,
      "பிரச்சினை": 4304,
      "வாய்": 4305,
      "படத்தின்": 4306,
      "##விட்டார்": 4307,
      "யாரும்": 4308,
      "கவு": 4309,
      "##ட்டத்தில்": 4310,
      "வங்கி": 4311,
      "குர": 4312,
      "போட்டியில்": 4313,
      "கூட்டு": 4314,
      "ரூபாய": 4315,
      "##வேன்": 4316,
      "பயங்க": 4317,
      "விளக்க": 4318,
      "விரைவில்": 4319,
      "முடிந்த": 4320,
      "அதிமுக": 4321,
      "##ாதம்": 4322,
      "அடிப்படை": 4323,
      "##்ற": 4324,
      "##ீக": 4325,
      "##னால": 4326,
      "பாரா": 4327,
      "வந்தார்": 4328,
      "##el": 4329,
      "##ெனில்": 4330,
      "நிறுத்த": 4331,
      "##டிப்பு": 4332,
      "##ங்களைக்": 4333,
      "வரைய": 4334,
      "##ராள": 4335,
      "நகை": 4336,
      "##’’": 4337,
      "##்க்கு": 4338,
      "ஸ்டாலின்": 4339,
      "கவர்": 4340,
      "இருவரும்": 4341,
      "காத்த": 4342,
      "##ில்லியன்": 4343,
      "குளி": 4344,
      "##கிறார்": 4345,
      "தாக்கல்": 4346,
      "கிட்ட": 4347,
      "##முத": 4348,
      "சூரிய": 4349,
      "கும்ப": 4350,
      "வாடிக்க": 4351,
      "உறுப்பினர்": 4352,
      "##ழ்த்த": 4353,
      "##ருடன்": 4354,
      "##ண்மை": 4355,
      "வெப்ப": 4356,
      "உரிய": 4357,
      "வருகின்றன": 4358,
      "##யோ": 4359,
      "கம்": 4360,
      "கிரிக்க": 4361,
      "வகுப்பு": 4362,
      "##ளோ": 4363,
      "##ிகர": 4364,
      "யாழ": 4365,
      "##ay": 4366,
      "கணி": 4367,
      "தடுக்க": 4368,
      "##ெழு": 4369,
      "எதிர்பார்க்க": 4370,
      "எதுவும்": 4371,
      "நன்றாக": 4372,
      "##வர்களில்": 4373,
      "மருத்துவமனையில்": 4374,
      "செலவு": 4375,
      "ட்": 4376,
      "மான": 4377,
      "வசி": 4378,
      "போத": 4379,
      "##ாந்து": 4380,
      "சந்திர": 4381,
      "பரபர": 4382,
      "எப்போதும்": 4383,
      "##ிலி": 4384,
      "##மாகவும்": 4385,
      "26": 4386,
      "##தாகும்": 4387,
      "தெரிவித்துள்ளது": 4388,
      "இடையே": 4389,
      "##ிற்று": 4390,
      "ரொம்ப": 4391,
      "##ாடி": 4392,
      "அழி": 4393,
      "வெளியாக": 4394,
      "##னையை": 4395,
      "கோவை": 4396,
      "வண்ண": 4397,
      "##ம்க": 4398,
      "அதிகாரி": 4399,
      "மக்கள": 4400,
      "எதிரான": 4401,
      "குழுவ": 4402,
      "மரண": 4403,
      "நடித்து": 4404,
      "##பட்ச": 4405,
      "நியூ": 4406,
      "அவருடைய": 4407,
      "திட்டமி": 4408,
      "வியாபார": 4409,
      "##ையு": 4410,
      "பரிந்து": 4411,
      "##்பு": 4412,
      "##ையோ": 4413,
      "உள்ளார்": 4414,
      "##ாக்க": 4415,
      "தேடி": 4416,
      "இருப்பினும்": 4417,
      "##லான": 4418,
      "இன்னொரு": 4419,
      "அவசியம்": 4420,
      "##ன்கு": 4421,
      "கொழும்ப": 4422,
      "வாக்க": 4423,
      "பாலியல்": 4424,
      "ஜெயலலிதா": 4425,
      "காந்தி": 4426,
      "##வதில்": 4427,
      "the": 4428,
      "##ஜா": 4429,
      "பெரும்பாலான": 4430,
      "தயாரிக்க": 4431,
      "இதையடுத்து": 4432,
      "அனுப்பி": 4433,
      "விசாரி": 4434,
      "##ந்தனர்": 4435,
      "ஏற்பட": 4436,
      "நல்லது": 4437,
      "மதிப்பு": 4438,
      "கலா": 4439,
      "##re": 4440,
      "##த்தினர்": 4441,
      "பிடித்து": 4442,
      "##ுவது": 4443,
      "நிறுவனத்தின்": 4444,
      "##ிலிருந்த": 4445,
      "நம்ம": 4446,
      "##ங்களது": 4447,
      "##சாலை": 4448,
      "ஒதுக்க": 4449,
      "தந்தை": 4450,
      "##ட்ஸ்": 4451,
      "00": 4452,
      "##முகம்": 4453,
      "இயற்கை": 4454,
      "பேருக்கு": 4455,
      "வர்த்தக": 4456,
      "விஜய்": 4457,
      "இங்கில": 4458,
      "நமக்கு": 4459,
      "##மிருந்து": 4460,
      "##ொன்ற": 4461,
      "பேச்சு": 4462,
      "28": 4463,
      "##கே": 4464,
      "தள்ள": 4465,
      "வித்திய": 4466,
      "##மில்லை": 4467,
      "##ாணி": 4468,
      "##வேளை": 4469,
      "தென்": 4470,
      "##தார": 4471,
      "இருந்தார்": 4472,
      "##ாப்": 4473,
      "இருக்கலாம்": 4474,
      "சக்தி": 4475,
      "##ஷி": 4476,
      "குறிப்பிட்டு": 4477,
      "##த்திரம்": 4478,
      "நீதிமன்றம்": 4479,
      "##ானி": 4480,
      "கோவில": 4481,
      "நெருக்க": 4482,
      "காதல்": 4483,
      "மேற்க": 4484,
      "##த்துவம்": 4485,
      "``": 4486,
      "##us": 4487,
      "##ரிமை": 4488,
      "நாட்கள்": 4489,
      "குழந்த": 4490,
      "குற்றச்ச": 4491,
      "எவ்வளவு": 4492,
      "அமெரிக்கா": 4493,
      "ஒப்பு": 4494,
      "தடுப்பு": 4495,
      "##மன்": 4496,
      "##க்குச்": 4497,
      "முதன்": 4498,
      "##ேஷ்": 4499,
      "##ட்ரோ": 4500,
      "கழு": 4501,
      "எனினும்": 4502,
      "##க்கூடாது": 4503,
      "ஹெ": 4504,
      "##ட்சிய": 4505,
      "தொடங்கி": 4506,
      "##ப்படுத்தி": 4507,
      "வாடிக்கைய": 4508,
      "கடும்": 4509,
      "##க்கால": 4510,
      "துடுப்ப": 4511,
      "##ஞ்": 4512,
      "##டுவது": 4513,
      "ஒருங்கி": 4514,
      "இச": 4515,
      "வன": 4516,
      "ஆய்வ": 4517,
      "மட்டுமல்ல": 4518,
      "கைப்ப": 4519,
      "புத்த": 4520,
      "ஒருங்கிணை": 4521,
      "இவ்": 4522,
      "##க்குத்": 4523,
      "##ையைப்": 4524,
      "தாக்குத": 4525,
      "வாய்ப்ப": 4526,
      "உரிமைய": 4527,
      "கிறி": 4528,
      "##எஸ்": 4529,
      "##ையால்": 4530,
      "##த்ய": 4531,
      "உடனே": 4532,
      "ஜீ": 4533,
      "##id": 4534,
      "##வினர்": 4535,
      "தற்கொ": 4536,
      "##மணி": 4537,
      "நோக்க": 4538,
      "படுக": 4539,
      "சுட்ட": 4540,
      "சேர்ந்தவர்": 4541,
      "ஈடுபட்டு": 4542,
      "அந்": 4543,
      "உல": 4544,
      "நடக்கும்": 4545,
      "சிறை": 4546,
      "ராஜப": 4547,
      "##ch": 4548,
      "##ாளர்களை": 4549,
      "சமீபத்தில்": 4550,
      "டாக்டர்": 4551,
      "\")": 4552,
      "மட்ட": 4553,
      "சுற்றி": 4554,
      "##ந்தா": 4555,
      "பேசு": 4556,
      "##க்கிறது": 4557,
      "##வைத்": 4558,
      "முதலமை": 4559,
      "கொண்டுள்ளது": 4560,
      "கவனம்": 4561,
      "பிடித்த": 4562,
      "கிடைய": 4563,
      "##்களில்": 4564,
      "##றுத்த": 4565,
      "##த்திரை": 4566,
      "நடைபெற்றது": 4567,
      "நடித்த": 4568,
      "நின்று": 4569,
      "##ரால்": 4570,
      "##்டோ": 4571,
      "பண்ட": 4572,
      "தை": 4573,
      "மத்தியில்": 4574,
      "##வக": 4575,
      "##ளியில்": 4576,
      "##விட்டால்": 4577,
      "##ாளர்களுக்கு": 4578,
      "தாக்குதல்": 4579,
      "பெரும்பாலும்": 4580,
      "ஆதரவு": 4581,
      "இடைய": 4582,
      "படைய": 4583,
      "##ப்படுத்தும்": 4584,
      "பறி": 4585,
      "உழை": 4586,
      "திருத்த": 4587,
      "##ூர": 4588,
      "பேரா": 4589,
      "சன": 4590,
      "##ூன்": 4591,
      "##தில்லை": 4592,
      "##நகர்": 4593,
      "எதிர்க்க": 4594,
      "197": 4595,
      "##ந்திரன்": 4596,
      "சொத்து": 4597,
      "அளித்த": 4598,
      "ஹி": 4599,
      "##க்குழு": 4600,
      "கருணா": 4601,
      "##விடம்": 4602,
      "குற": 4603,
      "##ிருந்தால்": 4604,
      "நடிகை": 4605,
      "பாஜக": 4606,
      "ஆரோ": 4607,
      "ஒலி": 4608,
      "##ற்றில்": 4609,
      "கீழே": 4610,
      "உரையா": 4611,
      "கர்நா": 4612,
      "எமது": 4613,
      "வன்": 4614,
      "எடுத்துக்": 4615,
      "கண்": 4616,
      "##வன": 4617,
      "வழங்கு": 4618,
      "##முறைய": 4619,
      "சேக": 4620,
      "##தற்காக": 4621,
      "நாடுகள்": 4622,
      "வது": 4623,
      "##சரி": 4624,
      "இரண்டாம்": 4625,
      "மார்ச்": 4626,
      "யாழ்ப்ப": 4627,
      "தகவல்கள்": 4628,
      "சிரி": 4629,
      "’’": 4630,
      "##ீட்ட": 4631,
      "##ப்பட்டார்": 4632,
      "தொடர்": 4633,
      "இருப்பதாக": 4634,
      "பயன்படுத்தி": 4635,
      "தற்கொலை": 4636,
      "##ென்று": 4637,
      "சிங்க": 4638,
      "அன்ற": 4639,
      "##ag": 4640,
      "##விட்": 4641,
      "பரிந்துரை": 4642,
      "எட": 4643,
      "##கிற": 4644,
      "தயாரிப்பு": 4645,
      "பொதுமக்கள்": 4646,
      "500": 4647,
      "அளவ": 4648,
      "##ர்ட்": 4649,
      "##சால": 4650,
      "##ஹ்": 4651,
      "##ையைக்": 4652,
      "மீன": 4653,
      "தாக்க": 4654,
      "பழனி": 4655,
      "##த்திற்கும்": 4656,
      "சாதாரண": 4657,
      "##ம்மா": 4658,
      "##ிருப்பது": 4659,
      "நடத்து": 4660,
      "2011": 4661,
      "கோவில்": 4662,
      "சித்த": 4663,
      "பெயரில்": 4664,
      "கதா": 4665,
      "மூத்த": 4666,
      "ஆண்டுகளுக்கு": 4667,
      "எதிர்பார": 4668,
      "யான": 4669,
      "##ாமா": 4670,
      "தெரியும்": 4671,
      "மீதான": 4672,
      "இதுகு": 4673,
      "அங்கே": 4674,
      "##சூ": 4675,
      "##ப்த": 4676,
      "##லிக்க": 4677,
      "மொத்தம்": 4678,
      "எண்ணெய்": 4679,
      "தீர்வு": 4680,
      "துடுப்பாட்ட": 4681,
      "தெரிந்து": 4682,
      "##ஸ்திரே": 4683,
      "க்க": 4684,
      "##ருமான": 4685,
      "##செய்ய": 4686,
      "கிடையாது": 4687,
      "தரும்": 4688,
      "##டுகளில்": 4689,
      "என்பவர்": 4690,
      "ஆண்டுகள்": 4691,
      "##பால": 4692,
      "##ிருந்தனர்": 4693,
      "ஆசிரியர்": 4694,
      "இவற்ற": 4695,
      "கமி": 4696,
      "வல்ல": 4697,
      "தொழிற": 4698,
      "பார்வைய": 4699,
      "பிள்ளை": 4700,
      "சசிக": 4701,
      "##ள்ளன": 4702,
      "##த்துக்கும்": 4703,
      "காப்பா": 4704,
      "##ற்கால": 4705,
      "சற்று": 4706,
      "##வான்": 4707,
      "##சோ": 4708,
      "பகி": 4709,
      "நெடு": 4710,
      "##கன்": 4711,
      "##ாளையம்": 4712,
      "நடிக்க": 4713,
      "##ப்பதி": 4714,
      "தமிழர்": 4715,
      "##ங்களால்": 4716,
      "##களால்": 4717,
      "##க்கர்": 4718,
      "அவசர": 4719,
      "சித": 4720,
      "தினமும்": 4721,
      "சரியாக": 4722,
      "கழக": 4723,
      "பருவ": 4724,
      "உள்ளே": 4725,
      "எல்லோ": 4726,
      "இழு": 4727,
      "மற்றொரு": 4728,
      "எழுத்த": 4729,
      "2015": 4730,
      "##ையிலும்": 4731,
      "செல்க": 4732,
      "##ப்படுகின்றது": 4733,
      "நிகழ்வு": 4734,
      "பிரே": 4735,
      "##னுடன்": 4736,
      "வேத": 4737,
      "##க்கா": 4738,
      "கூறப்படுகிறது": 4739,
      "எதிர்கால": 4740,
      "நகரில்": 4741,
      "மும்ப": 4742,
      "வட்டார": 4743,
      "##தேச": 4744,
      "##ையுடன்": 4745,
      "அதிகமான": 4746,
      "2020": 4747,
      "எல்லை": 4748,
      "##ர்களில்": 4749,
      "மதிப்ப": 4750,
      "29": 4751,
      "பேசி": 4752,
      "உதார": 4753,
      "பக்கம்": 4754,
      "##வடை": 4755,
      "நினைக்க": 4756,
      "35": 4757,
      "60": 4758,
      "நாட": 4759,
      "நாளில்": 4760,
      "of": 4761,
      "பிரதம": 4762,
      "##றையினர்": 4763,
      "முன்வை": 4764,
      "தேர்ந்தெடுக்க": 4765,
      "மாறு": 4766,
      "முழுமையாக": 4767,
      "##நீதி": 4768,
      "அறை": 4769,
      "##டனும்": 4770,
      "முற்ற": 4771,
      "##ினார்கள்": 4772,
      "பராம": 4773,
      "##ிருக்கிற": 4774,
      "மிகு": 4775,
      "இலவச": 4776,
      "கூடுதல்": 4777,
      "மகா": 4778,
      "ஒன்றிய": 4779,
      "##ராட்ச": 4780,
      "டிச": 4781,
      "காட்சி": 4782,
      "##ன்னா": 4783,
      "மிகப்பெ": 4784,
      "இருப்பதால்": 4785,
      "##மாகப்": 4786,
      "வழங்கும்": 4787,
      "அஞ்ச": 4788,
      "##கர": 4789,
      "##ணய": 4790,
      "பாராளுமன்ற": 4791,
      "##ொருள்": 4792,
      "ஏப்": 4793,
      "##ங்கல்": 4794,
      "அணை": 4795,
      "சார": 4796,
      "நன்றி": 4797,
      "##வாள": 4798,
      "##வருக": 4799,
      "##ிட்டி": 4800,
      "கிரிக்கெட்": 4801,
      "தேச": 4802,
      "அபிவிரு": 4803,
      "##ப்பிக்க": 4804,
      "பரிசு": 4805,
      "சினிமா": 4806,
      "அடிக்கடி": 4807,
      "ஆடை": 4808,
      "நவீன": 4809,
      "##ள்ளதாக": 4810,
      "தவிர்க்க": 4811,
      "மய": 4812,
      "##தைப்": 4813,
      "உறவு": 4814,
      "வெள்ளை": 4815,
      "##லால்": 4816,
      "கிடைத்த": 4817,
      "மூட": 4818,
      "196": 4819,
      "சந்தை": 4820,
      "படத்தை": 4821,
      "கண்காணி": 4822,
      "திடீர": 4823,
      "நீதிபதி": 4824,
      "இவ": 4825,
      "##டியை": 4826,
      "பயணம்": 4827,
      "நடைபெற": 4828,
      "நம்பிக்க": 4829,
      "##வையில்": 4830,
      "##ரியாத": 4831,
      "சிறப்பாக": 4832,
      "அறிந்த": 4833,
      "##வெளி": 4834,
      "பொருத்த": 4835,
      "அதிகரித்து": 4836,
      "அவற்றை": 4837,
      "##ென்றால்": 4838,
      "31": 4839,
      "##னான": 4840,
      "வேற": 4841,
      "திறக்க": 4842,
      "குற்றம்": 4843,
      "##os": 4844,
      "##ளிட": 4845,
      "##ாய்வு": 4846,
      "விவகார": 4847,
      "##றது": 4848,
      "லாப": 4849,
      "##களைத்": 4850,
      "மாணவ": 4851,
      "கவலை": 4852,
      "மகிழ்ச்ச": 4853,
      "##ட்டார்": 4854,
      "செய்திகள்": 4855,
      "முடியவில்லை": 4856,
      "ஊரடங்கு": 4857,
      "அதிர": 4858,
      "தீப": 4859,
      "கூட்டத்தில்": 4860,
      "ஏற்பட்டது": 4861,
      "பொலிஸ்": 4862,
      "தொடர்ந்த": 4863,
      "##ரவாத": 4864,
      "ஆரோக்கிய": 4865,
      "பெற்றோ": 4866,
      "பயிற்ச": 4867,
      "ரக": 4868,
      "சிங்கள": 4869,
      "கடல்": 4870,
      "இருக்கிறார்": 4871,
      "கேள்வ": 4872,
      "உப்பு": 4873,
      "##த்தீ": 4874,
      "கடற்ப": 4875,
      "##ஸ்டர்": 4876,
      "மேற்கொண்ட": 4877,
      "சர்க்க": 4878,
      "பரு": 4879,
      "தக்க": 4880,
      "பிரா": 4881,
      "பூஜ": 4882,
      "க்கு": 4883,
      "துப்பா": 4884,
      "சவ": 4885,
      "##ரக": 4886,
      "##ir": 4887,
      "காம": 4888,
      "னு": 4889,
      "சாத்திய": 4890,
      "2019": 4891,
      "ஆச": 4892,
      "எழுத்து": 4893,
      "ஆயுத": 4894,
      "சுற்றுலா": 4895,
      "பலரும்": 4896,
      "பகுதியை": 4897,
      "உன்": 4898,
      "ஐரோ": 4899,
      "##ற்றை": 4900,
      "##ent": 4901,
      "##க்கர": 4902,
      "என்றாலும்": 4903,
      "பிடிக்க": 4904,
      "அடிப்படைய": 4905,
      "##ாற": 4906,
      "##ந்தர்": 4907,
      "குறு": 4908,
      "கொண்டது": 4909,
      "அனைத்தும்": 4910,
      "##ேசன்": 4911,
      "அன": 4912,
      "முன்னர்": 4913,
      "கன்ன": 4914,
      "தெரு": 4915,
      "ஆகியவை": 4916,
      "##கொண்டு": 4917,
      "##ன்னுடைய": 4918,
      "##ொட": 4919,
      "##ானா": 4920,
      "##வர்களும்": 4921,
      "தற்போதைய": 4922,
      "ஓடி": 4923,
      "கப்ப": 4924,
      "கவிதை": 4925,
      "##ரிட": 4926,
      "வழங்கி": 4927,
      "நீதிமன்றத்தில்": 4928,
      "உத்த": 4929,
      "இதுகுறித்து": 4930,
      "நாம": 4931,
      "என்கிறார்": 4932,
      "ஊர்": 4933,
      "ஏமா": 4934,
      "தெரிந்த": 4935,
      "##மடைந்த": 4936,
      "##ணன்": 4937,
      "##முள்ள": 4938,
      "பட்டியல்": 4939,
      "##மைக்க": 4940,
      "உலகம்": 4941,
      "புதிதாக": 4942,
      "?”": 4943,
      "மண்ண": 4944,
      "##ாதி": 4945,
      "##லூர்": 4946,
      "விதிக்க": 4947,
      "பணிகள்": 4948,
      "கடைசி": 4949,
      "நாடுகளில்": 4950,
      "புகைப்பட": 4951,
      "##டியான": 4952,
      "செய்தது": 4953,
      "##களிலும்": 4954,
      "இயக்குனர்": 4955,
      "முறையாக": 4956,
      "##ொண்ட": 4957,
      "##த்தள": 4958,
      "கொள்கை": 4959,
      "கையில்": 4960,
      "##ஷம்": 4961,
      "பிள": 4962,
      "மாற்றம்": 4963,
      "ஆவண": 4964,
      "....": 4965,
      "பாகிஸ்தான்": 4966,
      "##ாலே": 4967,
      "அமைந்த": 4968,
      "செய்யப்பட்டது": 4969,
      "உணர்வு": 4970,
      "மேற்கொண்டு": 4971,
      "##புரி": 4972,
      "உதவு": 4973,
      "##ச்சேரி": 4974,
      "##களுடன்": 4975,
      "##ற்ச": 4976,
      "வேளா": 4977,
      "##ாவிற்கு": 4978,
      "அறிவியல்": 4979,
      "அப்படியே": 4980,
      "நகர்": 4981,
      "##ெக்டர்": 4982,
      "தக": 4983,
      "##த்திலேயே": 4984,
      "கொண்டார்": 4985,
      "தீர்ப்ப": 4986,
      "நன்கு": 4987,
      "முது": 4988,
      "சதவீத": 4989,
      "##க்குக்": 4990,
      "##வதும்": 4991,
      "தண்ணீ": 4992,
      "இலங்கையில்": 4993,
      "நிறைவேற்ற": 4994,
      "பல்ல": 4995,
      "##லைய": 4996,
      "##ங்கில்": 4997,
      "சிங்": 4998,
      "வித்தியாச": 4999,
      "கற்று": 5000,
      "நபர்": 5001,
      "##ப்பாடி": 5002,
      "உத்தரவு": 5003,
      "ஏழு": 5004,
      "நின்ற": 5005,
      "அவரின்": 5006,
      "தெரிக": 5007,
      "தெய்வ": 5008,
      "##முதல்": 5009,
      "தவறு": 5010,
      "நாட்களுக்கு": 5011,
      "முஸ்லிம்": 5012,
      "##ுள்ளார்": 5013,
      "##நிலைய": 5014,
      "##ன்களை": 5015,
      "மிர": 5016,
      "##டியா": 5017,
      "நிபு": 5018,
      "ஏற்பாடு": 5019,
      "விலக": 5020,
      "இந்ந": 5021,
      "டெல்லி": 5022,
      "45": 5023,
      "டோ": 5024,
      "##வினை": 5025,
      "சுத்த": 5026,
      "இருக்கின்றன": 5027,
      "அலங்க": 5028,
      "##மொழி": 5029,
      "தண்டனை": 5030,
      "மிகப்பெரிய": 5031,
      "ராகு": 5032,
      "##பட": 5033,
      "##டுக்கு": 5034,
      "முர": 5035,
      "விட்டது": 5036,
      "அனுபவ": 5037,
      "க்": 5038,
      "தரி": 5039,
      "##ணமாக": 5040,
      "##சனம்": 5041,
      "##ul": 5042,
      "##ந்தில்": 5043,
      "நடைபெறும்": 5044,
      "கார்த்த": 5045,
      "எங்களுக்கு": 5046,
      "முந்த": 5047,
      "நிலையம்": 5048,
      "அச்சு": 5049,
      "பேச்சுவ": 5050,
      "ஆனாலும்": 5051,
      "சந்தோ": 5052,
      "எத்தனை": 5053,
      "பத்து": 5054,
      "##ென்": 5055,
      "புள்ள": 5056,
      "செய்யலாம்": 5057,
      "உறவின": 5058,
      "அறிந்து": 5059,
      "பிரச்சனை": 5060,
      "ஏதாவது": 5061,
      "##ியுள்ளனர்": 5062,
      "##ல்களில்": 5063,
      "நிகழ்ச்சி": 5064,
      "பொறுப்பு": 5065,
      "மஞ்ச": 5066,
      "##த்தோடு": 5067,
      "தேர்": 5068,
      "முதன்மை": 5069,
      "தலைவர்கள்": 5070,
      "கட்டுப்பா": 5071,
      "##ப்பாட்டில்": 5072,
      "நிபுண": 5073,
      "தனிப்பட்ட": 5074,
      "தயாராக": 5075,
      "வார்த்தை": 5076,
      "##tt": 5077,
      "##்குமார்": 5078,
      "பின்பு": 5079,
      "நிலைமை": 5080,
      "சிறிது": 5081,
      "##மய": 5082,
      "இந்தச்": 5083,
      "தொக": 5084,
      "##லையில்": 5085,
      "பிரச": 5086,
      "நீங்க": 5087,
      "கௌ": 5088,
      "காப்ப": 5089,
      "##ுக்": 5090,
      "##ூப": 5091,
      "ஆதார": 5092,
      "##்ச்சி": 5093,
      "##ரிப்பு": 5094,
      "ஆண்": 5095,
      "சமைய": 5096,
      "செப்ட": 5097,
      "##ாதே": 5098,
      "பொருட்களை": 5099,
      "பேருந்து": 5100,
      "அதிகரிக்க": 5101,
      "##ப்பதற்காக": 5102,
      "நன்மை": 5103,
      "மின்ன": 5104,
      "##ுமி": 5105,
      "சக்த": 5106,
      "உட்பட்ட": 5107,
      "##ாகக்": 5108,
      "தொலைக்க": 5109,
      "##ப்பட்டுள்ளனர்": 5110,
      "குறைவாக": 5111,
      "தினம்": 5112,
      "நிலையத்தில்": 5113,
      "##படுத்த": 5114,
      "இறந்த": 5115,
      "##நீதிமன்ற": 5116,
      "வர்": 5117,
      "பயன": 5118,
      "உதவிய": 5119,
      "நானும்": 5120,
      "இத்த": 5121,
      "தகு": 5122,
      "##த்தினை": 5123,
      "தெலு": 5124,
      "##முடிய": 5125,
      "தமிழகம்": 5126,
      "உயிர்": 5127,
      "விகி": 5128,
      "ஆவார்": 5129,
      "நட்ச": 5130,
      "ஏதோ": 5131,
      "நாவ": 5132,
      "கூடுத": 5133,
      "கரை": 5134,
      "மார்க": 5135,
      "##ிடு": 5136,
      "##ண்டில்": 5137,
      "##ரும்பு": 5138,
      "பணியில்": 5139,
      "வளர்ச்ச": 5140,
      "ஏராள": 5141,
      "மில்லியன்": 5142,
      "##ூட்ட": 5143,
      "முனை": 5144,
      "ஆண்டுகளாக": 5145,
      "மாநிலம்": 5146,
      "தெரிவித்தனர்": 5147,
      "அறிவிப்பு": 5148,
      "உன": 5149,
      "##ேசிய": 5150,
      "சகோதர": 5151,
      "விசாரண": 5152,
      "சந்தித்து": 5153,
      "தலைய": 5154,
      "தர்ம": 5155,
      "வழங்குவ": 5156,
      "அத்துடன்": 5157,
      "வகி": 5158,
      "முதலீடு": 5159,
      "விடய": 5160,
      "அடைந்த": 5161,
      "ஜனநாயக": 5162,
      "விய": 5163,
      "##கிறார்கள்": 5164,
      "காஷ்": 5165,
      "வழக்கறி": 5166,
      "அடையாளம்": 5167,
      "##மற்ற": 5168,
      "##ங்கோ": 5169,
      "##ம்பரம்": 5170,
      "##ற்பு": 5171,
      "##ங்களே": 5172,
      "சந்திக்க": 5173,
      "மூலமாக": 5174,
      "பட்டு": 5175,
      "##ஸில்": 5176,
      "##ப்பம்": 5177,
      "சீனா": 5178,
      "மண்டல": 5179,
      "லே": 5180,
      "ரத்த": 5181,
      "##க்கத்தில்": 5182,
      "பெங்கள": 5183,
      "தஞ்ச": 5184,
      "##ரையில்": 5185,
      "##ஷ்ய": 5186,
      "##மாள்": 5187,
      "பொறுத்த": 5188,
      "##ொழுது": 5189,
      "உள்ளட": 5190,
      "நேரடியாக": 5191,
      "நடவடிக்கைகள்": 5192,
      "##ine": 5193,
      "நியமி": 5194,
      "அவு": 5195,
      "சும": 5196,
      "##ியைப்": 5197,
      "மாநிலத்தில்": 5198,
      "கவனி": 5199,
      "பேச்சுவார்த்த": 5200,
      "யாழ்": 5201,
      "உறுப்பினர்கள்": 5202,
      "தமிழ்நாட்டில்": 5203,
      "மிள": 5204,
      "2021": 5205,
      "##ia": 5206,
      "பெரி": 5207,
      "பிப்": 5208,
      "##வரையும்": 5209,
      "2018": 5210,
      "எதிர்த்து": 5211,
      "##ாராய": 5212,
      "பாரு": 5213,
      "நிதிய": 5214,
      "!''": 5215,
      "?''": 5216,
      "பிரான்": 5217,
      "இருக்கிறார்கள்": 5218,
      ".”": 5219,
      "##ாட்ச": 5220,
      "##கின்றனர்": 5221,
      "##மர": 5222,
      "விதை": 5223,
      "தெரியவில்லை": 5224,
      "கடுமையான": 5225,
      "உடைய": 5226,
      "டு": 5227,
      "##தர்": 5228,
      "பயங்கரவாத": 5229,
      "##ூல்": 5230,
      "##ப்ர": 5231,
      "வாழ்த்து": 5232,
      "செல்வ": 5233,
      "இத்தகைய": 5234,
      "களை": 5235,
      "##மல்ல": 5236,
      "##od": 5237,
      "##ண்டர்": 5238,
      "வெறும்": 5239,
      "முன்னெ": 5240,
      "##யல்": 5241,
      "##மாய்": 5242,
      "##ணர்வு": 5243,
      "##ct": 5244,
      "##்க்": 5245,
      "கருவ": 5246,
      "ராஜா": 5247,
      "மலைய": 5248,
      "##த்திற்காக": 5249,
      "##ிகள": 5250,
      "அண்ணா": 5251,
      "ஓய்வு": 5252,
      "தம்ப": 5253,
      "ஏனெனில்": 5254,
      "இளம்": 5255,
      "எல": 5256,
      "லீ": 5257,
      "##விகி": 5258,
      "##ப்பின": 5259,
      "இதற்க": 5260,
      "கமல்": 5261,
      "பேராசிரிய": 5262,
      "\",": 5263,
      "ஒட்டு": 5264,
      "கரோ": 5265,
      "வில்": 5266,
      "##ak": 5267,
      "##க்கவும்": 5268,
      "##ாலய": 5269,
      "திருவிழ": 5270,
      "வீரர்கள்": 5271,
      "அட்ட": 5272,
      "கழ": 5273,
      "ரத்து": 5274,
      "வெறு": 5275,
      "ஆனா": 5276,
      "##ண்டா": 5277,
      "வென்ற": 5278,
      "ஆன்லை": 5279,
      "ஆதி": 5280,
      "உங்களை": 5281,
      "தன்னுடைய": 5282,
      "##ப்பதாக": 5283,
      "##ிக்கிழமை": 5284,
      "வழியில்": 5285,
      "##ப்படாத": 5286,
      "##போதும்": 5287,
      "நடைபெற்று": 5288,
      "##ிற்கும்": 5289,
      "##ாளர்களின்": 5290,
      "தொழிற்ச": 5291,
      "##க்களின்": 5292,
      "##க்கொள்": 5293,
      "கட்டுரை": 5294,
      "##ப்பட்டுள்ளதாக": 5295,
      "படுத்த": 5296,
      "##ிகளையும்": 5297,
      "##வுள்ளது": 5298,
      "சிற்ற": 5299,
      "உத்திய": 5300,
      "ஒத்து": 5301,
      "தாவ": 5302,
      "கடந்து": 5303,
      "##ிக்கொண்டு": 5304,
      "ஏப்ரல்": 5305,
      "தம்": 5306,
      "செவ்வ": 5307,
      "வளாக": 5308,
      "2016": 5309,
      "விக்": 5310,
      "##தாம்": 5311,
      "##ri": 5312,
      "சுர": 5313,
      "இதன்ப": 5314,
      "##ிருக்கலாம்": 5315,
      "விலங்கு": 5316,
      "நிகழ்வ": 5317,
      "திறந்து": 5318,
      "அபிவிருத்தி": 5319,
      "ஆசை": 5320,
      "விஷயம்": 5321,
      "எதிர்": 5322,
      "ஆழ": 5323,
      "##ீங்க": 5324,
      "##ாரின்": 5325,
      "##மாகி": 5326,
      "பகுதிக": 5327,
      "அரசுக்கு": 5328,
      "லெ": 5329,
      "##தியும்": 5330,
      "தலைவராக": 5331,
      "உலகின்": 5332,
      "##தற்கான": 5333,
      "மேலே": 5334,
      "வழங்கிய": 5335,
      "பாடல்": 5336,
      "##நாட்டின்": 5337,
      "##நாதன்": 5338,
      "மனம்": 5339,
      "மெல்ல": 5340,
      "##மையும்": 5341,
      "##்களின்": 5342,
      "##த்திரி": 5343,
      "##ஞ்ஞ": 5344,
      "கணக்கு": 5345,
      "ஒன்றாக": 5346,
      "மகள்": 5347,
      "##ரித்து": 5348,
      "##ண்ணு": 5349,
      "##ரோடு": 5350,
      "வாழும்": 5351,
      "மிகுந்த": 5352,
      "மார்க்க": 5353,
      "##ணிய": 5354,
      "##ிக்கப்பட்ட": 5355,
      "வசதி": 5356,
      "அதிர்ச்ச": 5357,
      "பெற்றது": 5358,
      "புதுட": 5359,
      "திரும்பி": 5360,
      "சது": 5361,
      "##ீம்": 5362,
      "##னையும்": 5363,
      "2017": 5364,
      "##சபை": 5365,
      "##போத": 5366,
      "கொண்டிருக்கும்": 5367,
      "##நிய": 5368,
      "நீதிப": 5369,
      "விசே": 5370,
      "ஆதரவ": 5371,
      "குற்றச்சாட்டு": 5372,
      "##ைட்": 5373,
      "பச்சை": 5374,
      "##ou": 5375,
      "##ிகு": 5376,
      "முன்த": 5377,
      "பிரதான": 5378,
      "பொலிஸார்": 5379,
      "அதற்கான": 5380,
      "தமிழ்த்": 5381,
      "வழங்கப்படும்": 5382,
      "படங்கள்": 5383,
      "எண்ணிக்க": 5384,
      "சதவிகி": 5385,
      "நடக்கிறது": 5386,
      "##்டோபர்": 5387,
      "தெரிகிறது": 5388,
      "##ையைத்": 5389,
      "195": 5390,
      "பக்கத்தில்": 5391,
      "பெறும்": 5392,
      "சாதி": 5393,
      "உற்ச": 5394,
      "நவம்பர்": 5395,
      "மார": 5396,
      "குவி": 5397,
      "செய்திய": 5398,
      "தோழ": 5399,
      "ஜனவரி": 5400,
      "அல்": 5401,
      "##வதாகவும்": 5402,
      "விழிப்பு": 5403,
      "பொழுது": 5404,
      "செய்யப்பட்டுள்ளது": 5405,
      "உயர்ந்த": 5406,
      "நிர்வாகம்": 5407,
      "சாதனை": 5408,
      "ஓர": 5409,
      "##ேட்": 5410,
      "வரலாற்று": 5411,
      "##தீ": 5412,
      "##க்குறி": 5413,
      "விடுத்து": 5414,
      "தோட்ட": 5415,
      "வீட்டுக்கு": 5416,
      "அழுத்த": 5417,
      "ஊழியர்கள்": 5418,
      "##க்கணக்கான": 5419,
      "தலைமையிலான": 5420,
      "இங்கிலாந்து": 5421,
      "பசு": 5422,
      "##யர்": 5423,
      "##ர்களாக": 5424,
      "##ாட்டில்": 5425,
      "பணத்தை": 5426,
      "வெளியான": 5427,
      "இம்": 5428,
      "குண்டு": 5429,
      "உயர": 5430,
      "முழுக்க": 5431,
      "முன்னணி": 5432,
      "நாட்களில்": 5433,
      "கடிதம்": 5434,
      "கர்நாடக": 5435,
      "அர்த்த": 5436,
      "பஸ்": 5437,
      "##சில": 5438,
      "##க்ச": 5439,
      "##த்தோ": 5440,
      "வழிக": 5441,
      "எவ்வாறு": 5442,
      "கண்டுபிடிக்க": 5443,
      "##மென": 5444,
      "##ந்துள்ளனர்": 5445,
      "##ினேன்": 5446,
      "##ுவை": 5447,
      "திருந": 5448,
      "தனக்கு": 5449,
      "ஆர்ப்ப": 5450,
      "அலுவலகத்தில்": 5451,
      "ஞான": 5452,
      "##ியைக்": 5453,
      "நேர்": 5454,
      "##வர்களாக": 5455,
      "வாரம்": 5456,
      "ஹீ": 5457,
      "##ாராம்": 5458,
      "##ரவரி": 5459,
      "முகம்": 5460,
      "அவனை": 5461,
      "ரு": 5462,
      "புனித": 5463,
      "வந்தால்": 5464,
      "##வீர்கள்": 5465,
      "பார்வை": 5466,
      "துண்டு": 5467,
      "மீன்": 5468,
      "##est": 5469,
      "கர்ப்ப": 5470,
      "##ஜன்": 5471,
      "நாடக": 5472,
      "குறைக்க": 5473,
      "நியாய": 5474,
      "##ரியும்": 5475,
      "கொண்டே": 5476,
      "##ிக்கொள்ள": 5477,
      "வாசி": 5478,
      "மீட்டர்": 5479,
      "முதலமைச்சர்": 5480,
      "##சர்": 5481,
      "காட்டி": 5482,
      "தொடர்ச்ச": 5483,
      "அணியின்": 5484,
      "கண்டறிய": 5485,
      "உண்மையில்": 5486,
      "##த்திற்கான": 5487,
      "##ாவிட": 5488,
      "முடியாமல்": 5489,
      "ஆண்டுகளில்": 5490,
      "தோற்ற": 5491,
      "##ந்தன்": 5492,
      "##ங்களுடன்": 5493,
      "கொண்டிருக்க": 5494,
      "##யமாக": 5495,
      "##ழில்": 5496,
      "##//": 5497,
      "செய்": 5498,
      "பெட்ரோ": 5499,
      "##ையைச்": 5500,
      "##ாட்டம்": 5501,
      "70": 5502,
      "இப்போ": 5503,
      "போலவே": 5504,
      "ஏற்பட்டுள்ளது": 5505,
      "செப்டம்பர்": 5506,
      "##க்ஷ": 5507,
      "##பிள்": 5508,
      "காணப்படும்": 5509,
      "பெற்றார்": 5510,
      "அனைவருக்கும்": 5511,
      "அவர்களது": 5512,
      "எடப்பாடி": 5513,
      "முன்தினம்": 5514,
      "##வொரு": 5515,
      "காய்க": 5516,
      "!!": 5517,
      "##ிருக்கு": 5518,
      "சதவீதம்": 5519,
      "உதவும்": 5520,
      "பாலி": 5521,
      "டிசம்பர்": 5522,
      "சேலம்": 5523,
      "மீட்க": 5524,
      "உண்மையான": 5525,
      "விபத்து": 5526,
      "##சையில்": 5527,
      "##பின்": 5528,
      "##ex": 5529,
      "##த்தூர்": 5530,
      "##ச்செய": 5531,
      "..!": 5532,
      "வயதில்": 5533,
      "ஏற": 5534,
      "##ம்மன்": 5535,
      "அதிகரிக்கும்": 5536,
      "கடின": 5537,
      "ஆந்திர": 5538,
      "##டிகள்": 5539,
      "##ப்பன்": 5540,
      "மோத": 5541,
      "##ாயிர": 5542,
      "நம்மை": 5543,
      "ஆண்கள்": 5544,
      "மழ": 5545,
      "##ொள்ள": 5546,
      "##டோ": 5547,
      "##ச்சா": 5548,
      "##ளிப்பு": 5549,
      "பவு": 5550,
      "##த்தேன்": 5551,
      "##ாகப்": 5552,
      "இயக்குநர்": 5553,
      "தெற்கு": 5554,
      "கிளை": 5555,
      "எழுந்த": 5556,
      "பேசினார்": 5557,
      "ஞாய": 5558,
      "திரி": 5559,
      "நொ": 5560,
      "ஹே": 5561,
      "##மிடம்": 5562,
      "##ாதா": 5563,
      "வெளிநாட்டு": 5564,
      "அம்ச": 5565,
      "ஜூன்": 5566,
      "ரசிகர்கள்": 5567,
      "சசிகலா": 5568,
      "உத்தியோக": 5569,
      "எட்டு": 5570,
      "பட்": 5571,
      "போன்று": 5572,
      "ஆஸ்திரே": 5573,
      "##களுக்கும்": 5574,
      "##ஸின்": 5575,
      "##எல்": 5576,
      "##்ப்": 5577,
      "##ையெல்லாம்": 5578,
      "அதனால": 5579,
      "##ப்பதற்கான": 5580,
      "தெரிவித்துள்ளனர்": 5581,
      "சர்க்கரை": 5582,
      "##ராம": 5583,
      "##வாறு": 5584,
      "இயந்திர": 5585,
      "புதுடில்லி": 5586,
      "##av": 5587,
      "##et": 5588,
      "எழுது": 5589,
      "பங்கேற்ற": 5590,
      "இப்பட": 5591,
      "ஷா": 5592,
      "##்களுக்கு": 5593,
      "சுற்ற": 5594,
      "விஞ்ஞ": 5595,
      "நான்க": 5596,
      "##ீர்க": 5597,
      "##்போ": 5598,
      "##லைக்": 5599,
      "கொடுப்ப": 5600,
      "இணைப்பு": 5601,
      "சட்டமன்றத்": 5602,
      "மட்டக்கள": 5603,
      "தற்கால": 5604,
      "##ாகவே": 5605,
      "ஆகவே": 5606,
      "மனதில்": 5607,
      "ஏற்படுத்தியுள்ளது": 5608,
      "அறிக்கையில்": 5609,
      "விரும்புக": 5610,
      "##நல": 5611,
      "##னது": 5612,
      "##த்தினால்": 5613,
      "##ிறீர்கள்": 5614,
      "கோட்ட": 5615,
      "சிறையில்": 5616,
      "நிவார": 5617,
      "விளம்பர": 5618,
      "அக்டோபர்": 5619,
      "டொ": 5620,
      "நோயாள": 5621,
      "##ப்பான்": 5622,
      "அவளை": 5623,
      "கொழும்பு": 5624,
      "ஊரில்": 5625,
      "##குமார்": 5626,
      "கடித": 5627,
      "##ா்": 5628,
      "##ச்சல்": 5629,
      "##ளித்த": 5630,
      "கடற்க": 5631,
      "போட்டிகளில்": 5632,
      "##ath": 5633,
      "இண": 5634,
      "இலை": 5635,
      "##um": 5636,
      "##ாகவும்": 5637,
      "என்னுடைய": 5638,
      "##ம்பரிய": 5639,
      "கூடுதலாக": 5640,
      "இவருக்கு": 5641,
      "கிரு": 5642,
      "பௌ": 5643,
      "##ik": 5644,
      "##iv": 5645,
      "மாற்றி": 5646,
      "காண்ப": 5647,
      "உருவாக்கு": 5648,
      "நிறைந்த": 5649,
      "##யிலில்": 5650,
      "சாம": 5651,
      "சமுத": 5652,
      "##க்கட்ட": 5653,
      "##வைத்து": 5654,
      "##ாட்டை": 5655,
      "போராட்டத்தில்": 5656,
      "தருக": 5657,
      "##த்ரா": 5658,
      "எனப்படும்": 5659,
      "##லுார்": 5660,
      "தொகுதியில்": 5661,
      "கலைஞ": 5662,
      "திடீரென": 5663,
      "ஏராளமான": 5664,
      "##ியல": 5665,
      "##ச்சூ": 5666,
      "##ட்டிங்": 5667,
      "##ிருப்பதாக": 5668,
      "கம்யூ": 5669,
      "தொண்ட": 5670,
      "எனப்": 5671,
      "எனத்": 5672,
      "மையம்": 5673,
      "நட்சத்திர": 5674,
      "தங்களது": 5675,
      "பந்து": 5676,
      "##மாவ": 5677,
      "பண்ப": 5678,
      "சங்கம்": 5679,
      "##ப்படுவது": 5680,
      "அழகு": 5681,
      "மூன்றாவது": 5682,
      "##றித": 5683,
      "இதய": 5684,
      "உடலில்": 5685,
      "ஒன்றில்": 5686,
      "##லியா": 5687,
      "##ot": 5688,
      "##லைப்": 5689,
      "##போன்ற": 5690,
      "பெண்களுக்கு": 5691,
      "ஸ்மார": 5692,
      "##லாமிய": 5693,
      "காவல்து": 5694,
      "ஆணை": 5695,
      "மெய": 5696,
      "##ிகளாக": 5697,
      "பொறிய": 5698,
      "பாரம்பரிய": 5699,
      "இறுதியில்": 5700,
      "ரீதியாக": 5701,
      "##ாட்": 5702,
      "##ொன்று": 5703,
      "முட": 5704,
      "குரல்": 5705,
      "இடையில்": 5706,
      "சாலையில்": 5707,
      "##ுரிமை": 5708,
      "##த்தட்ட": 5709,
      "##க்குள்ள": 5710,
      "சேமி": 5711,
      "விளக்கம்": 5712,
      "ஆயு": 5713,
      "##நாயகர்": 5714,
      "ஓவிய": 5715,
      "##்ட்ட": 5716,
      "காஞ்சி": 5717,
      "194": 5718,
      "தெரியவ": 5719,
      "அங்கீக": 5720,
      "சட": 5721,
      "##லையும்": 5722,
      "வந்தனர்": 5723,
      "படப்பி": 5724,
      "கொரோன": 5725,
      "பரிமா": 5726,
      "பான": 5727,
      "##த்தன்": 5728,
      "பாத்திர": 5729,
      "##முடைய": 5730,
      "கேட்ப": 5731,
      "கொள்ளலாம்": 5732,
      "எப்போது": 5733,
      "தெரிவிக்கப்பட்டுள்ளது": 5734,
      "##ப்பதில்": 5735,
      "ஆராய்ச்சி": 5736,
      "##டான": 5737,
      "அமைப்ப": 5738,
      "பணிகளை": 5739,
      "டிரை": 5740,
      "##ப்பதிவு": 5741,
      "முற்ப": 5742,
      "பாடசாலை": 5743,
      "எண்": 5744,
      "##ேகம்": 5745,
      "வின": 5746,
      "##ப்பட்டனர்": 5747,
      "என்பதே": 5748,
      "##வதன்": 5749,
      "பெயரை": 5750,
      "குடிநீர்": 5751,
      "வவு": 5752,
      "##பூர்வ": 5753,
      ",''": 5754,
      "லோக": 5755,
      "வின்": 5756,
      "##ப்பூ": 5757,
      "##ஸ்வ": 5758,
      "சுழ": 5759,
      "##தைக்": 5760,
      "பத்திரிக": 5761,
      "சாப்பிட": 5762,
      "ரஜினி": 5763,
      "இங்க": 5764,
      "உண்ண": 5765,
      "##ம்பா": 5766,
      "பூம": 5767,
      "பிரித்தான": 5768,
      "தகவல்களை": 5769,
      "##காரம்": 5770,
      "##ையையும்": 5771,
      "பாராட்டு": 5772,
      "கணக்கெ": 5773,
      "தயார்": 5774,
      "அரிய": 5775,
      "ஸ்த": 5776,
      "##ால்தான்": 5777,
      "கொண்டனர்": 5778,
      "பூசை": 5779,
      "உலகில்": 5780,
      "பெருமை": 5781,
      "முயன்ற": 5782,
      "##லாத": 5783,
      "பிரகா": 5784,
      "அமெரிக்காவில்": 5785,
      "##த்தொட": 5786,
      "காரிய": 5787,
      "தானே": 5788,
      "ஒப்படை": 5789,
      "##சில்": 5790,
      "Re": 5791,
      "ஹோ": 5792,
      "##பிர": 5793,
      "முன்னெடுக்க": 5794,
      "சொன்னார்": 5795,
      "80": 5796,
      "ஏழை": 5797,
      "##மில்ல": 5798,
      "தொடர": 5799,
      "திருச்சி": 5800,
      "மலேசிய": 5801,
      "ஆகியவற்றை": 5802,
      "##த்தலை": 5803,
      "தூக்கி": 5804,
      "எதிர்பார்த்த": 5805,
      "வெகு": 5806,
      "சேவ": 5807,
      "வசதிகள்": 5808,
      "தனிமை": 5809,
      "##ராஜன்": 5810,
      "செயல்பா": 5811,
      "கள்ள": 5812,
      "##ாடுகள்": 5813,
      "##டையில்": 5814,
      "##ளிர்": 5815,
      "இதற்காக": 5816,
      "##புர": 5817,
      "கடுமையாக": 5818,
      "தொற்ற": 5819,
      "துணி": 5820,
      "விளக்கு": 5821,
      "சுட்டிக்க": 5822,
      "32": 5823,
      "ஆசிய": 5824,
      "ஈழ": 5825,
      "##கத்தில்": 5826,
      "பிளா": 5827,
      "தேவையில்": 5828,
      "கிராமத்தில்": 5829,
      "பாய": 5830,
      "தமிழில்": 5831,
      ".....": 5832,
      "எழுப்ப": 5833,
      "2014": 5834,
      "பேசுவ": 5835,
      "கிட்டத்தட்ட": 5836,
      "மேலா": 5837,
      "திட்டத்தை": 5838,
      "இறந்து": 5839,
      "##ation": 5840,
      "36": 5841,
      "மரியாத": 5842,
      "##மன": 5843,
      "##செ": 5844,
      "##ண்க": 5845,
      "##ர்க்": 5846,
      "ஆகி": 5847,
      "மாவட்டங்களில்": 5848,
      "அடித்து": 5849,
      "கொள்ளும்": 5850,
      "##ஜித்": 5851,
      "இயக்கத்தில்": 5852,
      "தகுதி": 5853,
      "##ங்குவ": 5854,
      "##ின்றார்": 5855,
      "புகழ": 5856,
      "நிறுத்தி": 5857,
      "தெளிவாக": 5858,
      "ஒருநாள்": 5859,
      "கட்டுப்படுத்த": 5860,
      "முகாம": 5861,
      "விற்க": 5862,
      "​​": 5863,
      "##சுவ": 5864,
      "##தோடு": 5865,
      "##லத்தில்": 5866,
      "##இல்": 5867,
      "முத்து": 5868,
      "##ட்டுகள்": 5869,
      "ரவி": 5870,
      "##டத்தில்": 5871,
      "##ங்களுக்கும்": 5872,
      "##ின்றி": 5873,
      "நீக்க": 5874,
      "சீர": 5875,
      "சூப்பர்": 5876,
      "சென்றார்": 5877,
      "சுவாமி": 5878,
      "கூறியதாவது": 5879,
      "அதன்படி": 5880,
      "பகிர்ந்து": 5881,
      "##டுகிறார்": 5882,
      "##தாகக்": 5883,
      "போன்றவை": 5884,
      "மண்டப": 5885,
      "வளை": 5886,
      "மொபை": 5887,
      "திறந்த": 5888,
      "பதிலாக": 5889,
      "பிரதிநி": 5890,
      "##ரைய": 5891,
      "##ரையா": 5892,
      "##ப்புக்கு": 5893,
      "கோரி": 5894,
      "##டையை": 5895,
      "துன்ப": 5896,
      "பதவ": 5897,
      "கட்சிய": 5898,
      "நடவடிக்கைகளை": 5899,
      "வகையான": 5900,
      "மஹி": 5901,
      "கனி": 5902,
      "##மாய": 5903,
      "##ர்களால்": 5904,
      "பாண்ட": 5905,
      "இவ்வளவு": 5906,
      "##ரவை": 5907,
      "##ஸை": 5908,
      "வேள": 5909,
      "பேச்ச": 5910,
      "திணை": 5911,
      "கிராம்": 5912,
      "எந்தவொரு": 5913,
      "மாணவர்களுக்கு": 5914,
      "ஆட்சிய": 5915,
      "##மின்றி": 5916,
      "ஐரோப்பிய": 5917,
      "75": 5918,
      "##ப்புகளை": 5919,
      "வாழ்ந்த": 5920,
      "படுக்க": 5921,
      "குறைந்து": 5922,
      "வேளாண்": 5923,
      "ஆஜ": 5924,
      "இம்ம": 5925,
      "##த்ம": 5926,
      "தீர்ப்பு": 5927,
      "##ியைத்": 5928,
      "அக்": 5929,
      "அத்திய": 5930,
      "பிக": 5931,
      "##க்கூடும்": 5932,
      "அசை": 5933,
      "டால": 5934,
      "லை": 5935,
      "வால்": 5936,
      "##ாண்டு": 5937,
      "செயலக": 5938,
      "##ாலு": 5939,
      "வடிவமை": 5940,
      "ரெண்டு": 5941,
      "ஹை": 5942,
      "##ம்த": 5943,
      "##un": 5944,
      "வருடம்": 5945,
      "இருந்தன": 5946,
      "வருகை": 5947,
      "கொள்ளுங்கள்": 5948,
      "அணிய": 5949,
      "அறிக": 5950,
      "இளைஞர்": 5951,
      "சரா": 5952,
      "மதிய": 5953,
      "##im": 5954,
      "துறையில்": 5955,
      "அறிவித்த": 5956,
      "படிப்ப": 5957,
      "ஜூலை": 5958,
      "தவறான": 5959,
      "அன்ன": 5960,
      "வில்ல": 5961,
      "நாட்டை": 5962,
      "##ியைச்": 5963,
      "உருவாக்கிய": 5964,
      "இருப": 5965,
      "##ல்லா": 5966,
      "##ங்களைச்": 5967,
      "எதிர்ப்ப": 5968,
      "நடைபெறு": 5969,
      "பள்ளியில்": 5970,
      "விக": 5971,
      "##ினோம்": 5972,
      "காற்று": 5973,
      "##டைந்த": 5974,
      "வைத்துக்": 5975,
      "தன்மை": 5976,
      "இக்கோயில்": 5977,
      "##தையும்": 5978,
      "##றம்": 5979,
      "கொடுக்கும்": 5980,
      "க்கும்": 5981,
      "##ப்போக": 5982,
      "##ட்டுப்": 5983,
      "திட்டத்தின்": 5984,
      "உயிரிழந்த": 5985,
      "ஆடி": 5986,
      "மன்": 5987,
      "##வைக்க": 5988,
      "##ங்களைத்": 5989,
      "திராவிட": 5990,
      "படித்த": 5991,
      "முற்றிலும்": 5992,
      "கரோனா": 5993,
      "அண்": 5994,
      "ஈர": 5995,
      "வறு": 5996,
      "##ட்டுக்": 5997,
      "##னைப்": 5998,
      "பகுதிய": 5999,
      "வேண்டியது": 6000,
      "சூழலில்": 6001,
      "காவல்துறை": 6002,
      "to": 6003,
      "##டே": 6004,
      "##ட்டியில்": 6005,
      "##ும்பு": 6006,
      "[[": 6007,
      "##ஸா": 6008,
      "##ிகளுடன்": 6009,
      "##ச்சார": 6010,
      "##ினாலும்": 6011,
      "தொடர்புடைய": 6012,
      "##ாணம்": 6013,
      "##ப்பொரு": 6014,
      "##வுகளை": 6015,
      "உள்ளூர்": 6016,
      "##டுகின்றன": 6017,
      "##ஸ்பூன்": 6018,
      "வேகமாக": 6019,
      "சவு": 6020,
      "##ப்பய": 6021,
      "இதுதான்": 6022,
      "##ன்பது": 6023,
      "அவ்வளவு": 6024,
      "ஆலய": 6025,
      "தப்பி": 6026,
      "##வாங்க": 6027,
      "சொல்லும்": 6028,
      "உற்சாக": 6029,
      "ரஷ்ய": 6030,
      "##னல்": 6031,
      "சென்": 6032,
      "##மாட்ட": 6033,
      "கருணாநிதி": 6034,
      "com": 6035,
      "வலு": 6036,
      "##em": 6037,
      "விசாரிக்க": 6038,
      "கல்லு": 6039,
      "ரஜின": 6040,
      "திட்டமிட்டு": 6041,
      "பிப்ரவரி": 6042,
      "சமுதாய": 6043,
      "ஸ்வ": 6044,
      "##ov": 6045,
      "செய்தால்": 6046,
      "பிறப்பு": 6047,
      "கூட்டமை": 6048,
      "புகழ்": 6049,
      "திரைப்படம்": 6050,
      "மட்டக்களப்பு": 6051,
      "and": 6052,
      "அர்": 6053,
      "அப்புற": 6054,
      "பயணி": 6055,
      "வீரர்": 6056,
      "கிறிஸ்த": 6057,
      "முந்தைய": 6058,
      "பின": 6059,
      "மட": 6060,
      "குறிய": 6061,
      "சுரு": 6062,
      "கிளி": 6063,
      "இரத்த": 6064,
      "தாண்டி": 6065,
      "இழந்து": 6066,
      "இலங்கையின்": 6067,
      "திருப்பூர்": 6068,
      "வன்முறை": 6069,
      "##ாரை": 6070,
      "##ர்களிடம்": 6071,
      "கணவர்": 6072,
      "கஷ்ட": 6073,
      "மந்த": 6074,
      "##கையில்": 6075,
      "##ிறாள்": 6076,
      "பிற்ப": 6077,
      "தெரியாது": 6078,
      "கட்சிகள்": 6079,
      "]]": 6080,
      "புரோ": 6081,
      "சிவக": 6082,
      "##சீ": 6083,
      "##ெடுத்த": 6084,
      "##ங்க்": 6085,
      "பதவிய": 6086,
      "முக்கியத்துவம்": 6087,
      "வாய்ந்த": 6088,
      "சலு": 6089,
      "##பால்": 6090,
      "காலக": 6091,
      "ஆரம்பிக்க": 6092,
      "கூறுகையில்": 6093,
      "மருத்துவர்": 6094,
      "லிட்ட": 6095,
      "##ீழ": 6096,
      "வாங்கிய": 6097,
      "என்றே": 6098,
      "தொடங்கிய": 6099,
      "##வரான": 6100,
      "கொண்டாட": 6101,
      "சிலை": 6102,
      "##ெனவே": 6103,
      "காவிரி": 6104,
      "செயல்படுத்த": 6105,
      "ஆயிரத்து": 6106,
      "கவனிக்க": 6107,
      "மண்": 6108,
      "##ig": 6109,
      "##ஹி": 6110,
      "##ம்ஸ்": 6111,
      "செயற்க": 6112,
      "##க்கிழமை": 6113,
      "போகும்": 6114,
      "பட்டியலில்": 6115,
      "அற்ப": 6116,
      "##றேன்": 6117,
      "##லன்": 6118,
      "##ூறு": 6119,
      "பாராட்ட": 6120,
      "##ழ்வு": 6121,
      "##பாத்": 6122,
      "குடியரசு": 6123,
      "அட்டை": 6124,
      "இக்க": 6125,
      "தீய": 6126,
      "அமெரிக்காவின்": 6127,
      "எதிர்வ": 6128,
      "செங்க": 6129,
      "சேத": 6130,
      "பெரும": 6131,
      "நியமிக்க": 6132,
      "தொடங்கியது": 6133,
      "அதேபோல்": 6134,
      "சந்தித்த": 6135,
      "தொகுதிக்கும்": 6136,
      "ஊட": 6137,
      "##ாவால்": 6138,
      "வெட்ட": 6139,
      "##வேண்டிய": 6140,
      "கேம": 6141,
      "தேசியக்": 6142,
      "ஏற்கெனவே": 6143,
      "வருமானம்": 6144,
      "குறிப்பிட்டுள்ளார்": 6145,
      "ராகுல்": 6146,
      "ஆப்": 6147,
      "புற்று": 6148,
      "நூல்": 6149,
      "யாரு": 6150,
      "டெஸ்ட்": 6151,
      "செலுத்து": 6152,
      "அவற்றின்": 6153,
      "மும்பை": 6154,
      "நாராய": 6155,
      "வெளியில்": 6156,
      "என்பதும்": 6157,
      "##ங்குகிறது": 6158,
      "##ப்பிட": 6159,
      "முடிவெ": 6160,
      "வயதான": 6161,
      "தரப்பு": 6162,
      "அரிசி": 6163,
      "ஒழுங்கு": 6164,
      "இசைய": 6165,
      "துப்பாக்கி": 6166,
      "ஆன்லைன்": 6167,
      "எட்ட": 6168,
      "மந்திர": 6169,
      "##விக்கும்": 6170,
      "விழுப்பு": 6171,
      "##ானம்": 6172,
      "##ரைப்": 6173,
      "பார்க்கும்": 6174,
      "ஒத்துழை": 6175,
      "ஆக்கிர": 6176,
      "எடை": 6177,
      "##ap": 6178,
      "##ter": 6179,
      "##20": 6180,
      "##ம்ப்": 6181,
      "##க்குறை": 6182,
      "தொடக்க": 6183,
      "மென்": 6184,
      "புதுச்சேரி": 6185,
      "அலுவலகம்": 6186,
      "பழனிசாமி": 6187,
      "சுரே": 6188,
      "##ின்றோம்": 6189,
      "வருகிறார்கள்": 6190,
      "சொல்லிய": 6191,
      "முன்னேற்ற": 6192,
      "நெடுஞ்ச": 6193,
      "ரில": 6194,
      "##ப்பதை": 6195,
      "##ர்களுடன்": 6196,
      "##சித்து": 6197,
      "பிரிவில்": 6198,
      "ன்": 6199,
      "##ிடும்": 6200,
      "##லர்கள்": 6201,
      "உணர": 6202,
      "##ப்படுத்திய": 6203,
      "அறிவித்துள்ளது": 6204,
      "மகிழ்ச்சி": 6205,
      "யாழ்ப்பாண": 6206,
      "33": 6207,
      "##சேக": 6208,
      "வைக்கப்பட்ட": 6209,
      "செய்யப்படும்": 6210,
      "சாம்ப": 6211,
      "தனியாக": 6212,
      "கணக்கில்": 6213,
      "பரப்ப": 6214,
      "##விட்டர்": 6215,
      "நேரங்களில்": 6216,
      "தள்ளி": 6217,
      "விடும்": 6218,
      "##நாத்": 6219,
      "குடும்பத்தில்": 6220,
      "மரப": 6221,
      "ஏற்படுத்தி": 6222,
      "மணிய": 6223,
      "##ரர்": 6224,
      "##வையாக": 6225,
      "##கிரி": 6226,
      "அறிமுகம்": 6227,
      "எல்லாவ": 6228,
      "அழைப்பு": 6229,
      "வலுவ": 6230,
      "சர்வ": 6231,
      "##ரையும்": 6232,
      "##க்குரிய": 6233,
      "திருச்ச": 6234,
      "வழங்கப்பட்டது": 6235,
      "சைக்கி": 6236,
      "மஞ்சள்": 6237,
      "பெட்ரோல்": 6238,
      "மர்ம": 6239,
      "##ணங்கள்": 6240,
      "அவரிடம்": 6241,
      "காந்த": 6242,
      "##சியம்": 6243,
      "சந்தர்ப்ப": 6244,
      "மாணவர்": 6245,
      "அத்தகைய": 6246,
      "சாய": 6247,
      "##கர்": 6248,
      "கொழு": 6249,
      "போன்": 6250,
      "வாசக": 6251,
      "இருக்காது": 6252,
      "எழுந்து": 6253,
      "முடித்து": 6254,
      "நுக": 6255,
      "##க்குற": 6256,
      "##ினான்": 6257,
      "அதுவும்": 6258,
      "இலக்கு": 6259,
      "திறன்": 6260,
      "சம்பந்தப்பட்ட": 6261,
      "கைப்பற்ற": 6262,
      "ஊழல்": 6263,
      "தியாக": 6264,
      "##ூரு": 6265,
      "##ையிலிருந்து": 6266,
      "##றுப்பு": 6267,
      "விபர": 6268,
      "அமைத்து": 6269,
      "கடமை": 6270,
      "தீர்க்க": 6271,
      "உதய": 6272,
      "எதிர்வரும்": 6273,
      "எக்": 6274,
      "விண்": 6275,
      "போடு": 6276,
      "சமர்ப்ப": 6277,
      "பெற்றோர்": 6278,
      "##க்கோட்டை": 6279,
      "சான்றித": 6280,
      "தொலைக்காட்சி": 6281,
      "கம்யூனி": 6282,
      "ஃபே": 6283,
      "ஆச்ச": 6284,
      "##ங்கர்": 6285,
      "புத": 6286,
      "புரிய": 6287,
      "உள்ளதாக": 6288,
      "துவங்க": 6289,
      "ஆரம்பித்து": 6290,
      "வெளியிட்டுள்ள": 6291,
      "ஹீரோ": 6292,
      "##வையும்": 6293,
      "ஒருமுறை": 6294,
      "தேங்க": 6295,
      "வீட்டை": 6296,
      "வாழ்க்கையில்": 6297,
      "இஸ்லாமிய": 6298,
      "##ளிடையே": 6299,
      "மகளிர்": 6300,
      "படித்து": 6301,
      "அழுத்தம்": 6302,
      "##ெக்ட": 6303,
      "300": 6304,
      "எவ்": 6305,
      "##விற்கு": 6306,
      "##ின்படி": 6307,
      "குமார்": 6308,
      "செய்துள்ளது": 6309,
      "நிரந்தர": 6310,
      "இடம்பெற்று": 6311,
      "கிளம்ப": 6312,
      "##மூலம்": 6313,
      "ஒட்ட": 6314,
      "##ல்லி": 6315,
      "வருவதாக": 6316,
      "காரை": 6317,
      "##தாப": 6318,
      "##ிகளைக்": 6319,
      "எடுத்துக்க": 6320,
      "அதிர்ச்சி": 6321,
      "உரை": 6322,
      "அமைப்பின்": 6323,
      "நிர்வ": 6324,
      "##ிருக்கின்றன": 6325,
      "##நாயக்க": 6326,
      "இவற்றில்": 6327,
      "விசேட": 6328,
      "பிரித்தானிய": 6329,
      "நரே": 6330,
      "##யி": 6331,
      "##க்கப்பட்டுள்ளது": 6332,
      "நேரில்": 6333,
      "பொதுவான": 6334,
      "பெரும்பான்": 6335,
      "கனவு": 6336,
      "எச்சரிக்கை": 6337,
      "##ொலி": 6338,
      "வெவ்": 6339,
      "##ரைக்": 6340,
      "##ாமே": 6341,
      "##களைச்": 6342,
      "செயல்பட": 6343,
      "கதாபா": 6344,
      "சத்திய": 6345,
      "##டிக்": 6346,
      "போலி": 6347,
      "வழக்கம்": 6348,
      "##க்கொள்க": 6349,
      "குடும்பம்": 6350,
      "இச்ச": 6351,
      "##ப்பூர்": 6352,
      "##ட்டுக்கு": 6353,
      "குமார": 6354,
      "##ாலத்தில்": 6355,
      "##ரசி": 6356,
      "துரு": 6357,
      "மீட்ப": 6358,
      "கிண": 6359,
      "இருந்தும்": 6360,
      "##ிருக்கிறேன்": 6361,
      "காணாமல்": 6362,
      "கையெழு": 6363,
      "##ேஷ": 6364,
      "மோட்டார்": 6365,
      "அகில": 6366,
      "பற்றியும்": 6367,
      "st": 6368,
      "எங்கே": 6369,
      "புவ": 6370,
      "##மாத": 6371,
      "##மாகவே": 6372,
      "பாலா": 6373,
      "இறங்க": 6374,
      "குறிப்பிட்டார்": 6375,
      "உற்பத்திய": 6376,
      "மறந்து": 6377,
      "முருகன்": 6378,
      "பேச்சுவார்த்தை": 6379,
      "மஹிந்த": 6380,
      "அறிகுற": 6381,
      "##ொலை": 6382,
      "##ip": 6383,
      "##ப்பூர்வ": 6384,
      "##ங்கலம்": 6385,
      "பெர்": 6386,
      "புகு": 6387,
      "உயர்த்த": 6388,
      "அதைப்": 6389,
      "2009": 6390,
      "வீட்டிற்கு": 6391,
      "##வழ": 6392,
      "##ாதீர்கள்": 6393,
      "சிறுக": 6394,
      "##ப்படலாம்": 6395,
      "2013": 6396,
      "மாதத்தில்": 6397,
      "இளைய": 6398,
      "நண்பர்கள்": 6399,
      "பணியாற்ற": 6400,
      "முடிக்க": 6401,
      "வைக்கும்": 6402,
      "அனைத்தையும்": 6403,
      "கட்டணம்": 6404,
      "பார்த்தால்": 6405,
      "விவகாரம்": 6406,
      "சாதக": 6407,
      "ஆதரவாக": 6408,
      "வலியுறுத்தி": 6409,
      "##ழும்": 6410,
      "##ப்பாள": 6411,
      "##ந்தோ": 6412,
      "##டிக்கும்": 6413,
      "அவனுக்கு": 6414,
      "பேரில்": 6415,
      "சேர்த்த": 6416,
      "##ழ்ந்த": 6417,
      "மிகப்": 6418,
      "கட்டாய": 6419,
      "அவ்வாறு": 6420,
      "##ராய": 6421,
      "##றா": 6422,
      "##வுக்கும்": 6423,
      "மாறிய": 6424,
      "வருவது": 6425,
      "இரட்டை": 6426,
      "மேலாக": 6427,
      "விசாரணைக்கு": 6428,
      "##வள்": 6429,
      "##வழி": 6430,
      "முடிந்தது": 6431,
      "விடுதலைப்": 6432,
      "##நோய்": 6433,
      "குளிர": 6434,
      "நிமிடங்கள்": 6435,
      "தலா": 6436,
      "##வள": 6437,
      "முத்த": 6438,
      "குறுக": 6439,
      "முன்னதாக": 6440,
      "நிர்வாகிகள்": 6441,
      "##நோய": 6442,
      "ஆர்வம்": 6443,
      "சினிம": 6444,
      "பாகிஸ்தான": 6445,
      "அமைய": 6446,
      "##ாரும்": 6447,
      "##வைக்": 6448,
      "##ிருந்தன": 6449,
      "பழக்க": 6450,
      "ஏற்படுத்தும்": 6451,
      "மோசமான": 6452,
      "விமர்சன": 6453,
      "ஆக்": 6454,
      "##றவு": 6455,
      "##த்துக்காக": 6456,
      "வருவாய்": 6457,
      "கருப்பு": 6458,
      "பகுதியாக": 6459,
      "அமர்ந்த": 6460,
      "அங்கிருந்து": 6461,
      ".\"": 6462,
      "கப்": 6463,
      "##வால்": 6464,
      "##பான்": 6465,
      "##ுள்ளது": 6466,
      "##டனான": 6467,
      "##ut": 6468,
      "##வித்து": 6469,
      "கிடைத்தது": 6470,
      "குடியிரு": 6471,
      "ஆப்க": 6472,
      "சூழல்": 6473,
      "அதிரடி": 6474,
      "##ttp": 6475,
      "உன்ன": 6476,
      "##கூ": 6477,
      "##ேற்ற": 6478,
      "##ானே": 6479,
      "அதற்காக": 6480,
      "##றிவு": 6481,
      "துண": 6482,
      "..?": 6483,
      "கருது": 6484,
      "விடுமுறை": 6485,
      "இளைஞர்கள்": 6486,
      "ஆட்டோ": 6487,
      "90": 6488,
      "##ாவ்": 6489,
      "##ிக்காக": 6490,
      "அமில": 6491,
      "மாநிலங்களில்": 6492,
      "##ிற்கான": 6493,
      "##பேசி": 6494,
      "உண்டாகும்": 6495,
      "பன்னீர்": 6496,
      "பக்தர்கள்": 6497,
      "நிச்சயம்": 6498,
      "தொடர்ச்சியாக": 6499,
      "37": 6500,
      "##வனை": 6501,
      "##ைச்": 6502,
      "மீள": 6503,
      "பேராசிரியர்": 6504,
      "?’": 6505,
      "சபா": 6506,
      "பகவ": 6507,
      "யில்": 6508,
      "##கல்": 6509,
      "##ிருஷ்ணன்": 6510,
      "வெற்றிகர": 6511,
      "சிற்றூ": 6512,
      "ஏக்கர்": 6513,
      "தனு": 6514,
      "தடுத்து": 6515,
      "பலி": 6516,
      "மிக்க": 6517,
      "##ெடுத்து": 6518,
      "##ிகளால்": 6519,
      "வேலைவாய": 6520,
      "##ார்க்": 6521,
      "காய்ச்ச": 6522,
      "விழுந்து": 6523,
      "வேட்பாளர்": 6524,
      "://": 6525,
      "முல்லை": 6526,
      "இயல்ப": 6527,
      "அல்லா": 6528,
      "முடிவுக்கு": 6529,
      "எல்லோரும்": 6530,
      "http": 6531,
      "சூர்": 6532,
      "சம்ம": 6533,
      "விடுத்த": 6534,
      "குல": 6535,
      "கோரிக்க": 6536,
      "##ிக்ஸ்": 6537,
      "##லுடன்": 6538,
      "தெரியாத": 6539,
      "நினைத்து": 6540,
      "கண்டறி": 6541,
      "வாங்குவ": 6542,
      "அன்பு": 6543,
      "##க்களுக்கு": 6544,
      "##ந்தும்": 6545,
      "##ர்கள": 6546,
      "நிலையை": 6547,
      "தாங்க": 6548,
      "உணர்ந்த": 6549,
      "தமிழ்நாட்டின்": 6550,
      "நெல்": 6551,
      "விழாவில்": 6552,
      "துடுப்பாட்டப்": 6553,
      "on": 6554,
      "##og": 6555,
      "முட்டை": 6556,
      "வாச": 6557,
      "என்பதில்": 6558,
      "கல்லூரியில்": 6559,
      "மருத்துவர்கள்": 6560,
      "கடவுள்": 6561,
      "##ண்டன்": 6562,
      "சுல": 6563,
      "மீறி": 6564,
      "சென்றனர்": 6565,
      "மறுப": 6566,
      "உள்ப": 6567,
      "இராஜ": 6568,
      "##முறையில்": 6569,
      "##தைத்": 6570,
      "துறையின்": 6571,
      "இராம": 6572,
      "காலங்களில்": 6573,
      "வாழ்க": 6574,
      "செய்கிறது": 6575,
      "பத்திரிகை": 6576,
      "கட்டிட": 6577,
      "பூஜை": 6578,
      "வேண்டுமெ": 6579,
      "ஏனைய": 6580,
      "##ப்பகுதியில்": 6581,
      "இதழ்": 6582,
      "வாட": 6583,
      "2012": 6584,
      "உட்கார்": 6585,
      "##ர்களுக்கும்": 6586,
      "கலந்த": 6587,
      "கலெக்டர்": 6588,
      "2010": 6589,
      "வாயில": 6590,
      "நாட்களாக": 6591,
      "பின்பற்ற": 6592,
      "அய்ய": 6593,
      "தலி": 6594,
      "##மித்": 6595,
      "சிவா": 6596,
      "திருக்கோ": 6597,
      "கட்டட": 6598,
      "கட்டுப்பாட்டில்": 6599,
      "அகற்ற": 6600,
      "அரசியல்வாத": 6601,
      "விழுந்த": 6602,
      "ஜா": 6603,
      "தம்பி": 6604,
      "ராம்": 6605,
      "##ார்ட்": 6606,
      "நிலம்": 6607,
      "ஆகஸ்ட்": 6608,
      "சந்திப்பு": 6609,
      "அற்புத": 6610,
      "ஆக்கிரமி": 6611,
      ".[": 6612,
      "##ீல்": 6613,
      "##பட்டு": 6614,
      "சேர": 6615,
      "##சிங்க": 6616,
      "193": 6617,
      "##போன்": 6618,
      "குழந்தைகளுக்கு": 6619,
      "ஆணையம்": 6620,
      "தற்காலிக": 6621,
      "விழுப்புரம்": 6622,
      "வெவ்வேறு": 6623,
      "எச்": 6624,
      "லோ": 6625,
      "##ிறகு": 6626,
      "பொன்ன": 6627,
      "உருவான": 6628,
      "கலந்துரையா": 6629,
      "மித": 6630,
      "வாழ்ந்து": 6631,
      "ஏதே": 6632,
      "கற்க": 6633,
      "முடிக": 6634,
      "##ங்களா": 6635,
      "உயர்ந்து": 6636,
      "##ப்பதில்லை": 6637,
      "மூன்றாம்": 6638,
      "எதையும்": 6639,
      "ராஜபக்ஷ": 6640,
      "காப்பாற்ற": 6641,
      "கந்த": 6642,
      "ரண": 6643,
      "##ித": 6644,
      "##சாரம்": 6645,
      "##எம்": 6646,
      "##த்ர": 6647,
      "முக்கியம்": 6648,
      "வெளிவந்த": 6649,
      "பாதுகாக்க": 6650,
      "வசூ": 6651,
      "##ையானது": 6652,
      "ஆட்சியில்": 6653,
      "ஒப்பந்தம்": 6654,
      "ஈரோடு": 6655,
      "##செல்": 6656,
      "##ென்ன": 6657,
      "##ac": 6658,
      "##க்கும்போது": 6659,
      "வைத்தார்": 6660,
      "##வாதி": 6661,
      "##ட்பட்ட": 6662,
      "மாதங்களுக்கு": 6663,
      "பயணிகள்": 6664,
      "ஆராய்ச்ச": 6665,
      "விஞ்ஞான": 6666,
      "எடுப்ப": 6667,
      "பாய்": 6668,
      "##தர": 6669,
      "##்கூட": 6670,
      "##த்தூ": 6671,
      "இருந்தனர்": 6672,
      "##வர்த்த": 6673,
      "##ழிவு": 6674,
      "முடிந்து": 6675,
      "##த்துக்குப்": 6676,
      "##விதமான": 6677,
      "பிரபலமான": 6678,
      "##வகு": 6679,
      "##ஹா": 6680,
      "##மேல்": 6681,
      "முன்னிட்டு": 6682,
      "உதாரணமாக": 6683,
      "எடுக்கும்": 6684,
      "சண்ட": 6685,
      "நர": 6686,
      "’,": 6687,
      "##றையும்": 6688,
      "##ப்பொ": 6689,
      "மூடி": 6690,
      "நகரம்": 6691,
      "சாதன": 6692,
      "கெட்ட": 6693,
      "தெலுங்கு": 6694,
      "கேமரா": 6695,
      "##ோல்": 6696,
      "##ட்சுமி": 6697,
      "ஒன்றும்": 6698,
      "##கொள்": 6699,
      "கலந்துகொண்ட": 6700,
      "வலைதள": 6701,
      "மொபைல்": 6702,
      "##களுக்கான": 6703,
      "##ணியின்": 6704,
      "##க்களில்": 6705,
      "முழ": 6706,
      "தரப்பில்": 6707,
      "மரணம்": 6708,
      "##ன்கொ": 6709,
      "மேம்படுத்த": 6710,
      "##பெய": 6711,
      "##த்தில": 6712,
      "##ரைச்": 6713,
      "தாங்கள்": 6714,
      "சட்டசபை": 6715,
      "இன்ப": 6716,
      "காலி": 6717,
      "வாசிக்க": 6718,
      "##வைப்": 6719,
      "##க்கியது": 6720,
      "பின்னால்": 6721,
      "இடத்தை": 6722,
      "அணுக": 6723,
      "நிகழ்ச்சியில்": 6724,
      "ரயில்வே": 6725,
      "பட்ஜ": 6726,
      "கணக்கெடுப்ப": 6727,
      "tamil": 6728,
      "அப்": 6729,
      "கப": 6730,
      "##ங்களு": 6731,
      "##ாலோ": 6732,
      "இதற்கான": 6733,
      "இதுபோன்ற": 6734,
      "சமாத": 6735,
      "கொண்டுவர": 6736,
      "முதலீட்ட": 6737,
      "சர்ச்சை": 6738,
      "நபர்கள்": 6739,
      "நிச்சயமாக": 6740,
      "வழக்கறிஞர்": 6741,
      "நரேந்திர": 6742,
      "இவர்க": 6743,
      "##ப்போது": 6744,
      "##ள்ளை": 6745,
      "மாய": 6746,
      "உடலை": 6747,
      "படகு": 6748,
      "கணவன்": 6749,
      "##and": 6750,
      "லாபம்": 6751,
      "கள்": 6752,
      "##ூப்": 6753,
      "சட்டத்தின்": 6754,
      "நுட்ப": 6755,
      "விதமாக": 6756,
      "சூழ்நிலை": 6757,
      "##பந்த": 6758,
      "##மின": 6759,
      "##ையன்": 6760,
      "கேப்ட": 6761,
      "அந்தத்": 6762,
      "உத்தரவிட்டு": 6763,
      "தொழிலாளர்கள்": 6764,
      "##மென்ட்": 6765,
      "##மூர்த்தி": 6766,
      "உனக்கு": 6767,
      "பெங்களூரு": 6768,
      "ஜென": 6769,
      "அவங்க": 6770,
      "நீள": 6771,
      "அதிகபட்ச": 6772,
      "உயர்வு": 6773,
      "குறைவான": 6774,
      "செய்வதற்கு": 6775,
      "##ப்பிரிக்க": 6776,
      "சிரம": 6777,
      "மாநகராட்சி": 6778,
      "வாடகை": 6779,
      "##மாம்": 6780,
      "##op": 6781,
      "##்பெ": 6782,
      "பிரசார": 6783,
      "##ாமலை": 6784,
      "நடன": 6785,
      "பேசும்": 6786,
      "நாடுகளின்": 6787,
      "##ியுள்ளன": 6788,
      "திடீர்": 6789,
      "##ளிடமிருந்து": 6790,
      "இத்தனை": 6791,
      "##ணத்தில்": 6792,
      "##ணிக்க": 6793,
      "என்னிடம்": 6794,
      "ஒருவரை": 6795,
      "உள்ளாட்சி": 6796,
      "அமைதி": 6797,
      "கருதி": 6798,
      "விமானம்": 6799,
      "##ாராஷ்ட": 6800,
      "டா": 6801,
      "##யின்": 6802,
      "##ow": 6803,
      "பெருமாள்": 6804,
      "நிறைவு": 6805,
      "பெண்களின்": 6806,
      "மன்னி": 6807,
      "சலுகை": 6808,
      "48": 6809,
      "தமிழர்கள்": 6810,
      "மீட்ட": 6811,
      "வந்துள்ளது": 6812,
      "சம்பள": 6813,
      "ஏனென்றால்": 6814,
      "நூற்றாண்டு": 6815,
      "சமையல்": 6816,
      "தாம்": 6817,
      "வத": 6818,
      "##யும்": 6819,
      "கான்": 6820,
      "எளிய": 6821,
      "சப்": 6822,
      "##கிக்க": 6823,
      "போதை": 6824,
      "##முறையை": 6825,
      "திரைய": 6826,
      "பரவி": 6827,
      "##ிகளைப்": 6828,
      "##ப்படுவதாக": 6829,
      "##ாறான": 6830,
      "சந்தோஷ": 6831,
      "அத்தனை": 6832,
      "##்று": 6833,
      "##ாடுக": 6834,
      "##மீர்": 6835,
      "குஜ": 6836,
      "போதுமான": 6837,
      "நினைத்த": 6838,
      "குறித்தும்": 6839,
      "##னையடுத்து": 6840,
      "கமிஷ": 6841,
      "##ராட்சியில்": 6842,
      "வவுனியா": 6843,
      "குறுகிய": 6844,
      "##கும்": 6845,
      "திண்டு": 6846,
      "செய்துள்ளனர்": 6847,
      "வைத்திருந்த": 6848,
      "அதிகரித்துள்ளது": 6849,
      "மின்சார": 6850,
      "சிந்தனை": 6851,
      "நீதிபதிகள்": 6852,
      "விழிப்புணர்வு": 6853,
      "சுட்டிக்காட்ட": 6854,
      "இவர்களில்": 6855,
      "ஊடாக": 6856,
      "##க்கின்": 6857,
      "##்டில்": 6858,
      "##ிகளுக்கும்": 6859,
      "##ளிக்கும்": 6860,
      "##வதற்கும்": 6861,
      "நிராக": 6862,
      "முடிவுகள்": 6863,
      "In": 6864,
      "சண்டை": 6865,
      "போதே": 6866,
      "இந்தி": 6867,
      "காலையில்": 6868,
      "வெளிப்படைய": 6869,
      "போலீஸார்": 6870,
      "பெண்களை": 6871,
      "ஜனாதிப": 6872,
      "தீவிரமாக": 6873,
      "மேலாண்மை": 6874,
      "தார": 6875,
      "##ப்பார்": 6876,
      "##வேலி": 6877,
      "பேரை": 6878,
      "##விட்டனர்": 6879,
      "இல்லைய": 6880,
      "அதிகாரம்": 6881,
      "செயல்பட்டு": 6882,
      "சிகிச்ச": 6883,
      "மைதான": 6884,
      "##றாங்க": 6885,
      "##ரும": 6886,
      "சந்தையில்": 6887,
      "செய்துள்ளார்": 6888,
      "பட்டம்": 6889,
      "விபத்தில்": 6890,
      "தள்ளு": 6891,
      "அண்மையில்": 6892,
      "ஆட": 6893,
      "டூ": 6894,
      "கோட்டை": 6895,
      "இயங்க": 6896,
      "இயக்கம்": 6897,
      "விவாத": 6898,
      "வாத": 6899,
      "##த்திற": 6900,
      "##ிகளிலும்": 6901,
      "தமிழீழ": 6902,
      "உறுதிய": 6903,
      "வெளியேற": 6904,
      "##ீஸ்வர": 6905,
      "##லாமா": 6906,
      "அரசியல": 6907,
      "கதாபாத்திர": 6908,
      "தங்களின்": 6909,
      "##ந்தம்": 6910,
      "காங்": 6911,
      "##மாக்க": 6912,
      "மூழ்க": 6913,
      "துரை": 6914,
      "படங்களில்": 6915,
      "வயத": 6916,
      "தூத்துக்கு": 6917,
      "நிர்ணய": 6918,
      "சோழ": 6919,
      "2008": 6920,
      "இளவ": 6921,
      "வேண்டுகோ": 6922,
      "அவ்வப்போது": 6923,
      "குறைந்தபட்ச": 6924,
      "##ப்தி": 6925,
      "குதிர": 6926,
      "மாள": 6927,
      "வழங்கப்பட்ட": 6928,
      "மிளக": 6929,
      "நிவாரண": 6930,
      "எல்லாவற்ற": 6931,
      "ஆச்சரிய": 6932,
      "re": 6933,
      "உன்னை": 6934,
      "நறு": 6935,
      "சுப": 6936,
      "குறிப்பு": 6937,
      "முடியுமா": 6938,
      "உருவ": 6939,
      "திட்டமிட": 6940,
      "சிறும": 6941,
      "ஆசிரியர்கள்": 6942,
      "பொறுத்தவரை": 6943,
      "ரன்கள்": 6944,
      "##சியில்": 6945,
      "##கின்ற": 6946,
      "##்டி": 6947,
      "##ாலா": 6948,
      "தெரியுமா": 6949,
      "செயலர்": 6950,
      "th": 6951,
      "ஒற்று": 6952,
      "நம": 6953,
      "பற்ற": 6954,
      "ஏற்படுத்து": 6955,
      "அமைச்சர்கள்": 6956,
      "##டித்தான்": 6957,
      "வாய்ப்புகள்": 6958,
      "தோல்வி": 6959,
      "38": 6960,
      "55": 6961,
      "ஆவது": 6962,
      "தங்களுக்கு": 6963,
      "##ணர்": 6964,
      "##ணிகள்": 6965,
      "##ாளில்": 6966,
      "பிழை": 6967,
      "வீச": 6968,
      "விட்டார்": 6969,
      "சுவார": 6970,
      "வேண்டுமான": 6971,
      "மார்ப": 6972,
      "##வகை": 6973,
      "கூடும்": 6974,
      "முன்னில": 6975,
      "அவர்களிடம்": 6976,
      "கூட்டமைப்பு": 6977,
      "##ராகவும்": 6978,
      "ஈடுபட்டனர்": 6979,
      "விண்ணப்ப": 6980,
      "கவுன்ச": 6981,
      "##ீர்களா": 6982,
      "முற்று": 6983,
      "வளர்க்க": 6984,
      "மாணவர்க": 6985,
      "இணைக்க": 6986,
      "சொந்தமான": 6987,
      "பறவை": 6988,
      "யானை": 6989,
      "கிரி": 6990,
      "உறுதியாக": 6991,
      "##சமான": 6992,
      "##ள்ளா": 6993,
      "##னுக்கும்": 6994,
      "சொற்க": 6995,
      "##ிருந்தாலும்": 6996,
      "உறுதிப்படுத்த": 6997,
      "##நடை": 6998,
      "##ேந்திர": 6999,
      "##க்களும்": 7000,
      "வெட்டி": 7001,
      "இயல்": 7002,
      "வருகிற": 7003,
      "##ெயில்": 7004,
      "##மொத்த": 7005,
      "On": 7006,
      "நிரு": 7007,
      "பத்த": 7008,
      "##யாண": 7009,
      "##னன்": 7010,
      "##மல": 7011,
      "##ஹாச": 7012,
      "##ப்போம்": 7013,
      "மாட": 7014,
      "பொன்": 7015,
      "##ப்பட்டுள்ளார்": 7016,
      "கல்விய": 7017,
      "கட்டுமான": 7018,
      "தளபதி": 7019,
      "இணையதள": 7020,
      "பங்கேற்க": 7021,
      "தேவையில்லை": 7022,
      "உள்பட": 7023,
      "ஃப்": 7024,
      "அமு": 7025,
      "அட்": 7026,
      "க்கள்": 7027,
      "ஜான்": 7028,
      "தட்ட": 7029,
      "தடு": 7030,
      "குற்றவாள": 7031,
      "வியாழ": 7032,
      "ஏற்றுக்": 7033,
      "##ப்பிரமண": 7034,
      "கூறுகிறார்": 7035,
      "ஐய": 7036,
      "##கூட": 7037,
      "கொட": 7038,
      "காது": 7039,
      "திருப்பி": 7040,
      "பகுதிகள்": 7041,
      "போன்றவற்ற": 7042,
      "உருவாக்கி": 7043,
      "மோசடி": 7044,
      "அரசியலில்": 7045,
      "தாமத": 7046,
      "வண்ட": 7047,
      "##ியால்": 7048,
      "##முனை": 7049,
      "செய்யப்படுகிறது": 7050,
      "முன்னோ": 7051,
      "அமையும்": 7052,
      "வளர்ந்து": 7053,
      "தூக்க": 7054,
      "வழக்கை": 7055,
      "இன்றும்": 7056,
      "மாறாக": 7057,
      "பௌத்த": 7058,
      "இசையமை": 7059,
      "ஒப்பி": 7060,
      "அவளுக்கு": 7061,
      "மாம": 7062,
      "இடது": 7063,
      "ஆரம்பித்த": 7064,
      "பறிமுதல்": 7065,
      "இவரை": 7066,
      "ஹோட்ட": 7067,
      "##மாகத்": 7068,
      "பிரிக்க": 7069,
      "பாட்ட": 7070,
      "##வேக": 7071,
      "##ும்படி": 7072,
      "என்பதுதான்": 7073,
      "கட்டிய": 7074,
      "போராடி": 7075,
      "சார்பாக": 7076,
      "விளைவாக": 7077,
      "##ist": 7078,
      "##ாயிரம்": 7079,
      "ஏதேனும்": 7080,
      "ஏறி": 7081,
      "ஓய்வ": 7082,
      "தரம்": 7083,
      "அவனது": 7084,
      "டீஸ்பூன்": 7085,
      "##செய்து": 7086,
      "அனுபவம்": 7087,
      "அழகான": 7088,
      "விதிமுறை": 7089,
      "யாழ்ப்பாணம்": 7090,
      "ஒட்டுமொத்த": 7091,
      "காஞ்சிபுரம்": 7092,
      "ஊக்கு": 7093,
      "சஞ்ச": 7094,
      "தங்கிய": 7095,
      "##த்திலுள்ள": 7096,
      "##ன்றால்": 7097,
      "##ப்பட்டி": 7098,
      "##டுகிறார்கள்": 7099,
      "வருகின்றது": 7100,
      "வேண்டி": 7101,
      "இழந்த": 7102,
      "புலம்ப": 7103,
      "மறைந்த": 7104,
      "##வந்து": 7105,
      "##மல்": 7106,
      "##த்தன்மை": 7107,
      "##ரித்த": 7108,
      "##ப்புக்": 7109,
      "துர": 7110,
      "முதலீ": 7111,
      "முதலாவது": 7112,
      "திறமை": 7113,
      "கழித்து": 7114,
      "டாக்ட": 7115,
      "ஆக்க": 7116,
      "##ிழ": 7117,
      "##ித்த": 7118,
      "##ங்கால": 7119,
      "பாரதி": 7120,
      "##வாச": 7121,
      "##மையா": 7122,
      "வெளியாகி": 7123,
      "கிரே": 7124,
      "கடைசிய": 7125,
      "##ார்களா": 7126,
      "தங்கம்": 7127,
      "ஊரக": 7128,
      "இக்கோயிலில்": 7129,
      "விசாரணையில்": 7130,
      "ஆஸ்திரேலிய": 7131,
      "நடைபெறுகிறது": 7132,
      "செயற்கை": 7133,
      "குஜரா": 7134,
      "அபர": 7135,
      "சின்": 7136,
      "பனி": 7137,
      "##ாததால்": 7138,
      "நீரில்": 7139,
      "##லாந்து": 7140,
      "சமயம்": 7141,
      "பட்டா": 7142,
      "பெரியார்": 7143,
      "திருவிழா": 7144,
      "லிட்டர்": 7145,
      ".''": 7146,
      "புள்ளி": 7147,
      "##ட்சம்": 7148,
      "##முருக": 7149,
      "அல்லாத": 7150,
      "இறங்கி": 7151,
      "உள்நாட்டு": 7152,
      "அறிமுகப்படுத்த": 7153,
      "ஈடு": 7154,
      "##ீட்": 7155,
      "தீவிரவாத": 7156,
      "மக்களவைத்": 7157,
      "காஷ்மீர்": 7158,
      "##மழை": 7159,
      "##தரா": 7160,
      "##த்துள்ளனர்": 7161,
      "பிரிய": 7162,
      "அதிகாலை": 7163,
      "##ல்களுக்கு": 7164,
      "பூமி": 7165,
      "பொறுப்பே": 7166,
      "சபையின்": 7167,
      "வெங்காயம்": 7168,
      ":-": 7169,
      "ஆற": 7170,
      "பண்": 7171,
      "##ளைய": 7172,
      "##ram": 7173,
      "##க்கடை": 7174,
      "##ர்ஸ்": 7175,
      "##ப்பால்": 7176,
      "குறைய": 7177,
      "பாஸ்": 7178,
      "திசை": 7179,
      "குழப்ப": 7180,
      "டிவி": 7181,
      "இருப்பதை": 7182,
      "கல்வெ": 7183,
      "மணல்": 7184,
      "பெண்ணின்": 7185,
      "என்பதையும்": 7186,
      "தாவர": 7187,
      "65": 7188,
      "வெல்ல": 7189,
      "அந்தச்": 7190,
      "##சியை": 7191,
      "செல்வா": 7192,
      "ராமநாத": 7193,
      "சுற்றுச்சூ": 7194,
      "தொலைவில்": 7195,
      "பது": 7196,
      "##ாரு": 7197,
      "##line": 7198,
      "##ண்டோ": 7199,
      "##ர்களையும்": 7200,
      "வெள்ளி": 7201,
      "அமர்ந்து": 7202,
      "##ers": 7203,
      "ஆபத்து": 7204,
      "பாருங்கள்": 7205,
      "தட்டு": 7206,
      "##ெக்": 7207,
      "இதனையடுத்து": 7208,
      "என்றான்": 7209,
      "பயனு": 7210,
      "தோன்று": 7211,
      "காணலாம்": 7212,
      "தமிழகத்தின்": 7213,
      "##ல்படுத்த": 7214,
      "##ore": 7215,
      "உயர்நீதிமன்ற": 7216,
      "இரும்பு": 7217,
      "##படியே": 7218,
      "அவ்": 7219,
      "##ாவளி": 7220,
      "வாழை": 7221,
      "வீடுக": 7222,
      "மறுக்க": 7223,
      "நண்பர்": 7224,
      "பரபரப்பை": 7225,
      "ஸ்மார்ட": 7226,
      "ஏக": 7227,
      "ராய": 7228,
      "முதிய": 7229,
      "விக்கெ": 7230,
      "கட்டண": 7231,
      "##ர்களைத்": 7232,
      "உரிமைகள்": 7233,
      "வசிக்கும்": 7234,
      "ஒதுக்கீடு": 7235,
      "சதுர": 7236,
      "வாலி": 7237,
      "##நொ": 7238,
      "##oc": 7239,
      "##்டன்": 7240,
      "##ரியை": 7241,
      "மேலதிக": 7242,
      "திட்டத்தில்": 7243,
      "ஏற்றுக்கொள்ள": 7244,
      "காதலி": 7245,
      "பிராந்திய": 7246,
      "##ஷ்க": 7247,
      "தொடரில்": 7248,
      "பயிர": 7249,
      "##ஸ்டிக்": 7250,
      "ஒன்றாகும்": 7251,
      "விருந்த": 7252,
      "பெற்றுக்": 7253,
      "அடங்கிய": 7254,
      "சேவைகள்": 7255,
      "படப்பிடிப்பு": 7256,
      "##டையும்": 7257,
      "பேட்டி": 7258,
      "இதுவே": 7259,
      "##ொடர்ப": 7260,
      "##ுடைய": 7261,
      "##க்கலை": 7262,
      "##த்திடம்": 7263,
      "##பெற்ற": 7264,
      "நிலைக்கு": 7265,
      "வழக்கமான": 7266,
      "டெல்லியில்": 7267,
      "ஆளும்": 7268,
      "##கிறேன்": 7269,
      "##ம்பே": 7270,
      "##சுர": 7271,
      "திட்டங்கள்": 7272,
      "02": 7273,
      "வற": 7274,
      "##ற்சி": 7275,
      "##வாகும்": 7276,
      "வளர்ந்த": 7277,
      "நகராட்சி": 7278,
      "##ate": 7279,
      "செயல்படும்": 7280,
      "கேட்டார்": 7281,
      "பிரதேசத்தில்": 7282,
      "##மொழ": 7283,
      "அப்து": 7284,
      "குறையும்": 7285,
      "அளவிலான": 7286,
      "Ch": 7287,
      "பன": 7288,
      "##ாடுகளை": 7289,
      "##ொண்டு": 7290,
      "##ஜீ": 7291,
      "##க்கப்": 7292,
      "##ளைக்": 7293,
      "##ரியின்": 7294,
      "துறைய": 7295,
      "அணிந்து": 7296,
      "அருள்": 7297,
      "150": 7298,
      "பாதை": 7299,
      "வியாப": 7300,
      "உள்துறை": 7301,
      "##நேரம்": 7302,
      "அய": 7303,
      "மின": 7304,
      "வாரி": 7305,
      "வருத்த": 7306,
      "##ிருக்கிறோம்": 7307,
      "பூச்ச": 7308,
      "நடத்தினர்": 7309,
      "என்கிறார்கள்": 7310,
      "காட்டிய": 7311,
      "அறுவை": 7312,
      "விவகாரத்தில்": 7313,
      "அர்ஜ": 7314,
      "##கின்றது": 7315,
      "காசு": 7316,
      "தொட்ட": 7317,
      "##டுகின்றனர்": 7318,
      "அமைப்புகள்": 7319,
      "இதுத": 7320,
      "தலைநக": 7321,
      "என்னவெ": 7322,
      "மனிதன்": 7323,
      "சகல": 7324,
      "சிவப்பு": 7325,
      "திருவண்ண": 7326,
      "கருதப்படுகிறது": 7327,
      "பத்திரிகைய": 7328,
      "அன்": 7329,
      "ஊருக்கு": 7330,
      "மிரு": 7331,
      "##த்திற்குள்": 7332,
      "மோதி": 7333,
      "கூட்டுறவு": 7334,
      "மணியளவில்": 7335,
      ".)": 7336,
      "01": 7337,
      "கதிர": 7338,
      "##்களும்": 7339,
      "காற்ற": 7340,
      "மீதும்": 7341,
      "பூங்கா": 7342,
      "பூர்த்தி": 7343,
      "இல்லையா": 7344,
      "முழுமையான": 7345,
      "சுவை": 7346,
      "##வரிடம்": 7347,
      "அழிக்க": 7348,
      "அழைத்துச்": 7349,
      "##வியின்": 7350,
      "##ாவிட்டால்": 7351,
      "##ies": 7352,
      "##ிலா": 7353,
      "##ுவின்": 7354,
      "புதை": 7355,
      "நாணய": 7356,
      "##ர்தான்": 7357,
      "பொதுச்": 7358,
      "அமைச்சரவை": 7359,
      "வாகனங்கள்": 7360,
      "வீட்டின்": 7361,
      "திருவள்ள": 7362,
      "சமயத்தில்": 7363,
      "சத்து": 7364,
      "##பூ": 7365,
      "##யிற": 7366,
      "முன்பே": 7367,
      "விளைவு": 7368,
      "புகைப்படம்": 7369,
      "மிரட்ட": 7370,
      "தனிமைப்படுத்த": 7371,
      "400": 7372,
      "?'": 7373,
      "அடுக்கு": 7374,
      "இவர்களுக்கு": 7375,
      "சாய்": 7376,
      "##வங்க": 7377,
      "##யோக": 7378,
      "##ப்பிற்கு": 7379,
      "##த்யா": 7380,
      "புரா": 7381,
      "சுத்தம்": 7382,
      "தெரியாமல்": 7383,
      "தொகுப்பு": 7384,
      "ஸ்மார்ட்போ": 7385,
      "ஆலை": 7386,
      "##ப்பிரி": 7387,
      "##ானு": 7388,
      "##வேல்": 7389,
      "##ின்றார்கள்": 7390,
      "இந்தியாவ": 7391,
      "நோக்கம்": 7392,
      "சேர்ந்தது": 7393,
      "நல்லா": 7394,
      "மருத்துவக்": 7395,
      "##தானே": 7396,
      "வாழ்க்கையை": 7397,
      "செலுத்தி": 7398,
      "கரூர்": 7399,
      "தீர்மானம்": 7400,
      "வட்டி": 7401,
      "##ரிக்கும்": 7402,
      "இருவர்": 7403,
      "கோவி": 7404,
      "##முடியும்": 7405,
      "##வில்ல": 7406,
      "கடத்த": 7407,
      "இன்ஜ": 7408,
      "அறநிலைய": 7409,
      "தொலைபேசி": 7410,
      "என்பதற்காக": 7411,
      "ஆளுநர்": 7412,
      "கிளிநொ": 7413,
      "சாக": 7414,
      "##சின்": 7415,
      "##களு": 7416,
      "##ங்களுக்கான": 7417,
      "முகவ": 7418,
      "##முத்து": 7419,
      "சிறப்பான": 7420,
      "கருத்தில்": 7421,
      "பிறப்பி": 7422,
      "நிகழ்த்த": 7423,
      "வெளிப்படுத்த": 7424,
      "நம்பி": 7425,
      "##ராஜா": 7426,
      "எளிதில்": 7427,
      "அன்றைய": 7428,
      "சதவிகித": 7429,
      "ஆஃப்": 7430,
      "பந்த": 7431,
      "லா": 7432,
      "##யே": 7433,
      "##ேஷன்": 7434,
      "##ிறுவ": 7435,
      "வேளை": 7436,
      "கோடை": 7437,
      "முன்னால்": 7438,
      "இணைந்த": 7439,
      "முதலிய": 7440,
      "##க்காரர்": 7441,
      "ஜெயலலித": 7442,
      "உறவினர்கள்": 7443,
      "வேலைவாய்ப்பு": 7444,
      "03": 7445,
      "சாவ": 7446,
      "##னைக்": 7447,
      "##ாலையில்": 7448,
      "பிரிட்ட": 7449,
      "##வதே": 7450,
      "இயக்கிய": 7451,
      "அதைத்": 7452,
      "துறைமுக": 7453,
      "தவிர்த்து": 7454,
      "இழப்பு": 7455,
      "##ுறவு": 7456,
      "வலைத்தள": 7457,
      "##ப்பார்கள்": 7458,
      "##வைத்த": 7459,
      "செய்யவும்": 7460,
      "மக்களிடம்": 7461,
      "2000": 7462,
      "கல்யா": 7463,
      "தொகுதிகளை": 7464,
      "படிப்பு": 7465,
      "வடிக": 7466,
      "அலுவலர்": 7467,
      "தொழிலாளர்": 7468,
      "வளாகத்தில்": 7469,
      "##நியோக": 7470,
      "ஞாயிற்று": 7471,
      "….": 7472,
      "##குவ": 7473,
      "##ினாள்": 7474,
      "##சித்த": 7475,
      "போட்டிகள்": 7476,
      "##ang": 7477,
      "அரசாங்கத்தின்": 7478,
      "புலிகள்": 7479,
      "##ith": 7480,
      "திட்டமிட்ட": 7481,
      "கடற்படை": 7482,
      "மலையாள": 7483,
      "திண்டுக்கல்": 7484,
      "ஒத்தி": 7485,
      "சில்": 7486,
      "##ண்டின்": 7487,
      "சொல்லு": 7488,
      "மனோ": 7489,
      "பிரபாக": 7490,
      "டீசல்": 7491,
      "எளிதாக": 7492,
      "##சேன": 7493,
      "##நேர": 7494,
      "##ஸ்வரன்": 7495,
      "குளிர்": 7496,
      "திருநெல்": 7497,
      "ஐந்த": 7498,
      "##க்குழுவ": 7499,
      "##ிகளிடம்": 7500,
      "##ாரில்": 7501,
      "##திர்": 7502,
      "##ப்பட்டதாக": 7503,
      "நேற்ற": 7504,
      "##வரே": 7505,
      "##கவியல": 7506,
      "பணிபு": 7507,
      "##விரோத": 7508,
      "பகிர": 7509,
      "சிக்கி": 7510,
      "மாநகர": 7511,
      "சனிக்கிழமை": 7512,
      "கற்ற": 7513,
      "மௌ": 7514,
      "##st": 7515,
      "பாச": 7516,
      "பொங்கல்": 7517,
      "அமைச்சு": 7518,
      "சந்தேகம்": 7519,
      "##க்கப்பட்டார்": 7520,
      "சிறுபான்": 7521,
      "அடைந்து": 7522,
      "படுகொலை": 7523,
      "கட்டுப்பாட்டு": 7524,
      "அறையில்": 7525,
      "சண்": 7526,
      "##னீ": 7527,
      "விநியோக": 7528,
      "குடிக்க": 7529,
      "ஆரம்பத்தில்": 7530,
      "இடைவெ": 7531,
      "ரகசிய": 7532,
      "42": 7533,
      "##ோவில்": 7534,
      "##ாவூர்": 7535,
      "மீள்": 7536,
      "தெரிவு": 7537,
      "##ஞ்சா": 7538,
      "காரில்": 7539,
      "##ல்களின்": 7540,
      "இறக்கு": 7541,
      "ஆனது": 7542,
      "குடிம": 7543,
      "வெளியாகியுள்ளது": 7544,
      "##த்தீவு": 7545,
      "இதன்போது": 7546,
      "34": 7547,
      "##மயம்": 7548,
      "##ல்லிக்க": 7549,
      "##ிக்கான": 7550,
      "வீதி": 7551,
      "##த்துக்குள்": 7552,
      "குறைந்தது": 7553,
      "எடுக்கப்படும்": 7554,
      "பணிபுரி": 7555,
      "நிரூப": 7556,
      "ஆற்றல்": 7557,
      "அம்மன்": 7558,
      "or": 7559,
      "##வற்று": 7560,
      "##ந்தின்": 7561,
      "##ையில": 7562,
      "##த்துக்கொண்ட": 7563,
      "...''": 7564,
      "சீரிய": 7565,
      "விலையில்": 7566,
      "நிறுவனத்தில்": 7567,
      "சொல்வது": 7568,
      "அப்புறம்": 7569,
      "நிர்வகிக்க": 7570,
      "கான": 7571,
      "தவி": 7572,
      "##ீன": 7573,
      "##பவர்கள்": 7574,
      "##னியில்": 7575,
      "##ம்மு": 7576,
      "##ாவாக": 7577,
      "வீழ்த்த": 7578,
      "நேரடி": 7579,
      "நடத்தும்": 7580,
      "##...": 7581,
      "வரிசை": 7582,
      "நாயக": 7583,
      "04": 7584,
      "41": 7585,
      "உங்களின்": 7586,
      "சத்தம்": 7587,
      "ப்ர": 7588,
      "##கரன்": 7589,
      "கொன்ற": 7590,
      "##மாகச்": 7591,
      "கோவிட்": 7592,
      "சாப்பிட்ட": 7593,
      "##தாஸ்": 7594,
      "விளைய": 7595,
      "இன்ஸ்ப": 7596,
      "கலைஞர்": 7597,
      "கேரளா": 7598,
      "வானிலை": 7599,
      "வைத்தியசால": 7600,
      "சக்கர": 7601,
      "ட்ர": 7602,
      "நை": 7603,
      "பச": 7604,
      "பில்": 7605,
      "##பான": 7606,
      "ஒருவேளை": 7607,
      "சிபி": 7608,
      "கொண்டிருக்கிறது": 7609,
      "திட்டங்களை": 7610,
      "மாதங்களில்": 7611,
      "கேட்டுக்": 7612,
      "கால்நடை": 7613,
      "எதிர்பார்ப்பு": 7614,
      "எவ்வித": 7615,
      "09": 7616,
      "சோத": 7617,
      "##ளாவ": 7618,
      "கொட்ட": 7619,
      "மாற்றிய": 7620,
      "##டியின்": 7621,
      "தேனி": 7622,
      "கோல்": 7623,
      "பலத்த": 7624,
      "முடிவில்": 7625,
      "கடைகள்": 7626,
      "யுத்த": 7627,
      "விருப்பம்": 7628,
      "முன்னிலையில்": 7629,
      "39": 7630,
      "##ொட்டி": 7631,
      "##டன": 7632,
      "##க்குமாறு": 7633,
      "பெருக": 7634,
      "கோர": 7635,
      "##வரம்": 7636,
      "கொள்ளவும்": 7637,
      "மாநிலத்தின்": 7638,
      "##ப்போல": 7639,
      "அளிக்கும்": 7640,
      "தீர்மானிக்க": 7641,
      "நிற்கும்": 7642,
      "பன்னாட்டு": 7643,
      "உதவுகிறது": 7644,
      "05": 7645,
      "யாக": 7646,
      "ராத": 7647,
      "லார": 7648,
      "##ெர்": 7649,
      "##ச்சத்து": 7650,
      "கருத்த": 7651,
      "ஆராய்": 7652,
      "பதிவாக": 7653,
      "வழிப": 7654,
      "##ஸ்புக்": 7655,
      "ஜெர்ம": 7656,
      "##த்தேர்த": 7657,
      "மீனவர்கள்": 7658,
      "வட்டாரத்தில்": 7659,
      "தொழிற்சாலை": 7660,
      "ஊடகவியல": 7661,
      "46": 7662,
      "ஒன்றி": 7663,
      "மரம்": 7664,
      "##வனின்": 7665,
      "பெட்ட": 7666,
      "பொள்ளா": 7667,
      "துய": 7668,
      "சாமி": 7669,
      "உணர்ந்து": 7670,
      "கல்யாண": 7671,
      "தினசரி": 7672,
      "தினகரன்": 7673,
      "அங்குள்ள": 7674,
      "கொள்வது": 7675,
      "ஊழியர்": 7676,
      "கணக்கெடுப்பின்படி": 7677,
      "மைக்": 7678,
      "##பாய": 7679,
      "##ஸ்ச": 7680,
      "##ட்டின்": 7681,
      "விடை": 7682,
      "##ாவசிய": 7683,
      "##ாளிகள்": 7684,
      "சிற்ப": 7685,
      "மிகச்": 7686,
      "முடித்த": 7687,
      "##பெரும்": 7688,
      "நினைவில்": 7689,
      "பெருந்த": 7690,
      "நம்முடைய": 7691,
      "99": 7692,
      "பழி": 7693,
      "##ங்களுக்காக": 7694,
      "##த்துறையின்": 7695,
      "##வுட்": 7696,
      "பிரார்த்த": 7697,
      "நிம்ம": 7698,
      "வெளியானது": 7699,
      "உணர்": 7700,
      "கிரக": 7701,
      "உறுப்பு": 7702,
      "எடுத்துச்": 7703,
      "குடும்பத்தின": 7704,
      "மறக்க": 7705,
      "மரியாதை": 7706,
      "டாஸ்": 7707,
      "நய": 7708,
      "##ud": 7709,
      "##ப்பையும்": 7710,
      "கோட்ப": 7711,
      "##லிட": 7712,
      "விரோத": 7713,
      "காணப்படுகிறது": 7714,
      "##ess": 7715,
      "சிதம்பரம்": 7716,
      "அலங்கார": 7717,
      "44": 7718,
      "சாகு": 7719,
      "பழு": 7720,
      "##நட": 7721,
      "குத்த": 7722,
      "குப்பை": 7723,
      "சுருக்க": 7724,
      "நூலக": 7725,
      "ஆண்டின்": 7726,
      "##வருடைய": 7727,
      "##ஸ்க்": 7728,
      "முன்பாக": 7729,
      "எங்களை": 7730,
      "##ிங்": 7731,
      "##னையாக": 7732,
      "##தன": 7733,
      "##ர்களே": 7734,
      "பொய்": 7735,
      "பேட்ட": 7736,
      "பேரி": 7737,
      "அப்போ": 7738,
      "##பாச": 7739,
      "சம்பளம்": 7740,
      "மாற்றங்கள்": 7741,
      "வரலாற்றில்": 7742,
      "துவக்க": 7743,
      "##போதே": 7744,
      "நுகர்வ": 7745,
      "கறுப்பு": 7746,
      "மல்ல": 7747,
      "##கிறோம்": 7748,
      "##ப்பகு": 7749,
      "வாங்கு": 7750,
      "மீட்டு": 7751,
      "தேர்தலை": 7752,
      "மாணவர்களின்": 7753,
      "பொறுத்து": 7754,
      "2007": 7755,
      "இன்றி": 7756,
      "போனது": 7757,
      "பன்னீர்செல்": 7758,
      "எஃப்": 7759,
      "ரோடு": 7760,
      "##மண்ட": 7761,
      "விநாயகர்": 7762,
      "நாங்க": 7763,
      "மூச்சு": 7764,
      "தீர்த்த": 7765,
      "முகத்தில்": 7766,
      "வரிசையில்": 7767,
      "வரவேற்ப": 7768,
      "நிகழ்வில்": 7769,
      "##ுமாறு": 7770,
      "வெடி": 7771,
      "செய்துள்ள": 7772,
      "##ாரிடம்": 7773,
      "கட்டத்தில்": 7774,
      "குறைவு": 7775,
      "உருவாக்கப்பட்ட": 7776,
      "வெள்ளிக்கிழமை": 7777,
      "யாராவது": 7778,
      "எதிர்கொள்ள": 7779,
      "##ிற்ற": 7780,
      "மருத்துவமனைக்கு": 7781,
      "ஆப்கானி": 7782,
      "07": 7783,
      "ராக": 7784,
      "பெர": 7785,
      "பெட்டி": 7786,
      "அதற்க": 7787,
      "ஒருவன்": 7788,
      "##ாலம்": 7789,
      "என்பதற்கு": 7790,
      "நேர்க": 7791,
      "##ோகன்": 7792,
      "ஈடுபட": 7793,
      "நகைச்சுவ": 7794,
      "##வருகிறது": 7795,
      "விகிதம்": 7796,
      "ஊதிய": 7797,
      "சரவ": 7798,
      "நடுத்த": 7799,
      "##ிலில்": 7800,
      "##ினா": 7801,
      "சிவன்": 7802,
      "...'": 7803,
      "கூறும்": 7804,
      "ராசி": 7805,
      "பதவியை": 7806,
      "தூர": 7807,
      "பாடல்கள்": 7808,
      "##வாதம்": 7809,
      "பெண்ணை": 7810,
      "உச்சநீதிமன்ற": 7811,
      "இந்நிக": 7812,
      "காய்கற": 7813,
      "தூத்துக்குடி": 7814,
      "இவற்றை": 7815,
      "##சாம": 7816,
      "##ல்ஸ்": 7817,
      "##ப்பர": 7818,
      "##க்குமார்": 7819,
      "சிதை": 7820,
      "வரையில்": 7821,
      "காலமாக": 7822,
      "பொருள்க": 7823,
      "மாணவி": 7824,
      "மறுத்து": 7825,
      "உண்மைய": 7826,
      "மதிப்பெ": 7827,
      "##all": 7828,
      "##ஸ்கர்": 7829,
      "தேவைப்படும்": 7830,
      "இயக்குன": 7831,
      "வருடங்களுக்கு": 7832,
      "சவால": 7833,
      "மீட்பு": 7834,
      "43": 7835,
      "64": 7836,
      "தில": 7837,
      "##ழிக்க": 7838,
      "##துவாக": 7839,
      "##ிகார": 7840,
      "விக்கிர": 7841,
      "##வுன்": 7842,
      "அவளது": 7843,
      "மால": 7844,
      "நீரை": 7845,
      "பலன்": 7846,
      "அதைக்": 7847,
      "விளையாட": 7848,
      "வேண்டுமென": 7849,
      "கொடுமை": 7850,
      "முதுக": 7851,
      "முடிகிறது": 7852,
      "தள்ளுபடி": 7853,
      "அலி": 7854,
      "கையா": 7855,
      "ஹா": 7856,
      "##ரண": 7857,
      "##விலும்": 7858,
      "இருப்பத": 7859,
      "##த்ரி": 7860,
      "##மாக்": 7861,
      "##ட்ர": 7862,
      "வரவில்லை": 7863,
      "பண்பு": 7864,
      "##ரிக்கப்பட்ட": 7865,
      "வழங்கினார்": 7866,
      "அனுப்பு": 7867,
      "ஸ்டை": 7868,
      "நம்புக": 7869,
      "வழங்குகிறது": 7870,
      "ஏற்றி": 7871,
      "நந்த": 7872,
      "பத்ம": 7873,
      "##ஷ்ப": 7874,
      "என்னால்": 7875,
      "பாம்பு": 7876,
      "##னிதா": 7877,
      "மக்களும்": 7878,
      "இடத்திற்கு": 7879,
      "##ல்களும்": 7880,
      "ரூபா": 7881,
      "விலகி": 7882,
      "வாகனம்": 7883,
      "ஆகியவற்றின்": 7884,
      "##்பெற்ற": 7885,
      "சோக": 7886,
      "யுவ": 7887,
      "##சப": 7888,
      "##ள்தான்": 7889,
      "##்ச்": 7890,
      "இரவில்": 7891,
      "அதுதான்": 7892,
      "வேலைக்கு": 7893,
      "விரும்பும்": 7894,
      "குடியுரிமை": 7895,
      "வாக்குறு": 7896,
      "பல்கலைக்கழகத்தில்": 7897,
      "புத்தகம்": 7898,
      "இயல்பு": 7899,
      "பாக்": 7900,
      "##னாய்வு": 7901,
      "##மிற": 7902,
      "##லமாக": 7903,
      "##ம்பட்டி": 7904,
      "##லிங்கம்": 7905,
      "நிழ": 7906,
      "##க்கிட": 7907,
      "முடிவை": 7908,
      "##ியாகும்": 7909,
      "இல்லாம": 7910,
      "தொகுதிக": 7911,
      "செய்யப்பட்டார்": 7912,
      "முயற்சியில்": 7913,
      "உதவியுடன்": 7914,
      "மயில": 7915,
      "##ம்கள்": 7916,
      "##ெண்ட்": 7917,
      "##த்துச்": 7918,
      "பாடிய": 7919,
      "கட்சியில்": 7920,
      "இயக்குந": 7921,
      "பண்ணி": 7922,
      "யோசனை": 7923,
      "அறிவிக்கப்பட்டுள்ளது": 7924,
      "விசாரித்த": 7925,
      "விகித": 7926,
      "கழகம்": 7927,
      "ஏதும்": 7928,
      "##ண்கள்": 7929,
      "##ப்பள்ளி": 7930,
      "##ல்லிய": 7931,
      "##ெயர்": 7932,
      "கதைகள்": 7933,
      "வேலூர்": 7934,
      "விஜயகா": 7935,
      "இதேவேளை": 7936,
      "இடையிலான": 7937,
      "கச": 7938,
      "சல": 7939,
      "லேச": 7940,
      "மீத": 7941,
      "வீடுகள்": 7942,
      "கார்டு": 7943,
      "##புறம்": 7944,
      "பரவிய": 7945,
      "பார்வ": 7946,
      "மட்டும்தான்": 7947,
      "வரவேற்பு": 7948,
      "காட்சிகள்": 7949,
      "ஆப்பிரிக்க": 7950,
      "ஏரி": 7951,
      "##றல்": 7952,
      "##ment": 7953,
      "குட": 7954,
      "##புரத்தில்": 7955,
      "கணினி": 7956,
      "192": 7957,
      "வழக்கமாக": 7958,
      "ஆனந்த": 7959,
      "கழிவு": 7960,
      "பரபரப்பு": 7961,
      "கேப்டன்": 7962,
      "தந்து": 7963,
      "##பவர்": 7964,
      "##ியிடம்": 7965,
      "##ிரவு": 7966,
      "கொடி": 7967,
      "##ஸ்ய": 7968,
      "கூலி": 7969,
      "கார்ப": 7970,
      "தாக்கிய": 7971,
      "ஏற்படுத்திய": 7972,
      "##ார்கள": 7973,
      "வெளியேற்ற": 7974,
      "பார்த்துக்": 7975,
      "##மீது": 7976,
      "பரவலாக": 7977,
      "##ரங்கு": 7978,
      "##வியில்": 7979,
      "##்தொ": 7980,
      "தொடர்க": 7981,
      "##விட்டன": 7982,
      "எல்லாமே": 7983,
      "பயன்படுத்தும்": 7984,
      "கொடுத்தார்": 7985,
      "டிரம்ப்": 7986,
      "தைரிய": 7987,
      "ஏமாற்ற": 7988,
      "ரஜினிகா": 7989,
      "ஒன்பது": 7990,
      "டிக்க": 7991,
      "வள்ள": 7992,
      "##மிக": 7993,
      "##த்தையே": 7994,
      "##ருந்து": 7995,
      "முட்ட": 7996,
      "போற": 7997,
      "வெட்டு": 7998,
      "நட்பு": 7999,
      "##ப்படாமல்": 8000,
      "பெய்ய": 8001,
      "முக்கியமாக": 8002,
      "வலது": 8003,
      "பள்ளிகள்": 8004,
      "##கோண": 8005,
      "மட்டுமின்றி": 8006,
      "பின்னணி": 8007,
      "ரூபாய்க்கு": 8008,
      "அளவிற்கு": 8009,
      "செவ்வாய": 8010,
      "யோக": 8011,
      "##ீவ்": 8012,
      "##பம்": 8013,
      "##களுக்காக": 8014,
      "##த்தெ": 8015,
      "##ியையும்": 8016,
      "##ங்காவ": 8017,
      "##ப்பைக்": 8018,
      "##மடைந்து": 8019,
      "கிலோமீ": 8020,
      "47": 8021,
      "இவரின்": 8022,
      "##ீத": 8023,
      "##ஆவது": 8024,
      "##ுக்கும்": 8025,
      "##ld": 8026,
      "செய்ப": 8027,
      "சேது": 8028,
      "நிஜ": 8029,
      "நிமி": 8030,
      "இடங்கள்": 8031,
      "வழங்கப்படுகிறது": 8032,
      "மாவட்டத்தின்": 8033,
      "நெறி": 8034,
      "கருத்துக்களை": 8035,
      "அவற்றில்": 8036,
      "தலையில்": 8037,
      "பரவல்": 8038,
      "ஆல்": 8039,
      "சன்": 8040,
      "##ூராட்சி": 8041,
      "##ஞர்கள்": 8042,
      "##ப்பாளர்கள்": 8043,
      "##ையற்ற": 8044,
      "முறையை": 8045,
      "மாவு": 8046,
      "புயல்": 8047,
      "இதைப்": 8048,
      "துறையினர்": 8049,
      "அமர்வு": 8050,
      "கண்கள்": 8051,
      "லட்சத்து": 8052,
      "கண்டுபிடி": 8053,
      "எதிர்பார்க்கப்படுகிறது": 8054,
      "குழந்தையின்": 8055,
      "படு": 8056,
      "லூ": 8057,
      "##ொழு": 8058,
      "கோய": 8059,
      "கிளா": 8060,
      "##ோதே": 8061,
      "பரிதாப": 8062,
      "அறிவித்தார்": 8063,
      "வாரிய": 8064,
      "வழிமுறை": 8065,
      "இவ்வாறான": 8066,
      "அளித்து": 8067,
      "வங்காள": 8068,
      "ஆட்சிக்கு": 8069,
      "அண்ணன்": 8070,
      "கடற்கரை": 8071,
      "சூர்யா": 8072,
      "!”": 8073,
      "அடிய": 8074,
      "##க்கெட்": 8075,
      "##ட்டோ": 8076,
      "கும": 8077,
      "புய": 8078,
      "சேன": 8079,
      "##ிருந்தேன்": 8080,
      "சட்டவிரோத": 8081,
      "வெளிநா": 8082,
      "##ிற்காக": 8083,
      "நூறு": 8084,
      "விவசாயம்": 8085,
      "பணிப்பாளர்": 8086,
      "மலர்": 8087,
      "அங்கிருந்த": 8088,
      "ஆங்கிலம்": 8089,
      "மன்றத்": 8090,
      "வாழ்வில்": 8091,
      "கோவிலில்": 8092,
      "எதிர்க்கட்சி": 8093,
      "எழுத்தாளர்": 8094,
      "##க்குறிச்சி": 8095,
      "காவல்துறையினர்": 8096,
      "பொறியியல்": 8097,
      "புகழ்பெற்ற": 8098,
      "மதியம்": 8099,
      "##ருக்கான": 8100,
      "பெறுக": 8101,
      "##மானார்": 8102,
      "பயன்": 8103,
      "பரப்பு": 8104,
      "பரம்ப": 8105,
      "சூடான": 8106,
      "நியம": 8107,
      "யாருக்கும்": 8108,
      "பிரச்சார": 8109,
      "விரைவாக": 8110,
      "ஜோதி": 8111,
      "##ப்பேட்டை": 8112,
      "கண்டிப்பாக": 8113,
      "கொரோனாவால்": 8114,
      "ஒத்த": 8115,
      "##ம்ச": 8116,
      "##ர்ஜி": 8117,
      "##ிகோ": 8118,
      "##ச்சொ": 8119,
      "சுப்பிரமண": 8120,
      "துற": 8121,
      "அதுவே": 8122,
      "விடுவி": 8123,
      "அதிரு": 8124,
      "விவசாயிகளுக்கு": 8125,
      "பிடிக்கும்": 8126,
      "ஆர்ப்பாட்டம்": 8127,
      "கூட்டமைப்பின்": 8128,
      "?’’": 8129,
      "படுத்து": 8130,
      "முகா": 8131,
      "##ட்ல": 8132,
      "##மாற": 8133,
      "இயங்கும்": 8134,
      "கணக்க": 8135,
      "191": 8136,
      "சட்டத்தை": 8137,
      "அடித்த": 8138,
      "##வியும்": 8139,
      "மாதங்கள்": 8140,
      "நடத்தப்பட்ட": 8141,
      "பிரச்சின": 8142,
      "கிடைக்கிறது": 8143,
      "பிள்ளைகள்": 8144,
      "உண்டா": 8145,
      "கண்காணிப்பு": 8146,
      "அர்த்தம்": 8147,
      "ஆர்ப்பாட்ட": 8148,
      "சினிமாவில்": 8149,
      "56": 8150,
      "52": 8151,
      "உறை": 8152,
      "ஜாத": 8153,
      "டிக": 8154,
      "##க்கால்": 8155,
      "##த்துக்கான": 8156,
      "##ாதது": 8157,
      "##ராது": 8158,
      "தலைவ": 8159,
      "அனைவரையும்": 8160,
      "##கிழ": 8161,
      "##த்திற்குப்": 8162,
      "சேர்ந்தவர்கள்": 8163,
      "##ாளர்களிடம்": 8164,
      "பார்க்கலாம்": 8165,
      "வழிபாடு": 8166,
      "கடைப்பி": 8167,
      "இந்தியாவுக்கு": 8168,
      "ஜனதா": 8169,
      "600": 8170,
      "ஏழ": 8171,
      "மதம்": 8172,
      "##ab": 8173,
      "##ேந்திரன்": 8174,
      "##க்கத்தை": 8175,
      "##க்காடு": 8176,
      "##ினருக்கு": 8177,
      "##சியா": 8178,
      "சிலருக்கு": 8179,
      "எடுத்துக்கொள்ள": 8180,
      "அவருடன்": 8181,
      "கற்பனை": 8182,
      "அச்சுறு": 8183,
      "##முருகன்": 8184,
      "ஐபி": 8185,
      "##ணியை": 8186,
      "##ப்புல": 8187,
      "அதிலும்": 8188,
      "கோர்ட": 8189,
      "அமைக்கப்பட்ட": 8190,
      "##ணைப்பு": 8191,
      "ஏற்படுகிறது": 8192,
      "பிறந்தார்": 8193,
      "மென்ப": 8194,
      "உண்மையை": 8195,
      "##செய்த": 8196,
      "நாளைக்கு": 8197,
      "இஸ்ரே": 8198,
      "வசித்து": 8199,
      "அஞ்சலி": 8200,
      "கமல்ஹாச": 8201,
      "திணைக்கள": 8202,
      "காலகட்டத்தில்": 8203,
      "எல்லாவற்றையும்": 8204,
      "for": 8205,
      "அந": 8206,
      "யாத": 8207,
      "##லையை": 8208,
      "விடுக்க": 8209,
      "##ான்ஸ்": 8210,
      "புலி": 8211,
      "நீட்": 8212,
      "வருஷ": 8213,
      "வைட்ட": 8214,
      "கொண்டிருந்தார்": 8215,
      "##மையின்": 8216,
      "எண்ணம்": 8217,
      "வெளிச்ச": 8218,
      "படிக்கும்": 8219,
      "சென்றது": 8220,
      "இலங்கைக்கு": 8221,
      "அணிக்கு": 8222,
      "அறிவுறு": 8223,
      "##சக்தி": 8224,
      "களமிற": 8225,
      "ப்ள": 8226,
      "பஞ்சாப்": 8227,
      "சுற்றுச்சூழல்": 8228,
      "சௌ": 8229,
      "யின்": 8230,
      "##ுள்ளனர்": 8231,
      "முன்க": 8232,
      "மாத்திர": 8233,
      "##ாளரும்": 8234,
      "தென்க": 8235,
      "வாட்ஸ்": 8236,
      "கட்டாயம்": 8237,
      "##ேயும்": 8238,
      "சமூகம்": 8239,
      "என்பதைக்": 8240,
      "தடவை": 8241,
      "எச்சரிக்க": 8242,
      "அதன்பின்": 8243,
      "கௌரவ": 8244,
      "சதவிகிதம்": 8245,
      "08": 8246,
      "49": 8247,
      "டன்": 8248,
      "பற்றா": 8249,
      "##மனை": 8250,
      "##தால": 8251,
      "##ெண்ண": 8252,
      "##ேஸ்": 8253,
      "##ஸ்கள்": 8254,
      "போராள": 8255,
      "நிறம்": 8256,
      "##ன்பி": 8257,
      "##ஞ்சிய": 8258,
      "தீவு": 8259,
      "அப்படிய": 8260,
      "ஆண்டுக்கு": 8261,
      "தரவு": 8262,
      "வரும்போது": 8263,
      "கிராமம்": 8264,
      "ஆளுந": 8265,
      "வல்லு": 8266,
      "கப்பல்": 8267,
      "பிரான்ஸ்": 8268,
      "கரி": 8269,
      "மகள": 8270,
      "##நிறு": 8271,
      "##கத்தின்": 8272,
      "##தல்ல": 8273,
      "##ர்க்கு": 8274,
      "போதிய": 8275,
      "சுவி": 8276,
      "நிலவு": 8277,
      "கடலில்": 8278,
      "நிபந்த": 8279,
      "பழங்கு": 8280,
      "##ந்துள்ளன": 8281,
      "ஊரட": 8282,
      "அறிவுறுத்த": 8283,
      "உபகர": 8284,
      "பராமரிப்பு": 8285,
      "!'": 8286,
      "உழ": 8287,
      "##டுதல்": 8288,
      "விழி": 8289,
      "தேவி": 8290,
      "மீனா": 8291,
      "##ப்படுகிறார்": 8292,
      "##ப்படுகின்றனர்": 8293,
      "பயன்படுத்தலாம்": 8294,
      "வழிவகு": 8295,
      "போதிலும்": 8296,
      "கலாச்சார": 8297,
      "குழந்தையை": 8298,
      "சுரேஷ்": 8299,
      "வெற்றிகரமாக": 8300,
      "06": 8301,
      "அஜித்": 8302,
      "எடு": 8303,
      "சாட்ட": 8304,
      "பர்": 8305,
      "##யிர": 8306,
      "##்தே": 8307,
      "##க்கட": 8308,
      "மாபெரும்": 8309,
      "##ப்பட்டால்": 8310,
      "##ப்பட்டிருந்த": 8311,
      "என்றாள்": 8312,
      "என்பன": 8313,
      "போன்றவற்றை": 8314,
      "தகவலை": 8315,
      "முறைகே": 8316,
      "மின்சாரம்": 8317,
      "ஏற்றுமதி": 8318,
      "அழகிய": 8319,
      "அணுகு": 8320,
      "##ிலிருந்தும்": 8321,
      "ஒப்புதல்": 8322,
      "உரிமையாளர்": 8323,
      "எலும்பு": 8324,
      "படிப்படியாக": 8325,
      "ராமநாதபுரம்": 8326,
      "நஷ்ட": 8327,
      "##ராத": 8328,
      "##க்கப்பட்டு": 8329,
      "ஒருபோதும்": 8330,
      "புத்தா": 8331,
      "பாரிய": 8332,
      "முன்னிலை": 8333,
      "சொல்லிக்": 8334,
      "எண்ணெய": 8335,
      "இன்னமும்": 8336,
      "அணிந்த": 8337,
      "வழக்குகள்": 8338,
      "கவனமாக": 8339,
      "ஒளிபர": 8340,
      "வழிகாட்ட": 8341,
      "அத்தியாவசிய": 8342,
      "திருநெல்வேலி": 8343,
      "அமித்": 8344,
      "ரவு": 8345,
      "##பிய": 8346,
      "##ழகம்": 8347,
      "##டிக்கு": 8348,
      "விந": 8349,
      "போர": 8350,
      "தெற்க": 8351,
      "வைகோ": 8352,
      "##ழ்ந்து": 8353,
      "வசன": 8354,
      "கண்ணாடி": 8355,
      "தளத்தில்": 8356,
      "விஷயத்தில்": 8357,
      "நெடுஞ்சாலை": 8358,
      "சாது": 8359,
      "பன்": 8360,
      "லக்": 8361,
      "##லாமல்": 8362,
      "பாடி": 8363,
      "கோல": 8364,
      "தலைமுறை": 8365,
      "மிகக்": 8366,
      "மரபு": 8367,
      "திரும்பிய": 8368,
      "குழுவினர்": 8369,
      "தெரிவிக்கின்றன": 8370,
      "சுகாதாரத்துறை": 8371,
      "சாப்பிட்டு": 8372,
      "மெல்லிய": 8373,
      "பிளாஸ்டிக்": 8374,
      "https": 8375,
      "திருவண்ணாமலை": 8376,
      "St": 8377,
      "ஆப்பி": 8378,
      "கலி": 8379,
      "காகி": 8380,
      "தியே": 8381,
      "##ரையை": 8382,
      "##வட்ட": 8383,
      "##ருங்கள்": 8384,
      "##த்மா": 8385,
      "தேட": 8386,
      "##ரசன்": 8387,
      "இருக்கிறோம்": 8388,
      "கூறப்பட்டுள்ளது": 8389,
      "பூச": 8390,
      "கொள்ளைய": 8391,
      "தூய்": 8392,
      "நேரத்தை": 8393,
      "##ind": 8394,
      "##வானி": 8395,
      "2006": 8396,
      "இங்குள்ள": 8397,
      "சீனாவின்": 8398,
      "ஏற்பட்டுள்ள": 8399,
      "தோன்றும்": 8400,
      "நெருங்கிய": 8401,
      "நடுத்தர": 8402,
      "ஊட்ட": 8403,
      "டில்லி": 8404,
      "##ஆர்": 8405,
      "##ுள்": 8406,
      "வினா": 8407,
      "புரு": 8408,
      "சுந்தர": 8409,
      "தொடரும்": 8410,
      "##லுக்கான": 8411,
      "வாரத்தில்": 8412,
      "இறப்பு": 8413,
      "கையாள": 8414,
      "பணியாளர்கள்": 8415,
      "தீர்மானி": 8416,
      "போட்டியிட": 8417,
      "காதல": 8418,
      "மொழியில்": 8419,
      "Read": 8420,
      "கம்யூனிஸ்ட்": 8421,
      "--": 8422,
      "##ீப்": 8423,
      "##வோர்": 8424,
      "##ப்பழ": 8425,
      "மாநாடு": 8426,
      "##ிட்டே": 8427,
      "அமல்படுத்த": 8428,
      "கொள்ளை": 8429,
      "எண்ணி": 8430,
      "வழிபா": 8431,
      "லட்சுமி": 8432,
      "எனக்குத்": 8433,
      "சிறுமி": 8434,
      "அடங்கும்": 8435,
      "நிரப்ப": 8436,
      "படைப்பு": 8437,
      "இழப்ப": 8438,
      "வகைகள்": 8439,
      "மாகாணத்தில்": 8440,
      "காஷ்மீ": 8441,
      "லோக்ச": 8442,
      "வேளையில்": 8443,
      "ஞாயிற்றுக்கிழமை": 8444,
      "பசி": 8445,
      "##னெ": 8446,
      "##மங்கலம்": 8447,
      "##லாளர்": 8448,
      "வினை": 8449,
      "வெற்றிய": 8450,
      "துள": 8451,
      "துரோ": 8452,
      "##க்கிட்டு": 8453,
      "முதலாளி": 8454,
      "கண்டன": 8455,
      "இன்ஸ்ட": 8456,
      "கீழ்க்க": 8457,
      "முயற்சிகள்": 8458,
      "எதிர்க்கட்ச": 8459,
      "##முறையாக": 8460,
      "##ost": 8461,
      "?\"": 8462,
      "தங்களை": 8463,
      "பிலி": 8464,
      "##நீர": 8465,
      "##ோல": 8466,
      "##ாகம்": 8467,
      "##த்துார்": 8468,
      "சேர்ம": 8469,
      "##மாற்றம்": 8470,
      "நிலையான": 8471,
      "வீடுகளில்": 8472,
      "இந்தியப்": 8473,
      "தாக்கம்": 8474,
      "கட்டமை": 8475,
      "நெஞ்ச": 8476,
      "##டுப்பில்": 8477,
      "பெற்றுள்ளது": 8478,
      "கம்பென": 8479,
      "குழுவின்": 8480,
      "தெரியவந்தது": 8481,
      "சிறுகதை": 8482,
      "ஹரி": 8483,
      "##பொரு": 8484,
      "##ம்மை": 8485,
      "##ியம்மன்": 8486,
      "நீல": 8487,
      "உடலுக்கு": 8488,
      "தூத": 8489,
      "ஆலோசக": 8490,
      "மன்னார்": 8491,
      "பணியாற்றி": 8492,
      "பிரதிநிதி": 8493,
      "பெரிதும்": 8494,
      "ரங்க": 8495,
      "லஞ்ச": 8496,
      "##நல்ல": 8497,
      "##பாளையம்": 8498,
      "##ேல்": 8499,
      "முனி": 8500,
      "நீலக": 8501,
      "##ரசர்": 8502,
      "நேப": 8503,
      "கொண்டிருந்தது": 8504,
      "##ியாகவும்": 8505,
      "வயிற்று": 8506,
      "விளையாடி": 8507,
      "கல்லூர": 8508,
      "கவிஞர்": 8509,
      "விரிவு": 8510,
      "பார்ப்போம்": 8511,
      "பயங்கர": 8512,
      "அதனால்தான்": 8513,
      "வாயிலாக": 8514,
      "வேண்டுகோள்": 8515,
      "தர்": 8516,
      "தத்துவ": 8517,
      "##தூ": 8518,
      "##ேசு": 8519,
      "##க்கணி": 8520,
      "##றுகள்": 8521,
      "##ிருப்பத": 8522,
      "நெய்": 8523,
      "மனிதர்கள்": 8524,
      "ஆட்சியை": 8525,
      "பரிசீ": 8526,
      "பணியாற்றிய": 8527,
      "பசுமை": 8528,
      "ரணில்": 8529,
      "பொள்ளாச்சி": 8530,
      "ஊற்ற": 8531,
      "சன்ன": 8532,
      "##கிர": 8533,
      "##மிய": 8534,
      "##த்தாலும்": 8535,
      "##விள": 8536,
      "ஒருவருக்கு": 8537,
      "##ாளிக்க": 8538,
      "தலைப்பில்": 8539,
      "##ொருவர்": 8540,
      "நெல்லை": 8541,
      "தரையில்": 8542,
      "முகமது": 8543,
      "செலுத்திய": 8544,
      "உறுப்பினராக": 8545,
      "மாட்டார்கள்": 8546,
      "முஸ்லிம்க": 8547,
      "\"),": 8548,
      "தீபாவளி": 8549,
      "தொகையை": 8550,
      "பிரதிநிதிகள்": 8551,
      "51": 8552,
      "எலு": 8553,
      "ஏர்": 8554,
      "சனி": 8555,
      "ஷே": 8556,
      "##ீட்ச": 8557,
      "##ிடையே": 8558,
      "திருகோண": 8559,
      "##க்கொண்டார்": 8560,
      "ரீதியில்": 8561,
      "உங்களுடைய": 8562,
      "ஊராட்சியில்": 8563,
      "வலம்": 8564,
      "##மட்டு": 8565,
      "##iy": 8566,
      "##ப்பட்டிருந்தது": 8567,
      "உள்ளவர்கள்": 8568,
      "இதோ": 8569,
      "##முன்": 8570,
      "பலம்": 8571,
      "தலைவரும்": 8572,
      "##ட்களை": 8573,
      "அவர்களுடைய": 8574,
      "தரப்பின": 8575,
      "எந்தப்": 8576,
      "தூரம்": 8577,
      "விஷயங்கள்": 8578,
      "வேலையில்": 8579,
      "வேலையை": 8580,
      "##ராம்": 8581,
      "##ிக்கிறது": 8582,
      "பொய்ய": 8583,
      "தென்ன": 8584,
      "##மானம்": 8585,
      "மேஜ": 8586,
      "கோரிய": 8587,
      "கோபி": 8588,
      "##க்கிங்": 8589,
      "வழங்கப்பட்டுள்ளது": 8590,
      "##விட்டரில்": 8591,
      "நிறுவனங்களின்": 8592,
      "ஏற்படுத்தியது": 8593,
      "தொடங்கினார்": 8594,
      "##க்காரர்கள்": 8595,
      "மேம்பாட்டு": 8596,
      "ட்விட்டர்": 8597,
      "பட்ஜெட்": 8598,
      "ஒன்றிணை": 8599,
      "ஆபாச": 8600,
      "சாம்": 8601,
      "பச்ச": 8602,
      "##ந்தன": 8603,
      "##ப்புடன்": 8604,
      "கோட": 8605,
      "கருத்தை": 8606,
      "ராணி": 8607,
      "அடிமை": 8608,
      "பிரிந்து": 8609,
      "பயன்படுத்தப்படுகிறது": 8610,
      "2005": 8611,
      "கண்ணீர்": 8612,
      "சிக்கல்": 8613,
      "வடிவமைப்பு": 8614,
      "அபாய": 8615,
      "கோயிலாகும்": 8616,
      "காய்ச்சல்": 8617,
      "54": 8618,
      "இவன்": 8619,
      "டய": 8620,
      "##ாதை": 8621,
      "கூட்டி": 8622,
      "##மாகாண": 8623,
      "##க்கிழ": 8624,
      "##ர்ப்": 8625,
      "குழாய": 8626,
      "அவர்களில்": 8627,
      "மகாராஷ்ட": 8628,
      "அணியில்": 8629,
      "பெருங்க": 8630,
      "சொன்னது": 8631,
      "அருங்கா": 8632,
      "கூறுகிறது": 8633,
      "சராசரி": 8634,
      "தேங்காய்": 8635,
      "அல்லாஹ்": 8636,
      "கிளிநொச்சி": 8637,
      "களில்": 8638,
      "தங்கி": 8639,
      "வுக்கு": 8640,
      "##ிண": 8641,
      "##வல": 8642,
      "##லங்க": 8643,
      "##ro": 8644,
      "கொன்று": 8645,
      "##ாவிலிருந்து": 8646,
      "வீரா": 8647,
      "கடலூர்": 8648,
      "##வரையில்": 8649,
      "வந்தாலும்": 8650,
      "அதிர்": 8651,
      "படைத்த": 8652,
      "##மீக": 8653,
      "என்னைப்": 8654,
      "சரண": 8655,
      "வெளியிட்டுள்ளது": 8656,
      "பிரச்சினைகள்": 8657,
      "53": 8658,
      "இடி": 8659,
      "ஒற்றை": 8660,
      "பத்தி": 8661,
      "##பற்றி": 8662,
      "##கங்கள்": 8663,
      "##ள்ப": 8664,
      "##ப்பணி": 8665,
      "##ர்களான": 8666,
      "மாநாட்டில்": 8667,
      "தென்ப": 8668,
      "அமைதியாக": 8669,
      "##ல்களையும்": 8670,
      "விசுவ": 8671,
      "பெய்த": 8672,
      "திருமதி": 8673,
      "வாங்கிக்": 8674,
      "வியாபாரத்தில்": 8675,
      "கொழுப்பு": 8676,
      "Online": 8677,
      "##ெட்டில்": 8678,
      "##ந்தரம்": 8679,
      "##ச்சந்திரன்": 8680,
      "காய்": 8681,
      "புத்தி": 8682,
      "நீட்ட": 8683,
      "##ின்றேன்": 8684,
      "வருவாய": 8685,
      "நேரி": 8686,
      "தெரிந்தது": 8687,
      "முடிவடை": 8688,
      "தோற்று": 8689,
      "வளர்த்து": 8690,
      "என்பதைப்": 8691,
      "அதிகரித்த": 8692,
      "பள்ளிக்க": 8693,
      "அரண்": 8694,
      "அக்கறை": 8695,
      "##ண்டைச்": 8696,
      "கோபம்": 8697,
      "ஜம்மு": 8698,
      "நள்ள": 8699,
      "##சான்": 8700,
      "##தொரு": 8701,
      "##ப்பதும்": 8702,
      "##ுவதற்கு": 8703,
      "புன்ன": 8704,
      "தொடங்கும்": 8705,
      "##மிழ்": 8706,
      "ஏற்படு": 8707,
      "மோகன்": 8708,
      "தூது": 8709,
      "தூங்க": 8710,
      "எப்படிய": 8711,
      "##திகளும்": 8712,
      "குழந்தைகளின்": 8713,
      "இதைத்": 8714,
      "##....": 8715,
      "நிகழ்வுகள்": 8716,
      "##ome": 8717,
      "யூன": 8718,
      "2011ஆம்": 8719,
      "தக்காளி": 8720,
      "சிவகங்கை": 8721,
      "நாராயண": 8722,
      "மென்மையான": 8723,
      "அஸ்": 8724,
      "ஆள்": 8725,
      "ஞாப": 8726,
      "மடங்கு": 8727,
      "##சின": 8728,
      "##னையின்": 8729,
      "##லங்கா": 8730,
      "##ல்வி": 8731,
      "##ையிலேயே": 8732,
      "##ார்ஜ்": 8733,
      "பாணியில்": 8734,
      "மேடை": 8735,
      "##வைச்": 8736,
      "பதிவிட்டு": 8737,
      "புலனாய்வு": 8738,
      "பாதையில்": 8739,
      "வருடங்களாக": 8740,
      "கதையை": 8741,
      "நடிப்பில்": 8742,
      "விமர்சனம்": 8743,
      "வண்ணம்": 8744,
      "##ிலிருந்தே": 8745,
      "எத்த": 8746,
      "நபி": 8747,
      "##ஸுக்கு": 8748,
      "##க்கப்படும்": 8749,
      "##ச்சிற": 8750,
      "##டும்போது": 8751,
      "செய்யப்பட": 8752,
      "பயம்": 8753,
      "பலியாக": 8754,
      "##ன்பு": 8755,
      "நிர்ம": 8756,
      "##வர்களிடம்": 8757,
      "மருந்த": 8758,
      "##ஸ்டு": 8759,
      "காணப்படுகின்றன": 8760,
      "சம்பாதி": 8761,
      "அதிகாரப்பூர்வ": 8762,
      "##ாளர்களும்": 8763,
      "நூற்று": 8764,
      "விரும்புவ": 8765,
      "செய்கிறார்கள்": 8766,
      "விஷயங்களை": 8767,
      "சிறிசேன": 8768,
      "தோன்றிய": 8769,
      "விசாரித்து": 8770,
      "முதலமைச்ச": 8771,
      "அட்டவ": 8772,
      "இன்ஸ்பெக்டர்": 8773,
      "ஊர்வ": 8774,
      "பில்லியன்": 8775,
      "##வனுக்கு": 8776,
      "##ூட்": 8777,
      "##ிறன்": 8778,
      "##திக்கு": 8779,
      "##வினால்": 8780,
      "##வர்களுக்கும்": 8781,
      "பொதுச்செய": 8782,
      "வளரும்": 8783,
      "முகாம்": 8784,
      "உருவாக்கும்": 8785,
      "தானிய": 8786,
      "1000": 8787,
      "இறைச்சி": 8788,
      "உருவாகும்": 8789,
      "மேற்கண்ட": 8790,
      "விண்வெளி": 8791,
      "சான்றிதழ்": 8792,
      "is": 8793,
      "ஜய": 8794,
      "##ர்களுக்கான": 8795,
      "கொல்க": 8796,
      "மாசு": 8797,
      "வெண்ண": 8798,
      "வென்று": 8799,
      "##்யா": 8800,
      "துடை": 8801,
      "சித்திர": 8802,
      "சிந்தி": 8803,
      "##ன்பதாம்": 8804,
      "கார்ட": 8805,
      "##ேயான": 8806,
      "போட்டோ": 8807,
      "செல்வம்": 8808,
      "செயல்பட்ட": 8809,
      "செயல்படு": 8810,
      "வயதுக்கு": 8811,
      "கிடைக்கவில்லை": 8812,
      "விதமான": 8813,
      "ஆங்கிலேய": 8814,
      "வழிகாட்டு": 8815,
      "மிளகாய்": 8816,
      "அருங்காட்சிய": 8817,
      "இவர்களின்": 8818,
      "##ாரே": 8819,
      "##ச்சிய": 8820,
      "இந்தோ": 8821,
      "ஒருகால": 8822,
      "##ரைத்": 8823,
      "##ட்ச்": 8824,
      "##மையுடன்": 8825,
      "சம்பா": 8826,
      "தொகுதிகளில்": 8827,
      "முறைப்படி": 8828,
      "அருண்": 8829,
      "இறுதியாக": 8830,
      "வரையிலான": 8831,
      "2015ஆம்": 8832,
      "நாமக்கல்": 8833,
      "பிளஸ்": 8834,
      "அங்கீகாரம்": 8835,
      "72": 8836,
      "அரே": 8837,
      "இண்ட": 8838,
      "சும்": 8839,
      "வர்க்க": 8840,
      "##ra": 8841,
      "##ric": 8842,
      "##ரித": 8843,
      "##ரிங்": 8844,
      "கூகு": 8845,
      "தேய": 8846,
      "பிரபு": 8847,
      "அரசை": 8848,
      "செய்யுங்கள்": 8849,
      "வருகின்ற": 8850,
      "வெளியுறவு": 8851,
      "நோக்கில்": 8852,
      "##ிகளைத்": 8853,
      "##கவின்": 8854,
      "##வுக்குப்": 8855,
      "##சாத்": 8856,
      "சீனாவில்": 8857,
      "ரிச": 8858,
      "தெளிவு": 8859,
      "சூழ்நிலையில்": 8860,
      "சொல்கிறார்": 8861,
      "பொருத்தமான": 8862,
      "மந்திரி": 8863,
      "எலுமி": 8864,
      "ஊழ": 8865,
      "தடைய": 8866,
      "பூர்": 8867,
      "##ஃபி": 8868,
      "##vi": 8869,
      "##ினாமா": 8870,
      "பொண்ணு": 8871,
      "பணியை": 8872,
      "விடுவிக்க": 8873,
      "எடுக்கப்பட்ட": 8874,
      "தயாரிப்பாளர்": 8875,
      "முடிவுகளை": 8876,
      "குடியே": 8877,
      "வாக்குகள்": 8878,
      "நிகழ்ந்த": 8879,
      "அனுப்பிய": 8880,
      "நூற்றாண்டைச்": 8881,
      "வைத்தியசாலை": 8882,
      "##ம்கூட": 8883,
      "##ையுலக": 8884,
      "தஞ்சாவூர்": 8885,
      "காய்கறி": 8886,
      "\"\"": 8887,
      "சரும": 8888,
      "மியூ": 8889,
      "ரமே": 8890,
      "##யு": 8891,
      "##க்கீ": 8892,
      "##ையார்": 8893,
      "மாறும்": 8894,
      "சுட்டு": 8895,
      "வீண": 8896,
      "இருந்ததால்": 8897,
      "தரப்ப": 8898,
      "குழந்தைக்கு": 8899,
      "குழந்தைகளை": 8900,
      "மரங்கள்": 8901,
      "அதேபோல": 8902,
      "செயல்த": 8903,
      "போராட்டத்தை": 8904,
      "##ாவைச்": 8905,
      "தயாரித்து": 8906,
      "ஒழுங்க": 8907,
      "வரையறு": 8908,
      "மன்னர்": 8909,
      "மறுபடியும்": 8910,
      "கல்யாணம்": 8911,
      "பன்னீர்செல்வம்": 8912,
      "!’’": 8913,
      "உளவு": 8914,
      "தரை": 8915,
      "நலம்": 8916,
      "பட்ச": 8917,
      "வண்டி": 8918,
      "##லத்தை": 8919,
      "##ma": 8920,
      "மூளை": 8921,
      "செய்யவில்லை": 8922,
      "பலியான": 8923,
      "பலவீன": 8924,
      "இருக்கின்றது": 8925,
      "டிஜ": 8926,
      "வார்டு": 8927,
      "குடும்பத்தினர்": 8928,
      "##ையாகும்": 8929,
      "கட்சித்": 8930,
      "ஊடகங்கள்": 8931,
      "மட்டுமல்லாமல்": 8932,
      "ஒலிம்ப": 8933,
      "ஆசிர": 8934,
      "உத்தரவ": 8935,
      "நேபாள": 8936,
      "!’": 8937,
      "Ind": 8938,
      "சத்த": 8939,
      "##த்தாள்": 8940,
      "##த்தில்தான்": 8941,
      "செக்ஸ்": 8942,
      "##லைத்": 8943,
      "காக்க": 8944,
      "வேடிக்க": 8945,
      "தென்னி": 8946,
      "ஆக்சி": 8947,
      "##த்திட": 8948,
      "வடிவம்": 8949,
      "கன்னியாக": 8950,
      "குடியிருப்பு": 8951,
      "சமாதான": 8952,
      "நேர்காண": 8953,
      "Pan": 8954,
      "ஈர்க்க": 8955,
      "எங்கு": 8956,
      "ஜாம": 8957,
      "ரகு": 8958,
      "##ள்கள்": 8959,
      "##ce": 8960,
      "தேன்": 8961,
      "வரவு": 8962,
      "##ாட்டின்": 8963,
      "பகுதிகளை": 8964,
      "வரைக்கும்": 8965,
      "காரணங்கள்": 8966,
      "செல்வது": 8967,
      "உத்தரவிட": 8968,
      "பெறலாம்": 8969,
      "மாதிரியான": 8970,
      "இடைக்கால": 8971,
      "இடைவெளி": 8972,
      "மருந்துகள்": 8973,
      "கோயிலில்": 8974,
      "பயிற்சிய": 8975,
      "இதுதொடர்ப": 8976,
      "இனம்": 8977,
      "##வல்": 8978,
      "##மோகன்": 8979,
      "##ஜன": 8980,
      "##ப்பகுதி": 8981,
      "காயம்": 8982,
      "காமெ": 8983,
      "##ுவில்": 8984,
      "இதர": 8985,
      "வாங்கும்": 8986,
      "##தாகத்": 8987,
      "வருவதால்": 8988,
      "##ப்பிள்ளை": 8989,
      "##ப்படுகின்ற": 8990,
      "ராஜ்": 8991,
      "செலுத்தும்": 8992,
      "விரைந்து": 8993,
      "அழைக்கப்படுகிறது": 8994,
      "தாக்குதலில்": 8995,
      "இலவசமாக": 8996,
      "நாவல்": 8997,
      "இருபது": 8998,
      "நியமனம்": 8999,
      "ஊற": 9000,
      "ஒளிய": 9001,
      "##ொல": 9002,
      "##ok": 9003,
      "##டைந்து": 9004,
      "##ாமல": 9005,
      "துல்லிய": 9006,
      "நிற்ப": 9007,
      "சிறில": 9008,
      "பாரதிய": 9009,
      "##லாது": 9010,
      "##விட்டார்கள்": 9011,
      "வாழ்த்த": 9012,
      "மறுநாள்": 9013,
      "நாளித": 9014,
      "பொருளாதாரம்": 9015,
      "விரிவாக": 9016,
      "கிருஷ்ணகிரி": 9017,
      "சுதந்திரம்": 9018,
      "ஹிந்து": 9019,
      "கய": 9020,
      "##நெ": 9021,
      "##லிலும்": 9022,
      "##க்கல்ல": 9023,
      "இருந்தேன்": 9024,
      "அந்தந்த": 9025,
      "##வாள்": 9026,
      "வருகிறோம்": 9027,
      "மொழிபெய": 9028,
      "பரிந்துரைக்க": 9029,
      "தரிசனம்": 9030,
      "பங்கேற்றனர்": 9031,
      "தெரியவந்துள்ளது": 9032,
      "திருக்கோயில்": 9033,
      "org": 9034,
      ".’’": 9035,
      "85": 9036,
      "ஆளாக": 9037,
      "##ரங்க": 9038,
      "##க்கத்": 9039,
      "##ப்பொருள்": 9040,
      "##ிகளு": 9041,
      "செந்த": 9042,
      "##ிருப்பதால்": 9043,
      "போரில்": 9044,
      "அவரும்": 9045,
      "காலா": 9046,
      "அதோடு": 9047,
      "வேதிய": 9048,
      "##ம்பூர்": 9049,
      "கூடி": 9050,
      "நேரு": 9051,
      "தலைநகர்": 9052,
      "##நிலைப்": 9053,
      "##திகளின்": 9054,
      "பயன்படுத்திய": 9055,
      "வைத்திருக்க": 9056,
      "செலவில்": 9057,
      "நோய்கள்": 9058,
      "##னையோ": 9059,
      "செயல்முறை": 9060,
      "##adu": 9061,
      "சாப்பிடு": 9062,
      "இடம்பெற்றது": 9063,
      "ன்னு": 9064,
      "வலுவான": 9065,
      "குளிர்க": 9066,
      "இறக்குமதி": 9067,
      "வைத்தியசாலையில்": 9068,
      "##eb": 9069,
      "##ிறை": 9070,
      "##த்ன": 9071,
      "பிரமா": 9072,
      "இதழ": 9073,
      "கடத்தி": 9074,
      "##சிங்": 9075,
      "##களே": 9076,
      "முக்கியமானது": 9077,
      "வேலைகள்": 9078,
      "அறிவிக்கப்பட்ட": 9079,
      "சங்கத்தின்": 9080,
      "அடைக்க": 9081,
      "அளித்தார்": 9082,
      "ஆயிரக்கணக்கான": 9083,
      "சரக்கு": 9084,
      "மாட்டேன்": 9085,
      "சிறித": 9086,
      "விரிவா": 9087,
      "எதிர்ம": 9088,
      "புரட்சி": 9089,
      "வாழ்வாதார": 9090,
      "இங்கிலா": 9091,
      "ராஜபக்ச": 9092,
      "கதாநாயக": 9093,
      "எதிர்பாராத": 9094,
      "##முடியாத": 9095,
      "கன்னியாகும": 9096,
      "சர்ச்ச": 9097,
      "சாக்": 9098,
      "##ub": 9099,
      "##க்குமா": 9100,
      "##ிகர்": 9101,
      "குட்டி": 9102,
      "##ினரின்": 9103,
      "புல்": 9104,
      "நாளுக்கு": 9105,
      "##ளித்தார்": 9106,
      "அமைப்பை": 9107,
      "உடற்ப": 9108,
      "##ப்படுகிறார்கள்": 9109,
      "சூடு": 9110,
      "கட்டமைப்பு": 9111,
      "மோதிய": 9112,
      "##விடலாம்": 9113,
      "பயன்படுத்தப்படும்": 9114,
      "##ஷ்டி": 9115,
      "வேகத்தில்": 9116,
      "உயிரின": 9117,
      "சிறுவன்": 9118,
      "பகுதியைச்": 9119,
      "முரண்ப": 9120,
      "மிளகு": 9121,
      "பின்த": 9122,
      "அறிகுறிகள்": 9123,
      "##ளாவிய": 9124,
      "சம்": 9125,
      "ஜப்பான": 9126,
      "த்": 9127,
      "வில்லை": 9128,
      "செஞ்ச": 9129,
      "##விடுகிறது": 9130,
      "குட்ட": 9131,
      "காட்டும்": 9132,
      "கோலி": 9133,
      "##ிட்டல்": 9134,
      "நிமிடம்": 9135,
      "சாறு": 9136,
      "கணேசன்": 9137,
      "சீனி": 9138,
      "##களிலிருந்து": 9139,
      "##ில்லியில்": 9140,
      "நாளும்": 9141,
      "பள்ளிகளில்": 9142,
      "கேட்கும்": 9143,
      "யோசி": 9144,
      "##ப்பாட்டை": 9145,
      "அழைக்கப்படும்": 9146,
      "கும்பல்": 9147,
      "குதிரை": 9148,
      "தொகுதிகளைக்": 9149,
      "ஓட": 9150,
      "தளம்": 9151,
      "கொல": 9152,
      "போகிறது": 9153,
      "##ாவதாக": 9154,
      "மற்றவர்கள்": 9155,
      "##ரியாக": 9156,
      "##ளித்து": 9157,
      "இயங்கி": 9158,
      "படங்களை": 9159,
      "கட்டளை": 9160,
      "நாடுகளுக்கு": 9161,
      "மைத்திரி": 9162,
      "##ity": 9163,
      "சேர்த்துக்": 9164,
      "தாயார்": 9165,
      "களத்தில்": 9166,
      "பாவம்": 9167,
      "கேரளாவில்": 9168,
      "உலோக": 9169,
      "கடினமான": 9170,
      "ரஜினிகாந்த்": 9171,
      "ஃபை": 9172,
      "இவர்களை": 9173,
      "இத்திட்ட": 9174,
      "ஐஸ்": 9175,
      "தொட்டு": 9176,
      "##ாவா": 9177,
      "புண்ண": 9178,
      "வருவதாகவும்": 9179,
      "##ப்படவுள்ள": 9180,
      "முதல்வராக": 9181,
      "திவ": 9182,
      "எல்லையில்": 9183,
      "மருத்துவம்": 9184,
      "மேற்கொள்": 9185,
      "வைத்திருக்கும்": 9186,
      "##வருமான": 9187,
      "டெக்": 9188,
      "##ஸ்கோ": 9189,
      "அறக்கட்ட": 9190,
      "அழகாக": 9191,
      "உபயோக": 9192,
      "விக்னே": 9193,
      "மைக்ரோ": 9194,
      "அர்ப்ப": 9195,
      "அயோ": 9196,
      "ஆட்டம்": 9197,
      "இசு": 9198,
      "பைக்": 9199,
      "மதிக்க": 9200,
      "##ந்தால்": 9201,
      "##ிருத்த": 9202,
      "##மைக்கு": 9203,
      "ஒருவரின்": 9204,
      "எனில்": 9205,
      "கடலுார்": 9206,
      "பூண்டு": 9207,
      "காட்டுகிறது": 9208,
      "##ணும்னு": 9209,
      "நுழைவு": 9210,
      "விளக்கம": 9211,
      "அபராதம்": 9212,
      "The": 9213,
      "ஓரி": 9214,
      "பிக்": 9215,
      "##சமாக": 9216,
      "##க்ட": 9217,
      "##த்க": 9218,
      "##றே": 9219,
      "##ணாம": 9220,
      "##ையொட்டி": 9221,
      "கொவிட்": 9222,
      "##ாவே": 9223,
      "சேரும்": 9224,
      "##மென்": 9225,
      "துவங்கி": 9226,
      "இடம்பெற": 9227,
      "நடிக்கும்": 9228,
      "பராமரிக்க": 9229,
      "ஒத்துழைப்பு": 9230,
      "கமிஷனர்": 9231,
      "58": 9232,
      "இப்": 9233,
      "சிக": 9234,
      "ரை": 9235,
      "##சாக": 9236,
      "##திலும்": 9237,
      "##ோருக்கு": 9238,
      "##க்கமாக": 9239,
      "##க்காய்": 9240,
      "##க்களம்": 9241,
      "எனச்": 9242,
      "##ாமன்": 9243,
      "பயிர்": 9244,
      "இருக்கும்போது": 9245,
      "அமைச்சகம்": 9246,
      "மாதங்களாக": 9247,
      "வடகிழ": 9248,
      "விரும்பவில்லை": 9249,
      "மாதிரிகள்": 9250,
      "##மொன்ற": 9251,
      "இல்லாததால்": 9252,
      "இணையத்தில்": 9253,
      "உருவாகி": 9254,
      "புரிந்துகொள்ள": 9255,
      "அதிர்ச்சியை": 9256,
      "அதிர்ஷ்ட": 9257,
      "எஸ்ட": 9258,
      "எங்கும்": 9259,
      "சிக்": 9260,
      "ஹூ": 9261,
      "##பன்": 9262,
      "##மறை": 9263,
      "##ளவுக்கு": 9264,
      "##த்திலே": 9265,
      "திருவார": 9266,
      "வந்தன": 9267,
      "வந்ததும்": 9268,
      "கருவி": 9269,
      "சமாளிக்க": 9270,
      "கொண்டுள்ள": 9271,
      "##பாடுகள்": 9272,
      "நோட்ட": 9273,
      "பரவு": 9274,
      "வளர்த்த": 9275,
      "தரமான": 9276,
      "தனித்துவ": 9277,
      "பரிசோத": 9278,
      "நிறைவேற்று": 9279,
      "கர்நாட": 9280,
      "##தேசம்": 9281,
      "நரம்பு": 9282,
      "பரம்பரை": 9283,
      "ஆண்டும்": 9284,
      "இத்திரை": 9285,
      "உடு": 9286,
      "ஒழி": 9287,
      "வன்ன": 9288,
      "##ோன்": 9289,
      "##ெந்த": 9290,
      "##han": 9291,
      "##ேஸ்வர": 9292,
      "பிராம": 9293,
      "##டுகிற": 9294,
      "பொதுத்": 9295,
      "##ர்வ்": 9296,
      "ஒன்றியம்": 9297,
      "நானே": 9298,
      "சிறுநீர": 9299,
      "நுழ": 9300,
      "பாதிக்கப்பட்டு": 9301,
      "உறுப்பினர்களைத்": 9302,
      "பகல்": 9303,
      "##ஷ்ணு": 9304,
      "இறைவன்": 9305,
      "தெளிவான": 9306,
      "வலியுறுத்த": 9307,
      "விண்ணப்பி": 9308,
      ")\"": 9309,
      "ஆடு": 9310,
      "வான்": 9311,
      "##வனம்": 9312,
      "##ாபி": 9313,
      "##மில்": 9314,
      "##ளிலிருந்து": 9315,
      "##த்தவர்": 9316,
      "##ிரத": 9317,
      "##த்துக்க": 9318,
      "பிரம்ம": 9319,
      "நடமா": 9320,
      "தொடக்கம்": 9321,
      "பிறப்பிக்க": 9322,
      "பயன்பாடு": 9323,
      "எந்தவித": 9324,
      "சொன்னால்": 9325,
      "காட்டிலும்": 9326,
      "தோல்விய": 9327,
      "விவரங்கள்": 9328,
      "தேர்ந்தெடுக்கின்றனர்": 9329,
      "அடிப்படையாகக்": 9330,
      "தண்ணீரில்": 9331,
      "மின்னஞ்ச": 9332,
      "மோதல்": 9333,
      "சராச": 9334,
      "உட்கார்ந்து": 9335,
      "கீழ்க்கண்ட": 9336,
      "',": 9337,
      "ph": 9338,
      "எகி": 9339,
      "கரும்பு": 9340,
      "சமை": 9341,
      "##ளோடு": 9342,
      "கொத்த": 9343,
      "காப்பு": 9344,
      "எனக்கும்": 9345,
      "தேதிய": 9346,
      "##வேண்ட": 9347,
      "மீன்பி": 9348,
      "இருந்தபோது": 9349,
      "சொல்லலாம்": 9350,
      "பரீட்ச": 9351,
      "##விட்டேன்": 9352,
      "##விட்டாலும்": 9353,
      "கிரா": 9354,
      "வளர": 9355,
      "பாதுகாப்பாக": 9356,
      "கண்டனம்": 9357,
      "முறையான": 9358,
      "கொல்லப்பட்ட": 9359,
      "சேவையை": 9360,
      "stor": 9361,
      "கோரிக்கையை": 9362,
      "சாகுபடி": 9363,
      "95": 9364,
      "ஆச்சர்": 9365,
      "##ly": 9366,
      "முளை": 9367,
      "##றிந்து": 9368,
      "வேகம்": 9369,
      "பிரியா": 9370,
      "பாடம்": 9371,
      "மீற": 9372,
      "திருட்டு": 9373,
      "பூங்க": 9374,
      "##ராக்": 9375,
      "##ரவையில்": 9376,
      "##ர்களைக்": 9377,
      "##ீரல்": 9378,
      "செய்யப்பட்டனர்": 9379,
      "விண்ணப்பிக்க": 9380,
      "கண்டித்து": 9381,
      "கம்ப்": 9382,
      "முதன்முத": 9383,
[...]
