{
  "version": "1.0",
  "truncation": null,
  "padding": null,
  "added_tokens": [
    {
      "id": 0,
      "content": "[UNK]",
      "single_word": false,
      "lstrip": false,
      "rstrip": false,
      "normalized": false,
      "special": true
    },
    {
      "id": 1,
      "content": "[PAD]",
      "single_word": false,
      "lstrip": false,
      "rstrip": false,
      "normalized": false,
      "special": true
    },
    {
      "id": 2,
      "content": "[CLS]",
      "single_word": false,
      "lstrip": false,
      "rstrip": false,
      "normalized": false,
      "special": true
    },
    {
      "id": 3,
      "content": "[SEP]",
      "single_word": false,
      "lstrip": false,
      "rstrip": false,
      "normalized": false,
      "special": true
    },
    {
      "id": 4,
      "content": "[MASK]",
      "single_word": false,
      "lstrip": false,
      "rstrip": false,
      "normalized": false,
      "special": true
    }
  ],
  "normalizer": null,
  "pre_tokenizer": {
    "type": "ByteLevel",
    "add_prefix_space": false,
    "trim_offsets": true,
    "use_regex": true
  },
  "post_processor": null,
  "decoder": null,
  "model": {
    "type": "BPE",
    "dropout": null,
    "unk_token": null,
    "continuing_subword_prefix": null,
    "end_of_word_suffix": null,
    "fuse_unk": false,
    "byte_fallback": false,
    "ignore_merges": false,
    "vocab": {
      "[UNK]": 0,
      "[PAD]": 1,
      "[CLS]": 2,
      "[SEP]": 3,
      "[MASK]": 4,
      "!": 5,
      "\"": 6,
      "#": 7,
      "$": 8,
      "%": 9,
      "&": 10,
      "'": 11,
      "(": 12,
      ")": 13,
      "*": 14,
      "+": 15,
      ",": 16,
      "-": 17,
      ".": 18,
      "/": 19,
      "0": 20,
      "1": 21,
      "2": 22,
      "3": 23,
      "4": 24,
      "5": 25,
      "6": 26,
      "7": 27,
      "8": 28,
      "9": 29,
      ":": 30,
      ";": 31,
      "<": 32,
      "=": 33,
      ">": 34,
      "?": 35,
      "@": 36,
      "A": 37,
      "B": 38,
      "C": 39,
      "D": 40,
      "E": 41,
      "F": 42,
      "G": 43,
      "H": 44,
      "I": 45,
      "J": 46,
      "K": 47,
      "L": 48,
      "M": 49,
      "N": 50,
      "O": 51,
      "P": 52,
      "Q": 53,
      "R": 54,
      "S": 55,
      "T": 56,
      "U": 57,
      "V": 58,
      "W": 59,
      "X": 60,
      "Y": 61,
      "Z": 62,
      "[": 63,
      "\\": 64,
      "]": 65,
      "^": 66,
      "_": 67,
      "`": 68,
      "a": 69,
      "b": 70,
      "c": 71,
      "d": 72,
      "e": 73,
      "f": 74,
      "g": 75,
      "h": 76,
      "i": 77,
      "j": 78,
      "k": 79,
      "l": 80,
      "m": 81,
      "n": 82,
      "o": 83,
      "p": 84,
      "q": 85,
      "r": 86,
      "s": 87,
      "t": 88,
      "u": 89,
      "v": 90,
      "w": 91,
      "x": 92,
      "y": 93,
      "z": 94,
      "{": 95,
      "|": 96,
      "}": 97,
      "~": 98,
      "¡": 99,
      "¢": 100,
      "£": 101,
      "¤": 102,
      "¥": 103,
      "¦": 104,
      "§": 105,
      "¨": 106,
      "©": 107,
      "ª": 108,
      "«": 109,
      "¬": 110,
      "®": 111,
      "¯": 112,
      "°": 113,
      "±": 114,
      "²": 115,
      "³": 116,
      "´": 117,
      "µ": 118,
      "¶": 119,
      "·": 120,
      "¸": 121,
      "¹": 122,
      "º": 123,
      "»": 124,
      "¼": 125,
      "½": 126,
      "¾": 127,
      "¿": 128,
      "À": 129,
      "Á": 130,
      "Â": 131,
      "Ã": 132,
      "Ä": 133,
      "Å": 134,
      "Æ": 135,
      "Ç": 136,
      "È": 137,
      "É": 138,
      "Ê": 139,
      "Ë": 140,
      "Ì": 141,
      "Í": 142,
      "Î": 143,
      "Ï": 144,
      "Ð": 145,
      "Ñ": 146,
      "Ò": 147,
      "Ó": 148,
      "Ô": 149,
      "Õ": 150,
      "Ö": 151,
      "×": 152,
      "Ø": 153,
      "Ù": 154,
      "Ú": 155,
      "Û": 156,
      "Ü": 157,
      "Ý": 158,
      "Þ": 159,
      "ß": 160,
      "à": 161,
      "á": 162,
      "â": 163,
      "ã": 164,
      "ä": 165,
      "å": 166,
      "æ": 167,
      "ç": 168,
      "è": 169,
      "é": 170,
      "ê": 171,
      "ë": 172,
      "ì": 173,
      "í": 174,
      "î": 175,
      "ï": 176,
      "ð": 177,
      "ñ": 178,
      "ò": 179,
      "ó": 180,
      "ô": 181,
      "õ": 182,
      "ö": 183,
      "÷": 184,
      "ø": 185,
      "ù": 186,
      "ú": 187,
      "û": 188,
      "ü": 189,
      "ý": 190,
      "þ": 191,
      "ÿ": 192,
      "Ā": 193,
      "ā": 194,
      "Ă": 195,
      "ă": 196,
      "Ą": 197,
      "ą": 198,
      "Ć": 199,
      "ć": 200,
      "Ĉ": 201,
      "ĉ": 202,
      "Ċ": 203,
      "ċ": 204,
      "Č": 205,
      "č": 206,
      "Ď": 207,
      "ď": 208,
      "Đ": 209,
      "đ": 210,
      "Ē": 211,
      "ē": 212,
      "Ĕ": 213,
      "ĕ": 214,
      "Ė": 215,
      "ė": 216,
      "Ę": 217,
      "ę": 218,
      "Ě": 219,
      "ě": 220,
      "Ĝ": 221,
      "ĝ": 222,
      "Ğ": 223,
      "ğ": 224,
      "Ġ": 225,
      "ġ": 226,
      "Ģ": 227,
      "ģ": 228,
      "Ĥ": 229,
      "ĥ": 230,
      "Ħ": 231,
      "ħ": 232,
      "Ĩ": 233,
      "ĩ": 234,
      "Ī": 235,
      "ī": 236,
      "Ĭ": 237,
      "ĭ": 238,
      "Į": 239,
      "į": 240,
      "İ": 241,
      "ı": 242,
      "Ĳ": 243,
      "ĳ": 244,
      "Ĵ": 245,
      "ĵ": 246,
      "Ķ": 247,
      "ķ": 248,
      "ĸ": 249,
      "Ĺ": 250,
      "ĺ": 251,
      "Ļ": 252,
      "ļ": 253,
      "Ľ": 254,
      "ľ": 255,
      "Ŀ": 256,
      "ŀ": 257,
      "Ł": 258,
      "ł": 259,
      "Ń": 260,
      "à®": 261,
      "à¯": 262,
      "à¯į": 263,
      "Ġà®": 264,
      "à¯ģ": 265,
      "à®¿": 266,
      "à®ķ": 267,
      "à®¤": 268,
      "à®°": 269,
      "à®Ł": 270,
      "à®¾": 271,
      "à®²": 272,
      "à®©": 273,
      "à®®": 274,
      "à®ª": 275,
      "à¯Ī": 276,
      "à®³": 277,
      "à®¯": 278,
      "à®±": 279,
      "à®µ": 280,
      "Ġà®ª": 281,
      "Ġà®ķ": 282,
      "à®ļ": 283,
      "Ġà®®": 284,
      "Ġà®µ": 285,
      "à®ķà®³": 286,
      "à®¨": 287,
      "à¯ĩ": 288,
      "Ġà®ħ": 289,
      "Ġà®¤": 290,
      "à®£": 291,
      "Ġà®ļ": 292,
      "à¯Ĩ": 293,
      "Ġà®ĩ": 294,
      "Ġà®¨": 295,
      "ĠĠ": 296,
      "à¯ĭ": 297,
      "à¯į.": 298,
      "à®Ļ": 299,
      "Ġà®İ": 300,
      "à¯Ĭ": 301,
      "à®´": 302,
      "à®ªà®Ł": 303,
      "à¯į,": 304,
      "à¯Ģ": 305,
      "à¯Ĥ": 306,
      "Ġà®ī": 307,
      "à®µà®°": 308,
      "ĠĠĠĠ": 309,
      "Ġà®İà®©": 310,
      "Ġà®Ĩ": 311,
      "à¯ģ.": 312,
      "Ġà®ĩà®°": 313,
      "Ġà®Ĵ": 314,
      "à®¸": 315,
      "Ġà®ħà®¤": 316,
      "à®ªà®¤": 317,
      "à®Łà®¤": 318,
      "à®µà®¤": 319,
      "âĢ": 320,
      "ĠĠĠĠĠĠĠĠ": 321,
      "à®©à®°": 322,
      "à®ķà®ª": 323,
      "à®±à®¤": 324,
      "Ġà®µà®°": 325,
      "à®Łà®®": 326,
      "à¯ģ,": 327,
      "Ġà®Ĵà®°": 328,
      "à®¤à®²": 329,
      "Ġà®ĩà®¨": 330,
      "Ġà®°": 331,
      "Ġà®ķà®Ł": 332,
      "à®ķà®®": 333,
      "à®ķà®°": 334,
      "à®³à®¤": 335,
      "Ġà®ĩà®¤": 336,
      "Ġà®®à®±": 337,
      "à®¤à®¤": 338,
      "à®°à®®": 339,
      "à®ķà®µ": 340,
      "à®ķà®¤": 341,
      "Ġà®ħà®µà®°": 342,
      "Ġà®īà®³": 343,
      "à®ľ": 344,
      "Ġà®ı": 345,
      "à®Łà®©": 346,
      "à®¯à®²": 347,
      "Ġà®ħà®°": 348,
      "Ġà®ħà®®": 349,
      "Ġà®¨à®Ł": 350,
      "à®¯à®¤": 351,
      "à®¤à®®": 352,
      "à®¯à®®": 353,
      "à®Łà®°": 354,
      "à®ĩ": 355,
      "Ġ1": 356,
      "à®·": 357,
      "à®©à®¤": 358,
      "à®¯à®°": 359,
      "à®³à®°": 360,
      "Ġà®Ł": 361,
      "Ġà®µà®´": 362,
      "..": 363,
      "à®°à®¤": 364,
      "à®¤à®©": 365,
      "Ġ2": 366,
      "Ġà®ªà®Ł": 367,
      "Ġà®ĩà®²": 368,
      "Ġà®ħà®©": 369,
      "Ġà®ħà®Ł": 370,
      "à®¿,": 371,
      "à®µà®©": 372,
      "à®¿.": 373,
      "Ġà®ªà®²": 374,
      "ĠĠĠĠĠĠĠĠĠĠĠĠĠĠĠĠ": 375,
      "à®ķà®²": 376,
      "Ġà®ľ": 377,
      "à®ŀ": 378,
      "à®²à®¤": 379,
      "à®ªà®°": 380,
      "Ġà®®à®ķ": 381,
      "Ġà®ħà®°à®ļ": 382,
      "Ġà®¤à®®": 383,
      "Ġà®ħà®±": 384,
      "à®²à®®": 385,
      "à®¤à®°": 386,
      "Ġà®ķà®£": 387,
      "Ġà®ķà®²": 388,
      "à®ħ": 389,
      "à®°à®£": 390,
      "ĠâĢ": 391,
      "Ġà®ıà®±": 392,
      "Ġ(": 393,
      "à®¤à®ª": 394,
      "Ġà®ĩà®©": 395,
      "à®Łà®Ļ": 396,
      "Ġà®ļà®®": 397,
      "à®¯à®©": 398,
      "Ġà®µà®¨": 399,
      "à¯Ī.": 400,
      "Ġà®¤à®²": 401,
      "Ġà®İà®¤": 402,
      "Ġà®Ĩà®£": 403,
      "à®µà®Ł": 404,
      "Ġà®ħà®²": 405,
      "à®¤à®µ": 406,
      "Ġà®ªà®£": 407,
      "à®®à®²": 408,
      "Ġà®Ĩà®ķ": 409,
      "à®İ": 410,
      "Ġà®ķà®°": 411,
      "Ġà®ħà®µ": 412,
      "Ġà®ħà®¨": 413,
      "Ġà®¤à®©": 414,
      "Ġà®ªà®ķ": 415,
      "à®ļà®®": 416,
      "Ġà®Ĭ": 417,
      "à¯Ī,": 418,
      "Ġà®²": 419,
      "Ġà®®à®©": 420,
      "à®®à®©": 421,
      "Ġà®¯": 422,
      "à®¯à®ª": 423,
      "à®ļà®°": 424,
      "Ġà®ªà®°": 425,
      "à®Łà®²": 426,
      "Ġà®ªà®¤": 427,
      "Ġà®İà®Ł": 428,
      "00": 429,
      "Ġà®īà®£": 430,
      "Ġà®īà®°": 431,
      "âĢĻ": 432,
      "à®³à®µ": 433,
      "Ġà®ħà®ª": 434,
      "Ġà®Ĩà®©": 435,
      "Ġà®īà®±": 436,
      "à®±à®ª": 437,
      "à®®à®¤": 438,
      "à®¯à®ķ": 439,
      "à®©à®®": 440,
      "à®µà®²": 441,
      "Ġà®®à®¤": 442,
      "Ġ-": 443,
      "Ġà®ĵ": 444,
      "Ġà®®à®°": 445,
      "à®Ĩ": 446,
      "à®ķà®Ł": 447,
      "à®´à®ķ": 448,
      "à®Łà®ª": 449,
      "Ġà®¸": 450,
      "à®±à®©": 451,
      "à®µà®®": 452,
      "Ġà®ħà®£": 453,
      "Ġà®ļà®°": 454,
      "à®¤à®ķ": 455,
      "à®Łà®ķ": 456,
      "à®°à®ļ": 457,
      "Ġà®µà®´à®Ļ": 458,
      "Ġ'": 459,
      "à®³à®®": 460,
      "Ġà®®à®Ł": 461,
      "Ġà®ļà®¨": 462,
      "à®²à®ķ": 463,
      "Ġà®®à®£": 464,
      "Ġà®İà®´": 465,
      "Ġà®Ĵà®©": 466,
      "Ġà®¤à®°": 467,
      "à®ļà®©": 468,
      "Ġà®¤à®Ł": 469,
      "à®¯à®±": 470,
      "à®±à®ķ": 471,
      "à®ķà®´": 472,
      "Ġà®¨à®®": 473,
      "à®ļà®¤": 474,
      "à®±à®®": 475,
      "Ġà®¹": 476,
      "Ġà®ĩà®µà®°": 477,
      "Ġà®ħà®¤à®©": 478,
      "Ġà®ªà®±": 479,
      "à®ĩà®¨": 480,
      "Ġà®µà®ķ": 481,
      "à®¯à®µ": 482,
      "à®ķà®ķ": 483,
      "Ġ3": 484,
      "à®¯à®Ļ": 485,
      "à®£à®®": 486,
      "Ġà®ĩà®ª": 487,
      "Ġà®İà®²": 488,
      "à®ķà®©": 489,
      "à®´à®¨": 490,
      "à®µà®¤à®±": 491,
      "Ġà®Ĳ": 492,
      "Ġà®ħà®´": 493,
      "Ġà®īà®Ļ": 494,
      "Ġà®ªà®¯à®©": 495,
      "à®±à®©à®°": 496,
      "Ġà®Ĩà®Ł": 497,
      "à®±à®¨": 498,
      "à®¾,": 499,
      "Ġà®ļà®Ł": 500,
      "à®¹": 501,
      "Ġ20": 502,
      "Ġà®ĩà®¤à®©": 503,
      "Ġ\"": 504,
      "à®¤à®µà®°": 505,
      "à®³à®©à®°": 506,
      "Ġà®Ī": 507,
      "ĠâĢĺ": 508,
      "Ġà®ªà®¯": 509,
      "Ġà®Ĩà®¯": 510,
      "Ġà®ĩà®°à®£": 511,
      "à®°à®£à®®": 512,
      "à®¤à®©à®°": 513,
      "Ġà®¨à®Łà®¤": 514,
      "Ġà®Ĩà®°": 515,
      "ĥà®ª": 516,
      "âĢĿ": 517,
      "Ġà®ĩà®£": 518,
      "Ġà®¤à®Ļ": 519,
      "Ġà®µà®´à®ķ": 520,
      "Ġà®ĩà®µ": 521,
      "à®ªà®®": 522,
      "Ġà®Ĭà®°": 523,
      "à®³à®©": 524,
      "à®ªà®©": 525,
      "à®²à®µ": 526,
      "à®°à®ª": 527,
      "Ġà®īà®Ł": 528,
      "Ġà®¤à®µ": 529,
      "Ġà®İà®£": 530,
      "Ġà®īà®¤": 531,
      "Ġ5": 532,
      "...": 533,
      "Ġà®µà®²": 534,
      "Ġà®ĩà®Ł": 535,
      "à¯į!": 536,
      "''": 537,
      "Ġà®¤à®±": 538,
      "à®µà®ķ": 539,
      "Ġà®ħà®³à®µ": 540,
      "Ġà®µà®Ł": 541,
      "ĠĠĠĠĠĠĠĠĠĠĠĠĠĠĠĠĠĠĠĠĠĠĠĠĠĠĠĠĠĠĠĠ": 542,
      "Ġà®ķà®Łà®¨": 543,
      "Ġà®¨à®²": 544,
      "à®®à®°": 545,
      "à®±à®µ": 546,
      "Ġ4": 547,
      "Ġà®ħà®Ļ": 548,
      "Ġ19": 549,
      "à®ªà®ķ": 550,
      "à®²à®Ļ": 551,
      "Ġà®¨à®Łà®¨": 552,
      "à®ļà®²": 553,
      "Ġà®¤à®¯": 554,
      "Ġà®¨à®ķà®°": 555,
      "Ġà®İà®¨": 556,
      "à®ªà®µà®°": 557,
      "Ġà®İà®ª": 558,
      "à®ī": 559,
      "Ġà®ķà®¤": 560,
      "à®ĩà®¤": 561,
      "à®°à®°": 562,
      "Ġà®ħà®³": 563,
      "à®¤à®°à®µ": 564,
      "à®²à®°": 565,
      "à¯į:": 566,
      "à®¾?": 567,
      "Ġà®ĩà®±": 568,
      "Ġà®īà®¯à®°": 569,
      "Ġà®İà®Ļ": 570,
      "à¯ĩ,": 571,
      "Ġà®ĩà®¯à®ķ": 572,
      "Ġà®īà®¤à®µ": 573,
      "à®°à®Ļ": 574,
      "à®µà®ļ": 575,
      "à®ķà®ļ": 576,
      "ĠâĢľ": 577,
      "à®ķà®µà®²": 578,
      "à¯įâĢĻ": 579,
      "à®ķà®£": 580,
      "Ġà®ªà®Ļ": 581,
      "à®°à®¸": 582,
      "Ġà®Ĩà®ļ": 583,
      "à®¾.": 584,
      "Ġà®īà®¯": 585,
      "an": 586,
      "à®°à®Ł": 587,
      "in": 588,
      "Ġà®¨à®Łà®µà®Ł": 589,
      "Ġà®¤à®©à®¤": 590,
      "Ġà®ĩà®Łà®®": 591,
      "Ġà®µà®³à®°": 592,
      "à®©à®µ": 593,
      "Ġà®ħà®ķ": 594,
      "Ġà®Ĩà®®": 595,
      "à¯į'": 596,
      "Ġà®İà®©à®ķ": 597,
      "Ġà®¤à®ķà®µà®²": 598,
      "à®³à®ķ": 599,
      "Ġ201": 600,
      "Ġà®ĵà®Ł": 601,
      "à®£à®ª": 602,
      "ĠĠĠ": 603,
      "Ġ6": 604,
      "Ġà®İà®®": 605,
      "Ġà®ªà®´": 606,
      "Ġà®ĩà®Ļ": 607,
      "à®Łà®µ": 608,
      "à®ķà®Ļ": 609,
      "à®ªà®¤à®±": 610,
      "à¯ĩ.": 611,
      "Ġà®īà®Łà®²": 612,
      "à®¤à®Ļ": 613,
      "à®²à®ª": 614,
      "20": 615,
      "à®°à®²": 616,
      "Ġà®ªà®³": 617,
      "à¯į)": 618,
      "am": 619,
      "Ġà®¤à®£": 620,
      "Ġ7": 621,
      "Ġà®¨à®©": 622,
      "à®®à®ķ": 623,
      "Ġà®Ĩà®°à®®": 624,
      "à®ªà®¨": 625,
      "Ġà®ħà®ļ": 626,
      "à®°à®µ": 627,
      "Ġà®ķà®²à®¨": 628,
      "ĠâĢĵ": 629,
      "à®µà®©à®®": 630,
      "Ġà®ļà®ķ": 631,
      "à®¯à®Ł": 632,
      "à¯ĩà®¾": 633,
      "à®£à®¤": 634,
      "Ġà®µà®¯à®¤": 635,
      "Ġà®ħà®¤à®±": 636,
      "à®ŀà®°": 637,
      "à¯į...": 638,
      "Ġà®İà®©à®µ": 639,
      "à®°à®©": 640,
      "Ġà®ªà®Łà®¤": 641,
      "à®°à®ķ": 642,
      "Ġà®Īà®Ł": 643,
      "à®ĥà®ª": 644,
      "à®İà®¸": 645,
      "Ġà®ħà®µà®©": 646,
      "Ġà®ľà®©": 647,
      "Ġà®ķà®µ": 648,
      "à®ªà®²": 649,
      "à®ªà®µ": 650,
      "Ġà®ĩà®²à®Ļ": 651,
      "à®Ĩà®®": 652,
      "à¯Ĩà®¾": 653,
      "Ġ10": 654,
      "at": 655,
      "à®ªà®±": 656,
      "à®Ĵ": 657,
      "Ġà®Ĩà®±": 658,
      "Ġà®²à®Ł": 659,
      "Ġà®ķà®´": 660,
      "er": 661,
      "à¯į-": 662,
      "à®ı": 663,
      "à®Łà®©à®°": 664,
      "Ġà®®à®²": 665,
      "à®£à®µà®°": 666,
      "à®´à®²": 667,
      "Ġà®ĩà®Łà®¤": 668,
      "Ġà®Ĩà®²": 669,
      "Ġà®īà®£à®µ": 670,
      "Ġà®Ĵà®ª": 671,
      "Ġà®īà®Łà®©": 672,
      "Ġà®ķà®®": 673,
      "Ġà®µà®£": 674,
      "Ġà®ļà®Ļ": 675,
      "à¯į?": 676,
      "à®İà®©": 677,
      "Ġà®īà®²à®ķ": 678,
      "Ġà®ħà®µà®°à®¤": 679,
      "à®ħà®¤": 680,
      ".,": 681,
      "à®Ĳ": 682,
      "ÂŃ": 683,
      "Ġà®ķà®±": 684,
      "à®°à®¤à®®": 685,
      "Ġà®ħà®µà®³": 686,
      "à®ļà®ª": 687,
      "à¯į;": 688,
      "à®¤à®¨": 689,
      "Ġà®·": 690,
      "Ġà®īà®£à®°": 691,
      "Ġà®ļà®¤": 692,
      "Ġà®ĥà®ª": 693,
      "Ġà®ıà®©": 694,
      "à®·à®©": 695,
      "Ġà®ĩà®³": 696,
      "Ġ8": 697,
      "on": 698,
      "ar": 699,
      "à®´à®®": 700,
      "à®³à®ª": 701,
      "à®®à®£": 702,
      "Ġà®Ĵà®µ": 703,
      "al": 704,
      "à®µà®¨": 705,
      "Ġà®ļà®ª": 706,
      "à®¨à®ķà®°": 707,
      "âĢ¦": 708,
      "Ġà®ĩà®ļ": 709,
      "Ġà®¤à®¨": 710,
      "à¯ģ:": 711,
      "âĢĺ": 712,
      "il": 713,
      "âĢĮ": 714,
      "Ġà®µà®ļ": 715,
      "Ġà®Ĵà®¤": 716,
      "Ġà®ĩà®¤à®±": 717,
      "à¯į\"": 718,
      "à®ķà®±": 719,
      "Ġà®Ĩà®¤": 720,
      "Ġ,": 721,
      "Ġà®¨à®Łà®ķ": 722,
      "à®³à®Ļ": 723,
      "à®£à®©": 724,
      "Ġà®µà®Ļ": 725,
      "Ġ9": 726,
      "or": 727,
      "à®¯à®µà®°": 728,
      "à¯ģà®¾": 729,
      "Ġà®ķà®©": 730,
      "000": 731,
      "à®´à®°": 732,
      "ĠT": 733,
      "Ġ:": 734,
      "à®°à®¤à®®à®°": 735,
      "Ġà®īà®²": 736,
      "th": 737,
      "à®µà®Ļ": 738,
      "Ġ.": 739,
      "à®Łà®µà®°": 740,
      "à¯ĭ,": 741,
      "ĠĠĠĠĠĠĠĠĠĠĠĠĠĠĠĠĠĠĠĠĠĠĠĠĠĠĠĠĠĠĠĠĠĠĠĠ": 742,
      "Ġà®ĩà®Łà®Ļ": 743,
      "es": 744,
      "à®İà®²": 745,
      "Ġà®Ĩà®³": 746,
      "à¯Ĥ.": 747,
      "Ġà®ªà®¤à®µ": 748,
      "Ġà®ķà®³": 749,
      "à®±à®²": 750,
      "Ġà®ķà®£à®ķ": 751,
      "Ġà®ıà®¤": 752,
      "à®´à®ķà®¤": 753,
      "Ġà®ªà®Łà®®": 754,
      "Ġà®ªà®²à®°": 755,
      "à¯įâĢĿ": 756,
      "à®µà®ª": 757,
      "à®±à®µà®°": 758,
      "à®£à®Ļ": 759,
      "à®©à®µà®°": 760,
      "Ġ200": 761,
      "Ġà®µà®°à®µ": 762,
      "19": 763,
      "ĠĠĠĠĠĠĠĠĠĠĠĠĠĠĠĠĠĠĠĠĠĠĠĠĠĠĠĠĠĠĠĠĠĠĠĠĠĠĠ": 764,
      "Ġà®ĵà®°": 765,
      "Ġà®Ĩà®¤à®°à®µ": 766,
      "à¯Į": 767,
      "à®£à®°": 768,
      "à®µà®©à®¤": 769,
      "à®µà®©à®Ļ": 770,
      "à®¤à®Ł": 771,
      "à®ªà®Łà®µ": 772,
      "Ġà®ªà®ļ": 773,
      "Ġà®ĩà®²à®ķ": 774,
      "à®Ĵà®°": 775,
      "à®±à®Ļ": 776,
      "à®²à®©": 777,
      "Ġà®µà®°à®²": 778,
      "Ġà®İà®µ": 779,
      "à®µà®®à®©": 780,
      "Ġ15": 781,
      "Ġà®¤à®µà®±": 782,
      "à¯į..": 783,
      "Ġà®¨à®ªà®°": 784,
      "à®´à®ª": 785,
      "),": 786,
      "à®ªà®Ļ": 787,
      "Ġà®µà®ļà®¤": 788,
      "Ġà®İà®¸": 789,
      "en": 790,
      "à¯ģ!": 791,
      "à®¯à®ļ": 792,
      "Ġà®¤à®ķ": 793,
      "à®ľà®©": 794,
      "à®µà®°à®¤": 795,
      "à®ļà®Ļ": 796,
      "Ġà®ªà®©": 797,
      "à®µà®³à®µ": 798,
      "Ġà®Ĩà®ª": 799,
      "Ġà®īà®±à®µ": 800,
      "Ġà®Ĩà®µ": 801,
      "à®ªà®£": 802,
      "à®ķà®³à®¤": 803,
      "ĠP": 804,
      "Ġà®¤à®³": 805,
      "Ġà®®à®ķà®©": 806,
      "à®Ĩà®°": 807,
      "Ġà®īà®©": 808,
      "à®¨à®°": 809,
      "Ġ12": 810,
      "Ġà®ħà®´à®ķ": 811,
      "Ġà®ķà®Łà®²": 812,
      "Ġà®°à®ļ": 813,
      "Ġ18": 814,
      "Ġà®®à®´": 815,
      "à®ªà®Łà®¤": 816,
      "Ġ|": 817,
      "à®©à®Ļ": 818,
      "à®¤à®ļ": 819,
      "Ġà®ħà®µà®±": 820,
      "Ġà®¤à®°à®ª": 821,
      "ĠS": 822,
      "Ġà®ĩà®°à®µ": 823,
      "Ġà®µà®³": 824,
      "à®Łà®£": 825,
      "ĠC": 826,
      "à®ªà®°à®ª": 827,
      "Ġà®īà®ļ": 828,
      "Ġà®ļà®¤à®µ": 829,
      "Ġà®ıà®°": 830,
      "à®®à®®": 831,
      "Ġà®¨à®£": 832,
      "ĠN": 833,
      "Ġà®īà®ª": 834,
      "à®ªà®ª": 835,
      "à®£à®µ": 836,
      "Ġà®İà®°": 837,
      "à®ªà®µà®®": 838,
      "Ġà®İà®³": 839,
      "Ġà®Ĵà®Ł": 840,
      "Ġà®Ĭà®Ł": 841,
      "à®ªà®³": 842,
      "Ġà®µà®©": 843,
      "à®ªà®Łà®®": 844,
      "Ġ11": 845,
      "à®¤à®±": 846,
      "Ġà®ªà®£à®®": 847,
      "amil": 848,
      "Ġà®ĩà®¯à®±": 849,
      "Ġà®Ĳà®¨": 850,
      "Ġà®®à®ķà®³": 851,
      "st": 852,
      "à®¯à®µà®±": 853,
      "à®°à®³": 854,
      "à¯Ī:": 855,
      "Ġà®°à®¤": 856,
      "à®µà®³": 857,
      "Ġà®ħà®µà®ļ": 858,
      "à®ļà®¨": 859,
      "ĠA": 860,
      "à®µà®²à®°": 861,
      "à®¯à®¨": 862,
      "à®İà®®": 863,
      "Ġà®Ĵà®´": 864,
      "ed": 865,
      "à®©à®£": 866,
      "ĠĠĠĠĠĠĠĠĠĠĠ": 867,
      "Ġà®ħà®®à®°": 868,
      "à®ħà®®": 869,
      "à¯ģ?": 870,
      "Ġà®ªà®¯à®£": 871,
      "à®Ĩà®©": 872,
      "ic": 873,
      "Ġà®ķà®Łà®©": 874,
      "Ġà®Ĵà®³": 875,
      "it": 876,
      "âĢľ": 877,
      "Ġà®İà®©à®¤": 878,
      "ew": 879,
      "Ġà®Ĭà®´": 880,
      "ĠM": 881,
      "à®ĩà®©": 882,
      "à®®à®£à®®": 883,
      "à®Łà®ļ": 884,
      "à®ļà®ķ": 885,
      "Ġà®ªà®Łà®Ļ": 886,
      "Ġ`": 887,
      "à®Łà®±": 888,
      "à®ĩà®¤à®©": 889,
      "Ġà®ķà®ª": 890,
      "à®©à®ª": 891,
      "à®ľà®°": 892,
      "Ġ30": 893,
      "Ġà®ªà®°à®µ": 894,
      "Ġà®µà®Łà®ķ": 895,
      "Ġà®İà®ļ": 896,
      "à¯įÂŃ": 897,
      "Ġà®ĩà®ķ": 898,
      "Ġà®ĩà®±à®¨": 899,
      "à®ľà®¯": 900,
      "à®¿:": 901,
      "à®µà®±": 902,
      "à®ħà®ª": 903,
      "Ġà®ĩà®®": 904,
      "à¯ģ...": 905,
      "Ġà®¤à®ª": 906,
      "Ġ''": 907,
      "à®©à®²": 908,
      "ad": 909,
      "à®ķà®°à®©": 910,
      "Ġà®Ĩà®Ļ": 911,
      "om": 912,
      "Ġà®®à®©à®¤": 913,
      "Ġà®ĩà®¯à®²": 914,
      "Ġà®ıà®´": 915,
      "Ġ25": 916,
      "Ġà®ļà®©": 917,
      "Ġà®°à®¯": 918,
      "Ġà®ŀ": 919,
      "ĠĠĠĠĠĠĠĠĠĠĠĠĠĠĠĠĠĠĠĠĠĠĠĠĠĠĠ": 920,
      "à®®à®±": 921,
      "Ġà®Īà®°": 922,
      "Ġ16": 923,
      "Ġà®ķà®Łà®±": 924,
      "à®·à®®": 925,
      "Ġ13": 926,
      "201": 927,
      "Ġt": 928,
      "à®®à®¨": 929,
      "à¯į.,": 930,
      "ews": 931,
      "à®®à®Ļ": 932,
      "Ġà®¨à®ķ": 933,
      "re": 934,
      "à®ķà®°à®®": 935,
      "à®ļà®Ł": 936,
      "Ġà®ķà®µà®©": 937,
      "Ġ14": 938,
      "à®¤à®ªà®Ł": 939,
      "Ġs": 940,
      "à®µà®£": 941,
      "Ġà®İà®©à®ª": 942,
      "ĠR": 943,
      "à®ĵ": 944,
      "Ġ0": 945,
      "le": 946,
      "Ġà®ļà®µ": 947,
      "à®¨à®Ł": 948,
      "âĢĻâĢĻ": 949,
      "âĢĭ": 950,
      "Ġ50": 951,
      "à®¯à®²à®²": 952,
      "Ġà®īà®Łà®©à®Ł": 953,
      "ĠTamil": 954,
      "as": 955,
      "Ġ17": 956,
      "à®¤à®ķà®®": 957,
      "is": 958,
      "Ġà®ķà®µà®©à®®": 959,
      "à®Łà®®à®©": 960,
      "Ġà®ĩà®´": 961,
      "Ġà®ĩà®¸": 962,
      "Ġth": 963,
      "à¯ĩ!": 964,
      "Ġà®µà®±": 965,
      "à®ªà®¯": 966,
      "Ġc": 967,
      "à®£à®ķ": 968,
      "Ġà®ĩà®¯à®Ļ": 969,
      "à®ħà®Ł": 970,
      "à®®à®Ł": 971,
      "ĠI": 972,
      "ing": 973,
      "à®©à®ķ": 974,
      "à®±à®ļ": 975,
      "ol": 976,
      "Ġ24": 977,
      "Ġp": 978,
      "ur": 979,
      "à¯ģ;": 980,
      "à®ķà®³à®µ": 981,
      "à®ķà®¨": 982,
      "à®²à®Ł": 983,
      "Ġà®ļà®²": 984,
      "à®ķà®©à®µ": 985,
      "Ġà®ĩà®±à®Ļ": 986,
      "à®³à®²": 987,
      "Ġà®ķà®µà®°": 988,
      "ion": 989,
      "30": 990,
      "Âł": 991,
      "Ġà®ĩà®µà®±": 992,
      "Ġà®ĵà®¯": 993,
      "à®ªà®°à®®": 994,
      "à®¿.,": 995,
      "Ġ100": 996,
      "à®°à®£à®¤": 997,
      "10": 998,
      "Ġà®īà®´": 999,
      "ĠB": 1000,
      "Ġà®Ĵà®²": 1001,
      "à®ĩà®°": 1002,
      "à®ļà®¯à®®": 1003,
      "Ġà®İà®ķ": 1004,
      "Ġà®ªà®ŀ": 1005,
      "à®¿-": 1006,
      "Ġ[": 1007,
      "à®ķà®Łà®¨": 1008,
      "Ġà®¨à®µ": 1009,
      "à®ĩà®²": 1010,
      "21": 1011,
      "à®ħà®¨": 1012,
      "Ġà®ļà®±": 1013,
      "Ġà®ªà®¨": 1014,
      "à®ªà®Łà®Ļ": 1015,
      "Ġà®¨à®®à®ķ": 1016,
      "Ġ(\"": 1017,
      "à®ħà®µà®°": 1018,
      "à¯įâĢ¦": 1019,
      "Ġà®ªà®£à®¤": 1020,
      "Ġà®ļà®£": 1021,
      "Ġà®Ĳà®ķ": 1022,
      "à®µà®°à®Ļ": 1023,
      "Ġà®ªà®°à®ª": 1024,
      "ĠNews": 1025,
      "Ġà®ļà®ļ": 1026,
      "ai": 1027,
      "à®¤à®©à®®": 1028,
      "Ġ199": 1029,
      "Ġà®ªà®´à®ķ": 1030,
      "Ġà®Ĩà®¸": 1031,
      "50": 1032,
      "à¯ģ)": 1033,
      "Ġà®¤à®®à®¤": 1034,
      "à®ķà®£à®ķ": 1035,
      "Ġà®ĩà®´à®¨": 1036,
      "à®©à®©": 1037,
      "à®µà®°à®®": 1038,
      "à®¤à®´": 1039,
      "Ġà®ķà®µà®²": 1040,
      "Ġà®°à®µ": 1041,
      "Ġà®ķà®Łà®µ": 1042,
      "à®ĩà®µ": 1043,
      "Ġà®ĩà®³à®®": 1044,
      "ĠD": 1045,
      "Ġo": 1046,
      "à®µà®²à®ķà®¤": 1047,
      "à®¾à¯į": 1048,
      "à¯Ī!": 1049,
      "à®ĩà®ª": 1050,
      "Ġà®ĩà®±à®ķ": 1051,
      "à®ħà®©": 1052,
      "Ġà®ªà®°à®µà®²": 1053,
      "Ġà®Ĭà®Łà®ķ": 1054,
      "à®¯à®³": 1055,
      "à®¤à®²à®®": 1056,
      "Ġm": 1057,
      "à®£à®²": 1058,
      "Ġà®ıà®ķ": 1059,
      "à¯ģâĢĻ": 1060,
      "Ġà®®à®¹": 1061,
      "à®°à®£à®Ļ": 1062,
      "Ġà®°à®ľ": 1063,
      "el": 1064,
      "Ġà®¨à®®à®¤": 1065,
      "Ġà®®à®¨": 1066,
      "à®µà®´": 1067,
      "Ġà®ħà®Łà®Ļ": 1068,
      "Ġà®®à®ļ": 1069,
      "Ġà®ĩà®¤à®´": 1070,
      "à®¯à®£": 1071,
      "à®ħà®°à®ļ": 1072,
      "Ġà®ĩà®µà®°à®¤": 1073,
      "ay": 1074,
      "à®¾...": 1075,
      "ĠL": 1076,
      "Ġà®ªà®¸": 1077,
      "ĠG": 1078,
      "Ġà®ªà®¯à®Ļ": 1079,
      "Ġà®¤à®©à®ķ": 1080,
      "Ġà®Ĭà®°à®Łà®Ļ": 1081,
      "ch": 1082,
      "Ġà®ªà®µ": 1083,
      "à®³à®µà®°": 1084,
      "di": 1085,
      "à®ľà®ķ": 1086,
      "à®·à®¯à®Ļ": 1087,
      "Ġ/": 1088,
      "Ġà®ķà®Łà®¤": 1089,
      "à®īà®Ļ": 1090,
      "à®°à®¨": 1091,
      "à®µà®¤à®©": 1092,
      "Ġà®ķà®®à®²": 1093,
      "à®ķà®²à®®": 1094,
      "à®ªà®µà®¤": 1095,
      "à®ĩà®ķ": 1096,
      "Ġ21": 1097,
      "à®¿!": 1098,
      "Ġf": 1099,
      "Ġw": 1100,
      "Ġthe": 1101,
      "un": 1102,
      "Ġb": 1103,
      "Ġ40": 1104,
      "à®ļà®ķà®°": 1105,
      "Ġà®ĩà®´à®ª": 1106,
      "à®®à®ª": 1107,
      "Ġà®ªà®°à®ªà®°à®ª": 1108,
      "ag": 1109,
      "Ġà®ħà®ŀ": 1110,
      "Ġà®¤à®°à®µ": 1111,
      "Ġà®ªà®²à®©": 1112,
      "Ġà®ªà®¯à®£à®®": 1113,
      "à®¿)": 1114,
      "and": 1115,
      "....": 1116,
      "Ġin": 1117,
      "à®ļà®©à®®": 1118,
      "ĠO": 1119,
      "Ġà®¨à®°": 1120,
      "Ġà®ķà®Łà®®": 1121,
      "à®·à®¯à®®": 1122,
      "à¯ģ'": 1123,
      "à¯ģ..": 1124,
      "Ġà®®à®©à®®": 1125,
      "à®°à®µà®°": 1126,
      "à®¯à®ķà®®": 1127,
      "à®ķà®Łà®²": 1128,
      "Ġà®ªà®´à®©": 1129,
      "Ġà®°à®©": 1130,
      "Ġà®ħà®µà®¤": 1131,
      "Ġà®Ĩà®ªà®¤": 1132,
      "Ġà®ķà®£à®µà®°": 1133,
      "à®Łà®¨": 1134,
      "Ġ23": 1135,
      "à®©à®¨": 1136,
      "Ġà®īà®²à®ķà®®": 1137,
      "us": 1138,
      "Ġà®Ĩà®´": 1139,
      "Ġ22": 1140,
      "Ġà®Ĭà®±": 1141,
      "à®®à®ļ": 1142,
      "à®¿âĢĻ": 1143,
      "ri": 1144,
      "à®¤à®³": 1145,
      ").": 1146,
      "à®°à®®à®£": 1147,
      "à®ľà®ªà®ķ": 1148,
      "Ġà®ķà®©à®µ": 1149,
      "à®ªà®Łà®²": 1150,
      "Ġà®ħà®®à®²": 1151,
      "à¯įâĢĮ": 1152,
      "à®ĩà®²à®Ļ": 1153,
      "Ġ198": 1154,
      "à®±à®°": 1155,
      "à®¯à®ķà®°": 1156,
      "Ġà®ħà®ķà®±": 1157,
      "ĠF": 1158,
      "à®ķà®µà®°": 1159,
      "ent": 1160,
      "Ġà®ªà®²à®®": 1161,
      "à®ķà®°à®µ": 1162,
      "à®£à®±": 1163,
      "à®ļà®µ": 1164,
      "Ġà®Ĩà®ķà®µ": 1165,
      "à¯į''": 1166,
      "Ġof": 1167,
      "ĠH": 1168,
      "Ġà®İà®®à®¤": 1169,
      "à®±à®µà®±": 1170,
      "Ġà®ªà®Łà®ķ": 1171,
      "Ġà®¤à®°à®®": 1172,
      "à®²à®ļ": 1173,
      "Ġà®ıà®®": 1174,
      "à®ħà®¤à®©": 1175,
      "à¯Ģ.": 1176,
      "Ġà®ıà®ª": 1177,
      "à®Łà®³": 1178,
      "Ġà®ľà®©à®¨": 1179,
      "18": 1180,
      "à®ķà®©à®Ļ": 1181,
      "Ġà®Ĵà®±": 1182,
      "à®¤à®µà®©": 1183,
      "12": 1184,
      "Ġ27": 1185,
      "à®´à®ķà®®": 1186,
      "à®ªà®ļ": 1187,
      "à®ĩà®µà®°": 1188,
      "à®²à®µà®°": 1189,
      "Ġà®®à®¯": 1190,
      "Ġà®®à®ŀ": 1191,
      "âĢĺâĢĺ": 1192,
      "à®°à®ªà®²à®®": 1193,
      "Ġà®µà®¯": 1194,
      "vi": 1195,
      "Ġà®®à®²à®°": 1196,
      "ro": 1197,
      "Ġà®ĩà®°à®¤": 1198,
      "ul": 1199,
      "à®ķà®´à®ķà®¤": 1200,
      "Ġh": 1201,
      "à®¿'": 1202,
      "à®¤à®°à®®": 1203,
      "à®¤à®ķà®¤": 1204,
      "ĠE": 1205,
      "Ġà®ħà®²à®Ļ": 1206,
      "à¯ģâĢĿ": 1207,
      "à®ĩà®¤à®±": 1208,
      "à®ªà®¤à®©": 1209,
      "Ġà®ªà®´à®Ļ": 1210,
      "à®¤à®£": 1211,
      "à®ķà®³à®ª": 1212,
      "ex": 1213,
      "et": 1214,
      "Ġ26": 1215,
      "à®´à®Ļ": 1216,
      "ĠK": 1217,
      "à¯ģ\"": 1218,
      "à®¾!": 1219,
      "200": 1220,
      "15": 1221,
      "à®ļà®³": 1222,
      "Ġà®Ĭà®ķ": 1223,
      "à®ªà®µà®Ļ": 1224,
      "à®ļà®°à®µ": 1225,
      "Ġà®Ĳà®°": 1226,
      "Ġà®¤à®¤": 1227,
      "à®ķà®ªà®Ł": 1228,
      "ĠâĢĭ": 1229,
      "Ġ!": 1230,
      "à®Ĭ": 1231,
      "25": 1232,
      "Ġ2011": 1233,
      "Ġà®ħà®Łà®ķ": 1234,
      "Ġ28": 1235,
      "Ġà®¤à®Łà®µ": 1236,
      "Ġà®Ĭà®Łà®ķà®Ļ": 1237,
      "ak": 1238,
      "à®¤à®°à®ª": 1239,
      "ĠâĢĺâĢĺ": 1240,
      "ĠV": 1241,
      "à®µà®°à®©": 1242,
      "à®Ī": 1243,
      "à®ħà®°": 1244,
      "ĠÂ": 1245,
      "Ġ197": 1246,
      "Ġà®ķà®ļ": 1247,
      "Ġà®¨à®±": 1248,
      "Ġà®ħà®¯": 1249,
      "em": 1250,
      "à¯ĩ...": 1251,
      "Ġn": 1252,
      "à®·à®¯à®¤": 1253,
      "Ġà®ķà®£à®µà®©": 1254,
      "11": 1255,
      "ct": 1256,
      "Ġa": 1257,
      "Ġ2015": 1258,
      "à®¯à®°à®ļ": 1259,
      "//": 1260,
      "Ġà®¨à®Łà®ª": 1261,
      "Ġà®ķà®µà®©à®¤": 1262,
      "à®¨à®²": 1263,
      "à®ªà®Łà®ķ": 1264,
      "Ġà®ħà®°à®Ļ": 1265,
      "Ġà®¹à®°": 1266,
      "Ġà®¨à®µà®®": 1267,
      "Ġà®İà®Łà®ª": 1268,
      "à®°à®ªà®²": 1269,
      "à¯Ī)": 1270,
      "à®´à®©": 1271,
      "Ġ...": 1272,
      "à¯ĩ?": 1273,
      "Ġà®Ĭà®´à®²": 1274,
      "Ġà®¨à®²à®©": 1275,
      "Ġà®ªà®°à®®": 1276,
      "à¯ģ-": 1277,
      "à®ķà®´à®ķ": 1278,
      "Ġ60": 1279,
      "ir": 1280,
      "à®¿...": 1281,
      "Ġà®ļà®®à®°": 1282,
      "Ġà®¨à®ķà®°à®®": 1283,
      "à®®à®¤à®®": 1284,
      "à®¾..": 1285,
      "à®¯à®µà®¨": 1286,
      "ut": 1287,
      "Ġà®ĵà®µ": 1288,
      "Ġd": 1289,
      "à®²à®¯": 1290,
      "Ġà®ľà®©à®µà®°": 1291,
      "est": 1292,
      "Ġà®ħà®µà®Ļ": 1293,
      "Ġà®¨à®ķà®°à®¤": 1294,
      "à®Łà®£à®®": 1295,
      "à®¤à®°à®°": 1296,
      "Ġà®Ĩà®¤à®°": 1297,
      "ĠâĢĿ": 1298,
      "à®²à®²": 1299,
      "Ġ196": 1300,
      "ath": 1301,
      "Ġà®ªà®´à®®": 1302,
      "Ġ29": 1303,
      "à®¤à®³à®Ļ": 1304,
      "Ġà®®à®°à®£à®®": 1305,
      "Ġà®ªà®²à®µ": 1306,
      "Ġà®¨à®¤": 1307,
      "Ġà®®à®°à®ª": 1308,
      "Ġ2020": 1309,
      "à®¯à®¸": 1310,
      "à¯Ĩ.": 1311,
      "à®³à®Łà®ķ": 1312,
      "Ġà®ĩà®°à®Ł": 1313,
      "Ġà®ªà®Łà®ª": 1314,
      "Ġà®ľà®®": 1315,
      "Ġà®Ĭà®¤": 1316,
      "ĠW": 1317,
      "à®¾âĢĻ": 1318,
      "à®²à®¨": 1319,
      "ot": 1320,
      "à¯ĪâĢĻ": 1321,
      "à®¯à®³à®µ": 1322,
      "um": 1323,
      "à®ľà®®": 1324,
      "à®©à®ļ": 1325,
      "Ġà®µà®¤": 1326,
      "à®´à®±": 1327,
      "à®ķà®®à®¤": 1328,
      "\")": 1329,
      "ht": 1330,
      "à®´à®¤": 1331,
      "à¯į(": 1332,
      "à®Łà®ļà®ª": 1333,
      "Ġà®¤à®ŀ": 1334,
      "Ġà®ĩà®¯à®¨": 1335,
      "Ġà®®à®°à®Ļ": 1336,
      "16": 1337,
      "Ġà®®à®Ļ": 1338,
      "à®¯à®²à®°": 1339,
      "Ġà®¤à®³à®ªà®¤": 1340,
      "Ġà®īà®®": 1341,
      "Ġà®Ĩà®©à®¨": 1342,
      "à®©à®Ł": 1343,
      "à®Łà®©à®®": 1344,
      "à®ªà®°à®Ļ": 1345,
      "Ġà®Ĩà®¨": 1346,
      "im": 1347,
      "à®¯à®ķà®¤": 1348,
      "lo": 1349,
      "ine": 1350,
      "Ġà®¤à®³à®¤": 1351,
      "Ġà®°à®®": 1352,
      "ik": 1353,
      "à®¾'": 1354,
      "Ġà®°à®·": 1355,
      "Ġà®®à®±à®¨": 1356,
      "Ġà®ķà®³à®®": 1357,
      "Ġà®ķà®·": 1358,
      "à®µà®°à®°": 1359,
      "à®ħà®²": 1360,
      "Ġà®īà®©à®ķ": 1361,
      "Ġ31": 1362,
      "Ġ)": 1363,
      "à®°à®¯": 1364,
      "ĠIn": 1365,
      "à¯Ī-": 1366,
      "Ġà®ħà®µà®ļà®°": 1367,
      "Ġà®ħà®¸": 1368,
      "Ġà®ķà®²à®µ": 1369,
      "Ġ2019": 1370,
      "à®īà®²à®ķ": 1371,
      "ation": 1372,
      "17": 1373,
      "iv": 1374,
      "à®ħà®µ": 1375,
      "id": 1376,
      "à®¤à®³à®µ": 1377,
      "à¯Ī;": 1378,
      "Ġto": 1379,
      "à®²à®£": 1380,
      "à®İà®¤": 1381,
      "Ġà®ķà®Ļ": 1382,
      "Ġà®ķà®¤à®µ": 1383,
      "à®¤à®ķà®Ļ": 1384,
      "]]": 1385,
      "Ġà®İà®µà®°": 1386,
      "à®µà®²à®ķà®®": 1387,
      "ĠâĢĭâĢĭ": 1388,
      "à®¨à®®": 1389,
      "à®²à®³": 1390,
      "à®²à®ķà®Ł": 1391,
      "Ġà®ħà®ľ": 1392,
      "40": 1393,
      "à®·à®¤": 1394,
      "Ġà®ļà®®à®¯à®¤": 1395,
      "à®Ĩà®ķ": 1396,
      "à®¯à®®à®Ł": 1397,
      "à®£à®¯": 1398,
      "à®µà®°à®²": 1399,
      "Ġà®ªà®²à®¤": 1400,
      "ra": 1401,
      "à®³à®¸": 1402,
      "à®İà®Ļ": 1403,
      "à®ļà®©à®Ļ": 1404,
      "Ġà®¤à®³à®°": 1405,
      "Ġà®īà®³à®µ": 1406,
      "à¯į),": 1407,
      "à®®à®£à®¤": 1408,
      "à®©à®¸": 1409,
      "Ġk": 1410,
      "à®¤à®³à®¤": 1411,
      "âĢĵ": 1412,
      "Ġà®®à®°à®¤": 1413,
      "Ġà®µà®°à®ª": 1414,
      "à®ĩà®Ļ": 1415,
      "Ġà®°à®ķ": 1416,
      "Ġ35": 1417,
      "Ġ70": 1418,
      "Ġà®ķà®²à®ķ": 1419,
      "Ġ2016": 1420,
      "Ġà®µà®Łà®®": 1421,
      "à¯įâĢĻâĢĻ": 1422,
      "Ġà®īà®²à®ķà®¤": 1423,
      "à®µà®ļà®®": 1424,
      "à®īà®³": 1425,
      "Ġand": 1426,
      "Ġà®Ĩà®ľà®°": 1427,
      "Ġà®µà®°à®®": 1428,
      "à®ļà®£": 1429,
      "24": 1430,
      "à®ħà®£": 1431,
      "Ġà®®à®©à®¨": 1432,
      "13": 1433,
      "Ġà®ªà®¯à®£à®¤": 1434,
      "99": 1435,
      "Ġà®ªà®±à®µ": 1436,
      "à®ķà®©à®¤": 1437,
      "à¯Ī...": 1438,
      "\",": 1439,
      "à¯Ī'": 1440,
      "Ġà®®à®£à®²": 1441,
      "od": 1442,
      "à®ªà®µà®©": 1443,
      "Ġ?": 1444,
      "à®©à®ķà®°à®©": 1445,
      "Ġà®ªà®¯à®®": 1446,
      "22": 1447,
      "à®Łà®Ł": 1448,
      "Ġà®µà®£à®Ļ": 1449,
      "14": 1450,
      "à®ķà®Łà®©": 1451,
      "Ġ``": 1452,
      "!!": 1453,
      "à®¿ÂŃ": 1454,
      "à®ķà®©à®®": 1455,
      "à®¤à®¯": 1456,
      "tp": 1457,
      "à®ĩà®°à®£": 1458,
      "``": 1459,
      "à®¿?": 1460,
      "av": 1461,
      "à®İà®©à®µ": 1462,
      "60": 1463,
      ">>": 1464,
      "à®ĥ": 1465,
      "Ġà®¤à®ļ": 1466,
      "Ġà®Ĩà®ķà®¸": 1467,
      "Ġà®¨à®ķà®°à®Ļ": 1468,
      "ip": 1469,
      "à®³à®ļ": 1470,
      "ig": 1471,
      "à¯ģâĢ¦": 1472,
      "Ġà®ĩà®²à®µà®ļ": 1473,
      "Ġ45": 1474,
      "Ġà®ķà®¨": 1475,
      "à®ķà®³à®®": 1476,
      "ĠU": 1477,
      "à®µà®ķà®Ļ": 1478,
      "Ġà®ĵà®µà®°": 1479,
      "Ġ2018": 1480,
      "à®¤à®³à®®": 1481,
      "Ġà®¨à®¨": 1482,
      "Ġà®ľà®ª": 1483,
      "Ġ500": 1484,
      "27": 1485,
      "Ġà®īà®¯à®°à®®": 1486,
      "://": 1487,
      "Ġà®©": 1488,
      "à®¤à®©à®¤": 1489,
      "Ġà®ĩà®µà®©": 1490,
      "Ġà®Ĳà®ª": 1491,
      "Ġà®ĩà®±à®ª": 1492,
      "Ġà®Ĩà®©à®¤": 1493,
      "à®Łà®¯à®®": 1494,
      "à¯ĭ.": 1495,
      "à®İà®ª": 1496,
      "à®īà®¤": 1497,
      "à®¯à®ªà®Ł": 1498,
      "Ġà®¨à®ª": 1499,
      "Ġà®®à®©à®ļ": 1500,
      "Ġ80": 1501,
      "ap": 1502,
      "Ġà®±": 1503,
      "à®µà®¯à®¤": 1504,
      "à®ļà®©à®¤": 1505,
      "à®ľà®¸": 1506,
      "Ġ195": 1507,
      "Ġon": 1508,
      "à®ªà®³à®®": 1509,
      "à®¯à®ķà®©": 1510,
      "Ġà®ħà®±à®¨": 1511,
      "à®Łà®ķà®®": 1512,
      "Ġà®ĩà®²à®Ł": 1513,
      "Ġ[[": 1514,
      "Ġà®ªà®¤à®±": 1515,
      "Ġà®ħà®ªà®°": 1516,
      "23": 1517,
      "Ġ&": 1518,
      "à®®à®¸": 1519,
      "Ġ2017": 1520,
      "Ġà®Ĩà®µà®£à®Ļ": 1521,
      "Ġà®ļà®°à®£": 1522,
      "Ġà®ķà®´à®ķà®¤": 1523,
      "Ġ194": 1524,
      "ac": 1525,
      "à®ľà®¯à®ķ": 1526,
      "Ġà®¤à®´": 1527,
      "à®¤à®°à®©": 1528,
      "os": 1529,
      "à¯Ī\"": 1530,
      "Ġst": 1531,
      "Ġà®ĩà®©à®Ļ": 1532,
      "Ġà®ļà®®à®¯à®®": 1533,
      "28": 1534,
      "Ġà®ĩà®©à®¤": 1535,
      "à¯į.âĢĿ": 1536,
      "à®²à®ķà®®": 1537,
      "à®ªà®°à®¤": 1538,
      "Ġà®¨à®ļ": 1539,
      "Ġà®°à®ķà®ļ": 1540,
      "Ġà®İà®±": 1541,
      "à®ªà®ķà®®": 1542,
      "Ġà®Ĩà®ĥà®ª": 1543,
      "Ġà®®à®¤à®¤": 1544,
      "Ġà®µà®µ": 1545,
      "26": 1546,
      "Ġà®ĩà®¯": 1547,
      "à®ķà®¸": 1548,
      "ia": 1549,
      "à®ķà®°à®¤": 1550,
      "ĠâĢĻ": 1551,
      "Ġà®īà®Łà®±": 1552,
      "ĠRe": 1553,
      "à®ļà®ķà®®": 1554,
      "à®ħà®ķ": 1555,
      "he": 1556,
      "80": 1557,
      "à®¯à®°à®Ļ": 1558,
      "ers": 1559,
      "line": 1560,
      "Ġà®Ĩà®µà®¤": 1561,
      "Ġà®ĩà®²à®µà®ļà®®": 1562,
      "Ġà®ħà®ķà®¤": 1563,
      "Ġ{": 1564,
      "à®¿\"": 1565,
      "Ġà®ªà®±à®ķ": 1566,
      "Ġà®īà®ªà®¯": 1567,
      "à®®à®³à®µ": 1568,
      "Ġà®®à®°à®®": 1569,
      "Ġà®ļà®ŀ": 1570,
      "Ġ2014": 1571,
      "à®®à®ķà®©": 1572,
      "Ġà®°à®£": 1573,
      "com": 1574,
      "ram": 1575,
      "à®²à®¸": 1576,
      "à®Łà®¯à®Ļ": 1577,
      "Ġà®İà®¤à®±": 1578,
      "à®ŀà®©": 1579,
      "à®¤à®¤à®±": 1580,
      "Ġ#": 1581,
      "à®²à®¯à®¤": 1582,
      "Ġà®ħà®µà®©à®¤": 1583,
      "Ġà®īà®¯à®°à®¤": 1584,
      "ĠOn": 1585,
      "Ġà®ªà®ķà®²": 1586,
      "Ġ2021": 1587,
      "ore": 1588,
      "à®ħà®±": 1589,
      "ind": 1590,
      "Ġl": 1591,
      "ph": 1592,
      "Ġg": 1593,
      "à®ªà®ķà®²": 1594,
      "Ġà®īà®Łà®®": 1595,
      "à®·à®©à®°": 1596,
      "à®¤à®ķà®°": 1597,
      "Ġà®¤à®ķà®°": 1598,
      "Ġà®¤à®³à®®": 1599,
      "35": 1600,
      "à¤": 1601,
      "ĠJ": 1602,
      "ate": 1603,
      "Ġà®ķà®´à®ķà®®": 1604,
      "à®ªà®´": 1605,
      "Ġà®ªà®ķà®µ": 1606,
      "Ġà®ĩà®©à®ª": 1607,
      "à®Ĩà®µà®¤": 1608,
      "Ġà®²à®ķ": 1609,
      "Ùİ": 1610,
      "à®Łà®²à®¤": 1611,
      "à®¾-": 1612,
      "Ġ2013": 1613,
      "Ġà®®à®Łà®Ļ": 1614,
      "Ġà®ķà®©à®Ł": 1615,
      "à®®à®²à®°": 1616,
      "Ġà®ĥà®ªà®£": 1617,
      "Ġ90": 1618,
      "Ġ2009": 1619,
      "Ġà®®à®¤à®®": 1620,
      "Ġà®µà®®": 1621,
      "Ġà®ıà®µ": 1622,
      "à®Łà®ªà®¤": 1623,
      "Ġà®ªà®¯à®©à®°": 1624,
      "à®±à®ªà®Ł": 1625,
      "Ġà®®à®°à®£": 1626,
      "à¯į!''": 1627,
      "45": 1628,
      "ter": 1629,
      "à®¤à®µà®³": 1630,
      "500": 1631,
      "à®©à®ļà®°": 1632,
      "Ġà®ķà®³à®¤": 1633,
      "à®®à®ķà®³": 1634,
      "à®µà®°à®ª": 1635,
      "ang": 1636,
      "Ġ2012": 1637,
      "à®°à®°à®ļ": 1638,
      "Ġà®Ĭà®°à®ķ": 1639,
      "90": 1640,
      "à®ªà®¸": 1641,
      "à¯Ī?": 1642,
      "Ġà®ķà®ŀ": 1643,
      "Ġà®Łà®©": 1644,
      "à®ħà®Ļ": 1645,
      "Ġà®®à®±à®ķ": 1646,
      "Ġà®ļà®®à®®": 1647,
      "Ġà®®à®°à®£à®¤": 1648,
      "Ġà®ļà®ķà®²": 1649,
      "à®¯à®µà®©": 1650,
      "à®İà®©à®ķ": 1651,
      "all": 1652,
      "à®Łà®ķà®¤": 1653,
      "Ġà®¨à®³": 1654,
      "à®Ĩà®£": 1655,
      "à®¿..": 1656,
      "à®µà®°à®µ": 1657,
      "ist": 1658,
      "Ġ37": 1659,
      "Ġà®¨à®²à®®": 1660,
      "Ġà®ĩà®©à®®": 1661,
      "Ġà®²à®£": 1662,
      "à®²à®±": 1663,
      "à®µà®´à®ķ": 1664,
      "à®ķà®´à®ķà®®": 1665,
      "Ġà®Ĩà®´à®®": 1666,
      "à®¤à®°à®Ļ": 1667,
      "Ġv": 1668,
      "à®°à®ľ": 1669,
      "à®ªà®³à®µ": 1670,
      "à®±à®³": 1671,
      "Ġà®µà®©à®¤": 1672,
      "ess": 1673,
      "Ġà®ĵà®°à®³à®µ": 1674,
      "à®°à®ķà®®": 1675,
      "Ġà®ķà®©à®®": 1676,
      "Ġà®µà®¯à®²": 1677,
      "à®ĩà®±": 1678,
      "op": 1679,
      "Ġà®īà®²à®°": 1680,
      "Ġ36": 1681,
      "à¯į).": 1682,
      "à®¯à®²à®®": 1683,
      "Ġ2010": 1684,
      "à®ıà®©": 1685,
      "ww": 1686,
      "à¯į,''": 1687,
      "à®¸à®°": 1688,
      "à®£à®®à®Ł": 1689,
      "Ġà®Ĭà®Łà®ķà®µ": 1690,
      "Ġ150": 1691,
      "Ġ33": 1692,
      "Ġà®ĩà®³à®µà®°": 1693,
      "âĢ¢": 1694,
      "Ġ*": 1695,
      "2021": 1696,
      "à®±à®Ł": 1697,
      "à®¸à®²": 1698,
      "29": 1699,
      "à®¤à®©à®Ļ": 1700,
      "à¯įâĢĭ": 1701,
      "à®ªà®ķà®¤": 1702,
      "Ġà®¨à®°à®®": 1703,
      "à®µà®²à®ķ": 1704,
      "Ġ300": 1705,
      "ta": 1706,
      "à¯ĩ..": 1707,
      "à®İà®ļ": 1708,
      "à¯ĪâĢĿ": 1709,
      "Ġà®īà®ķ": 1710,
      "à¯Ī..": 1711,
      "ith": 1712,
      "ies": 1713,
      "ment": 1714,
      "à®Łà®²à®®": 1715,
      "Ġà®Ĵà®£": 1716,
      "Ġà®ħà®µà®³à®¤": 1717,
      "ud": 1718,
      "Ġ+": 1719,
      "http": 1720,
      "à®¾\"": 1721,
      "Ġà®ļà®°à®ķ": 1722,
      "à®®à®¯": 1723,
      "à®£à®ļ": 1724,
      "Ġà®¨à®Łà®©": 1725,
      "à®ļà®®à®¯à®®": 1726,
      "Ġà®Ĳà®¸": 1727,
      "ov": 1728,
      "à®°à®ķà®¤": 1729,
      "Ġà®ħà®°à®£": 1730,
      "Ġà®®à®¯à®ķ": 1731,
      "Ġà®µà®²à®®": 1732,
      "Ġà®ħà®Łà®°": 1733,
      "à®©à®°à®²": 1734,
      "Ġà®ªà®°à®¨": 1735,
      "Ġà®µà®ļà®¨": 1736,
      "à®¾à¯į.": 1737,
      "Ġà®ķà®´à®ķ": 1738,
      "à®ľà®ķà®µ": 1739,
      "ĠCh": 1740,
      "Ġre": 1741,
      "à®¿;": 1742,
      "à®µà®µ": 1743,
      "à®£à®®à®²": 1744,
      "Ġà®ĩà®´à®ķ": 1745,
      "Ġtamil": 1746,
      "Ġ2008": 1747,
      "à¯į....": 1748,
      "Ġ32": 1749,
      "Ġà®Īà®¸": 1750,
      "Ġ..": 1751,
      "Ġà®µà®²à®¤": 1752,
      "Ġà®Ĳà®¯": 1753,
      "à®¾?âĢĿ": 1754,
      "Ġ75": 1755,
      "à®±à®´": 1756,
      "Ġà®¤à®°à®¤": 1757,
      "à®¹à®®": 1758,
      "Ġ48": 1759,
      "36": 1760,
      "Ġà®µà®³à®®": 1761,
      "à®Ĩà®¯": 1762,
      "Ġà®¨à®·": 1763,
      "à®Łà®¤à®±": 1764,
      "à®İà®¨": 1765,
      "à®īà®°": 1766,
      "à®Ĩà®Ł": 1767,
      "à®¹à®°": 1768,
      "à®©à®ŀ": 1769,
      "Ġà®ļà®Łà®Ļ": 1770,
      "à®Ĩà®ª": 1771,
      "à®Ĭà®°": 1772,
      "up": 1773,
      "Ġà®ªà®¯à®¨": 1774,
      "75": 1775,
      "Ġà®¨à®Łà®®": 1776,
      "Ġà®°à®Ļ": 1777,
      "Ġ2000": 1778,
      "Ġà®Ĳà®¤à®°": 1779,
      "ĠĠĠĠĠĠĠĠĠĠĠĠĠĠĠĠĠĠĠĠĠĠĠĠĠĠĠĠĠĠĠĠĠĠĠĠĠĠĠĠĠĠĠĠĠĠĠĠĠĠĠĠĠĠĠĠĠĠĠĠĠĠĠĠ": 1780,
      "Ġà®ľà®©à®¤": 1781,
      "à®µà®Łà®ķ": 1782,
      "Ġà®īà®ªà®ķà®°": 1783,
      "ab": 1784,
      "ost": 1785,
      "Ġà®ħà®°à®ª": 1786,
      "Ġà®ªà®±à®¨": 1787,
      "à®Ĵà®µ": 1788,
      "Ġà®ĩà®³à®Ļ": 1789,
      "à®²à®¯à®®": 1790,
      "à®ªà®£à®®": 1791,
      "à®ļà®¯": 1792,
      "à®¤à®®à®Ł": 1793,
      "Ġà®ħà®²à®ķ": 1794,
      "Ġà®Īà®´à®¤": 1795,
      "à®ķà®±à®¤": 1796,
      "à®±à®µà®©": 1797,
      "à®µà®²à®®": 1798,
      "44": 1799,
      "à®°à®®à®®": 1800,
      "09": 1801,
      "à®¯à®®à®°": 1802,
      "à®°à®´": 1803,
      "à®ªà®´à®ķ": 1804,
      "Ġà®ķà®¯": 1805,
      "à®İà®ĥà®ª": 1806,
      "Ġà®¨à®²à®¤": 1807,
      "org": 1808,
      "à¯ģÂŃ": 1809,
      "à®ľà®ª": 1810,
      "à®ħà®¤à®±": 1811,
      "à®´à®µ": 1812,
      "Ġà®ļà®®à®¨": 1813,
      "ĠĠĠĠĠĠĠĠĠĠĠĠĠĠĠĠĠĠĠĠĠĠĠĠĠĠĠĠĠĠĠĠĠĠĠĠĠĠĠĠĠĠĠĠĠĠĠĠĠĠĠĠĠĠĠĠĠĠĠĠĠĠĠĠĠĠĠĠĠĠĠĠĠĠĠ": 1814,
      "à®Łà®¯à®¤": 1815,
      "à®µà®£à®©": 1816,
      "Ġà®¤à®³à®Ļ": 1817,
      "à®¯à®²à®±": 1818,
      "à®ıà®±": 1819,
      "Ġfor": 1820,
      "37": 1821,
      "à®¤à®¸": 1822,
      "à®¾:": 1823,
      "à®ļà®ļ": 1824,
      "à®Łà®µà®£": 1825,
      "dia": 1826,
      "ĠÂ·": 1827,
      "ow": 1828,
      "Ġe": 1829,
      "Ġà®ľà®²": 1830,
      "Ġà®ļà®®à®¯": 1831,
      "ĠOnline": 1832,
      "og": 1833,
      "à®ļà®²à®®": 1834,
      "Ġà®ļà®°à®¤": 1835,
      "Ġà®Ĩà®²à®¯à®¤": 1836,
      "oc": 1837,
      "ric": 1838,
      "Ġà®İà®©à®ļ": 1839,
      "Ġà®ķà®²à®ª": 1840,
      "à®µà®²à®ķà®Ļ": 1841,
      "Ġà®®à®°à®ķ": 1842,
      "à®¯à®£à®©": 1843,
      "Ġà®¨à®Łà®°": 1844,
      "Ġà®īà®ªà®ķà®°à®£à®Ļ": 1845,
      "\"),": 1846,
      "Ġà®İà®¯": 1847,
      "Ġà®µà®°à®¤": 1848,
      "à®¯à®®à®©à®®": 1849,
      "ub": 1850,
      "Ġà®ħà®ķà®²": 1851,
      "à®¤à®²à®°": 1852,
      "à®İà®Ł": 1853,
      "ome": 1854,
      "01": 1855,
      "à®İà®ķ": 1856,
      "Ġ2007": 1857,
      "02": 1858,
      "ce": 1859,
      "Ġ;": 1860,
      "Ġis": 1861,
      "à®Łà®µà®©": 1862,
      "Ġà®ħà®ļà®¤": 1863,
      "à¯į.\"": 1864,
      "38": 1865,
      "39": 1866,
      "Ġà®ªà®²à®ª": 1867,
      "Ġà®¤à®®à®ķ": 1868,
      "Ġà®²à®ŀ": 1869,
      "à®Ĩà®ļ": 1870,
      "Ġà®īà®²à®ķà®ķ": 1871,
      "Ġà®ħà®µà®ļà®°à®®": 1872,
      "Ġâ": 1873,
      "Ġà®ħà®²à®Ł": 1874,
      "Ġ55": 1875,
      "art": 1876,
      "à®°à®±": 1877,
      "Ġà®ªà®®": 1878,
      "Ġ38": 1879,
      "à®¾?''": 1880,
      "Ġà®īà®²à®ķà®ª": 1881,
      "70": 1882,
      "eb": 1883,
      "65": 1884,
      "iy": 1885,
      "à®¾)": 1886,
      "Ġà®µà®¯à®ļ": 1887,
      "Ġà®Ĩà®ªà®°": 1888,
      "à®¨à®ķà®°à®®": 1889,
      "ĠPan": 1890,
      "05": 1891,
      "uth": 1892,
      "à®ļà®¸": 1893,
      "31": 1894,
      "if": 1895,
      "à¯į]]": 1896,
      "Ġà®¨à®Łà®©à®®": 1897,
      "à¯ĭ?": 1898,
      "Ġà®ľà®µ": 1899,
      "Ġà®ħà®±à®ķ": 1900,
      "à¯į..!": 1901,
      "à®²à®ķà®¤": 1902,
      "Ġà®®à®®": 1903,
      "à®²à®µà®´": 1904,
      "ok": 1905,
      "Ġ$": 1906,
      "à®µà®©à®°": 1907,
      "à®¨à®ªà®°": 1908,
      "à¯ĭ...": 1909,
      "à®°à®®à®ļ": 1910,
      "Ġà®Łà®µ": 1911,
      "ity": 1912,
      "adu": 1913,
      "--": 1914,
      "Ġà®µà®£à®ķ": 1915,
      "à®Īà®°": 1916,
      "ly": 1917,
      "Ġà®¤à®¯à®Ļ": 1918,
      "ĠâĢ¦": 1919,
      "34": 1920,
      "à®¿âĢĿ": 1921,
      "à®¯à®¤à®±": 1922,
      "à®Łà®²à®Ļ": 1923,
      "à®®à®´": 1924,
      "à®¯à®²à®ķà®¤": 1925,
      "ĠSt": 1926,
      "à®°à®µà®¤": 1927,
      "à®¨à®µ": 1928,
      "Ġà®ªà®²à®ķ": 1929,
      "Ġà®ĵà®ļ": 1930,
      "2018": 1931,
      "à¯ĩâĢĻ": 1932,
      "Ġà®ĩà®¤à®°": 1933,
      "Ġà®ħà®µà®®": 1934,
      "Ġà®Ĳà®Ł": 1935,
      "à®¾âĢ¦": 1936,
      "à¯Ģ.,": 1937,
      "à®ĩà®ļ": 1938,
      "03": 1939,
      "à®ķà®®à®±": 1940,
      "Ġ65": 1941,
      "à¯ģ(": 1942,
      "à®·à®²": 1943,
      "Ġà®ħà®°à®ļà®°": 1944,
      "2017": 1945,
      "à®£à®µà®©": 1946,
      "à®ĩà®Ł": 1947,
      "2019": 1948,
      "07": 1949,
      "Ġà®ªà®¤à®ķ": 1950,
      "à®īà®©": 1951,
      "ec": 1952,
      "Ġà®°à®ŀ": 1953,
      "Ġà®¯à®¤": 1954,
      "à®Ĩà®¤": 1955,
      "Ġà®ĩà®µà®³": 1956,
      "ayat": 1957,
      "04": 1958,
      "08": 1959,
      "à®Łà®£à®¤": 1960,
      "à®¨à®Łà®¤": 1961,
      "à®¤à®®à®²": 1962,
      "Ġà®Ĭà®ļ": 1963,
      "Ġà®®à®°à®ªà®£": 1964,
      "Ġà®İà®®à®ķ": 1965,
      "ĠGram": 1966,
      "han": 1967,
      "Ġ=": 1968,
      "à®°à®®à®Ł": 1969,
      "à®·à®Ļ": 1970,
      "Ġà®ļà®Łà®²à®®": 1971,
      "à¯į/": 1972,
      "Ġà®ªà®°à®¤": 1973,
      "Ġà®ªà®¯à®ª": 1974,
      "ill": 1975,
      "Ġ2005": 1976,
      "Ġà®ķà®©à®®à®´": 1977,
      "ĠPanch": 1978,
      "95": 1979,
      "Ġ>>": 1980,
      "à¯ģ''": 1981,
      "à®£à®¯à®®": 1982,
      "à®¯à®¤à®³à®¤": 1983,
      "Ġà®®à®©à®ª": 1984,
      "ĠPanchayat": 1985,
      "Ġà®ĩà®¤à®¯à®¤": 1986,
      "2020": 1987,
      "age": 1988,
      "https": 1989,
      "à®ķà®¯": 1990,
      "Ġà®µà®³à®Ļ": 1991,
      "AA": 1992,
      "Ġà®ħà®±à®Ļ": 1993,
      "ug": 1994,
      "Ġà®Ĵà®¯": 1995,
      "Ġà®ķà®Łà®ķ": 1996,
      "à®¤à®¤à®©": 1997,
      "Ġà®ĵà®ª": 1998,
      "à®°à®ªà®²à®Ļ": 1999,
      "Ġ400": 2000,
      "âĢ¦]": 2001,
      "Ġ>>>": 2002,
      "à®³à®Ł": 2003,
      "Ġà®ªà®µà®°": 2004,
      "Ġà®µà®°à®ķ": 2005,
      "Ġà®ªà®£à®ķ": 2006,
      "à®īà®Ł": 2007,
      "à®īà®£": 2008,
      "Ġstor": 2009,
      "ah": 2010,
      "à®ħà®ļ": 2011,
      "à®ħà®µà®©": 2012,
      "Ġ2006": 2013,
      "ast": 2014,
      "ĠY": 2015,
      "à®®à®¹": 2016,
      "Ġà®ħà®ļà®²": 2017,
      "Ġà®ıà®Ł": 2018,
      "ite": 2019,
      "itle": 2020,
      "32": 2021,
      "à®ļà®±": 2022,
      "Ġà®Łà®ª": 2023,
      "Ġà®ħà®ķà®°": 2024,
      "Ġà®ĩà®©à®µ": 2025,
      "Ġà®īà®¤à®Ł": 2026,
      "ish": 2027,
      "06": 2028,
      "à®°à®¹": 2029,
      "à®Łà®ªà®Ł": 2030,
      "à®Łà®¸": 2031,
      "98": 2032,
      "wik": 2033,
      "Ġà®¤à®°à®ķ": 2034,
      "à®īà®¯": 2035,
      "edia": 2036,
      "à®ĩà®®": 2037,
      "Ġr": 2038,
      "à®ľà®¯à®®": 2039,
      "Ġ1000": 2040,
      "Ġ64": 2041,
      "ort": 2042,
      "à®°à®ŀ": 2043,
      "\":": 2044,
      "à®Łà®Łà®®": 2045,
      "à®Łà®ķà®°": 2046,
      "Ġà®İà®ŀ": 2047,
      "Ġà®®à®£à®®": 2048,
      "ank": 2049,
      "Ø§": 2050,
      "Ġà®ķà®ľ": 2051,
      "Ġà®ĩà®ŀ": 2052,
      "Ġà®¨à®¯à®©": 2053,
      "Ġà®ħà®°à®µ": 2054,
      "à®ķà®²à®©": 2055,
      "Ġà®ķà®¸": 2056,
      "Ġà®µà®ļà®®": 2057,
      "Ġà®ļà®®à®¯à®Ļ": 2058,
      "ary": 2059,
      "à¯ģ.[": 2060,
      "à®ķà®Łà®µ": 2061,
      "atest": 2062,
      ")\"": 2063,
      "à®¾ÂŃ": 2064,
      "à®ªà®³à®¤": 2065,
      "Ġà®ļà®³": 2066,
      "à®°à®®à®¤": 2067,
      "66": 2068,
      "our": 2069,
      "à®³à®±": 2070,
      "à®ķà®µà®©": 2071,
      "à®Ĵà®©": 2072,
      "ive": 2073,
      "Ġà®ħà®·": 2074,
      "à®·à®°": 2075,
      "à®®à®µ": 2076,
      "à®ªà®²à®®": 2077,
      "à¯į.''": 2078,
      "à®¤à®µà®±": 2079,
      "Ġà®ªà®¯à®£à®Ļ": 2080,
      "Ġsex": 2081,
      "100": 2082,
      "à®©à®µà®©": 2083,
      "à®Łà®ķà®Ļ": 2084,
      "47": 2085,
      "ns": 2086,
      "title": 2087,
      "à®ªà®´à®®": 2088,
      "Ġà®ªà®ª": 2089,
      "Ġà®Ĩà®Łà®®": 2090,
      "Ġà®ĵà®ķ": 2091,
      "Ġà®ħà®ķà®´": 2092,
      "à¯Ĭ.": 2093,
      "Ġà®ķà®²à®Ļ": 2094,
      "Ġà®ħà®µà®ķ": 2095,
      "33": 2096,
      "ect": 2097,
      "ous": 2098,
      "Ġà®ħà®ķà®®à®¤": 2099,
      "Ġà®īà®·": 2100,
      "à®ħà®µà®³": 2101,
      "Ġà®®à®µ": 2102,
      "à®ħà®´à®ķ": 2103,
      "att": 2104,
      "à®ıà®ķ": 2105,
      "ĠMore": 2106,
      "à®¯à®ķà®ª": 2107,
      "Ġà®²à®²": 2108,
      "48": 2109,
      "ÙĴ": 2110,
      "Ġà®µà®¤à®¨": 2111,
      "à®·à®µ": 2112,
      "à®¤à®°à®£": 2113,
      "à®Ĳà®ķ": 2114,
      "à®²à®ªà®®": 2115,
      "à®ªà®¯à®©": 2116,
      "à®¸à®©": 2117,
      "Ġ[âĢ¦]": 2118,
      "did": 2119,
      "und": 2120,
      "Ġà®ĥ": 2121,
      "à®Łà®Łà®¤": 2122,
      "Ġà®ªà®¯à®¤": 2123,
      "Ġà®¨à®Łà®µ": 2124,
      "Ġà®¹à®µ": 2125,
      "à®ªà®¯à®£à®®": 2126,
      "à®īà®Łà®²": 2127,
      "Ġby": 2128,
      "Ġà®³": 2129,
      "Ġà®ªà®£à®ª": 2130,
      "à®°à®ļà®©": 2131,
      "Ġà®Ĳà®®": 2132,
      "Ġà®ĩà®£à®ķ": 2133,
      "Ġà®µà®±à®Ł": 2134,
      "à®¤à®°à®¤": 2135,
      "à®ļà®ķà®¤": 2136,
      "à®ªà®Łà®ª": 2137,
      "à®Ĩà®°à®®": 2138,
      "à®¾?âĢĻ": 2139,
      "à¯įâĢĻ,": 2140,
      "Ġà®Ĩà®²à®¯à®®": 2141,
      "Ġà®īà®²à®ķà®³": 2142,
      "Ġ2004": 2143,
      "end": 2144,
      "Ġà®ķà®²à®°": 2145,
      "Ġ\"(": 2146,
      "Ġ44": 2147,
      "Ġ46": 2148,
      "ue": 2149,
      "Ġà®ļà®ªà®°": 2150,
      "ĠĠĠĠĠĠĠĠĠĠĠĠ": 2151,
      "Ġà®ħà®°à®ļà®©": 2152,
      "Ġ34": 2153,
      "à®Ĵà®¤": 2154,
      "ĠCon": 2155,
      "ff": 2156,
      "Ġ250": 2157,
      "à®¾..?": 2158,
      "96": 2159,
      "Ġà®µà®°à®µà®´": 2160,
      "ell": 2161,
      "ber": 2162,
      "à®³à®¨": 2163,
      "Ġà®īà®ķà®¨": 2164,
      "Ġà®Ĩà®µà®°": 2165,
      "Ġà®ĩà®¤à®¯à®®": 2166,
      "php": 2167,
      "à¯ĩ'": 2168,
      "à¯į.[": 2169,
      "à®Łà®ªà®®": 2170,
      "ĠAn": 2171,
      "index": 2172,
      "à®Łà®¤à®©": 2173,
      "à®°à®®à®Ļ": 2174,
      "Ġà®ļà®®à®©": 2175,
      "à¯į_": 2176,
      "Ġà®ĩà®°à®Ļ": 2177,
      "à®·à®ª": 2178,
      "à®İà®´": 2179,
      "Ġà®¹à®®": 2180,
      "à®²à®µà®±": 2181,
      "198": 2182,
      "oldid": 2183,
      "Ġà®īà®°à®®": 2184,
      "à®¤à®²à®©": 2185,
      "Ġà®ıà®¨": 2186,
      "ant": 2187,
      "à¯ģ:-": 2188,
      "à®¤à®ķà®µà®²": 2189,
      "Ġà®®à®ķà®°": 2190,
      "Ġà®ħà®©à®²": 2191,
      "Ġ47": 2192,
      "ail": 2193,
      "à®µà®¸": 2194,
      "Ġà®°à®ª": 2195,
      "à®ķà®®à®³": 2196,
      "à®¿âĢĮ": 2197,
      "à®¤à®°à®ķ": 2198,
      "Ġà®ĵà®²": 2199,
      "ry": 2200,
      "à®°à®·": 2201,
      "à®²à®ľ": 2202,
      "à®¤à®µà®ķ": 2203,
      "Ġà®ĵà®®": 2204,
      "Ġ56": 2205,
      "ÙĦ": 2206,
      "Ġà®İà®²à®ķ": 2207,
      "à®¯à®¤à®©": 2208,
      "ann": 2209,
      "à®·à®©à®²": 2210,
      "78": 2211,
      "II": 2212,
      "Ġà®®à®¯à®Ļ": 2213,
      "Ġà®İà®ĥà®ª": 2214,
      "Ġà®ħà®µà®°à®µà®°": 2215,
      "à®ķà®²à®¤": 2216,
      "Ġ39": 2217,
      "46": 2218,
      "à®¿(": 2219,
      "à®ķà®£à®®": 2220,
      "à¯ĭ!": 2221,
      "à®ĩà®¯à®±": 2222,
      "à®Ĩà®Ļ": 2223,
      "Ġà®ļà®°à®µà®£à®©": 2224,
      "Ġà®·à®°": 2225,
      "ard": 2226,
      "Ġwith": 2227,
      "ipedia": 2228,
      "ĠX": 2229,
      "Ġy": 2230,
      "à®°à®µà®®": 2231,
      "Ġà®¤à®¯à®ķ": 2232,
      "Ġà®ĩà®°à®ķà®ļ": 2233,
      "à®ªà®¤à®®": 2234,
      "Ġ--": 2235,
      "img": 2236,
      "ĠRead": 2237,
      "Ġà®¶": 2238,
      "Ġà®Łà®ķ": 2239,
      "à¯į?''": 2240,
      "ĠLatest": 2241,
      "wikipedia": 2242,
      "rom": 2243,
      "Ġà®®à®ķà®¤": 2244,
      "Ġà®¤à®²à®®": 2245,
      "Ġà®ĩà®°à®ļ": 2246,
      "Ġ42": 2247,
      "ep": 2248,
      "à®²à®¨à®Ł": 2249,
      "Ġà®¨à®ķà®²": 2250,
      "à¯ĭ-": 2251,
      "Ġà®°à®¹": 2252,
      "à®ķà®°à®£": 2253,
      "ear": 2254,
      "à¯ģ),": 2255,
      "à®¾âĢĿ": 2256,
      "à®®à®°à®ª": 2257,
      "Ġà®Ĩà®µà®²": 2258,
      "Ġà®Ĵà®ķ": 2259,
      "à®ªà®µà®±": 2260,
      "76": 2261,
      "à®°à®ķà®Ļ": 2262,
      "Ġà®²à®Ļ": 2263,
      "ĠCom": 2264,
      "2016": 2265,
      "à®¾à®¾à¯į": 2266,
      "Ġà®ĩà®¤à®¯": 2267,
      "Ġà®ħà®µà®®à®¤": 2268,
      "Ġà®īà®±à®Ļ": 2269,
      "2014": 2270,
      "ĠÂ»": 2271,
      "ead": 2272,
      "},": 2273,
      "à®ķà®Łà®¤": 2274,
      "à®ªà®ŀ": 2275,
      "Ġà®ªà®µà®©": 2276,
      "Ġà®¨à®°à®ļ": 2277,
      "à®ħà®´": 2278,
      "Ġà®¤à®µà®£": 2279,
      "one": 2280,
      "ice": 2281,
      "Ġcom": 2282,
      "Ġà®¤à®¯à®µ": 2283,
      "à®ľà®²": 2284,
      "Ġà®ıà®±à®¤": 2285,
      "à®°à®¤à®°": 2286,
      "à®ħà®¯": 2287,
      "à®µà®®à®´": 2288,
      "à¯į!!": 2289,
      "Ġ49": 2290,
      "Ġ600": 2291,
      "2015": 2292,
      "Ġà®®à®°à®£à®®à®Ł": 2293,
      "à®µà®³à®°": 2294,
      "ark": 2295,
      "Ġ1990": 2296,
      "athai": 2297,
      "Ġà®ĩà®Łà®ª": 2298,
      "à®ªà®©à®µ": 2299,
      "à®īà®±": 2300,
      "are": 2301,
      "à®°à®®à®ª": 2302,
      "Ġà®ħà®°à®ķ": 2303,
      "à®ĩà®¸": 2304,
      "Ġà®īà®¤à®¯à®¨": 2305,
      "à®īà®¯à®°": 2306,
      "ord": 2307,
      "ĠTh": 2308,
      "ĠĠĠĠĠĠĠĠĠĠĠĠĠĠĠĠĠĠĠĠĠĠĠĠĠĠĠĠĠĠĠĠĠĠĠĠĠĠ": 2309,
      "2011": 2310,
      "55": 2311,
      "ÙĲ": 2312,
      "Ġà®ļà®©à®µà®°": 2313,
      "âĢĶ": 2314,
      "à®ĩà®°à®µ": 2315,
      "Ġà®ļà®®à®¤": 2316,
      "Ġ52": 2317,
      "à®Ĳà®Ł": 2318,
      "??": 2319,
      "ev": 2320,
      "à¥": 2321,
      "à®¾à®¾à¯į.": 2322,
      "à®Łà®°à®ª": 2323,
      "icle": 2324,
      "à®¨à®©": 2325,
      "à®Ĩà®±": 2326,
      "Ġ41": 2327,
      "Ġà®ķà®¤à®±": 2328,
      "à®Ĳà®¯": 2329,
      "Ġà®µà®©à®ª": 2330,
      "pp": 2331,
      "à®°à®¤à®¤": 2332,
      "à®©à®®à®²à®°": 2333,
      "âĢį": 2334,
      "Ġà®ªà®²à®µà®±": 2335,
      "Ġà®²à®µ": 2336,
      "Ġ\"\"": 2337,
      "à®īà®²": 2338,
      "à®®à®£à®°": 2339,
      "57": 2340,
      "ain": 2341,
      "à®¿),": 2342,
      "à®®à®³": 2343,
      "Ġà®®à®¸": 2344,
      "Ġ43": 2345,
      "Ġ72": 2346,
      "nsimg": 2347,
      "à¯į.âĢĻâĢĻ": 2348,
      "à®´à®°à®ļ": 2349,
      "à®±à®µà®Ļ": 2350,
      "ĠâĨ": 2351,
      "ial": 2352,
      "ran": 2353,
      "Ġà®®à®Łà®ķ": 2354,
      "Ġ54": 2355,
      "Ġà®µà®ļà®©à®®": 2356,
      "ction": 2357,
      "64": 2358,
      "Ġvi": 2359,
      "à®Łà®¯": 2360,
      "à®²à®ķà®²": 2361,
      "Ġà®īà®¨": 2362,
      "à®ļà®®à®Ł": 2363,
      "Ġà®ļà®°à®¸": 2364,
      "ass": 2365,
      "ĠIndia": 2366,
      "ou": 2367,
      "Ġà®İà®©à®²": 2368,
      "à®©à®°à®®": 2369,
      "Ġà®ıà®ķà®ª": 2370,
      "Ġà®¤à®²à®Ļ": 2371,
      "Ġà®Īà®°à®ª": 2372,
      "ĠHome": 2373,
      "à®ĥà®ªà®°": 2374,
      "ach": 2375,
      "à®ľà®ļ": 2376,
      "Ġà®ıà®ľ": 2377,
      "à®ĩà®³": 2378,
      "Ġà®Łà®®": 2379,
      "Ġà®ķà®°à®Ł": 2380,
      "Ġà®²à®¤": 2381,
      "à®Łà®µà®ļà®®": 2382,
      "ĠThe": 2383,
      "ĠÃ": 2384,
      "à®¨à®²à®®": 2385,
      "Ġà®ħà®¯à®°": 2386,
      "à®ħà®µà®°à®¤": 2387,
      "à®±à®¨à®ķà®°": 2388,
      "à¯į?âĢĿ": 2389,
      "Ġà®ĩà®³à®¨": 2390,
      "Ġ2002": 2391,
      "Ġà®ļà®°à®£à®Ł": 2392,
      "uk": 2393,
      "à®¿âĢ¦": 2394,
      "Ġà®µà®ļà®©à®Ļ": 2395,
      "à®¯à®®à®±": 2396,
      "Ġ//": 2397,
      "ST": 2398,
      "à®µà®¯": 2399,
      "à®ķà®®à®²": 2400,
      "à®ĩà®£": 2401,
      "à®¤à®©à®©": 2402,
      "ated": 2403,
      "à®ĵà®Ł": 2404,
      "Ġà®µà®±à®£": 2405,
      "ull": 2406,
      "58": 2407,
      "77": 2408,
      "Ġà®ªà®ľ": 2409,
      "à®£à®ļà®ª": 2410,
      "à¯į...'": 2411,
      "à¯į\",": 2412,
      "Ġ2001": 2413,
      "ight": 2414,
      "ru": 2415,
      "Ġà®µà®¤à®ķ": 2416,
      "à¯Ģ,": 2417,
      "à®ľà®¯à®©": 2418,
      "à®İà®£": 2419,
      "Ġà®¹à®©": 2420,
      "Ġà®ħà®´à®±": 2421,
      "Ġ58": 2422,
      "à¯į!âĢĿ": 2423,
      "Ġà®Ĭà®Łà®ķà®¤": 2424,
      "ĠAr": 2425,
      "log": 2426,
      "43": 2427,
      "iz": 2428,
      "ttp": 2429,
      "à¯į|": 2430,
      "à®ķà®Łà®®": 2431,
      "à®¤à®ŀ": 2432,
      "à®±à®ŀ": 2433,
      "à®±à®³à®µ": 2434,
      "Ġà®ķà®ļà®ª": 2435,
      "Ġà®®à®³": 2436,
      "à®¨à®¤": 2437,
      "Ġà®ħà®ķà®²à®®": 2438,
      "à¯ģ.âĢĿ": 2439,
      "à®µà®©à®µ": 2440,
      "Ġà®ļà®®à®¸": 2441,
      "ere": 2442,
      "ory": 2443,
      "Ġwh": 2444,
      "Ġhttp": 2445,
      "56": 2446,
      "ovi": 2447,
      "à¯ĩâĢ¦": 2448,
      "à®Ĩà®²": 2449,
      "ref": 2450,
      "ide": 2451,
      "Ġà®ĥà®ªà®°": 2452,
      "pt": 2453,
      "qu": 2454,
      "à®µà®ļà®¤": 2455,
      "Ġ120": 2456,
      "à®Ĩà®¸": 2457,
      "à¯į!âĢĻâĢĻ": 2458,
      "à¯į',": 2459,
      "à®ªà®µà®³": 2460,
      "49": 2461,
      "à¯Ī(": 2462,
      "Ġà®ĩà®Łà®Ĵà®¤": 2463,
      "à¯į!'": 2464,
      "ĠĠĠĠĠĠĠĠĠĠĠĠĠĠĠĠĠĠĠĠĠĠĠĠĠĠĠĠĠĠĠĠĠ": 2465,
      "à®®à®°à®©": 2466,
      "à®¾?'": 2467,
      "Ġà®ĩà®³à®µà®°à®ļà®°": 2468,
      "TC": 2469,
      "ress": 2470,
      "à¯ģâĢĻâĢĻ": 2471,
      "à®¨à®¨": 2472,
      "Ġà®ħà®¯à®²": 2473,
      "Ġ51": 2474,
      "Ġ66": 2475,
      "Ġbe": 2476,
      "aj": 2477,
      "à®®à®ŀ": 2478,
      "à¯į.)": 2479,
      "Ġà®·à®Ļ": 2480,
      "79": 2481,
      "Ùı": 2482,
      "à®Łà®Łà®Ļ": 2483,
      "à®µà®ķà®¤": 2484,
      "à¯į.(": 2485,
      "à®µà®°à®ķ": 2486,
      "à¯ģ....": 2487,
      "à®ľà®¯à®ª": 2488,
      "à®ķà®²à®Ļ": 2489,
      "Ġà®®à®¤à®Ļ": 2490,
      "Ġà®Īà®°à®®": 2491,
      "ong": 2492,
      "à®ķà®´à®ķà®Ļ": 2493,
      "nadu": 2494,
      "à®±à®±": 2495,
      "Ġà®ħà®¹": 2496,
      "à¯ĭ'": 2497,
      "Ġà®ıà®±à®ķ": 2498,
      "à¯į.....": 2499,
      "Ġ800": 2500,
      "Ġà®Ĭà®Łà®ķà®®": 2501,
      "à¯įâĢ¦.": 2502,
      "odi": 2503,
      "Ġà®®à®¤à®©": 2504,
      "Ġà®ıà®²à®®": 2505,
      "Ġ2003": 2506,
      "à®ªà®´à®ķà®©": 2507,
      "Ġà®īà®ªà®¤": 2508,
      "à®¯à®²à®ķ": 2509,
      "à®ķà®²à®ª": 2510,
      "Ġà®ħà®ªà®ķà®°": 2511,
      "42": 2512,
      "ha": 2513,
      "à®µà®©à®¨": 2514,
      "Ġà®ĵà®¤": 2515,
      "à¯ģ!''": 2516,
      "Ġ1980": 2517,
      "Ġà®ĩà®°à®ķ": 2518,
      "à®ķà®®à®Ł": 2519,
      "Ġà®®à®¤à®ļ": 2520,
      "Ġà®Īà®ķ": 2521,
      "à®īà®Łà®©": 2522,
      "Ġà®ķà®µà®ļà®®": 2523,
      "à®ıà®ª": 2524,
      "Ġ99": 2525,
      "Ġà®Ĩà®µà®£à®ª": 2526,
      "ĠRs": 2527,
      "59": 2528,
      "ood": 2529,
      "tamil": 2530,
      "à¯ĪâĢ¦": 2531,
      "Ġà®īà®´à®µà®°": 2532,
      "Ġ1996": 2533,
      "68": 2534,
      "72": 2535,
      "à®ļà®¯à®¤": 2536,
      "Ġà®¤à®µà®®": 2537,
      "Ġà®¨à®ŀ": 2538,
      "à®ľà®¯à®¤": 2539,
      "à¯į!âĢĻ": 2540,
      "Ġ68": 2541,
      "à®Ĳà®ª": 2542,
      "à®µà®³à®µà®©": 2543,
      "à®ĵà®®": 2544,
      "ational": 2545,
      "41": 2546,
      "ef": 2547,
      "à®²à®ŀ": 2548,
      "Ġà®ħà®©à®°": 2549,
      "à¯Ĥ,": 2550,
      "à®İà®µ": 2551,
      "Ġà®®à®©à®ķ": 2552,
      "Ġà®Ĳà®ļ": 2553,
      "Ġ1991": 2554,
      "sp": 2555,
      "à®¤à®µà®Ļ": 2556,
      "à®İà®©à®¤": 2557,
      "Ġà®¹à®ķ": 2558,
      "Ġà®īà®²à®ķà®³à®µ": 2559,
      "ical": 2560,
      "Ġch": 2561,
      "Ġà®ĩà®³à®µà®°à®ļ": 2562,
      "date": 2563,
      "à®²à®¯à®Ļ": 2564,
      "à®µà®ķà®®": 2565,
      "à®£à®Ł": 2566,
      "Ġà®Ĩà®¯à®¤": 2567,
      "à®ĩà®¯à®ķ": 2568,
      "à®ķà®¨à®ªà®°": 2569,
      "</": 2570,
      "à®°à®µà®©": 2571,
      "à¯ĪÂŃ": 2572,
      "Ġà®µà®³à®¤": 2573,
      "à®£à®¯à®Ļ": 2574,
      "Ġà®İà®¤à®©": 2575,
      "Ġà®ĩà®£à®Ļ": 2576,
      "Ġ62": 2577,
      "........": 2578,
      "ush": 2579,
      "www": 2580,
      "Ġstories": 2581,
      "?âĢĿ": 2582,
      "ook": 2583,
      "à¯Ī),": 2584,
      "à®¯à®£à®®": 2585,
      "Ġà®ħà®Łà®®": 2586,
      "Ġà®Ĭà®±à®µ": 2587,
      "Ġà®Ĩà®°à®ŀ": 2588,
      "Ġ57": 2589,
      "Ġ63": 2590,
      "à¯į...''": 2591,
      "ĠPl": 2592,
      "ĠPro": 2593,
      "92": 2594,
      "ĠQ": 2595,
      "à®µà®Łà®®": 2596,
      "Ġà®Łà®°": 2597,
      "Ġà®Łà®¯à®°": 2598,
      "à®¯à®µà®³": 2599,
      "à®īà®£à®µ": 2600,
      "ĠPost": 2601,
      "ash": 2602,
      "67": 2603,
      "Ġà®ªà®°à®£": 2604,
      "Ġà®ļà®¸": 2605,
      "Ġà®Ĩà®¤à®Ļ": 2606,
      "à®Łà®©à®¤": 2607,
      "Ġà®ªà®Łà®µ": 2608,
      "Ġà®®à®£à®¨": 2609,
      "à®Ĵà®Ł": 2610,
      "à®®à®£à®©": 2611,
      "ĠTag": 2612,
      "à®²à®µà®°à®ª": 2613,
      "Ġ!!": 2614,
      "à®¿à¯į": 2615,
      "à®¤à®¯à®®": 2616,
      "Ġà®ħà®²à®®": 2617,
      "Ġà®Ĳà®¯à®ª": 2618,
      "à®īà®²à®ķà®®": 2619,
      "à®ªà®²à®©": 2620,
      "ari": 2621,
      "Ġ95": 2622,
      "Ġà®Ĭà®Łà®ķà®ª": 2623,
      "à®³à®Łà®Ļ": 2624,
      "Ġà®®à®°à®£à®Ļ": 2625,
      "Ġà®ļà®¯": 2626,
      "Ġà®ļà®ľ": 2627,
      "Ġà®µà®°à®¤à®°": 2628,
      "à®¯à®²à®Ł": 2629,
      "à®¯à®®à®²": 2630,
      "Ġà®ľà®Ł": 2631,
      "Ġà®ªà®¤à®Ł": 2632,
      "Ġ85": 2633,
      "à®¨à®ķà®°à®¤": 2634,
      "Ġ1999": 2635,
      "ext": 2636,
      "ib": 2637,
      "Ġà®ķà®ķ": 2638,
      "à®¨à®Ļ": 2639,
      "à®ľà®¤": 2640,
      "Ġà®ķà®°à®Ļ": 2641,
      "Ġà®ļà®Łà®²à®¤": 2642,
      "à®°à®ªà®ŀ": 2643,
      "alai": 2644,
      "71": 2645,
      "AE": 2646,
      "out": 2647,
      "à®®à®©à®¤": 2648,
      "à®ļà®¯à®Ļ": 2649,
      "Ġà®ĩà®·": 2650,
      "à®ªà®¤à®µ": 2651,
      "à®¤à®²à®¤": 2652,
      "à®¤à®©à®ª": 2653,
      "à®ªà®°à®ķ": 2654,
      "Ġà®ķà®£à®®": 2655,
      "Ġà®Ĩà®¤à®°à®µà®³": 2656,
      "akk": 2657,
      "88": 2658,
      "][": 2659,
      "ob": 2660,
      "Ġx": 2661,
      "à®²à®¤à®©à®®": 2662,
      "à®²à®µà®°à®®": 2663,
      "à®®à®°à®®": 2664,
      "Ġà®ªà®´à®¨": 2665,
      "Ġà®®à®¯à®®": 2666,
      "Ġà®µà®ŀ": 2667,
      "Ġà®ļà®°à®®": 2668,
      "à®ķà®°à®Ļ": 2669,
      "à®¤à®®à®©": 2670,
      "à®ŀà®°à®£": 2671,
      "Ġà®®à®£à®ª": 2672,
      "ĠTamilnadu": 2673,
      "à¯ģ).": 2674,
      "69": 2675,
      "In": 2676,
      "Ġà®µà®©à®µ": 2677,
      "à¯ĩâĢĿ": 2678,
      "à¯į,\"": 2679,
      "à®ķà®µà®ļà®®": 2680,
      "Ġà®ıà®²à®ķ": 2681,
      "ĠâĢĮ": 2682,
      "à®İà®°": 2683,
      "Ġ53": 2684,
      "Ġà®ªà®´à®¤": 2685,
      "amb": 2686,
      "Ġà®Ĩà®²à®¯": 2687,
      "Ġ1998": 2688,
      "cl": 2689,
      "ÙĪ": 2690,
      "à¯ģâĢĮ": 2691,
      "à®Łà®£à®Ļ": 2692,
      "Ġà®ıà®ŀ": 2693,
      "à®¯à®°à®¤": 2694,
      "Ġà®®à®¤à®ķ": 2695,
      "Ġ67": 2696,
      "ame": 2697,
      "à®ıà®´": 2698,
      "Ġà®ªà®ļà®Ļ": 2699,
      "Ġ07": 2700,
      "à®¯à®£à®ļ": 2701,
      "Ġà®Ĩà®´à®¤": 2702,
      "ema": 2703,
      "62": 2704,
      "gal": 2705,
      "à®Łà®³à®µ": 2706,
      "à®¾âĢĮ": 2707,
      "à®µà®ŀ": 2708,
      "Ġà®ıà®²à®¤": 2709,
      "à®ķà®©à®Ł": 2710,
      "ern": 2711,
      "ens": 2712,
      "52": 2713,
      "AR": 2714,
      "Read": 2715,
      "à®Łà®µà®Ł": 2716,
      "à®©à®±": 2717,
      "à®¯à®¤à®³à®®": 2718,
      "à®¤à®®à®°": 2719,
      "Ġà®µà®´à®®": 2720,
      "à®¯à®ķà®ķ": 2721,
      "2010": 2722,
      "ld": 2723,
      "Ġà®ķà®°à®£": 2724,
      "à®¨à®Łà®ª": 2725,
      "Ġà®ħà®¯à®©": 2726,
      "Ġà®Ĩà®ŀ": 2727,
      "à®µà®©à®ª": 2728,
      "Ġà®ħà®²à®±": 2729,
      "Ġà®īà®°à®Ļ": 2730,
      "Ġà®ĵà®Ļ": 2731,
      "Ġ59": 2732,
      "à®µà®ļà®Ļ": 2733,
      "Ġ1964": 2734,
      "ack": 2735,
      "ver": 2736,
      "Ãł": 2737,
      "Ġj": 2738,
      "Ġat": 2739,
      "à®®à®¯à®®": 2740,
      "à®ªà®ķà®µ": 2741,
      "Ġà®Łà®ļ": 2742,
      "Ġà®ħà®²à®°": 2743,
      "à®Ĩà®³": 2744,
      "à®±à®©à®µ": 2745,
      "à¯įâĢĻ.": 2746,
      "54": 2747,
      "93": 2748,
      "oun": 2749,
      "sh": 2750,
      "à®¤à®ķà®Ł": 2751,
      "à®©à®¤à®®": 2752,
      "à®ªà®³à®ª": 2753,
      "à¯į.'": 2754,
      "Ġà®ıà®ļ": 2755,
      "Ġà®ļà®®à®ķ": 2756,
      "Ġà®¤à®°à®µà®°": 2757,
      "à®ļà®²à®ª": 2758,
      "à®Ĳà®°": 2759,
      "à®Ĳà®¨": 2760,
      "Ġà®Ĩà®µà®£à®®": 2761,
      "ĠĠĠĠĠĠĠĠĠĠĠĠĠ": 2762,
      "91": 2763,
      "[[": 2764,
      "à®®à®°à®¤": 2765,
      "Ġà®İà®µà®©": 2766,
      "Ġà®Īà®´": 2767,
      "à®īà®ļ": 2768,
      "inema": 2769,
      "Ġ78": 2770,
      "Ġà®ĩà®³à®ŀ": 2771,
      "Ġ98": 2772,
      "à®ªà®¯à®£": 2773,
      "à®Ĭà®°à®Łà®Ļ": 2774,
      "\"\"": 2775,
      "ge": 2776,
      "uc": 2777,
      "Ġà®ħà®©à®¨": 2778,
      "à®ªà®°à®©": 2779,
      "à®¾.,": 2780,
      "ĠAl": 2781,
      "2013": 2782,
      "Ġ03": 2783,
      "old": 2784,
      "Ġ1989": 2785,
      "2009": 2786,
      "à®ĥà®ķ": 2787,
      "600": 2788,
      "74": 2789,
      "ng": 2790,
      "ure": 2791,
      "Ġdi": 2792,
      "à®¤à®¯à®¤": 2793,
      "à®¾;": 2794,
      "à®ļà®°à®£": 2795,
      "à¯ģ.\"": 2796,
      "à¯ģ,''": 2797,
      "à®¤à®©à®ķ": 2798,
      "Ġà®ķà®£à®ªà®¤": 2799,
      "ert": 2800,
      "Ġ05": 2801,
      "Ġ1970": 2802,
      "53": 2803,
      "61": 2804,
      "97": 2805,
      "pe": 2806,
      "Â°": 2807,
      "Ġà®ķà®°à®®": 2808,
      "Ġà®Ĩà®ķà®¤": 2809,
      "à®¯à®°à®ļà®°": 2810,
      "Ġà®¯à®®": 2811,
      "à®²à®ķà®Ļ": 2812,
      "Ġà®Īà®ļ": 2813,
      "ana": 2814,
      "Ġ700": 2815,
      "à®ıà®°": 2816,
      "2008": 2817,
      "âĢĶâĢĶ": 2818,
      "ma": 2819,
      "ðŁ": 2820,
      "Ġi": 2821,
      "Ġà®£": 2822,
      "à®°à®£à®ª": 2823,
      "à®Ĩà®¨": 2824,
      "à®¹à®©": 2825,
      "ating": 2826,
      "Ġà®ķà®´à®±": 2827,
      "Ġà®ķà®©à®ķà®°": 2828,
      "à®ĵà®°": 2829,
      "aking": 2830,
      "app": 2831,
      "AN": 2832,
      "Ġas": 2833,
      "Ġ....": 2834,
      "Ġà®īà®ªà®°": 2835,
      "Ġà®īà®£à®µà®ķà®Ļ": 2836,
      "Ġà®ĵà®°à®Ļ": 2837,
      "'s": 2838,
      "63": 2839,
      "73": 2840,
      "hi": 2841,
      "Ġare": 2842,
      "à¯į}": 2843,
      "à¯ĭâĢĻ": 2844,
      "Ġà®ľà®¸": 2845,
      "Ġà®®à®ķà®ļ": 2846,
      "Ġà®ħà®°à®ļà®®": 2847,
      "Ġ350": 2848,
      "à®¾?\"": 2849,
      "Ġà®Ĩà®µà®£": 2850,
      "Ġ110": 2851,
      "adi": 2852,
      "Ġfrom": 2853,
      "Ġ1960": 2854,
      "Ġà®ħà®µà®ļà®°à®ķ": 2855,
      "ĠUp": 2856,
      "VI": 2857,
      "ey": 2858,
      "Â³": 2859,
      "à®µà®³à®¤": 2860,
      "à®£à®¯à®¤": 2861,
      "Ġà®µà®°à®ļ": 2862,
      "Ġà®ªà®²à®µà®ķ": 2863,
      "Ġà®Ĭà®©": 2864,
      "Ġà®ĵà®°à®®": 2865,
      "atan": 2866,
      "ond": 2867,
      "orld": 2868,
      "ics": 2869,
      "Ġ1994": 2870,
      "ĠInter": 2871,
      "AL": 2872,
      "à®ªà®²à®ª": 2873,
      "Ġà®ķà®³à®Ļ": 2874,
      "Ġà®®à®Łà®¤": 2875,
      "à®´à®Ł": 2876,
      "Ġà®ıà®Ļ": 2877,
      "à®ĩà®³à®®": 2878,
      "Ġà®ħà®²à®ļ": 2879,
      "à®µà®²à®ª": 2880,
      "Ġà®ĩà®µà®Ļ": 2881,
      "à®ªà®ķà®Ļ": 2882,
      "à®¾?âĢĻâĢĻ": 2883,
      "Ġpro": 2884,
      "94": 2885,
      "à®®à®¤à®¤": 2886,
      "à®¨à®£": 2887,
      "à®¨à®®à®¤": 2888,
      "à®£à®¨": 2889,
      "Ġà®ľà®ķ": 2890,
      "Ġà®ķà®²à®µà®°à®¤": 2891,
      "Ġà®ĩà®©à®ķ": 2892,
      "à®Ĩà®ķà®µ": 2893,
      "Ġà®Ĳà®¯à®°": 2894,
      "à®ªà®®à®Ł": 2895,
      "Ġ73": 2896,
      "à¯į?âĢĻ": 2897,
      "Ġ96": 2898,
      "Ġ01": 2899,
      "à®Ĭà®Ł": 2900,
      "Ġnews": 2901,
      "AM": 2902,
      "ER": 2903,
      "à®¿âĢĭ": 2904,
      "à®¯à®°à®®": 2905,
      "Ġà®ħà®±à®µ": 2906,
      "Ġà®ħà®µà®²": 2907,
      "Ġà®Ĳà®¤": 2908,
      "à®¹à®²": 2909,
      "à®®à®£à®Ļ": 2910,
      "Ġ1997": 2911,
      "eg": 2912,
      "Ġex": 2913,
      "à®°à®ªà®°": 2914,
      "à®°à®ľà®©": 2915,
      "Ġà®¤à®²à®¤": 2916,
      "à®¯à®²à®ķà®®": 2917,
      "Ġà®ļà®®à®ļ": 2918,
      "Ġà®īà®±à®ķ": 2919,
      "ali": 2920,
      "Ġà®µà®ļà®©à®¤": 2921,
      "à®Ĩà®©à®¨": 2922,
      "Ġ02": 2923,
      "Ġ08": 2924,
      "Ġthat": 2925,
      "51": 2926,
      "AT": 2927,
      "wn": 2928,
      "Ġà®ķà®³à®ª": 2929,
      "à¯Ģ-": 2930,
      "à®ķà®°à®°": 2931,
      "à®·à®ķ": 2932,
      "Ġà®ľà®¯à®ļ": 2933,
      "Ġà®ļà®®à®µ": 2934,
      "ĠĠĠĠĠĠĠĠĠĠĠĠĠĠĠĠĠĠĠĠĠĠĠĠĠĠĠĠĠĠĠĠĠĠĠĠĠĠĠĠĠĠĠĠĠ": 2935,
      "Ġ61": 2936,
      "Ġ71": 2937,
      "erm": 2938,
      "enn": 2939,
      "ĠSri": 2940,
      "ick": 2941,
      "Ġkam": 2942,
      "ave": 2943,
      "Ġà®ķà®´à®ķà®Ļ": 2944,
      "!''": 2945,
      "400": 2946,
      "?''": 2947,
      "The": 2948,
      "ust": 2949,
      "ÙĨ": 2950,
      "Ġun": 2951,
      "à®²à®µà®©": 2952,
      "à®²à®°à®ļ": 2953,
      "Ġà®ļà®Łà®²à®Ļ": 2954,
      "Ġà®¨à®²à®ķ": 2955,
      "Ġà®Ĩà®¤à®²": 2956,
      "à®ĩà®µà®°à®¤": 2957,
      "Ġà®¤à®©à®ª": 2958,
      "à®²à®ķà®£": 2959,
      "à®īà®ª": 2960,
      "orm": 2961,
      "Ġà®Ĩà®µà®£à®¤": 2962,
      "ich": 2963,
      "300": 2964,
      "pl": 2965,
      "à¯į&": 2966,
      "à®³à®©à®®": 2967,
      "à®¯à®ļà®ª": 2968,
      "Ġà®ļà®¹": 2969,
      "Ġà®ĩà®Łà®°": 2970,
      "à¯į,âĢĿ": 2971,
      "à®¯à®¤à®³": 2972,
      "à®¤à®°à®ļ": 2973,
      "Ġà®ķà®²à®µà®°à®®": 2974,
      "india": 2975,
      "âĢ¦.": 2976,
      "ile": 2977,
      "Ġ180": 2978,
      "Ġ188": 2979,
      "à¯ģ?âĢĿ": 2980,
      "Ġ09": 2981,
      "ments": 2982,
      "har": 2983,
      "ĠZ": 2984,
      "à®²à®ķà®°": 2985,
      "à®³à®³à®µ": 2986,
      "à¯ĩ-": 2987,
      "Ġà®ħà®ķà®µ": 2988,
      "Ġà®Ĩà®·": 2989,
      "Ġà®Ĩà®°à®£": 2990,
      "à®±à®®à®Ł": 2991,
      "à®©à®µà®±": 2992,
      "Ġ77": 2993,
      "Ġà®īà®£à®µà®ķà®¤": 2994,
      "ĠAm": 2995,
      "2012": 2996,
      "Ġ1995": 2997,
      "ee": 2998,
      "ple": 2999,
      "Ġan": 3000,
      "Ġlo": 3001,
      "à®ķà®ľ": 3002,
      "à®©à®¯": 3003,
      "Ġà®¨à®ķà®Ļ": 3004,
      "Ġà®ĩà®°à®¯": 3005,
      "Ġà®ªà®°à®¸": 3006,
      "à®°à®ļà®µ": 3007,
      "Ġ74": 3008,
      "Ġ108": 3009,
      "olog": 3010,
      "Ġwas": 3011,
      "ula": 3012,
      "Ġab": 3013,
      "lish": 3014,
      "ty": 3015,
      "Ġà®¤à®³à®µ": 3016,
      "Ġà®Ĩà®¯à®°": 3017,
      "à®ĩà®µà®±": 3018,
      "Ġà®ķà®£à®¤": 3019,
      "Ġà®¹à®ļ": 3020,
      "Ġ06": 3021,
      "ult": 3022,
      "ĠArt": 3023,
      "Â®": 3024,
      "à¯į[": 3025,
      "à®ķà®ŀ": 3026,
      "Ġà®®à®¤à®µ": 3027,
      "Ġà®īà®°à®¤": 3028,
      "Ġà®¤à®®à®©": 3029,
      "Ġà®®à®©à®µ": 3030,
      "à®Łà®µà®±": 3031,
      ".,),": 3032,
      "ala": 3033,
      "ther": 3034,
      "ence": 3035,
      "revi": 3036,
      "Ġ04": 3037,
      "ushk": 3038,
      "rit": 3039,
      "à®¨à®²à®ķ": 3040,
      "à¯ĩ\"": 3041,
      "Ġà®īà®¸": 3042,
      "à®¤à®²à®Ļ": 3043,
      "à®ķà®®à®£": 3044,
      "à®·à®£": 3045,
      "Ġà®ĩà®²à®¤": 3046,
      "Ġà®ķà®°à®©": 3047,
      "Ġà®īà®¤à®¯": 3048,
      "Ġ69": 3049,
      "Ġ130": 3050,
      "ĠRam": 3051,
      "ovie": 3052,
      "ĠTags": 3053,
      "==": 3054,
      "IN": 3055,
      "].": 3056,
      "aw": 3057,
      "ian": 3058,
      "oh": 3059,
      "ĠØ": 3060,
      "à®°à®³à®¤": 3061,
      "à®ªà®²à®ķ": 3062,
      "à®ªà®´à®¤": 3063,
      "à®µà®ķà®°": 3064,
      "Ġà®ªà®¤à®ª": 3065,
      "Ġà®®à®ķà®ª": 3066,
      "Ġà®Ĩà®ķà®²": 3067,
      "Ġà®Īà®µ": 3068,
      "Ġà®Ĩà®°à®µ": 3069,
      "à¯ĩà®¾à¯į": 3070,
      "Ġ88": 3071,
      "Ġ1992": 3072,
      "ushkodi": 3073,
      "az": 3074,
      "de": 3075,
      "port": 3076,
      "Ùħ": 3077,
      "à¦": 3078,
      "à®ķà®µà®¤": 3079,
      "Ġà®¨à®´": 3080,
      "à®ķà®®à®®": 3081,
      "à®ľà®©à®¤": 3082,
      "à®ľà®¤à®¨": 3083,
      "à¯į!\"": 3084,
      "à®īà®®": 3085,
      "Ġà®ªà®³à®ªà®³à®ª": 3086,
      "eng": 3087,
      "reaking": 3088,
      "urai": 3089,
      "ED": 3090,
      "Ġal": 3091,
      "à®®à®µà®°": 3092,
      "Ġà®ªà®ķà®¤": 3093,
      "Ġà®ķà®³à®µ": 3094,
      "à®¨à®ķ": 3095,
      "Ġà®¤à®ķà®ª": 3096,
      "Ġà®¤à®Łà®Ļ": 3097,
      "Ġà®ļà®¤à®®": 3098,
      "Ġà®ļà®µà®°à®©": 3099,
      "Ġà®°à®¸": 3100,
      "à®¯à®®à®©": 3101,
      "à®°à®¤à®ª": 3102,
      "Ġà®¹à®²": 3103,
      "Ġà®ªà®¯à®©à®Ł": 3104,
      "atur": 3105,
      "à®Ĵà®³": 3106,
      "Ġcon": 3107,
      "Ġform": 3108,
      "anka": 3109,
      "revious": 3110,
      ");": 3111,
      "An": 3112,
      "ON": 3113,
      "br": 3114,
      "me": 3115,
      "Ġor": 3116,
      "Ġle": 3117,
      "à®®à®Łà®Ļ": 3118,
      "à®ªà®ķà®°à®®": 3119,
      "à®ªà®´à®Ļ": 3120,
      "à¯Ī''": 3121,
      "Ġà®ªà®Łà®°": 3122,
      "à®ļà®µà®®": 3123,
      "Ġà®µà®¸": 3124,
      "à®ķà®°à®µà®°": 3125,
      "à®¤à®®à®±": 3126,
      "Ġà®ĵà®°à®¤": 3127,
      "à®°à®ļà®µà®¤": 3128,
      "ings": 3129,
      "Ġ1983": 3130,
      "à¯ĩ?''": 3131,
      "Ġkathai": 3132,
      "ĠUn": 3133,
      "))": 3134,
      "kal": 3135,
      "Ġit": 3136,
      "Ġà®ķà®Łà®ª": 3137,
      "Ġà®ļà®®à®°à®ļ": 3138,
      "à®ķà®Łà®±": 3139,
      "ase": 3140,
      "Ġmar": 3141,
      "Ġ1985": 3142,
      "ĠFull": 3143,
      "ember": 3144,
      "ikatan": 3145,
      "hanushkodi": 3146,
      "ĠâĨĳ": 3147,
      "%,": 3148,
      "800": 3149,
      "Vi": 3150,
      "Ã¤": 3151,
      "Ġ%": 3152,
      "à®®à®²à®¤": 3153,
      "Ġà®µà®Łà®ª": 3154,
      "à®Łà®°à®²": 3155,
      "Ġà®¹à®ľ": 3156,
      "Ġà®Ĳà®¯à®®": 3157,
      "Ġ5000": 3158,
      "Ġ1950": 3159,
      "à®°à®°à®ļà®°": 3160,
      "Ġà®ķà®³à®ŀ": 3161,
      "Ġsh": 3162,
      "ace": 3163,
      "ĠOne": 3164,
      "ĠCont": 3165,
      "per": 3166,
      "Ùĳ": 3167,
      "à®£à®±à®²": 3168,
      "à®ķà®°à®ļ": 3169,
      "Ġà®Łà®¯à®²": 3170,
      "Ġà®īà®¤à®¯à®ķ": 3171,
      "aran": 3172,
      "Ġ144": 3173,
      "ions": 3174,
      "ett": 3175,
      "Ġstory": 3176,
      "yn": 3177,
      "à®¾à®¿": 3178,
      "à®ªà®©à®°": 3179,
      "à®ļà®ķà®©": 3180,
      "Ġà®¤à®Łà®®": 3181,
      "à¯ģ.''": 3182,
      "à®¯à®°à®ļà®©": 3183,
      "à®İà®®à®¤": 3184,
      "à®¤à®ķà®ķ": 3185,
      "Ġà®Ĳà®µà®°": 3186,
      "ink": 3187,
      "Ġà®ĩà®Łà®®à®³": 3188,
      "à®Ĵà®ª": 3189,
      "Ġ84": 3190,
      "à®ĵà®¯": 3191,
      "dian": 3192,
      "view": 3193,
      "!!!": 3194,
      "\".": 3195,
      "EA": 3196,
      "__": 3197,
      "Ġart": 3198,
      "à¯ģâĢĭ": 3199,
      "à®ļà®ŀ": 3200,
      "Ġà®İà®ĥà®ķ": 3201,
      "Ġà®Ĩà®°à®¤": 3202,
      "à®®à®°à®ķ": 3203,
      "Ġà®ħà®³à®ª": 3204,
      "à¯ģ!!": 3205,
      "ree": 3206,
      "Ġà®īà®´à®µ": 3207,
      "Ġ1987": 3208,
      "999": 3209,
      "AAAA": 3210,
      "land": 3211,
      "ss": 3212,
      "ya": 3213,
      "ycl": 3214,
      "Ġ}": 3215,
      "à®ªà®±à®µ": 3216,
      "à®³à®ªà®Ł": 3217,
      "Ġà®ħà®ķà®ª": 3218,
      "Ġà®¤à®³à®ª": 3219,
      "à®ªà®¤à®ķ": 3220,
      "à®ªà®°à®µ": 3221,
      "Ġà®ªà®£à®µ": 3222,
      "Ġà®®à®©à®Ļ": 3223,
      "Ġà®¨à®ķà®°à®ļà®ª": 3224,
      "à¯į:-": 3225,
      "Ġà®ľà®©à®Ļ": 3226,
      "ater": 3227,
      "Ġà®®à®²à®ļ": 3228,
      "Ġà®īà®£à®µà®ķà®®": 3229,
      "Ġ82": 3230,
      "ĠNext": 3231,
      "Ġ160": 3232,
      "Ġà®ķà®µà®©à®¯": 3233,
      "ĠBS": 3234,
      "ĠVikatan": 3235,
      "Ġà®ļà®®à®°à®ļà®®": 3236,
      "**": 3237,
      "ject": 3238,
      "na": 3239,
      "Ġad": 3240,
      "à¯įâĢĵ": 3241,
      "à®²à®Łà®®": 3242,
      "à®ªà®ķà®ª": 3243,
      "Ġà®°à®ķà®Ļ": 3244,
      "à®¯à®®à®Ļ": 3245,
      "Ġà®ªà®ķà®µà®¤": 3246,
      "à®°à®ļà®µà®®": 3247,
      "Ġ97": 3248,
      "à¯ģ?''": 3249,
      "Ġ1984": 3250,
      "ĠVi": 3251,
      "Ġ1971": 3252,
      "ĠComments": 3253,
      "ĠPlus": 3254,
      "85": 3255,
      "ĠÂł": 3256,
      "à¯į]": 3257,
      "à®ªà®²à®¤": 3258,
      "à®ªà®¯à®Ļ": 3259,
      "Ġà®®à®ľ": 3260,
      "Ġà®¨à®¸": 3261,
      "Ġà®Ĩà®ļà®©à®Ļ": 3262,
      "à®±à®¤à®±": 3263,
      "Ġà®µà®°à®¤à®Ł": 3264,
      "à®ľà®µ": 3265,
      "à®¯à®¤à®°": 3266,
      "à®¤à®°à®ķà®®": 3267,
      "à®¤à®°à®ķà®¤": 3268,
      "à®īà®¤à®µ": 3269,
      "à®ķà®£à®¤": 3270,
      "Ġà®Ĩà®²à®¯à®Ļ": 3271,
      "à¯į?âĢĻâĢĻ": 3272,
      "Ġ83": 3273,
      "aram": 3274,
      "à¯į\".": 3275,
      "ĠPM": 3276,
      "à®ĵà®ļ": 3277,
      "ĠDhanushkodi": 3278,
      "ays": 3279,
      "ake": 3280,
      "):": 3281,
      "ĪĴ": 3282,
      "Ġà®ªà®¤à®®": 3283,
      "Ġà®ķà®ļà®ķ": 3284,
      "à®ļà®µà®°": 3285,
      "à¯į,'": 3286,
      "à®ķà®°à®ª": 3287,
      "Ġà®ħà®°à®µà®£": 3288,
      "à®¯à®®à®©à®¤": 3289,
      "Ġà®Ĩà®ķà®ķ": 3290,
      "Ġà®¤à®µà®±à®µ": 3291,
      "atri": 3292,
      "Ġ91": 3293,
      "ages": 3294,
      "à®¿âĢĻ,": 3295,
      "low": 3296,
      "Ġà®Ĩà®ªà®°à®£à®Ļ": 3297,
      "kai": 3298,
      "sc": 3299,
      "Äģ": 3300,
      "Ġam": 3301,
      "à®¶": 3302,
      "à®°à®ªà®Ł": 3303,
      "à®ļà®µà®©": 3304,
      "Ġà®ħà®ľà®¯": 3305,
      "Ġà®¨à®µà®°": 3306,
      "à®´à®ļ": 3307,
      "Ġà®īà®®à®°": 3308,
      "à®°à®®à®²": 3309,
      "Ġà®ħà®±à®®": 3310,
      "erv": 3311,
      "à¯į?'": 3312,
      "ara": 3313,
      "ĠPrevious": 3314,
      "ĠNadu": 3315,
      "Ġpol": 3316,
      "Ġwww": 3317,
      "à¯ģ..!": 3318,
      "Ġ1972": 3319,
      "Ġnot": 3320,
      "à®Ĩà®ķà®¸": 3321,
      "87": 3322,
      "?âĢĻ": 3323,
      "bp": 3324,
      "ml": 3325,
      "ĠØ§": 3326,
      "à®¯à®ķà®°à®®": 3327,
      "à®ļà®ªà®°": 3328,
      "à®¸à®®": 3329,
      "Ġà®°à®ļà®©": 3330,
      "à®ħà®¸": 3331,
      "ĠâĢĽ": 3332,
      "à®±à®®à®³": 3333,
      "Ġà®¹à®¤": 3334,
      "Ġà®ħà®´à®ķà®°": 3335,
      "Ġà®Īà®®": 3336,
      "Ġà®Īà®ļà®©": 3337,
      "ani": 3338,
      "ins": 3339,
      "Ġ89": 3340,
      "à®®à®£à®²": 3341,
      "à®µà®£à®ķ": 3342,
      "à®ªà®¯à®£à®¤": 3343,
      "à®µà®´à®Ļ": 3344,
      "ĠEx": 3345,
      "Ġ1977": 3346,
      "89": 3347,
      "les": 3348,
      "à®ķà®¹": 3349,
      "à®¨à®ª": 3350,
      "à¯ĩà®¾,": 3351,
      "Ġà®ħà®ķà®©": 3352,
      "à¯ĭ..": 3353,
      "Ġà®Ĩà®²à®Ļ": 3354,
      "à®°à®®à®©": 3355,
      "à®Łà®©à®ª": 3356,
      "Ġà®ªà®Łà®²à®®": 3357,
      "à®ķà®²à®¨": 3358,
      "à®ħà®³à®µ": 3359,
      "Ġà®Ĭà®µ": 3360,
      "Ġà®®à®©à®¨à®²": 3361,
      "à®µà®²à®©": 3362,
      "Ġ360": 3363,
      "à®µà®ļà®ª": 3364,
      "Ġ76": 3365,
      "à®Ĵà®²": 3366,
      "Ġ94": 3367,
      "Ġ:-": 3368,
      "ĠIST": 3369,
      "url": 3370,
      "Ġ1993": 3371,
      "Ġ1978": 3372,
      "à¯ĩ?âĢĿ": 3373,
      "oss": 3374,
      "ĠâĨĴ": 3375,
      "ĠArticle": 3376,
      "CH": 3377,
      "Ch": 3378,
      "avi": 3379,
      "ral": 3380,
      "à®µà®²à®¤": 3381,
      "Ġà®¨à®Ļ": 3382,
      "à¯į.âĢĻ": 3383,
      "Ġà®µà®°à®£": 3384,
      "Ġà®ħà®®à®®": 3385,
      "à®¤à®®à®¤": 3386,
      "à®ĩà®²à®ķ": 3387,
      "Ġà®¤à®°à®¨": 3388,
      "Ġà®Īà®ª": 3389,
      "à®Łà®µà®³": 3390,
      "à¯į?\"": 3391,
      "Ġà®ķà®©à®ħà®Ł": 3392,
      "à¯Įà®¿": 3393,
      "ĠPh": 3394,
      "Ġ125": 3395,
      "reat": 3396,
      "à®°à®ªà®°à®£": 3397,
      "AF": 3398,
      "ech": 3399,
      "à®ªà®©à®¤": 3400,
      "à®µà®³à®®": 3401,
      "Ġà®®à®²à®ª": 3402,
      "à®¨à®±": 3403,
      "Ġà®°à®ķà®®": 3404,
      "à®ľà®©à®µà®°": 3405,
      "Ġà®ļà®®à®°à®µ": 3406,
      "Ġà®īà®£à®°à®µ": 3407,
      "à®±à®µà®³": 3408,
      "à¯į'.": 3409,
      "Ġà®ªà®´à®ļ": 3410,
      "à®¨à®ķà®°à®Ļ": 3411,
      "Ġ92": 3412,
      "à¯įâĢĿ.": 3413,
      "ĠCO": 3414,
      "ĠNo": 3415,
      "ĠRating": 3416,
      "Ġà®ļà®²à®ļà®²à®ª": 3417,
      "Ġmore": 3418,
      "2007": 3419,
      "82": 3420,
      "CO": 3421,
      "co": 3422,
      "à®°à®ªà®¤": 3423,
      "à®©à®ķà®¤": 3424,
      "à®ªà®´à®©": 3425,
      "Ġà®ªà®¯à®±": 3426,
      "à®ķà®³à®©": 3427,
      "Ġà®ĩà®¯à®©": 3428,
      "Ġà®¨à®µà®ķ": 3429,
      "Ġà®¨à®©à®µ": 3430,
      "Ġà®¨à®µà®¨": 3431,
      "Ġà®īà®©à®¤": 3432,
      "Ġà®Ĩà®²à®®": 3433,
      "à®©à®¤à®±": 3434,
      "à®ħà®ľ": 3435,
      "...''": 3436,
      "à®©à®µà®³": 3437,
      "Ġà®ķà®´à®Ł": 3438,
      "eri": 3439,
      "à®ıà®¤": 3440,
      "Ġ86": 3441,
      "Ġ:)": 3442,
      "Ġà®ĩà®¯à®²à®µ": 3443,
      "Ġpl": 3444,
      "Ġ1982": 3445,
      "Ġ1986": 3446,
      "Ġ1948": 3447,
      "ĠUpdate": 3448,
      "ĠOneindia": 3449,
      "yclone": 3450,
      "84": 3451,
      "Tamil": 3452,
      "UTC": 3453,
      "se": 3454,
      "uv": 3455,
      "Â¢": 3456,
      "ÙĬ": 3457,
      "ĉĠ": 3458,
      "à®¿....": 3459,
      "à®¤à®µà®¤": 3460,
      "à®©à®ªà®Ł": 3461,
      "à®ªà®¹": 3462,
      "Ġà®ķà®©à®°": 3463,
      "Ġà®ĩà®³à®µ": 3464,
      "à®µà®©à®ķ": 3465,
      "Ġà®ªà®£à®µà®°à®µ": 3466,
      "Ġ3000": 3467,
      "à®Ĵà®´": 3468,
      "ĠTN": 3469,
      "à¯į..?": 3470,
      "ĠAI": 3471,
      "Ġà®ĩà®®à®¯à®®à®²": 3472,
      "adh": 3473,
      "2006": 3474,
      "à®Īà®Ł": 3475,
      "ĠÂ°": 3476,
      "Ġ1979": 3477,
      "ĠWorld": 3478,
      "700": 3479,
      "bh": 3480,
      "li": 3481,
      "ox": 3482,
      "âģ": 3483,
      "Ġà¤": 3484,
      "ĠðŁ": 3485,
      "à®¾(": 3486,
      "à®©à®Łà®¤": 3487,
      "à®©à®Łà®®": 3488,
      "à®ļà®Łà®Ļ": 3489,
      "à®¨à®®à®ķ": 3490,
      "à¯ĩ:": 3491,
      "Ġà®ħà®ļà®®": 3492,
      "Ġà®ļà®¯à®©": 3493,
      "Ġà®Ĩà®¹": 3494,
      "à¯ģ.)": 3495,
      "à®ľà®¯à®²à®Ł": 3496,
      "à®¯à®¤à®³à®Ļ": 3497,
      "à®·à®¯": 3498,
      "Ġà®ĩà®²à®£": 3499,
      "Ġà®ªà®²à®°à®¤": 3500,
      "Ġà®ªà®²à®¤à®°à®ª": 3501,
      "ĠâĢĶ": 3502,
      "Ġà®¹à®Ł": 3503,
      "Ġà®µà®Łà®ļ": 3504,
      "amp": 3505,
      "Ġà®·à®®": 3506,
      "esh": 3507,
      "Ġ1988": 3508,
      "2001": 3509,
      "akathai": 3510,
      "ctor": 3511,
      "able": 3512,
      "own": 3513,
      "Ġformula": 3514,
      "AS": 3515,
      "IC": 3516,
      "PS": 3517,
      "of": 3518,
      "à®ªà®£à®¤": 3519,
      "à¯ĪâĢĻâĢĻ": 3520,
      "Ġà®ķà®©à®¤": 3521,
      "à®ļà®ķà®Ļ": 3522,
      "à¯ĩ;": 3523,
      "Ġà®ħà®ªà®¤": 3524,
      "Ġà®¨à®¯": 3525,
      "à¯ģ.'": 3526,
      "Ġà®µà®°à®Ł": 3527,
      "à®ķà®µà®´à®ķ": 3528,
      "à®ľà®©à®®": 3529,
      "Ġà®ħà®®à®°à®°": 3530,
      "Ġà®ªà®°à®Ļ": 3531,
      "à®¹à®¸": 3532,
      "à®µà®ķà®ļ": 3533,
      "ery": 3534,
      "ont": 3535,
      "Ġ900": 3536,
      "Ġà®Ĩà®¤à®°à®µà®±": 3537,
      "ĠSh": 3538,
      "Ġsp": 3539,
      "Ġthis": 3540,
      "oll": 3541,
      "ulam": 3542,
      "Ġ1975": 3543,
      "ĠQu": 3544,
      "âģ´": 3545,
      "ck": 3546,
      "hy": 3547,
      "outh": 3548,
      "Ġra": 3549,
      "à¯įÂ": 3550,
      "à®¤à®Łà®¤": 3551,
      "à®Łà®µà®®": 3552,
      "à®²à®ªà®Ł": 3553,
      "à¯Ĥ.,": 3554,
      "à®µà®°à®ļ": 3555,
      "Ġà®ıà®µà®ª": 3556,
      "Ġà®Łà®¤": 3557,
      "à®İà®³": 3558,
      "ans": 3559,
      "Ġà®īà®£à®µà®³": 3560,
      "Ġ93": 3561,
      "ĠAM": 3562,
      "Ġ140": 3563,
      "ism": 3564,
      "Ġme": 3565,
      "Ġ1981": 3566,
      "Ġ1956": 3567,
      "angu": 3568,
      "Ġà®ľà®µà®¹à®°": 3569,
      "IL": 3570,
      "form": 3571,
      "ve": 3572,
      "à¯į},": 3573,
      "à®ªà®´à®¨": 3574,
      "Ġà®®à®²à®®": 3575,
      "Ġà®īà®®à®ķ": 3576,
      "à®Łà®°à®Ļ": 3577,
      "Ġà®ļà®®à®£": 3578,
      "Ġà®ħà®µà®²à®®": 3579,
      "à¯į...!": 3580,
      "à®Ĵà®±": 3581,
      "à®Ĳà®ļ": 3582,
      "Ġ87": 3583,
      "ale": 3584,
      "ild": 3585,
      "à¯į..âĢĿ": 3586,
      "ĠMar": 3587,
      "ret": 3588,
      "ise": 3589,
      "ĠBreaking": 3590,
      "à¯įâĢ¦..": 3591,
      "ayam": 3592,
      "ĠLive": 3593,
      "ung": 3594,
      "Ġ1965": 3595,
      "Ġ1947": 3596,
      "Ġhttps": 3597,
      ",''": 3598,
      "ET": 3599,
      "ire": 3600,
      "rin": 3601,
      "»¿": 3602,
      "ï»¿": 3603,
      "à®¿/": 3604,
      "à®¾....": 3605,
      "à®®à®ľ": 3606,
      "à®³à®µà®©": 3607,
      "Ġà®®à®´à®²": 3608,
      "à¯Ĩ.,": 3609,
      "à¯į,(": 3610,
      "à®ĩà®¯": 3611,
      "à®²à®¤à®©à®¤": 3612,
      "Ġà®īà®°à®ļ": 3613,
      "Ġà®¤à®°à®ķà®°": 3614,
      "Ġ\"@": 3615,
      "à®īà®©à®ķ": 3616,
      "à®īà®²à®ķà®¤": 3617,
      "âĢ¦âĢ¦": 3618,
      "ork": 3619,
      "ories": 3620,
      "ĠCinema": 3621,
      "iss": 3622,
      "ement": 3623,
      "ime": 3624,
      "Ġonline": 3625,
      "iya": 3626,
      "81": 3627,
      "86": 3628,
      "=\"": 3629,
      "?'": 3630,
      "As": 3631,
      "GB": 3632,
      "eop": 3633,
      "oy": 3634,
      "à®¤à®ķà®ª": 3635,
      "à®¯à®£à®¤": 3636,
      "à®¨à®²à®µ": 3637,
      "à®ĩà®°à®¤": 3638,
      "Ġà®ªà®ķà®Ł": 3639,
      "à®Ĩà®µ": 3640,
      "Ġà®¤à®°à®²": 3641,
      "à®¨à®ķà®°à®ļà®ª": 3642,
      "âĢĺ`": 3643,
      "1990": 3644,
      "à®¨à®Łà®µà®Ł": 3645,
      "Ġcyclone": 3646,
      "ĠDec": 3647,
      "à¯Ī!''": 3648,
      "Ġ1962": 3649,
      "Ġ1969": 3650,
      "Ġà®ħà®µà®ļà®°à®ª": 3651,
      "rict": 3652,
      "ĠAnd": 3653,
      "MS": 3654,
      "NL": 3655,
      "cess": 3656,
      "national": 3657,
      "vo": 3658,
      "yst": 3659,
      "Ġ\\": 3660,
      "à®ķà®Łà®Ļ": 3661,
      "à®¾),": 3662,
      "à®©à®¤à®²": 3663,
      "à®µà®¯à®²": 3664,
      "à®ķà®³à®±": 3665,
      "à®¨à®Łà®°": 3666,
      "Ġà®ħà®ķà®®": 3667,
      "Ġà®¤à®ķà®Ł": 3668,
      "Ġà®ļà®©à®¤": 3669,
      "à¯ĭ)": 3670,
      "Ġà®īà®²à®®": 3671,
      "Ġà®ľà®°": 3672,
      "à®ªà®°à®ļ": 3673,
      "à®ħà®ŀ": 3674,
      "Ġà®īà®°à®ķ": 3675,
      "à®ļà®©à®²": 3676,
      "Ġà®¨à®ķà®°à®ª": 3677,
      "à®Ĵà®¯": 3678,
      "oron": 3679,
      "ĠTV": 3680,
      "ition": 3681,
      "ayan": 3682,
      "ology": 3683,
      "Ġarticle": 3684,
      "ool": 3685,
      "res": 3686,
      "site": 3687,
      "Â¡": 3688,
      "Â«": 3689,
      "Øª": 3690,
      "à®¤à®Łà®Ļ": 3691,
      "à®°à®ļà®®": 3692,
      "à®Łà®±à®¤": 3693,
      "à®ķà®³à®µà®°": 3694,
      "Ġà®Ĵà®ļ": 3695,
      "Ġà®Łà®¯": 3696,
      "à®°à®¤à®Ļ": 3697,
      "Ġà®®à®£à®ķ": 3698,
      "Ġà®µà®²à®¯à®¤": 3699,
      "Ġ450": 3700,
      "Ġà®¤à®ķà®µà®²à®±": 3701,
      "ates": 3702,
      "à®Ĳà®¤à®°": 3703,
      "arl": 3704,
      "Ġ1500": 3705,
      "ĠPuth": 3706,
      "Ġà®ħà®µà®ļà®°à®¤": 3707,
      "ĠII": 3708,
      "rist": 3709,
      "Ġà®¨à®Łà®©à®¤": 3710,
      "ennai": 3711,
      "Ġabout": 3712,
      "Views": 3713,
      "CL": 3714,
      "Th": 3715,
      "tw": 3716,
      "à®¾]]": 3717,
      "Ġà®®à®¤à®°": 3718,
      "à¯ĩ)": 3719,
      "à®ĩà®Łà®®": 3720,
      "à®ĩà®°à®Ł": 3721,
      "Ġ(''": 3722,
      "à®¯à®©à®µ": 3723,
      "à®ļà®°à®ķ": 3724,
      "à®Łà®²à®Ł": 3725,
      "Ġà®¹à®ª": 3726,
      "Ġà®ļà®ķà®ľà®®": 3727,
      "à¯į...âĢĻâĢĻ": 3728,
      "à®°à®ķà®£à®®": 3729,
      "Ġà®·à®ķ": 3730,
      "arm": 3731,
      "alk": 3732,
      "tha": 3733,
      "Ġà®¤à®ķà®©à®®": 3734,
      "Ġpost": 3735,
      "à®¤à®³à®ªà®¤": 3736,
      "ike": 3737,
      "igh": 3738,
      "Ġà®¨à®Łà®©à®ķ": 3739,
      "----": 3740,
      "/-": 3741,
      "OS": 3742,
      "Â§": 3743,
      "Ġ<": 3744,
      "à¯įâĢį": 3745,
      "à®®à®£à®ª": 3746,
      "Ġà®µà®¯à®°": 3747,
      "à¯ĭ\"": 3748,
      "à¯ĭà¯į": 3749,
      "Ġà®İà®ľà®®": 3750,
      "à®µà®°à®¤à®°": 3751,
      "à¯ģ.âĢĻâĢĻ": 3752,
      ".....": 3753,
      "à®°à®¤à®©": 3754,
      "à®¤à®©à®µ": 3755,
      "à®ħà®µà®±": 3756,
      "à®£à®®à®¯à®®": 3757,
      "à®³à®©à®µ": 3758,
      "à¯į...âĢĿ": 3759,
      "à®°à®ķà®Łà®©à®®": 3760,
      "ars": 3761,
      "ĠPol": 3762,
      "ĠMP": 3763,
      "rig": 3764,
      "Ġà®ĩà®³à®µà®°à®ļà®©": 3765,
      "Ġà®Ĳà®¤à®°à®ļà®©": 3766,
      "ebsite": 3767,
      "alaim": 3768,
      "!âĢĿ": 3769,
      "blog": 3770,
      "Î¼": 3771,
      "Ġ00": 3772,
      "à®²à®¤à®©": 3773,
      "Ġà®®à®Łà®®": 3774,
      "à®¨à®¯": 3775,
      "à®¨à®µà®®": 3776,
      "à®°à®®à®±": 3777,
      "à®ľà®¯à®°": 3778,
      "Ġà®ıà®¯": 3779,
      "à®¯à®²à®£": 3780,
      "ĠĠĠĠĠĠĠĠĠĠĠĠĠĠĠĠĠĠĠĠĠĠĠĠĠĠĠĠ": 3781,
      "à®¯à®©à®Ļ": 3782,
      "à¯Ī.âĢĿ": 3783,
      "à®®à®©à®®": 3784,
      "Ġà®īà®£à®°à®ª": 3785,
      "Ġà®®à®°à®ļ": 3786,
      "à®Ĩà®´": 3787,
      "Ġà®ļà®°à®µ": 3788,
      "à®īà®´": 3789,
      "atch": 3790,
      "à®ľà®©à®¨": 3791,
      "ĠFeb": 3792,
      "Ġ1973": 3793,
      "irst": 3794,
      "Ġtown": 3795,
      "ode": 3796,
      "Ġ1959": 3797,
      "à¤¾": 3798,
      "Ġread": 3799,
      "eople": 3800,
      "%)": 3801,
      ".)": 3802,
      "1000": 3803,
      "2000": 3804,
      "AP": 3805,
      "ci": 3806,
      "à®ªà®¯à®°": 3807,
      "à®ªà®©à®®": 3808,
      "à®¯à®ļà®°": 3809,
      "à®ļà®°à®¤": 3810,
      "Ġà®®à®Łà®²": 3811,
      "Ġà®ħà®ļà®°": 3812,
      "à¯ĭ:": 3813,
      "à®´à®ķà®°": 3814,
      "à®ªà®¤à®¤": 3815,
      "à®¯à®®à®©à®Ļ": 3816,
      "à®Łà®°à®µ": 3817,
      "à®ĩà®³à®Ļ": 3818,
      "à®¯à®µà®´": 3819,
      "à®®à®°à®Ļ": 3820,
      "inue": 3821,
      "Ġ128": 3822,
      "olle": 3823,
      "rid": 3824,
      "Ġhe": 3825,
      "ĠEd": 3826,
      "à®Ĭà®´": 3827,
      "Ġ1967": 3828,
      "Ġ1968": 3829,
      "athi": 3830,
      "ign": 3831,
      "Ġkamakathai": 3832,
      ".âĢĿ": 3833,
      "Ar": 3834,
      "EN": 3835,
      "IS": 3836,
      "ged": 3837,
      "}}": 3838,
      "à®ªà®²à®°": 3839,
      "à¯Ī).": 3840,
      "à®³à®¯": 3841,
      "Ġà®¤à®°à®£": 3842,
      "à®ªà®°à®¸": 3843,
      "Ġà®ķà®°à®ª": 3844,
      "Ġà®¤à®©à®®": 3845,
      "Ġà®ªà®¯à®©à®±": 3846,
      "Ġ2022": 3847,
      "à®īà®±à®µ": 3848,
      "à®°à®ķà®Łà®©à®ª": 3849,
      "à®ıà®®": 3850,
      "Ġà®µà®°à®²à®Ł": 3851,
      "ĠPort": 3852,
      "ĠAd": 3853,
      "ada": 3854,
      "ĠRel": 3855,
      "ĠIm": 3856,
      "Ġ1974": 3857,
      "Ġac": 3858,
      "à®ĥà®¤": 3859,
      "iyath": 3860,
      "Â®Â": 3861,
      "ĠØ§ÙĦ": 3862,
      "ES": 3863,
      "PM": 3864,
      "hat": 3865,
      "udi": 3866,
      "Ã©": 3867,
      "Ġ>": 3868,
      "Ġag": 3869,
      "à¯įâĢľ": 3870,
      "à¯ģ/": 3871,
      "à¯ģ]]": 3872,
      "à®°à®³à®®": 3873,
      "Ġà®ķà®®à®°": 3874,
      "Ġà®Ĩà®ķà®ª": 3875,
      "à®ķà®²à®µ": 3876,
      "à®°à®£à®°": 3877,
      "à®¯à®ķà®Ļ": 3878,
      "à®Łà®ķà®ķ": 3879,
      "Ġà®¤à®°à®Ļ": 3880,
      "à®¹à®¤": 3881,
      "ĠâĢĺâĢĻ": 3882,
      "à®ªà®®à®£": 3883,
      "Ġà®¤à®µà®³": 3884,
      "Ġ105": 3885,
      "à®ıà®¯": 3886,
      "Ġ81": 3887,
      "orn": 3888,
      "ors": 3889,
      "ĠSe": 3890,
      "à¯ģ?âĢĻ": 3891,
      "ade": 3892,
      "Ġà®ķà®µà®©à®ķ": 3893,
      "Ġse": 3894,
      "Ġser": 3895,
      "ĠLanka": 3896,
      "ĠGo": 3897,
      "Ġà®ªà®²à®©à®³": 3898,
      "Ġà®ħà®µà®¤à®°": 3899,
      "ript": 3900,
      "row": 3901,
      "Ġ1954": 3902,
      "Ġ1949": 3903,
      "aily": 3904,
      "VID": 3905,
      "Ġà®ķà®©à®°à®ķ": 3906,
      "++": 3907,
      "250": 3908,
      "83": 3909,
      "?âĢĻâĢĻ": 3910,
      "act": 3911,
      "ean": 3912,
      "eatur": 3913,
      "ket": 3914,
      "pr": 3915,
      "yan": 3916,
      "à¯¦": 3917,
      "à®¯à®¯": 3918,
      "Ġà®µà®ļà®ª": 3919,
      "à®¨à®²à®¤": 3920,
      "Ġà®īà®ªà®¨": 3921,
      "à®±à®¤à®©": 3922,
      "à®ķà®¤à®µ": 3923,
      "Ġà®Łà®µà®°": 3924,
      "à®ªà®°à®ļà®©": 3925,
      "Ġà®ķà®£à®Ļ": 3926,
      "à®®à®©à®ļ": 3927,
      "Ġà®¤à®Łà®ķà®³": 3928,
      "Ġà®Ĳà®©": 3929,
      "à®¹à®µ": 3930,
      "à®īà®£à®°": 3931,
      "ons": 3932,
      "enc": 3933,
      "Ġà®īà®ªà®ļà®©": 3934,
      "ĠAg": 3935,
      "ica": 3936,
      "à®¨à®Łà®¨": 3937,
      "Ġcl": 3938,
      "elv": 3939,
      "à®Ĭà®¤": 3940,
      "à®Ĭà®´à®²": 3941,
      "Ġde": 3942,
      "ĠUS": 3943,
      "Ġ1944": 3944,
      "ateg": 3945,
      "itha": 3946,
      "CC": 3947,
      "Cl": 3948,
      "IA": 3949,
      "go": 3950,
      "uy": 3951,
      "Ġup": 3952,
      "à®°à®ķà®ª": 3953,
      "à®Łà®ķà®ª": 3954,
      "à®©à®ļà®®": 3955,
      "à®®à®¤à®ª": 3956,
      "à®ªà®ªà®Ł": 3957,
      "à®¯à®¤à®²": 3958,
      "Ġà®ªà®·": 3959,
      "à®ļà®ªà®ķ": 3960,
      "Ġà®µà®©à®®": 3961,
      "Ġà®ļà®²à®µ": 3962,
      "Ġà®ļà®ĥà®ª": 3963,
      "à¯Ģ)": 3964,
      "Ġà®īà®²à®µ": 3965,
      "à®¸à®ª": 3966,
      "Ġà®ħà®¤à®°": 3967,
      "Ġà®°à®ķà®³": 3968,
      "..!": 3969,
      "à®¤à®µà®²": 3970,
      "à®ļà®°à®¸": 3971,
      "à®Łà®ªà®Ļ": 3972,
      "Ġà®®à®£à®¤": 3973,
      "à®±à®®à®±": 3974,
      "Ġà®¹à®¸": 3975,
      "Ġà®¹à®ļà®©": 3976,
      "Ġà®ħà®¤à®©à®Ł": 3977,
      "à®¹à®ª": 3978,
      "Ġà®īà®Łà®¨": 3979,
      "Ġà®īà®¤à®¯à®®": 3980,
      "Ġà®¨à®²à®ļ": 3981,
      "à®µà®ļà®¨": 3982,
      "à®©à®µà®Ļ": 3983,
      "à®ıà®µ": 3984,
      "ĠSp": 3985,
      "à®¯à®¨à®²": 3986,
      "ĠMovie": 3987,
      "ĠRaj": 3988,
      "Ġ170": 3989,
      "à¯įâĢ¦âĢĿ": 3990,
      "Ġman": 3991,
      "à®Īà®¸": 3992,
      "Ġ1976": 3993,
      "à¯ĩ...''": 3994,
      "Ġname": 3995,
      "ĠIndian": 3996,
      "Ġ1952": 3997,
      "Ġyou": 3998,
      "Ġvide": 3999,
      "ĠÃĤ": 4000,
      "type": 4001,
      "ĠPuthiyath": 4002,
      "alaimurai": 4003,
      "ĠPuthiyathalaimurai": 4004,
      "OR": 4005,
      "St": 4006,
      "io": 4007,
      "ium": 4008,
      "Â²": 4009,
      "Ġà®´": 4010,
      "à®ªà®±à®®": 4011,
      "à®¯à®±à®¤": 4012,
      "à®±à®£": 4013,
      "Ġà®ªà®¤à®¤": 4014,
      "à®ļà®ķà®Ł": 4015,
      "Ġà®µà®°à®©": 4016,
      "à®Łà®®à®³": 4017,
      "Ġà®ĩà®¤à®®": 4018,
      "Ġà®ıà®²": 4019,
      "à®ĩà®¯à®²": 4020,
      "Ġà®ķà®²à®µà®°à®Ļ": 4021,
      "Ġà®²à®¯": 4022,
      "Ġà®ªà®°à®ļ": 4023,
      "âĢĻ,": 4024,
      "à®°à®ļà®Ļ": 4025,
      "Ġà®®à®£à®®à®ķà®³": 4026,
      "Ġà®ħà®³à®ķ": 4027,
      "à®ķà®ļà®ª": 4028,
      "anc": 4029,
      "int": 4030,
      "Ġà®ħà®ļà®Ł": 4031,
      "Ġà®ķà®©à®ķ": 4032,
      "1998": 4033,
      "Ġ||": 4034,
      "à®¯à®¨à®²à®®": 4035,
      "ital": 4036,
      "ĠIN": 4037,
      "Ġper": 4038,
      "Ġpeople": 4039,
      "ĠFor": 4040,
      "ĠHD": 4041,
      "ĠEng": 4042,
      "ĠKai": 4043,
      "Ġapp": 4044,
      "ott": 4045,
      "ivers": 4046,
      "à¯ģâĢ¦.": 4047,
      "ĠReview": 4048,
      "alli": 4049,
      "ally": 4050,
      "Ġ370": 4051,
      "ĠContinue": 4052,
      "Ġpolit": 4053,
      "Im": 4054,
      "day": 4055,
      "oo": 4056,
      "rum": 4057,
      "Ġ),": 4058,
      "à®¿]]": 4059,
      "à®²à®¤à®²": 4060,
      "à®ªà®¯à®±": 4061,
      "Ġà®ķà®ªà®Ł": 4062,
      "à®ļà®£à®®": 4063,
      "à®¨à®³": 4064,
      "Ġà®ļà®ķà®¤": 4065,
      "à®ķà®°à®ļà®°": 4066,
      "Ġà®ĩà®¤à®¯à®Ļ": 4067,
      "Ġà®ķà®²à®©": 4068,
      "Ġà®®à®£à®®à®ķà®©": 4069,
      "Ġà®Ĳà®İà®¸": 4070,
      "Ġ\",": 4071,
      "Ġà®Īà®±": 4072,
      "Ġ1940": 4073,
      "à¯į.......": 4074,
      "Ġ101": 4075,
      "Ġ104": 4076,
      "alam": 4077,
      "Ġà®īà®ªà®ļà®°": 4078,
      "ication": 4079,
      "ĠMah": 4080,
      "à®ĵà®µ": 4081,
      "à®ķà®¨à®²": 4082,
      "ĠBook": 4083,
      "à®¾...?": 4084,
      "Ġà®ķà®®à®²à®¹": 4085,
      "Ġà®¤à®°à®®à®±": 4086,
      "ister": 4087,
      "Ġyour": 4088,
      "ĠDecember": 4089,
      "IT": 4090,
      "SP": 4091,
      "ax": 4092,
      "cert": 4093,
      "ka": 4094,
      "oon": 4095,
      "yas": 4096,
      "à´": 4097,
      "à·": 4098,
      "Ġà¯": 4099,
      "à¯ģ|": 4100,
      "à®°à®³à®µ": 4101,
      "à®Łà®Łà®ķ": 4102,
      "à®Łà®Īà®Ł": 4103,
      "à¯ĪâĢĮ": 4104,
      "Ġà®ħà®±à®¤": 4105,
      "à®£à®£": 4106,
      "à¯į.!": 4107,
      "ĠĠĠĠĠ": 4108,
      "Ġà®Ĩà®µà®Ł": 4109,
      "Ġà®Ĵà®®": 4110,
      "à®¸à®¸": 4111,
      "Ġà®°à®ļà®®": 4112,
      "à®ķà®°à®Ł": 4113,
      "à®¤à®®à®ª": 4114,
      "Ġ119": 4115,
      "Ġà®Łà®¯à®Ł": 4116,
      "à®µà®©à®Ł": 4117,
      "à®ķà®²à®ķ": 4118,
      "à®ħà®®à®°": 4119,
      "Ġà®Ĭà®®": 4120,
      "Ġà®ĵà®ªà®©": 4121,
      "Ġà®µà®²à®¯à®®": 4122,
      "Ġ1927": 4123,
      "Ġà®ħà®³à®¨": 4124,
      "Ġ79": 4125,
      "à¯įâĢĿ,": 4126,
      "edy": 4127,
      "à¯ģ?'": 4128,
      "Ġà®ªà®¯à®£à®ļ": 4129,
      "ĠIs": 4130,
      "Ġ240": 4131,
      "air": 4132,
      "ĠDist": 4133,
      "eli": 4134,
      "2004": 4135,
      "Ġà®ªà®°à®®à®ķ": 4136,
      "ution": 4137,
      "Ġ1957": 4138,
      "Ġone": 4139,
      "Ġà®ħà®ķà®²à®¤": 4140,
      "Ġwhich": 4141,
      "âĢĶâĢĶâĢĶâĢĶ": 4142,
      "SE": 4143,
      "TR": 4144,
      "action": 4145,
      "gov": 4146,
      "news": 4147,
      "âĪĴ": 4148,
      "Ġro": 4149,
      "à®¿à®¾à¯į": 4150,
      "à®°à®ķà®©": 4151,
      "à¯Ī....": 4152,
      "à®³à®©à®¤": 4153,
      "à®³à®±à®µ": 4154,
      "Ġà®ªà®¹": 4155,
      "à®ļà®µà®Ļ": 4156,
      "Ġà®µà®ľ": 4157,
      "Ġà®ļà®·": 4158,
      "à¯ĨâĢĮ": 4159,
      "à¯į.-": 4160,
      "à®µà®¤à®®": 4161,
      "à®©à®°à®ļ": 4162,
      "Ġà®°à®®à®£": 4163,
      "à®ķà®¤à®°": 4164,
      "à®ľà®ķà®®": 4165,
      "à®ĩà®µà®©": 4166,
      "à®ĩà®±à®¨": 4167,
      "à®²à®®à®©": 4168,
      "à®¯à®©à®®": 4169,
      "à®¹à®®à®Ł": 4170,
      "à¯į!!!": 4171,
      "Ġà®¨à®²à®ª": 4172,
      "à®µà®ļà®ķ": 4173,
      "Ġà®ħà®ķà®¸": 4174,
      "à¯į);": 4175,
      "ama": 4176,
      "amav": 4177,
      "à¯į......": 4178,
      "à®ıà®ļ": 4179,
      "à®ıà®İà®¸": 4180,
      "arn": 4181,
      "ĠSam": 4182,
      "à®ĵà®ķ": 4183,
      "ĠDaily": 4184,
      "à®¾...'": 4185,
      "à®¾...''": 4186,
      "ĠOff": 4187,
      "ĠFeatur": 4188,
      "Ġhave": 4189,
      "ĠÂ«": 4190,
      "ument": 4191,
      "Ġ1955": 4192,
      "Ġ1945": 4193,
      "istory": 4194,
      "ogle": 4195,
      "ocument": 4196,
      "ublish": 4197,
      "ife": 4198,
      "ruary": 4199,
      "150": 4200,
      "FC": 4201,
      "Sh": 4202,
      "gan": 4203,
      "jay": 4204,
      "press": 4205,
      "waram": 4206,
      "Â¾": 4207,
      "à®ķà®ķà®³": 4208,
      "à®¯à®ķà®²": 4209,
      "Ġà®ķà®ĥà®ª": 4210,
      "à®ķà®³à®ķ": 4211,
      "Ġà®Ĩà®Łà®²": 4212,
      "Ġà®Ĩà®´à®ª": 4213,
      "à®¸à®Ł": 4214,
      "ĠĠĠĠĠĠĠĠĠ": 4215,
      "à®Łà®©à®Ļ": 4216,
      "Ġà®ħà®°à®Ł": 4217,
      "Ġà®ľà®ķà®¤": 4218,
      "Ġ()": 4219,
      "à®ķà®©à®ª": 4220,
      "Ġà®Ĳà®¯à®©": 4221,
      "Ġà®ªà®¯à®©à®³": 4222,
      "Ġà®Īà®´à®ª": 4223,
      "Ġà®¤à®µà®´": 4224,
      "Ġ1937": 4225,
      "à®¾?!": 4226,
      "ami": 4227,
      "à®°à®µà®ª": 4228,
      "Ġà®·à®Ł": 4229,
      "Ġà®·à®ª": 4230,
      "ilm": 4231,
      "à¯ģ!'": 4232,
      "à¯ģ!âĢĿ": 4233,
      "ĠSw": 4234,
      "Ġà®¨à®°à®ķà®¤": 4235,
      "ĠFl": 4236,
      "ĠEn": 4237,
      "ĠVide": 4238,
      "ute": 4239,
      "Ġ1961": 4240,
      "ĠInst": 4241,
      "avam": 4242,
      "Ġ1958": 4243,
      "ose": 4244,
      "ĠYou": 4245,
      "ĠConcert": 4246,
      "ĠReviewed": 4247,
      "120": 4248,
      "AC": 4249,
      "Al": 4250,
      "af": 4251,
      "aan": 4252,
      "gm": 4253,
      "man": 4254,
      "oice": 4255,
      "red": 4256,
      "ĠÎ": 4257,
      "ĠÙĪ": 4258,
      "à®¤à®£à®°": 4259,
      "à®Łà®¯à®ª": 4260,
      "à¯Ī/": 4261,
      "Ġà®ķà®¯à®²": 4262,
      "à®ļà®ļà®ª": 4263,
      "à¯į.*": 4264,
      "à®Łà®¤à®ķ": 4265,
      "Ġà®ıà®£": 4266,
      "à®¯à®²à®ķà®Ļ": 4267,
      "à®ĩà®²à®µ": 4268,
      "Ġà®ľà®Ļ": 4269,
      "à®¤à®°à®ķà®°": 4270,
      "à®ħà®µà®Ļ": 4271,
      "Ġà®ļà®®à®¯à®ª": 4272,
      "Ġà®Ĭà®©à®®": 4273,
      "Ġà®®à®°à®ķà®¤": 4274,
      "à®´à®ķà®©": 4275,
      "Ġà®¸à®¤à®ķ": 4276,
      "Ġà®®à®£à®µ": 4277,
      "Ġà®Ĳà®ıà®İà®¸": 4278,
      "à®¹à®³": 4279,
      "Ġà®Īà®´à®®": 4280,
      "Ġà®µà®²à®ª": 4281,
      "'')": 4282,
      "Ġ1930": 4283,
      "à®°à®µà®Ļ": 4284,
      "à¯ĩ!''": 4285,
      "agar": 4286,
      "2002": 4287,
      "2005": 4288,
      "à¯ĩ...'": 4289,
      "à¯ĩ?âĢĻâĢĻ": 4290,
      "Ġgr": 4291,
      "overn": 4292,
      "spot": 4293,
      "Ġreading": 4294,
      "ĠConcerto": 4295,
      "?!": 4296,
      "?)": 4297,
      "AI": 4298,
      "RO": 4299,
      "ie": 4300,
      "min": 4301,
      "ound": 4302,
      "rite": 4303,
      "yl": 4304,
      "¯Â": 4305,
      "Ùĩ": 4306,
      "ïģ": 4307,
      "Ġ~": 4308,
      "à®ªà®ķà®Ł": 4309,
      "Ġà®ªà®±à®ª": 4310,
      "à®¨à®²à®©": 4311,
      "Ġà®ļà®ªà®¤à®®": 4312,
      "à¯ģ.,": 4313,
      "Ġà®Ĵà®³à®µ": 4314,
      "à®ķà®®à®Ļ": 4315,
      "à®ªà®°à®µà®²": 4316,
      "à®ħà®²à®Ļ": 4317,
      "Ġà®ķà®°à®ķ": 4318,
      "Ġà®ĵà®©": 4319,
      "à®µà®®à®±": 4320,
      "Ġà®µà®²à®¯à®ķ": 4321,
      "à®ªà®ķà®±": 4322,
      "ines": 4323,
      "Ġ750": 4324,
      "Ġ102": 4325,
      "ata": 4326,
      "à®¨à®ķà®°à®ª": 4327,
      "ĠTr": 4328,
      "à®¤à®±à®Ł": 4329,
      "ict": 4330,
      "ĠBest": 4331,
      "ĠHTC": 4332,
      "views": 4333,
      "Ġ1963": 4334,
      "ĠWebsite": 4335,
      "à®¾âĢĻ,": 4336,
      "html": 4337,
      "aper": 4338,
      "ove": 4339,
      "à¥į": 4340,
      "logo": 4341,
      "ĠInternational": 4342,
      "ÙĳÙİ": 4343,
      "blogspot": 4344,
      "\">": 4345,
      "IM": 4346,
      "con": 4347,
      "document": 4348,
      "tr": 4349,
      "zem": 4350,
      "à¶": 4351,
      "Ġ]": 4352,
      "Ġent": 4353,
      "à¯į=": 4354,
      "à®¤à®Łà®®": 4355,
      "à®°à®ķà®²": 4356,
      "Ġà®ªà®¯à®²": 4357,
      "Ġà®ĩà®³à®ķ": 4358,
      "ĠĠĠĠĠĠ": 4359,
      "à®ªà®¤à®²": 4360,
      "Ġà®ħà®®à®³": 4361,
      "à®¤à®®à®®": 4362,
      "à®¤à®®à®Ļ": 4363,
      "à®³à®°à®µ": 4364,
      "Ġà®ªà®²à®¨": 4365,
      "Ġà®ħà®°à®ļà®µ": 4366,
      "à®¤à®µà®®": 4367,
      "à®¤à®µà®£": 4368,
      "Ġà®ªà®£à®®à®¤": 4369,
      "à®ļà®®à®®": 4370,
      "Ġà®¯à®ª": 4371,
      "Ġà®ªà®°à®µà®¤": 4372,
      "Ġà®ĵà®®à®²": 4373,
      "Ġà®¸à®®": 4374,
      "à®¹à®£": 4375,
      "Ġà®µà®²à®¯à®Ļ": 4376,
      "Ġ4000": 4377,
      "Ġ1920": 4378,
      "Ġà®Ĩà®ļà®©à®¤": 4379,
      "ance": 4380,
      "Ġ6000": 4381,
      "ĠTir": 4382,
      "Ġà®ªà®©à®Ļ": 4383,
      "ĠSyn": 4384,
      "Ġ117": 4385,
      "Ġà®®à®©à®¤à®³à®µ": 4386,
      "Ġco": 4387,
      "ely": 4388,
      "ĠLal": 4389,
      "à®°à®ªà®²à®®à®Ł": 4390,
      "à®Īà®´à®¤": 4391,
      "Ġà®ªà®°à®®à®ļ": 4392,
      "Ġà®®à®©à®¨à®²à®®": 4393,
      "ube": 4394,
      "Ġà®ħà®ķà®²à®ª": 4395,
      "ĠFebruary": 4396,
      "ĠKaizem": 4397,
      "ĠFeatured": 4398,
      "IP": 4399,
      "ION": 4400,
      "OL": 4401,
      "UR": 4402,
      "ds": 4403,
      "rc": 4404,
      "ti": 4405,
      "way": 4406,
      "write": 4407,
      "Â¯Â": 4408,
      "Ġim": 4409,
      "Ġà®Ļ": 4410,
      "à®²à®Łà®ķ": 4411,
      "à®²à®µà®°à®¤": 4412,
      "Ġà®ķà®²à®®": 4413,
      "Ġà®ķà®¤à®°": 4414,
      "à®ļà®µà®¤": 4415,
      "à®ļà®²à®¤": 4416,
      "Ġà®®à®±à®¤": 4417,
      "à®ķà®°à®¨": 4418,
      "Ġà®īà®³à®±": 4419,
      "à®ľà®¯à®ļ": 4420,
      "à®ķà®²à®Ł": 4421,
      "Ġà®ħà®±à®ª": 4422,
      "Ġà®ķà®²à®ķà®²à®ª": 4423,
      "à®İà®¤à®±": 4424,
      "à®ļà®®à®¯à®¤": 4425,
      "à®ķà®©à®©": 4426,
      "Ġà®Ĩà®Łà®µà®°": 4427,
      "ĠâĢľâĢĿ": 4428,
      "à®ķà®£à®Ļ": 4429,
      "à®ķà®£à®µà®©": 4430,
      "à®°à®µà®£à®ķ": 4431,
      "à¯į...\"": 4432,
      "à¯į...âĢĻ": 4433,
      "eral": 4434,
      "ĠĠĠĠĠĠĠĠĠĠĠĠĠĠĠĠĠĠĠĠĠĠĠĠĠĠĠĠĠĠĠĠĠĠĠĠĠ": 4435,
      "1980": 4436,
      "à¯į..!!": 4437,
      "ĠSm": 4438,
      "ĠCl": 4439,
      "ĠAs": 4440,
      "Ġ2500": 4441,
      "Ġà®ļà®©à®¨": 4442,
      "ream": 4443,
      "ĠDin": 4444,
      "à¯ģâĢĻ,": 4445,
      "ular": 4446,
      "Ġdo": 4447,
      "à®īà®²à®ķà®ķ": 4448,
      "Ġà®µà®Łà®®à®¤": 4449,
      "Ġ1951": 4450,
      "Ġ1942": 4451,
      "oci": 4452,
      "ock": 4453,
      "iyan": 4454,
      "Ġà®ªà®°à®¤à®¨": 4455,
      "Ġres": 4456,
      "Ã¤Ã¤": 4457,
      "ĠBSNL": 4458,
      "anguage": 4459,
      "ystem": 4460,
      "Ġvideo": 4461,
      "900": 4462,
      "AD": 4463,
      "Home": 4464,
      "IR": 4465,
      "TE": 4466,
      "aff": 4467,
      "ele": 4468,
      "mun": 4469,
      "to": 4470,
      "wood": 4471,
      "{{": 4472,
      "Ø±": 4473,
      "à²": 4474,
      "Ġar": 4475,
      "à®¿''": 4476,
      "à®¤à®ķà®µ": 4477,
      "à®©à®ķà®®": 4478,
      "à®®à®Łà®®": 4479,
      "à®®à®¤à®©": 4480,
      "à®ªà®ķà®°": 4481,
      "à®ªà®²à®µ": 4482,
      "à®¯à®©à®°": 4483,
      "Ġà®ķà®°à®¤": 4484,
      "à®ļà®µà®°à®®": 4485,
      "Ġà®¤à®µà®¤": 4486,
      "à¯ģ.âĢĻ": 4487,
      "à®¤à®¤à®¤": 4488,
      "Ġà®ħà®°à®µà®ķ": 4489,
      "à®©à®¤à®©": 4490,
      "Ġà®Łà®²": 4491,
      "à®ħà®³": 4492,
      "à®ħà®ķà®¤": 4493,
      "Ġà®ªà®£à®¯à®®": 4494,
      "Ġà®²à®®": 4495,
      "à®©à®®à®£": 4496,
      "Ġà®ļà®°à®µà®£": 4497,
      "à®ļà®©à®ª": 4498,
      "à®¹à®Ł": 4499,
      "Ġà®īà®¤à®±": 4500,
      "Ġà®īà®¤à®¯à®ļ": 4501,
      "à¯į!)": 4502,
      "Ġà®µà®Łà®¨": 4503,
      "Ġ1939": 4504,
      "Ġà®ħà®ķà®¨": 4505,
      "à¯į...?": 4506,
      "Ġà®ľà®©à®©": 4507,
      "à¯į\")": 4508,
      "ĠSec": 4509,
      "ĠCan": 4510,
      "str": 4511,
      "à¯Ī:'": 4512,
      "itt": 4513,
      "ĠRes": 4514,
      "ola": 4515,
      "ura": 4516,
      "els": 4517,
      "Ġ234": 4518,
      "rib": 4519,
      "vid": 4520,
      "rop": 4521,
      "ĠJan": 4522,
      "Ġ.....": 4523,
      "ricket": 4524,
      "ĠCOVID": 4525,
      "ĠPortal": 4526,
      "?\"": 4527,
      "IG": 4528,
      "aut": 4529,
      "cal": 4530,
      "der": 4531,
      "ne": 4532,
      "so": 4533,
      "ual": 4534,
      "xx": 4535,
      "Â¨": 4536,
      "Ø¨": 4537,
      "Ùĥ": 4538,
      "Ġall": 4539,
      "à®ķà®·": 4540,
      "à®ķà®ľà®©": 4541,
      "à®°à®¯à®¤": 4542,
      "à®°à®¯à®®": 4543,
      "à¯ĪâĢĭ": 4544,
      "à¯Ī]]": 4545,
      "à®¯à®ľ": 4546,
      "à®ļà®¤à®®": 4547,
      "Ġà®µà®¯à®¨": 4548,
      "à®Łà®®à®°": 4549,
      "Ġà®°à®Ł": 4550,
      "Ġà®ıà®´à®°": 4551,
      "à®Łà®©à®µ": 4552,
      "à®¯à®°à®³à®µ": 4553,
      "Ġà®ķà®£à®µ": 4554,
      "à®ħà®°à®µ": 4555,
      "Ġà®ļà®®à®·": 4556,
      "Ġà®¤à®©à®ļ": 4557,
      "Ġà®Ĭà®ŀ": 4558,
      "Ġà®®à®©à®¸": 4559,
      "Ġà®¯à®Ł": 4560,
      "Ġà®®à®£à®±": 4561,
      "Ġà®¨à®®à®ļ": 4562,
      "à®¹à®¨": 4563,
      "Ġà®ĩà®µà®©à®¤": 4564,
      "Ġà®µà®²à®ļ": 4565,
      "Ġà®ĩà®Łà®µà®ļà®¤": 4566,
      "Ġ1936": 4567,
      "à®īà®³à®µ": 4568,
      "à®¾?.": 4569,
      "Ġà®ĵà®Łà®µ": 4570,
      "Ġà®®à®²à®Ł": 4571,
      "Ġ124": 4572,
      "Ġ1200": 4573,
      "ĠMed": 4574,
      "Ġcinema": 4575,
      "Ġph": 4576,
      "Ġà®ļà®£à®²": 4577,
      "ĠDep": 4578,
      "à¯įâĢĮ,": 4579,
      "Ġhis": 4580,
      "raph": 4581,
      "oday": 4582,
      "Ġ1943": 4583,
      "à¯ĩ..!": 4584,
      "rics": 4585,
      "atti": 4586,
      "Ġcomment": 4587,
      "amban": 4588,
      "Ġdist": 4589,
      "ĠDistrict": 4590,
      "MP": 4591,
      "YM": 4592,
      "ief": 4593,
      "mi": 4594,
      "ober": 4595,
      "Ġ).": 4596,
      "Ġ},": 4597,
      "Ġà®Ķ": 4598,
      "à®¤à®Łà®µ": 4599,
      "à®°à®ķà®°": 4600,
      "à®²à®ļà®¨": 4601,
      "à®©à®²à®®": 4602,
      "à®¯à®µà®¤": 4603,
      "Ġà®ªà®ľà®©": 4604,
      "Ġà®®à®¤à®ª": 4605,
      "à®ķà®³à®ŀ": 4606,
      "à¯ĩ''": 4607,
      "à¯ĨÂŃ": 4608,
      "Ġà®ĩà®¯à®°": 4609,
      "Ġà®¨à®ľ": 4610,
      "à¯Ĥ-": 4611,
      "Ġà®īà®µà®®": 4612,
      "à®Łà®®à®®": 4613,
      "à®°à®®à®°à®£à®®": 4614,
      "Ġà®Łà®Ł": 4615,
      "Ġà®ħà®©à®ķ": 4616,
      "Ġà®ļà®®à®£à®°": 4617,
      "Ġà®¯à®®à®¹": 4618,
      "à®¤à®ķà®©": 4619,
      "Ġà®µà®³à®°à®µ": 4620,
      "arth": 4621,
      "arai": 4622,
      "alth": 4623,
      "à¯ģ!âĢĻâĢĻ": 4624,
      "ĠPer": 4625,
      "Ġ1800": 4626,
      "ĠSah": 4627,
      "Ġà®µà®©à®ļ": 4628,
      "ĠAf": 4629,
      "Ġà®ªà®¯à®£à®ķ": 4630,
      "à¯ģ...'": 4631,
      "à¯ģ...''": 4632,
      "Ġsm": 4633,
      "ĠRed": 4634,
      "ĠDr": 4635,
      "Ġhas": 4636,
      "à¯ĪâĢĻ,": 4637,
      "ives": 4638,
      "Ġà®ĩà®²à®µà®ļà®Ļ": 4639,
      "tain": 4640,
      "upp": 4641,
      "ugh": 4642,
      "under": 4643,
      "Ġcomp": 4644,
      "à®īà®Łà®©à®Ł": 4645,
      "script": 4646,
      "reatment": 4647,
      "orona": 4648,
      "Com": 4649,
      "Sp": 4650,
      "oot": 4651,
      "ser": 4652,
      "sex": 4653,
      "ton": 4654,
      "we": 4655,
      "ward": 4656,
      "Ùģ": 4657,
      "à®¿à¯ĩ": 4658,
      "à®¤à®±à®²": 4659,
      "à®°à®´à®ķ": 4660,
      "à®¾à¯į,": 4661,
      "à®¾''": 4662,
      "à®®à®Łà®¤": 4663,
      "à®®à®ķà®µ": 4664,
      "à®ķà®³à®²": 4665,
      "Ġà®¤à®¸": 4666,
      "à¯Ĥà®¾à¯į": 4667,
      "âĢĽ": 4668,
      "à®Łà®®à®Ł": 4669,
      "Ġà®°à®ĥà®ª": 4670,
      "à®ķà®µà®©à®®": 4671,
      "Ġà®īà®³à®®": 4672,
      "à®ľà®¨": 4673,
      "à®¯à®²à®ķà®ª": 4674,
      "à®¯à®®à®³": 4675,
      "à®ªà®°à®µà®³": 4676,
      "à®°à®£à®ķ": 4677,
      "Ġà®ħà®µà®¸": 4678,
      "à¯Ī,''": 4679,
      "Ġà®²à®·": 4680,
      "Ġà®²à®¯à®©": 4681,
      "Ġà®ªà®°à®²": 4682,
      "à®³à®µà®±": 4683,
      "Ġà®ĵà®©à®°": 4684,
      "à®°à®ļà®ª": 4685,
      "à®¯à®µà®Ļ": 4686,
      "à®¤à®µà®°à®®": 4687,
      "Ġà®Īà®©": 4688,
      "à®°à®ªà®¨": 4689,
      "à®°à®ªà®²à®ª": 4690,
      "à®±à®µà®´": 4691,
      "Ġ1934": 4692,
      "anag": 4693,
      "Ġ106": 4694,
      "Ġ107": 4695,
      "ality": 4696,
      "Ġà®ĩà®ļà®ķ": 4697,
      "ĠTech": 4698,
      "1999": 4699,
      "ĠNov": 4700,
      "Ġ114": 4701,
      "asran": 4702,
      "Ġ175": 4703,
      "ision": 4704,
      "ĠIP": 4705,
      "uram": 4706,
      "Ġwe": 4707,
      "ĠOr": 4708,
      "roup": 4709,
      "ĠEvo": 4710,
      "2003": 4711,
      "à®ļà®°à®µà®£à®©": 4712,
      "emple": 4713,
      "à®¾..!": 4714,
      "load": 4715,
      "à®ħà®µà®ļà®°": 4716,
      "ips": 4717,
      "Ġ1953": 4718,
      "à¤°": 4719,
      "ĠPosted": 4720,
      "ounc": 4721,
      "à®ķà®µà®¤à®°": 4722,
      "Ġà®µà®Łà®ªà®ķ": 4723,
      "ĠPhot": 4724,
      "ĠQuest": 4725,
      ",,": 4726,
      "SC": 4727,
      "mon": 4728,
      "oor": 4729,
      "vest": 4730,
      "à¯ģ_": 4731,
      "à®¿&": 4732,
      "à®¿_": 4733,
      "à®ªà®³à®ķ": 4734,
      "à®±à®¯": 4735,
      "à®ļà®ķà®ª": 4736,
      "à®ļà®¸à®°": 4737,
      "Ġà®µà®³à®ª": 4738,
      "à®ķà®³à®°": 4739,
      "Ġà®ħà®ķà®°à®®": 4740,
      "à®£à®µà®¤": 4741,
      "à¯ĭâĢ¦": 4742,
      "à®ªà®Łà®²à®®": 4743,
      "Ġà®īà®®à®¤": 4744,
      "Ġà®Ĩà®ľ": 4745,
      "Ġà®Ĩà®³à®ª": 4746,
      "Ġà®Ĵà®¸": 4747,
      "Ġà®ıà®³à®©à®®": 4748,
      "Ġà®ħà®®à®°à®µ": 4749,
      "Ġà®ķà®²à®ķà®®": 4750,
      "ĠâĢİ": 4751,
      "Ġà®ħà®µà®²à®¤": 4752,
      "Ġà®ħà®µà®®à®°": 4753,
      "Ġà®ħà®µà®²à®Ļ": 4754,
      "à®Łà®²à®µ": 4755,
      "Ġà®īà®£à®µà®°": 4756,
      "Ġà®ĵà®ķà®¸": 4757,
      "à®ķà®Łà®ª": 4758,
      "Ġà®®à®£à®®à®ķ": 4759,
      "Ġà®¨à®®à®¸": 4760,
      "à®ªà®©à®Ļ": 4761,
      "Ġà®ħà®³à®µà®±": 4762,
      "anz": 4763,
      "anth": 4764,
      "à¯į'...": 4765,
      "Ġ650": 4766,
      "à¯ĩ.,": 4767,
      "Ġ720": 4768,
      "Ġà®īà®²à®ķà®¨": 4769,
      "à®®à®£à®ķ": 4770,
      "ĠToday": 4771,
      "ĠPamban": 4772,
      "ĠST": 4773,
      "Ġ115": 4774,
      "Ġ118": 4775,
      "Ġà®ªà®°à®µà®ļà®®": 4776,
      "à®¿:-": 4777,
      "Ġsc": 4778,
      "à®ĵà®ª": 4779,
      "asam": 4780,
      "uring": 4781,
      "ĠLy": 4782,
      "à®¿!!": 4783,
      "Ġwere": 4784,
      "riv": 4785,
      "ets": 4786,
      "akaran": 4787,
      "emb": 4788,
      "Ġnew": 4789,
      "ĠWhat": 4790,
      "umb": 4791,
      "avu": 4792,
      "undh": 4793,
      "III": 4794,
      "Ġwho": 4795,
      "................": 4796,
      "Ġmarundh": 4797,
      "ĠĠĠĠĠĠĠĠĠĠĠĠĠĠĠĠĠĠĠĠĠĠĠĠĠĠĠĠĠĠ": 4798,
      "iversity": 4799,
      "ublisher": 4800,
      "ĠLalitha": 4801,
      "ĠSahasran": 4802,
      "AG": 4803,
      "News": 4804,
      "TN": 4805,
      "eer": 4806,
      "iam": 4807,
      "kar": 4808,
      "oph": 4809,
      "ron": 4810,
      "tn": 4811,
      "ym": 4812,
      "à¯įâĢĺ": 4813,
      "à®¿]": 4814,
      "à®¯à®Łà®ķ": 4815,
      "à®ļà®ªà®Ł": 4816,
      "Ġà®¤à®Łà®¤": 4817,
      "Ġà®¤à®ľ": 4818,
      "Ġà®¤à®°à®ļ": 4819,
      "à¯Ģà®¾à¯į": 4820,
      "Ġà®İà®©à®°": 4821,
      "à®¸à®µ": 4822,
      "à®ķà®°à®µà®£": 4823,
      "à®³à®¤à®®": 4824,
      "à®ķà®µà®®": 4825,
      "à®ľà®¯à®µ": 4826,
      "Ġ220": 4827,
      "Ġà®ľà®¯à®¨": 4828,
      "ĠâĢ¢": 4829,
      "à®İà®¯": 4830,
      "Ġà®®à®©à®®à®ķ": 4831,
      "Ġà®®à®©à®ħà®´": 4832,
      "Ġà®īà®£à®°à®²": 4833,
      "Ġà®Ĩà®©à®µ": 4834,
      "à®µà®²à®Ļ": 4835,
      "Ġà®ĵà®¨": 4836,
      "Ġà®Īà®·": 4837,
      "Ġ1931": 4838,
      "Ġà®īà®¤à®µà®ķ": 4839,
      "Ġà®Ĩà®ļà®©à®®": 4840,
      "à®Ĵà®ķ": 4841,
      "Ġà®ĩà®ļà®Ł": 4842,
      "eswaram": 4843,
      "1995": 4844,
      "Ġ123": 4845,
      "ĠSex": 4846,
      "ĠCd": 4847,
      "ĠCo": 4848,
      "ĠCTR": 4849,
      "ĠNew": 4850,
      "ĠAss": 4851,
      "à®ĩà®©à®ª": 4852,
      "Ġ145": 4853,
      "ĠIS": 4854,
      "à¯įâĢĮ.": 4855,
      "umar": 4856,
      "à®īà®¤à®¯à®ķ": 4857,
      "Ġ1941": 4858,
      "Ġà®®à®ķà®°à®¨": 4859,
      "anni": 4860,
      "Ġ......": 4861,
      "plet": 4862,
      "ports": 4863,
      "ĠView": 4864,
      "Ġkamakathaikal": 4865,
      "ĠSahasranamav": 4866,
      ".[": 4867,
      "BC": 4868,
      "EC": 4869,
      "ID": 4870,
      "RS": 4871,
      "ix": 4872,
      "nal": 4873,
      "uff": 4874,
      "Ġà¥": 4875,
      "à¯ģà¯į": 4876,
      "à®²à®±à®®": 4877,
      "à®®à®ķà®¤": 4878,
      "Ġà®ªà®¯à®ķ": 4879,
      "Ġà®¤à®µà®°": 4880,
      "Ġà®ļà®©à®®": 4881,
      "à®´à®µà®©": 4882,
      "Ġà®Ĩà®µà®¤à®±": 4883,
      "à®µà®¤à®°": 4884,
      "à®ķà®ªà®²à®®": 4885,
      "à®ķà®®à®©": 4886,
      "à®ķà®µà®¨": 4887,
      "Ġà®ıà®ķà®¤": 4888,
      "à®·à®ķà®®": 4889,
      "à®³à®°à®¤": 4890,
      "Ġ230": 4891,
      "Ġà®Ĩà®ķà®£": 4892,
      "Ġà®¯à®ķ": 4893,
      "Ġà®ªà®°à®µà®ķ": 4894,
      "à®®à®¤à®Ļ": 4895,
      "Ġà®¸à®²": 4896,
      "Ġà®¤à®Łà®¯à®Ļ": 4897,
      "à®ķà®´à®ª": 4898,
      "à®¯à®µà®ķ": 4899,
      "à®ļà®²à®Ł": 4900,
      "à®īà®²à®°": 4901,
      "Ġà®īà®¤à®µà®²": 4902,
      "iness": 4903,
      "ative": 4904,
      "à®Ĵà®£": 4905,
      "à¯į;.": 4906,
      "1977": 4907,
      "ĠSch": 4908,
      "Ġ116": 4909,
      "ĠAct": 4910,
      "ĠApp": 4911,
      "Ġtra": 4912,
      "à®ĵà®µà®°": 4913,
      "ĠIt": 4914,
      "olly": 4915,
      "Ġout": 4916,
      "Ġthey": 4917,
      "unn": 4918,
      "à®¿).": 4919,
      "rim": 4920,
      "ents": 4921,
      "roy": 4922,
      "athu": 4923,
      "ote": 4924,
      "Ġà®µà®Łà®®à®°": 4925,
      "Ġlatest": 4926,
      "ango": 4927,
      "Ġvs": 4928,
      "uper": 4929,
      "Ġele": 4930,
      "Ġà®ľà®µà®ķà®°": 4931,
      "1989": 4932,
      "earch": 4933,
      "rans": 4934,
      "ount": 4935,
      "ĠRameswaram": 4936,
      "====": 4937,
      "ĠÂłĠÂł": 4938,
      "ĠRelated": 4939,
      "overnment": 4940,
      "ĠCanada": 4941,
      "ĠLyrics": 4942,
      "ĠSahasranamavali": 4943,
      "('": 4944,
      ".\"": 4945,
      "LT": 4946,
      "US": 4947,
      "Un": 4948,
      "VF": 4949,
      "clo": 4950,
      "fl": 4951,
      "ft": 4952,
      "oth": 4953,
      "ras": 4954,
      "Ù°": 4955,
      "Ġed": 4956,
      "à®ķà®ļà®®": 4957,
      "à®¤à®¤à®²": 4958,
      "à®²à®ªà®¤": 4959,
      "à®µà®ķà®ª": 4960,
      "Ġà®µà®¤à®Ļ": 4961,
      "à¯ĩ....": 4962,
      "à®£à®°à®¤": 4963,
      "à®´à®°à®ļà®©": 4964,
      "Ġà®īà®µà®°": 4965,
      "Ġà®Ĩà®ļà®©": 4966,
      "Ġà®Ĵà®Ļ": 4967,
      "Ġà®ħà®¤à®Ł": 4968,
      "à¯ģ,\"": 4969,
      "à®ķà®®à®°": 4970,
      "à®¯à®²à®®à®°": 4971,
      "à®ĩà®±à®ª": 4972,
      "Ġà®ľà®¨": 4973,
      "Ġà®ħà®±à®µà®´": 4974,
      "à®¤à®°à®ķà®£": 4975,
      "à®İà®Łà®ª": 4976,
      "Ġà®¯à®Ļ": 4977,
      "Ġà®ĵà®®à®¨": 4978,
      "Ġà®Ĳà®Ĳà®Ł": 4979,
      "à®ªà®©à®µà®±": 4980,
      "Ġà®µà®²à®¯": 4981,
      "ina": 4982,
      "Ġà®ħà®ķà®Ļ": 4983,
      "Ġà®ķà®µà®ļà®¤": 4984,
      "à¯į?!": 4985,
      "à®Ĳà®¸": 4986,
      "arb": 4987,
      "alme": 4988,
      "ĠMath": 4989,
      "ĠIT": 4990,
      "Ġpm": 4991,
      "Ġmovie": 4992,
      "ĠGB": 4993,
      "rime": 4994,
      "à®¿',": 4995,
      "Ġdest": 4996,
      "ĠWatch": 4997,
      "1600": 4998,
      "Ġà®±à®¤": 4999,
      "Ġà®°à®£à®ļ": 5000,
      "Ġ365": 5001,
      "à¯Ī..!": 5002,
      "ĠChrist": 5003,
      "Ġev": 5004,
      "ovies": 5005,
      "ĠInteraction": 5006,
      "____": 5007,
      "ossip": 5008,
      "right": 5009,
      "Ġpolitics": 5010,
      "ĠAfric": 5011,
      "ollywood": 5012,
      "!âĢĻâĢĻ": 5013,
      "\";": 5014,
      "%),": 5015,
      "Ah": 5016,
      "BG": 5017,
      "EL": 5018,
      "LA": 5019,
      "ME": 5020,
      "TV": 5021,
      "bject": 5022,
      "cite": 5023,
      "po": 5024,
      "por": 5025,
      "pen": 5026,
      "pro": 5027,
      "rus": 5028,
      "tom": 5029,
      "Â¸": 5030,
      "Ġen": 5031,
      "à®¤à®³à®ª": 5032,
      "à®°à®ĥà®ª": 5033,
      "à®²à®ķà®ª": 5034,
      "à®©à®ķà®°": 5035,
      "à®®à®ļà®ª": 5036,
      "à®ªà®±à®ķ": 5037,
      "à®µà®£à®Ļ": 5038,
      "à®ªà®Łà®ļ": 5039,
      "Ġà®Ĩà®ķà®®": 5040,
      "à®Łà®¤à®²": 5041,
      "à®Łà®®à®Ļ": 5042,
      "Ġà®īà®³à®ª": 5043,
      "à®ľà®Ļ": 5044,
      "à®ľà®²à®Ł": 5045,
      "à®¯à®²à®Ļ": 5046,
      "..?": 5047,
      "Ġ210": 5048,
      "à®¿.)": 5049,
      "à®°à®£à®®à®²": 5050,
      "Ġà®ļà®®à®¯à®ķ": 5051,
      "Ġà®Ĩà®ķà®ļ": 5052,
      "Ġà®Ĭà®ļà®²": 5053,
      "à®Ĩà®ªà®¤": 5054,
      "Ġà®¸à®°": 5055,
      "à®ķà®´à®ķà®ª": 5056,
      "Ġà®¹à®Ļ": 5057,
      "Ġ320": 5058,
      "à®ķà®©à®ķ": 5059,
      "Ġà®īà®Łà®²à®®": 5060,
      "à®ªà®µà®°à®¤": 5061,
      "à®īà®ķ": 5062,
      "Ġà®īà®¤à®µà®µ": 5063,
      "ini": 5064,
      "Ġà®µà®³à®°à®ķ": 5065,
      "à¯į):": 5066,
      "amal": 5067,
      "Ġà®ķà®´à®©": 5068,
      "à®Ĳà®İà®¸": 5069,
      "als": 5070,
      "alan": 5071,
      "âĢĮâĢĮ": 5072,
      "à¯ģ!âĢĻ": 5073,
      "ĠPatri": 5074,
      "Ġ121": 5075,
      "Ġ1857": 5076,
      "ĠAy": 5077,
      "itor": 5078,
      "ited": 5079,
      "ĠMi": 5080,
      "à¯ģ.....": 5081,
      "Ġ135": 5082,
      "Ġtime": 5083,
      "reen": 5084,
      "à¯ĩ!)": 5085,
      "à¯ĩ!âĢĻ": 5086,
      "olution": 5087,
      "Ġpre": 5088,
      "urn": 5089,
      "à®ļà®¯à®®à®±": 5090,
      "aibh": 5091,
      "ĠDev": 5092,
      "Ġmon": 5093,
      "ĠOut": 5094,
      "Ġà®īà®²à®ķà®®à®¯à®®": 5095,
      "use": 5096,
      "ĠHe": 5097,
      "roid": 5098,
      "Ġaf": 5099,
      "Ġday": 5100,
      "Ġ1966": 5101,
      "ĠInd": 5102,
      "Ġonly": 5103,
      "Ġ1946": 5104,
      "ĠRec": 5105,
      "ĠChennai": 5106,
      "ower": 5107,
      "ĠâĪĴ": 5108,
      "ĠâĢ¦.": 5109,
      "ught": 5110,
      "aste": 5111,
      "ĠYarl": 5112,
      "1987": 5113,
      "ĠThir": 5114,
      "ĠTagged": 5115,
      "aibhavam": 5116,
      ",\"": 5117,
      "Ad": 5118,
      "DF": 5119,
      "Ph": 5120,
      "TJ": 5121,
      "UM": 5122,
      "UN": 5123,
      "],": 5124,
      "ae": 5125,
      "ble": 5126,
      "cle": 5127,
      "dr": 5128,
      "ji": 5129,
      "kkai": 5130,
      "latt": 5131,
      "rest": 5132,
      "uch": 5133,
      "Â½": 5134,
      "ÂĴ": 5135,
      "å·": 5136,
      "Ġ@": 5137,
      "Ġem": 5138,
      "à®¾},": 5139,
      "à®©à®´": 5140,
      "à®©à®®à®©": 5141,
      "à®©à®µà®²": 5142,
      "à®ªà®ľà®©": 5143,
      "à®³à®ķà®°": 5144,
      "Ġà®ķà®³à®©": 5145,
      "Ġà®®à®²à®ķ": 5146,
      "à®ķà®³à®Ļ": 5147,
      "à®¨à®°à®®": 5148,
      "Ġà®ļà®ķà®µ": 5149,
      "Ġà®ĩà®ķà®´": 5150,
      "Ġà®¨à®µà®°à®¤": 5151,
      "Ġà®Ĩà®ĥà®ªà®°": 5152,
      "à®©à®°à®¤": 5153,
      "Ġà®®à®±à®ª": 5154,
      "Ġà®ıà®ķà®®": 5155,
      "à®Łà®°à®°": 5156,
      "à®ĩà®ŀ": 5157,
      "Ġà®Łà®ľà®©": 5158,
      "Ġà®ĩà®²à®µà®Ļ": 5159,
      "Ġà®ľà®¹": 5160,
      "à®ªà®°à®²": 5161,
      "à®ªà®°à®¨": 5162,
      "à®²à®®à®Ł": 5163,
      "Ġà®Ĩà®£à®µà®®": 5164,
      "à®¤à®µà®ª": 5165,
      "Ġà®ħà®µà®¨à®®": 5166,
      "à®ļà®®à®©": 5167,
      "à®©à®®à®¯à®®": 5168,
      "Ġ->": 5169,
      "Ġà®¸à®ª": 5170,
      "à®µà®®à®Ł": 5171,
      "à®ļà®©à®ķ": 5172,
      "Ġà®ħà®´à®ķà®ª": 5173,
      "ĠâĢĺ`": 5174,
      "Ġ550": 5175,
      "...'": 5176,
      "Ġ1911": 5177,
      "Ġà®¨à®ķà®°à®µ": 5178,
      "à®ķà®£à®µà®°": 5179,
      "Ġà®ħà®ļà®¨": 5180,
      "Ġ103": 5181,
      "à®ıà®£": 5182,
      "1996": 5183,
      "ĠSci": 5184,
      "ĠNational": 5185,
      "icial": 5186,
      "its": 5187,
      "itter": 5188,
      "ĠMan": 5189,
      "à¯ģ...!": 5190,
      "lease": 5191,
      "Ġcricket": 5192,
      "à®ªà®°à®®à®ķ": 5193,
      "ĠBl": 5194,
      "aid": 5195,
      "aik": 5196,
      "Ġover": 5197,
      "Ġmag": 5198,
      "ĠLe": 5199,
      "Ġtheir": 5200,
      "une": 5201,
      "Ġbook": 5202,
      "ĠÂĳ": 5203,
      "Ġno": 5204,
      "Ġdes": 5205,
      "ikk": 5206,
      "Ġtoday": 5207,
      "avan": 5208,
      "à®ĥà®µ": 5209,
      "Ġlike": 5210,
      "Ġrec": 5211,
      "ows": 5212,
      "ĠâĤ": 5213,
      "iyam": 5214,
      "Ġyear": 5215,
      "span": 5216,
      "Inter": 5217,
      "Ġexplet": 5218,
      "Äģn": 5219,
      "Ġserkkai": 5220,
      "Image": 5221,
      "ĠIsland": 5222,
      "ĠTrend": 5223,
      "!'": 5224,
      "!)": 5225,
      "\"-": 5226,
      "%.": 5227,
      ".!": 5228,
      ".(": 5229,
      "CA": 5230,
      "En": 5231,
      "On": 5232,
      "miss": 5233,
      "net": 5234,
      "ps": 5235,
      "png": 5236,
      "tt": 5237,
      "|\"": 5238,
      "Ġ_": 5239,
      "à®¿|": 5240,
      "à®ķà®¤à®²": 5241,
      "à®¾âĢĻâĢĻ": 5242,
      "à®²à®¯à®©": 5243,
      "à®©à®ķà®²": 5244,
      "à®©à®®à®²": 5245,
      "à®®à®ļà®¨": 5246,
      "Ġà®ªà®¯à®°": 5247,
      "Ġà®ķà®µà®ļà®Ļ": 5248,
      "à®ļà®®à®²": 5249,
      "à®¨à®ļ": 5250,
      "Ġà®ħà®ķà®ļ": 5251,
      "Ġà®¤à®ļà®®": 5252,
      "Ġà®ļà®¤à®¤": 5253,
      "Ġà®¨à®ķà®®": 5254,
      "Ġà®¨à®³à®©": 5255,
      "Ġà®¨à®²à®µ": 5256,
      "Ġà®¨à®°à®ķ": 5257,
      "à¯ĭà®¾à¯į": 5258,
      "à¯ĤâĢĻ": 5259,
      "Ġà®īà®ªà®ķ": 5260,
      "Ġà®īà®ªà®µ": 5261,
      "à¯ģ,'": 5262,
      "Ġà®Ĵà®°à®¤": 5263,
      "à®ķà®µà®ļà®Ļ": 5264,
      "Ġà®ªà®Łà®²": 5265,
      "Ġà®ľà®¯à®µà®°": 5266,
      "Ġà®ħà®²à®±à®²": 5267,
      "Ġà®²à®ª": 5268,
      "Ġà®ªà®¤à®ŀ": 5269,
      "à®Ĩà®Ĩ": 5270,
      "Ġà®ļà®°à®ª": 5271,
      "à®ķà®´à®µ": 5272,
      "Ġà®Ĳà®¯à®Ļ": 5273,
      "Ġà®ªà®¯à®£à®ª": 5274,
      "Ġ1912": 5275,
      "Ġ1925": 5276,
      "Ġ1926": 5277,
      "Ġ1932": 5278,
      "ats": 5279,
      "Ġà®Ĩà®²à®¨": 5280,
      "Ġà®īà®²à®ķà®ļ": 5281,
      "Ġà®ĥà®ªà®µ": 5282,
      "araj": 5283,
      "âĢ¦)": 5284,
      "ĠTo": 5285,
      "1997": 5286,
      "Ġ158": 5287,
      "Ġ126": 5288,
      "ĠCR": 5289,
      "ĠCent": 5290,
      "à¯ģ?âĢĻâĢĻ": 5291,
      "ĠMin": 5292,
      "ĠMark": 5293,
      "à®¿:'": 5294,
      "Ġà®ļà®©à®ļà®®": 5295,
      "Ġsur": 5296,
      "isc": 5297,
      "à¯ĩ!'": 5298,
      "Ġpart": 5299,
      "à¯Ī!!": 5300,
      "eld": 5301,
      "ĠGu": 5302,
      "unch": 5303,
      "unelv": 5304,
      "Ġinscript": 5305,
      "Ġhistory": 5306,
      "iving": 5307,
      "idth": 5308,
      "udd": 5309,
      "Ġrem": 5310,
      "oke": 5311,
      "ection": 5312,
      "ants": 5313,
      "Ġcomedy": 5314,
      "ization": 5315,
      "akka": 5316,
      "ĠAMLT": 5317,
      "ĠEnglish": 5318,
      "ĠSamayam": 5319,
      "ĠDinakaran": 5320,
      "Ġdestroy": 5321,
      "Ġafter": 5322,
      "Ġexpletive": 5323,
      "unelveli": 5324,
      ".''": 5325,
      "Av": 5326,
      "CR": 5327,
      "EO": 5328,
      "FA": 5329,
      "HQ": 5330,
      "Mar": 5331,
      "PA": 5332,
      "Ti": 5333,
      "more": 5334,
      "publisher": 5335,
      "rad": 5336,
      "rish": 5337,
      "yV": 5338,
      "zh": 5339,
      "||\"": 5340,
      "Ø¯": 5341,
      "è½": 5342,
      "Ġè": 5343,
      "Ġï": 5344,
      "à®¿à®¾à®¿": 5345,
      "à®¤à®¯à®Ļ": 5346,
      "à®°à®ķà®ļ": 5347,
      "à®°à®·à®°": 5348,
      "à®ªà®¯à®µ": 5349,
      "à¯Ī]": 5350,
      "à®³à®´à®ķà®°": 5351,
      "à®¯à®£à®ª": 5352,
      "à®µà®ľ": 5353,
      "Ġà®ķà®ķà®©": 5354,
      "à®ļà®°à®®": 5355,
      "à®ļà®ķà®µ": 5356,
      "à¯Ģ...": 5357,
      "Ġà®Ĩà®µà®©": 5358,
      "à¯ģ.(": 5359,
      "à®Łà®¤à®Ł": 5360,
      "à®Łà®®à®£": 5361,
      "à®ķà®°à®£à®®": 5362,
      "à®ķà®¤à®ķ": 5363,
      "à®ĩà®´": 5364,
      "à®ĩà®Łà®¤": 5365,
      "à®ĩà®¯à®¨": 5366,
      "à®ķà®²à®°": 5367,
      "à®ªà®°à®ªà®°à®ª": 5368,
      "à®ħà®µà®¤": 5369,
      "Ġà®ĩà®©à®µà®´": 5370,
      "Ġà®ªà®°à®ŀ": 5371,
      "Ġà®Ĩà®©à®µà®°": 5372,
      "Ġà®ĵà®°à®£": 5373,
      "à®Ĩà®ĥà®ª": 5374,
      "Ġà®ļà®°à®³": 5375,
      "Ġà®ļà®°à®ļ": 5376,
      "à®Łà®ķà®©": 5377,
      "à®¹à®ķ": 5378,
      "à®¹à®ļà®©": 5379,
      "Ġ\"||\"": 5380,
      "Ġà®Īà®¤": 5381,
      "Ġà®Īà®²": 5382,
      "Ġà®Īà®¯": 5383,
      "Ġ1928": 5384,
      "Ġ1938": 5385,
      "Ġà®¨à®ķà®°à®ļ": 5386,
      "à®¾??": 5387,
      "à®ķà®ļà®Ļ": 5388,
      "à®ĥà®ªà®©": 5389,
      "Ġà®Ĩà®²à®©": 5390,
      "à¯į?.": 5391,
      "ĠTH": 5392,
      "Ġ152": 5393,
      "Ġ153": 5394,
      "Ġ155": 5395,
      "ĠPhan": 5396,
      "Ġ122": 5397,
      "Ġ185": 5398,
      "ĠCD": 5399,
      "ĠNe": 5400,
      "Ġ111": 5401,
      "à¯Ī:''": 5402,
      "ĠAP": 5403,
      "ĠMango": 5404,
      "à®®à®¨à®ªà®°": 5405,
      "Ġsays": 5406,
      "asu": 5407,
      "ures": 5408,
      "Ġà®ļà®²à®©à®®": 5409,
      "Ġ10000": 5410,
      "aya": 5411,
      "Ġwill": 5412,
      "Ġbut": 5413,
      "Ġoff": 5414,
      "Ġher": 5415,
      "ĠEM": 5416,
      "à¯ģ\",": 5417,
      "à¯ģ\".": 5418,
      "ĠVoice": 5419,
      "ĠVaibhavam": 5420,
      "irl": 5421,
      "Ġduring": 5422,
      "lood": 5423,
      "ĠRealme": 5424,
      "erson": 5425,
      "Ġgold": 5426,
      "ists": 5427,
      "à¯Ī.....": 5428,
      "Ġà®¨à®Łà®©à®Ļ": 5429,
      "Ġreviews": 5430,
      "ocial": 5431,
      "uthor": 5432,
      "à¯į]],": 5433,
      "ouse": 5434,
      "ĠAnti": 5435,
      "1984": 5436,
      "à®īà®²à®ķà®³à®µ": 5437,
      "akkal": 5438,
      "obile": 5439,
      "ĠAmclo": 5440,
      "ĠUniversity": 5441,
      "Ġà®Ĩà®²à®®à®°à®¤": 5442,
      "ridge": 5443,
      "ĠTirunelveli": 5444,
      "ĠTechn": 5445,
      "ĠAfrican": 5446,
      "tomx": 5447,
      "ĠPatrikai": 5448,
      "ĠPhantomx": 5449,
      ")-": 5450,
      "110": 5451,
      "350": 5452,
      "Am": 5453,
      "BS": 5454,
      "DS": 5455,
      "Hh": 5456,
      "MO": 5457,
      "TH": 5458,
      "Xq": 5459,
      "ZC": 5460,
      "ll": 5461,
      "oa": 5462,
      "rol": 5463,
      "te": 5464,
      "va": 5465,
      "width": 5466,
      "yA": 5467,
      "ys": 5468,
      "Â·": 5469,
      "ÙĤ": 5470,
      "äº": 5471,
      "ïĢ": 5472,
      "Ġà¯Ĩ": 5473,
      "à®¤à®¯à®ķ": 5474,
      "à®®à®°à®£": 5475,
      "à®®à®°à®£à®®": 5476,
      "à®³à®µà®¤": 5477,
      "Ġà®ķà®±à®µ": 5478,
      "à®ļà®¯à®©": 5479,
      "à®ļà®£à®¤": 5480,
      "Ġà®µà®ļà®©": 5481,
      "Ġà®µà®¹": 5482,
      "à®£à®µà®ª": 5483,
      "Ġà®ĩà®ĥà®¤": 5484,
      "à®Ļà®©à®®": 5485,
      "Ġà®İà®®à®©": 5486,
      "ĠĠĠĠĠĠĠ": 5487,
      "à®¸à®¤": 5488,
      "à®¤à®²à®ķ": 5489,
      "à®ķà®®à®ķ": 5490,
      "à®ķà®°à®²": 5491,
      "à®³à®¤à®©": 5492,
      "Ġà®®à®±à®µ": 5493,
      "à®ľà®Ł": 5494,
      "à®Łà®°à®ļ": 5495,
      "à®ĩà®±à®ķ": 5496,
      "Ġà®Łà®Ļ": 5497,
      "Ġà®ªà®Łà®ªà®Łà®ª": 5498,
      "à®µà®©à®µà®±": 5499,
      "Ġà®®à®ķà®ľà®°": 5500,
      "Ġà®ĩà®©à®¨": 5501,
      "à®¯à®©à®ª": 5502,
      "Ġà®¤à®©à®ŀ": 5503,
      "à®ļà®®à®±": 5504,
      "Ġà®ĵà®®à®®": 5505,
      "à®´à®ķà®ķ": 5506,
      "à®µà®®à®£": 5507,
      "à®²à®ķà®©": 5508,
      "Ġà®İà®´à®µ": 5509,
      "Ġà®¤à®Łà®¯à®µ": 5510,
      "à®ªà®®à®¯à®®": 5511,
      "Ġ420": 5512,
      "Ġ1919": 5513,
      "Ġ1917": 5514,
      "Ġ1923": 5515,
      "à®ĩà®¤à®¯": 5516,
      "à¯įâĢĻ...": 5517,
      "atter": 5518,
      "à®Ĵà®®": 5519,
      "Ġà®·à®µ": 5520,
      "arch": 5521,
      "ĠTop": 5522,
      "1960": 5523,
      "1971": 5524,
      "1991": 5525,
      "Ġà®ªà®ļà®³": 5526,
      "Ġà®İà®µà®±": 5527,
      "ĠPar": 5528,
      "ĠSports": 5529,
      "ĠCv": 5530,
      "ĠCateg": 5531,
      "ĠNa": 5532,
      "Ġ112": 5533,
      "ĠAC": 5534,
      "ĠAb": 5535,
      "ĠAir": 5536,
      "à®¯à®¨à®²à®¤": 5537,
      "à¯ģ?\"": 5538,
      "à¯ģ?.": 5539,
      "icro": 5540,
      "Ġ162": 5541,
      "read": 5542,
      "leanz": 5543,
      "âĢĭâĢĭ": 5544,
      "à¯ĩ!âĢĿ": 5545,
      "à®ªà®¯à®©à®°": 5546,
      "Ġcart": 5547,
      "à®ħà®Łà®Ł": 5548,
      "elop": 5549,
      "ĠOct": 5550,
      "ĠOleanz": 5551,
      "à¯ģ..?": 5552,
      "ĠHR": 5553,
      "ĠHar": 5554,
      "Ġ270": 5555,
      "Ġ275": 5556,
      "ĠKollywood": 5557,
      "ĠÂ´": 5558,
      "////": 5559,
      "utamil": 5560,
      "athan": 5561,
      "umber": 5562,
      "ids": 5563,
      "\",\"": 5564,
      "Ġà®©à®°": 5565,
      "ĠâĢĻâĢĻ": 5566,
      "Ġà®ļà®ķà®²à®°": 5567,
      "Ġà®¨à®Łà®©à®ª": 5568,
      "over": 5569,
      "Ġ;)": 5570,
      "ification": 5571,
      "à®¾âĢ¦.": 5572,
      "Ġà®ħà®¹à®®à®¤": 5573,
      "Ġlocal": 5574,
      "Ġà®ĩà®³à®µà®¯à®¤": 5575,
      "ĠGoogle": 5576,
      "ĠSecret": 5577,
      "ĠDeplatt": 5578,
      "å·ŀ": 5579,
      "ĠScience": 5580,
      "App": 5581,
      "Bbp": 5582,
      "De": 5583,
      "Fo": 5584,
      "Gx": 5585,
      "HO": 5586,
      "Hz": 5587,
      "IV": 5588,
      "Ic": 5589,
      "Mb": 5590,
      "NA": 5591,
      "OH": 5592,
      "Object": 5593,
      "QCL": 5594,
      "TT": 5595,
      "Tube": 5596,
      "Uf": 5597,
      "YHQ": 5598,
      "ZyV": 5599,
      "cBG": 5600,
      "dates": 5601,
      "ier": 5602,
      "pII": 5603,
      "pUf": 5604,
      "ris": 5605,
      "work": 5606,
      "yes": 5607,
      "Äĵ": 5608,
      "à°": 5609,
      "à¸": 5610,
      "á¹": 5611,
      "æī": 5612,
      "à®°à®ķà®µ": 5613,
      "à®°à®µà®²": 5614,
      "à®°à®ķà®ķ": 5615,
      "à®Łà®¯à®°": 5616,
      "à®²à®µà®°à®Ļ": 5617,
      "Ġà®ķà®®à®ķ": 5618,
      "Ġà®µà®Łà®¤": 5619,
      "Ġà®µà®²à®ķ": 5620,
      "Ġà®µà®¸à®²": 5621,
      "Ġà®ħà®ĥà®ª": 5622,
      "Ġà®¤à®°à®®à®£": 5623,
      "Ġà®ļà®¤à®Ļ": 5624,
      "à¯ĭÂŃ": 5625,
      "à®ªà®Łà®±": 5626,
      "à¯Ģ'": 5627,
      "à¯Ģà¯į": 5628,
      "Ġà®Ĩà®±à®µ": 5629,
      "à®±à®¤à®²": 5630,
      "à¯ģ,âĢĿ": 5631,
      "Ġà®°à®ķà®¤": 5632,
      "à®ķà®¤à®®": 5633,
      "à®¿.''": 5634,
      "Ġà®ªà®²à®ļ": 5635,
      "Ġà®ªà®²à®µà®¨": 5636,
      "Ġà®ľà®¯": 5637,
      "Ġà®ľà®²à®¤": 5638,
      "à®ªà®°à®£": 5639,
      "à®ħà®µà®ķ": 5640,
      "à¯Ī.\"": 5641,
      "à¯Ī.)": 5642,
      "Ġà®ħà®²à®ª": 5643,
      "Ġà®¤à®©à®²à®Ł": 5644,
      "Ġà®Ĭà®°à®£": 5645,
      "Ġà®²à®ļ": 5646,
      "Ġà®¯à®ļ": 5647,
      "Ġà®ªà®°à®ķ": 5648,
      "à®Łà®²à®ª": 5649,
      "Ġà®ĵà®®à®©": 5650,
      "à®ķà®Łà®ļ": 5651,
      "à®²à®ķà®µà®¤": 5652,
      "à®ķà®´à®²": 5653,
      "à®¾,''": 5654,
      "à®²à®µà®ķ": 5655,
      "à®°à®ªà®²à®¤": 5656,
      "Ġà®ĩà®Łà®µ": 5657,
      "Ġ192": 5658,
      "Ġ1922": 5659,
      "Ġ1935": 5660,
      "Ġà®ķà®¤à®±à®²": 5661,
      "à®ªà®µà®ª": 5662,
      "à®ıà®Ł": 5663,
      "à®ıà®ı": 5664,
      "Ġ850": 5665,
      "alin": 5666,
      "âĢ¦âĢĿ": 5667,
      "ĠTreatment": 5668,
      "thi": 5669,
      "1970": 5670,
      "ĠSc": 5671,
      "Ġà®µà®³à®¨": 5672,
      "ĠColle": 5673,
      "ĠCPM": 5674,
      "ĠAv": 5675,
      "ĠMean": 5676,
      "Ġà®ªà®°à®µà®ļà®¤": 5677,
      "Ġ161": 5678,
      "Ġ1400": 5679,
      "Ġcall": 5680,
      "olas": 5681,
      "ollow": 5682,
      "Ġmed": 5683,
      "Ġà®®à®¹à®°": 5684,
      "Ġfilm": 5685,
      "Ġbreaking": 5686,
      "riend": 5687,
      "ĠFre": 5688,
      "Ġhind": 5689,
      "ĠVir": 5690,
      "Ġnear": 5691,
      "Ġact": 5692,
      "à¯ĩ?\"": 5693,
      "utt": 5694,
      "ather": 5695,
      "imer": 5696,
      "imes": 5697,
      "rac": 5698,
      "Ġkn": 5699,
      "990": 5700,
      "height": 5701,
      "à®¿..!": 5702,
      "udan": 5703,
      "aster": 5704,
      "ffect": 5705,
      "ĠThis": 5706,
      "à®ĩà®³à®ŀ": 5707,
      "ukVF": 5708,
      "ĠProf": 5709,
      "ING": 5710,
      "Ġalso": 5711,
      "atural": 5712,
      "Ġkathaigal": 5713,
      "AAAAAAAA": 5714,
      "mlGx": 5715,
      "ownload": 5716,
      "AsYHQ": 5717,
      "cessdate": 5718,
      "twIG": 5719,
      "Ġposted": 5720,
      "goZC": 5721,
      "gmail": 5722,
      "à®ĩà®²à®µà®ļ": 5723,
      "Ġentry": 5724,
      "affna": 5725,
      "YMtwIG": 5726,
      "ĠâĤ¹": 5727,
      "ImageObject": 5728,
      "TiQCL": 5729,
      "Ġcartoon": 5730,
      "BbpX": 5731,
      "IcmlGx": 5732,
      "MbQ": 5733,
      "ZyVgoZC": 5734,
      "cBGAsYHQ": 5735,
      "pUfYMtwIG": 5736,
      "ukVFZyVgoZC": 5737,
      "AAAAAAAAMbQ": 5738,
      "TiQCLcBGAsYHQ": 5739,
      "IcmlGxK": 5740,
      "pUfYMtwIGIcmlGxK": 5741,
      "ukVFZyVgoZCpUfYMtwIGIcmlGxK": 5742,
      "BI": 5743,
      "EG": 5744,
      "EW": 5745,
      "HS": 5746,
      "MK": 5747,
      "OP": 5748,
      "XX": 5749,
      "each": 5750,
      "hin": 5751,
      "lor": 5752,
      "ole": 5753,
      "other": 5754,
      "oint": 5755,
      "Åį": 5756,
      "Ø¹": 5757,
      "Ġunder": 5758,
      "ĭı": 5759,
      "ĭè½": 5760,
      "Įæī": 5761,
      "à®¾/": 5762,
      "à®®à®Łà®²": 5763,
      "à®®à®ļà®Ļ": 5764,
      "à®¯à®´": 5765,
      "à®µà®ķà®©": 5766,
      "à®µà®ľà®©": 5767,
      "Ġà®®à®©à®°": 5768,
      "Ġà®®à®®à®¤": 5769,
      "Ġà®µà®³à®µ": 5770,
      "à®£à®¯à®ķ": 5771,
      "Ġà®ļà®µà®°": 5772,
      "Ġà®ļà®°à®£à®®": 5773,
      "à¯ĭâĢĿ": 5774,
      "à¯į,.": 5775,
      "Ġà®Ĩà®®à®¤": 5776,
      "âĢİ": 5777,
      "Ġà®µà®°à®Ļ": 5778,
      "Ġà®°à®®à®²": 5779,
      "à®ķà®°à®ķ": 5780,
      "à®³à®¤à®±": 5781,
      "Ġà®®à®±à®µà®°": 5782,
      "Ġà®ħà®®à®°à®¤": 5783,
      "Ġà®ħà®®à®°à®©": 5784,
      "à®Łà®°à®Ł": 5785,
      "à®ĩà®³à®µà®°": 5786,
      "à®·à®¸": 5787,
      "à®³à®°à®Ļ": 5788,
      "..âĢĿ": 5789,
      "à®°à®¤à®ļ": 5790,
      "Ġà®ħà®°à®ļà®®à®°à®ª": 5791,
      "à®ħà®°à®ª": 5792,
      "Ġà®¯à®°": 5793,
      "Ġà®ªà®°à®°": 5794,
      "Ġà®īà®°à®ļà®²": 5795,
      "Ġà®Ĩà®©à®ª": 5796,
      "à®©à®®à®Ł": 5797,
      "Ġà®ĵà®´": 5798,
      "à®²à®ķà®ķ": 5799,
      "Ġà®Ĳà®Ļ": 5800,
      "Ġà®Īà®¯à®®": 5801,
      "ĠĠĠĠĠĠĠĠĠĠĠĠĠĠĠĠĠĠĠĠĠĠĠĠĠĠĠĠĠĠĠĠĠĠĠĠĠĠĠĠĠĠĠĠĠĠĠĠ": 5802,
      "Ġ1900": 5803,
      "Ġ1915": 5804,
      "Ġ1909": 5805,
      "Ġ1908": 5806,
      "à®¾???": 5807,
      "à®Łà®µà®Ļ": 5808,
      "ati": 5809,
      "Ġà®ķà®´à®ķà®ª": 5810,
      "erg": 5811,
      "Ġà®·à®°à®¤": 5812,
      "Ġ944": 5813,
      "1966": 5814,
      "1964": 5815,
      "1992": 5816,
      "à¯ģ!\"": 5817,
      "ĠSer": 5818,
      "ĠSub": 5819,
      "ĠSouth": 5820,
      "ĠAc": 5821,
      "ĠMal": 5822,
      "ĠMad": 5823,
      "ĠMay": 5824,
      "lex": 5825,
      "ury": 5826,
      "Ġà®ķà®µà®°à®ª": 5827,
      "ĠDip": 5828,
      "Ġmy": 5829,
      "Ġfirst": 5830,
      "Ġbl": 5831,
      "Ġbig": 5832,
      "Ġback": 5833,
      "Ġ404": 5834,
      "agam": 5835,
      "agram": 5836,
      "Ġinc": 5837,
      "Ġ225": 5838,
      "ries": 5839,
      "à®ħà®¤à®©à®Ł": 5840,
      "à®¾!''": 5841,
      "à¯ĩ...âĢĻ": 5842,
      "ations": 5843,
      "ider": 5844,
      "Ġtop": 5845,
      "ody": 5846,
      "ĠUth": 5847,
      "à¤¿": 5848,
      "Ġà®ļà®ķà®²à®¤": 5849,
      "udh": 5850,
      "Ġreg": 5851,
      "Ġever": 5852,
      "ĠStar": 5853,
      "ĠStory": 5854,
      "Ġà®¶à®ķ": 5855,
      "à®®à®°à®ªà®£": 5856,
      "ĠComp": 5857,
      "evere": 5858,
      "izh": 5859,
      "alaiy": 5860,
      "Ġxossip": 5861,
      "Ġamma": 5862,
      "bps": 5863,
      "bhp": 5864,
      "à¯įÂĴ": 5865,
      "ĠYouTube": 5866,
      "Â¯Âį": 5867,
      "ĠSmoke": 5868,
      "ĠQuestions": 5869,
      "mission": 5870,
      "Ġèĭı": 5871,
      "äºĮæī": 5872,
      "å·ŀäºĮæī": 5873,
      "Ġhindutamil": 5874,
      "ĭè½¦": 5875,
      "Ġèĭıå·ŀäºĮæī": 5876,
      "Ġèĭıå·ŀäºĮæīĭè½¦": 5877,
      "!âĢĻ": 5878,
      "##": 5879,
      "140": 5880,
      "Cash": 5881,
      "DA": 5882,
      "No": 5883,
      "Per": 5884,
      "Se": 5885,
      "TM": 5886,
      "UL": 5887,
      "au": 5888,
      "bl": 5889,
      "dis": 5890,
      "evi": 5891,
      "gram": 5892,
      "ii": 5893,
      "lim": 5894,
      "ms": 5895,
      "nan": 5896,
      "oard": 5897,
      "ts": 5898,
      "uary": 5899,
      "ÃĤ": 5900,
      "à§": 5901,
      "à¬": 5902,
      "Ġus": 5903,
      "Ġir": 5904,
      "à¯ģ]": 5905,
      "à®ķà®ªà®¤": 5906,
      "à®ķà®©à®°": 5907,
      "à®²à®°à®¤": 5908,
      "à®ªà®³à®Ļ": 5909,
      "à®¯à®©à®¤": 5910,
      "à®¯à®ļà®®": 5911,
      "à®¯à®´à®ķà®©": 5912,
      "à®ļà®²à®µ": 5913,
      "Ġà®µà®¤à®®": 5914,
      "Ġà®µà®¤à®±": 5915,
      "à®£à®³à®µ": 5916,
      "Ġà®ĩà®Łà®ķ": 5917,
      "à®ªà®Łà®Ł": 5918,
      "à®ªà®Łà®£": 5919,
      "Ġà®İà®©à®ªà®¤": 5920,
      "Ġà®Ĩà®¤à®®": 5921,
      "à®ķà®µà®Ļ": 5922,
      "Ġà®ıà®µà®²": 5923,
      "à®¯à®²à®µ": 5924,
      "Ġà®ħà®®à®°à®ļ": 5925,
      "à®³à®°à®µà®®": 5926,
      "à®ħà®·": 5927,
      "à®ħà®°à®£": 5928,
      "Ġà®ħà®²à®ļà®²": 5929,
      "Ġà®ķà®°à®µ": 5930,
      "à®ļà®°à®©": 5931,
      "Ġà®īà®£à®°à®ļ": 5932,
      "Ġà®ħà®ªà®¯": 5933,
      "à®®à®¤à®ķ": 5934,
      "à®µà®²à®ķà®ª": 5935,
      "Ġà®ĵà®¸": 5936,
      "Ġà®ĵà®µà®²": 5937,
      "à®Ĩà®ªà®°": 5938,
      "à®ķà®Łà®ķ": 5939,
      "à®¯à®µà®ļà®®": 5940,
      "à®ķà®©à®ļ": 5941,
      "Ġ2030": 5942,
      "Ġ2024": 5943,
      "...âĢĿ": 5944,
      "Ġ190": 5945,
      "Ġ1918": 5946,
      "à®¾.âĢĿ": 5947,
      "amm": 5948,
      "aman": 5949,
      "Ġ109": 5950,
      "atic": 5951,
      "era": 5952,
      "Ġà®īà®²à®ķà®Ļ": 5953,
      "à®¤à®¨à®²": 5954,
      "onic": 5955,
      "arik": 5956,
      "âĢ¦..": 5957,
      "ille": 5958,
      "ĠTemple": 5959,
      "ene": 5960,
      "eni": 5961,
      "Ġ183": 5962,
      "Ġ1890": 5963,
      "ĠSE": 5964,
      "ĠSing": 5965,
      "ĠSong": 5966,
      "ĠCar": 5967,
      "ities": 5968,
      "ĠMod": 5969,
      "Ġ1600": 5970,
      "rex": 5971,
      "Ġ142": 5972,
      "lear": 5973,
      "Ġcell": 5974,
      "Ġpass": 5975,
      "Ġmat": 5976,
      "à¯ģâĢĻ.": 5977,
      "ĠLED": 5978,
      "Ġwind": 5979,
      "Ġwater": 5980,
      "unic": 5981,
      "Ġbuy": 5982,
      "à®Łà®¨à®®": 5983,
      "rik": 5984,
      "à¯ĩ?âĢĻ": 5985,
      "utrex": 5986,
      "atha": 5987,
      "athy": 5988,
      "lock": 5989,
      "iva": 5990,
      "à®¿?âĢĿ": 5991,
      "ipp": 5992,
      "ange": 5993,
      "Ġà®®à®°à®£à®¤à®£": 5994,
      "ĠChief": 5995,
      "ubl": 5996,
      "Ġà®Ĩà®ªà®°à®£à®®": 5997,
      "Ġru": 5998,
      "1983": 5999,
      "ĠÃ¼": 6000,
      "akkam": 6001,
      "à®Ĭà®Łà®ķà®µ": 6002,
      "ohn": 6003,
      "Ġà®ļà®®à®°à®ļà®¤": 6004,
      "Ġà®µà®Łà®ªà®´à®©": 6005,
      "avid": 6006,
      "anguages": 6007,
      "formation": 6008,
      "ĠAndroid": 6009,
      "ĠPolimer": 6010,
      "ĠEduc": 6011,
      "ĠVideos": 6012,
      "ĠInstagram": 6013,
      "munity": 6014,
      "Ġdistrict": 6015,
      "Ġsmall": 6016,
      "Ġà¥¤": 6017,
      "Ġdestroyed": 6018,
      "ĠCategories": 6019,
      "ĠOctober": 6020,
      "750": 6021,
      "CD": 6022,
      "Co": 6023,
      "Or": 6024,
      "RI": 6025,
      "be": 6026,
      "dy": 6027,
      "sub": 6028,
      "sApp": 6029,
      "tran": 6030,
      "xy": 6031,
      "yar": 6032,
      "yle": 6033,
      "Ã½": 6034,
      "Ġif": 6035,
      "ĠÙĦ": 6036,
      "à¯ģ&": 6037,
      "à®¿\",": 6038,
      "à®¤à®ľ": 6039,
      "à®°à®µà®ķ": 6040,
      "à®°à®µà®²à®°": 6041,
      "à®Łà®°à®®": 6042,
      "à®Łà®ªà®°": 6043,
      "à®Łà®ļà®¨": 6044,
      "à®²à®±à®¤": 6045,
      "à®²à®ķà®µ": 6046,
      "à®¯à®£à®°": 6047,
      "à®±à®ķà®Ł": 6048,
      "Ġà®ªà®¤à®©": 6049,
      "à®ļà®²à®ķ": 6050,
      "à¯ĩâĢĮ": 6051,
      "Ġà®ħà®ķà®£": 6052,
      "à®£à®¯à®ļ": 6053,
      "à¯ĭ;": 6054,
      "à®´à®µà®¨": 6055,
      "Ġà®īà®ľ": 6056,
      "à®©à®°à®ŀ": 6057,
      "à®ķà®ªà®ª": 6058,
      "Ġà®°à®£à®®": 6059,
      "à®ķà®®à®¯à®®": 6060,
      "à®°à®®à®°": 6061,
      "à®ľà®°à®¤": 6062,
      "Ġà®ıà®®à®©": 6063,
      "à®¤à®®à®³": 6064,
      "à®¤à®®à®£": 6065,
      "à®·à®£à®®": 6066,
      "à®¯à®°à®Ł": 6067,
      "à®¤à®©à®ļ": 6068,
      "Ġà®ľà®ªà®®": 6069,
      "à®ªà®°à®ļà®°": 6070,
      "à®¤à®°à®²": 6071,
      "Ġà®ķà®²à®ļà®ª": 6072,
      "à®ħà®¯à®©": 6073,
      "à®ħà®®à®²": 6074,
      "à®ħà®ķà®®à®¤": 6075,
      "Ġà®ļà®®à®ª": 6076,
      "Ġà®Ĩà®£à®µà®¤": 6077,
      "à®İà®µà®°": 6078,
      "Ġà®ħà®µà®ª": 6079,
      "à®³à®µà®Ļ": 6080,
      "Ġà®®à®°à®µà®³": 6081,
      "à®±à®©à®±": 6082,
      "Ġà®ļà®°à®³à®®": 6083,
      "Ġà®Īà®°à®¤": 6084,
      "Ġà®¤à®µà®ļ": 6085,
      "Ġ480": 6086,
      "Ġ1910": 6087,
      "Ġ1914": 6088,
      "Ġ1933": 6089,
      "à®īà®·": 6090,
      "2022": 6091,
      "à®°à®ķà®Łà®©à®¤": 6092,
      "Ġà®Ĩà®±à®Ł": 6093,
      "à¯į??": 6094,
      "alv": 6095,
      "alur": 6096,
      "ĠTAM": 6097,
      "the": 6098,
      "1965": 6099,
      "1967": 6100,
      "1993": 6101,
      "Ġ156": 6102,
      "enz": 6103,
      "ĠPura": 6104,
      "Ġà®ħà®´à®ķà®©": 6105,
      "ĠSL": 6106,
      "ĠSystem": 6107,
      "à®Łà®£à®ķ": 6108,
      "ĠCry": 6109,
      "ĠMur": 6110,
      "ĠMag": 6111,
      "ĠMedia": 6112,
      "à®ľà®¯à®¨à®ķà®°": 6113,
      "à®µà®±à®Ł": 6114,
      "à¯ģ...\"": 6115,
      "omb": 6116,
      "Ġ164": 6117,
      "Ġ165": 6118,
      "Ġ136": 6119,
      "Ġtag": 6120,
      "ĠRa": 6121,
      "lect": 6122,
      "asi": 6123,
      "asan": 6124,
      "Ġcan": 6125,
      "Ġcent": 6126,
      "Ġpir": 6127,
      "à¯Ī!âĢĻ": 6128,
      "à®ħà®°à®ļà®©": 6129,
      "ĠLab": 6130,
      "Ġfe": 6131,
      "Ġfl": 6132,
      "Ġword": 6133,
      "Ġwork": 6134,
      "unt": 6135,
      "Ġ233": 6136,
      "ĠHigh": 6137,
      "ety": 6138,
      "à®¾!!": 6139,
      "à®¾!'": 6140,
      "akam": 6141,
      "Ġ290": 6142,
      "uman": 6143,
      "rah": 6144,
      "Ġ3500": 6145,
      "à®¿?''": 6146,
      "à¯ģâĢ¦âĢĿ": 6147,
      "aceb": 6148,
      "Ġà®°à®£à®µà®ķ": 6149,
      "indu": 6150,
      "ĠJaffna": 6151,
      "Ġvis": 6152,
      "Ġrel": 6153,
      "ograph": 6154,
      "rice": 6155,
      "arya": 6156,
      "ournal": 6157,
      "ĠCons": 6158,
      "à®¾..?âĢĻâĢĻ": 6159,
      "romild": 6160,
      "ibr": 6161,
      "shatri": 6162,
      "Ġkama": 6163,
      "ĠAmb": 6164,
      "eriod": 6165,
      "oft": 6166,
      "ĠImutrex": 6167,
      "ĠAging": 6168,
      "ĠFlash": 6169,
      "Ġgrater": 6170,
      "ĠTrending": 6171,
      "ĠDipromild": 6172,
      "');": 6173,
      ".-": 6174,
      "490": 6175,
      "Bay": 6176,
      "Ex": 6177,
      "FS": 6178,
      "Le": 6179,
      "MA": 6180,
      "NO": 6181,
      "NR": 6182,
      "Pro": 6183,
      "Sri": 6184,
      "Tag": 6185,
      "^{": 6186,
      "ca": 6187,
      "ces": 6188,
      "dh": 6189,
      "eam": 6190,
      "gen": 6191,
      "la": 6192,
      "mar": 6193,
      "mark": 6194,
      "pg": 6195,
      "pm": 6196,
      "sk": 6197,
      "win": 6198,
      "war": 6199,
      "yt": 6200,
      "ÃĢ": 6201,
      "Ê¼": 6202,
      "Ø³": 6203,
      "ÙĢ": 6204,
      "Ġqu": 6205,
      "ĠÙģ": 6206,
      "à®ķà®¤à®¤": 6207,
      "à®¤à®ªà®¤": 6208,
      "à®¾\",": 6209,
      "à®²à®ħà®µà®ķ": 6210,
      "à®©à®³": 6211,
      "à®®à®ķà®°": 6212,
      "à¯Ī_": 6213,
      "à®³à®³": 6214,
      "à®±à®µà®ķ": 6215,
      "à®µà®ķà®µ": 6216,
      "à®µà®¹": 6217,
      "à®µà®³à®Ļ": 6218,
      "Ġà®ªà®ķà®°": 6219,
      "Ġà®ķà®²à®¤": 6220,
      "Ġà®®à®ĩà®ķ": 6221,
      "Ġà®µà®Łà®²": 6222,
      "à®¨à®µà®°": 6223,
      "Ġà®¨à®¯à®®": 6224,
      "Ġà®¨à®¯à®µ": 6225,
      "Ġà®İà®Łà®¤": 6226,
      "à¯Ģ!": 6227,
      "Ġà®Ĵà®¯à®°": 6228,
      "ĠĠĠĠĠĠĠĠĠĠ": 6229,
      "Ġà®°à®¤à®®": 6230,
      "à®ĩà®µà®³": 6231,
      "à®·à®ªà®®": 6232,
      "à®·à®£à®©": 6233,
      "à®°à®¤à®Ł": 6234,
      "Ġà®ĩà®²à®ļ": 6235,
      "à®ķà®²à®ļ": 6236,
      "à®ħà®¯à®°": 6237,
      "à®ħà®²à®ķ": 6238,
      "à®ħà®µà®ļ": 6239,
      "à®°à®£à®µ": 6240,
      "à®¤à®ªà®¯": 6241,
      "Ġà®ķà®°à®¨": 6242,
      "à®ļà®®à®ķ": 6243,
      "à®ļà®®à®°": 6244,
      "à®ļà®®à®¨": 6245,
      "Ġà®Ĭà®Łà®²": 6246,
      "0000": 6247,
      "Ġà®īà®°à®²": 6248,
      "âĢĻ.": 6249,
      "Ġà®ĵà®²à®®": 6250,
      "à®Ĩà®°à®£": 6251,
      "Ġ'''": 6252,
      "Ġà®¹à®£": 6253,
      "Ġ380": 6254,
      "Ġ\".": 6255,
      "Ġà®Īà®¨": 6256,
      "Ġà®Īà®°à®²": 6257,
      "...\"": 6258,
      "Ġ460": 6259,
      "Ġ1916": 6260,
      "à®īà®Łà®±": 6261,
      "à®ĩà®¤à®´": 6262,
      "à¯į:'": 6263,
      "à®¾?,": 6264,
      "à®ķà®£à®ªà®¤": 6265,
      "à®¾.''": 6266,
      "ane": 6267,
      "inc": 6268,
      "inews": 6269,
      "amy": 6270,
      "à®ıà®²": 6271,
      "Ġà®·à®¤": 6272,
      "ones": 6273,
      "orpor": 6274,
      "ĠTR": 6275,
      "than": 6276,
      "1979": 6277,
      "Ġ154": 6278,
      "à¯į..âĢĻ": 6279,
      "ened": 6280,
      "à¯ģ!!!": 6281,
      "à®¯à®ļà®ķ": 6282,
      "Ġà®Ĩà®µà®£à®ķ": 6283,
      "à®ªà®£à®ķ": 6284,
      "Ġ1895": 6285,
      "itute": 6286,
      "ĠMalaiy": 6287,
      "à¯ģ...âĢĿ": 6288,
      "Ġ131": 6289,
      "Ġ138": 6290,
      "Ġso": 6291,
      "ask": 6292,
      "asik": 6293,
      "Ġthere": 6294,
      "à¯ĩ!!": 6295,
      "à¯ĩ!âĢĻâĢĻ": 6296,
      "olar": 6297,
      "Ġ245": 6298,
      "ĠBe": 6299,
      "ĠBatt": 6300,
      "ĠBridge": 6301,
      "ĠDo": 6302,
      "ĠDes": 6303,
      "à¯Ī!'": 6304,
      "à®ħà®©à®¨": 6305,
      "ela": 6306,
      "Ġflow": 6307,
      "aga": 6308,
      "......": 6309,
      "à¯ģ..!!": 6310,
      "usiness": 6311,
      "à®¿âĢĻ.": 6312,
      "ently": 6313,
      "125": 6314,
      "ĠVs": 6315,
      "Ġnight": 6316,
      "otal": 6317,
      "166": 6318,
      "los": 6319,
      "Ġà®ħà®µà®ļà®°à®ļ": 6320,
      "Ġà®ħà®µà®ļà®°à®¨": 6321,
      "ivan": 6322,
      "ident": 6323,
      "osp": 6324,
      "Ġstate": 6325,
      "ĠReg": 6326,
      "à¤¤": 6327,
      "ude": 6328,
      "ĠChola": 6329,
      "okes": 6330,
      "ugs": 6331,
      "Ø§ÙĦ": 6332,
      "ours": 6333,
      "ourt": 6334,
      "attu": 6335,
      "ĠReading": 6336,
      "ize": 6337,
      "à¯ĩâĢ¦.": 6338,
      "Ġchennai": 6339,
      "ĠUpdates": 6340,
      "eyl": 6341,
      "eek": 6342,
      "Ġkathaikal": 6343,
      "Ġ%)": 6344,
      "Ġà®®à®²à®ļà®²à®ķ": 6345,
      "****": 6346,
      "ĠâĢĽâĢĽ": 6347,
      "Ġago": 6348,
      "ency": 6349,
      "âĢĶâĢĶâĢĶâĢĶâĢĶâĢĶâĢĶâĢĶ": 6350,
      "ĠVideo": 6351,
      "ïģ¬": 6352,
      "à®©à®²à®®à®±": 6353,
      "ĠOrgan": 6354,
      "ĠWhatsApp": 6355,
      "ĠChristian": 6356,
      "Ġmonth": 6357,
      "Ġinscription": 6358,
      "ĠEMI": 6359,
      "Ġmatrum": 6360,
      "acebook": 6361,
      "(\"": 6362,
      ")(": 6363,
      "360": 6364,
      "DI": 6365,
      "JP": 6366,
      "Page": 6367,
      "TO": 6368,
      "hp": 6369,
      "ks": 6370,
      "oil": 6371,
      "rs": 6372,
      "son": 6373,
      "tra": 6374,
      "vers": 6375,
      "ÃĹ": 6376,
      "à³": 6377,
      "âĨ": 6378,
      "êŀ": 6379,
      "îİ": 6380,
      "ĠÐ": 6381,
      "ĠÙħ": 6382,
      "Ġeng": 6383,
      "à®¾âĢĭ": 6384,
      "à®®à®ķà®®": 6385,
      "à®®à®µà®©": 6386,
      "à®®à®Łà®ķ": 6387,
      "à¯Ī}": 6388,
      "à¯Ī\",": 6389,
      "à®³à®£": 6390,
      "Ġà®ªà®ĥà®ª": 6391,
      "Ġà®ªà®µà®³": 6392,
      "Ġà®ķà®°à®£à®®": 6393,
      "à®ļà®ļà®°": 6394,
      "à®ļà®µà®ª": 6395,
      "Ġà®µà®¯à®ª": 6396,
      "à®¨à®¸": 6397,
      "à®¨à®²à®ª": 6398,
      "Ġà®¤à®ķà®µà®®": 6399,
      "Ġà®ļà®Łà®ķ": 6400,
      "Ġà®ļà®²à®©": 6401,
      "à¯į..,": 6402,
      "Ġà®İà®®à®°": 6403,
      "à®´à®ķà®ª": 6404,
      "Ġà®Ĩà®²à®ª": 6405,
      "à®Łà®¤à®Ļ": 6406,
      "à®©à®°à®ķà®®": 6407,
      "Ġà®°à®£à®¤": 6408,
      "Ġà®ķà®Łà®ķà®®": 6409,
      "Ġà®ĩà®¤à®¯à®¨": 6410,
      "à®¯à®®à®¯à®®": 6411,
      "à®¯à®®à®©à®ķ": 6412,
      "à®ĩà®©à®µ": 6413,
      "Ġà®ĩà®²à®ŀ": 6414,
      "à®ªà®°à®°": 6415,
      "Ġà®ĩà®©à®ļ": 6416,
      "Ġà®ħà®²à®µ": 6417,
      "Ġà®ªà®£à®µà®°à®¤": 6418,
      "à®ļà®®à®¤": 6419,
      "à®ļà®®à®ļ": 6420,
      "à®ļà®®à®£": 6421,
      "Ġà®Ĭà®ķà®Ļ": 6422,
      "Ġà®īà®£à®°à®ķ": 6423,
      "à®Ĩà®¹": 6424,
      "à®¤à®ķà®ļ": 6425,
      "Ġà®Ĩà®Łà®µ": 6426,
      "à®¹à®¹": 6427,
      "Ġà®īà®¤à®¯à®©": 6428,
      "...!": 6429,
      "...âĢĻ": 6430,
      "Ġ1903": 6431,
      "Ġà®¨à®ķà®°à®ķ": 6432,
      "à®¾?...": 6433,
      "anam": 6434,
      "à¯į'-": 6435,
      "à®£à®ªà®µà®©": 6436,
      "à¯į--": 6437,
      "Ġà®īà®²à®ķà®±": 6438,
      "arg": 6439,
      "ĠTw": 6440,
      "1975": 6441,
      "1947": 6442,
      "1972": 6443,
      "1974": 6444,
      "ĠPDF": 6445,
      "Ġ1893": 6446,
      "ĠCol": 6447,
      "Ġà®µà®©à®ľ": 6448,
      "ĠAt": 6449,
      "à®ľà®¯à®ķà®²": 6450,
      "Ġ163": 6451,
      "Ġ133": 6452,
      "Ġtn": 6453,
      "Ġserv": 6454,
      "asa": 6455,
      "Ġ172": 6456,
      "Ġ173": 6457,
      "Ġ177": 6458,
      "Ġpar": 6459,
      "uru": 6460,
      "108": 6461,
      "ĠBi": 6462,
      "ĠBen": 6463,
      "à¯įâĢ¦!": 6464,
      "ĠDay": 6465,
      "Ġour": 6466,
      "Ġà®Ĭà®Łà®ķà®ļ": 6467,
      "Ġmade": 6468,
      "elhi": 6469,
      "à®¾...âĢĻ": 6470,
      "ĠGr": 6471,
      "ĠGen": 6472,
      "ĠGovernment": 6473,
      "à®¿!âĢĿ": 6474,
      "Ġfr": 6475,
      "Ġweb": 6476,
      "Ġthem": 6477,
      "ĠOther": 6478,
      "Ġà®¨à®°à®ķà®®": 6479,
      "à®·à®¯à®®à®²": 6480,
      "uss": 6481,
      "usic": 6482,
      "Ġà®ªà®²à®®à®Łà®Ļ": 6483,
      "ĠHy": 6484,
      "ĠHot": 6485,
      "124": 6486,
      "Ġhand": 6487,
      "Ġhot": 6488,
      "ĠEm": 6489,
      "etail": 6490,
      "Ġ260": 6491,
      "Ġ!!!": 6492,
      "akh": 6493,
      "à¯ĩ?'": 6494,
      "Ġdec": 6495,
      "ĠWe": 6496,
      "Ġland": 6497,
      "Ġgo": 6498,
      "ĠJune": 6499,
      "à¯Ī?âĢĿ": 6500,
      "à®µà®´à®ķà®©": 6501,
      "ĠChann": 6502,
      "ift": 6503,
      "Ġà®ªà®°à®¤à®©": 6504,
      "wiki": 6505,
      "ankulam": 6506,
      "ever": 6507,
      "Ġviews": 6508,
      "ukk": 6509,
      "Ġà®ħà®¯à®²à®µà®°": 6510,
      "Ġbeen": 6511,
      "Ġà®ħà®¹à®®à®Ł": 6512,
      "ĠAll": 6513,
      "play": 6514,
      "ĠTNTJ": 6515,
      "pril": 6516,
      "Ġclass": 6517,
      "redit": 6518,
      "ociation": 6519,
      "Ġ......[": 6520,
      "ĠMaths": 6521,
      "Ġà®¨à®¯à®µà®ŀ": 6522,
      "êŀī": 6523,
      "îİį": 6524,
      "'...": 6525,
      "850": 6526,
      "><": 6527,
      "?.": 6528,
      "AB": 6529,
      "BE": 6530,
      "Br": 6531,
      "CP": 6532,
      "FT": 6533,
      "HA": 6534,
      "LL": 6535,
      "National": 6536,
      "by": 6537,
      "du": 6538,
      "fer": 6539,
      "ford": 6540,
      "ho": 6541,
      "hu": 6542,
      "ling": 6543,
      "light": 6544,
      "mail": 6545,
      "nect": 6546,
      "night": 6547,
      "pur": 6548,
      "paper": 6549,
      "ril": 6550,
      "ror": 6551,
      "Ã¸": 6552,
      "Ġet": 6553,
      "Ġ........": 6554,
      "à®¿âĢĻâĢĻ": 6555,
      "à®ķà®Łà®°": 6556,
      "à®¤à®ķà®²": 6557,
      "à®°à®ķà®³": 6558,
      "à®Łà®µà®¤": 6559,
      "à®²à®µà®¤": 6560,
      "à®²à®´à®ķà®°": 6561,
      "à®ªà®ľ": 6562,
      "à®ªà®®à®©": 6563,
      "à®¯à®ķà®µ": 6564,
      "Ġà®ªà®©à®®": 6565,
      "Ġà®ķà®¤à®ķ": 6566,
      "Ġà®ķà®±à®¨": 6567,
      "à®ļà®ªà®¤": 6568,
      "à®ļà®±à®¤": 6569,
      "à®ļà®¤à®µ": 6570,
      "à®ļà®µà®²": 6571,
      "Ġà®®à®²à®¤": 6572,
      "Ġà®®à®ķà®°à®®": 6573,
      "à®¨à®¯à®®": 6574,
      "Ġà®ħà®°à®®": 6575,
      "Ġà®¤à®ļà®°": 6576,
      "à®£à®°à®Ł": 6577,
      "Ġà®ļà®ķà®ª": 6578,
      "Ġà®ļà®©à®Ļ": 6579,
      "Ġà®ĩà®¹": 6580,
      "Ġà®ĩà®İà®ķ": 6581,
      "à¯į.<": 6582,
      "à¯Ĥ'": 6583,
      "Ġà®īà®²à®Ļ": 6584,
      "à®µà®°à®Ł": 6585,
      "à®µà®°à®£": 6586,
      "à¯ģ.<": 6587,
      "Ġà®°à®¤à®Ļ": 6588,
      "à®ķà®®à®µ": 6589,
      "à®¯à®®à®£": 6590,
      "à®ĩà®µà®Ļ": 6591,
      "à®·à®Ł": 6592,
      "à®©à®¤à®¯": 6593,
      "Ġà®Łà®¸": 6594,
      "à®°à®¤à®ķ": 6595,
      "Ġà®ªà®Łà®ªà®Łà®¤": 6596,
      "Ġà®ªà®²à®Ļ": 6597,
      "à®ķà®²à®µà®°à®®": 6598,
      "Ġà®ħà®°à®ļà®ķ": 6599,
      "Ġà®¤à®®à®¯à®¨": 6600,
      "à®²à®®à®Ļ": 6601,
      "Ġ('": 6602,
      "Ġà®ļà®®à®±": 6603,
      "à®®à®²à®ª": 6604,
      "Ġà®²à®ľ": 6605,
      "Ġà®®à®©à®īà®³": 6606,
      "Ġà®¯à®²": 6607,
      "Ġà®¯à®©": 6608,
      "Ġà®¯à®®à®©": 6609,
      "Ġà®īà®£à®°à®®": 6610,
      "Ġà®īà®£à®°à®¤": 6611,
      "à®©à®®à®±": 6612,
      "à®µà®²à®Ł": 6613,
      "Ġà®ĵà®¹": 6614,
      "à®Ĩà®²à®Ļ": 6615,
      "à®Ĩà®¤à®°à®µ": 6616,
      "à®Łà®ķà®ļ": 6617,
      "à®°à®ļà®²": 6618,
      "Ġà®İà®´à®¤": 6619,
      "Ġ330": 6620,
      "Ġ340": 6621,
      "Ġà®ħà®´à®¤": 6622,
      "à®ªà®©à®¨": 6623,
      "'''": 6624,
      "Ġà®µà®Łà®ķà®°": 6625,
      "Ġ1924": 6626,
      "Ġ1913": 6627,
      "Ġà®īà®¯à®°à®Ļ": 6628,
      "à¯ĩ,''": 6629,
      "à¯įâĢĻ-": 6630,
      "any": 6631,
      "inal": 6632,
      "Ġà®µà®³à®°à®¤": 6633,
      "amed": 6634,
      "à®°à®µà®³": 6635,
      "à®Ĳà®ı": 6636,
      "Ġà®·à®©": 6637,
      "ility": 6638,
      "orth": 6639,
      "Ġ:'": 6640,
      "thu": 6641,
      "190": 6642,
      "1920": 6643,
      "1948": 6644,
      "à¯Įà¯į": 6645,
      "ena": 6646,
      "ĠPa": 6647,
      "ĠPo": 6648,
      "ĠPad": 6649,
      "Ġ127": 6650,
      "Ġ182": 6651,
      "Ġ184": 6652,
      "ĠCM": 6653,
      "ĠCS": 6654,
      "ĠNar": 6655,
      "à®ļà®¨à®²": 6656,
      "ĠMy": 6657,
      "Ġ137": 6658,
      "Ġtr": 6659,
      "Ġ141": 6660,
      "Ġsup": 6661,
      "Ġsub": 6662,
      "Ġsec": 6663,
      "Ġsouth": 6664,
      "ĠRo": 6665,
      "ĠRAM": 6666,
      "ases": 6667,
      "Ġcap": 6668,
      "oly": 6669,
      "Ġpain": 6670,
      "ural": 6671,
      "urch": 6672,
      "ĠDe": 6673,
      "Ġopen": 6674,
      "à¯Ī!âĢĿ": 6675,
      "ĠmAh": 6676,
      "ĠLink": 6677,
      "ĠLanguage": 6678,
      "ĠGe": 6679,
      "ĠGroup": 6680,
      "Ġà®ķà®®à®²à®ķ": 6681,
      "Ġfree": 6682,
      "Ġwom": 6683,
      "Ġbel": 6684,
      "ĠOol": 6685,
      "à¯ģ',": 6686,
      "Ġhy": 6687,
      "Ġhead": 6688,
      "ĠEv": 6689,
      "à¯ģâĢĿ.": 6690,
      "à®¾!âĢĿ": 6691,
      "159": 6692,
      "Ġ280": 6693,
      "akes": 6694,
      "ĠVal": 6695,
      "à®ħà®°à®ļà®®": 6696,
      "ĠÂĴ": 6697,
      "à¯ĩ...!": 6698,
      "114": 6699,
      "ĠWind": 6700,
      "ĠWord": 6701,
      "ikan": 6702,
      "ivision": 6703,
      "rav": 6704,
      "Ġkill": 6705,
      "ava": 6706,
      "à¯ģâĢ¦..": 6707,
      "accessdate": 6708,
      "à¤®": 6709,
      "à¤µ": 6710,
      "à®ªà®´à®ļ": 6711,
      "Ġà®®à®°à®£à®ª": 6712,
      "Ġvar": 6713,
      "opy": 6714,
      "Ġà®īà®²à®°à®µ": 6715,
      "à¯ĩ..?": 6716,
      "ocus": 6717,
      "cept": 6718,
      "Ġà®Ĩà®ªà®°à®£à®¤": 6719,
      "uthu": 6720,
      "wikinews": 6721,
      "Ġrest": 6722,
      "à®¾..?âĢĿ": 6723,
      "ept": 6724,
      "ears": 6725,
      "order": 6726,
      "à¥Ĵ": 6727,
      "à®īà®²à®ķà®³": 6728,
      "à®īà®²à®ķà®ª": 6729,
      "ĠÃł": 6730,
      "ĠQR": 6731,
      "à®µà®Łà®®à®¤": 6732,
      "Ġxxx": 6733,
      "adio": 6734,
      "Ġà®®à®©à®µà®³à®ķ": 6735,
      "Ġits": 6736,
      "ĠVijay": 6737,
      "ĠExpress": 6738,
      "ĠĠĠĠĠĠĠĠĠĠĠĠĠĠĠĠĠĠĠĠĠĠĠĠĠĠĠĠĠĠĠ": 6739,
      "Art": 6740,
      "}}</": 6741,
      "ĠBooks": 6742,
      "ĠOffice": 6743,
      "string": 6744,
      "anags": 6745,
      "ouncil": 6746,
      "ĠPhotos": 6747,
      "Ġelection": 6748,
      "Ġà®Ĩà®ļà®©à®µ": 6749,
      "Ġmagan": 6750,
      "Ġïĥ": 6751,
      "ĠCryCash": 6752,
      "ibrary": 6753,
      "asikala": 6754,
      "330": 6755,
      "450": 6756,
      ":,": 6757,
      ">{{": 6758,
      "DE": 6759,
      "Fi": 6760,
      "Kanags": 6761,
      "NG": 6762,
      "Ne": 6763,
      "PL": 6764,
      "Pl": 6765,
      "SL": 6766,
      "SO": 6767,
      "bu": 6768,
      "bol": 6769,
      "coh": 6770,
      "duc": 6771,
      "gg": 6772,
      "ied": 6773,
      "ious": 6774,
      "ked": 6775,
      "kapp": 6776,
      "mk": 6777,
      "nic": 6778,
      "oul": 6779,
      "oud": 6780,
      "que": 6781,
      "ren": 6782,
      "ration": 6783,
      "ved": 6784,
      "Ãµ": 6785,
      "Å«": 6786,
      "ØŃ": 6787,
      "Ùī": 6788,
      "àµ": 6789,
      "ï¼": 6790,
      "Ġz": 6791,
      "Ġï»¿": 6792,
      "à®Ĥ": 6793,
      "à¯į+": 6794,
      "à¯ģ[": 6795,
      "à®ķà®±à®µà®Ļ": 6796,
      "à®ķà®ķà®µà®ļà®®": 6797,
      "à®¤à®¹": 6798,
      "à®°à®ļà®°": 6799,
      "à®°à®¹à®®": 6800,
      "à®Łà®ľ": 6801,
      "à®²à®Łà®Ļ": 6802,
      "à®®à®±à®¨": 6803,
      "à¯Ī|": 6804,
      "à®³à®ķà®¤": 6805,
      "à®±à®°à®ļ": 6806,
      "Ġà®ķà®³à®°": 6807,
      "Ġà®ķà®±à®ķ": 6808,
      "à®ļà®©à®°": 6809,
      "à®ļà®ļà®©": 6810,
      "Ġà®®à®ķà®®": 6811,
      "Ġà®®à®¯à®ª": 6812,
      "à¯ĩà®¾.": 6813,
      "à¯ĩâĢĻâĢĻ": 6814,
      "Ġà®¤à®ĥà®µ": 6815,
      "à®£à®µà®®": 6816,
      "Ġà®ļà®µà®ª": 6817,
      "Ġà®İà®ľ": 6818,
      "à®´à®µà®°à®®": 6819,
      "à¯į,...": 6820,
      "à¯Ģ;": 6821,
      "à¯ģ,.": 6822,
      "à®ķà®°à®±": 6823,
      "Ġà®ĩà®¤à®¯à®ª": 6824,
      "à®°à®®à®ķ": 6825,
      "à®ķà®µà®ļà®¤": 6826,
      "Ġà®ıà®ľà®©": 6827,
      "à®¯à®¤à®®": 6828,
      "à®ĩà®ħà®¤": 6829,
      "à®·à®¯à®°": 6830,
      "Ġà®Łà®²à®¸": 6831,
      "Ġà®ľà®¤": 6832,
      "Ġà®ľà®©à®°à®ŀ": 6833,
      "à®¤à®°à®ļà®©": 6834,
      "Ġà®ķà®²à®ļà®¤": 6835,
      "Ġà®ķà®²à®ķà®ķ": 6836,
      "à®ħà®Łà®°": 6837,
      "à®ħà®Łà®ķ": 6838,
      "à®ħà®±à®®": 6839,
      "à®ħà®ļà®²": 6840,
      "Ġ((": 6841,
      "Ġ(,": 6842,
      "Ġà®ļà®®à®¯à®ļ": 6843,
      "à®¯à®©à®ķ": 6844,
      "à¯Ī.''": 6845,
      "Ġà®ħà®µà®¨": 6846,
      "Ġà®ħà®µà®²à®¨": 6847,
      "Ġà®®à®©à®µà®°": 6848,
      "à®´à®ķà®ļ": 6849,
      "Ġà®¸à®¤": 6850,
      "Ġà®Ĵà®©à®ķ": 6851,
      "à®¯à®µà®ļ": 6852,
      "à®£à®®à®Ļ": 6853,
      "Ġà®Ĳà®¯à®¤": 6854,
      "à®¹à®°à®©": 6855,
      "âĢĿ.": 6856,
      "Ġ1929": 6857,
      "Ġ1901": 6858,
      "Ġ1905": 6859,
      "à¯į:''": 6860,
      "à¯įâĢĻ!": 6861,
      "ining": 6862,
      "inter": 6863,
      "Ġà®ªà®³à®ªà®³à®ķ": 6864,
      "Ġà®ļà®ķà®¸": 6865,
      "à®°à®ķà®¸": 6866,
      "ature": 6867,
      "à®Ĵà®ļ": 6868,
      "eric": 6869,
      "Ġà®Ĩà®²à®Ł": 6870,
      "à¯į?,": 6871,
      "à®Ĳà®©": 6872,
      "à®Ĳà®®": 6873,
      "à®Ĳà®İà®®": 6874,
      "Ġ8000": 6875,
      "à®®à®£à®ļ": 6876,
      "alf": 6877,
      "aludan": 6878,
      "à®µà®¨à®²": 6879,
      "ĠTam": 6880,
      "ĠTalk": 6881,
      "thir": 6882,
      "1950": 6883,
      "1962": 6884,
      "ĠPage": 6885,
      "ĠPrime": 6886,
      "à®Ĩà®°à®ŀ": 6887,
      "Ġà®ķà®Łà®²à®Ł": 6888,
      "Ġ187": 6889,
      "Ġ1898": 6890,
      "Ġ1892": 6891,
      "ĠSP": 6892,
      "ĠShar": 6893,
      "ĠSevere": 6894,
      "ĠCap": 6895,
      "ĠCream": 6896,
      "ĠNam": 6897,
      "ĠNet": 6898,
      "Ġà®īà®ªà®¯à®¤": 6899,
      "Ġà®µà®©à®ķ": 6900,
      "Ġ113": 6901,
      "ĠAB": 6902,
      "ĠApril": 6903,
      "ĠMg": 6904,
      "ades": 6905,
      "Ġ132": 6906,
      "Ġ134": 6907,
      "Ġtitle": 6908,
      "Ġsk": 6909,
      "Ġshe": 6910,
      "Ġcar": 6911,
      "ĠIV": 6912,
      "Ġperm": 6913,
      "ionary": 6914,
      "ĠBuy": 6915,
      "ĠBusiness": 6916,
      "Ġother": 6917,
      "Ġmod": 6918,
      "ĠGold": 6919,
      "Ġwrit": 6920,
      "Ġtheevi": 6921,
      "unction": 6922,
      "Ġbre": 6923,
      "à¯ģ..âĢĿ": 6924,
      "ĠFood": 6925,
      "180": 6926,
      "Ġhere": 6927,
      "à®Ĭà®Łà®ķà®Ļ": 6928,
      "aker": 6929,
      "ĠVis": 6930,
      "ĠVol": 6931,
      "à®Īà®ķ": 6932,
      "à®Īà®ª": 6933,
      "à®ħà®°à®ļà®°": 6934,
      "116": 6935,
      "irc": 6936,
      "ird": 6937,
      "ĠWeek": 6938,
      "otes": 6939,
      "160": 6940,
      "iver": 6941,
      "ival": 6942,
      "raj": 6943,
      "Ġ??": 6944,
      "à®¿?'": 6945,
      "igg": 6946,
      "ĠUser": 6947,
      "apuram": 6948,
      "come": 6949,
      "Ġlife": 6950,
      "Ġlanguage": 6951,
      "à¤¨": 6952,
      "à¯Ī?''": 6953,
      "istan": 6954,
      "Ġvel": 6955,
      "ope": 6956,
      "udram": 6957,
      "ĠeBay": 6958,
      "uthuv": 6959,
      "ific": 6960,
      "ecial": 6961,
      "illage": 6962,
      "ains": 6963,
      "ukaludan": 6964,
      "à®¿âĢ¦.": 6965,
      "ovid": 6966,
      "Ġà®īà®ªà®¤à®²": 6967,
      "icaloa": 6968,
      "ible": 6969,
      "obs": 6970,
      "ship": 6971,
      "uck": 6972,
      "ĠAlang": 6973,
      "ERS": 6974,
      "Ġ1886": 6975,
      "ulture": 6976,
      "Ġà®Ĩà®²à®®à®°à®®": 6977,
      "Ġplace": 6978,
      "à¯įÂ´": 6979,
      "formula": 6980,
      "resent": 6981,
      "conom": 6982,
      "ĠSynth": 6983,
      "ĠSyntran": 6984,
      "ĠJanus": 6985,
      "Ġphot": 6986,
      "ĠDrugs": 6987,
      "asamudram": 6988,
      "Ġmarundhukaludan": 6989,
      "ĠLeave": 6990,
      "ĠMinister": 6991,
      "ïĢ½": 6992,
      "ĠMeaning": 6993,
      "EWS": 6994,
      "ĠSeries": 6995,
      "ublic": 6996,
      "ĠTAMIL": 6997,
      "Ġpira": 6998,
      "ĠBatticaloa": 6999,
      "ospital": 7000,
      "ĠChannel": 7001,
      "cohol": 7002,
      "Ġtheevira": 7003,
      "!\"": 7004,
      "%-": 7005,
      "',": 7006,
      "-%": 7007,
      ".'": 7008,
      "130": 7009,
      "118": 7010,
      "299": 7011,
      "310": 7012,
      "CE": 7013,
      "CI": 7014,
      "Ge": 7015,
      "Jan": 7016,
      "Me": 7017,
      "PU": 7018,
      "TION": 7019,
      "UV": 7020,
      "bic": 7021,
      "df": 7022,
      "dom": 7023,
      "fus": 7024,
      "ield": 7025,
      "jpg": 7026,
      "kgm": 7027,
      "mb": 7028,
      "med": 7029,
      "name": 7030,
      "oz": 7031,
      "och": 7032,
      "rong": 7033,
      "ues": 7034,
      "vis": 7035,
      "word": 7036,
      "Ãī": 7037,
      "Ġatt": 7038,
      "Ġîİį": 7039,
      "à®¿âĢĵ": 7040,
      "à®ķà®±à®ª": 7041,
      "à®ķà®ļà®¤": 7042,
      "à®¤à®³à®°": 7043,
      "à®¤à®´à®²": 7044,
      "à®¤à®ļà®°à®¸": 7045,
      "à®°à®ķà®£à®¤": 7046,
      "à®Łà®´": 7047,
      "à®Łà®ķà®µ": 7048,
      "à®Łà®ķà®²": 7049,
      "à®Łà®ŀ": 7050,
      "à®¾à¯ĩ": 7051,
      "à®²à®ļà®®": 7052,
      "à®ªà®¯à®®": 7053,
      "à®ªà®©à®°à®²": 7054,
      "à¯Ī=": 7055,
      "à®¯à®ŀ": 7056,
      "à®¯à®¨à®ķà®°": 7057,
      "à®µà®ķà®Ł": 7058,
      "Ġà®ªà®ļà®²": 7059,
      "Ġà®ķà®³à®ķ": 7060,
      "Ġà®ķà®ªà®³": 7061,
      "Ġà®®à®µà®©": 7062,
      "Ġà®®à®Łà®ª": 7063,
      "Ġà®®à®³à®®": 7064,
      "Ġà®®à®ļà®ķ": 7065,
      "à®ķà®³à®µà®©": 7066,
      "à®¨à®ŀ": 7067,
      "à®¨à®¯à®©": 7068,
      "à®¨à®Łà®ķ": 7069,
      "à®£à®ķà®®": 7070,
      "Ġà®ļà®¤à®ķ": 7071,
      "Ġà®¨à®µà®²": 7072,
      "Ġà®¨à®°à®µ": 7073,
      "à¯į.//": 7074,
      "à¯į.--": 7075,
      "à®´à®µà®°": 7076,
      "à¯Ģ..": 7077,
      "à¯ĢâĢĻ": 7078,
      "Ġà®Ĩà®¯à®ķ": 7079,
      "Ġà®ĩà®°à®¨": 7080,
      "Ġà®°à®¨": 7081,
      "à®ľà®ķà®¤": 7082,
      "Ġà®Łà®µà®²": 7083,
      "Ġà®Łà®ĥà®ª": 7084,
      "..\"": 7085,
      "Ġà®ªà®Łà®ªà®Łà®µ": 7086,
      "Ġà®ħà®Łà®Ł": 7087,
      "à®µà®©à®²": 7088,
      "à®¿.-": 7089,
      "à®²à®®à®±": 7090,
      "à®¤à®°à®ķà®Ļ": 7091,
      "à®ħà®µà®²": 7092,
      "à®ħà®°à®ķ": 7093,
      "ĠâĢŀ": 7094,
      "Ġ(âĢľ": 7095,
      "à¯Ī.âĢĻâĢĻ": 7096,
      "Ġà®¤à®²à®µ": 7097,
      "Ġà®ħà®²à®ļà®ª": 7098,
      "Ġà®²à®¹": 7099,
      "à®ļà®°à®°": 7100,
      "Ġà®ªà®°à®µà®ļ": 7101,
      "à®³à®µà®³": 7102,
      "à®¯à®ķà®Ł": 7103,
      "Ġà®®à®°à®µ": 7104,
      "Ġà®¸à®¨": 7105,
      "Ġà®¸à®¹à®¸": 7106,
      "Ġà®¤à®Łà®¯à®®": 7107,
      "Ġ310": 7108,
      "Ġà®Ĳà®İà®©": 7109,
      "Ġà®ħà®´à®µ": 7110,
      "à®µà®ķà®£": 7111,
      "Ġ1907": 7112,
      "à¯į:\"": 7113,
      "Ġà®īà®Łà®²à®³à®µ": 7114,
      "Ġà®ħà®µà®©à®µà®©": 7115,
      "à®ªà®²à®ļ": 7116,
      "eration": 7117,
      "à®ıà®İà®ļ": 7118,
      "à¯į?)": 7119,
      ".,)": 7120,
      "Ġà®·à®¹": 7121,
      "Ġà®ĥà®ªà®©": 7122,
      "alayam": 7123,
      "à¯ģ:âĢĵ": 7124,
      "à¯į\"(": 7125,
      "oriz": 7126,
      "ĠTra": 7127,
      "Ġ:))": 7128,
      "thumb": 7129,
      "ese": 7130,
      "1978": 7131,
      "1969": 7132,
      "1954": 7133,
      "1994": 7134,
      "Ġ151": 7135,
      "à®¯à®ļà®¨": 7136,
      "ĠPR": 7137,
      "ĠPart": 7138,
      "ĠPEA": 7139,
      "Ġ1880": 7140,
      "Ġ1876": 7141,
      "ĠSiyan": 7142,
      "Ġà®µà®³à®ļà®°à®µ": 7143,
      "ĠChe": 7144,
      "ĠCity": 7145,
      "ĠNT": 7146,
      "Ġ1100": 7147,
      "icles": 7148,
      "ĠMO": 7149,
      "ĠMr": 7150,
      "ĠMess": 7151,
      "Ġ308": 7152,
      "Ġà®ªà®°à®µà®µ": 7153,
      "ads": 7154,
      "Ġ166": 7155,
      "Ġtw": 7156,
      "Ġ143": 7157,
      "Ġsun": 7158,
      "asalai": 7159,
      "Ġcol": 7160,
      "Ġcorona": 7161,
      "Ġcaste": 7162,
      "ĠIC": 7163,
      "ĠIRS": 7164,
      "urb": 7165,
      "Ġà®īà®´à®©": 7166,
      "ĠBy": 7167,
      "ĠBal": 7168,
      "ĠBlog": 7169,
      "ĠDis": 7170,
      "ĠDeg": 7171,
      "Ġown": 7172,
      "Ġotha": 7173,
      "elf": 7174,
      "ayal": 7175,
      "ĠLim": 7176,
      "ĠLaw": 7177,
      "ĠLove": 7178,
      "ĠGa": 7179,
      "ĠGod": 7180,
      "ĠGood": 7181,
      "Ġ214": 7182,
      "Ġ215": 7183,
      "à®¿!'": 7184,
      "à®¿!''": 7185,
      "Ġfood": 7186,
      "Ġfollow": 7187,
      "una": 7188,
      "unj": 7189,
      "Ġ401": 7190,
      "Ġinter": 7191,
      "ĠOF": 7192,
      "ĠOS": 7193,
      "rip": 7194,
      "rive": 7195,
      "ĠFile": 7196,
      "à¯į''.": 7197,
      "ĠHistory": 7198,
      "186": 7199,
      "ross": 7200,
      "uly": 7201,
      "Ġhit": 7202,
      "Ġhigh": 7203,
      "ĠEl": 7204,
      "ĠKAL": 7205,
      "à¯ģ\")": 7206,
      "à®Ĭà®°à®ķ": 7207,
      "Ġnow": 7208,
      "irds": 7209,
      "à®¾.....": 7210,
      "umai": 7211,
      "lob": 7212,
      "Ġà®°à®®à®´": 7213,
      "ika": 7214,
      "à¯Ī...''": 7215,
      "aval": 7216,
      "Ġonce": 7217,
      "osit": 7218,
      "ĠReviews": 7219,
      "à®°à®°à®ļà®©": 7220,
      "Ġvali": 7221,
      "Ġeffect": 7222,
      "oco": 7223,
      "iyar": 7224,
      "à®¾âĢ¦?": 7225,
      "Ġà®ªà®¯à®ªà®ķ": 7226,
      "ills": 7227,
      "illai": 7228,
      "1986": 7229,
      "1988": 7230,
      "arkulam": 7231,
      "ĠÃĹ": 7232,
      "Ġwhere": 7233,
      "Ġbeaut": 7234,
      "ĠProvest": 7235,
      "ariat": 7236,
      "arium": 7237,
      "ritic": 7238,
      "ĠØ¨": 7239,
      "azh": 7240,
      "enger": 7241,
      "liqu": 7242,
      "oronavi": 7243,
      "à®¾]],": 7244,
      "Î¼à®£": 7245,
      "Ġacc": 7246,
      "++++": 7247,
      "yanarkulam": 7248,
      "à¯¦à¯¦": 7249,
      "Ġpolitical": 7250,
      "ĠOfficial": 7251,
      "ĠInstitute": 7252,
      "ĠRedmi": 7253,
      "ĠAssociation": 7254,
      "Ġeven": 7255,
      "ĠAyyanarkulam": 7256,
      "ĠSecretariat": 7257,
      "ĠCollege": 7258,
      "Ġcalled": 7259,
      "Ġactress": 7260,
      "ĠSongs": 7261,
      "unicode": 7262,
      "ĠAmbasamudram": 7263,
      "ĠMalaiyankulam": 7264,
      "âĨĳ": 7265,
      "ĠWeekly": 7266,
      "ĠAlangulam": 7267,
      "ĠSynthivan": 7268,
      "ĠSiyane": 7269,
      "ĠProvestra": 7270,
      ".;": 7271,
      ".âĢĻâĢĻ": 7272,
      "320": 7273,
      "380": 7274,
      ";;": 7275,
      "AV": 7276,
      "BA": 7277,
      "Cont": 7278,
      "DP": 7279,
      "EE": 7280,
      "FR": 7281,
      "LE": 7282,
      "NH": 7283,
      "OM": 7284,
      "Of": 7285,
      "Re": 7286,
      "REA": 7287,
      "TS": 7288,
      "UK": 7289,
      "VS": 7290,
      "Voice": 7291,
      "aa": 7292,
      "bs": 7293,
      "cc": 7294,
      "da": 7295,
      "dro": 7296,
      "ez": 7297,
      "gy": 7298,
      "get": 7299,
      "iet": 7300,
      "lk": 7301,
      "my": 7302,
      "main": 7303,
      "nel": 7304,
      "px": 7305,
      "sa": 7306,
      "ule": 7307,
      "Â´": 7308,
      "ÃĲ": 7309,
      "âĤ": 7310,
      "Ġu": 7311,
      "Ġid": 7312,
      "Ġline": 7313,
      "Ġend": 7314,
      "Ġass": 7315,
      "Ġà¦": 7316,
      "à¯į*": 7317,
      "à¯į`": 7318,
      "à¯į</": 7319,
      "à®ķà®ķà®¤": 7320,
      "à®ķà®¯à®®": 7321,
      "à®¤à®±à®¤": 7322,
      "à®©à®´à®ķ": 7323,
      "à®®à®¯à®¤": 7324,
      "à®®à®¯à®ķ": 7325,
      "à®ªà®·": 7326,
      "à®³à®°à®®": 7327,
      "à®³à®¹à®¸": 7328,
      "à®¯à®´à®ķ": 7329,
      "à®µà®£à®®": 7330,
      "Ġà®ķà®µà®ļ": 7331,
      "Ġà®ķà®¸à®²": 7332,
      "à®ļà®ķà®²": 7333,
      "à®ļà®¯à®ª": 7334,
      "à®ļà®£à®Ļ": 7335,
      "à®ķà®³à®¯": 7336,
      "Ġà®ħà®ķà®Ł": 7337,
      "Ġà®ħà®ĥà®¤": 7338,
      "Ġà®ħà®ĩà®ħà®¤": 7339,
      "Ġà®¤à®·": 7340,
      "Ġà®¤à®¹": 7341,
      "Ġà®ļà®©à®²": 7342,
      "Ġà®İà®ļà®©": 7343,
      "à®´à®©à®©": 7344,
      "à¯į,:": 7345,
      "à¯į,âĢĻ": 7346,
      "à¯ĤâĢĮ": 7347,
      "Ġà®īà®µ": 7348,
      "Ġà®īà®³à®¤": 7349,
      "Ġà®īà®´à®²": 7350,
      "Ġà®Ĩà®Łà®ª": 7351,
      "à¯ģ.!": 7352,
      "Ġà®ĩà®°à®ª": 7353,
      "à®ªà®¤à®°": 7354,
      "Ġà®°à®ľà®©": 7355,
      "à®°à®®à®³": 7356,
      "à®ķà®µà®³": 7357,
      "à®ľà®¹": 7358,
      "Ġà®ıà®İà®©": 7359,
      "à®¤à®®à®ķ": 7360,
      "à®ĩà®²à®Ł": 7361,
      "Ġà®ħà®Łà®²": 7362,
      "à®¿,(": 7363,
      "Ġà®ľà®²à®¨": 7364,
      "Ġà®ħà®°à®ļà®²": 7365,
      "à®¤à®°à®ļà®®": 7366,
      "Ġà®ķà®£à®ª": 7367,
      "à®ħà®Łà®Ļ": 7368,
      "à®ħà®®à®®": 7369,
      "Ġà®ļà®®à®ļà®®": 7370,
      "à®µà®Łà®ļ": 7371,
      "à®¤à®µà®ļ": 7372,
      "Ġà®Ĩà®ķà®Ł": 7373,
      "à®İà®±": 7374,
      "à®İà®®à®©": 7375,
      "à®İà®®à®ķ": 7376,
      "Ġà®Ĭà®³": 7377,
      "à®Łà®²à®ķ": 7378,
      "Ġà®ħà®ªà®ķ": 7379,
      "à®¯à®ķà®±": 7380,
      "à®µà®²à®ļ": 7381,
      "Ġà®ĵà®Łà®ķ": 7382,
      "Ġà®®à®°à®Ł": 7383,
      "Ġà®®à®°à®¨à®Ł": 7384,
      "à®Ĩà®¤à®²": 7385,
      "à®ķà®Łà®ķà®®": 7386,
      "Ġà®ļà®°à®µà®£à®ķ": 7387,
      "Ġà®İà®´à®²": 7388,
      "à®ķà®´à®¤": 7389,
      "à®ķà®´à®Ł": 7390,
      "Ġ318": 7391,
      "Ġ312": 7392,
      "à®ķà®©à®²": 7393,
      "Ġà®Ĳà®ļà®ķ": 7394,
      "Ġ205": 7395,
      "Ġ208": 7396,
      "Ġ2050": 7397,
      "Ġ2023": 7398,
      "Ġà®ĩà®¤à®©à®Ł": 7399,
      "Ġà®Īà®Łà®©": 7400,
      "Ġà®¤à®µà®ķ": 7401,
      "Ġà®īà®¤à®¯à®¤": 7402,
      "Ġà®µà®²à®Ļ": 7403,
      "à¯į!..": 7404,
      "Ġ193": 7405,
      "Ġ1921": 7406,
      "Ġ1906": 7407,
      "à®ªà®ķà®µà®¤": 7408,
      "à¯į'!": 7409,
      "à¯į)|": 7410,
      "ames": 7411,
      "à®°à®µà®¸": 7412,
      "ator": 7413,
      "ero": 7414,
      "ering": 7415,
      "erry": 7416,
      "à®ıà®ľ": 7417,
      "Ġà®ķà®®à®£": 7418,
      "Ġà®ķà®®à®²à®®": 7419,
      "Ġà®ĥà®ªà®¯à®°": 7420,
      "Ġà®ĩà®³à®ļ": 7421,
      "online": 7422,
      "à®®à®£à®µ": 7423,
      "alog": 7424,
      "iles": 7425,
      "Ġà®µà®ļà®µ": 7426,
      "Ġà®ķà®©à®²": 7427,
      "ĠTer": 7428,
      "ĠTest": 7429,
      "thyas": 7430,
      "1944": 7431,
      "1931": 7432,
      "1957": 7433,
      "1956": 7434,
      "1961": 7435,
      "1973": 7436,
      "à¯į..''": 7437,
      "ĠPA": 7438,
      "ĠPC": 7439,
      "ĠPaper": 7440,
      "à®¨à®°à®ķà®®": 7441,
      "Ġ1899": 7442,
      "Ġ1874": 7443,
      "ĠServ": 7444,
      "ĠSuper": 7445,
      "ĠCur": 7446,
      "Ġà®īà®ªà®ļ": 7447,
      "à®°à®³à®¯à®®": 7448,
      "ĠAN": 7449,
      "ĠAuthor": 7450,
      "edu": 7451,
      "à¯ģ?!": 7452,
      "itation": 7453,
      "ĠMT": 7454,
      "ĠMovies": 7455,
      "ĠMicro": 7456,
      "Ġ305": 7457,
      "à¯ģ...?": 7458,
      "à¯ģ...âĢĻâĢĻ": 7459,
      "omet": 7460,
      "Ġ256": 7461,
      "Ġtest": 7462,
      "Ġtotal": 7463,
      "Ġ146": 7464,
      "Ġ147": 7465,
      "Ġsing": 7466,
      "ĠRS": 7467,
      "à®ĵà®İà®¸": 7468,
      "ley": 7469,
      "ason": 7470,
      "Ġ174": 7471,
      "à®¤à®ķà®®à®±": 7472,
      "à®ªà®¯à®£à®Ļ": 7473,
      "Ġcard": 7474,
      "Ġ248": 7475,
      "101": 7476,
      "Ġà®īà®´à®µà®©": 7477,
      "ĠBank": 7478,
      "à®¿--": 7479,
      "ĠDI": 7480,
      "ĠDivision": 7481,
      "Ġment": 7482,
      "Ġmadh": 7483,
      "ĠGl": 7484,
      "Ġfriend": 7485,
      "Ġwebsite": 7486,
      "uni": 7487,
      "Ġbhp": 7488,
      "andard": 7489,
      "Ġ232": 7490,
      "ĠFM": 7491,
      "ĠHer": 7492,
      "188": 7493,
      "Ġhad": 7494,
      "ĠKa": 7495,
      "ĠKshatri": 7496,
      "à®¾!âĢĻâĢĻ": 7497,
      "152": 7498,
      "à®Ĭà®±": 7499,
      "à®Ĭà®µ": 7500,
      "à®Ĭà®ļ": 7501,
      "Ġà®¤à®Łà®µà®µ": 7502,
      "aksh": 7503,
      "ĠVe": 7504,
      "à®Īà®°à®®": 7505,
      "Ġnumber": 7506,
      "Ġaut": 7507,
      "Ġà®ªà®°à®®à®¤": 7508,
      "Ġdon": 7509,
      "Ġdis": 7510,
      "Ġdev": 7511,
      "Ġdef": 7512,
      "ĠWh": 7513,
      "ots": 7514,
      "umal": 7515,
      "umathi": 7516,
      "ĠInt": 7517,
      "ĠInject": 7518,
      "idhi": 7519,
      "]],": 7520,
      "144": 7521,
      "à®ķà®©à®®à®´": 7522,
      "à®ĥà®®": 7523,
      "acc": 7524,
      "Ġstat": 7525,
      "ĠRev": 7526,
      "ĠReport": 7527,
      "Ġ{\\": 7528,
      "Ġ{{": 7529,
      "Ġget": 7530,
      "à¤²": 7531,
      "angal": 7532,
      "ession": 7533,
      "Ġ332": 7534,
      "Ġep": 7535,
      "ocal": 7536,
      "iff": 7537,
      "ĠStories": 7538,
      "illa": 7539,
      "Ġà®³à®¤": 7540,
      "1985": 7541,
      "oney": 7542,
      "???": 7543,
      "à¥ĳ": 7544,
      "Ġvijay": 7545,
      "Ġvithyas": 7546,
      "ruct": 7547,
      "à¯ĪâĢ¦.": 7548,
      "à®ľà®¯à®¤à®ļà®®": 7549,
      "ĠPlay": 7550,
      "ambi": 7551,
      "oung": 7552,
      "Ġdire": 7553,
      "Ġprot": 7554,
      "à®£à®¨à®²à®©": 7555,
      "Ġ0112": 7556,
      "ATION": 7557,
      "ustral": 7558,
      "Ġ1882": 7559,
      "ĠØ¹": 7560,
      "azine": 7561,
      "Ġconnect": 7562,
      "Ġleft": 7563,
      "ÙĳÙ°": 7564,
      "EACH": 7565,
      "ĠðŁĴ": 7566,
      "ollica": 7567,
      "Ġrail": 7568,
      "Ġmeet": 7569,
      "voice": 7570,
      "Ġagain": 7571,
      "ĠSwami": 7572,
      "ĠÎ±": 7573,
      "Ġà®®à®°à®ķà®¤à®®": 7574,
      "ociety": 7575,
      "Ġarrest": 7576,
      "ĠNovember": 7577,
      "................................": 7578,
      "iamond": 7579,
      "ĠSchool": 7580,
      "unny": 7581,
      "Ġà®ıà®ķà®®à®©à®¤": 7582,
      "Ġbooks": 7583,
      "Ent": 7584,
      "Online": 7585,
      "rishnan": 7586,
      "ĠProfollica": 7587,
      "ĠUthayan": 7588,
      "Ġevery": 7589,
      "display": 7590,
      "ĠEducational": 7591,
      "Organ": 7592,
      "Ġvisit": 7593,
      "ĠDesign": 7594,
      "Ġflowers": 7595,
      "adesikan": 7596,
      "Ġà®®à®³à®®à®³à®µ": 7597,
      "ĠKALVI": 7598,
      "oronavirus": 7599,
      "âĤ¬": 7600,
      "ustralia": 7601,
      ",.": 7602,
      ",_": 7603,
      "044": 7604,
      "119": 7605,
      "240": 7606,
      "260": 7607,
      "420": 7608,
      "AY": 7609,
      "BF": 7610,
      "Cent": 7611,
      "Critic": 7612,
      "DIA": 7613,
      "EM": 7614,
      "Gen": 7615,
      "IF": 7616,
      "KA": 7617,
      "OO": 7618,
      "Par": 7619,
      "RC": 7620,
      "RL": 7621,
      "Raj": 7622,
      "Sir": 7623,
      "VII": 7624,
      "WD": 7625,
      "World": 7626,
      "ause": 7627,
      "band": 7628,
      "fir": 7629,
      "first": 7630,
      "gl": 7631,
      "gn": 7632,
      "gress": 7633,
      "hal": 7634,
      "ja": 7635,
      "kk": 7636,
      "lines": 7637,
      "ming": 7638,
      "nd": 7639,
      "off": 7640,
      "put": 7641,
      "post": 7642,
      "rd": 7643,
      "sg": 7644,
      "tx": 7645,
      "uz": 7646,
      "vin": 7647,
      "var": 7648,
      "Ãķ": 7649,
      "Ð°": 7650,
      "Ġ.,": 7651,
      "Ġann": 7652,
      "Ļı": 7653,
      "à¯§": 7654,
      "à¯įà¯į": 7655,
      "à¯į//": 7656,
      "à¯ģ}": 7657,
      "à®¤à®¯à®ª": 7658,
      "à®¤à®ļà®Ļ": 7659,
      "à®°à®µà®ļ": 7660,
      "à®°à®³à®ª": 7661,
      "à®¾).": 7662,
      "à®²à®¹": 7663,
      "à®©à®¤à®¤": 7664,
      "à®©à®Łà®°": 7665,
      "à®®à®ªà®Ł": 7666,
      "à®®à®ķà®ª": 7667,
      "à®®à®²à®®": 7668,
      "à®®à®¤à®°": 7669,
      "à®®à®¤à®µ": 7670,
      "à®®à®°à®ļ": 7671,
      "à®®à®±à®ķ": 7672,
      "à®®à®ķà®°à®®": 7673,
      "à®ªà®¯à®²": 7674,
      "à®ªà®¯à®ª": 7675,
      "à®¯à®µà®²": 7676,
      "à®¯à®ħà®°à®ļ": 7677,
      "à®µà®Łà®¤": 7678,
      "à®µà®ªà®ķ": 7679,
      "Ġà®ķà®¤à®®": 7680,
      "Ġà®ķà®¯à®¨": 7681,
      "à®ļà®¹": 7682,
      "à®¨à®µà®¨": 7683,
      "à¯ĩ(": 7684,
      "à¯ĩÂŃ": 7685,
      "à¯ĩ},": 7686,
      "Ġà®ħà®ļà®©": 7687,
      "Ġà®¤à®ķà®µ": 7688,
      "Ġà®¤à®Łà®ª": 7689,
      "Ġà®¤à®ķà®´": 7690,
      "Ġà®¤à®ķà®©": 7691,
      "à®£à®ķà®¤": 7692,
      "Ġà®ļà®ķà®Ł": 7693,
      "Ġà®ĩà®Łà®²": 7694,
      "Ġà®¨à®µà®¤": 7695,
      "à¯ĭ),": 7696,
      "à¯į.âĢĺâĢĺ": 7697,
      "à¯Ĭà®¿": 7698,
      "à®´à®£": 7699,
      "à¯Ģ(": 7700,
      "à¯Ģ?": 7701,
      "Ġà®Ĩà®¤à®©": 7702,
      "Ġà®Ĩà®²à®¤": 7703,
      "Ġà®Ĩà®³à®µ": 7704,
      "à¯ģ.-": 7705,
      "Ġà®Ĵà®®à®°": 7706,
      "à®¸à®¹à®¸": 7707,
      "Ġà®ħà®¤à®©à®°": 7708,
      "à®Łà®¤à®¤": 7709,
      "à®Łà®®à®²": 7710,
      "à®¤à®²à®Ł": 7711,
      "à®¤à®²à®µ": 7712,
      "Ġà®°à®²": 7713,
      "Ġà®°à®¤à®¤": 7714,
      "Ġà®°à®®à®£à®©": 7715,
      "à®°à®®à®¨": 7716,
      "Ġà®īà®³à®°": 7717,
      "à®ľà®ķà®£": 7718,
      "à®ĩà®Łà®Ļ": 7719,
      "à®·à®ļ": 7720,
      "à®¯à®°à®©": 7721,
      "Ġà®Łà®¯à®¸": 7722,
      "Ġà®ªà®²à®ļà®°à®ķ": 7723,
      "à®ķà®²à®µà®°à®¤": 7724,
      "Ġà®ľà®ķà®®": 7725,
      "à®²à®®à®²": 7726,
      "à®²à®®à®£": 7727,
      "Ġà®ķà®²à®µà®©": 7728,
      "Ġà®ķà®²à®ļà®®": 7729,
      "à®ħà®¯à®²": 7730,
      "à®ħà®¹": 7731,
      "à®İà®²à®ķ": 7732,
      "Ġà®Ĭà®®à®¤": 7733,
      "Ġà®®à®©à®µà®³à®°": 7734,
      "à®®à®©à®ª": 7735,
      "Ġà®¯à®¨": 7736,
      "Ġà®¯à®ľ": 7737,
      "Ġà®¯à®·": 7738,
      "à®ļà®°à®ª": 7739,
      "Ġà®ªà®°à®¤à®®": 7740,
      "Ġà®ªà®¤à®Ļ": 7741,
      "Ġ---": 7742,
      "Ġà®ĵà®·": 7743,
      "Ġà®ĵà®ªà®°": 7744,
      "Ġà®ĵà®°à®Ł": 7745,
      "Ġà®®à®°à®¨": 7746,
      "à®Ĩà®Łà®®": 7747,
      "à®Ĩà®·": 7748,
      "Ġà®¸à®µ": 7749,
      "Ġà®¸à®¹": 7750,
      "Ġà®¸à®ĥà®ª": 7751,
      "Ġà®¤à®Łà®µà®ª": 7752,
      "Ġà®¹à®ľà®°": 7753,
      "Ġà®Ĳà®²": 7754,
      "Ġà®Ĳà®µ": 7755,
      "Ġà®Ĳà®Ĩà®°": 7756,
      "à®¹à®®à®¤": 7757,
      "Ġ203": 7758,
      "à®²à®µà®Ļ": 7759,
      "à®µà®ķà®±": 7760,
      "Ġà®¨à®²à®Ļ": 7761,
      "Ġ415": 7762,
      "à®ļà®²à®ªà®¤": 7763,
      "à®²à®°à®Ļ": 7764,
      "Ġà®īà®¯à®°à®ķ": 7765,
      "à®ķà®£à®ª": 7766,
      "à®ķà®£à®µ": 7767,
      "inn": 7768,
      "inik": 7769,
      "amma": 7770,
      "Ġ7000": 7771,
      "à¯ĩà®¾âĢĮ": 7772,
      "à¯į...!!": 7773,
      "Ġà®ľà®©à®ļà®ķ": 7774,
      "Ġà®Ĩà®±à®°": 7775,
      "à®ıà®Ļ": 7776,
      "à®Ĳà®µ": 7777,
      "Ġà®ĩà®³à®¨à®°": 7778,
      "ony": 7779,
      "alink": 7780,
      "ilai": 7781,
      "à¯į\"),": 7782,
      "Ġà®Ĩà®¤à®µà®©": 7783,
      "Ġ999": 7784,
      "Ġà®ķà®©à®ķà®°à®¤": 7785,
      "ĠTeach": 7786,
      "thod": 7787,
      "195": 7788,
      "1949": 7789,
      "1952": 7790,
      "Ġà®ªà®ļà®µà®°": 7791,
      "Ġ157": 7792,
      "à¯į..\"": 7793,
      "enk": 7794,
      "à¯ģ!.": 7795,
      "ĠPra": 7796,
      "ĠPark": 7797,
      "ĠPrin": 7798,
      "ĠPlease": 7799,
      "Ġ129": 7800,
      "Ġ1280": 7801,
      "Ġ1847": 7802,
      "Ġ1878": 7803,
      "Ġ1856": 7804,
      "Ġ1867": 7805,
      "Ġ1897": 7806,
      "ĠSar": 7807,
      "ĠSur": 7808,
      "ĠSMS": 7809,
      "ĠCB": 7810,
      "ĠCC": 7811,
      "ĠCorona": 7812,
      "ĠCouncil": 7813,
      "ĠNad": 7814,
      "amily": 7815,
      "stories": 7816,
      "style": 7817,
      "ĠAD": 7818,
      "editor": 7819,
      "icha": 7820,
      "Ġà®ķà®Łà®©à®Ł": 7821,
      "iti": 7822,
      "itz": 7823,
      "ĠMot": 7824,
      "Ġà®ķà®ªà®ļ": 7825,
      "Ġ304": 7826,
      "Ġà®ĩà®®à®¯": 7827,
      "adurai": 7828,
      "omas": 7829,
      "Ġ168": 7830,
      "Ġty": 7831,
      "Ġtips": 7832,
      "à®®à®¨à®µà®®": 7833,
      "à®ļà®Łà®²à®®": 7834,
      "Ġ148": 7835,
      "Ġ149": 7836,
      "Ġsl": 7837,
      "Ġsee": 7838,
      "à®ĵà®¹": 7839,
      "lection": 7840,
      "Ġ176": 7841,
      "Ġclo": 7842,
      "Ġcond": 7843,
      "olv": 7844,
      "Ġpic": 7845,
      "Ġpage": 7846,
      "Ġperiod": 7847,
      "103": 7848,
      "à®ĩà®°à®ŀ": 7849,
      "à¯ģ);": 7850,
      "ĠDC": 7851,
      "ĠDream": 7852,
      "ĠDelhi": 7853,
      "Ġmin": 7854,
      "elvi": 7855,
      "à®¾...âĢĻâĢĻ": 7856,
      "ĠLiving": 7857,
      "Ġà®ªà®µà®³à®ª": 7858,
      "Ġ212": 7859,
      "Ġway": 7860,
      "Ġworld": 7861,
      "unk": 7862,
      "unty": 7863,
      "Ġbro": 7864,
      "Ġbet": 7865,
      "anda": 7866,
      "ĠOx": 7867,
      "Ġ235": 7868,
      "Ġ237": 7869,
      "riage": 7870,
      "ĠFast": 7871,
      "ĠFilm": 7872,
      "ĠHow": 7873,
      "ĠHead": 7874,
      "ĠHindu": 7875,
      "ulf": 7876,
      "ulation": 7877,
      "Ġhapp": 7878,
      "etic": 7879,
      "156": 7880,
      "258": 7881,
      "ĠVanni": 7882,
      "à¯ĩ...âĢĻâĢĻ": 7883,
      "Ġns": 7884,
      "Ġnan": 7885,
      "Ġactor": 7886,
      "à®¿...'": 7887,
      "Ġdep": 7888,
      "Ġ298": 7889,
      "ĠWi": 7890,
      "ĠWest": 7891,
      "ĠWith": 7892,
      "ume": 7893,
      "umin": 7894,
      "ima": 7895,
      "image": 7896,
      "à®¾',": 7897,
      "ĠInformation": 7898,
      "à¯Ī--": 7899,
      "Ġkm": 7900,
      "Ġ?âĢĿ": 7901,
      "Ġà®ĩà®²à®µà®ļà®ª": 7902,
      "osis": 7903,
      "osph": 7904,
      "Ġstation": 7905,
      "heated": 7906,
      "Ġla": 7907,
      "Ġlac": 7908,
      "Ġgirl": 7909,
      "à¯Ī?âĢĻ": 7910,
      "opp": 7911,
      "Ġ338": 7912,
      "à¯ĩ..?''": 7913,
      "udy": 7914,
      "Ġtamilnadu": 7915,
      "Ġà®Ĩà®ªà®°à®£": 7916,
      "iful": 7917,
      "ified": 7918,
      "à¯ĭ?'": 7919,
      "oken": 7920,
      "ĠâĢ¦âĢĿ": 7921,
      "ĠStalin": 7922,
      "à®¾âĢ¦âĢĿ": 7923,
      "ugg": 7924,
      "Ġstorm": 7925,
      "ĠYog": 7926,
      "Ġrhin": 7927,
      "ender": 7928,
      "ells": 7929,
      "elling": 7930,
      "ĠAnna": 7931,
      "1981": 7932,
      "à®¤à®ķà®µà®²à®±": 7933,
      "ĠCommission": 7934,
      "Ġvir": 7935,
      "ĠÃ¾": 7936,
      "Ġwhen": 7937,
      "quently": 7938,
      "Ġcholas": 7939,
      "ĠQbic": 7940,
      "à®µà®Łà®®à®°": 7941,
      "Indian": 7942,
      "ense": 7943,
      "Ġjew": 7944,
      "Ġjust": 7945,
      "ĠiOS": 7946,
      "Ġasked": 7947,
      "ondon": 7948,
      "erman": 7949,
      "Ġà®ļà®¹à®¸": 7950,
      "Ġ1885": 7951,
      "ians": 7952,
      "ĠØª": 7953,
      "à¦¾": 7954,
      "ength": 7955,
      "Ġcons": 7956,
      "Ġmaruthuv": 7957,
      "ĠRatingà®¨à®Ł": 7958,
      "Ġplay": 7959,
      "ASS": 7960,
      "twitter": 7961,
      "--------": 7962,
      "Â®Â¤": 7963,
      "ancy": 7964,
      "ĠBookmark": 7965,
      "ĠConcertoà®µ": 7966,
      "ĠSTD": 7967,
      "========": 7968,
      "alanis": 7969,
      "ĠIndumathi": 7970,
      "International": 7971,
      "Avg": 7972,
      "Ġà®µà®ļà®©à®ķà®°": 7973,
      "á¹Ń": 7974,
      "ĠSubeditor": 7975,
      "Ġruins": 7976,
      "Ġcentury": 7977,
      "orporation": 7978,
      "ĠPadasalai": 7979,
      "eptember": 7980,
      "ĠTalkies": 7981,
      "ĠNamakkal": 7982,
      "Ġpermalink": 7983,
      "ĠDegnight": 7984,
      "ĠInjection": 7985,
      "Ġrailway": 7986,
      "displaystyle": 7987,
      "Organization": 7988,
      "txt": 7989,
      "'.": 7990,
      "-)": 7991,
      ".),": 7992,
      "112": 7993,
      "230": 7994,
      "210": 7995,
      "225": 7996,
      "3000": 7997,
      "440": 7998,
      "499": 7999,
      "428": 8000,
      ">[": 8001,
      "Boss": 8002,
      "David": 8003,
      "EP": 8004,
      "Feb": 8005,
      "GS": 8006,
      "John": 8007,
      "KS": 8008,
      "LS": 8009,
      "Languages": 8010,
      "Mo": 8011,
      "PO": 8012,
      "Press": 8013,
      "RF": 8014,
      "Sc": 8015,
      "UP": 8016,
      "Vide": 8017,
      "You": 8018,
      "Yarl": 8019,
      "[âĢ¦]": 8020,
      "cm": 8021,
      "down": 8022,
      "eas": 8023,
      "ger": 8024,
      "gar": 8025,
      "iri": 8026,
      "mall": 8027,
      "nam": 8028,
      "pa": 8029,
      "rut": 8030,
      "rang": 8031,
      "rome": 8032,
      "rolle": 8033,
      "sur": 8034,
      "soft": 8035,
      "ting": 8036,
      "ued": 8037,
      "uild": 8038,
      "vent": 8039,
      "ways": 8040,
      "yal": 8041,
      "yout": 8042,
      "yarl": 8043,
      "Ã²": 8044,
      "Ã¼": 8045,
      "Ãħ": 8046,
      "Øµ": 8047,
      "à¨": 8048,
      "îı": 8049,
      "Ġur": 8050,
      "à¯į<": 8051,
      "à®¿[": 8052,
      "à®ķà®ĩà®°": 8053,
      "à®ķà®ľà®¤": 8054,
      "à®¤à®¯à®µ": 8055,
      "à®¤à®īà®°": 8056,
      "à®°à®µà®²à®©": 8057,
      "à®Łà®±à®ķ": 8058,
      "à®Łà®¨à®Łà®µà®Ł": 8059,
      "à®¾_": 8060,
      "à®¾à¯Ĩ": 8061,
      "à®¾à®¾à®¿": 8062,
      "à®¾ïģ": 8063,
      "à®²à®ªà®°": 8064,
      "à®²à®©à®®": 8065,
      "à®©à®µà®ķ": 8066,
      "à®©à®ķà®°à®®": 8067,
      "à®®à®ļà®®": 8068,
      "à®ªà®µà®ļ": 8069,
      "à¯Ī&": 8070,
      "à®³à®ŀ": 8071,
      "à®¯à®£à®ķ": 8072,
      "à®¯à®īà®¤à®µ": 8073,
      "à®µà®¯à®°": 8074,
      "à®µà®¯à®ª": 8075,
      "à®µà®®à®¤": 8076,
      "Ġà®ķà®ļà®Ļ": 8077,
      "Ġà®ķà®ļà®Ł": 8078,
      "à®ļà®ľ": 8079,
      "Ġà®®à®ª": 8080,
      "Ġà®®à®²à®Ļ": 8081,
      "à®ķà®³à®ļ": 8082,
      "à®¨à®·": 8083,
      "à®¨à®°à®ļ": 8084,
      "Ġà®ħà®ķà®µà®²": 8085,
      "Ġà®ħà®ĥ": 8086,
      "Ġà®¤à®©à®°": 8087,
      "Ġà®ļà®ķà®²à®®": 8088,
      "Ġà®ĩà®İà®®": 8089,
      "Ġà®¨à®ķà®¤": 8090,
      "Ġà®¨à®¹": 8091,
      "à¯ĭâĢ¦.": 8092,
      "à®ªà®Łà®²à®¤": 8093,
      "à¯į,âĢ¦": 8094,
      "à¯ĢâĢĮ": 8095,
      "à¯Ĥ\"": 8096,
      "à¯ĤÂŃ": 8097,
      "Ġà®īà®¯à®µ": 8098,
      "Ġà®ĩà®°à®µà®²": 8099,
      "à®Łà®¤à®®": 8100,
      "à®µà®¤à®²": 8101,
      "à®µà®¤à®¨": 8102,
      "âĢ²": 8103,
      "âĢ³": 8104,
      "à®³à®¤à®®à®©": 8105,
      "à®°à®®à®°à®¤": 8106,
      "Ġà®ıà®Ĩà®°": 8107,
      "à®Łà®©à®ķ": 8108,
      "à®¯à®²à®¤": 8109,
      "à®¤à®®à®©à®¤": 8110,
      "à®¯à®®à®®": 8111,
      "à®Łà®°à®¤": 8112,
      "à®ĩà®¤à®°": 8113,
      "à®ĩà®©à®®": 8114,
      "à®ĩà®¹": 8115,
      "à®ĩà®°à®ķ": 8116,
      "à®·à®¨": 8117,
      "à®¯à®°à®ķ": 8118,
      "à®³à®°à®ļà®©": 8119,
      "Ġà®ªà®Łà®²à®¤": 8120,
      "Ġà®ĩà®²à®¨": 8121,
      "à®µà®©à®ļ": 8122,
      "Ġà®ªà®²à®ªà®Ł": 8123,
      "Ġà®ľà®©à®®": 8124,
      "Ġà®ľà®¯à®°à®¤": 8125,
      "à®¤à®°à®µà®¤": 8126,
      "à®¤à®°à®£à®®": 8127,
      "Ġà®ķà®£à®©": 8128,
      "Ġà®ķà®²à®ļ": 8129,
      "Ġà®ķà®²à®µà®°": 8130,
      "à®ħà®²à®°": 8131,
      "à®ħà®µà®©à®¤": 8132,
      "Ġ(+": 8133,
      "Ġà®ļà®®à®£à®®": 8134,
      "Ġà®¤à®²à®ļ": 8135,
      "à®¤à®µà®³à®¤": 8136,
      "à®¤à®µà®©à®¤": 8137,
      "à®®à®²à®¨": 8138,
      "à®ļà®®à®¸": 8139,
      "Ġà®Ĭà®ªà®°": 8140,
      "Ġà®²à®¸": 8141,
      "Ġà®®à®©à®µà®²": 8142,
      "à®ļà®°à®Ļ": 8143,
      "Ġà®īà®£à®µà®ķ": 8144,
      "à®¯à®ķà®ļ": 8145,
      "à®µà®²à®ķà®°": 8146,
      "Ġà®ĵà®µà®©": 8147,
      "Ġà®ĵà®¯à®µ": 8148,
      "à®Ĩà®²à®¨": 8149,
      "à®Ĩà®²à®¯à®¤": 8150,
      "à®´à®ķà®ħà®°à®ļ": 8151,
      "Ġà®¸à®¯": 8152,
      "à®°à®ļà®±": 8153,
      "à®ļà®©à®µà®°": 8154,
      "Ġà®¤à®Łà®µà®²": 8155,
      "Ġà®¤à®Łà®ķà®³à®ª": 8156,
      "à®¯à®µà®£": 8157,
      "Ġà®Ĳà®ļà®°": 8158,
      "Ġ202": 8159,
      "Ġ204": 8160,
      "Ġà®Ĩà®¯à®©à®°": 8161,
      "Ġ520": 8162,
      "...!!!": 8163,
      "à¯į!.": 8164,
      "à®®à®°à®°": 8165,
      "à®®à®°à®µ": 8166,
      "Ġ411": 8167,
      "Ġ470": 8168,
      "Ġ466": 8169,
      "Ġ1904": 8170,
      "à®ĩà®¤à®¯à®¤": 8171,
      "à®¾?-": 8172,
      "à®¾?..": 8173,
      "indi": 8174,
      "ination": 8175,
      "Ġ620": 8176,
      "Ġ640": 8177,
      "Ġà®ªà®´à®µ": 8178,
      "amakathai": 8179,
      "Ġ737": 8180,
      "à®°à®ķà®¨": 8181,
      "Ġà®ľà®©à®ķ": 8182,
      "Ġà®ķà®µà®£": 8183,
      ".,-": 8184,
      "à®Ĳà®¯à®ª": 8185,
      "Ġà®ĥà®ªà®¸": 8186,
      "Ġ829": 8187,
      "oned": 8188,
      "ald": 8189,
      "alavu": 8190,
      "allos": 8191,
      "âĢ¦âĢ¦.": 8192,
      "ilight": 8193,
      "Ġ9000": 8194,
      "Ġ911": 8195,
      "Ġ:''": 8196,
      "196": 8197,
      "1963": 8198,
      "1951": 8199,
      "Ġ159": 8200,
      "à®ªà®£à®µ": 8201,
      "ĠPH": 8202,
      "ĠPre": 8203,
      "Ġ181": 8204,
      "Ġ1850": 8205,
      "Ġ1801": 8206,
      "Ġ1864": 8207,
      "ĠSat": 8208,
      "ĠNE": 8209,
      "ĠNS": 8210,
      "ste": 8211,
      "story": 8212,
      "ĠAud": 8213,
      "ices": 8214,
      "icine": 8215,
      "ita": 8216,
      "iter": 8217,
      "itical": 8218,
      "ewart": 8219,
      "ĠMI": 8220,
      "ĠMK": 8221,
      "ĠMa": 8222,
      "ĠMc": 8223,
      "ĠMLA": 8224,
      "ĠMusic": 8225,
      "à¯ģ......": 8226,
      "adan": 8227,
      "adum": 8228,
      "omi": 8229,
      "Ġ139": 8230,
      "Ġ1300": 8231,
      "Ġtalk": 8232,
      "Ġtreatment": 8233,
      "Ġsign": 8234,
      "ĠRoy": 8235,
      "à®ĵà®¤": 8236,
      "asc": 8237,
      "ased": 8238,
      "asumai": 8239,
      "Ġ179": 8240,
      "Ġthose": 8241,
      "à¯ĩ!\"": 8242,
      "Ġcount": 8243,
      "Ġcourt": 8244,
      "ĠIM": 8245,
      "Ġ241": 8246,
      "Ġ242": 8247,
      "Ġ243": 8248,
      "Ġpay": 8249,
      "Ġport": 8250,
      "Ġpatri": 8251,
      "urs": 8252,
      "urasu": 8253,
      "102": 8254,
      "ĠBut": 8255,
      "ĠBack": 8256,
      "ĠBrit": 8257,
      "ĠBJP": 8258,
      "à®ĩà®°à®ķà®ļ": 8259,
      "215": 8260,
      "aiy": 8261,
      "ĠDra": 8262,
      "Ġà®Ĭà®Łà®ķà®ķ": 8263,
      "Ġmo": 8264,
      "Ġmov": 8265,
      "Ġmust": 8266,
      "ĠLand": 8267,
      "ĠLank": 8268,
      "ĠLife": 8269,
      "ĠGala": 8270,
      "chool": 8271,
      "Ġ217": 8272,
      "Ġ218": 8273,
      "Ġ2100": 8274,
      "Ġbec": 8275,
      "Ġ406": 8276,
      "agh": 8277,
      "agu": 8278,
      "Ġà®ªà®²à®©à®Ł": 8279,
      "Ġinf": 8280,
      "Ġinto": 8281,
      "ĠOpt": 8282,
      "ĠOTT": 8283,
      "à¯ģ..âĢĻ": 8284,
      "à®Łà®¨à®²": 8285,
      "Ġ239": 8286,
      "Ġ227": 8287,
      "à®±à®°à®ļà®°": 8288,
      "à¯į'''": 8289,
      "Ġ274": 8290,
      "room": 8291,
      "ules": 8292,
      "Ġha": 8293,
      "Ġhair": 8294,
      "Ġhrs": 8295,
      "ĠEast": 8296,
      "ĠEliqu": 8297,
      "etter": 8298,
      "etkapp": 8299,
      "ĠKal": 8300,
      "ĠKing": 8301,
      "à®¾!âĢĻ": 8302,
      "155": 8303,
      "à®ļà®°à®µà®£à®ªà®µà®©": 8304,
      "aka": 8305,
      "ĠVett": 8306,
      "à®Īà®ļ": 8307,
      "ĠÂ¦": 8308,
      "Ġà®ķà®ļà®ķà®ļ": 8309,
      "emat": 8310,
      "à¯ĩ...âĢĿ": 8311,
      "cted": 8312,
      "Ġà®ªà®°à®®à®¹à®®": 8313,
      "uts": 8314,
      "Ġdel": 8315,
      "Ġdem": 8316,
      "Ġdise": 8317,
      "estones": 8318,
      "athud": 8319,
      "Ġ294": 8320,
      "ĠWW": 8321,
      "ĠWHO": 8322,
      "imurasu": 8323,
      "Ġà®°à®®à®³": 8324,
      "ĠInf": 8325,
      "Ġà®ķà®¤à®µà®£": 8326,
      "ĠâĢĭâĢĭ\"": 8327,
      "Ġà®ħà®ľà®¨": 8328,
      "Ġkelvi": 8329,
      "Ġketkapp": 8330,
      "à®¿?âĢĻâĢĻ": 8331,
      "ipe": 8332,
      "à¯ģâĢ¦!": 8333,
      "ĠUd": 8334,
      "à®īà®¤à®¯à®¨": 8335,
      "apur": 8336,
      "apalli": 8337,
      "232": 8338,
      "Ġlist": 8339,
      "Ġgood": 8340,
      "Ġgreat": 8341,
      "456": 8342,
      "angalam": 8343,
      "Ġ375": 8344,
      "Ġ377": 8345,
      "Ġvari": 8346,
      "opper": 8347,
      "ithi": 8348,
      "Ġà®īà®ªà®ķà®°à®£à®®": 8349,
      "Ġech": 8350,
      "richy": 8351,
      "ubaan": 8352,
      "cean": 8353,
      "à¯ĭ?âĢĻ": 8354,
      "à¯ĭ?''": 8355,
      "okind": 8356,
      "ityOf": 8357,
      "---": 8358,
      "ĠâĢ¦..": 8359,
      "ĠState": 8360,
      "Ġ==": 8361,
      "Ġà®ªà®°à®¤à®°": 8362,
      "illiam": 8363,
      "ugan": 8364,
      "isha": 8365,
      "1982": 8366,
      "ĠComment": 8367,
      "ĠComedy": 8368,
      "ptokind": 8369,
      "à®ľà®¯à®¤à®°à®£": 8370,
      "Ġjokes": 8371,
      "ĠAlcohol": 8372,
      "anaana": 8373,
      "Ġà®£à®®": 8374,
      "Ġunavu": 8375,
      "Ġmarriage": 8376,
      "View": 8377,
      "ÙĳÙĲ": 8378,
      "ettai": 8379,
      "Ġadd": 8380,
      "Ġadikk": 8381,
      "Ġpolice": 8382,
      "Ġ:-)": 8383,
      "ĠPhallos": 8384,
      "adhu": 8385,
      "âĢ¦âĢ¦âĢ¦âĢ¦": 8386,
      "Asi": 8387,
      "risten": 8388,
      "Ġà®ļà®°à®µà®£à®ª": 8389,
      "à®īà®´à®µà®°": 8390,
      "Ġacid": 8391,
      "Ġclick": 8392,
      "Ġdeath": 8393,
      "google": 8394,
      "ĠForum": 8395,
      "ĠMahadesikan": 8396,
      "Ġà¯§": 8397,
      "amaveri": 8398,
      "OLED": 8399,
      "ĠClass": 8400,
      "ĠResearch": 8401,
      "obert": 8402,
      "Ġà®Ķà®µ": 8403,
      "tainment": 8404,
      "wards": 8405,
      "ĠPhoto": 8406,
      "ĠQuestion": 8407,
      "Ġmarundhalavu": 8408,
      "NewsArt": 8409,
      "ĠInteractions": 8410,
      "Ġpreheated": 8411,
      "ĠDevelop": 8412,
      "ĠFrequently": 8413,
      "à®ĩà®³à®µà®°à®ļà®°": 8414,
      "izhakam": 8415,
      "Ġèĭıå·ŀäºĮæīĭè½¦å": 8416,
      "Ġbuyers": 8417,
      "CoV": 8418,
      "Ġtagged": 8419,
      "eylon": 8420,
      "etails": 8421,
      "Ġïĥ¼": 8422,
      "ould": 8423,
      "ĠTamizhakam": 8424,
      "Ġmodel": 8425,
      "Ġbeautiful": 8426,
      "mainEnt": 8427,
      "ĠDivisional": 8428,
      "Ġmadhubaan": 8429,
      "Video": 8430,
      "YarlVoice": 8431,
      "rolleyes": 8432,
      "yarlvoice": 8433,
      "îıĻ": 8434,
      "à®¾ïģª": 8435,
      "ĠGalaxy": 8436,
      "ĠEliquis": 8437,
      "ĠVettimurasu": 8438,
      "athudanaana": 8439,
      "Ġkelvigal": 8440,
      "Ġketkappadum": 8441,
      "ityOfPage": 8442,
      "Ġadikkadi": 8443,
      "ĠPhallosan": 8444,
      "NewsArticle": 8445,
      "mainEntityOfPage": 8446,
      "Ġmadhubaanathudanaana": 8447,
      ")âĢİ": 8448,
      "115": 8449,
      "220": 8450,
      "224": 8451,
      "5000": 8452,
      "510": 8453,
      "540": 8454,
      "599": 8455,
      "BO": 8456,
      "Bigg": 8457,
      "Can": 8458,
      "DC": 8459,
      "EU": 8460,
      "EY": 8461,
      "Fit": 8462,
      "HI": 8463,
      "Hy": 8464,
      "It": 8465,
      "KAR": 8466,
      "LM": 8467,
      "Mal": 8468,
      "Mobile": 8469,
      "Mbps": 8470,
      "NB": 8471,
      "Pan": 8472,
      "Previous": 8473,
      "RA": 8474,
      "Red": 8475,
      "SH": 8476,
      "SI": 8477,
      "Team": 8478,
      "UT": 8479,
      "VC": 8480,
      "bi": 8481,
      "bit": 8482,
      "book": 8483,
      "box": 8484,
      "do": 8485,
      "dha": 8486,
      "ful": 8487,
      "frac": 8488,
      "gi": 8489,
      "her": 8490,
      "hel": 8491,
      "high": 8492,
      "ki": 8493,
      "led": 8494,
      "mu": 8495,
      "mer": 8496,
      "rn": 8497,
      "rank": 8498,
      "si": 8499,
      "sal": 8500,
      "td": 8501,
      "tm": 8502,
      "tel": 8503,
      "vision": 8504,
      "wan": 8505,
      "ye": 8506,
      "zon": 8507,
      "Ã·": 8508,
      "Ð¾": 8509,
      "á¸": 8510,
      "áĥ": 8511,
      "Ġå": 8512,
      "Ġà¯ĩ": 8513,
      "Ġ000": 8514,
      "à¯ģâĢĺ": 8515,
      "à®ķà®ķà®°": 8516,
      "à®¤à®µà®©à®®": 8517,
      "à®°à®³à®°": 8518,
      "à®°à®³à®ķ": 8519,
      "à®¾à®¾": 8520,
      "à®²à®µà®Ł": 8521,
      "à®²à®¤à®©à®ª": 8522,
      "à®©à®Łà®ª": 8523,
      "à®©à®Łà®ķ": 8524,
      "à®©à®ķà®©": 8525,
      "à®®à®ļà®°": 8526,
      "à®®à®¯à®µ": 8527,
      "à®®à®ķà®ķ": 8528,
      "à®®à®°à®£à®¤": 8529,
      "à®ªà®¯à®¤": 8530,
      "à®ªà®³à®°": 8531,
      "à®³à®¨à®°": 8532,
      "à®¯à®ªà®°": 8533,
      "à®µà®ķà®²": 8534,
      "Ġà®ķà®®à®¤": 8535,
      "Ġà®ķà®ļà®©": 8536,
      "Ġà®ķà®ľà®©": 8537,
      "Ġà®ķà®ªà®Łà®®": 8538,
      "Ġà®ķà®ľà®ķ": 8539,
      "Ġà®ķà®¯à®µà®©": 8540,
      "à®ļà®ªà®®": 8541,
      "Ġà®®à®ĥà®ª": 8542,
      "Ġà®µà®©à®Ļ": 8543,
      "Ġà®µà®¶": 8544,
      "à®¨à®Łà®®": 8545,
      "à®¨à®Łà®©à®®": 8546,
      "Ġà®ħà®ķà®ķ": 8547,
      "à®£à®¯à®°": 8548,
      "à®£à®µà®ķ": 8549,
      "Ġà®ļà®µà®°à®®": 8550,
      "à¯į.!!": 8551,
      "à¯į,,": 8552,
      "à¯ĢÂŃ": 8553,
      "à¯Ģ),": 8554,
      "à¯Ĥ:": 8555,
      "Ġà®İà®©à®±": 8556,
      "à®¸à®¯": 8557,
      "à®¸à®Ļ": 8558,
      "Ġà®ħà®¤à®²": 8559,
      "Ġà®ħà®¤à®ª": 8560,
      "Ġà®ħà®¤à®ķà®³à®®": 8561,
      "Ġà®Ĵà®°à®³à®µ": 8562,
      "Ġà®ĩà®¨à®¤": 8563,
      "Ġà®°à®ļà®²": 8564,
      "Ġà®°à®£à®µ": 8565,
      "à®ķà®µà®©à®¤": 8566,
      "à®ľà®¯à®µà®°": 8567,
      "Ġà®ıà®¸": 8568,
      "Ġà®ħà®®à®£": 8569,
      "à®¯à®®à®¤": 8570,
      "à®ĩà®·": 8571,
      "à®ĩà®¯à®Ļ": 8572,
      "à®ĩà®´à®ª": 8573,
      "à®ĩà®ĵ": 8574,
      "à®ĩà®³à®¨": 8575,
      "à®·à®µà®°": 8576,
      "Ġà®ªà®Łà®²à®Ļ": 8577,
      "Ġà®ĩà®²à®µà®ļà®¤": 8578,
      "à®¿.!": 8579,
      "à®¿.âĢĿ": 8580,
      "à®¿.--": 8581,
      "Ġà®ľà®¯à®®": 8582,
      "Ġà®ľà®µà®Ł": 8583,
      "Ġà®ľà®¯à®µ": 8584,
      "Ġà®ľà®ķà®©": 8585,
      "Ġà®®à®ķà®¤à®²": 8586,
      "à®¤à®°à®µà®°": 8587,
      "à®ħà®Łà®ª": 8588,
      "à®ħà®±à®ķ": 8589,
      "à®ħà®°à®Ļ": 8590,
      "ĠâĢº": 8591,
      "à¯Ī.(": 8592,
      "à¯Ī.âĢĻ": 8593,
      "Ġà®ħà®²à®ļà®µ": 8594,
      "à®®à®²à®ļ": 8595,
      "Ġà®ķà®°à®ķà®°à®ª": 8596,
      "Ġà®ħà®µà®©à®°": 8597,
      "Ġà®¤à®©à®²": 8598,
      "à®ļà®®à®¯": 8599,
      "Ġà®Ĭà®Łà®Ļ": 8600,
      "à¯Ī,\"": 8601,
      "Ġà®²à®µà®Ļ": 8602,
      "Ġà®¯à®¸": 8603,
      "à®ļà®°à®µà®£à®ķ": 8604,
      "Ġà®ªà®°à®ªà®°": 8605,
      "Ġà®ªà®°à®ªà®°à®ķ": 8606,
      "Ġà®ªà®°à®µà®ļà®ª": 8607,
      "Ġà®ªà®¤à®±à®µ": 8608,
      "Ġà®ĵà®£": 8609,
      "Ġà®ĵà®Łà®¤": 8610,
      "à®Ĩà®ŀ": 8611,
      "à®Ĩà®²à®®": 8612,
      "à®Ĩà®´à®®": 8613,
      "Ġà®¸à®°à®¸": 8614,
      "à®µà®®à®¯à®®": 8615,
      "Ġà®ļà®°à®Ł": 8616,
      "Ġà®ļà®°à®¯": 8617,
      "à®³à®®à®¯à®®": 8618,
      "Ġ324": 8619,
      "Ġ399": 8620,
      "Ġ2025": 8621,
      "Ġà®Īà®¯à®¤": 8622,
      "à®²à®µà®³": 8623,
      "Ġ538": 8624,
      "...âĢĻâĢĻ": 8625,
      "ĠĠĠĠĠĠĠĠĠĠĠĠĠĠĠĠĠĠĠĠĠĠĠĠĠĠĠĠĠĠĠĠĠĠĠĠĠĠĠĠĠĠĠĠĠĠĠĠĠĠĠĠĠĠĠĠĠĠĠĠĠĠĠ": 8626,
      "Ġ428": 8627,
      "Ġ191": 8628,
      "Ġ1902": 8629,
      "à®¾?:": 8630,
      "ino": 8631,
      "iny": 8632,
      "inanc": 8633,
      "Ġ625": 8634,
      "Ġ666": 8635,
      "à¯į)\"": 8636,
      "ams": 8637,
      "à®ªà®¨à®²": 8638,
      "Ġà®ļà®ķà®ľ": 8639,
      "à¯į...........": 8640,
      "à®ĥà®ªà®¸": 8641,
      "aterm": 8642,
      "Ġà®ķà®´à®£": 8643,
      "erc": 8644,
      "à®ıà®²à®ķ": 8645,
      "Ġà®ķà®®à®¨à®²": 8646,
      "à®Ĳà®¤": 8647,
      "à®Ĳà®¯à®©": 8648,
      "Ġà®ĥà®ªà®Ļ": 8649,
      "onn": 8650,
      "arge": 8651,
      "à®µà®¨à®¤": 8652,
      "ily": 8653,
      "iler": 8654,
      "ilar": 8655,
      "iling": 8656,
      "ĠTER": 8657,
      "ĠTrans": 8658,
      "ĠTEACH": 8659,
      "thai": 8660,
      "à¯įâĢĿ-": 8661,
      "192": 8662,
      "1900": 8663,
      "1930": 8664,
      "1917": 8665,
      "1939": 8666,
      "1955": 8667,
      "Ġà®İà®µà®³": 8668,
      "ĠPay": 8669,
      "ĠPet": 8670,
      "ĠPAN": 8671,
      "ĠPres": 8672,
      "ĠPRO": 8673,
      "ĠPasumai": 8674,
      "Ġ1870": 8675,
      "Ġ1896": 8676,
      "Ġ1859": 8677,
      "Ġ1872": 8678,
      "Ġ1888": 8679,
      "Ġ1853": 8680,
      "à®¤à®ļà®·": 8681,
      "ĠSD": 8682,
      "ĠSo": 8683,
      "ĠSan": 8684,
      "ĠSol": 8685,
      "ĠSun": 8686,
      "ĠSAR": 8687,
      "Ġà®µà®³à®µà®©": 8688,
      "ĠClo": 8689,
      "ĠCFA": 8690,
      "ĠNyas": 8691,
      "ĠNaan": 8692,
      "ĠNote": 8693,
      "ĠNatural": 8694,
      "ĠAG": 8695,
      "ĠAug": 8696,
      "ĠASP": 8697,
      "ĠALL": 8698,
      "à¯ģ??": 8699,
      "icy": 8700,
      "itol": 8701,
      "ĠMS": 8702,
      "ĠMo": 8703,
      "ĠMir": 8704,
      "ĠMac": 8705,
      "ĠModi": 8706,
      "ĠMale": 8707,
      "ĠMakkal": 8708,
      "à¯ģ...âĢĻ": 8709,
      "Ġà®Īà®°à®¨": 8710,
      "Ġtemple": 8711,
      "reg": 8712,
      "Ġsystem": 8713,
      "Ġsocial": 8714,
      "ĠRO": 8715,
      "ĠRh": 8716,
      "ĠRet": 8717,
      "ĠRadio": 8718,
      "à®ĵà®®à®²": 8719,
      "ĠTamilwin": 8720,
      "Ġthod": 8721,
      "Ġthambi": 8722,
      "à¯ĩ!.": 8723,
      "Ġcc": 8724,
      "Ġcr": 8725,
      "Ġcre": 8726,
      "Ġcur": 8727,
      "Ġcod": 8728,
      "Ġchan": 8729,
      "Ġcase": 8730,
      "Ġcolle": 8731,
      "ĠIII": 8732,
      "ĠpH": 8733,
      "Ġpad": 8734,
      "Ġperson": 8735,
      "Ġprice": 8736,
      "Ġpresent": 8737,
      "306": 8738,
      "104": 8739,
      "109": 8740,
      "ĠBh": 8741,
      "ĠBro": 8742,
      "Ġà®ªà®°à®ªà®°à®¤": 8743,
      "ĠNewspaper": 8744,
      "aith": 8745,
      "ĠDig": 8746,
      "ĠDownload": 8747,
      "ĠDrive": 8748,
      "Ġmark": 8749,
      "Ġmother": 8750,
      "ĠLa": 8751,
      "ĠGent": 8752,
      "ĠGiz": 8753,
      "ĠGHz": 8754,
      "Ġ211": 8755,
      "Ġ213": 8756,
      "Ġ216": 8757,
      "Ġfact": 8758,
      "Ġwest": 8759,
      "agn": 8760,
      "Ġ238": 8761,
      "Ġ226": 8762,
      "ried": 8763,
      "ĠFocus": 8764,
      "à®£à®±à®Ł": 8765,
      "122": 8766,
      "Ġ276": 8767,
      "rot": 8768,
      "rough": 8769,
      "ulite": 8770,
      "Ġhim": 8771,
      "Ġhow": 8772,
      "ĠEp": 8773,
      "ĠEur": 8774,
      "ĠEptokind": 8775,
      "à¯ģâĢĿ,": 8776,
      "Ġ268": 8777,
      "à®Ĭà®®": 8778,
      "Ġ284": 8779,
      "akistan": 8780,
      "ĠVid": 8781,
      "à®Īà®®": 8782,
      "ĠÂ½": 8783,
      "eme": 8784,
      "Ġav": 8785,
      "Ġaunty": 8786,
      "irth": 8787,
      "utral": 8788,
      "Ġdr": 8789,
      "Ġdate": 8790,
      "Ġdisc": 8791,
      "atham": 8792,
      "Ġ292": 8793,
      "ĠWeb": 8794,
      "à®¾âĢĻ.": 8795,
      "umari": 8796,
      "161": 8797,
      "164": 8798,
      "167": 8799,
      "170": 8800,
      "Ġtour": 8801,
      "Ġkar": 8802,
      "Ġ352": 8803,
      "137": 8804,
      "139": 8805,
      "147": 8806,
      "à®¿?\"": 8807,
      "aves": 8808,
      "à®ĥà®®à®©": 8809,
      "iger": 8810,
      "ĠUT": 8811,
      "Ġ50000": 8812,
      "Ġà®©à®¤": 8813,
      "Ġ802": 8814,
      "Ġlab": 8815,
      "Ġgen": 8816,
      "à¤¸": 8817,
      "ĠJuly": 8818,
      "à¯Ī?'": 8819,
      "istry": 8820,
      "ĠChoco": 8821,
      "ability": 8822,
      "organ": 8823,
      "Ġ385": 8824,
      "eck": 8825,
      "Ġred": 8826,
      "Ġà®ĥà®µ": 8827,
      "endul": 8828,
      "ellery": 8829,
      "eva": 8830,
      "à¥Ģ": 8831,
      "ĠArch": 8832,
      "ression": 8833,
      "ajor": 8834,
      "à¯į........": 8835,
      "à¯įâĢ¦.âĢĿ": 8836,
      "ĠProgram": 8837,
      "appa": 8838,
      "appadi": 8839,
      "Ġproble": 8840,
      "Ġexper": 8841,
      "Ġ1883": 8842,
      "Ġà®Ĩà®·à®¸": 8843,
      "Ġlove": 8844,
      "ological": 8845,
      "ĠRamesh": 8846,
      "Ġlead": 8847,
      "ĠUnit": 8848,
      "Ġshould": 8849,
      "ablet": 8850,
      "ĠShort": 8851,
      "ĠAMOLED": 8852,
      "ĠMarch": 8853,
      "retch": 8854,
      "à®Ĩà®µà®£à®Ļ": 8855,
      "arman": 8856,
      "armers": 8857,
      "rigin": 8858,
      "Î¼à®ļ": 8859,
      "ĠEdition": 8860,
      "udio": 8861,
      "ategory": 8862,
      "ĠINDIA": 8863,
      "ĠEngine": 8864,
      "à¯į.........": 8865,
      "ĠEnter": 8866,
      "ictionary": 8867,
      "Ġimp": 8868,
      "à¯į..!!âĢĿ": 8869,
      "ĠJanuary": 8870,
      "Spark": 8871,
      "ween": 8872,
      "ĠISO": 8873,
      "Ġtrav": 8874,
      "ĠITU": 8875,
      "amalar": 8876,
      "ĠHealth": 8877,
      "drome": 8878,
      "Ġyears": 8879,
      "ĠCentre": 8880,
      "ĠAPI": 8881,
      "ĠViral": 8882,
      "Ġknown": 8883,
      "ĠSingh": 8884,
      "ĠTRB": 8885,
      "ĠBengal": 8886,
      "Ġfront": 8887,
      "ĠNetwork": 8888,
      "ĠMessages": 8889,
      "ĠLimited": 8890,
      "ĠGaAs": 8891,
      "lobal": 8892,
      "Ġmention": 8893,
      "Central": 8894,
      "ichael": 8895,
      "ĠHeadlines": 8896,
      "Ġmaruthuvam": 8897,
      "ĠAudit": 8898,
      "ĠDevelopment": 8899,
      "highlight": 8900,
      "inancial": 8901,
      "ĠTEACHERS": 8902,
      "ĠNyasam": 8903,
      "ĠChocoFit": 8904,
      "ĠRameshwaram": 8905,
      ".<": 8906,
      ".âĢĻ": 8907,
      "050": 8908,
      "099": 8909,
      "121": 8910,
      "417": 8911,
      "480": 8912,
      "560": 8913,
      "526": 8914,
      "880": 8915,
      ":)": 8916,
      ":-": 8917,
      "Ac": 8918,
      "BB": 8919,
      "BM": 8920,
      "DB": 8921,
      "DO": 8922,
      "Di": 8923,
      "FO": 8924,
      "Go": 8925,
      "GHz": 8926,
      "HL": 8927,
      "KI": 8928,
      "LAN": 8929,
      "LED": 8930,
      "Man": 8931,
      "Moh": 8932,
      "Na": 8933,
      "Next": 8934,
      "Ram": 8935,
      "Rel": 8936,
      "Sur": 8937,
      "Sub": 8938,
      "TA": 8939,
      "UD": 8940,
      "VA": 8941,
      "VP": 8942,
      "Vann": 8943,
      "Waterm": 8944,
      "];": 8945,
      "]</": 8946,
      "aught": 8947,
[...]
