{
  "version": "1.0",
  "truncation": null,
  "padding": null,
  "added_tokens": [
    {
      "id": 0,
      "content": "[UNK]",
      "single_word": false,
      "lstrip": false,
      "rstrip": false,
      "normalized": false,
      "special": true
    },
    {
      "id": 1,
      "content": "[PAD]",
      "single_word": false,
      "lstrip": false,
      "rstrip": false,
      "normalized": false,
      "special": true
    },
    {
      "id": 2,
      "content": "[CLS]",
      "single_word": false,
      "lstrip": false,
      "rstrip": false,
      "normalized": false,
      "special": true
    },
    {
      "id": 3,
      "content": "[SEP]",
      "single_word": false,
      "lstrip": false,
      "rstrip": false,
      "normalized": false,
      "special": true
    },
    {
      "id": 4,
      "content": "[MASK]",
      "single_word": false,
      "lstrip": false,
      "rstrip": false,
      "normalized": false,
      "special": true
    }
  ],
  "normalizer": {
    "type": "NFKC"
  },
  "pre_tokenizer": {
    "type": "Whitespace"
  },
  "post_processor": null,
  "decoder": null,
  "model": {
    "type": "BPE",
    "dropout": null,
    "unk_token": "[UNK]",
    "continuing_subword_prefix": null,
    "end_of_word_suffix": null,
    "fuse_unk": false,
    "byte_fallback": false,
    "ignore_merges": false,
    "vocab": {
      "[UNK]": 0,
      "[PAD]": 1,
      "[CLS]": 2,
      "[SEP]": 3,
      "[MASK]": 4,
      "!": 5,
      "\"": 6,
      "#": 7,
      "$": 8,
      "%": 9,
      "&": 10,
      "'": 11,
      "(": 12,
      ")": 13,
      "*": 14,
      "+": 15,
      ",": 16,
      "-": 17,
      ".": 18,
      "/": 19,
      "0": 20,
      "1": 21,
      "2": 22,
      "3": 23,
      "4": 24,
      "5": 25,
      "6": 26,
      "7": 27,
      "8": 28,
      "9": 29,
      ":": 30,
      ";": 31,
      "<": 32,
      "=": 33,
      ">": 34,
      "?": 35,
      "@": 36,
      "A": 37,
      "B": 38,
      "C": 39,
      "D": 40,
      "E": 41,
      "F": 42,
      "G": 43,
      "H": 44,
      "I": 45,
      "J": 46,
      "K": 47,
      "L": 48,
      "M": 49,
      "N": 50,
      "O": 51,
      "P": 52,
      "Q": 53,
      "R": 54,
      "S": 55,
      "T": 56,
      "U": 57,
      "V": 58,
      "W": 59,
      "X": 60,
      "Y": 61,
      "Z": 62,
      "[": 63,
      "\\": 64,
      "]": 65,
      "^": 66,
      "_": 67,
      "`": 68,
      "a": 69,
      "b": 70,
      "c": 71,
      "d": 72,
      "e": 73,
      "f": 74,
      "g": 75,
      "h": 76,
      "i": 77,
      "j": 78,
      "k": 79,
      "l": 80,
      "m": 81,
      "n": 82,
      "o": 83,
      "p": 84,
      "q": 85,
      "r": 86,
      "s": 87,
      "t": 88,
      "u": 89,
      "v": 90,
      "w": 91,
      "x": 92,
      "y": 93,
      "z": 94,
      "{": 95,
      "|": 96,
      "}": 97,
      "~": 98,
      "": 99,
      "": 100,
      "": 101,
      "": 102,
      "": 103,
      "": 104,
      "": 105,
      "": 106,
      "": 107,
      "": 108,
      "": 109,
      "": 110,
      "": 111,
      "": 112,
      "": 113,
      "¡": 114,
      "¢": 115,
      "£": 116,
      "¤": 117,
      "¥": 118,
      "¦": 119,
      "§": 120,
      "©": 121,
      "«": 122,
      "¬": 123,
      "­": 124,
      "®": 125,
      "°": 126,
      "±": 127,
      "·": 128,
      "»": 129,
      "¿": 130,
      "À": 131,
      "Á": 132,
      "Â": 133,
      "Ã": 134,
      "Ä": 135,
      "Å": 136,
      "Æ": 137,
      "Ç": 138,
      "È": 139,
      "É": 140,
      "Ê": 141,
      "Ì": 142,
      "Í": 143,
      "Î": 144,
      "Ð": 145,
      "Ò": 146,
      "Ó": 147,
      "Ô": 148,
      "Õ": 149,
      "Ö": 150,
      "×": 151,
      "Ø": 152,
      "Ú": 153,
      "Û": 154,
      "Ü": 155,
      "Þ": 156,
      "à": 157,
      "á": 158,
      "ã": 159,
      "ä": 160,
      "å": 161,
      "æ": 162,
      "ç": 163,
      "è": 164,
      "é": 165,
      "ê": 166,
      "ë": 167,
      "ì": 168,
      "í": 169,
      "î": 170,
      "ï": 171,
      "ð": 172,
      "ñ": 173,
      "ò": 174,
      "ó": 175,
      "ô": 176,
      "õ": 177,
      "ö": 178,
      "÷": 179,
      "ø": 180,
      "ù": 181,
      "ú": 182,
      "û": 183,
      "ü": 184,
      "ý": 185,
      "þ": 186,
      "Ā": 187,
      "ā": 188,
      "ď": 189,
      "đ": 190,
      "ē": 191,
      "ğ": 192,
      "ġ": 193,
      "Ĥ": 194,
      "ī": 195,
      "ı": 196,
      "ĵ": 197,
      "Ō": 198,
      "ō": 199,
      "Œ": 200,
      "Ś": 201,
      "Ş": 202,
      "Š": 203,
      "ū": 204,
      "ż": 205,
      "ƒ": 206,
      "ư": 207,
      "ǎ": 208,
      "ǒ": 209,
      "ǔ": 210,
      "ɑ": 211,
      "ə": 212,
      "ɛ": 213,
      "ɣ": 214,
      "ɤ": 215,
      "ɪ": 216,
      "ʃ": 217,
      "ʊ": 218,
      "ʌ": 219,
      "ʒ": 220,
      "ʻ": 221,
      "ʼ": 222,
      "ˈ": 223,
      "ː": 224,
      "́": 225,
      "̄": 226,
      "̈": 227,
      "̧": 228,
      "̯": 229,
      "͡": 230,
      "Β": 231,
      "Δ": 232,
      "Ε": 233,
      "Η": 234,
      "Θ": 235,
      "Ι": 236,
      "Ο": 237,
      "Π": 238,
      "Σ": 239,
      "Τ": 240,
      "Υ": 241,
      "Φ": 242,
      "Ω": 243,
      "ή": 244,
      "ί": 245,
      "α": 246,
      "β": 247,
      "γ": 248,
      "ε": 249,
      "θ": 250,
      "ι": 251,
      "κ": 252,
      "λ": 253,
      "μ": 254,
      "ν": 255,
      "ο": 256,
      "π": 257,
      "ρ": 258,
      "ς": 259,
      "σ": 260,
      "τ": 261,
      "φ": 262,
      "ω": 263,
      "ύ": 264,
      "А": 265,
      "В": 266,
      "И": 267,
      "М": 268,
      "Р": 269,
      "С": 270,
      "Ф": 271,
      "Ю": 272,
      "а": 273,
      "в": 274,
      "г": 275,
      "д": 276,
      "е": 277,
      "з": 278,
      "и": 279,
      "й": 280,
      "к": 281,
      "л": 282,
      "м": 283,
      "н": 284,
      "о": 285,
      "п": 286,
      "р": 287,
      "с": 288,
      "т": 289,
      "у": 290,
      "ф": 291,
      "х": 292,
      "ц": 293,
      "ч": 294,
      "ы": 295,
      "ь": 296,
      "ю": 297,
      "я": 298,
      "Ա": 299,
      "Յ": 300,
      "Ս": 301,
      "ա": 302,
      "ե": 303,
      "ի": 304,
      "լ": 305,
      "ճ": 306,
      "յ": 307,
      "ն": 308,
      "ո": 309,
      "ռ": 310,
      "վ": 311,
      "ր": 312,
      "ւ": 313,
      "ք": 314,
      "ְ": 315,
      "ִ": 316,
      "ָ": 317,
      "ֹ": 318,
      "ּ": 319,
      "ׁ": 320,
      "ד": 321,
      "ה": 322,
      "ו": 323,
      "י": 324,
      "ע": 325,
      "ק": 326,
      "ש": 327,
      "،": 328,
      "ؕ": 329,
      "؟": 330,
      "ء": 331,
      "آ": 332,
      "أ": 333,
      "إ": 334,
      "ا": 335,
      "ب": 336,
      "ة": 337,
      "ت": 338,
      "ث": 339,
      "ج": 340,
      "ح": 341,
      "خ": 342,
      "د": 343,
      "ذ": 344,
      "ر": 345,
      "ز": 346,
      "س": 347,
      "ش": 348,
      "ص": 349,
      "ض": 350,
      "ط": 351,
      "ظ": 352,
      "ع": 353,
      "غ": 354,
      "ـ": 355,
      "ف": 356,
      "ق": 357,
      "ك": 358,
      "ل": 359,
      "م": 360,
      "ن": 361,
      "ه": 362,
      "و": 363,
      "ى": 364,
      "ي": 365,
      "ً": 366,
      "ٌ": 367,
      "ٍ": 368,
      "َ": 369,
      "ُ": 370,
      "ِ": 371,
      "ّ": 372,
      "ْ": 373,
      "ٓ": 374,
      "ٔ": 375,
      "ٕ": 376,
      "ٖ": 377,
      "ٮ": 378,
      "ٰ": 379,
      "ڙ": 380,
      "ڠ": 381,
      "ک": 382,
      "ڪ": 383,
      "گ": 384,
      "ڻ": 385,
      "ھ": 386,
      "ہ": 387,
      "ی": 388,
      "ۚ": 389,
      "۞": 390,
      "މ": 391,
      "ސ": 392,
      "ޤ": 393,
      "ި": 394,
      "ު": 395,
      "ް": 396,
      "ँ": 397,
      "ं": 398,
      "ः": 399,
      "अ": 400,
      "ओ": 401,
      "औ": 402,
      "क": 403,
      "ग": 404,
      "घ": 405,
      "च": 406,
      "ज": 407,
      "ञ": 408,
      "ट": 409,
      "ड": 410,
      "ढ": 411,
      "ण": 412,
      "त": 413,
      "थ": 414,
      "द": 415,
      "ध": 416,
      "न": 417,
      "प": 418,
      "ब": 419,
      "भ": 420,
      "म": 421,
      "य": 422,
      "र": 423,
      "ल": 424,
      "ळ": 425,
      "व": 426,
      "श": 427,
      "ष": 428,
      "स": 429,
      "ह": 430,
      "़": 431,
      "ा": 432,
      "ि": 433,
      "ी": 434,
      "ु": 435,
      "ू": 436,
      "ृ": 437,
      "े": 438,
      "ै": 439,
      "ो": 440,
      "ौ": 441,
      "्": 442,
      "॑": 443,
      "॒": 444,
      "।": 445,
      "॥": 446,
      "॰": 447,
      "ঁ": 448,
      "ং": 449,
      "অ": 450,
      "আ": 451,
      "ও": 452,
      "ক": 453,
      "গ": 454,
      "ঘ": 455,
      "চ": 456,
      "জ": 457,
      "ঞ": 458,
      "ত": 459,
      "দ": 460,
      "ন": 461,
      "প": 462,
      "ব": 463,
      "ম": 464,
      "য": 465,
      "র": 466,
      "ল": 467,
      "শ": 468,
      "ষ": 469,
      "স": 470,
      "হ": 471,
      "়": 472,
      "া": 473,
      "ি": 474,
      "ী": 475,
      "ু": 476,
      "ে": 477,
      "ো": 478,
      "্": 479,
      "ৱ": 480,
      "৷": 481,
      "ਕ": 482,
      "ਤ": 483,
      "ਬ": 484,
      "ਮ": 485,
      "ਰ": 486,
      "ਲ": 487,
      "ਸ": 488,
      "ਾ": 489,
      "ਿ": 490,
      "ੀ": 491,
      "ੋ": 492,
      "ੰ": 493,
      "ત": 494,
      "પ": 495,
      "મ": 496,
      "લ": 497,
      "ા": 498,
      "િ": 499,
      "ી": 500,
      "્": 501,
      "କ": 502,
      "ଡ": 503,
      "ଣ": 504,
      "ତ": 505,
      "ମ": 506,
      "ର": 507,
      "ଲ": 508,
      "ଶ": 509,
      "଼": 510,
      "ା": 511,
      "ି": 512,
      "ୁ": 513,
      "୍": 514,
      "ஂ": 515,
      "ஃ": 516,
      "அ": 517,
      "ஆ": 518,
      "இ": 519,
      "ஈ": 520,
      "உ": 521,
      "ஊ": 522,
      "எ": 523,
      "ஏ": 524,
      "ஐ": 525,
      "ஒ": 526,
      "ஓ": 527,
      "ஔ": 528,
      "க": 529,
      "ங": 530,
      "ச": 531,
      "ஜ": 532,
      "ஞ": 533,
      "ட": 534,
      "஡": 535,
      "஢": 536,
      "ண": 537,
      "த": 538,
      "஦": 539,
      "ந": 540,
      "ன": 541,
      "ப": 542,
      "ம": 543,
      "ய": 544,
      "ர": 545,
      "ற": 546,
      "ல": 547,
      "ள": 548,
      "ழ": 549,
      "வ": 550,
      "ஶ": 551,
      "ஷ": 552,
      "ஸ": 553,
      "ஹ": 554,
      "ா": 555,
      "ி": 556,
      "ீ": 557,
      "ு": 558,
      "ூ": 559,
      "ெ": 560,
      "ே": 561,
      "ை": 562,
      "௉": 563,
      "ொ": 564,
      "ோ": 565,
      "ௌ": 566,
      "்": 567,
      "௦": 568,
      "௧": 569,
      "௨": 570,
      "௩": 571,
      "௪": 572,
      "௫": 573,
      "௬": 574,
      "௭": 575,
      "௮": 576,
      "௯": 577,
      "௲": 578,
      "ం": 579,
      "అ": 580,
      "క": 581,
      "ట": 582,
      "డ": 583,
      "ద": 584,
      "న": 585,
      "బ": 586,
      "మ": 587,
      "ర": 588,
      "ల": 589,
      "వ": 590,
      "శ": 591,
      "హ": 592,
      "ా": 593,
      "ి": 594,
      "ీ": 595,
      "ు": 596,
      "ో": 597,
      "్": 598,
      "ಂ": 599,
      "ಕ": 600,
      "ಗ": 601,
      "ಡ": 602,
      "ಣ": 603,
      "ತ": 604,
      "ದ": 605,
      "ಪ": 606,
      "ಮ": 607,
      "ರ": 608,
      "ಲ": 609,
      "ವ": 610,
      "ಶ": 611,
      "ಸ": 612,
      "ಾ": 613,
      "ಿ": 614,
      "ು": 615,
      "ೆ": 616,
      "ೇ": 617,
      "್": 618,
      "ം": 619,
      "എ": 620,
      "ക": 621,
      "ട": 622,
      "ഡ": 623,
      "ത": 624,
      "ദ": 625,
      "പ": 626,
      "ബ": 627,
      "മ": 628,
      "യ": 629,
      "ര": 630,
      "ല": 631,
      "വ": 632,
      "സ": 633,
      "ഹ": 634,
      "ാ": 635,
      "ി": 636,
      "ീ": 637,
      "ു": 638,
      "ൃ": 639,
      "ോ": 640,
      "്": 641,
      "ൻ": 642,
      "ං": 643,
      "ඇ": 644,
      "ක": 645,
      "ඞ": 646,
      "ඩ": 647,
      "ත": 648,
      "ද": 649,
      "න": 650,
      "ප": 651,
      "බ": 652,
      "ම": 653,
      "ඹ": 654,
      "ය": 655,
      "ර": 656,
      "ල": 657,
      "ව": 658,
      "ශ": 659,
      "ස": 660,
      "හ": 661,
      "්": 662,
      "ා": 663,
      "ැ": 664,
      "ි": 665,
      "ී": 666,
      "ු": 667,
      "ේ": 668,
      "ก": 669,
      "ค": 670,
      "ง": 671,
      "ช": 672,
      "ญ": 673,
      "ณ": 674,
      "ต": 675,
      "น": 676,
      "ย": 677,
      "ร": 678,
      "ล": 679,
      "ว": 680,
      "ษ": 681,
      "ั": 682,
      "า": 683,
      "ิ": 684,
      "่": 685,
      "้": 686,
      "์": 687,
      "་": 688,
      "ར": 689,
      "ྒ": 690,
      "ྱ": 691,
      "ა": 692,
      "ე": 693,
      "ვ": 694,
      "თ": 695,
      "ლ": 696,
      "ო": 697,
      "რ": 698,
      "ს": 699,
      "ქ": 700,
      "គ": 701,
      "ង": 702,
      "រ": 703,
      "អ": 704,
      "្": 705,
      "᳚": 706,
      "Ḥ": 707,
      "ḷ": 708,
      "ḻ": 709,
      "ṇ": 710,
      "ṉ": 711,
      "ṛ": 712,
      "Ṭ": 713,
      "ṭ": 714,
      "ả": 715,
      "ẩ": 716,
      "ậ": 717,
      "ệ": 718,
      "ỉ": 719,
      "ớ": 720,
      "ợ": 721,
      "​": 722,
      "‌": 723,
      "‍": 724,
      "‎": 725,
      "‏": 726,
      "‐": 727,
      "–": 728,
      "—": 729,
      "‘": 730,
      "’": 731,
      "‛": 732,
      "“": 733,
      "”": 734,
      "„": 735,
      "‟": 736,
      "‡": 737,
      "•": 738,
      "‪": 739,
      "‬": 740,
      "‰": 741,
      "‱": 742,
      "′": 743,
      "‹": 744,
      "›": 745,
      "⁄": 746,
      "€": 747,
      "₹": 748,
      "←": 749,
      "↑": 750,
      "→": 751,
      "∅": 752,
      "−": 753,
      "∞": 754,
      "∠": 755,
      "≃": 756,
      "≠": 757,
      "≡": 758,
      "≤": 759,
      "≥": 760,
      "⊰": 761,
      "⊱": 762,
      "⋅": 763,
      "▄": 764,
      "►": 765,
      "▼": 766,
      "●": 767,
      "☝": 768,
      "♡": 769,
      "♥": 770,
      "⛪": 771,
      "✆": 772,
      "✠": 773,
      "❖": 774,
      "❤": 775,
      "➡": 776,
      "⭕": 777,
      "。": 778,
      "に": 779,
      "の": 780,
      "は": 781,
      "び": 782,
      "る": 783,
      "ツ": 784,
      "一": 785,
      "中": 786,
      "乌": 787,
      "二": 788,
      "于": 789,
      "亦": 790,
      "以": 791,
      "会": 792,
      "作": 793,
      "光": 794,
      "公": 795,
      "冰": 796,
      "凯": 797,
      "利": 798,
      "加": 799,
      "北": 800,
      "区": 801,
      "南": 802,
      "卜": 803,
      "卡": 804,
      "卢": 805,
      "印": 806,
      "厦": 807,
      "台": 808,
      "号": 809,
      "合": 810,
      "吉": 811,
      "味": 812,
      "哈": 813,
      "器": 814,
      "固": 815,
      "国": 816,
      "國": 817,
      "地": 818,
      "场": 819,
      "坡": 820,
      "处": 821,
      "大": 822,
      "太": 823,
      "央": 824,
      "奥": 825,
      "威": 826,
      "子": 827,
      "字": 828,
      "孟": 829,
      "學": 830,
      "安": 831,
      "寅": 832,
      "寺": 833,
      "尔": 834,
      "尼": 835,
      "居": 836,
      "山": 837,
      "岛": 838,
      "峇": 839,
      "川": 840,
      "州": 841,
      "巴": 842,
      "帅": 843,
      "广": 844,
      "庄": 845,
      "度": 846,
      "廖": 847,
      "式": 848,
      "戦": 849,
      "所": 850,
      "手": 851,
      "技": 852,
      "拉": 853,
      "数": 854,
      "旋": 855,
      "日": 856,
      "旺": 857,
      "易": 858,
      "昔": 859,
      "星": 860,
      "是": 861,
      "曼": 862,
      "朗": 863,
      "木": 864,
      "末": 865,
      "本": 866,
      "朱": 867,
      "机": 868,
      "杨": 869,
      "林": 870,
      "株": 871,
      "楊": 872,
      "楠": 873,
      "欣": 874,
      "武": 875,
      "比": 876,
      "汽": 877,
      "泰": 878,
      "湾": 879,
      "特": 880,
      "独": 881,
      "电": 882,
      "甸": 883,
      "的": 884,
      "直": 885,
      "睿": 886,
      "矩": 887,
      "社": 888,
      "离": 889,
      "科": 890,
      "立": 891,
      "米": 892,
      "素": 893,
      "缅": 894,
      "美": 895,
      "群": 896,
      "能": 897,
      "臺": 898,
      "舰": 899,
      "苏": 900,
      "英": 901,
      "葉": 902,
      "蠶": 903,
      "製": 904,
      "视": 905,
      "语": 906,
      "豹": 907,
      "财": 908,
      "贵": 909,
      "距": 910,
      "身": 911,
      "车": 912,
      "轩": 913,
      "辖": 914,
      "达": 915,
      "运": 916,
      "里": 917,
      "野": 918,
      "际": 919,
      "陆": 920,
      "限": 921,
      "隆": 922,
      "马": 923,
      "驰": 924,
      "鲁": 925,
      "齐": 926,
      "꞉": 927,
      "공": 928,
      "국": 929,
      "면": 930,
      "인": 931,
      "전": 932,
      "정": 933,
      "제": 934,
      "천": 935,
      "항": 936,
      "": 937,
      "": 938,
      "": 939,
      "": 940,
      "": 941,
      "": 942,
      "": 943,
      "": 944,
      "": 945,
      "": 946,
      "": 947,
      "": 948,
      "": 949,
      "": 950,
      "": 951,
      "": 952,
      "": 953,
      "": 954,
      "": 955,
      "": 956,
      "": 957,
      "": 958,
      "": 959,
      "️": 960,
      "﻿": 961,
      "￼": 962,
      "�": 963,
      "🇰": 964,
      "🇵": 965,
      "🌶": 966,
      "🌷": 967,
      "🌹": 968,
      "🌻": 969,
      "🌽": 970,
      "🌿": 971,
      "🎰": 972,
      "🏸": 973,
      "👆": 974,
      "👈": 975,
      "👉": 976,
      "👏": 977,
      "👓": 978,
      "💓": 979,
      "💞": 980,
      "💠": 981,
      "💥": 982,
      "💫": 983,
      "📗": 984,
      "📰": 985,
      "🔗": 986,
      "🔥": 987,
      "🔮": 988,
      "🔴": 989,
      "😁": 990,
      "😅": 991,
      "😉": 992,
      "😊": 993,
      "😘": 994,
      "😥": 995,
      "😭": 996,
      "🙂": 997,
      "🙏": 998,
      "🛑": 999,
      "🛕": 1000,
      "🛡": 1001,
      "🦉": 1002,
      "்க": 1003,
      "்த": 1004,
      "ம்": 1005,
      "ன்": 1006,
      "ல்": 1007,
      "க்க": 1008,
      "்ட": 1009,
      "்ப": 1010,
      "த்த": 1011,
      "ும்": 1012,
      "ர்": 1013,
      "ிய": 1014,
      "ள்": 1015,
      "து": 1016,
      "ரு": 1017,
      "ப்ப": 1018,
      "ந்த": 1019,
      "ட்ட": 1020,
      "ில்": 1021,
      "ங்க": 1022,
      "வி": 1023,
      "ைய": 1024,
      "தி": 1025,
      "ாக": 1026,
      "று": 1027,
      "டு": 1028,
      "ின்": 1029,
      "ற்": 1030,
      "மு": 1031,
      "க்கு": 1032,
      "ண்ட": 1033,
      "மா": 1034,
      "ள்ள": 1035,
      "சி": 1036,
      "ர்க": 1037,
      "ரி": 1038,
      "த்து": 1039,
      "டி": 1040,
      "கு": 1041,
      "கா": 1042,
      "செ": 1043,
      "ிற": 1044,
      "ற்ற": 1045,
      "ச்": 1046,
      "லை": 1047,
      "வா": 1048,
      "பா": 1049,
      "என்": 1050,
      "கள": 1051,
      "க்": 1052,
      "ட்டு": 1053,
      "ார்": 1054,
      "நி": 1055,
      "ப்": 1056,
      "போ": 1057,
      "வே": 1058,
      "பி": 1059,
      "ந்து": 1060,
      "தா": 1061,
      "ரா": 1062,
      "வு": 1063,
      "கொ": 1064,
      "நா": 1065,
      "லா": 1066,
      "இரு": 1067,
      "செய": 1068,
      "பெ": 1069,
      "சு": 1070,
      "வர": 1071,
      "மி": 1072,
      "றி": 1073,
      "பு": 1074,
      "னை": 1075,
      "ட்": 1076,
      "னா": 1077,
      "கள்": 1078,
      "சா": 1079,
      "ர்கள்": 1080,
      "த்": 1081,
      "ங்கள": 1082,
      "மை": 1083,
      "வை": 1084,
      "கி": 1085,
      "த்தில்": 1086,
      "தே": 1087,
      "ப்பு": 1088,
      "அவ": 1089,
      "இந்த": 1090,
      "ியா": 1091,
      "ிரு": 1092,
      "தொ": 1093,
      "ஸ்": 1094,
      "ஒரு": 1095,
      "ையில்": 1096,
      "க்கும்": 1097,
      "ல்ல": 1098,
      "ற்க": 1099,
      "னர்": 1100,
      "வெ": 1101,
      "டை": 1102,
      "ங்கள்": 1103,
      "ர்கள": 1104,
      "ண்டு": 1105,
      "..": 1106,
      "மே": 1107,
      "ண்": 1108,
      "ன்ற": 1109,
      "ுக்கு": 1110,
      "த்தி": 1111,
      "னி": 1112,
      "ச்ச": 1113,
      "ணி": 1114,
      "ழு": 1115,
      "கூ": 1116,
      "ப்பட்ட": 1117,
      "ான": 1118,
      "மாக": 1119,
      "றை": 1120,
      "என": 1121,
      "ய்": 1122,
      "ளி": 1123,
      "கிற": 1124,
      "லும்": 1125,
      "மற்ற": 1126,
      "ற்ப": 1127,
      "உள்ள": 1128,
      "பே": 1129,
      "பொ": 1130,
      "லி": 1131,
      "தெ": 1132,
      "வில்": 1133,
      "ரிய": 1134,
      "தை": 1135,
      "ர்த": 1136,
      "நீ": 1137,
      "வர்": 1138,
      "திய": 1139,
      "கோ": 1140,
      "த்தை": 1141,
      "மற்றும்": 1142,
      "ரை": 1143,
      "சிய": 1144,
      "மான": 1145,
      "டிய": 1146,
      "ற்று": 1147,
      "வும்": 1148,
      "ரம்": 1149,
      "வரு": 1150,
      "ர்ப": 1151,
      "வழ": 1152,
      "ப்பி": 1153,
      "களை": 1154,
      "நில": 1155,
      "ழ்": 1156,
      "மூ": 1157,
      "ையும்": 1158,
      "அதி": 1159,
      "வீ": 1160,
      "நட": 1161,
      "ால்": 1162,
      "என்று": 1163,
      "அர": 1164,
      "ப்பட": 1165,
      "என்ற": 1166,
      "தற்க": 1167,
      "சே": 1168,
      "செய்": 1169,
      "க்கிற": 1170,
      "டுத்த": 1171,
      "வேண்ட": 1172,
      "ன்று": 1173,
      "யி": 1174,
      "மீ": 1175,
      "டன்": 1176,
      "னு": 1177,
      "கே": 1178,
      "ின்ற": 1179,
      "ட்டி": 1180,
      "னால்": 1181,
      "செய்த": 1182,
      "கை": 1183,
      "ளை": 1184,
      "பிர": 1185,
      "தொட": 1186,
      "தன்": 1187,
      "தாக": 1188,
      "ள்ளது": 1189,
      "ர்த்த": 1190,
      "ரும்": 1191,
      "யா": 1192,
      "டம்": 1193,
      "தமி": 1194,
      "வது": 1195,
      "பல": 1196,
      "ண்ண": 1197,
      "சொ": 1198,
      "முத": 1199,
      "ங்கு": 1200,
      "ன்ன": 1201,
      "ப்பட்டு": 1202,
      "என்ப": 1203,
      "கிறது": 1204,
      "அமை": 1205,
      "செய்ய": 1206,
      "ங்கி": 1207,
      "மைய": 1208,
      "ான்": 1209,
      "நே": 1210,
      "குறி": 1211,
      "ரோ": 1212,
      "லாம்": 1213,
      "டைய": 1214,
      "ம்ப": 1215,
      "ப்பா": 1216,
      "வேண்டும்": 1217,
      "தலை": 1218,
      "மக்க": 1219,
      "இது": 1220,
      "ரண": 1221,
      "ப்படு": 1222,
      "கட": 1223,
      "க்கா": 1224,
      "க்கி": 1225,
      "கொண்ட": 1226,
      "ந்தி": 1227,
      "்கு": 1228,
      "லு": 1229,
      "திரு": 1230,
      "தில்": 1231,
      "த்தின்": 1232,
      "20": 1233,
      "பய": 1234,
      "இருந்த": 1235,
      "தெரி": 1236,
      "ழி": 1237,
      "ஞ்": 1238,
      "ற்றி": 1239,
      "ல்க": 1240,
      "தான்": 1241,
      "அந்த": 1242,
      "வ்": 1243,
      "ட்சி": 1244,
      "டுத்து": 1245,
      "ிருந்த": 1246,
      "ஆக": 1247,
      "அறி": 1248,
      "ையை": 1249,
      "வாக": 1250,
      "வன": 1251,
      "ப்போ": 1252,
      "...": 1253,
      "வந்த": 1254,
      "ச்சி": 1255,
      "டும்": 1256,
      "தீ": 1257,
      "கம்": 1258,
      "களில்": 1259,
      "மெ": 1260,
      "வரை": 1261,
      "த்திய": 1262,
      "லம்": 1263,
      "எதி": 1264,
      "க்கிய": 1265,
      "கின்ற": 1266,
      "ளிய": 1267,
      "க்கை": 1268,
      "போது": 1269,
      "ர்க்க": 1270,
      "இல்": 1271,
      "தன": 1272,
      "ேன்": 1273,
      "ங்களை": 1274,
      "இர": 1275,
      "ஏற்ப": 1276,
      "க்கப்பட்ட": 1277,
      "விய": 1278,
      "லில்": 1279,
      "மல்": 1280,
      "பதி": 1281,
      "தோ": 1282,
      "முன்": 1283,
      "டா": 1284,
      "பின்": 1285,
      "வர்கள": 1286,
      "ணை": 1287,
      "முதல்": 1288,
      "ர்ந்த": 1289,
      "தெரிவி": 1290,
      "தும்": 1291,
      "ஸ்ட": 1292,
      "ையா": 1293,
      "தற்கு": 1294,
      "தமிழ": 1295,
      "ளர்": 1296,
      "றிய": 1297,
      "வின்": 1298,
      "ட்க": 1299,
      "இய": 1300,
      "வரும்": 1301,
      "வட்ட": 1302,
      "அவர்": 1303,
      "கரு": 1304,
      "பிற": 1305,
      "ழை": 1306,
      "விட்ட": 1307,
      "ங்களில்": 1308,
      "படி": 1309,
      "க்கொ": 1310,
      "ராக": 1311,
      "நிறு": 1312,
      "வர்கள்": 1313,
      "லே": 1314,
      "வெளிய": 1315,
      "ள்ளார்": 1316,
      "முடி": 1317,
      "ார்கள்": 1318,
      "00": 1319,
      "க்கிறது": 1320,
      "பட": 1321,
      "ூர்": 1322,
      "கால": 1323,
      "சில": 1324,
      "தம்": 1325,
      "ரே": 1326,
      "உட": 1327,
      "ோம்": 1328,
      "தர": 1329,
      "ட்டிய": 1330,
      "த்திற": 1331,
      "ஆனால்": 1332,
      "சை": 1333,
      "கொண்டு": 1334,
      "ர்ப்ப": 1335,
      "பொரு": 1336,
      "நோ": 1337,
      "முறை": 1338,
      "பகு": 1339,
      "பர": 1340,
      "ஆண்டு": 1341,
      "மும்": 1342,
      "எழு": 1343,
      "பெற்ற": 1344,
      "சீ": 1345,
      "வல": 1346,
      "வில்லை": 1347,
      "அதிக": 1348,
      "ரூ": 1349,
      "போல": 1350,
      "பண": 1351,
      "மோ": 1352,
      "மரு": 1353,
      "நக": 1354,
      "மொ": 1355,
      "இருந்து": 1356,
      "செய்து": 1357,
      "ண்க": 1358,
      "சூ": 1359,
      "ப்படும்": 1360,
      "நிலையில்": 1361,
      "அனு": 1362,
      "மாவட்ட": 1363,
      "அரசு": 1364,
      "19": 1365,
      "இல": 1366,
      "அது": 1367,
      "ராஜ": 1368,
      "னார்": 1369,
      "மிக": 1370,
      "ரில்": 1371,
      "வடி": 1372,
      "த்துவ": 1373,
      "பூ": 1374,
      "ையி": 1375,
      "ருக்கு": 1376,
      "அல்ல": 1377,
      "முக": 1378,
      "தவி": 1379,
      "என்ன": 1380,
      "மன்ற": 1381,
      "சம்": 1382,
      "ன்ப": 1383,
      "கல": 1384,
      "இத": 1385,
      "மன": 1386,
      "மக்கள்": 1387,
      "ப்படி": 1388,
      "ஷ்": 1389,
      "இட": 1390,
      "அடி": 1391,
      "க்கப்பட்டு": 1392,
      "தால்": 1393,
      "சோ": 1394,
      "எல்": 1395,
      "ட்டை": 1396,
      "மதி": 1397,
      "ஆகிய": 1398,
      "ர்ந்து": 1399,
      "விட": 1400,
      "ியில்": 1401,
      "களுக்கு": 1402,
      "ச்சு": 1403,
      "க்கம்": 1404,
      "ிருந்து": 1405,
      "நெ": 1406,
      "ுடன்": 1407,
      "நிலை": 1408,
      "ஆம்": 1409,
      "''": 1410,
      "சொல்ல": 1411,
      "ராம": 1412,
      "ட்டில்": 1413,
      "விடு": 1414,
      "அனை": 1415,
      "என்பது": 1416,
      "ஜி": 1417,
      "விள": 1418,
      "நிறுவன": 1419,
      "தமிழ்": 1420,
      "உண": 1421,
      "நிற": 1422,
      "உரு": 1423,
      "சட்ட": 1424,
      "தொடர்ப": 1425,
      "நான்": 1426,
      "இருக்கும்": 1427,
      "அவர்கள": 1428,
      "கொள்ள": 1429,
      "வள": 1430,
      "உறு": 1431,
      "சிற": 1432,
      "நடை": 1433,
      "ட்சிய": 1434,
      "உள்ளது": 1435,
      "ரிக்க": 1436,
      "லோ": 1437,
      "ங்கா": 1438,
      "குறை": 1439,
      "ந்தை": 1440,
      "கவ": 1441,
      "த்துக்கு": 1442,
      "பொது": 1443,
      "நாடு": 1444,
      "த்திற்கு": 1445,
      "கட்ட": 1446,
      "ரீ": 1447,
      "நடி": 1448,
      "நம்": 1449,
      "மேலும்": 1450,
      "ியான": 1451,
      "்தான்": 1452,
      "அல்லது": 1453,
      "ொரு": 1454,
      "ையின்": 1455,
      "களின்": 1456,
      "போன்ற": 1457,
      "விட்டு": 1458,
      "டுக்க": 1459,
      "ளு": 1460,
      "யம்": 1461,
      "ங்": 1462,
      "மது": 1463,
      "ள்ளி": 1464,
      "வழங்க": 1465,
      "லக": 1466,
      "ியு": 1467,
      "வேறு": 1468,
      "ர்த்து": 1469,
      "குழ": 1470,
      "ங்களுக்கு": 1471,
      "காரண": 1472,
      "இருக்க": 1473,
      "லிருந்து": 1474,
      "யில்": 1475,
      "வுக்கு": 1476,
      "க்கான": 1477,
      "கடந்த": 1478,
      "வெளி": 1479,
      "திட்ட": 1480,
      "இந்திய": 1481,
      "வந்து": 1482,
      "ளா": 1483,
      "டியா": 1484,
      "்கிற": 1485,
      "அள": 1486,
      "பாதி": 1487,
      "வன்": 1488,
      "ஜெ": 1489,
      "னம்": 1490,
      "ியை": 1491,
      "ன்க": 1492,
      "த்தா": 1493,
      "த்தார்": 1494,
      "பெய": 1495,
      "அரு": 1496,
      "தியில்": 1497,
      "உய": 1498,
      "மணி": 1499,
      "கிடை": 1500,
      "அதிகா": 1501,
      "ப்படுகிறது": 1502,
      "நீதி": 1503,
      "கூட்ட": 1504,
      "சேர்ந்த": 1505,
      "இந்தியா": 1506,
      "இல்லை": 1507,
      "தூ": 1508,
      "மண": 1509,
      ".,": 1510,
      "னும்": 1511,
      "ந்": 1512,
      "முடிய": 1513,
      "ப்போது": 1514,
      "முழு": 1515,
      "நீங்கள்": 1516,
      "நிக": 1517,
      "பரி": 1518,
      "ரின்": 1519,
      "ையாக": 1520,
      "கல்": 1521,
      "பை": 1522,
      "நேர": 1523,
      "தல்": 1524,
      "வரி": 1525,
      "ரோனா": 1526,
      "வாய": 1527,
      "பிடி": 1528,
      "ர்வ": 1529,
      "பட்ட": 1530,
      "ர்ட": 1531,
      "பிரி": 1532,
      "மூலம்": 1533,
      "வாழ": 1534,
      "ள்ளனர்": 1535,
      "க்காக": 1536,
      "மேற்க": 1537,
      "ர்வு": 1538,
      "இன்று": 1539,
      "தேர்த": 1540,
      "அவர்கள்": 1541,
      "குறிப்பி": 1542,
      "அமைச்ச": 1543,
      "எம்": 1544,
      "வழி": 1545,
      "பயன்ப": 1546,
      "தமிழக": 1547,
      "கண": 1548,
      "மாநில": 1549,
      "சென்": 1550,
      "எந்த": 1551,
      "ந்திர": 1552,
      "ண்டி": 1553,
      "காண": 1554,
      "ட்ப": 1555,
      "யே": 1556,
      "ளுக்கு": 1557,
      "விரு": 1558,
      "அதன்": 1559,
      "மாண": 1560,
      "முற": 1561,
      "201": 1562,
      "ணு": 1563,
      "வேலை": 1564,
      "எஸ்": 1565,
      "முக்கிய": 1566,
      "சம்ப": 1567,
      "மத்திய": 1568,
      "வய": 1569,
      "முடியா": 1570,
      "மட்டு": 1571,
      "கீ": 1572,
      "வைத்து": 1573,
      "லிய": 1574,
      "இருப்ப": 1575,
      "அரசிய": 1576,
      "பெற": 1577,
      "கொரோனா": 1578,
      "்ப்ப": 1579,
      "்தி": 1580,
      "ளில்": 1581,
      "ரியா": 1582,
      "தார": 1583,
      "தான": 1584,
      "அதை": 1585,
      "ளின்": 1586,
      "ஒன்ற": 1587,
      "க்கூ": 1588,
      "ப்பட்டது": 1589,
      "ந்தது": 1590,
      "ளம்": 1591,
      "தயா": 1592,
      "ப்படுத்த": 1593,
      "லான": 1594,
      "சார்": 1595,
      "ப்பை": 1596,
      "பழ": 1597,
      "ட்டும்": 1598,
      "வக": 1599,
      "பணி": 1600,
      "மார்": 1601,
      "டெ": 1602,
      "நினை": 1603,
      "ற்போ": 1604,
      "விசா": 1605,
      "குறித்து": 1606,
      "கர்": 1607,
      "அவர": 1608,
      "நு": 1609,
      "ிட்ட": 1610,
      "முன்ன": 1611,
      "அம்": 1612,
      "எடுத்து": 1613,
      "களும்": 1614,
      "10": 1615,
      "பாது": 1616,
      "ோர்": 1617,
      "ிருக்கிற": 1618,
      "ாலும்": 1619,
      "ங்கே": 1620,
      "நல்ல": 1621,
      "கின்றன": 1622,
      "விவ": 1623,
      "அறிவி": 1624,
      "தேச": 1625,
      "மருத்துவ": 1626,
      "பாதுகா": 1627,
      "தனை": 1628,
      "நிகழ்": 1629,
      "நடவடி": 1630,
      "தனது": 1631,
      "ியாக": 1632,
      "an": 1633,
      "புதிய": 1634,
      "பெரு": 1635,
      "in": 1636,
      "தெரிவித்து": 1637,
      "மாற்ற": 1638,
      "வம்": 1639,
      "பெரும்": 1640,
      "அளி": 1641,
      "வற்ற": 1642,
      "வான": 1643,
      "மர்": 1644,
      "செயல்": 1645,
      "லாக": 1646,
      "தற்போ": 1647,
      "கட்டு": 1648,
      "சிறு": 1649,
      "ரெ": 1650,
      "்து": 1651,
      "ங்கிய": 1652,
      "இரண்டு": 1653,
      "ச்சா": 1654,
      "ஞ்ச": 1655,
      "ல்கள்": 1656,
      "பெரிய": 1657,
      "தொகு": 1658,
      "பெற்று": 1659,
      "மீது": 1660,
      "்க்க": 1661,
      "இணை": 1662,
      "போரா": 1663,
      "வச": 1664,
      "செல்": 1665,
      "செல்ல": 1666,
      "ட்டா": 1667,
      "இற": 1668,
      "ங்கை": 1669,
      "உங்கள்": 1670,
      "திற": 1671,
      "ையான": 1672,
      "பல்": 1673,
      "ப்பில்": 1674,
      "போலீ": 1675,
      "உலக": 1676,
      "நூ": 1677,
      "ண்டா": 1678,
      "தகவ": 1679,
      "க்கோ": 1680,
      "இவ்": 1681,
      "சம": 1682,
      "மனி": 1683,
      "சென்னை": 1684,
      "ற்சி": 1685,
      "ரஸ்": 1686,
      "மின்": 1687,
      "பெண்க": 1688,
      "டும்ப": 1689,
      "தனி": 1690,
      "ட்ச": 1691,
      "நாய": 1692,
      "ஸ்ப": 1693,
      "பற்றி": 1694,
      "பிறகு": 1695,
      "குழந்தை": 1696,
      "ிருக்க": 1697,
      "தொடர்ந்து": 1698,
      "ிலும்": 1699,
      "பாட": 1700,
      "ஆரம்": 1701,
      "சென்ற": 1702,
      "கட்சி": 1703,
      "அமெ": 1704,
      "குடும்ப": 1705,
      "ளர்கள": 1706,
      "கன்": 1707,
      "உயி": 1708,
      "பகுதி": 1709,
      "ச்சை": 1710,
      "தற்காக": 1711,
      "இல்லா": 1712,
      "இன்ன": 1713,
      "பேர்": 1714,
      "என்றும்": 1715,
      "ண்டும்": 1716,
      "அழை": 1717,
      "நாள்": 1718,
      "டுப்ப": 1719,
      "முடியும்": 1720,
      "am": 1721,
      "சந்த": 1722,
      "சின்": 1723,
      "நடவடிக்கை": 1724,
      "வைத்த": 1725,
      "நேற்று": 1726,
      "முய": 1727,
      "இந்": 1728,
      "ரூபா": 1729,
      "ஸ்க": 1730,
      "யு": 1731,
      "ிருக்கும்": 1732,
      "கின்றனர்": 1733,
      "லேயே": 1734,
      "பர்": 1735,
      "பார்க்க": 1736,
      "கிறார்": 1737,
      "சமூ": 1738,
      "சந்தி": 1739,
      "இடம்": 1740,
      "ப்பாக": 1741,
      "ளர்கள்": 1742,
      "த்திர": 1743,
      "ற்றிய": 1744,
      "கூட": 1745,
      "நாம்": 1746,
      "த்தர": 1747,
      "மனை": 1748,
      "வதாக": 1749,
      "தேசிய": 1750,
      "பாக": 1751,
      "அரசியல்": 1752,
      "தற்போது": 1753,
      "வருகிறது": 1754,
      "சங்க": 1755,
      "கர": 1756,
      "ண்ணி": 1757,
      "என்பதை": 1758,
      "கூறி": 1759,
      "வதற்கு": 1760,
      "ள்க": 1761,
      "நிலைய": 1762,
      "மிகவும்": 1763,
      "உத": 1764,
      "க்கள்": 1765,
      "ியின்": 1766,
      "படு": 1767,
      "சன்": 1768,
      "மன்": 1769,
      "உருவா": 1770,
      "இவர்": 1771,
      "தலைவர்": 1772,
      "தியாக": 1773,
      "நிர்": 1774,
      "வெற்றி": 1775,
      "at": 1776,
      "லின்": 1777,
      "மாத": 1778,
      "விழ": 1779,
      "அணி": 1780,
      "வாய்ப்ப": 1781,
      "வீர": 1782,
      "த்தம்": 1783,
      "அனைத்து": 1784,
      "ணம்": 1785,
      "சென்று": 1786,
      "பின்னர்": 1787,
      "நிதி": 1788,
      "னே": 1789,
      "நீதிமன்ற": 1790,
      "தெரிய": 1791,
      "ழில்": 1792,
      "மையான": 1793,
      "அதிகாரி": 1794,
      "ப்பது": 1795,
      "ரான": 1796,
      "மர": 1797,
      "வேண்டிய": 1798,
      "குழு": 1799,
      "அதே": 1800,
      "வட": 1801,
      "கலந்து": 1802,
      "er": 1803,
      "மேற்கொ": 1804,
      "சர": 1805,
      "ஈடு": 1806,
      "கூறிய": 1807,
      "அவரது": 1808,
      "சரி": 1809,
      "சமூக": 1810,
      "லீ": 1811,
      "களு": 1812,
      "பொறு": 1813,
      "தற்கான": 1814,
      "மறு": 1815,
      "நிய": 1816,
      "குற்ற": 1817,
      "அடுத்த": 1818,
      "வொரு": 1819,
      "தேதி": 1820,
      "வில": 1821,
      "தின": 1822,
      "புது": 1823,
      "யோ": 1824,
      "கன": 1825,
      "ட்டம்": 1826,
      "க்கில்": 1827,
      "க்கொண்ட": 1828,
      "ய்வு": 1829,
      "வாறு": 1830,
      "ையே": 1831,
      "கடை": 1832,
      "இருக்கிறது": 1833,
      "ராட்சி": 1834,
      "வாழ்": 1835,
      "விர": 1836,
      "ஆர்": 1837,
      "இன்": 1838,
      "விவசா": 1839,
      "இதன்": 1840,
      "டியாக": 1841,
      "நீர்": 1842,
      "மில்": 1843,
      "மல": 1844,
      "ிடம்": 1845,
      "ப்பட்டுள்ளது": 1846,
      "ரித்து": 1847,
      "ோடு": 1848,
      "ள்ளன": 1849,
      "கிராம": 1850,
      "தேவ": 1851,
      "மீண்டும்": 1852,
      "இதை": 1853,
      "திரை": 1854,
      "கண்ட": 1855,
      "ஒவ்": 1856,
      "பார்த்த": 1857,
      "யூ": 1858,
      "றும்": 1859,
      "ங்களின்": 1860,
      "எனக்கு": 1861,
      "தொழி": 1862,
      "தள": 1863,
      "ஒன்று": 1864,
      "த்தது": 1865,
      "விஷ": 1866,
      "உரி": 1867,
      "உறுப்பி": 1868,
      "ல்லாம்": 1869,
      "ின்றன": 1870,
      "ர்களை": 1871,
      "த்தான்": 1872,
      "விசாரண": 1873,
      "சிரிய": 1874,
      "இதில்": 1875,
      "டீ": 1876,
      "ஸ்ட்": 1877,
      "தாவது": 1878,
      "மட்டுமே": 1879,
      "பாடு": 1880,
      "ாம்": 1881,
      "ட்டின்": 1882,
      "ளும்": 1883,
      "நிறை": 1884,
      "துறை": 1885,
      "சக": 1886,
      "இதனால்": 1887,
      "on": 1888,
      "அலு": 1889,
      "நாட்க": 1890,
      "ar": 1891,
      "ற்கு": 1892,
      "அத": 1893,
      "உண்": 1894,
      "ங்கும்": 1895,
      "200": 1896,
      "உத்தர": 1897,
      "லுக்கு": 1898,
      "பல்வேறு": 1899,
      "அமைச்சர்": 1900,
      "பயி": 1901,
      "தவ": 1902,
      "க்கப்பட்டது": 1903,
      "15": 1904,
      "அடை": 1905,
      "னில்": 1906,
      "மட்டும்": 1907,
      "த்துடன்": 1908,
      "ஸ்த": 1909,
      "நாட்டு": 1910,
      "இருக்கிற": 1911,
      "al": 1912,
      "க்கப்பட்டுள்ளது": 1913,
      "மனித": 1914,
      "ழக": 1915,
      "மூன்று": 1916,
      "டாக": 1917,
      "ப்பெ": 1918,
      "தொழில்": 1919,
      "பிரத": 1920,
      "அக": 1921,
      "பள்ளி": 1922,
      "அனுமதி": 1923,
      "ஆயி": 1924,
      "கைது": 1925,
      "ஆண்ட": 1926,
      "ணைய": 1927,
      "தேர்தல்": 1928,
      "வாழ்க்க": 1929,
      "விழா": 1930,
      "உள்ளிட்ட": 1931,
      "இருந்தது": 1932,
      "ன்றி": 1933,
      "ிருக்கிறது": 1934,
      "கல்ல": 1935,
      "ிட": 1936,
      "மலை": 1937,
      "எண்ண": 1938,
      "சர்": 1939,
      "இலங்கை": 1940,
      "எனவே": 1941,
      "பேசி": 1942,
      "ர்ப்பு": 1943,
      "ர்த்தி": 1944,
      "ங்கம்": 1945,
      "கைய": 1946,
      "வித": 1947,
      "பெண்": 1948,
      "களையும்": 1949,
      "il": 1950,
      "கலை": 1951,
      "அரசா": 1952,
      "ரத்தில்": 1953,
      "டக": 1954,
      "பயன்படுத்த": 1955,
      "ஜா": 1956,
      "அதில்": 1957,
      "எப்படி": 1958,
      "ஆகும்": 1959,
      "மொழி": 1960,
      "காரணமாக": 1961,
      "ள்ளதாக": 1962,
      "ஹா": 1963,
      "நடத்த": 1964,
      "18": 1965,
      "புரி": 1966,
      "வார்": 1967,
      "த்தால்": 1968,
      "செலு": 1969,
      "வல்": 1970,
      "ஒவ்வொரு": 1971,
      "போல்": 1972,
      "12": 1973,
      "னாள்": 1974,
      "30": 1975,
      "க்கெ": 1976,
      "ய்க": 1977,
      "வெளியே": 1978,
      "முடியாது": 1979,
      "லட்": 1980,
      "விதி": 1981,
      "குடி": 1982,
      "த்தையும்": 1983,
      "குறித்த": 1984,
      "மேல்": 1985,
      "ஷ்ட": 1986,
      "வழக்கு": 1987,
      "பீ": 1988,
      "or": 1989,
      "்த்த": 1990,
      "எல்லா": 1991,
      "செய்தி": 1992,
      "ல்லா": 1993,
      "அலுவல": 1994,
      "கேள்": 1995,
      "சன": 1996,
      "விளையா": 1997,
      "மையாக": 1998,
      "தயாரி": 1999,
      "பாதுகாப்பு": 2000,
      "வியா": 2001,
      "என்கிற": 2002,
      "ாண": 2003,
      "ரிக்கா": 2004,
      "வதும்": 2005,
      "முடிவு": 2006,
      "),": 2007,
      "வதை": 2008,
      "அதற்கு": 2009,
      "ண்ணீ": 2010,
      "விரும்": 2011,
      "களாக": 2012,
      "பகுதியில்": 2013,
      "க்கல்": 2014,
      "இந்நிலையில்": 2015,
      "வோ": 2016,
      "ர்களின்": 2017,
      "பெறு": 2018,
      "ன்கு": 2019,
      "ப்ட": 2020,
      "திரும்": 2021,
      "கட்சிய": 2022,
      "சிகி": 2023,
      "டையா": 2024,
      "கூறு": 2025,
      "விஜ": 2026,
      "அங்கு": 2027,
      "சாலை": 2028,
      "th": 2029,
      "ர்பா": 2030,
      "தேவை": 2031,
      "கோடி": 2032,
      "கண்டு": 2033,
      "லையில்": 2034,
      "இறு": 2035,
      "கெ": 2036,
      "பக": 2037,
      "செல": 2038,
      "வகையில்": 2039,
      "இன்னும்": 2040,
      "உள்ளன": 2041,
      "நடந்த": 2042,
      "அப்ப": 2043,
      "பட்டு": 2044,
      "செய்யப்பட்ட": 2045,
      "வர்களுக்கு": 2046,
      "தியை": 2047,
      "அப்போது": 2048,
      "ங்களு": 2049,
      "மையில்": 2050,
      "ரூபாய்": 2051,
      "மாதி": 2052,
      "போட்டிய": 2053,
      "கருத்து": 2054,
      "வகை": 2055,
      "படை": 2056,
      "டாது": 2057,
      "ஆரம்பி": 2058,
      "வாய்ப்பு": 2059,
      "விலை": 2060,
      "மாறு": 2061,
      "புற": 2062,
      "செயலா": 2063,
      "பார்த்து": 2064,
      "ழிய": 2065,
      "es": 2066,
      "கொடுத்த": 2067,
      "ணா": 2068,
      "உற": 2069,
      "கார்": 2070,
      "சொல்லி": 2071,
      "ின்றனர்": 2072,
      "ள்ளை": 2073,
      "கும்": 2074,
      "ஜன": 2075,
      "கூற": 2076,
      "வளர்": 2077,
      "அட": 2078,
      "ிருப்ப": 2079,
      "ஸ்ரீ": 2080,
      "பதிவு": 2081,
      "கடி": 2082,
      "ாடு": 2083,
      "விசாரணை": 2084,
      "கதை": 2085,
      "மாதம்": 2086,
      "திருமண": 2087,
      "கல்வி": 2088,
      "கிழ": 2089,
      "செய்யும்": 2090,
      "க்கொள்ள": 2091,
      "ண்ணா": 2092,
      "தங்கள்": 2093,
      "நிர்வாக": 2094,
      "கேட்ட": 2095,
      "ரக": 2096,
      "ண்ப": 2097,
      "பக்க": 2098,
      "50": 2099,
      "டையே": 2100,
      "உணவு": 2101,
      "பொருட்க": 2102,
      "விமான": 2103,
      "இப்போது": 2104,
      "எண்ணி": 2105,
      "ஒரே": 2106,
      "நகர": 2107,
      "ப்புகள்": 2108,
      "வரலா": 2109,
      "உட்ப": 2110,
      "னிய": 2111,
      "காங்கி": 2112,
      "ர்களுக்கு": 2113,
      "ஜெய": 2114,
      "வயது": 2115,
      "000": 2116,
      "ாள்": 2117,
      "கிறார்கள்": 2118,
      "சார்ப": 2119,
      "தில்லை": 2120,
      "கேள்வி": 2121,
      "நேரம்": 2122,
      "ஆதர": 2123,
      "ஏற்பட்ட": 2124,
      "நாட்டில்": 2125,
      "கொடு": 2126,
      "ிருந்தது": 2127,
      "தொகுதி": 2128,
      "போட்டி": 2129,
      "ல்களை": 2130,
      "த்துக்": 2131,
      "அவ்": 2132,
      "மறை": 2133,
      "ங்களும்": 2134,
      "ண்ட்": 2135,
      "தொலை": 2136,
      "குறிப்பிட": 2137,
      "த்திற்க": 2138,
      "னின்": 2139,
      "உடல்": 2140,
      "நம்பி": 2141,
      "வகு": 2142,
      "த்துறை": 2143,
      "ராணு": 2144,
      "மூல": 2145,
      "எதிர்பா": 2146,
      "அம": 2147,
      "வீட்டு": 2148,
      "வீடு": 2149,
      "எடுக்க": 2150,
      "கிரு": 2151,
      "ஒருவர்": 2152,
      "11": 2153,
      "அமைந்து": 2154,
      "என்றார்": 2155,
      "வாய்": 2156,
      "தகவல்": 2157,
      "அல": 2158,
      "மையை": 2159,
      "பிரா": 2160,
      "விட்டது": 2161,
      "இழ": 2162,
      "சிக": 2163,
      "தல": 2164,
      "விற்ப": 2165,
      "பார": 2166,
      "பெரும்பா": 2167,
      "ட்டர்": 2168,
      "ளுமன்ற": 2169,
      "ிற்கு": 2170,
      "கண்க": 2171,
      "ராம்": 2172,
      "ப்படை": 2173,
      "க்குள்": 2174,
      "உறுப்பின": 2175,
      "சாக": 2176,
      "டுத்தி": 2177,
      "உயர்": 2178,
      "க்கே": 2179,
      "சிகிச்சை": 2180,
      "உதவி": 2181,
      "எவ்": 2182,
      "தண்ணீ": 2183,
      "வேண்டு": 2184,
      "பாரா": 2185,
      "ஏற்படுத்த": 2186,
      "இப்படி": 2187,
      "புத்த": 2188,
      "கையில்": 2189,
      "கட்டி": 2190,
      "ியுள்ளது": 2191,
      "மத": 2192,
      "ஷா": 2193,
      "பணியா": 2194,
      "சாமி": 2195,
      "முதல்வர்": 2196,
      "சொல்": 2197,
      "ளாக": 2198,
      "உறுதி": 2199,
      "ரல்": 2200,
      "en": 2201,
      "இங்கு": 2202,
      "முயற்சி": 2203,
      "இரண்டா": 2204,
      "திரைப்பட": 2205,
      "தேர்வு": 2206,
      "டே": 2207,
      "ஜ்": 2208,
      "பெண்கள்": 2209,
      "கொள்": 2210,
      "கவன": 2211,
      "ல்தான்": 2212,
      "அங்க": 2213,
      "பத": 2214,
      "சிறப்பு": 2215,
      "அமெரிக்கா": 2216,
      "ஷன்": 2217,
      "சுகா": 2218,
      "ஜனா": 2219,
      "படம்": 2220,
      "ஞ்சி": 2221,
      "முன்னாள்": 2222,
      "ல்லி": 2223,
      "பற்றிய": 2224,
      "வருகின்றனர்": 2225,
      "ஏற்க": 2226,
      "துவ": 2227,
      "தெரிவித்தார்": 2228,
      "அற": 2229,
      "த்தக்க": 2230,
      "ரன்": 2231,
      "திக": 2232,
      "வாக்கு": 2233,
      "கால்": 2234,
      "தாக்கு": 2235,
      "யார்": 2236,
      "அவரை": 2237,
      "மேற்ப": 2238,
      "வந்தது": 2239,
      "வண": 2240,
      "இயக்கு": 2241,
      "இல்ல": 2242,
      "தர்": 2243,
      "வைக்க": 2244,
      "அவன்": 2245,
      "....": 2246,
      "சிக்க": 2247,
      "ந்தா": 2248,
      "விழு": 2249,
      "வார்கள்": 2250,
      "பொலி": 2251,
      "என்றால்": 2252,
      "நடைபெற்ற": 2253,
      "வின": 2254,
      "பிரதமர்": 2255,
      "உல": 2256,
      "ப்பின்": 2257,
      "சொன்ன": 2258,
      "அடிப்பட": 2259,
      "தெரிவித்துள்ளார்": 2260,
      "ஆசிரிய": 2261,
      "ிருந்தார்": 2262,
      "ஹி": 2263,
      "பேச": 2264,
      "நாங்கள்": 2265,
      "னாலும்": 2266,
      "டியே": 2267,
      "சோதனை": 2268,
      "ஊராட்சி": 2269,
      "அண": 2270,
      "ற்றா": 2271,
      "த்தனர்": 2272,
      "வாத": 2273,
      "பங்கு": 2274,
      "பால": 2275,
      "போராட்ட": 2276,
      "என்னை": 2277,
      "தொடர்பு": 2278,
      "துற": 2279,
      "அழ": 2280,
      "க்குப்": 2281,
      "சிவ": 2282,
      "த்தும்": 2283,
      "துணை": 2284,
      "காலை": 2285,
      "த்திலும்": 2286,
      "தாகவும்": 2287,
      "அமைப்பு": 2288,
      "விவசாயி": 2289,
      "சுற்று": 2290,
      "இந்தப்": 2291,
      "இன": 2292,
      "நேரத்தில்": 2293,
      "ராய": 2294,
      "நடத்தி": 2295,
      "திர": 2296,
      "தலைமை": 2297,
      "மாவட்டம்": 2298,
      "வற்றை": 2299,
      "றா": 2300,
      "பத்தில்": 2301,
      "மிய": 2302,
      "விளை": 2303,
      "க்கொண்டு": 2304,
      "பிரதேச": 2305,
      "ிருக்கிறார்": 2306,
      "ீடு": 2307,
      "ரிக்கை": 2308,
      "ஜனாதி": 2309,
      "்டர்": 2310,
      "இயக்க": 2311,
      "மனு": 2312,
      "கேட்டு": 2313,
      "நல": 2314,
      "ுள்ளார்": 2315,
      "சுகாதார": 2316,
      "மழை": 2317,
      "போட்டு": 2318,
      "புரம்": 2319,
      "வாங்கி": 2320,
      "உயிரி": 2321,
      "கின்றது": 2322,
      "16": 2323,
      "சிறந்த": 2324,
      "தொடர்பாக": 2325,
      "வார": 2326,
      "கீழ": 2327,
      "ராணுவ": 2328,
      "25": 2329,
      "ஞ்சா": 2330,
      "தரு": 2331,
      "நண்ப": 2332,
      "மண்ட": 2333,
      "அமெரிக்க": 2334,
      "ந்தார்": 2335,
      "வால்": 2336,
      "கல்லூ": 2337,
      "வாதி": 2338,
      "ற்றை": 2339,
      "அழு": 2340,
      "வர்களை": 2341,
      "எல்லாம்": 2342,
      "பேர": 2343,
      "நாட்டின்": 2344,
      "ரிடம்": 2345,
      "நிறுவனம்": 2346,
      "பெயர்": 2347,
      "விரி": 2348,
      "ர்ட்": 2349,
      "காரணம்": 2350,
      "கேட்க": 2351,
      "பல்க": 2352,
      "போலீசார்": 2353,
      "ாகும்": 2354,
      "ஆய்வு": 2355,
      "வாங்க": 2356,
      "விடும்": 2357,
      "வடிவ": 2358,
      "கீழ்": 2359,
      "ஜோ": 2360,
      "மகி": 2361,
      "வருட": 2362,
      "வளவு": 2363,
      "தைய": 2364,
      "ருக்க": 2365,
      "வேக": 2366,
      "விரை": 2367,
      "இதற்கு": 2368,
      "இன்ற": 2369,
      "பத்து": 2370,
      "வார்த்த": 2371,
      "ப்பான": 2372,
      "அவருக்கு": 2373,
      "பட்டிய": 2374,
      "முழுவதும்": 2375,
      "கொலை": 2376,
      "அன்": 2377,
      "மாகாண": 2378,
      "தடை": 2379,
      "த்தியா": 2380,
      "களைக்": 2381,
      "அம்மா": 2382,
      "மானது": 2383,
      "னுடைய": 2384,
      "ளைய": 2385,
      "வழக்க": 2386,
      "கொடுத்து": 2387,
      "மொத்த": 2388,
      "னுக்கு": 2389,
      "வர்களின்": 2390,
      "21": 2391,
      "லட்சம்": 2392,
      "தீர்": 2393,
      "ஏன்": 2394,
      "தாரண": 2395,
      "வுகள்": 2396,
      "டியோ": 2397,
      "வராக": 2398,
      "சொந்த": 2399,
      "ஸ்டா": 2400,
      "பேசிய": 2401,
      "தொற்று": 2402,
      "நடந்து": 2403,
      "ஃப்": 2404,
      "இளை": 2405,
      "ரொ": 2406,
      "பம்": 2407,
      "காலத்தில்": 2408,
      "பத்தி": 2409,
      "சிறி": 2410,
      "இடை": 2411,
      "ர்ச்ச": 2412,
      "பொருளா": 2413,
      "எது": 2414,
      "14": 2415,
      "களைப்": 2416,
      "க்கப்படும்": 2417,
      "களி": 2418,
      "கார": 2419,
      "ருந்து": 2420,
      "தீவிர": 2421,
      "நோய்": 2422,
      "amil": 2423,
      "சபை": 2424,
      "படுத்த": 2425,
      "லுள்ள": 2426,
      "போக்கு": 2427,
      "காங்கிரஸ்": 2428,
      "ஆட்சி": 2429,
      "தடுப்ப": 2430,
      "த்தொ": 2431,
      "வாகன": 2432,
      "இல்லாத": 2433,
      "இப்ப": 2434,
      "மாவட்டத்தில்": 2435,
      "உற்ப": 2436,
      "st": 2437,
      "குதி": 2438,
      "மாதிரி": 2439,
      "ராஜ்": 2440,
      "பரு": 2441,
      "’’": 2442,
      "வெளியி": 2443,
      "17": 2444,
      "சல்": 2445,
      "விஷய": 2446,
      "இளைஞ": 2447,
      "ஏற்று": 2448,
      "குறிப்பிட்ட": 2449,
      "மிட": 2450,
      "சனை": 2451,
      "கூறினார்": 2452,
      "கிடைக்கும்": 2453,
      "ழமை": 2454,
      "காட்டு": 2455,
      "சேர்த்து": 2456,
      "இவ்வாறு": 2457,
      "பல்கலை": 2458,
      "பால்": 2459,
      "ன்கள்": 2460,
      "உரிமை": 2461,
      "13": 2462,
      "அருகே": 2463,
      "அன்று": 2464,
      "மடை": 2465,
      "சுவா": 2466,
      "ியது": 2467,
      "போதும்": 2468,
      "டிக்க": 2469,
      "போன": 2470,
      "ஞ்சு": 2471,
      "விற்கு": 2472,
      "போய்": 2473,
      "ராய்": 2474,
      "பணம்": 2475,
      "ஆறு": 2476,
      "எதிராக": 2477,
      "மைப்பு": 2478,
      "த்தைப்": 2479,
      "ஜூ": 2480,
      "ியல்": 2481,
      "அவள்": 2482,
      "அளவு": 2483,
      "ம்க": 2484,
      "மேற்கொள்ள": 2485,
      "க்கூடிய": 2486,
      "மக்களின்": 2487,
      "கூடு": 2488,
      "ஷ்ண": 2489,
      "ed": 2490,
      "ன்னா": 2491,
      "ர்க்": 2492,
      "ஆன்": 2493,
      "நான்கு": 2494,
      "சேவை": 2495,
      "தையும்": 2496,
      "யின்": 2497,
      "24": 2498,
      "மையா": 2499,
      "புர": 2500,
      "ரியாக": 2501,
      "அவை": 2502,
      "ராஜா": 2503,
      "அவர்களின்": 2504,
      "அப்படி": 2505,
      "லெ": 2506,
      "செயலாளர்": 2507,
      "அதிகாரிகள்": 2508,
      "களிலும்": 2509,
      "வழங்கு": 2510,
      "சில்": 2511,
      "ீர்கள்": 2512,
      "சுமார்": 2513,
      "வசதி": 2514,
      "ஒது": 2515,
      "ருக்கும்": 2516,
      "சாப்பி": 2517,
      "ic": 2518,
      "ால": 2519,
      "முறையில்": 2520,
      "நாக": 2521,
      "த்தல்": 2522,
      "க்கப்படு": 2523,
      "இனி": 2524,
      "வான்": 2525,
      "ஆலோ": 2526,
      "வீட்டில்": 2527,
      "வியல்": 2528,
      "குடிய": 2529,
      "it": 2530,
      "ாமல்": 2531,
      "பார்": 2532,
      "முதலீ": 2533,
      "விடுதலை": 2534,
      "அளவில்": 2535,
      "உச்ச": 2536,
      "வங்கி": 2537,
      "வாழ்க்கை": 2538,
      "ew": 2539,
      "வலை": 2540,
      "ிறது": 2541,
      "ஊழிய": 2542,
      "க்களை": 2543,
      "ஆண்டில்": 2544,
      "தங்க": 2545,
      "ழும்": 2546,
      "ண்டை": 2547,
      "எடு": 2548,
      "வுடன்": 2549,
      "ஜனாதிபதி": 2550,
      "இதனை": 2551,
      "ஊடக": 2552,
      "கோயில்": 2553,
      "பிரச்": 2554,
      "கொண்டிருந்த": 2555,
      "அனுப": 2556,
      "கத்தில்": 2557,
      "மாலை": 2558,
      "பெண்ண": 2559,
      "வரின்": 2560,
      "செய்யப்பட்டு": 2561,
      "க்ஸ்": 2562,
      "கொடுக்க": 2563,
      "கவி": 2564,
      "பெறும்": 2565,
      "க்கார": 2566,
      "னவே": 2567,
      "தனிய": 2568,
      "த்தைக்": 2569,
      "கூடிய": 2570,
      "அதனால்": 2571,
      "கடு": 2572,
      "சர்வ": 2573,
      "சியா": 2574,
      "பேச்சு": 2575,
      "குறைந்த": 2576,
      "நகர்": 2577,
      "சூழ": 2578,
      "ெல்லாம்": 2579,
      "கொள்க": 2580,
      "மாகும்": 2581,
      "உயிரிழ": 2582,
      "த்தன": 2583,
      "நுட்ப": 2584,
      "நாடா": 2585,
      "முதன்": 2586,
      "என்னும்": 2587,
      "செல்லும்": 2588,
      "இணைய": 2589,
      "கண்ண": 2590,
      "சென்ன": 2591,
      "எதிர்க": 2592,
      "கணி": 2593,
      "ூசி": 2594,
      "ப்பே": 2595,
      "முதலில்": 2596,
      "பிரபல": 2597,
      "ன்மை": 2598,
      "உண்டு": 2599,
      "கழி": 2600,
      "கேர": 2601,
      "மகா": 2602,
      "வருக்கு": 2603,
      "தமிழகத்தில்": 2604,
      "சார்பில்": 2605,
      "உள்ளனர்": 2606,
      "அதிகரி": 2607,
      "மக": 2608,
      "இரவு": 2609,
      "இல்லாமல்": 2610,
      "ரால்": 2611,
      "கில்": 2612,
      "பதவி": 2613,
      "டுப்பு": 2614,
      "சிறிய": 2615,
      "வைரஸ்": 2616,
      "மகிழ்": 2617,
      "குரு": 2618,
      "அடையா": 2619,
      "த்தான": 2620,
      "ாகி": 2621,
      "இந்தியாவில்": 2622,
      "முரு": 2623,
      "வோம்": 2624,
      "இந்து": 2625,
      "ம்தான்": 2626,
      "குறிப்பிடத்தக்க": 2627,
      "ரத்து": 2628,
      "வலி": 2629,
      "மாட்ட": 2630,
      "விற்பனை": 2631,
      "ஏன": 2632,
      "ப்படுத்தி": 2633,
      "கத": 2634,
      "ன்ஸ்": 2635,
      "குளி": 2636,
      "ரியில்": 2637,
      "ம்பர்": 2638,
      "நீண்ட": 2639,
      "திரும்ப": 2640,
      "ச்சே": 2641,
      "நப": 2642,
      "தெளி": 2643,
      "பிரதி": 2644,
      "சின்ன": 2645,
      "த்தனை": 2646,
      "பொருள்": 2647,
      "இலங்க": 2648,
      "த்தைச்": 2649,
      "கட்டுப்பா": 2650,
      "மருந்து": 2651,
      "மனைவி": 2652,
      "முடியாத": 2653,
      "பேசு": 2654,
      "முகம்": 2655,
      "ஆன": 2656,
      "உர": 2657,
      "களுடன்": 2658,
      "கிரி": 2659,
      "தொடங்கி": 2660,
      "முஸ்": 2661,
      "காய": 2662,
      "இதுவரை": 2663,
      "க்கள": 2664,
      "ற்றில்": 2665,
      "பிறந்த": 2666,
      "த்துள்ளது": 2667,
      "எல்ல": 2668,
      "சத": 2669,
      "மக்களுக்கு": 2670,
      "ங்களையும்": 2671,
      "வியை": 2672,
      "அரசாங்க": 2673,
      "ப்பிய": 2674,
      "அணு": 2675,
      "காட்சி": 2676,
      "உங்களுக்கு": 2677,
      "டோ": 2678,
      "காட்டி": 2679,
      "தெரியா": 2680,
      "தக": 2681,
      "இயற்க": 2682,
      "அப்பா": 2683,
      "ஷி": 2684,
      "சார": 2685,
      "நாடாளுமன்ற": 2686,
      "ஸி": 2687,
      "க்கப்பட": 2688,
      "ுங்கள்": 2689,
      "ம்பு": 2690,
      "சேர்க்க": 2691,
      "ையடுத்து": 2692,
      "ட்பா": 2693,
      "னியா": 2694,
      "அவசிய": 2695,
      "மம்": 2696,
      "ன்னு": 2697,
      "லலி": 2698,
      "அதிகம்": 2699,
      "தேர்தலில்": 2700,
      "பயிற்சி": 2701,
      "தண்ணீர்": 2702,
      "ad": 2703,
      "காலம்": 2704,
      "நாளை": 2705,
      "உள": 2706,
      "ஓர்": 2707,
      "வேல": 2708,
      "பாதிப்பு": 2709,
      "வார்த்தை": 2710,
      "ர்ச்சி": 2711,
      "போட்ட": 2712,
      "ஸ்வர": 2713,
      "om": 2714,
      "பின்ன": 2715,
      "தவிர": 2716,
      "பல்கலைக்க": 2717,
      "எடுத்த": 2718,
      "ஆகியோர்": 2719,
      "இருந்தால்": 2720,
      "ாத": 2721,
      "ஒளி": 2722,
      "ந்த்": 2723,
      "செய்கிற": 2724,
      "கண்டுபிடி": 2725,
      "தியான": 2726,
      "அவரு": 2727,
      "மூன்ற": 2728,
      "அதிகார": 2729,
      "வர்த்த": 2730,
      "ஏற்பட்டு": 2731,
      "தென்": 2732,
      "தனியார்": 2733,
      "பங்கே": 2734,
      "காவல": 2735,
      "ஜீ": 2736,
      "மாறி": 2737,
      "மதுரை": 2738,
      "ழுது": 2739,
      "ஆயிரம்": 2740,
      "நிறைவே": 2741,
      "சினி": 2742,
      "எங்கள்": 2743,
      "புக": 2744,
      "ஞ்சம்": 2745,
      "டங்கு": 2746,
      "சீனா": 2747,
      "எண்ணிக்கை": 2748,
      "பயணி": 2749,
      "மேற்பட்ட": 2750,
      "லலிதா": 2751,
      "மக்கள": 2752,
      "வதால்": 2753,
      "மென்": 2754,
      "இடங்களில்": 2755,
      "மற": 2756,
      "புகை": 2757,
      "சக்தி": 2758,
      "அறிவு": 2759,
      "சந்தே": 2760,
      "களால்": 2761,
      "யை": 2762,
      "வதற்காக": 2763,
      "ஏற்படும்": 2764,
      "இவை": 2765,
      "பூர்": 2766,
      "கிருஷ்ண": 2767,
      "ஸ்தி": 2768,
      "சர்வதேச": 2769,
      "தொடர்பான": 2770,
      "இள": 2771,
      "வருமான": 2772,
      "எளி": 2773,
      "இறை": 2774,
      "கிலோ": 2775,
      "அபி": 2776,
      "னோ": 2777,
      "‘‘": 2778,
      "ஹெ": 2779,
      "அரசின்": 2780,
      "தோல்": 2781,
      "உடன": 2782,
      "அவர்களை": 2783,
      "தந்த": 2784,
      "வணி": 2785,
      "இருக்கு": 2786,
      "இதே": 2787,
      "தரி": 2788,
      "வளர்ச்சி": 2789,
      "மக்கு": 2790,
      "இணைந்து": 2791,
      "மரண": 2792,
      "ியும்": 2793,
      "அதிகமாக": 2794,
      "தொழிலா": 2795,
      "ப்பூர்": 2796,
      "அழி": 2797,
      "ஒப்ப": 2798,
      "தொகை": 2799,
      "கோயி": 2800,
      "ப்படுகின்றன": 2801,
      "ஆங்கி": 2802,
      "க்கவும்": 2803,
      "ews": 2804,
      "re": 2805,
      "கூடாது": 2806,
      "ப்பாளர்": 2807,
      "மோடி": 2808,
      "ஆட்சிய": 2809,
      "தாய்": 2810,
      "எழுதிய": 2811,
      "மோச": 2812,
      "40": 2813,
      "விட்டார்": 2814,
      "199": 2815,
      "அவர்களுக்கு": 2816,
      "உன்": 2817,
      "எனவும்": 2818,
      "்த்து": 2819,
      "கிறேன்": 2820,
      "வதற்கான": 2821,
      "சமீ": 2822,
      "மருத்து": 2823,
      "ஐந்து": 2824,
      "பொருளாதார": 2825,
      "எதிர்": 2826,
      "அதிகரித்து": 2827,
      "ப்புற": 2828,
      "இடத்தில்": 2829,
      "ஆராய்": 2830,
      "ையிலும்": 2831,
      "Tamil": 2832,
      "மகன்": 2833,
      "முன்பு": 2834,
      "இஸ்": 2835,
      "டில்": 2836,
      "ஜே": 2837,
      "ஞா": 2838,
      "மான்": 2839,
      "இந்தக்": 2840,
      "அடிப்படையில்": 2841,
      "கிழக்கு": 2842,
      "இசை": 2843,
      "நிகழ்ச்சி": 2844,
      "உடை": 2845,
      "100": 2846,
      "க்கையில்": 2847,
      "குண": 2848,
      "மய": 2849,
      "தமிழ்நாடு": 2850,
      "ள்கிற": 2851,
      "களுக்கும்": 2852,
      "நோக்கி": 2853,
      "இறுதி": 2854,
      "தேவையான": 2855,
      "எரி": 2856,
      "யும்": 2857,
      "மேற்கு": 2858,
      "வழங்கி": 2859,
      "எனும்": 2860,
      "அதனை": 2861,
      "பார்வ": 2862,
      "க்கப்படுகிறது": 2863,
      "ங்களாக": 2864,
      "புரிந்து": 2865,
      "செயற்ப": 2866,
      "பயன்": 2867,
      "லர்": 2868,
      "ஸ்தான்": 2869,
      "வெள்ள": 2870,
      "சதவீ": 2871,
      "ஆயு": 2872,
      "கல்லூரி": 2873,
      "க்கண": 2874,
      "வருகிறார்": 2875,
      "le": 2876,
      "ையோ": 2877,
      "சுத": 2878,
      "கோவி": 2879,
      "ர்களும்": 2880,
      "இருந்தாலும்": 2881,
      "நடந்தது": 2882,
      "ின": 2883,
      "குறிப்பாக": 2884,
      "த்தே": 2885,
      "நடு": 2886,
      "ந்திய": 2887,
      "சிலர்": 2888,
      "பற": 2889,
      "தேர்ந்த": 2890,
      "முஸ்லி": 2891,
      "போர்": 2892,
      "அந்தப்": 2893,
      "டல்": 2894,
      "சம்பவ": 2895,
      "வீடியோ": 2896,
      "விருது": 2897,
      "பிரச்சி": 2898,
      "டியில்": 2899,
      "த்திலிருந்து": 2900,
      "சினிமா": 2901,
      "பயன்படுத்தி": 2902,
      "பகுதிகளில்": 2903,
      "விமர்": 2904,
      "as": 2905,
      "வரா": 2906,
      "வலியு": 2907,
      "தடுப்பூசி": 2908,
      "மாற்று": 2909,
      "மாணவர்கள்": 2910,
      "ின்றது": 2911,
      "கோரிக்கை": 2912,
      "ஞர்": 2913,
      "பதில்": 2914,
      ").": 2915,
      "அரச": 2916,
      "is": 2917,
      "திமுக": 2918,
      "குறிப்பிடத்தக்கது": 2919,
      "23": 2920,
      "ஜெயலலிதா": 2921,
      "தண்ட": 2922,
      "ச்சர்": 2923,
      "திருமணம்": 2924,
      "வெளியிட்டு": 2925,
      "எதிர்ப்பு": 2926,
      "நிர": 2927,
      "ிலான": 2928,
      "ங்களிலும்": 2929,
      "நிறைய": 2930,
      "வலியுறு": 2931,
      "சட்டமன்ற": 2932,
      "நீதிபதி": 2933,
      "ார": 2934,
      "ஆளு": 2935,
      "ப்ர": 2936,
      "தொடர்பில்": 2937,
      "கட்சியின்": 2938,
      "நர்": 2939,
      "ெய்": 2940,
      "மட்ட": 2941,
      "என்பதால்": 2942,
      "அழைத்து": 2943,
      "கடன்": 2944,
      "முன்னே": 2945,
      "தியின்": 2946,
      "படத்தில்": 2947,
      "பிரச்னை": 2948,
      "பிள்ளை": 2949,
      "நடிகர்": 2950,
      "பாதிக்கப்பட்ட": 2951,
      "வேளை": 2952,
      "போக்குவர": 2953,
      "வேண்டாம்": 2954,
      "கலா": 2955,
      "ரசு": 2956,
      "அரை": 2957,
      "பண்ண": 2958,
      "கண்கா": 2959,
      "உற்பத்தி": 2960,
      "அரி": 2961,
      "ing": 2962,
      "தேர்ந்தெ": 2963,
      "பில்": 2964,
      "திட்டம்": 2965,
      "பல்கலைக்கழக": 2966,
      "22": 2967,
      "காவல்": 2968,
      "மணிய": 2969,
      "இவர": 2970,
      "னிடம்": 2971,
      "பிரிவு": 2972,
      "வேட்பா": 2973,
      "தாய": 2974,
      "சிங்க": 2975,
      "இந்தியாவின்": 2976,
      "கண்டி": 2977,
      "ரசிக": 2978,
      "ளராக": 2979,
      "த்தகைய": 2980,
      "க்கலாம்": 2981,
      "இம்": 2982,
      "முன்னி": 2983,
      "விருப்ப": 2984,
      "வேன்": 2985,
      "லாந்து": 2986,
      "புல": 2987,
      "ஈடுபட்ட": 2988,
      "வதில்லை": 2989,
      "புலி": 2990,
      "விளையாட்டு": 2991,
      "தோடு": 2992,
      "ol": 2993,
      "தாம்": 2994,
      "கொண்டா": 2995,
      "க்கிறார்": 2996,
      "ங்களி": 2997,
      "குந்த": 2998,
      "ur": 2999,
      "குறு": 3000,
      "வரவே": 3001,
      "நின்": 3002,
      "ப்பர்": 3003,
      "பாகி": 3004,
      "சப": 3005,
      "விண்ண": 3006,
      "விவர": 3007,
      "ுக்கும்": 3008,
      "ப்பதி": 3009,
      "நாயக": 3010,
      "அடுத்து": 3011,
      "க்குழு": 3012,
      "த்துள்ளார்": 3013,
      "எனது": 3014,
      "தன்னை": 3015,
      "போக": 3016,
      "மக்களை": 3017,
      "அனுப்பி": 3018,
      "முன்னெ": 3019,
      "ஒன்றை": 3020,
      "60": 3021,
      "மாற": 3022,
      "க்கிர": 3023,
      "திடீ": 3024,
      "த்தின": 3025,
      "உருவாக": 3026,
      "அதாவது": 3027,
      "ப்போதும்": 3028,
      "பள்ள": 3029,
      "ரயில்": 3030,
      "ப்பும்": 3031,
      "்துறை": 3032,
      "இங்கே": 3033,
      "ங்களைப்": 3034,
      "செய்தனர்": 3035,
      "கிட": 3036,
      "வருக்கும்": 3037,
      "ion": 3038,
      "ன்றால்": 3039,
      "27": 3040,
      "ப்பிர": 3041,
      "காய்": 3042,
      "நீதிமன்றம்": 3043,
      "வெளியிட்ட": 3044,
      "முன": 3045,
      "பகி": 3046,
      "மணிக்கு": 3047,
      "யர்": 3048,
      "த்துப்": 3049,
      "ஒப்பந்த": 3050,
      "ற்பு": 3051,
      "அறிக்கை": 3052,
      "ற்சிய": 3053,
      "ல்கிற": 3054,
      "நடத்திய": 3055,
      "பயண": 3056,
      "சம்பந்த": 3057,
      "லய": 3058,
      "த்தைத்": 3059,
      "சமா": 3060,
      "அனைவரும்": 3061,
      "எழுதி": 3062,
      "சார்ந்த": 3063,
      "கவனி": 3064,
      "உள்": 3065,
      "உண்மை": 3066,
      "உட்பட": 3067,
      "இவர்கள்": 3068,
      "வீன": 3069,
      "கரி": 3070,
      "கிறோம்": 3071,
      "சம்பவம்": 3072,
      "வதில்": 3073,
      "டர்": 3074,
      "சித்த": 3075,
      "அறிய": 3076,
      "உடனடியாக": 3077,
      "ஆப": 3078,
      "நியமி": 3079,
      "இடையே": 3080,
      "ையு": 3081,
      "எச்ச": 3082,
      "வங்க": 3083,
      "ஏற்பாடு": 3084,
      "சூழ்": 3085,
      "விஜய": 3086,
      "க்காமல்": 3087,
      "போலீஸ்": 3088,
      "வண்ண": 3089,
      "தட": 3090,
      "களைத்": 3091,
      "நூற்றா": 3092,
      "சென்னையில்": 3093,
      "ஒழு": 3094,
      "நன்ற": 3095,
      "மல்ல": 3096,
      "இராணுவ": 3097,
      "ஹ்": 3098,
      "மருத்துவமன": 3099,
      "ஊர": 3100,
      "காத": 3101,
      "கூட்டணி": 3102,
      "முறையாக": 3103,
      "முகா": 3104,
      "மாற்றம்": 3105,
      "க்கவில்லை": 3106,
      "பழைய": 3107,
      "பார்ப்ப": 3108,
      "க்கிழமை": 3109,
      "மருத்துவமனை": 3110,
      "வந்தார்": 3111,
      "நாடக": 3112,
      "ெட்": 3113,
      "மாற்றி": 3114,
      "சமய": 3115,
      "ஆட்ட": 3116,
      "லியன்": 3117,
      "(\"": 3118,
      "னார்கள்": 3119,
      "தற்கும்": 3120,
      "லட்ச": 3121,
      "பிள": 3122,
      "கிள": 3123,
      "தொழில்நுட்ப": 3124,
      "ஏற்கனவே": 3125,
      "உடன்": 3126,
      "ற்றும்": 3127,
      "ப்பிடி": 3128,
      "ஆகியோ": 3129,
      "சரியான": 3130,
      "கிட்ட": 3131,
      "வெடி": 3132,
      "விஜய்": 3133,
      "்பு": 3134,
      "இரண்டாவது": 3135,
      "வழக்கில்": 3136,
      "ஸார்": 3137,
      "்த்": 3138,
      "வழியாக": 3139,
      "ினர்": 3140,
      "க்கப்": 3141,
      "அறிமுக": 3142,
      "வெளியிட": 3143,
      "கொஞ்சம்": 3144,
      "குழந்தைகள்": 3145,
      "பலர்": 3146,
      "மீன்": 3147,
      "ஆய்": 3148,
      "ல்லை": 3149,
      "பொருட்கள்": 3150,
      "News": 3151,
      "வைத்திய": 3152,
      "நுழை": 3153,
      "ரங்க": 3154,
      "முதல": 3155,
      "பக்": 3156,
      "இருப்பது": 3157,
      "நம்ப": 3158,
      "காரம்": 3159,
      "தேடி": 3160,
      "சேர்ந்து": 3161,
      "நம்பிக்கை": 3162,
      "ஆணைய": 3163,
      "ழல்": 3164,
      "ங்கர": 3165,
      "கழு": 3166,
      "ந்தர": 3167,
      "லாத": 3168,
      "ிருக்கிறார்கள்": 3169,
      "ரம்ப": 3170,
      "அலை": 3171,
      "பறி": 3172,
      "கடவு": 3173,
      "்பா": 3174,
      "வைத்": 3175,
      "தெரிவித்த": 3176,
      "ch": 3177,
      "முனை": 3178,
      "வெள": 3179,
      "கூட்டம்": 3180,
      "றான": 3181,
      "சுற்றி": 3182,
      "வலு": 3183,
      "புகார்": 3184,
      "விட்டால்": 3185,
      "தமது": 3186,
      "புதி": 3187,
      "அருகில்": 3188,
      "புகைப்பட": 3189,
      "ரஜி": 3190,
      "ச்சிய": 3191,
      "அதிமுக": 3192,
      "பக்த": 3193,
      "லாமல்": 3194,
      "26": 3195,
      "28": 3196,
      "செய்வது": 3197,
      "இடம்பெற்ற": 3198,
      "ai": 3199,
      "ஹோ": 3200,
      "மானி": 3201,
      "அமைந்துள்ள": 3202,
      "திகதி": 3203,
      "ஏனெ": 3204,
      "அந்தக்": 3205,
      "ஏற்ற": 3206,
      "கற்ப": 3207,
      "தம்ப": 3208,
      "பொதுவாக": 3209,
      "இருப்பி": 3210,
      "ஓட்ட": 3211,
      "சூரிய": 3212,
      "ஆலோசனை": 3213,
      "லத்தில்": 3214,
      "நடைமுறை": 3215,
      "நினைவு": 3216,
      "க்காது": 3217,
      "ஐக்கிய": 3218,
      "விழி": 3219,
      "க்ட": 3220,
      "சிறை": 3221,
      "வருகின்றன": 3222,
      "ல்களில்": 3223,
      "நமது": 3224,
      "எங்க": 3225,
      "அளவுக்கு": 3226,
      "பயன்படுத்து": 3227,
      "ஆண்க": 3228,
      "வையில்": 3229,
      "கவு": 3230,
      "பட்": 3231,
      "லால்": 3232,
      "எழுத": 3233,
      "இவரது": 3234,
      "போட": 3235,
      "இக்கோ": 3236,
      "குற": 3237,
      "சகோ": 3238,
      "செலுத்த": 3239,
      "தலைமைய": 3240,
      "போராட்டம்": 3241,
      "பாஜ": 3242,
      "எனக்": 3243,
      "நவ": 3244,
      "வினர்": 3245,
      "ட்ரோ": 3246,
      "அதிபர்": 3247,
      "ஓட்டு": 3248,
      "சிங்": 3249,
      "வெப்ப": 3250,
      "விவசாயிகள்": 3251,
      "சுதந்திர": 3252,
      "புத்தக": 3253,
      "செய்தார்": 3254,
      "அலுவலக": 3255,
      "ங்கல்": 3256,
      "த்துற": 3257,
      "ையைப்": 3258,
      "ர்டு": 3259,
      "அறு": 3260,
      "ட்டிற்கு": 3261,
      "இந்தத்": 3262,
      "ங்கியது": 3263,
      "ணும்": 3264,
      "வதி": 3265,
      "ப்பாடு": 3266,
      "சட்டம்": 3267,
      "அரசாங்கம்": 3268,
      "வணிக": 3269,
      "மதிப்பு": 3270,
      "அமைந்துள்ளது": 3271,
      "த்தினர்": 3272,
      "த்திரை": 3273,
      "சரியாக": 3274,
      "பிரே": 3275,
      "விவசாய": 3276,
      "வரலாறு": 3277,
      "ஒன்றிய": 3278,
      "லியா": 3279,
      "சாதாரண": 3280,
      "அக்க": 3281,
      "உட்க": 3282,
      "மாகக்": 3283,
      "!!": 3284,
      "ஆர்வ": 3285,
      "ரோடு": 3286,
      "கிய": 3287,
      "ண்டிய": 3288,
      "நிமிட": 3289,
      "தலைமையில்": 3290,
      "வகுப்பு": 3291,
      "ுமா": 3292,
      "பரிசோதனை": 3293,
      "வசி": 3294,
      "குதியில்": 3295,
      "நாளில்": 3296,
      "முக்கியமான": 3297,
      "வர்களில்": 3298,
      "இயற்கை": 3299,
      "த்துல": 3300,
      "நிச்ச": 3301,
      "முதலா": 3302,
      "நிறுவனங்கள்": 3303,
      "காஷ்": 3304,
      "யாரும்": 3305,
      "அனுப்ப": 3306,
      "கூறியுள்ளார்": 3307,
      "கையா": 3308,
      "விற்க": 3309,
      "198": 3310,
      "நெரு": 3311,
      "பேரும்": 3312,
      "படத்தின்": 3313,
      "அமி": 3314,
      "எதிரான": 3315,
      "ோட": 3316,
      "ட்ஸ்": 3317,
      "வடக்கு": 3318,
      "கருத": 3319,
      "லியல்": 3320,
      "விரைவில்": 3321,
      "இன்றைய": 3322,
      "பிக்": 3323,
      "ுள்ள": 3324,
      "போக்குவரத்து": 3325,
      "ாவது": 3326,
      "ந்திரன்": 3327,
      "ர்ப்பா": 3328,
      "நகரில்": 3329,
      "தாக்கல்": 3330,
      "இலக்கிய": 3331,
      "பிரச்சினை": 3332,
      "அங்கே": 3333,
      "ஸா": 3334,
      "முடிந்த": 3335,
      "செலவு": 3336,
      "கூட்டு": 3337,
      "க்கின்றன": 3338,
      "ஆரம்ப": 3339,
      "ஸ்தான": 3340,
      "நொ": 3341,
      "நாட": 3342,
      "போட்டியில்": 3343,
      "அண்ணா": 3344,
      "ழ்க": 3345,
      "பாட்டு": 3346,
      "கவர்": 3347,
      "விரும்பு": 3348,
      "காத்த": 3349,
      "ரியம்": 3350,
      "கொண்டார்": 3351,
      "நகை": 3352,
      "வினை": 3353,
      "ியுள்ள": 3354,
      "ஒலி": 3355,
      "அடிப்படை": 3356,
      "ூட": 3357,
      "மேல": 3358,
      "el": 3359,
      "ஞான": 3360,
      "குமார்": 3361,
      "ஸ்டாலின்": 3362,
      "ங்களைக்": 3363,
      "பத்திரி": 3364,
      "இருவரும்": 3365,
      "சுய": 3366,
      "பேரா": 3367,
      "காந்தி": 3368,
      "பயங்கர": 3369,
      "கதா": 3370,
      "கோவை": 3371,
      "அடிக்க": 3372,
      "நிறுவனத்தின்": 3373,
      "தோன்ற": 3374,
      "ையால்": 3375,
      "உறுப்பினர்": 3376,
      "கண்காணி": 3377,
      "கொல்ல": 3378,
      "ூரில்": 3379,
      "ண்மை": 3380,
      "ிலிருந்து": 3381,
      "ிற்க": 3382,
      "உரிய": 3383,
      "க்குச்": 3384,
      "ளையும்": 3385,
      "பரபர": 3386,
      "ay": 3387,
      "ைப்": 3388,
      "கிரிக்க": 3389,
      "எப்போதும்": 3390,
      "வைர": 3391,
      "எதிர்பார்க்க": 3392,
      "ற்றம்": 3393,
      "பாலி": 3394,
      "பிரச்ச": 3395,
      "எதுவும்": 3396,
      "மருத்துவமனையில்": 3397,
      "நன்றாக": 3398,
      "மாகவும்": 3399,
      "விரும்ப": 3400,
      "நடிகை": 3401,
      "அல்லா": 3402,
      "இரா": 3403,
      "ற்றின்": 3404,
      "த்தீ": 3405,
      "க்கப்பட்டுள்ள": 3406,
      "மில்லை": 3407,
      "திட்டமி": 3408,
      "ரொம்ப": 3409,
      "மன்ன": 3410,
      "தெரிவித்துள்ளது": 3411,
      "னுடன்": 3412,
      "பக்கம்": 3413,
      "ுள்ளது": 3414,
      "அவற்றை": 3415,
      "உள்ளார்": 3416,
      "ஆதி": 3417,
      "இப்போ": 3418,
      "சாலையில்": 3419,
      "உடனே": 3420,
      "the": 3421,
      "பாத்திர": 3422,
      "னாக": 3423,
      "வற்றில்": 3424,
      "சந்தை": 3425,
      "தாகும்": 3426,
      "அவருடைய": 3427,
      "மிக்க": 3428,
      "ச்சியில்": 3429,
      "di": 3430,
      "பரிந்து": 3431,
      "படும்": 3432,
      "வாங்கு": 3433,
      "வாடிக்க": 3434,
      "கொழும்": 3435,
      "நிறுத்த": 3436,
      "இருப்பினும்": 3437,
      "ப்பதற்கு": 3438,
      "பாலியல்": 3439,
      "ந்துள்ளது": 3440,
      "ையைக்": 3441,
      "இன்னொரு": 3442,
      "அவசியம்": 3443,
      "சந்தேக": 3444,
      "பேருக்கு": 3445,
      "இங்கி": 3446,
      "நியா": 3447,
      "வல்ல": 3448,
      "வகி": 3449,
      "இதையடுத்து": 3450,
      "னினும்": 3451,
      "நல்லது": 3452,
      "அப": 3453,
      "ஸ்டி": 3454,
      "பெரும்பாலான": 3455,
      "ையினர்": 3456,
      "ஸ்பெ": 3457,
      "தொடங்க": 3458,
      "வெளியான": 3459,
      "ந்தனர்": 3460,
      "முத்து": 3461,
      "வாசி": 3462,
      "ங்களது": 3463,
      "அச்ச": 3464,
      "தந்தை": 3465,
      "நாடுகளில்": 3466,
      "பாஜக": 3467,
      "லிருந்த": 3468,
      "வித்தியா": 3469,
      "மனம்": 3470,
      "எல்லோ": 3471,
      "மிருந்து": 3472,
      "29": 3473,
      "ணியில்": 3474,
      "ைக்": 3475,
      "பன்": 3476,
      "நமக்கு": 3477,
      "காட்ட": 3478,
      "கருணா": 3479,
      "நெருக்க": 3480,
      "ர்ட்ட": 3481,
      "நாட்கள்": 3482,
      "un": 3483,
      "க்குத்": 3484,
      "குள": 3485,
      "``": 3486,
      "ர்களா": 3487,
      "கிறி": 3488,
      "க்காத": 3489,
      "தானே": 3490,
      "இருந்தார்": 3491,
      "கொள்கை": 3492,
      "ருடன்": 3493,
      "ச்சல்": 3494,
      "ஊர்": 3495,
      "்கா": 3496,
      "மொழ": 3497,
      "இருக்கலாம்": 3498,
      "வடை": 3499,
      "த்திரம்": 3500,
      "தற்கொ": 3501,
      "மேலா": 3502,
      "தயாராக": 3503,
      "கவலை": 3504,
      "குறிப்பிட்டு": 3505,
      "காதல்": 3506,
      "வெளியாக": 3507,
      "70": 3508,
      "ோக": 3509,
      "போன்": 3510,
      "ஒருங்கி": 3511,
      "எவ்வளவு": 3512,
      "பாத": 3513,
      "of": 3514,
      "ஒப்பு": 3515,
      "தடுப்பு": 3516,
      "நபர்": 3517,
      "த்துவம்": 3518,
      "ag": 3519,
      "ழ்ப்ப": 3520,
      "ப்பட்டன": 3521,
      "ரிட": 3522,
      "கடும்": 3523,
      "வாடிக்கையா": 3524,
      "எனினும்": 3525,
      "த்திட்ட": 3526,
      "க்கூடாது": 3527,
      "டியும்": 3528,
      "நாடுகள்": 3529,
      "டுப்பா": 3530,
      "குழந்த": 3531,
      "ப்படுத்து": 3532,
      "கைப்ப": 3533,
      "நீதிமன்றத்தில்": 3534,
      "சாதி": 3535,
      "நின்று": 3536,
      "ஒருங்கிணை": 3537,
      "விடம்": 3538,
      "அந்": 3539,
      "னான்": 3540,
      "ையுடன்": 3541,
      "பாய்": 3542,
      "நோயா": 3543,
      "நன்றி": 3544,
      "யமாக": 3545,
      "திரும்பி": 3546,
      "வேண்டுமெ": 3547,
      "சேர்ந்தவர்": 3548,
      "இச": 3549,
      "and": 3550,
      "ஈடுபட்டு": 3551,
      "கவனம்": 3552,
      "டாக்டர்": 3553,
      "ீட்டு": 3554,
      "நடக்கும்": 3555,
      "கொண்டுள்ளது": 3556,
      "வெள்ளை": 3557,
      "உள்ளே": 3558,
      "மீட்டர்": 3559,
      "மரா": 3560,
      "ங்கோ": 3561,
      "வியாபா": 3562,
      "கீழே": 3563,
      "சமீபத்தில்": 3564,
      "கமி": 3565,
      "ெழு": 3566,
      "விக்": 3567,
      "கோவில்": 3568,
      "பாவ": 3569,
      "ப்படுத்தும்": 3570,
      "எண்ணெய்": 3571,
      "முதலமை": 3572,
      "நிகழ்வு": 3573,
      "படைய": 3574,
      "வையும்": 3575,
      "்தா": 3576,
      "க்கர": 3577,
      "தேர்": 3578,
      "தாக்குதல்": 3579,
      "ய்ய": 3580,
      "வொ": 3581,
      "மத்தியில்": 3582,
      "ளர்களுக்கு": 3583,
      "நடைபெற்றது": 3584,
      "கண்": 3585,
      "தரும்": 3586,
      "லங்கா": 3587,
      "க்கர்": 3588,
      "நகராட்சி": 3589,
      "ஓடி": 3590,
      "ஆதரவு": 3591,
      "பஸ்": 3592,
      "ளவில்": 3593,
      "ட்டார்": 3594,
      "முதலீடு": 3595,
      "கழக": 3596,
      "குற்றச்சா": 3597,
      "பெரும்பாலும்": 3598,
      "ரையும்": 3599,
      "நெடு": 3600,
      "பழனி": 3601,
      "டில்லி": 3602,
      "சபா": 3603,
      "பட்ச": 3604,
      "னான": 3605,
      "உழை": 3606,
      "முள்ள": 3607,
      "சிர": 3608,
      "தாக்குத": 3609,
      "தள்ள": 3610,
      "ாக்": 3611,
      "எதிர்க்க": 3612,
      "உரையா": 3613,
      "ஆக்": 3614,
      "னல்": 3615,
      "மீதான": 3616,
      "சொத்து": 3617,
      "இளம்": 3618,
      "க்டர்": 3619,
      "நோய்க": 3620,
      "கிடையா": 3621,
      "ளிகள்": 3622,
      "வர்த்தக": 3623,
      "ஆரோ": 3624,
      "ர்களில்": 3625,
      "ரஜினி": 3626,
      "எடுத்துக்": 3627,
      "எமது": 3628,
      "ரியும்": 3629,
      "மிர": 3630,
      "நவீன": 3631,
      "தகவல்கள்": 3632,
      "இரண்டாம்": 3633,
      "கையை": 3634,
      "தெல்லாம்": 3635,
      "மார்ச்": 3636,
      "தினமும்": 3637,
      "வூ": 3638,
      "குமா": 3639,
      "வீர்கள்": 3640,
      "யாழ்ப்ப": 3641,
      "நேர்": 3642,
      "தெரியும்": 3643,
      "ரிமை": 3644,
      "வேளா": 3645,
      "இருப்பதாக": 3646,
      "தற்கொலை": 3647,
      "மூத்த": 3648,
      "பகுதியை": 3649,
      "35": 3650,
      "களைச்": 3651,
      "த்திற்கும்": 3652,
      "பரிந்துரை": 3653,
      "காப்பா": 3654,
      "பொதுமக்கள்": 3655,
      "தயாரிப்பு": 3656,
      "to": 3657,
      "us": 3658,
      "புண": 3659,
      "நோக்க": 3660,
      "ப்படவில்லை": 3661,
      "பெயரில்": 3662,
      "2011": 3663,
      "ஆண்டுகளுக்கு": 3664,
      "இப்பட": 3665,
      "ப்பார்கள்": 3666,
      "நிற்க": 3667,
      "சுவாமி": 3668,
      "ஹீ": 3669,
      "அவசர": 3670,
      "டாமல்": 3671,
      "அளித்த": 3672,
      "துடுப்பா": 3673,
      "வழங்கும்": 3674,
      "கொண்டே": 3675,
      "திருத்த": 3676,
      "புள்ளி": 3677,
      "யிற்று": 3678,
      "போதே": 3679,
      "ராத": 3680,
      "தொடர்": 3681,
      "மொத்தம்": 3682,
      "உண்ட": 3683,
      "வளை": 3684,
      "தெய்": 3685,
      "தெரிந்து": 3686,
      "தீர்வு": 3687,
      "க்கொள்": 3688,
      "முடியவில்லை": 3689,
      "இழு": 3690,
      "ிருப்பது": 3691,
      "உதவிய": 3692,
      "45": 3693,
      "ri": 3694,
      "இந்தி": 3695,
      "ஆசிரியர்": 3696,
      "வாதம்": 3697,
      "ஸ்திரே": 3698,
      "கிடையாது": 3699,
      "ஆண்டுகள்": 3700,
      "என்பவர்": 3701,
      "தமிழர்": 3702,
      "மின்றி": 3703,
      "சற்று": 3704,
      "ரத்த": 3705,
      "மாள்": 3706,
      "ளையம்": 3707,
      "மீன": 3708,
      "கரை": 3709,
      "றது": 3710,
      "படத்தை": 3711,
      "பருவ": 3712,
      "ரவி": 3713,
      "ளவு": 3714,
      "ாய்": 3715,
      "இயல்": 3716,
      "ங்களால்": 3717,
      "விளம்ப": 3718,
      "ீர்": 3719,
      "ரிகள்": 3720,
      "2015": 3721,
      "சிரி": 3722,
      "கார்த்தி": 3723,
      "மற்றொரு": 3724,
      "மேம்ப": 3725,
      "மலே": 3726,
      "ராள": 3727,
      "//": 3728,
      "தமான": 3729,
      "சிந்த": 3730,
      "கூறப்படுகிறது": 3731,
      "கொள்கிற": 3732,
      "கொண்டது": 3733,
      "ராஜபக்": 3734,
      "எல்லை": 3735,
      "தினம்": 3736,
      "2020": 3737,
      "ிருந்தால்": 3738,
      "வாச": 3739,
      "திருவ": 3740,
      "க்கையை": 3741,
      "தீர்மான": 3742,
      "ஜை": 3743,
      "தய": 3744,
      "ரவு": 3745,
      "பிடித்து": 3746,
      "மகள்": 3747,
      "நடக்க": 3748,
      "முழுமையாக": 3749,
      "க்கிறார்கள்": 3750,
      "அறை": 3751,
      "இலவச": 3752,
      "செய்திகள்": 3753,
      "சமு": 3754,
      "பலி": 3755,
      "பயணம்": 3756,
      "சாதன": 3757,
      "சுற்றுலா": 3758,
      "உதாரண": 3759,
      "பராம": 3760,
      "?”": 3761,
      "கூடுதல்": 3762,
      "ஷே": 3763,
      "சொல்கிற": 3764,
      "அதிகமான": 3765,
      "வாரம்": 3766,
      "சனம்": 3767,
      "ர்ப்பி": 3768,
      "மிகப்பெ": 3769,
      "நடித்த": 3770,
      "ஷ்டி": 3771,
      "பூர்வ": 3772,
      "இருப்பதால்": 3773,
      "பாராளுமன்ற": 3774,
      "ent": 3775,
      "துடுப்பாட்ட": 3776,
      "அணை": 3777,
      "டுகள்": 3778,
      "கட்டா": 3779,
      "அபிவிரு": 3780,
      "நெல்": 3781,
      "பரிசு": 3782,
      "உறவு": 3783,
      "தடுக்க": 3784,
      "சாத்திய": 3785,
      "சீன": 3786,
      "செல்வ": 3787,
      "அடிக்கடி": 3788,
      "கிரிக்கெட்": 3789,
      "ஆடை": 3790,
      "வெள்ளி": 3791,
      "தோட்ட": 3792,
      "பெற்றோ": 3793,
      "ன்களை": 3794,
      "போன்று": 3795,
      "கடல்": 3796,
      "றுத்த": 3797,
      "சுமி": 3798,
      "தவிர்க்க": 3799,
      "ராகு": 3800,
      "அடையாள": 3801,
      "்ட்": 3802,
      "500": 3803,
      "பந்த": 3804,
      "திரா": 3805,
      "டியை": 3806,
      "ிருந்தனர்": 3807,
      "எட": 3808,
      "கம்ப": 3809,
      "நோய": 3810,
      "சிறப்பாக": 3811,
      "திடீரெ": 3812,
      "அழக": 3813,
      "சசிக": 3814,
      "வைப்": 3815,
      "வர்களும்": 3816,
      "ளர்களை": 3817,
      "குற்றம்": 3818,
      "பந்து": 3819,
      "குண்டு": 3820,
      "ட்டல்": 3821,
      "தெரு": 3822,
      "பொலிஸ்": 3823,
      "ஒதுக்க": 3824,
      "டனும்": 3825,
      "்கள்": 3826,
      "க்கத்தில்": 3827,
      "முது": 3828,
      "த்துள்ள": 3829,
      "கடைசி": 3830,
      "மண்டல": 3831,
      "சசிகலா": 3832,
      "அன்ற": 3833,
      "ூன்": 3834,
      "செயல்படு": 3835,
      "நிர்வாகி": 3836,
      "குவி": 3837,
      "செய்தது": 3838,
      "முன்னர்": 3839,
      "உப்பு": 3840,
      "சர்க்க": 3841,
      "சுர": 3842,
      "கூட்டத்தில்": 3843,
      "வதாகவும்": 3844,
      "துப்பா": 3845,
      "சிங்கள": 3846,
      "வேற": 3847,
      "சுட்டி": 3848,
      "ியால்": 3849,
      "ஸ்டர்": 3850,
      "மதிய": 3851,
      "அறிந்த": 3852,
      "வெளியில்": 3853,
      "ஏற்பட்டது": 3854,
      "டுகிறது": 3855,
      "ஆரோக்கிய": 3856,
      "த்திரி": 3857,
      "இதுகுறித்து": 3858,
      "நடைபெற": 3859,
      "இருக்கிறார்": 3860,
      "எழுத்து": 3861,
      "உரிமையா": 3862,
      "சந்திர": 3863,
      "றவு": 3864,
      "மாகப்": 3865,
      "கொண்டனர்": 3866,
      "ஊரடங்கு": 3867,
      "ஷம்": 3868,
      "கான்": 3869,
      "ச்சியை": 3870,
      "2019": 3871,
      "டெல்லி": 3872,
      "களுக்கான": 3873,
      "ஆழ": 3874,
      "கப்ப": 3875,
      "தொடர்ந்த": 3876,
      "80": 3877,
      "ஏப்": 3878,
      "ளே": 3879,
      "வரையும்": 3880,
      "செய்யப்பட்டது": 3881,
      "31": 3882,
      "மரியா": 3883,
      "பலரும்": 3884,
      "வாழ்த்து": 3885,
      "நிலையம்": 3886,
      "மேற்கொண்ட": 3887,
      "ஐரோ": 3888,
      "ளிக்க": 3889,
      "பொருத்த": 3890,
      "திரி": 3891,
      "என்றாலும்": 3892,
      "விளக்க": 3893,
      "ச்சேரி": 3894,
      "அனைத்தும்": 3895,
      "தவறு": 3896,
      "கவிதை": 3897,
      "பண்ணி": 3898,
      "ருந்த": 3899,
      "நிலையத்தில்": 3900,
      "கடற்ப": 3901,
      "தற்போதைய": 3902,
      "டூ": 3903,
      "பொழுது": 3904,
      "க்குக்": 3905,
      "ஆகியவை": 3906,
      "உணர்வு": 3907,
      "வந்துள்ளது": 3908,
      "உலகம்": 3909,
      "முருகன்": 3910,
      "தண்டனை": 3911,
      "எப்ப": 3912,
      "ஆகியவற்றை": 3913,
      "பட்டியல்": 3914,
      "க்கால": 3915,
      "நாட்களுக்கு": 3916,
      "என்கிறார்": 3917,
      "ஆவண": 3918,
      "போடு": 3919,
      "படிக்க": 3920,
      "இயக்குனர்": 3921,
      "ப்பொரு": 3922,
      "குர": 3923,
      "பணிகள்": 3924,
      "புதிதாக": 3925,
      "காரை": 3926,
      "vi": 3927,
      "நாத": 3928,
      "மேற்கொண்டு": 3929,
      "விதை": 3930,
      "197": 3931,
      "கிடைத்த": 3932,
      "அப்படியே": 3933,
      "பாகிஸ்தான்": 3934,
      "அச்சு": 3935,
      "மண்ண": 3936,
      "நிறுத்தி": 3937,
      "ட்சியில்": 3938,
      "பொருட்களை": 3939,
      "ஆற்ற": 3940,
      "ங்களுடன்": 3941,
      "தெரிந்த": 3942,
      "அறிவியல்": 3943,
      "விலங்கு": 3944,
      "கற்று": 3945,
      "உதவு": 3946,
      "ஏழு": 3947,
      "சனி": 3948,
      "ப்பாடி": 3949,
      "நியூ": 3950,
      "உத்தரவு": 3951,
      "ul": 3952,
      "துர": 3953,
      "ட்டுகள்": 3954,
      "நடைபெறும்": 3955,
      "நன்கு": 3956,
      "த்தள": 3957,
      "ங்கில்": 3958,
      "கேரளா": 3959,
      "இலங்கையில்": 3960,
      "முஸ்லிம்": 3961,
      "வைக்": 3962,
      "மக்களி": 3963,
      "கொள்ளும்": 3964,
      "மடைந்த": 3965,
      "அடு": 3966,
      "விகி": 3967,
      "வழியில்": 3968,
      "ப்பம்": 3969,
      "னேன்": 3970,
      "சால": 3971,
      "அமைந்த": 3972,
      "செய்யலாம்": 3973,
      "நிலைமை": 3974,
      "அவரின்": 3975,
      "கான": 3976,
      "செப்ட": 3977,
      "விலும்": 3978,
      "மையும்": 3979,
      "தைப்": 3980,
      "இருக்கின்றன": 3981,
      "அனுபவ": 3982,
      "துணி": 3983,
      "னைப்": 3984,
      "அதிர": 3985,
      "ஸ்டே": 3986,
      "உயிர்": 3987,
      "சந்தோ": 3988,
      "மிகப்பெரிய": 3989,
      "மூட": 3990,
      "அறிந்து": 3991,
      "வளாக": 3992,
      "பதவிய": 3993,
      "சூர்": 3994,
      "ஹே": 3995,
      "மாய்": 3996,
      "யிலில்": 3997,
      "தொழிற்": 3998,
      "ஃபி": 3999,
      "வாக்க": 4000,
      "செயல": 4001,
      "அபிவிருத்தி": 4002,
      "ஹை": 4003,
      "ந்தர்": 4004,
      "எங்களுக்கு": 4005,
      "படுத்து": 4006,
      "எழுத்தா": 4007,
      "ஆனாலும்": 4008,
      "அவு": 4009,
      "வாரி": 4010,
      "எத்தனை": 4011,
      "பிரச்சனை": 4012,
      "?''": 4013,
      "ex": 4014,
      "ண்டில்": 4015,
      "நிபுண": 4016,
      "பொறுப்பு": 4017,
      "உறவின": 4018,
      "பது": 4019,
      "ையையும்": 4020,
      "தலைவர்கள்": 4021,
      "பிடித்த": 4022,
      "ஏதாவது": 4023,
      "மழ": 4024,
      "வெகு": 4025,
      "ையிலிருந்து": 4026,
      "பிரதிநிதி": 4027,
      "த்தோ": 4028,
      "பெரி": 4029,
      "த்ரா": 4030,
      "்குமார்": 4031,
      "வீரர்கள்": 4032,
      "முதன்மை": 4033,
      "கௌ": 4034,
      "கன்ன": 4035,
      "தப்பி": 4036,
      "நிலையை": 4037,
      "தனிப்பட்ட": 4038,
      "சந்தித்து": 4039,
      "ht": 4040,
      "நட்ச": 4041,
      "கொண்டிருக்கும்": 4042,
      "!''": 4043,
      "துரு": 4044,
      "சிறிது": 4045,
      "த்தோடு": 4046,
      "மார்க்க": 4047,
      "இந்தச்": 4048,
      "தலாக": 4049,
      "ையெ": 4050,
      "பான": 4051,
      "மிள": 4052,
      "ஏற்பட": 4053,
      "ஆதார": 4054,
      "ஆண்டுகளாக": 4055,
      "நடிக": 4056,
      "சதவீத": 4057,
      "ஆண்": 4058,
      "நன்மை": 4059,
      "த்திலேயே": 4060,
      "பேருந்து": 4061,
      "ஃப": 4062,
      "சமைய": 4063,
      "விசாரி": 4064,
      "ro": 4065,
      "ரசி": 4066,
      "மாநிலம்": 4067,
      "மாநிலத்தில்": 4068,
      "ஆராய்ச்சி": 4069,
      "et": 4070,
      "மஞ்ச": 4071,
      "கல்யா": 4072,
      "குறைவாக": 4073,
      "உட்பட்ட": 4074,
      "பசு": 4075,
      "மங்க": 4076,
      "தமிழகம்": 4077,
      "மூலமாக": 4078,
      "தூக்கி": 4079,
      "ஏதோ": 4080,
      "பஞ்சா": 4081,
      "விரோ": 4082,
      "நானும்": 4083,
      "தெலு": 4084,
      "ஏற்படுத்தி": 4085,
      "ப்பட்டுள்ள": 4086,
      "ஒன்றாக": 4087,
      "பேராசிரிய": 4088,
      "ஆவார்": 4089,
      "சிலை": 4090,
      "போலவே": 4091,
      "பணியில்": 4092,
      "முயற்சிய": 4093,
      "்டோ": 4094,
      "செவ்": 4095,
      "வில்ல": 4096,
      "க்கணக்கான": 4097,
      "அல்": 4098,
      "படங்கள்": 4099,
      "மில்லியன்": 4100,
      "பிரசா": 4101,
      "வடிவமை": 4102,
      "உன": 4103,
      "ஸில்": 4104,
      "திலும்": 4105,
      "தெரிவித்தனர்": 4106,
      "அறிவிப்பு": 4107,
      "பதில": 4108,
      "இறந்த": 4109,
      "பார்க்கும்": 4110,
      "இஸ்லா": 4111,
      "கப்": 4112,
      "மூடி": 4113,
      "்துற": 4114,
      "தாரம்": 4115,
      "அங்கீ": 4116,
      "அத்துடன்": 4117,
      "ரீதியாக": 4118,
      "அடையாளம்": 4119,
      "\",": 4120,
      "ஆவது": 4121,
      "நாதன்": 4122,
      "யாழ்": 4123,
      "கிளி": 4124,
      "வெறும்": 4125,
      "சம்பர்": 4126,
      "வழக்கறி": 4127,
      "ak": 4128,
      "ப்போம்": 4129,
      "பெங்கள": 4130,
      "ஸ்மா": 4131,
      "கரன்": 4132,
      "யூனி": 4133,
      "அடைந்த": 4134,
      "வதன்": 4135,
      "விசே": 4136,
      "பாரு": 4137,
      "ங்களே": 4138,
      "மூர்த்தி": 4139,
      "நடவடிக்கைகள்": 4140,
      "தொலைக்கா": 4141,
      "தீர்மானி": 4142,
      "மண்": 4143,
      "வெறு": 4144,
      "மாகி": 4145,
      ".”": 4146,
      "ஆனா": 4147,
      "போய": 4148,
      "தியும்": 4149,
      "பெற்றது": 4150,
      "விடய": 4151,
      "கட்டத்தில்": 4152,
      "வீரர்": 4153,
      "கிராம்": 4154,
      "ந்திரம்": 4155,
      "எதிர்த்து": 4156,
      "நேரடியாக": 4157,
      "த்துக்கும்": 4158,
      "கொடுப்ப": 4159,
      "2021": 4160,
      "தமிழ்நாட்டில்": 4161,
      "2018": 4162,
      "ஜனநாயக": 4163,
      "சப்": 4164,
      "வந்தால்": 4165,
      "வாழும்": 4166,
      "பொறுத்த": 4167,
      "உறுப்பினர்கள்": 4168,
      "காய்க": 4169,
      "மதிப்ப": 4170,
      "த்திற்காக": 4171,
      "அப்போ": 4172,
      "ண்டர்": 4173,
      "முடியாமல்": 4174,
      "நூல்": 4175,
      "காப்ப": 4176,
      "பின்ப": 4177,
      "மேலே": 4178,
      "செய்யப்பட்டுள்ளது": 4179,
      "பிரதம": 4180,
      "க்கிறேன்": 4181,
      "ண்ணு": 4182,
      "தெரியவில்லை": 4183,
      "இருக்கிறார்கள்": 4184,
      "கடுமையான": 4185,
      "சகோதர": 4186,
      "யல்": 4187,
      "196": 4188,
      "எதிர்கால": 4189,
      "வைக்கும்": 4190,
      "சேமி": 4191,
      "வானி": 4192,
      "நாட்டை": 4193,
      "எதிர்கொ": 4194,
      "மாறிய": 4195,
      "காஷ்மீ": 4196,
      "இவ": 4197,
      "இடைய": 4198,
      "இத்தகைய": 4199,
      "க்குறி": 4200,
      "வேல்": 4201,
      "ராஜன்": 4202,
      "ஓய்வு": 4203,
      "கடந்து": 4204,
      "ine": 4205,
      "ப்த": 4206,
      "க்கூட": 4207,
      "அன்பு": 4208,
      "ஆயுத": 4209,
      "கமல்": 4210,
      "ரையா": 4211,
      "லைன்": 4212,
      "வேண்டுமா": 4213,
      "ஏனெனில்": 4214,
      "In": 4215,
      "ஆண": 4216,
      "ஒட்டு": 4217,
      "இதற்க": 4218,
      "ளர்களின்": 4219,
      "ள்ளதாகவும்": 4220,
      "பக்கத்தில்": 4221,
      "மிகுந்த": 4222,
      "திருப்ப": 4223,
      "திறந்து": 4224,
      "நீங்க": 4225,
      "விபத்து": 4226,
      "வைக்கப்பட்ட": 4227,
      "கட்டுரை": 4228,
      "பாடல்": 4229,
      "ங்களுக்கும்": 4230,
      "ac": 4231,
      "2016": 4232,
      "உங்களை": 4233,
      "தன்னுடைய": 4234,
      "திருவிழா": 4235,
      "நடைபெற்று": 4236,
      "உருவாக்கி": 4237,
      "திகள்": 4238,
      "பிளா": 4239,
      "உள்ளட": 4240,
      "ரான்": 4241,
      "விஷயம்": 4242,
      "சதவி": 4243,
      "சாய": 4244,
      "த்தினை": 4245,
      "சொன்னா": 4246,
      "ட்டியில்": 4247,
      "வயதில்": 4248,
      "நிறைவேற்ற": 4249,
      "ஏப்ரல்": 4250,
      "ஒத்து": 4251,
      "டொ": 4252,
      "குல": 4253,
      "வுள்ளது": 4254,
      "அரசுக்கு": 4255,
      "பிள்": 4256,
      "சும": 4257,
      "ங்களா": 4258,
      "வென்ற": 4259,
      "ையைச்": 4260,
      "வழங்கிய": 4261,
      "ஆசை": 4262,
      "உத்திய": 4263,
      "சும்": 4264,
      "விளக்கு": 4265,
      "உலகின்": 4266,
      "உடைய": 4267,
      "புனி": 4268,
      "தலைவராக": 4269,
      "நாட்களில்": 4270,
      "90": 4271,
      "பாத்": 4272,
      "உள்ளா": 4273,
      "க்குற": 4274,
      "வெட்டு": 4275,
      "முன்தி": 4276,
      "கந்த": 4277,
      "னீ": 4278,
      "வரைய": 4279,
      "வரிச": 4280,
      "கணக்கு": 4281,
      "2017": 4282,
      "வாய்ந்த": 4283,
      "தாக்க": 4284,
      "நடைபெறு": 4285,
      "கிடைக்க": 4286,
      "மாணவி": 4287,
      "துண்டு": 4288,
      "விடுத்து": 4289,
      "போகும்": 4290,
      "த்தினால்": 4291,
      "பெற்றார்": 4292,
      "கொள்ளலாம்": 4293,
      "பாலா": 4294,
      "ir": 4295,
      "பிய": 4296,
      "ையிலான": 4297,
      "சொல்லு": 4298,
      "உற்": 4299,
      "குறிய": 4300,
      "சதவிகி": 4301,
      "ளால்": 4302,
      "அட்ட": 4303,
      "ந்தைய": 4304,
      "பச்சை": 4305,
      "ல்லிய": 4306,
      "ையைத்": 4307,
      "க்குள்ள": 4308,
      "ியுள்ளார்": 4309,
      "விழிப்பு": 4310,
      "்த்தி": 4311,
      "வுள்ள": 4312,
      "தமிழ்த்": 4313,
      "வகையான": 4314,
      "பொலிஸார்": 4315,
      "அதற்கான": 4316,
      "ணர்வு": 4317,
      "காட்டிய": 4318,
      "ரைப்": 4319,
      "நடக்கிறது": 4320,
      "தெரிகிறது": 4321,
      "பிறப்பி": 4322,
      "வழங்கப்படும்": 4323,
      "தீர்ப்ப": 4324,
      "வரலாற்று": 4325,
      "முன்தினம்": 4326,
      "சரா": 4327,
      "ஜு": 4328,
      "முற்றி": 4329,
      "முன்னணி": 4330,
      "ஜன்": 4331,
      "சாதனை": 4332,
      "நிர்வாகம்": 4333,
      "நவம்பர்": 4334,
      "ரியை": 4335,
      "ஜனவரி": 4336,
      "கேரள": 4337,
      "ிழமை": 4338,
      "நடத்து": 4339,
      "விதமான": 4340,
      "சவு": 4341,
      "வெட்டி": 4342,
      "உயர்ந்த": 4343,
      "ட்பு": 4344,
      "ிருக்கலாம்": 4345,
      "ஊழியர்கள்": 4346,
      "\")": 4347,
      "விட்": 4348,
      "சேலம்": 4349,
      "ப்பட்டுள்ளன": 4350,
      "பணத்தை": 4351,
      "ங்களுடைய": 4352,
      "தலைமையிலான": 4353,
      "இங்கிலாந்து": 4354,
      "அப்": 4355,
      "ரைக்": 4356,
      "வர்களாக": 4357,
      "ஸ்பூன்": 4358,
      "ஜூன்": 4359,
      "அர்த்த": 4360,
      "பட்டி": 4361,
      "ப்பதாக": 4362,
      "திருச்சி": 4363,
      "கடிதம்": 4364,
      "தடு": 4365,
      "ுக்கான": 4366,
      "டுவது": 4367,
      "சேவ": 4368,
      "எவ்வாறு": 4369,
      "தர்ம": 4370,
      "ரியின்": 4371,
      "வற்றின்": 4372,
      "ள்கள்": 4373,
      "அலுவலகத்தில்": 4374,
      "அன்ப": 4375,
      "விடுவி": 4376,
      "ஏராள": 4377,
      "வத": 4378,
      "வசூ": 4379,
      "சமான": 4380,
      "பாண்டிய": 4381,
      "உருவாக்க": 4382,
      "அக்டோ": 4383,
      "வைச்": 4384,
      "est": 4385,
      "மட": 4386,
      "அதிர்ச்ச": 4387,
      "நியாய": 4388,
      "36": 4389,
      "ுடைய": 4390,
      "ையெல்லாம்": 4391,
      "வாரண": 4392,
      "ந்துள்ளனர்": 4393,
      "சங்கம்": 4394,
      "அழுத்த": 4395,
      "ப்ரவரி": 4396,
      "ரையில்": 4397,
      "யானை": 4398,
      "முழுக்க": 4399,
      "பொதுச்": 4400,
      "கொழும்பு": 4401,
      "முதலமைச்சர்": 4402,
      "அஞ்ச": 4403,
      "தகுதி": 4404,
      "மலா": 4405,
      "ர்களாக": 4406,
      "கண்டறிய": 4407,
      "த்திற்கான": 4408,
      "அணியின்": 4409,
      "ர்களே": 4410,
      "உண்மையில்": 4411,
      "ஏற்பட்டுள்ளது": 4412,
      "ஆங்கில": 4413,
      "ாது": 4414,
      "செய்க": 4415,
      "ட்டிங்": 4416,
      "ஆண்டுகளில்": 4417,
      "விரும்பி": 4418,
      "பெட்ரோ": 4419,
      "தொடர்ச்ச": 4420,
      "நிகழ": 4421,
      "ஒழி": 4422,
      "சுழ": 4423,
      "மிடம்": 4424,
      "பிரதான": 4425,
      "தனக்கு": 4426,
      "காணப்படும்": 4427,
      "எடப்பாடி": 4428,
      "செப்டம்பர்": 4429,
      "துரை": 4430,
      "வரம்": 4431,
      "அனைவருக்கும்": 4432,
      "அவர்களது": 4433,
      "நடித்து": 4434,
      "ath": 4435,
      "நின்ற": 4436,
      "னது": 4437,
      "பாய": 4438,
      "நிதிய": 4439,
      "மையம்": 4440,
      "வந்தனர்": 4441,
      "தோற்ற": 4442,
      "நிறுவ": 4443,
      "ராஜே": 4444,
      "உயர": 4445,
      "சதவீதம்": 4446,
      "ut": 4447,
      "யான": 4448,
      "ப்பன்": 4449,
      "வெங்க": 4450,
      "ளுக்கும்": 4451,
      "பட்டா": 4452,
      "அச": 4453,
      "ப்பூ": 4454,
      "ப்புக்கு": 4455,
      "ப்படுகின்றது": 4456,
      "வேண்டியது": 4457,
      "புறம்": 4458,
      "ஸின்": 4459,
      "டிசம்பர்": 4460,
      "மீட்க": 4461,
      "உதவும்": 4462,
      "பவு": 4463,
      "நாராய": 4464,
      "மட்டுமல்ல": 4465,
      "கிளை": 4466,
      "கடின": 4467,
      "ஆப்பி": 4468,
      "அதிகரிக்கும்": 4469,
      "ஆகி": 4470,
      "கனி": 4471,
      "விஞ்": 4472,
      "தெற்கு": 4473,
      "விற்பன": 4474,
      "இயக்குநர்": 4475,
      "ஃபே": 4476,
      "இலை": 4477,
      "ம்பா": 4478,
      "வாயி": 4479,
      "ரியல்": 4480,
      "நம்மை": 4481,
      "அதனா": 4482,
      "ஆண்கள்": 4483,
      "காம": 4484,
      "க்கப்பட்டுள்ளன": 4485,
      "பேசினார்": 4486,
      "ரசிகர்கள்": 4487,
      "ஆத": 4488,
      "யாக": 4489,
      "ஆர்ப்பா": 4490,
      "பவர்": 4491,
      "ழகம்": 4492,
      "வெளிநாட்டு": 4493,
      "உண்மையான": 4494,
      "எட்டு": 4495,
      "பத்": 4496,
      "எழுந்த": 4497,
      "பூங்கா": 4498,
      "கலெ": 4499,
      "மனதில்": 4500,
      "தெரிவித்துள்ளனர்": 4501,
      "புதுடில்லி": 4502,
      "போட்டியி": 4503,
      "ஆஸ்திரே": 4504,
      "க்கின்றனர்": 4505,
      "சொல்லும்": 4506,
      "கதி": 4507,
      "டான": 4508,
      "கோண": 4509,
      "விட்டனர்": 4510,
      "பார்வை": 4511,
      "அக்": 4512,
      "லைப்": 4513,
      "க்கப்பட்டார்": 4514,
      "பணிய": 4515,
      "வீட்டுக்கு": 4516,
      "கமாக": 4517,
      "லுார்": 4518,
      "லட்சுமி": 4519,
      "ுபடி": 4520,
      "கடற்க": 4521,
      "சீர": 4522,
      "ஆயிரத்து": 4523,
      "பங்கேற்ற": 4524,
      "இண": 4525,
      "க்கட்ட": 4526,
      "ங்க்": 4527,
      "நாள": 4528,
      "காண்ப": 4529,
      "பேசும்": 4530,
      "மட்டக்கள": 4531,
      "த்தேன்": 4532,
      "டிவி": 4533,
      "அறிக்கையில்": 4534,
      "தவறான": 4535,
      "சட்டமன்றத்": 4536,
      "னோம்": 4537,
      "மதம்": 4538,
      "ச்சார": 4539,
      "ஏற்படுத்தியுள்ளது": 4540,
      "கூடுதலாக": 4541,
      "சட": 4542,
      "வரையில்": 4543,
      "ப்புகளை": 4544,
      "ப்பட்டார்": 4545,
      "வேண்டி": 4546,
      "நிறைந்த": 4547,
      "அக்டோபர்": 4548,
      "ப்பான்": 4549,
      "நான்க": 4550,
      "னைக்": 4551,
      "அவளை": 4552,
      "நகரம்": 4553,
      "சிறையில்": 4554,
      "மார்க்": 4555,
      "குரல்": 4556,
      "சுத்த": 4557,
      "விளக்கம்": 4558,
      "ஊரில்": 4559,
      "வழக்கம்": 4560,
      "போட்டிகளில்": 4561,
      "um": 4562,
      "பௌ": 4563,
      "முட": 4564,
      "களே": 4565,
      "ஒன்றில்": 4566,
      "தயாரிக்க": 4567,
      "காந்த": 4568,
      "உருவாக்கு": 4569,
      "மூன்றாவது": 4570,
      "கரோனா": 4571,
      "காந்த்": 4572,
      "என்னுடைய": 4573,
      "ச்சூ": 4574,
      "நீடி": 4575,
      "ஆகவே": 4576,
      "மொபை": 4577,
      "ிருக்கின்றன": 4578,
      "நட்சத்திர": 4579,
      "ஸை": 4580,
      "பாதை": 4581,
      "வேள": 4582,
      "சர்க்கரை": 4583,
      "ருமான": 4584,
      "காஞ்சி": 4585,
      "தொகுதியில்": 4586,
      "போராட்டத்தில்": 4587,
      "வாதிகள்": 4588,
      "எனப்படும்": 4589,
      "அமைச்சர": 4590,
      "திடீரென": 4591,
      "lo": 4592,
      "ியோ": 4593,
      "மனோ": 4594,
      "ஏராளமான": 4595,
      "75": 4596,
      "வைத்தார்": 4597,
      "எனப்": 4598,
      "எனத்": 4599,
      "வைத்துக்": 4600,
      "எண்": 4601,
      "தக்க": 4602,
      "தங்களது": 4603,
      "பாரம்ப": 4604,
      "வருகை": 4605,
      "அம்ச": 4606,
      "பெண்களுக்கு": 4607,
      ",''": 4608,
      "முடைய": 4609,
      "தேவி": 4610,
      "உடலில்": 4611,
      "முறைகள்": 4612,
      "இதய": 4613,
      "நாயகர்": 4614,
      "விளம்பர": 4615,
      "துப்பாக்கி": 4616,
      "48": 4617,
      "ளோ": 4618,
      "செய்தியா": 4619,
      "இறுதியில்": 4620,
      "ிருப்பதாக": 4621,
      "பாரதி": 4622,
      "காவல்துற": 4623,
      "ஆணை": 4624,
      "நை": 4625,
      "வட்டார": 4626,
      "செயல்பாடு": 4627,
      "கலைஞ": 4628,
      "ஆடி": 4629,
      "கோரி": 4630,
      "இடையில்": 4631,
      "தனிமை": 4632,
      "மரி": 4633,
      "சிற்ற": 4634,
      "ணிகள்": 4635,
      "சேன": 4636,
      "கொள்ளுங்கள்": 4637,
      "வலியுறுத்தி": 4638,
      "99": 4639,
      "அண்ண": 4640,
      "சிக்கி": 4641,
      "குறைந்து": 4642,
      "im": 4643,
      "ஆல": 4644,
      "எப்போது": 4645,
      "ப்படுத்துவ": 4646,
      "இறங்கி": 4647,
      "மின்ன": 4648,
      "பாடசாலை": 4649,
      "நிர்ண": 4650,
      "காய்கறி": 4651,
      "டிரை": 4652,
      "தேசம்": 4653,
      "செய்யா": 4654,
      "தெரிவிக்கப்பட்டுள்ளது": 4655,
      "படப்பிடி": 4656,
      "புகா": 4657,
      "என்பதே": 4658,
      "மாவட்டங்களில்": 4659,
      "கணக்கெ": 4660,
      "குடிநீர்": 4661,
      "ap": 4662,
      "லூர்": 4663,
      "வவு": 4664,
      "தரப்பி": 4665,
      "பூஜை": 4666,
      "அழகு": 4667,
      "ப்பதிவு": 4668,
      "தயார்": 4669,
      "வையாக": 4670,
      "புரா": 4671,
      "பூசை": 4672,
      "ையின": 4673,
      "ரெண்டு": 4674,
      "இறந்து": 4675,
      "தெய்வ": 4676,
      "em": 4677,
      "ந்தில்": 4678,
      "கொஞ்ச": 4679,
      "கோப": 4680,
      "மீறி": 4681,
      "நம்ம": 4682,
      "பெருமை": 4683,
      "பராமரி": 4684,
      "பன்ன": 4685,
      "நிவாரண": 4686,
      "பொன்": 4687,
      "திராவிட": 4688,
      "ik": 4689,
      "எங்கே": 4690,
      "ொழுது": 4691,
      "த்தட்ட": 4692,
      "டையை": 4693,
      "பிரித்தான": 4694,
      "ஆயிர": 4695,
      "​​": 4696,
      "மாய": 4697,
      "தற்கா": 4698,
      "ரும்பு": 4699,
      "தகவல்களை": 4700,
      "தளத்தில்": 4701,
      "ஸ்தா": 4702,
      "ந்தோ": 4703,
      "நாட்டி": 4704,
      "உலகில்": 4705,
      "அமெரிக்காவில்": 4706,
      "வசதிகள்": 4707,
      "ரத்": 4708,
      "சுரு": 4709,
      "தரப்பு": 4710,
      "எழுந்து": 4711,
      "விளைவு": 4712,
      "அடைய": 4713,
      "நல்லா": 4714,
      "கிரா": 4715,
      "வருடம்": 4716,
      "கருவி": 4717,
      "சென்றார்": 4718,
      "வேகமாக": 4719,
      "இவருக்கு": 4720,
      "ஒப்படை": 4721,
      "ஓவிய": 4722,
      "மளி": 4723,
      "விப": 4724,
      "காரிய": 4725,
      "க்கியது": 4726,
      "பதிலாக": 4727,
      "தமிழில்": 4728,
      "புகழ்": 4729,
      "்ப்": 4730,
      "போலி": 4731,
      "யாரு": 4732,
      "கணே": 4733,
      "கிராமத்தில்": 4734,
      "சொன்னார்": 4735,
      "டிக்": 4736,
      "ஏழை": 4737,
      "சியம்": 4738,
      "ந்திரா": 4739,
      "விவகார": 4740,
      "கொடுக்கும்": 4741,
      "த்தொட": 4742,
      "கடுமையாக": 4743,
      "Re": 4744,
      "com": 4745,
      "ட்டுப்": 4746,
      "ர்களால்": 4747,
      "அமைக்க": 4748,
      "முஸ்லிம்க": 4749,
      "33": 4750,
      "ஈழ": 4751,
      "்போ": 4752,
      "த்தன்": 4753,
      "நிரூ": 4754,
      "வேலி": 4755,
      "195": 4756,
      "முறையை": 4757,
      "றேன்": 4758,
      "விநிய": 4759,
      "வாய்க்க": 4760,
      "க்கெட்": 4761,
      "துறையில்": 4762,
      "இதற்காக": 4763,
      "பனி": 4764,
      "ப்பதற்காக": 4765,
      "பான்": 4766,
      "வருகிறார்கள்": 4767,
      "தொடங்கு": 4768,
      "நடிக்க": 4769,
      "2014": 4770,
      "சுட்டிக்கா": 4771,
      "அகி": 4772,
      "கள்ள": 4773,
      "கண்ணா": 4774,
      "வறு": 4775,
      "வாயில்": 4776,
      "வரிசை": 4777,
      "இணைப்பு": 4778,
      "தேவையில்": 4779,
      "கிட்டத்தட்ட": 4780,
      "தள்ளி": 4781,
      "மஹி": 4782,
      "க்களின்": 4783,
      "ட்டுக்": 4784,
      "திட்டத்தை": 4785,
      "செல்வம்": 4786,
      "பேச்சுவார்த்தை": 4787,
      "ஸ்து": 4788,
      "செல்க": 4789,
      "அடித்து": 4790,
      "ation": 4791,
      "அனுபவி": 4792,
      "மகிழ்ச்சி": 4793,
      "த்தலை": 4794,
      "சாம்": 4795,
      "வருவது": 4796,
      "சூப்பர்": 4797,
      "ப்பொ": 4798,
      "காற்று": 4799,
      "பெர்": 4800,
      "ையிலேயே": 4801,
      "இயக்கத்தில்": 4802,
      "தெளிவாக": 4803,
      "iv": 4804,
      "தமாக": 4805,
      "விலக": 4806,
      "தாண்டி": 4807,
      "தியா": 4808,
      "ப்பதை": 4809,
      "டிகள்": 4810,
      "மைக்": 4811,
      "ஒருநாள்": 4812,
      "டத்தில்": 4813,
      "ியே": 4814,
      "மிரு": 4815,
      "கேமரா": 4816,
      "போன்றவை": 4817,
      "ஐரோப்பிய": 4818,
      "ுள்ளனர்": 4819,
      "முர": 4820,
      "வியின்": 4821,
      "அதன்படி": 4822,
      "திறன்": 4823,
      "நடவடிக்கைகளை": 4824,
      "கூறியதாவது": 4825,
      "ய்க்கு": 4826,
      "புகழ": 4827,
      "பகிர்ந்து": 4828,
      "ப்பால்": 4829,
      "ரிக்": 4830,
      "ஸ்பு": 4831,
      "வேளாண்": 4832,
      "[[": 4833,
      "id": 4834,
      "எடுப்ப": 4835,
      "ரஷ்": 4836,
      "பேரில்": 4837,
      "பிறப்பு": 4838,
      "திணை": 4839,
      "இவ்வளவு": 4840,
      "தொலைக்காட்சி": 4841,
      "பெட்டி": 4842,
      "ஜித்": 4843,
      "மாணவர்களுக்கு": 4844,
      "மன்னி": 4845,
      "விலிருந்து": 4846,
      "பாளையம்": 4847,
      "வீதி": 4848,
      "எந்தவொரு": 4849,
      "செலுத்தி": 4850,
      "டையில்": 4851,
      "க்குரிய": 4852,
      "புரோ": 4853,
      "]]": 4854,
      "ஆப்": 4855,
      "தன்மை": 4856,
      "திறந்த": 4857,
      "37": 4858,
      "எக்": 4859,
      "யன்": 4860,
      "தொண்ட": 4861,
      "செய்தால்": 4862,
      "தோழ": 4863,
      "மோகன்": 4864,
      "குடியிரு": 4865,
      "பள்ளியில்": 4866,
      "வவுனியா": 4867,
      "அசை": 4868,
      "ம்ஸ்": 4869,
      "வெங்கா": 4870,
      "ரைச்": 4871,
      "மும்பை": 4872,
      "க்கூடும்": 4873,
      "சிரம": 4874,
      "புனித": 4875,
      "லக்": 4876,
      "்டு": 4877,
      "ராக்": 4878,
      "ஜூலை": 4879,
      "குற்றச்சாட்டு": 4880,
      "தரா": 4881,
      "னையும்": 4882,
      "வற": 4883,
      "சிவா": 4884,
      "களிடம்": 4885,
      "வீட்டி": 4886,
      "இருந்தன": 4887,
      "பரப்ப": 4888,
      "க்கோட்டை": 4889,
      "கடைசிய": 4890,
      "இளைஞர்": 4891,
      "சக்த": 4892,
      "விழாவில்": 4893,
      "ஓர": 4894,
      "சலு": 4895,
      "தலா": 4896,
      "போயி": 4897,
      "ங்களைச்": 4898,
      "வியலா": 4899,
      "பின்பு": 4900,
      "அவ்வ": 4901,
      "இழந்து": 4902,
      "கட்டிய": 4903,
      "களுக்காக": 4904,
      "மகே": 4905,
      "விபர": 4906,
      "நாயக்க": 4907,
      "முயன்ற": 4908,
      "வாழ்ந்த": 4909,
      "சூழலில்": 4910,
      "இக்கோயில்": 4911,
      "பாரம்பரிய": 4912,
      "வாங்கிய": 4913,
      "திட்டத்தின்": 4914,
      "உற்சாக": 4915,
      "அர்": 4916,
      "மகளி": 4917,
      "நாத்": 4918,
      "ர்களிடம்": 4919,
      "வருவதாக": 4920,
      "குற்றவா": 4921,
      "32": 4922,
      "அண்": 4923,
      "கற்க": 4924,
      "பவர்கள்": 4925,
      "ங்களைத்": 4926,
      "கல்லு": 4927,
      "முற்றிலும்": 4928,
      "44": 4929,
      "னையை": 4930,
      "காவல்துறை": 4931,
      "சவா": 4932,
      "பங்களி": 4933,
      "மால்": 4934,
      "கேட்ப": 4935,
      "கடித": 4936,
      "ாகப்": 4937,
      "ப்பட்டி": 4938,
      "நீல": 4939,
      "கட்டுப்படுத்த": 4940,
      "க்கொண்டே": 4941,
      "தொடர்புடைய": 4942,
      "நாராயண": 4943,
      "av": 4944,
      "ஆலய": 4945,
      "லியில்": 4946,
      "உள்ளூர்": 4947,
      "அறிவித்த": 4948,
      "நம்பிக்க": 4949,
      "ஒதுக்கீடு": 4950,
      "க்கீ": 4951,
      "க்கத்": 4952,
      "காலி": 4953,
      "இதுதான்": 4954,
      "தீர்ப்பு": 4955,
      "விதமாக": 4956,
      "அவ்வளவு": 4957,
      "பணியாற்றி": 4958,
      "கஷ்ட": 4959,
      "க்குமா": 4960,
      "ராசி": 4961,
      "திருப்பூர்": 4962,
      "திரைப்படம்": 4963,
      "கருணாநிதி": 4964,
      "நோயாளி": 4965,
      "இதன": 4966,
      "ஒன்றி": 4967,
      "ஓய்": 4968,
      "சிந்தி": 4969,
      "பாச": 4970,
      "தீர்க்க": 4971,
      "இரத்த": 4972,
      "அதிகரிக்க": 4973,
      "ராமன்": 4974,
      "திட்டமிட்டு": 4975,
      "ஆஜ": 4976,
      "பிப்ரவரி": 4977,
      "ளித்த": 4978,
      "கம்யூனி": 4979,
      "கூட்டமை": 4980,
      "சமுதாய": 4981,
      "மட்டக்களப்பு": 4982,
      "காவிரி": 4983,
      "சுரே": 4984,
      "பத்திரிகை": 4985,
      "அப்புற": 4986,
      "முந்தைய": 4987,
      "வருகிற": 4988,
      "காலமாக": 4989,
      "ரீம்": 4990,
      "நம்பு": 4991,
      "இலங்கையின்": 4992,
      "நேரங்களில்": 4993,
      "தெரியாது": 4994,
      "பெங்களூ": 4995,
      "லைக்": 4996,
      "வாட": 4997,
      "க்கிறோம்": 4998,
      "கணவர்": 4999,
      "இவ்வா": 5000,
      "கட்சிகள்": 5001,
      "பாராட்டு": 5002,
      "மருத்துவர்": 5003,
      "வனை": 5004,
      "ாணம்": 5005,
      "பிரம்": 5006,
      "பிற்ப": 5007,
      "எழுது": 5008,
      "சோதன": 5009,
      "முக்கியத்துவம்": 5010,
      "வானது": 5011,
      "சிதம்ப": 5012,
      "செயற்க": 5013,
      "குடியரசு": 5014,
      "ையொ": 5015,
      "க்கும்போது": 5016,
      "கட்டண": 5017,
      "மலர்": 5018,
      "கம்பெ": 5019,
      "கூறுகையில்": 5020,
      "38": 5021,
      "ில": 5022,
      "்தொ": 5023,
      "விஸ்": 5024,
      "விலான": 5025,
      "புற்று": 5026,
      "..!": 5027,
      "என்றே": 5028,
      "தொடங்கிய": 5029,
      "ிருக்கிறேன்": 5030,
      "கனவு": 5031,
      "சாப்பிட": 5032,
      "க்கட்டு": 5033,
      "ந்தன்": 5034,
      "ள்ளா": 5035,
      "களா": 5036,
      "அதிர்ச்சி": 5037,
      "வீட்டை": 5038,
      "ந்திரி": 5039,
      "தம்பி": 5040,
      "சைக்கி": 5041,
      "ஜெர்": 5042,
      "தவற": 5043,
      "பட்டியலில்": 5044,
      "உயிரிழந்த": 5045,
      "அரிசி": 5046,
      "விண்ணப்ப": 5047,
      "எச்சரிக்கை": 5048,
      "அற்பு": 5049,
      "செய்யப்படும்": 5050,
      "தேசியக்": 5051,
      "அமெரிக்காவின்": 5052,
      "அட்டை": 5053,
      "பாஸ்": 5054,
      "மானிய": 5055,
      "வீழ்": 5056,
      "ஞ்சிய": 5057,
      "ையானது": 5058,
      "ஆரம்பித்து": 5059,
      "அலங்கா": 5060,
      "எதிர்க்கட்சி": 5061,
      "இஸ்லாமிய": 5062,
      "காது": 5063,
      "தைக்": 5064,
      "ஏற்கெ": 5065,
      "நபர்கள்": 5066,
      "வருமானம்": 5067,
      "தலி": 5068,
      "ட்டத்தில்": 5069,
      "பிசி": 5070,
      "அவனை": 5071,
      "தொடங்கியது": 5072,
      "கணக்கில்": 5073,
      "அதேபோல்": 5074,
      "காங்கிர": 5075,
      "தொகுதிக்கும்": 5076,
      "ராகுல்": 5077,
      "--": 5078,
      "டைந்த": 5079,
      "விழுப்பு": 5080,
      "குறிப்பிட்டுள்ளார்": 5081,
      "மஞ்சள்": 5082,
      "ஏற்கெனவே": 5083,
      "மஹா": 5084,
      "சித்து": 5085,
      "அவற்றின்": 5086,
      "உள்ளதாக": 5087,
      "என்பதும்": 5088,
      "வயதான": 5089,
      "டெஸ்ட்": 5090,
      "ன்றித": 5091,
      "ஒழுங்கு": 5092,
      "இளைய": 5093,
      "ஆன்லைன்": 5094,
      "ot": 5095,
      "விண்": 5096,
      "முடிவெ": 5097,
      "ன்பது": 5098,
      "புதுச்சேரி": 5099,
      "அட்": 5100,
      "எடை": 5101,
      "படித்த": 5102,
      "அலுவலகம்": 5103,
      "அழுத்தம்": 5104,
      "பழனிசாமி": 5105,
      "ஒத்துழை": 5106,
      "சண்டை": 5107,
      "லாபம்": 5108,
      "க்கிட்டு": 5109,
      "முடித்து": 5110,
      "முடிந்தது": 5111,
      "சொல்லிய": 5112,
      "சமயம்": 5113,
      "ஆல்": 5114,
      "அமைத்து": 5115,
      "பிரிவில்": 5116,
      "மாணவர்": 5117,
      "ையமை": 5118,
      "முழ": 5119,
      "ர்களுடன்": 5120,
      "தீர்கள்": 5121,
      "தனியாக": 5122,
      "செய்துள்ளது": 5123,
      "அறிவித்துள்ளது": 5124,
      "வாழ்க்கையில்": 5125,
      "முன்னேற்ற": 5126,
      "ஆக்கிர": 5127,
      "இடி": 5128,
      "பாட்டி": 5129,
      "கொழு": 5130,
      "விட்டர்": 5131,
      "ையில": 5132,
      "ப்படுத்திய": 5133,
      "பெருமாள்": 5134,
      "தோல்வி": 5135,
      "கொண்டாட": 5136,
      "யாழ்ப்பாண": 5137,
      "காதல": 5138,
      "தானம்": 5139,
      "திருப்பி": 5140,
      "ct": 5141,
      "அன": 5142,
      "சான்றித": 5143,
      "பயன": 5144,
      "அறிகுறி": 5145,
      "அறிமுகம்": 5146,
      "குடும்பத்தில்": 5147,
      "அழைப்பு": 5148,
      "ணிய": 5149,
      "மேலாக": 5150,
      "தளபதி": 5151,
      "பெட்ரோல்": 5152,
      "ப்தி": 5153,
      "வுக்கும்": 5154,
      "அவரிடம்": 5155,
      "படித்து": 5156,
      "வழங்கப்பட்டது": 5157,
      "சந்தர்ப்ப": 5158,
      "ஃபா": 5159,
      "ஏறி": 5160,
      "ஒப்பி": 5161,
      "ஜம்": 5162,
      "றுப்பு": 5163,
      "இருக்காது": 5164,
      "தொடர": 5165,
      "யாரா": 5166,
      "இலக்கு": 5167,
      "தேர்ந்தெடு": 5168,
      "od": 5169,
      "அத்தகைய": 5170,
      "க்குறை": 5171,
      "தீவு": 5172,
      "ட்கள்": 5173,
      "பெற்றோர்": 5174,
      "அதுவும்": 5175,
      "த்தாலும்": 5176,
      "ஸ்பி": 5177,
      "சம்பந்தப்பட்ட": 5178,
      "விசேட": 5179,
      "நிரூபி": 5180,
      "ஊழல்": 5181,
      "சல": 5182,
      "ர்க்கு": 5183,
      "கடமை": 5184,
      "க்கப்பட்டன": 5185,
      "மிகப்": 5186,
      "சந்தித்த": 5187,
      "Th": 5188,
      "உங்க": 5189,
      "எச்": 5190,
      "மீட்ட": 5191,
      "மாநிலங்களில்": 5192,
      "லாகும்": 5193,
      "எதிர்வரும்": 5194,
      "ஹீரோ": 5195,
      "மகளிர்": 5196,
      "சக்கர": 5197,
      "முட்டை": 5198,
      "வனின்": 5199,
      "படிப்ப": 5200,
      "மோட்டார்": 5201,
      "ையிட": 5202,
      "விவகாரம்": 5203,
      "நரே": 5204,
      "மியா": 5205,
      "வோர்": 5206,
      "வதற்கும்": 5207,
      "கிண": 5208,
      "ஒருமுறை": 5209,
      "நீரில்": 5210,
      "ப்படாத": 5211,
      "ட்டிக்": 5212,
      "பகுதியாக": 5213,
      "சந்திக்க": 5214,
      "வெளியிட்டுள்ள": 5215,
      "விண்ணப்பி": 5216,
      "த்யா": 5217,
      "நிகழ்ச்சியில்": 5218,
      "கிருஷ்ணன்": 5219,
      "காதலி": 5220,
      "அரிய": 5221,
      "நாண": 5222,
      "சாரம்": 5223,
      "வெவ்": 5224,
      "ல்களுக்கு": 5225,
      "கர்நாடக": 5226,
      "அளிக்க": 5227,
      "மறந்து": 5228,
      "நிரந்தர": 5229,
      "மொபைல்": 5230,
      "அன்ன": 5231,
      "ப்பட்டனர்": 5232,
      "ய்யா": 5233,
      "அமைதி": 5234,
      "இடம்பெற்று": 5235,
      "மாதத்தில்": 5236,
      "இத்தா": 5237,
      "வளி": 5238,
      "காலையில்": 5239,
      "இவற்றில்": 5240,
      "அமைப்பின்": 5241,
      "ஆட்டோ": 5242,
      "ஆக்கிரமி": 5243,
      "?’": 5244,
      "tp": 5245,
      "உரை": 5246,
      "சான்": 5247,
      "வீட்டிற்கு": 5248,
      "நேரில்": 5249,
      "சூழல்": 5250,
      "65": 5251,
      "ீங்க": 5252,
      "நிகழ்வில்": 5253,
      "லூ": 5254,
      "மாநகராட்சி": 5255,
      "பாறை": 5256,
      "காணாமல்": 5257,
      "பணிகளை": 5258,
      "குடும்பம்": 5259,
      "பற்றியும்": 5260,
      "செய்கிறது": 5261,
      "ிலேயே": 5262,
      "ிடையே": 5263,
      "லாப": 5264,
      "வெற்ற": 5265,
      "இருந்தும்": 5266,
      "ல்களின்": 5267,
      "2013": 5268,
      "சென்றனர்": 5269,
      "கையெழு": 5270,
      "பங்கேற்க": 5271,
      "முல்லை": 5272,
      "நாட்ட": 5273,
      "ன்றும்": 5274,
      "நீட்டி": 5275,
      "அதைப்": 5276,
      "வற்றையும்": 5277,
      "பார்த்தால்": 5278,
      "பிரான்": 5279,
      "ளுடன்": 5280,
      "த்தெ": 5281,
      "2009": 5282,
      "விழுந்து": 5283,
      "குறிப்பிட்டார்": 5284,
      ">>": 5285,
      "ஜான்": 5286,
      "தகு": 5287,
      "பத்திர": 5288,
      "நிர்வ": 5289,
      "ிருக்கு": 5290,
      "தாகக்": 5291,
      "நண்பர்கள்": 5292,
      "ப்பூர்வ": 5293,
      "விமர்சன": 5294,
      "க்களில்": 5295,
      "சிக்": 5296,
      "சுல": 5297,
      "சாய்": 5298,
      "தொடக்க": 5299,
      "இரட்டை": 5300,
      "அனைத்தையும்": 5301,
      "கட்டணம்": 5302,
      "பாதிக்கப்பட்டு": 5303,
      "டெல்ல": 5304,
      "விடுதலைப்": 5305,
      "மஹிந்த": 5306,
      "ஆர": 5307,
      "தனு": 5308,
      "ாகவும்": 5309,
      "கார்ப": 5310,
      "சாதக": 5311,
      "மேம்": 5312,
      "ராஜி": 5313,
      "லோக": 5314,
      "பாக்": 5315,
      "உதய": 5316,
      "ஆதரவாக": 5317,
      "றாங்க": 5318,
      "கவுன்": 5319,
      "அதிரடி": 5320,
      "நிர்வகி": 5321,
      "த்தூர்": 5322,
      "மாம்": 5323,
      "அவனுக்கு": 5324,
      "வருவாய்": 5325,
      "காலங்களில்": 5326,
      "ியுள்ளனர்": 5327,
      "அவ்வாறு": 5328,
      "ip": 5329,
      "அத்தியா": 5330,
      "ஆச்ச": 5331,
      "வண்டி": 5332,
      "நிலம்": 5333,
      "சொன்": 5334,
      "டாத": 5335,
      "பகுதிய": 5336,
      "கண்டறி": 5337,
      "மரணம்": 5338,
      "மோசடி": 5339,
      "நிமிடங்கள்": 5340,
      "முடிந்து": 5341,
      "நிலைக்கு": 5342,
      "முன்னதாக": 5343,
      "விசாரணைக்கு": 5344,
      "ஏற்படுத்தும்": 5345,
      "நிர்வாகிகள்": 5346,
      "ர்கா": 5347,
      "வட்டா": 5348,
      "கொள்வது": 5349,
      "மோசமான": 5350,
      "ஆர்வம்": 5351,
      "உண்டாகும்": 5352,
      "ig": 5353,
      "ப்பதில்": 5354,
      "ையன்": 5355,
      "ர்களுக்கும்": 5356,
      "கிறான்": 5357,
      "வருகின்ற": 5358,
      "அங்கிருந்து": 5359,
      "பக்தர்கள்": 5360,
      "ட்டால்": 5361,
      "வென்று": 5362,
      "ளைக்": 5363,
      "கருப்பு": 5364,
      "விட்டன": 5365,
      "அமர்ந்த": 5366,
      "உப": 5367,
      "மியை": 5368,
      "லையும்": 5369,
      "விடுத்த": 5370,
      "வாகும்": 5371,
      "கிடைத்தது": 5372,
      "வாயு": 5373,
      "நாட்களாக": 5374,
      "அணிய": 5375,
      "http": 5376,
      "கல்லுா": 5377,
      ".\"": 5378,
      "அதற்காக": 5379,
      "ளான": 5380,
      "வூர்": 5381,
      "க்கடை": 5382,
      "பின": 5383,
      "கிரே": 5384,
      ".....": 5385,
      "சோதி": 5386,
      "இளைஞர்கள்": 5387,
      "மங்கலம்": 5388,
      "ரவ": 5389,
      "போதிலும்": 5390,
      "செயலக": 5391,
      "புரிய": 5392,
      "கைக்கு": 5393,
      "ராமநாத": 5394,
      "வன்முறை": 5395,
      "படுத்தி": 5396,
      "நிச்சயம்": 5397,
      "பேராசிரியர்": 5398,
      "தொடர்ச்சியாக": 5399,
      "பன்னீர்": 5400,
      "ஏக்கர்": 5401,
      "தடுத்து": 5402,
      "வள்": 5403,
      "இரண்ட": 5404,
      "நெறி": 5405,
      "வெற்றிகர": 5406,
      "வேட்பாளர்": 5407,
      "சிற்றூ": 5408,
      "டனான": 5409,
      "வயி": 5410,
      "றிவு": 5411,
      "கோட்டை": 5412,
      "ப்படுவது": 5413,
      "முடிவுக்கு": 5414,
      "முடியுமா": 5415,
      "களிலிருந்து": 5416,
      "ஏற்றி": 5417,
      "க்கின்": 5418,
      "சிலி": 5419,
      "ரம்ப்": 5420,
      "நினைத்து": 5421,
      "நடவடிக்க": 5422,
      "சமர்ப்பி": 5423,
      "47": 5424,
      "://": 5425,
      "சத்திய": 5426,
      "வரான": 5427,
      "ழிவு": 5428,
      "இயந்திர": 5429,
      "விடுமுறை": 5430,
      "எல்லோரும்": 5431,
      "நலம்": 5432,
      "பஞ்ச": 5433,
      "பார்க்கிற": 5434,
      "மருத்துவர்கள்": 5435,
      "ோகி": 5436,
      "வாக்கா": 5437,
      "பாடி": 5438,
      "சம்பாதி": 5439,
      "தமிழ்நாட்டின்": 5440,
      "கல்லூரியில்": 5441,
      "துடுப்பாட்டப்": 5442,
      "சமை": 5443,
      "த்தூ": 5444,
      "என்பதில்": 5445,
      "மாறாக": 5446,
      "கடவுள்": 5447,
      "ந்தும்": 5448,
      "கூறும்": 5449,
      "ளிலும்": 5450,
      "திருக்கோ": 5451,
      "மோதி": 5452,
      "உணர்": 5453,
      "டுப்பின்": 5454,
      "வாய்ப்புகள்": 5455,
      "கட்டிட": 5456,
      "துறையின்": 5457,
      "ம்ம": 5458,
      "வெளியாகி": 5459,
      "உணர்ந்த": 5460,
      "2012": 5461,
      "ப்ட்": 5462,
      "39": 5463,
      "வற்று": 5464,
      "ா்": 5465,
      "இதழ்": 5466,
      "உறுதியாக": 5467,
      "2010": 5468,
      "டெக்": 5469,
      "மூன்றாம்": 5470,
      "உட்கார்": 5471,
      "படியே": 5472,
      "ப்பகுதியில்": 5473,
      "புலம்": 5474,
      "வாழ்ந்து": 5475,
      "கலெக்டர்": 5476,
      "ப்பதற்கான": 5477,
      "கூடும்": 5478,
      "ஆகஸ்ட்": 5479,
      "கட்டட": 5480,
      "வைத்திருந்த": 5481,
      "விலகி": 5482,
      "கட்டுப்பாட்டில்": 5483,
      "விழுப்புரம்": 5484,
      "வதே": 5485,
      "மாளி": 5486,
      "கொதி": 5487,
      "சேத": 5488,
      "ஞ்சை": 5489,
      "ளுக்கான": 5490,
      "பிடிக்க": 5491,
      "சந்திப்பு": 5492,
      "க்கொண்டிருந்த": 5493,
      "விழுந்த": 5494,
      "சபையின்": 5495,
      "ஏதே": 5496,
      "ராஷ்டி": 5497,
      "உணர": 5498,
      "வெளிப்பட": 5499,
      "விசாரிக்க": 5500,
      "தற்காலி": 5501,
      "வெவ்வேறு": 5502,
      ".[": 5503,
      "எதையும்": 5504,
      "மரம்": 5505,
      "’,": 5506,
      "ன்ட்": 5507,
      "நீள": 5508,
      "தமிழி": 5509,
      "நாடுகளின்": 5510,
      "குழந்தைகளுக்கு": 5511,
      "ங்களுக்கான": 5512,
      "உள்ப": 5513,
      "ஆணையம்": 5514,
      "ஆழ்": 5515,
      "மாட": 5516,
      "மூழ்க": 5517,
      "கருது": 5518,
      "உயர்ந்து": 5519,
      "முக்கியம்": 5520,
      "மாதங்களுக்கு": 5521,
      "கலந்துரையா": 5522,
      "ஆய்வா": 5523,
      "மரியாதை": 5524,
      "உண்டா": 5525,
      "பாசி": 5526,
      "அவள": 5527,
      "என்க": 5528,
      "சேர்த்த": 5529,
      "பயணிகள்": 5530,
      "tamil": 5531,
      "இங்க": 5532,
      "நாம": 5533,
      "செயலர்": 5534,
      "ங்களிடம்": 5535,
      "பூமி": 5536,
      "உருவாக்கிய": 5537,
      "வாழ்வு": 5538,
      "ங்களுக்காக": 5539,
      "ஆட்சியில்": 5540,
      "ஒப்பந்தம்": 5541,
      "அக்கா": 5542,
      "ஈரோடு": 5543,
      "மயி": 5544,
      "வழக்கை": 5545,
      "இருந்தனர்": 5546,
      "த்துக்குப்": 5547,
      "வெளிவந்த": 5548,
      "எடுத்துக்கா": 5549,
      "ம்கூட": 5550,
      "சமீப": 5551,
      "குமார": 5552,
      "வாலி": 5553,
      "தாவர": 5554,
      "தேங்கா": 5555,
      "லுடன்": 5556,
      "செய்துள்ளனர்": 5557,
      "ட்பட்ட": 5558,
      "முன்னோ": 5559,
      "ஸ்க்": 5560,
      "முன்னிட்டு": 5561,
      "இசையமை": 5562,
      "வேத": 5563,
      "செய்வதற்கு": 5564,
      "சட்டசபை": 5565,
      "நுக": 5566,
      "நிச்சயமாக": 5567,
      "தெலுங்கு": 5568,
      "விபத்தில்": 5569,
      "லாது": 5570,
      "வியில்": 5571,
      "சோழ": 5572,
      "செயல்பட்டு": 5573,
      "நிறைவு": 5574,
      "பெங்களூரு": 5575,
      "பல்ல": 5576,
      "மியின்": 5577,
      "தாங்கள்": 5578,
      "பொறிய": 5579,
      "தீய": 5580,
      "பின்னால்": 5581,
      "படகு": 5582,
      "தரப்பில்": 5583,
      "ஒன்றும்": 5584,
      "வியாபார": 5585,
      "உதாரணமாக": 5586,
      "உள்ளாட்சி": 5587,
      "காரத்தில்": 5588,
      "சுந்த": 5589,
      "சுப்பிர": 5590,
      "சேர": 5591,
      "சேர்": 5592,
      "கருதி": 5593,
      "நூறு": 5594,
      "பிரபலமான": 5595,
      "ஸ்வரன்": 5596,
      "நூற்றாண்டு": 5597,
      "புல்": 5598,
      "நீரை": 5599,
      "நடன": 5600,
      "னுக்கும்": 5601,
      "தெரியாத": 5602,
      "ரயில்வே": 5603,
      "உத்தியோக": 5604,
      "வெல்ல": 5605,
      "மாகவே": 5606,
      "வருகின்றது": 5607,
      "கைகள்": 5608,
      "இடத்தை": 5609,
      "வயதி": 5610,
      "செயல்படுத்த": 5611,
      "விமானம்": 5612,
      "இதற்கான": 5613,
      "காங்": 5614,
      "சட்டத்தின்": 5615,
      "பொதுவான": 5616,
      "கணவன்": 5617,
      "சர்ச்சை": 5618,
      "பட்ஜெ": 5619,
      "வழக்கறிஞர்": 5620,
      "இக்க": 5621,
      "உபய": 5622,
      "தங்களின்": 5623,
      "ட்டோ": 5624,
      "முற்று": 5625,
      "பேரை": 5626,
      "லிங்கம்": 5627,
      "இதுபோன்ற": 5628,
      "உடலை": 5629,
      "பெயரை": 5630,
      "ிருக்கிறோம்": 5631,
      "நரேந்திர": 5632,
      "46": 5633,
      "பண்டி": 5634,
      "ம்மா": 5635,
      "க்கொள்கிற": 5636,
      "கனடா": 5637,
      "ஏனைய": 5638,
      "தொழிலாளர்கள்": 5639,
      "மக்களிடம்": 5640,
      "49": 5641,
      "கண்ணீ": 5642,
      "சய": 5643,
      "ீஸ்": 5644,
      "்பெ": 5645,
      "போதை": 5646,
      "ராணி": 5647,
      "லும்பு": 5648,
      "கேப்ட": 5649,
      "அந்தத்": 5650,
      "ஏற்படு": 5651,
      "்கிறது": 5652,
      "உயர்வு": 5653,
      "பெண்களின்": 5654,
      "உத்தரவிட்டு": 5655,
      "செயற்பாடு": 5656,
      "த்துக்காக": 5657,
      "த்ய": 5658,
      "கொண்டுவர": 5659,
      "பயங்கரவாத": 5660,
      "உனக்கு": 5661,
      "ீழ": 5662,
      "ப்பார்": 5663,
      "காட்சிய": 5664,
      "வாரிய": 5665,
      "என்னிடம்": 5666,
      "கிளம்": 5667,
      "பரவி": 5668,
      "திடீர்": 5669,
      "ராஜபக்ஷ": 5670,
      "இத்தனை": 5671,
      "ஏற": 5672,
      "கொடி": 5673,
      "ஒருவரை": 5674,
      "பலம்": 5675,
      "தமிழர்கள்": 5676,
      "ராகவும்": 5677,
      "பூச்சி": 5678,
      "பட்டம்": 5679,
      "குறித்தும்": 5680,
      "300": 5681,
      "55": 5682,
      "தரம்": 5683,
      "னெ": 5684,
      "கிர": 5685,
      "அரசி": 5686,
      "முதலிய": 5687,
      "சம்பள": 5688,
      "போராடி": 5689,
      "ஜோதி": 5690,
      "கமிஷ": 5691,
      "சந்தோஷ": 5692,
      "விழிப்புணர்வு": 5693,
      "எளிய": 5694,
      "க்கணி": 5695,
      "களான": 5696,
      "ஏனென்றால்": 5697,
      "சமையல்": 5698,
      "இவர்கள": 5699,
      "தந்து": 5700,
      "திண்டு": 5701,
      "பழக்க": 5702,
      "முடிவுகள்": 5703,
      "சிகிச்ச": 5704,
      "தீவிரமாக": 5705,
      "மேலாண்மை": 5706,
      "தளம்": 5707,
      "றியா": 5708,
      "க்கக்": 5709,
      "ையற்ற": 5710,
      "நிராக": 5711,
      "பரப்பு": 5712,
      "சந்தையில்": 5713,
      "ஞானி": 5714,
      "தேர்ந்தெடுக்க": 5715,
      "அத்தனை": 5716,
      "ைத்": 5717,
      "போதுமான": 5718,
      "செய்துள்ளார்": 5719,
      "அளித்து": 5720,
      "மர்ம": 5721,
      "செயல்பட": 5722,
      "குறுகிய": 5723,
      "ஊடாக": 5724,
      "ட்டுக்கு": 5725,
      "அதிப": 5726,
      "ல்களும்": 5727,
      "ஸ்டு": 5728,
      "அதிகரித்துள்ளது": 5729,
      "நீதிபதிகள்": 5730,
      "On": 5731,
      "இவர்களில்": 5732,
      "எஃப்": 5733,
      "ஷூ": 5734,
      "னிக்": 5735,
      "விட்டார்கள்": 5736,
      "படங்களில்": 5737,
      "த்தாள்": 5738,
      "அதிகாரம்": 5739,
      "ிடமிருந்து": 5740,
      "மென்ட்": 5741,
      "Ch": 5742,
      "லண்ட": 5743,
      "மார்ப": 5744,
      "சுவ": 5745,
      "ிருந்தன": 5746,
      "போலீஸார்": 5747,
      "அடைந்து": 5748,
      "பட்சம்": 5749,
      "அகில": 5750,
      "நறு": 5751,
      "ப்பகுதி": 5752,
      "ப்ள": 5753,
      "பிழை": 5754,
      "வனுக்கு": 5755,
      "முன்பாக": 5756,
      "ையாள": 5757,
      "இயக்கம்": 5758,
      "விடலாம்": 5759,
      "கர்ப்ப": 5760,
      "ட்டாக": 5761,
      "குடியே": 5762,
      "காசி": 5763,
      "பிஎஸ்": 5764,
      "ட்சை": 5765,
      "வழிபாடு": 5766,
      "கர்நாட": 5767,
      "மடைந்து": 5768,
      "அழைத்துச்": 5769,
      "அண்மையில்": 5770,
      "ஆடு": 5771,
      "ராட்சியில்": 5772,
      "அவங்க": 5773,
      "கோட்ட": 5774,
      "தமிழீழ": 5775,
      "மதிப்பி": 5776,
      "மின்சார": 5777,
      "உதவியா": 5778,
      "2008": 5779,
      "எதிர்பார்த்த": 5780,
      "வேண்டுகோ": 5781,
      "தங்களுக்கு": 5782,
      "தங்கம்": 5783,
      "ினை": 5784,
      "தாமத": 5785,
      "மீள": 5786,
      "குறிப்பு": 5787,
      "தூத்துக்கு": 5788,
      "கதாபாத்திர": 5789,
      "அமைய": 5790,
      "ரன்கள்": 5791,
      "ம்பி": 5792,
      "மாறும்": 5793,
      "மட்டுமல்": 5794,
      "தெரியுமா": 5795,
      "அழகான": 5796,
      "வரிசையில்": 5797,
      "அவ்வப்போது": 5798,
      "ஒத்தி": 5799,
      "ணியை": 5800,
      "மாணி": 5801,
      "மாநகர": 5802,
      "காணி": 5803,
      "காயம்": 5804,
      "மக்களும்": 5805,
      "வழங்கப்பட்ட": 5806,
      "கதைகள்": 5807,
      "ஆசிரியர்கள்": 5808,
      "சிந்தனை": 5809,
      "ab": 5810,
      "ஒற்று": 5811,
      "குளம்": 5812,
      "வாழை": 5813,
      "நிரு": 5814,
      "பேட்டி": 5815,
      "சொற்க": 5816,
      "இருந்தா": 5817,
      "வேறுபாடு": 5818,
      "பொறுத்தவரை": 5819,
      "ஏரி": 5820,
      "ப்புக்": 5821,
      "ன்றை": 5822,
      "ப்பிரி": 5823,
      "முன்னு": 5824,
      "விடுகிறது": 5825,
      "அடிப்படையாக": 5826,
      "பறவை": 5827,
      "கட்டாய": 5828,
      "ww": 5829,
      "தேடு": 5830,
      "ஏற்படுத்து": 5831,
      "விட்டேன்": 5832,
      "அமைச்சர்கள்": 5833,
      "சரு": 5834,
      "க்கலை": 5835,
      "தியே": 5836,
      "கூட்டமைப்பு": 5837,
      "சூழ்நிலை": 5838,
      "சத்து": 5839,
      "பங்க": 5840,
      "முற்ப": 5841,
      "ண்டோ": 5842,
      "தாஸ்": 5843,
      "கொல": 5844,
      "கிளா": 5845,
      "கோல்": 5846,
      "அவர்களிடம்": 5847,
      "வளர்க்க": 5848,
      "குறைவான": 5849,
      "திட்டமிட": 5850,
      "துவங்கி": 5851,
      "இல்லையா": 5852,
      "ஈடுபட்டனர்": 5853,
      "ter": 5854,
      "மந்த": 5855,
      "விடாமல்": 5856,
      "ட்டினார்": 5857,
      "சொந்தமான": 5858,
      "ஜரா": 5859,
      "க்குவி": 5860,
      "வாசக": 5861,
      "முறைகளை": 5862,
      "பரவிய": 5863,
      "மணல்": 5864,
      "op": 5865,
      "ணியின்": 5866,
      "மாடு": 5867,
      "வாள்": 5868,
      "க்காய்": 5869,
      "பகுதிகள்": 5870,
      "செலுத்து": 5871,
      "சார்பாக": 5872,
      "34": 5873,
      "ia": 5874,
      "மகன": 5875,
      "ேசு": 5876,
      "யிரம்": 5877,
      "மீற": 5878,
      "கட்டுமான": 5879,
      "பௌத்த": 5880,
      "ினால்": 5881,
      "விடை": 5882,
      "லிங்க": 5883,
      "மாணவர்கள": 5884,
      "ப்படுத்தப்பட்ட": 5885,
      "நடத்தும்": 5886,
      "அல்லாஹ்": 5887,
      "தேவையில்லை": 5888,
      "உள்பட": 5889,
      "அலி": 5890,
      "சன்ன": 5891,
      "ீர்களா": 5892,
      "வினா": 5893,
      "முத்த": 5894,
      "மிழ": 5895,
      "செய்யப்படுகிறது": 5896,
      "ையாளர்": 5897,
      "பெண்களை": 5898,
      "வியாழ": 5899,
      "கூறுகிறார்": 5900,
      "ஏற்றுக்": 5901,
      "கணக்கெடுப்பின்": 5902,
      "சுப்பிரமணிய": 5903,
      "for": 5904,
      "line": 5905,
      "மசா": 5906,
      "வட்டி": 5907,
      "ரிஸ்": 5908,
      "மேன்": 5909,
      "பொய்": 5910,
      "முகத்தில்": 5911,
      "அரசியலில்": 5912,
      "நாயகம்": 5913,
      "யுத்த": 5914,
      "அமையும்": 5915,
      "விளைவாக": 5916,
      "வேளையில்": 5917,
      "மூச்சு": 5918,
      "ஸ்டை": 5919,
      "மனிதன்": 5920,
      "இன்றும்": 5921,
      "எடுக்கும்": 5922,
      "பாகிஸ்தான": 5923,
      "பறிமுதல்": 5924,
      "இவரை": 5925,
      "அவளுக்கு": 5926,
      "இடது": 5927,
      "தயாரித்து": 5928,
      "அகற்ற": 5929,
      "ஆதரவா": 5930,
      "தொலைபேசி": 5931,
      "ராணுவம்": 5932,
      "பிரதேசத்தில்": 5933,
      "ஆஸ்திரேலியா": 5934,
      "ஆபத்து": 5935,
      "ர்களையும்": 5936,
      "க்கிட": 5937,
      "என்பதுதான்": 5938,
      "ட்சியா": 5939,
      "ர்களைத்": 5940,
      "அனுபவம்": 5941,
      "கணினி": 5942,
      "கற்பி": 5943,
      "ஒட்டுமொத்த": 5944,
      "காஞ்சிபுரம்": 5945,
      "செயற்கை": 5946,
      "ஏதேனும்": 5947,
      "சுற்ற": 5948,
      "த்ரி": 5949,
      "அவனது": 5950,
      "நோக்கம்": 5951,
      "விசாரணையில்": 5952,
      "டீஸ்பூன்": 5953,
      "யாழ்ப்பாணம்": 5954,
      "ஊரக": 5955,
      "தங்கிய": 5956,
      "ென": 5957,
      "காசு": 5958,
      "வரவில்லை": 5959,
      "லிட்டர்": 5960,
      "எதிர்ப்ப": 5961,
      "இருப்பதை": 5962,
      "டாக்ட": 5963,
      "மறைந்த": 5964,
      "இழந்த": 5965,
      "புரட்சி": 5966,
      "கழித்து": 5967,
      "வித்தியாச": 5968,
      "வெங்காயம்": 5969,
      "பண்": 5970,
      "க்குமாறு": 5971,
      "சேகரி": 5972,
      "மட்டுமின்றி": 5973,
      "பெண்ணின்": 5974,
      "பயன்பாடு": 5975,
      "முதலாவது": 5976,
      "?'": 5977,
      "ram": 5978,
      "இவற்றை": 5979,
      "ரியான": 5980,
      "திசை": 5981,
      "முரண": 5982,
      "த்துச்": 5983,
      "குஜரா": 5984,
      "இருக்கா": 5985,
      "புரியும்": 5986,
      "ப்புடன்": 5987,
      "த்திலுள்ள": 5988,
      "பெரியார்": 5989,
      "சங்கர்": 5990,
      "க்காரர்": 5991,
      "இக்கோயிலில்": 5992,
      "நடைபெறுகிறது": 5993,
      ".''": 5994,
      "os": 5995,
      "தட்டு": 5996,
      "ட்டேன்": 5997,
      "மாண்ட": 5998,
      "பொன்ன": 5999,
      "கொண்டிருக்கிறது": 6000,
      "முடிகிறது": 6001,
      "பரவ": 6002,
      "வலர்": 6003,
      "கொள்ளவும்": 6004,
      "திறமை": 6005,
      "மனிதன": 6006,
      ":-": 6007,
      "படியும்": 6008,
      "ஷோ": 6009,
      "வாசிக்க": 6010,
      "சாம்ப": 6011,
      "விவகாரத்தில்": 6012,
      "மனைவிய": 6013,
      "பிராந்திய": 6014,
      "உள்நாட்டு": 6015,
      "காஷ்மீர்": 6016,
      "பேரி": 6017,
      "பொறுப்பே": 6018,
      "150": 6019,
      "வளர்ந்து": 6020,
      "தொலைவில்": 6021,
      "மக்களவைத்": 6022,
      "பாருங்கள்": 6023,
      "ட்டன்": 6024,
      "என்பதையும்": 6025,
      "ind": 6026,
      "பெற்றுக்": 6027,
      "இச்ச": 6028,
      "ஊக்குவி": 6029,
      "னியில்": 6030,
      "ியம்": 6031,
      "ப்பிற்கு": 6032,
      "பாட்டை": 6033,
      "சியை": 6034,
      "அந்தச்": 6035,
      "உணர்ச்சி": 6036,
      "சிறுமி": 6037,
      "தளங்களில்": 6038,
      "சுற்றுச்சூ": 6039,
      "உரிமைகள்": 6040,
      "கழிவு": 6041,
      "பரபரப்பை": 6042,
      "மல்லி": 6043,
      "சிதை": 6044,
      "மென": 6045,
      "அதிகாலை": 6046,
      "சூர்யா": 6047,
      "இன்ப": 6048,
      "மௌ": 6049,
      "வாண": 6050,
      "பிரிய": 6051,
      "லாமா": 6052,
      "சிறப்பான": 6053,
      "அமர்ந்து": 6054,
      "நண்பர்": 6055,
      "சேவைகள்": 6056,
      "க்களும்": 6057,
      "விக்கெ": 6058,
      "என்றான்": 6059,
      "முதலி": 6060,
      "பயனு": 6061,
      "தோன்று": 6062,
      "தமிழகத்தின்": 6063,
      "காணலாம்": 6064,
      "கெட்ட": 6065,
      "ஸ்டிக்": 6066,
      "இதனையடுத்து": 6067,
      "டெல்லியில்": 6068,
      "சண்": 6069,
      "ஜின்": 6070,
      "முதிய": 6071,
      "மிகு": 6072,
      "மாக்": 6073,
      "மீதும்": 6074,
      "திட்டத்தில்": 6075,
      "தூர": 6076,
      "மாட்டார்கள்": 6077,
      "வசிக்கும்": 6078,
      "அமல்": 6079,
      "இரும்பு": 6080,
      "சகல": 6081,
      "த்தன்மை": 6082,
      "ியன்": 6083,
      "துா": 6084,
      "பென்": 6085,
      "தேவா": 6086,
      "ஸ்டீ": 6087,
      "லோக்": 6088,
      "திட்டங்கள்": 6089,
      "மாற்றங்கள்": 6090,
      "ers": 6091,
      "அடங்கிய": 6092,
      "பத்தா": 6093,
      "காரில்": 6094,
      "நாளி": 6095,
      "செய்யவும்": 6096,
      "தரவு": 6097,
      "க்கொண்டார்": 6098,
      "ஏற்றுக்கொள்ள": 6099,
      "முதலீட்டா": 6100,
      "கட்டுப்பாடு": 6101,
      "ந்தே": 6102,
      "ள்ளு": 6103,
      "வரே": 6104,
      "தொடரில்": 6105,
      "ரேஷன்": 6106,
      "ஒன்றாகும்": 6107,
      "முதலாளி": 6108,
      "09": 6109,
      "நபி": 6110,
      "வேலு": 6111,
      "இதுவே": 6112,
      "கொண்டிருக்க": 6113,
      "ிருந்தாலும்": 6114,
      "அணிந்து": 6115,
      "வழக்கமான": 6116,
      "அப்து": 6117,
      "ஆளும்": 6118,
      "சரண": 6119,
      "பன்னா": 6120,
      "முனி": 6121,
      "த்திடம்": 6122,
      "தென்க": 6123,
      "வீழ": 6124,
      "முன்பே": 6125,
      "அருள்": 6126,
      "கேட்டார்": 6127,
      "போனது": 6128,
      "குறையும்": 6129,
      "அல்லாத": 6130,
      "நிற்கும்": 6131,
      "ட்சியின்": 6132,
      "அளவிலான": 6133,
      "வரிடம்": 6134,
      "ஈடுபடு": 6135,
      "மணியளவில்": 6136,
      "பிரித்தானிய": 6137,
      "சவ": 6138,
      "தட்டி": 6139,
      "ப்பய": 6140,
      "போத": 6141,
      "தாப": 6142,
      "எடுத்துச்": 6143,
      "செயல்படும்": 6144,
      "ate": 6145,
      "இல்லையெ": 6146,
      "உள்துறை": 6147,
      "ளரும்": 6148,
      "ைக்கு": 6149,
      "ொன்று": 6150,
      "தாக்கி": 6151,
      "அமைப்புகள்": 6152,
      "வளர்ந்த": 6153,
      "நடத்தினர்": 6154,
      "உற்பத்திய": 6155,
      "சமயத்தில்": 6156,
      "வேண்டுமென": 6157,
      "கர்நாடகா": 6158,
      "எக்ஸ்": 6159,
      "பியா": 6160,
      "ஹூ": 6161,
      "ட்டே": 6162,
      "மெல்ல": 6163,
      "ியைப்": 6164,
      "என்கிறார்கள்": 6165,
      "சிவப்பு": 6166,
      "ஆஃப்": 6167,
      "ஊருக்கு": 6168,
      "சுத்தம்": 6169,
      "வருத்த": 6170,
      "வருமாறு": 6171,
      "பொருள்க": 6172,
      "பட்டது": 6173,
      "ர்ட்போ": 6174,
      "இன்றி": 6175,
      "வாழ்க்கையை": 6176,
      "வாகனங்கள்": 6177,
      "ஆனந்த": 6178,
      "கருதப்படுகிறது": 6179,
      "நதி": 6180,
      "றுதி": 6181,
      "வெறி": 6182,
      "வீட்டின்": 6183,
      "ஸ்டோ": 6184,
      "த்திற்குள்": 6185,
      "குறிப்பிடு": 6186,
      "கூட்டுறவு": 6187,
      "வல்லு": 6188,
      "திருவண்ணா": 6189,
      "அப்பட": 6190,
      "ஆலை": 6191,
      "ில்லை": 6192,
      "சுவை": 6193,
      "கோழி": 6194,
      "சேனா": 6195,
      "பிரபாக": 6196,
      "பூர்த்தி": 6197,
      "இருக்கின்ற": 6198,
      "முழுமையான": 6199,
      "07": 6200,
      "பிள்ள": 6201,
      "புதை": 6202,
      "படிப்பு": 6203,
      "குழப்ப": 6204,
      "பெண்ணை": 6205,
      "தெரியாமல்": 6206,
      "புகைப்படம்": 6207,
      "மேம்படுத்த": 6208,
      "பதிய": 6209,
      "வசிய": 6210,
      "விவாத": 6211,
      "மாவு": 6212,
      "நடத்துவ": 6213,
      "க்கிழ": 6214,
      "விட்டதாக": 6215,
      "ஸ்கோ": 6216,
      "ஸ்வரர்": 6217,
      "புலிகள்": 6218,
      "ராமநாதபுரம்": 6219,
      "அசோ": 6220,
      "இவர்களுக்கு": 6221,
      "றே": 6222,
      "மைதான": 6223,
      "ர்த்": 6224,
      "மையின்": 6225,
      "2000": 6226,
      "முன்னால்": 6227,
      "பரவல": 6228,
      "குறைக்க": 6229,
      "ore": 6230,
      "ஆளுநர்": 6231,
      "தீர்மானம்": 6232,
      "வளாகத்தில்": 6233,
      "ஸ்மார்ட்போ": 6234,
      "ஃபை": 6235,
      "க்கத்தை": 6236,
      "நிமி": 6237,
      "வரவு": 6238,
      "எழுப்ப": 6239,
      "தவிர்த்து": 6240,
      "ஜென்": 6241,
      "சேர்ந்தது": 6242,
      "டென்": 6243,
      "மருத்துவக்": 6244,
      "கரூர்": 6245,
      "மாட்டேன்": 6246,
      "கிளிநொ": 6247,
      "பின்பற்ற": 6248,
      "வட்டாரத்தில்": 6249,
      "விஷ்": 6250,
      "செவி": 6251,
      "வாங்கும்": 6252,
      "இருவர்": 6253,
      "..?": 6254,
      "கூட்டி": 6255,
      "மாகத்": 6256,
      "நட்பு": 6257,
      "மீட்பு": 6258,
      "பிரகா": 6259,
      "என்பதற்காக": 6260,
      "கருத்தில்": 6261,
      "நெட்": 6262,
      "தொகுப்பு": 6263,
      "அலுவலர்": 6264,
      "அறநிலைய": 6265,
      "அன்றைய": 6266,
      "42": 6267,
      "அமு": 6268,
      "வலம்": 6269,
      "கோடை": 6270,
      "னுள்": 6271,
      "இயேசு": 6272,
      "பண்பு": 6273,
      "ையிட்டு": 6274,
      "எளிதில்": 6275,
      "விரோத": 6276,
      "01": 6277,
      "02": 6278,
      "ஏமாற்ற": 6279,
      "கற்ற": 6280,
      "துன்ப": 6281,
      "வாரத்தில்": 6282,
      "ச்சத்து": 6283,
      "நேரி": 6284,
      "அருகி": 6285,
      "ang": 6286,
      "போலீசா": 6287,
      "இழப்பு": 6288,
      "்கானி": 6289,
      "உறவினர்கள்": 6290,
      "திண்டுக்கல்": 6291,
      "ப்பையும்": 6292,
      "லிலும்": 6293,
      "தெரிவு": 6294,
      "இயக்கிய": 6295,
      "நிறுவனத்தில்": 6296,
      "மாநிலத்தின்": 6297,
      "அரசியல": 6298,
      "அதைத்": 6299,
      "மலைய": 6300,
      "போட்டிகள்": 6301,
      "வலைத்தள": 6302,
      "குளிர்": 6303,
      "தொழிலாளர்": 6304,
      "43": 6305,
      "டவு": 6306,
      "கோரிக்க": 6307,
      "மானு": 6308,
      "என்னவெ": 6309,
      "படுகொலை": 6310,
      "மகிழ்ச்ச": 6311,
      "ஞாயிற்று": 6312,
      "நாணய": 6313,
      "05": 6314,
      "பழி": 6315,
      "ர்கு": 6316,
      "குட்டி": 6317,
      "திருநெல்": 6318,
      "நினைத்த": 6319,
      "மலையில்": 6320,
      "குடியு": 6321,
      "அரசாங்கத்தின்": 6322,
      "கடற்படை": 6323,
      "னிக்கு": 6324,
      "பொங்கல்": 6325,
      "முடிவில்": 6326,
      "குறைபாடு": 6327,
      "அம்மன்": 6328,
      "ட்டாங்க": 6329,
      "டீசல்": 6330,
      "கட்டுப்பாட்டு": 6331,
      "ஆனது": 6332,
      "எளிதாக": 6333,
      "விருப்பம்": 6334,
      "சனிக்கிழமை": 6335,
      "பழு": 6336,
      "விநாயகர்": 6337,
      "ண்டின்": 6338,
      "புரு": 6339,
      "ர்களு": 6340,
      "ானே": 6341,
      "அதிகள": 6342,
      "ளைப்": 6343,
      "அறியா": 6344,
      "இளவர": 6345,
      "ராஷ்டிரா": 6346,
      "லன்": 6347,
      "துடி": 6348,
      "சாலி": 6349,
      "தேனி": 6350,
      "அமைச்சு": 6351,
      "டால": 6352,
      "போன்றவற்றை": 6353,
      "திட்டங்களை": 6354,
      "ஆரம்பித்த": 6355,
      "சந்தேகம்": 6356,
      "ஆற்றல்": 6357,
      "ra": 6358,
      "ஒற்றை": 6359,
      "சத்தம்": 6360,
      "விவாதி": 6361,
      "திகா": 6362,
      "சிவன்": 6363,
      "காலா": 6364,
      "தாழ்": 6365,
      "கோர": 6366,
      "ப்படலாம்": 6367,
      "மீள்": 6368,
      "கடத்த": 6369,
      "காலப்": 6370,
      "மாவட்டத்தின்": 6371,
      "நெய்": 6372,
      "ியுள்ளன": 6373,
      "ஆரம்பத்தில்": 6374,
      "விலையில்": 6375,
      "அறையில்": 6376,
      "ஈர": 6377,
      "தங்களை": 6378,
      "குறைந்தது": 6379,
      "இதன்போது": 6380,
      "all": 6381,
      "அறுவை": 6382,
      "வசித்து": 6383,
      "த்தீவு": 6384,
      "வெளியாகியுள்ளது": 6385,
      "நிர்ணயி": 6386,
      "சதுர": 6387,
      "ப்பணி": 6388,
      "ச்சொ": 6389,
      "...''": 6390,
      "த்துக்குள்": 6391,
      "உயர்த்த": 6392,
      "நேரடி": 6393,
      "யோசி": 6394,
      "எடுக்கப்படும்": 6395,
      "பண்ட": 6396,
      "ப்பள்ளி": 6397,
      "பிலி": 6398,
      "புகு": 6399,
      "சேக": 6400,
      "ியானது": 6401,
      "இறக்கு": 6402,
      "கடைகள்": 6403,
      "ரகசிய": 6404,
      "சொல்வது": 6405,
      "போட்டோ": 6406,
      "பத்திரிகையா": 6407,
      "படப்பிடிப்பு": 6408,
      "அப்புறம்": 6409,
      "உடம்": 6410,
      "மடங்கு": 6411,
      "சிற்ப": 6412,
      "னால": 6413,
      "ானது": 6414,
      "டியின்": 6415,
      "சேது": 6416,
      "க்காடு": 6417,
      "மாதங்களில்": 6418,
      "பயன்படுத்தும்": 6419,
      "செய்யப்பட்டார்": 6420,
      "தள்ளுபடி": 6421,
      "41": 6422,
      "ist": 6423,
      "ov": 6424,
      "ph": 6425,
      "உங்களின்": 6426,
      "குப்பை": 6427,
      "கார்டு": 6428,
      "பாம்பு": 6429,
      "லாரி": 6430,
      "ப்பாளர்கள்": 6431,
      "டாஸ்": 6432,
      "மொழிய": 6433,
      "மறுத்து": 6434,
      "கலைஞர்": 6435,
      "கோவிட்": 6436,
      "சபையில்": 6437,
      "வானிலை": 6438,
      "ஒருவேளை": 6439,
      "பொள்ளா": 6440,
      "பிரசார": 6441,
      "மிகச்": 6442,
      "தினசரி": 6443,
      "கால்நடை": 6444,
      "கேட்டுக்": 6445,
      "ஊழியர்": 6446,
      "தல்ல": 6447,
      "வசம்": 6448,
      "ாங்க": 6449,
      "ள்ளோம்": 6450,
      "பாஸ்க": 6451,
      "கூலி": 6452,
      "கோர்ட்ட": 6453,
      "பலன்": 6454,
      "தீபாவ": 6455,
      "கட்டமை": 6456,
      "மாணவ": 6457,
      "அளிக்கும்": 6458,
      "தொழில": 6459,
      "எவ்வித": 6460,
      "முன்னிலையில்": 6461,
      "காப்பாற்ற": 6462,
      "சது": 6463,
      "ட்டரி": 6464,
      "தாம": 6465,
      "னிங்": 6466,
      "தைத்": 6467,
      "பதிவாக": 6468,
      "முடித்த": 6469,
      "அதிகபட்ச": 6470,
      "பிடிக்கும்": 6471,
      "வண்ணம்": 6472,
      "உதவுகிறது": 6473,
      "சிதம்பரம்": 6474,
      "03": 6475,
      "ப்பதால்": 6476,
      "டிரா": 6477,
      "நினைவில்": 6478,
      "ஸ்போ": 6479,
      "பொறுத்து": 6480,
      "ஊடகவியலா": 6481,
      "அறிவுறு": 6482,
      "மீனவர்கள்": 6483,
      "தொழிற்சாலை": 6484,
      "ஸ்புக்": 6485,
      "ரஷ்யா": 6486,
      "இடு": 6487,
      "வதையும்": 6488,
      "ர்கோ": 6489,
      "தாங்கி": 6490,
      "பலத்த": 6491,
      "கொண்டிருந்தது": 6492,
      "கொண்டிருந்தார்": 6493,
      "உணர்ந்து": 6494,
      "சென்றி": 6495,
      "தினகரன்": 6496,
      "அங்குள்ள": 6497,
      "ஜனதா": 6498,
      "வீடுகள்": 6499,
      "ஆச்சரிய": 6500,
      "கணக்கெடுப்பின்படி": 6501,
      "ாகவே": 6502,
      "காடு": 6503,
      "மினி": 6504,
      "ல்களையும்": 6505,
      "நம்முடைய": 6506,
      "புறக்கணி": 6507,
      "ess": 6508,
      "த்தேர்த": 6509,
      "வெளியானது": 6510,
      "பதவியே": 6511,
      "கமான": 6512,
      "தங்கி": 6513,
      "னியின்": 6514,
      "ஹரி": 6515,
      "ப்பர": 6516,
      "கார்ட": 6517,
      "நாங்க": 6518,
      "மீட்டு": 6519,
      "ப்படுவதாக": 6520,
      "வாகனம்": 6521,
      "விடவும்": 6522,
      "காணப்படுகிறது": 6523,
      "மாணவர்களின்": 6524,
      "த்துறையின்": 6525,
      "கல்யாண": 6526,
      "ஆதரி": 6527,
      "ங்கர்": 6528,
      "கிறீர்கள்": 6529,
      "வருடைய": 6530,
      "யிர்": 6531,
      "ங்குகிறது": 6532,
      "அறிக்க": 6533,
      "உருவ": 6534,
      "உறுப்பு": 6535,
      "பெரும": 6536,
      "ஆண்டின்": 6537,
      "கட்சியை": 6538,
      "க்காரர்கள்": 6539,
      "வாயிலாக": 6540,
      "பன்னாட்டு": 6541,
      ".)": 6542,
      "எங்களை": 6543,
      "லைட்": 6544,
      "சுந்தர": 6545,
      "மிக்": 6546,
      "எழுப்பி": 6547,
      "பணியை": 6548,
      "குறைவு": 6549,
      "சம்பளம்": 6550,
      "இணைந்த": 6551,
      "வரலாற்றில்": 6552,
      "மொழியில்": 6553,
      "நுகர்வ": 6554,
      "வங்கா": 6555,
      "பாடிய": 6556,
      "பரிசீ": 6557,
      "2007": 6558,
      "கும்ப": 6559,
      "உன்னை": 6560,
      "விரும்பும்": 6561,
      "கைப்பற்ற": 6562,
      "விகிதம்": 6563,
      "08": 6564,
      "ment": 6565,
      "ta": 6566,
      "கறுப்பு": 6567,
      "ாலே": 6568,
      "ாராம்": 6569,
      "ுற": 6570,
      "்டி": 6571,
      "ண்டே": 6572,
      "ளித்து": 6573,
      "ரம்பு": 6574,
      "ர்ப்": 6575,
      "க்கிக்": 6576,
      "தேர்தலை": 6577,
      "இன்ஸ்பெ": 6578,
      "அணுகு": 6579,
      "ஆப்கானி": 6580,
      "மலேசியா": 6581,
      "தக்கா": 6582,
      "தஞ்சா": 6583,
      "க்கின்ற": 6584,
      "விவரி": 6585,
      "தாலும்": 6586,
      "கொரியா": 6587,
      "ளிக்கும்": 6588,
      "டியூ": 6589,
      "வாழ்க": 6590,
      "குடும்பத்தின": 6591,
      "முன்னெடு": 6592,
      "நெடுஞ்": 6593,
      "பற்றா": 6594,
      "பாபு": 6595,
      "புரத்தில்": 6596,
      "ஒருவன்": 6597,
      "ர்தான்": 6598,
      "அதிர்": 6599,
      "என்பதற்கு": 6600,
      "லாக்": 6601,
      "பாடல்கள்": 6602,
      "மாதிரியான": 6603,
      "தலைய": 6604,
      "வருடங்களுக்கு": 6605,
      "தகவல": 6606,
      "பின்னணி": 6607,
      "மருத்துவமனைக்கு": 6608,
      "நகைச்சு": 6609,
      "வெள்ளிக்கிழமை": 6610,
      "வசூலி": 6611,
      "யாராவது": 6612,
      "அஸ்": 6613,
      "தரை": 6614,
      "வர்க்க": 6615,
      "துண": 6616,
      "வேர்": 6617,
      "னாய்வு": 6618,
      "பிரியா": 6619,
      "...'": 6620,
      "வாழ்வில்": 6621,
      "வெளியேறி": 6622,
      "கொடுத்தார்": 6623,
      "தூத்துக்குடி": 6624,
      "!”": 6625,
      "400": 6626,
      "66": 6627,
      "ma": 6628,
      "ஊதிய": 6629,
      "கழகம்": 6630,
      "தாக்கிய": 6631,
      "தீர்த்த": 6632,
      "அனுப்பு": 6633,
      "ஸ்கூ": 6634,
      "பதவியை": 6635,
      "குற்றவாளி": 6636,
      "அதற்க": 6637,
      "எலும்பு": 6638,
      "கத்தின்": 6639,
      "நடுத்த": 6640,
      "க்கால்": 6641,
      "க்குமார்": 6642,
      "டிஸ்": 6643,
      "நாள்க": 6644,
      "ச்சின்": 6645,
      "இயங்கி": 6646,
      "மதிப்பெ": 6647,
      "ஆகியவற்றின்": 6648,
      "அதைக்": 6649,
      "தேவைப்படும்": 6650,
      "இயக்குன": 6651,
      "வழக்கமாக": 6652,
      "வரவேற்ப": 6653,
      "முயற்சியில்": 6654,
      "எதிர்கொள்ள": 6655,
      "சலுகை": 6656,
      "அவளது": 6657,
      "95": 6658,
      "ஆசிய": 6659,
      "மிற": 6660,
      "ய்க்க": 6661,
      "சித": 6662,
      "வுட்": 6663,
      "வீசி": 6664,
      "இடத்திற்கு": 6665,
      "ளுடைய": 6666,
      "மரபு": 6667,
      "கொடுமை": 6668,
      "புத்தகம்": 6669,
      "சாப்பிடு": 6670,
      "வேலூர்": 6671,
      "வழங்கினார்": 6672,
      "சௌ": 6673,
      "துவாக": 6674,
      "என்னால்": 6675,
      "நிழ": 6676,
      "ம்பட்டி": 6677,
      "இரவில்": 6678,
      "தோன்றி": 6679,
      "பயிற்சிய": 6680,
      "வழங்குகிறது": 6681,
      "இயல்பு": 6682,
      "பசி": 6683,
      "குதிரை": 6684,
      "கொன்ற": 6685,
      "பெரியா": 6686,
      "ட்டியை": 6687,
      "நடத்தப்பட்ட": 6688,
      "விளையாட": 6689,
      "பார்த்துக்": 6690,
      "சாக்": 6691,
      "பல்கலைக்கழகத்தில்": 6692,
      "வரவேற்பு": 6693,
      "மேலதிக": 6694,
      "குடியுரிமை": 6695,
      "கத்தி": 6696,
      "னையில்": 6697,
      "காட்டும்": 6698,
      "புத்தி": 6699,
      "பேச்சா": 6700,
      "அதுதான்": 6701,
      "வேலைக்கு": 6702,
      "தானிய": 6703,
      "எண்ணெ": 6704,
      "னியன்": 6705,
      "உதவியுடன்": 6706,
      "கலி": 6707,
      "கவல": 6708,
      "தலையில்": 6709,
      "னியை": 6710,
      "டித்து": 6711,
      "சாரி": 6712,
      "த்மா": 6713,
      "ஸ்டெ": 6714,
      "முடிவை": 6715,
      "ச்சாரம்": 6716,
      "கேட்கிற": 6717,
      "புகழ்பெ": 6718,
      "06": 6719,
      "ஒட்டி": 6720,
      "யிறு": 6721,
      "பண்பா": 6722,
      "அறிவிக்கப்பட்டுள்ளது": 6723,
      "ரூபாய்க்கு": 6724,
      "யோசனை": 6725,
      "கட்சியில்": 6726,
      "திட்டமிட்ட": 6727,
      "அபா": 6728,
      "ஆந்திரா": 6729,
      "உன்ன": 6730,
      "ஏதும்": 6731,
      "ஓட்டி": 6732,
      "துய": 6733,
      "ட்ரா": 6734,
      "அரசை": 6735,
      "மீனா": 6736,
      "தோறும்": 6737,
      "முக்கியமாக": 6738,
      "மட்டும்தான்": 6739,
      "கிராமம்": 6740,
      "விளையாடி": 6741,
      "காட்சிகள்": 6742,
      "இதேவேளை": 6743,
      "இடையிலான": 6744,
      "விஞ்ஞானி": 6745,
      "ies": 6746,
      "ம்த": 6747,
      "ரங்கு": 6748,
      "மால": 6749,
      "கிரக": 6750,
      "மன்றத்": 6751,
      "நிறம்": 6752,
      "ப்பைக்": 6753,
      "விசாரித்து": 6754,
      "க்கொள்ளும்": 6755,
      "ith": 6756,
      "ud": 6757,
      "ஜர்": 6758,
      "ொலி": 6759,
      "பாட்டில்": 6760,
      "செய்ப": 6761,
      "ரீதியான": 6762,
      "இடைவெளி": 6763,
      "தடவை": 6764,
      "ிற்கும்": 6765,
      "மதியம்": 6766,
      "அஞ்சலி": 6767,
      "சடல": 6768,
      "கேப்டன்": 6769,
      "தளர்": 6770,
      "த்தையே": 6771,
      "ந்தம்": 6772,
      "டிஜி": 6773,
      "செக்ஸ்": 6774,
      "செயலி": 6775,
      "வனே": 6776,
      "துவங்க": 6777,
      "விளைவி": 6778,
      "லட்சத்து": 6779,
      "அச்சுறு": 6780,
      "பாண்டியன்": 6781,
      "அமைச்சரவை": 6782,
      "ஒன்பது": 6783,
      "ட்டப்பட்ட": 6784,
      "மாடி": 6785,
      "சிவக": 6786,
      "டிரம்ப்": 6787,
      "பொம்": 6788,
      "நீக்கம்": 6789,
      "இயங்கும்": 6790,
      "வலது": 6791,
      "கொள்ளை": 6792,
      "நாடுகளுக்கு": 6793,
      "குழா": 6794,
      "அளவிற்கு": 6795,
      "அறிவித்து": 6796,
      "பள்ளிகள்": 6797,
      "ஹாசன்": 6798,
      "எல்லாமே": 6799,
      "ஏற்படுத்திய": 6800,
      "இயக்குந": 6801,
      "ிற்கான": 6802,
      "விசாரித்த": 6803,
      "கண்ணாடி": 6804,
      "டலை": 6805,
      "ன்பு": 6806,
      "சுருக்க": 6807,
      "ட்சம்": 6808,
      "னாமா": 6809,
      "பரவல்": 6810,
      "ஜென": 6811,
      "பணிபுரி": 6812,
      "நாளைக்கு": 6813,
      "சதவிகித": 6814,
      "காண்பி": 6815,
      "இவரின்": 6816,
      "ஐய": 6817,
      "னஸ்": 6818,
      "ன்தான்": 6819,
      "ற்சியா": 6820,
      "ரிங்": 6821,
      "தால": 6822,
      "புயல்": 6823,
      "மானார்": 6824,
      "வரும்போது": 6825,
      "இடங்கள்": 6826,
      "வழங்கப்படுகிறது": 6827,
      "கருத்துக்களை": 6828,
      "துறையினர்": 6829,
      "மாகாணத்தில்": 6830,
      "கோவிலில்": 6831,
      "ஆணைக்குழு": 6832,
      "கிளம்பி": 6833,
      "ஆட்சியா": 6834,
      "ஞர்கள்": 6835,
      "மாநாடு": 6836,
      "சிபி": 6837,
      "அவற்றில்": 6838,
      "ஸ்வா": 6839,
      "நிலையான": 6840,
      "யாருக்கும்": 6841,
      "மிகக்": 6842,
      "ையாகும்": 6843,
      "விரைவாக": 6844,
      "ஆட்சிக்கு": 6845,
      "ஏற்றுமதி": 6846,
      "மிளகாய்": 6847,
      "மசோ": 6848,
      "ென்ன": 6849,
      "வேகம்": 6850,
      "சுத்தி": 6851,
      "தொரு": 6852,
      "ப்போல": 6853,
      "அறிவித்தார்": 6854,
      "இதைப்": 6855,
      "அமர்வு": 6856,
      "கிருஷ்": 6857,
      "பிரான்ஸ்": 6858,
      "கண்கள்": 6859,
      "சினிமாவில்": 6860,
      "எதிர்பார்க்கப்படுகிறது": 6861,
      "குழந்தையின்": 6862,
      "க்குறிச்சி": 6863,
      "அண்ணன்": 6864,
      "பொறியியல்": 6865,
      "சமாக": 6866,
      "தழு": 6867,
      "றையில்": 6868,
      "சிக்கல்": 6869,
      "செல்கிற": 6870,
      "வார்டு": 6871,
      "புய": 6872,
      "ர்களோ": 6873,
      "யிற்சி": 6874,
      "நேர்க": 6875,
      "லுமி": 6876,
      "வரைக்கும்": 6877,
      "வேலைவாய்ப்பு": 6878,
      "மாதங்கள்": 6879,
      "சரவண": 6880,
      "அங்கிருந்த": 6881,
      "பிள்ளைகள்": 6882,
      "ஊரட": 6883,
      "கடற்கரை": 6884,
      "இவ்வாறான": 6885,
      "!'": 6886,
      "04": 6887,
      "64": 6888,
      "?’’": 6889,
      "க்கரு": 6890,
      "ட்டையில்": 6891,
      "முற்ற": 6892,
      "ரிலீ": 6893,
      "தாங்க": 6894,
      "தார்த்த": 6895,
      "தேன்": 6896,
      "ச்சியா": 6897,
      "ளிடம்": 6898,
      "நீரா": 6899,
      "கோபி": 6900,
      "அதிரு": 6901,
      "வடிவம்": 6902,
      "கொரோனாவால்": 6903,
      "பணிப்பாளர்": 6904,
      "சென்றது": 6905,
      "பார்க்கலாம்": 6906,
      "விவசாயம்": 6907,
      "ஆங்கிலம்": 6908,
      "பார்வையா": 6909,
      "நெருக்கடி": 6910,
      "எழுத்தாளர்": 6911,
      "ஆர்ப்பாட்டம்": 6912,
      "காவல்துறையினர்": 6913,
      "புகழ்பெற்ற": 6914,
      "ஆண்டி": 6915,
      "ஹார்": 6916,
      "க்கச்": 6917,
      "ருங்கள்": 6918,
      "மாரி": 6919,
      "டைந்து": 6920,
      "சொல்லா": 6921,
      "வனம்": 6922,
      "சிலருக்கு": 6923,
      "சூடான": 6924,
      "வசன": 6925,
      "புதுப்பி": 6926,
      "துறைமுக": 6927,
      "எதிர்பார்ப்பு": 6928,
      "விவசாயிகளுக்கு": 6929,
      "க்கப்படுகின்றன": 6930,
      "ப்பேட்டை": 6931,
      "கண்டிப்பாக": 6932,
      "பரபரப்பு": 6933,
      "வெற்றிகரமாக": 6934,
      "முன்க": 6935,
      "சுப்ர": 6936,
      "மேடை": 6937,
      "நீட்": 6938,
      "பிரெ": 6939,
      "சட்டத்தை": 6940,
      "ியைக்": 6941,
      "ஸ்கி": 6942,
      "விலக்கு": 6943,
      "கூட்டமைப்பின்": 6944,
      "விஷ்ணு": 6945,
      "டலில்": 6946,
      "ணர்": 6947,
      "விக்கிர": 6948,
      "சித்திர": 6949,
      "சாது": 6950,
      "தொகையை": 6951,
      "பிரபு": 6952,
      "பிறந்தார்": 6953,
      "படிக்கும்": 6954,
      "அதுவே": 6955,
      "கிடைக்கிறது": 6956,
      "அர்த்தம்": 6957,
      "கல்லுாரி": 6958,
      "உறை": 6959,
      "கங்கள்": 6960,
      "நஷ்ட": 6961,
      "மறிய": 6962,
      "வண்ட": 6963,
      "குண்ட": 6964,
      "நிபந்த": 6965,
      "நிலவு": 6966,
      "மும்ப": 6967,
      "அனைவரையும்": 6968,
      "த்திற்குப்": 6969,
      "வெளிச்ச": 6970,
      "சேர்ந்தவர்கள்": 6971,
      "இந்தியாவுக்கு": 6972,
      "ளர்களிடம்": 6973,
      "ஈடுபட": 6974,
      "வகைகள்": 6975,
      "இறைச்சி": 6976,
      "கற்பனை": 6977,
      "கண்காணிப்பு": 6978,
      "கம்பெனி": 6979,
      "ஏழ": 6980,
      "நய": 6981,
      "னன்": 6982,
      "ூரி": 6983,
      "வாட்ஸ்": 6984,
      "புத்தா": 6985,
      "ச்சில்": 6986,
      "செய்யப்பட": 6987,
      "காலகட்டத்தில்": 6988,
      "ரீதியில்": 6989,
      "முறைய": 6990,
      "வைத்தனர்": 6991,
      "விஷயத்தில்": 6992,
      "அவருடன்": 6993,
      "கப்பல்": 6994,
      "சதவிகிதம்": 6995,
      "திணைக்கள": 6996,
      "ாண்டு": 6997,
      "பாவம்": 6998,
      "சான்று": 6999,
      "பேரு": 7000,
      "கோரிய": 7001,
      "அதிலும்": 7002,
      "ல்கா": 7003,
      "ஏற்படுகிறது": 7004,
      "சூடு": 7005,
      "அணிக்கு": 7006,
      "உண்மையை": 7007,
      "எண்ணம்": 7008,
      "இலங்கைக்கு": 7009,
      "எல்லாவற்றையும்": 7010,
      "இஸ்ரே": 7011,
      "முன்னிலை": 7012,
      "விவரங்கள்": 7013,
      "தரப்பின": 7014,
      "தார்": 7015,
      "ரகு": 7016,
      "ுமாறு": 7017,
      "செரு": 7018,
      "பாரிய": 7019,
      "களமிற": 7020,
      "நாளும்": 7021,
      "வைட்ட": 7022,
      "தெற்க": 7023,
      "வருஷ": 7024,
      "கடலில்": 7025,
      "ஆண்டுக்கு": 7026,
      "கல்விய": 7027,
      "சமூகம்": 7028,
      "எண்ணிக்க": 7029,
      "கவனமாக": 7030,
      "மன்னார்": 7031,
      "பஞ்சாப்": 7032,
      "சுற்றுச்சூழல்": 7033,
      "56": 7034,
      "உழ": 7035,
      "உபக": 7036,
      "வங்கிய": 7037,
      "நாளாக": 7038,
      "சுப": 7039,
      "னிவா": 7040,
      "பழங்கு": 7041,
      "என்பதைக்": 7042,
      "திரைய": 7043,
      "தென்னி": 7044,
      "பாதையில்": 7045,
      "கட்டாயம்": 7046,
      "அழகிய": 7047,
      "அலங்கார": 7048,
      "நெடுஞ்சாலை": 7049,
      "அஜித்": 7050,
      "செங்கல்": 7051,
      "ப்ரா": 7052,
      "போதிய": 7053,
      "வைக்கப்பட்டு": 7054,
      "கூடி": 7055,
      "எதிரி": 7056,
      "மாற்றிய": 7057,
      "பட்டியலி": 7058,
      "குளோ": 7059,
      "மட்டுமல்லாமல்": 7060,
      "மாபெரும்": 7061,
      "வரில்": 7062,
      "ப்பிள்ளை": 7063,
      "ப்பாட்டில்": 7064,
      "கட்டும்": 7065,
      "தூரம்": 7066,
      "பெற்றுள்ளது": 7067,
      "மின்சாரம்": 7068,
      "ப்பெரு": 7069,
      "வழக்குகள்": 7070,
      "சுவாரஸ்": 7071,
      "ஆபத்தான": 7072,
      "சுரேஷ்": 7073,
      "உபகரண": 7074,
      "வாள": 7075,
      "வெளியு": 7076,
      "வழிவகு": 7077,
      "உதவ": 7078,
      "பயன்படுத்தலாம்": 7079,
      "கேட்கும்": 7080,
      "சீனாவின்": 7081,
      "முன்னெடுக்க": 7082,
      "குழந்தையை": 7083,
      "கைப்பற்றி": 7084,
      "பிளாஸ்டிக்": 7085,
      "திருநெல்வேலி": 7086,
      "மசோதா": 7087,
      "up": 7088,
      "ஏர்": 7089,
      "ஐபி": 7090,
      "பள": 7091,
      "த்துக்கான": 7092,
      "மானம்": 7093,
      "என்றாள்": 7094,
      "என்பன": 7095,
      "ையிட்ட": 7096,
      "நேரத்தை": 7097,
      "தகவலை": 7098,
      "ஸ்கள்": 7099,
      "2006": 7100,
      "சுகாதாரத்துறை": 7101,
      "தோன்றும்": 7102,
      "ஒப்புதல்": 7103,
      "உரிமையாளர்": 7104,
      "படிப்படியாக": 7105,
      "அத்தியாவசிய": 7106,
      "https": 7107,
      "ஜய": 7108,
      "மந்திர": 7109,
      "துரோ": 7110,
      "சிக்கிய": 7111,
      "ஒருபோதும்": 7112,
      "வீரா": 7113,
      "லுக்கான": 7114,
      "மெல்லிய": 7115,
      "ணைப்பு": 7116,
      "இன்னமும்": 7117,
      "உருவாக்கப்பட்ட": 7118,
      "சொல்லிக்": 7119,
      "வீடுகளில்": 7120,
      "முயற்சிகள்": 7121,
      "வாங்கிக்": 7122,
      "திரும்பிய": 7123,
      "தோல்விய": 7124,
      "ஆளுந": 7125,
      "அமித்": 7126,
      "லிருந்தும்": 7127,
      "கிருஷ்ணா": 7128,
      "காகி": 7129,
      "டான்": 7130,
      "படுக்க": 7131,
      "தொடர்க": 7132,
      "முறைகே": 7133,
      "தூய்": 7134,
      "சிறுநீ": 7135,
      "அணிந்த": 7136,
      "ost": 7137,
      "ங்ட": 7138,
      "ஜார்": 7139,
      "வயிற்று": 7140,
      "த்தவர்": 7141,
      "ையோடு": 7142,
      "மாநாட்டில்": 7143,
      "வெற்றிய": 7144,
      "ல்கத்தா": 7145,
      "தெரிவிக்கின்றன": 7146,
      "பரீ": 7147,
      "கொள்ளவில்லை": 7148,
      "பல்லா": 7149,
      "குழுவினர்": 7150,
      "இருக்கிறோம்": 7151,
      "படைப்பு": 7152,
      "சாப்பிட்டு": 7153,
      "நெருங்கிய": 7154,
      "திருவண்ணாமலை": 7155,
      "ஆந்திர": 7156,
      "இதோ": 7157,
      "ல்ஸ்": 7158,
      "காப்பு": 7159,
      "நாமக்க": 7160,
      "ரைத்": 7161,
      "தொடங்கும்": 7162,
      "நேபா": 7163,
      "தனியா": 7164,
      "கருத்த": 7165,
      "முகமது": 7166,
      "குழுவின்": 7167,
      "மனிதர்கள்": 7168,
      "வெளியேற்ற": 7169,
      "கூறப்பட்டுள்ளது": 7170,
      "அடங்கும்": 7171,
      "இங்குள்ள": 7172,
      "பிளஸ்": 7173,
      "்கிழமை": 7174,
      "சித்தா": 7175,
      "நீக்க": 7176,
      "வருகிறோம்": 7177,
      "தொடரும்": 7178,
      "மையையும்": 7179,
      "மையுடன்": 7180,
      "ண்கள்": 7181,
      "எனக்குத்": 7182,
      "பணியாளர்கள்": 7183,
      "பராமரிப்பு": 7184,
      "Read": 7185,
      "கம்யூனிஸ்ட்": 7186,
      "தீபாவளி": 7187,
      "?\"": 7188,
      "த்தடி": 7189,
      "க்குடி": 7190,
      "வேலையில்": 7191,
      "நாவல்": 7192,
      "தொழு": 7193,
      "ளிப்பு": 7194,
      "ரணில்": 7195,
      "கடத்தி": 7196,
      "திருப்தி": 7197,
      "நெல்லை": 7198,
      "நிறுவனங்களின்": 7199,
      "வளர்த்து": 7200,
      "இந்தியப்": 7201,
      "முறையும்": 7202,
      "கண்டன": 7203,
      "கிளம்ப": 7204,
      "ஞாயிற்றுக்கிழமை": 7205,
      "St": 7206,
      "அமர": 7207,
      "ஊற்றி": 7208,
      "தத்துவ": 7209,
      "ப்பழ": 7210,
      "சிம்": 7211,
      "செம்": 7212,
      "தாத்தா": 7213,
      "மைகள்": 7214,
      "கூப்பி": 7215,
      "ரோட்டில்": 7216,
      "தலைமுறை": 7217,
      "வந்தாலும்": 7218,
      "ஸ்டார்": 7219,
      "களுக்குப்": 7220,
      "ரெட்": 7221,
      "இறப்பு": 7222,
      "கீழ்க்க": 7223,
      "மயமா": 7224,
      "நோய்கள்": 7225,
      "ஜம்மு": 7226,
      "Online": 7227,
      "பொள்ளாச்சி": 7228,
      "57": 7229,
      "ஓரி": 7230,
      "மந்திரி": 7231,
      "ல்ட்": 7232,
      "ற்றார்": 7233,
      "தாக்கம்": 7234,
      "ட்லி": 7235,
      "ர்தி": 7236,
      "ப்பாள": 7237,
      "உடலுக்கு": 7238,
      "ரெடி": 7239,
      "மன்னா": 7240,
      "தெரியவந்தது": 7241,
      "டாக்": 7242,
      "இழப்ப": 7243,
      "விரிவு": 7244,
      "ாலத்தில்": 7245,
      "பெரிதும்": 7246,
      "லோக்சபா": 7247,
      "மாட்டா": 7248,
      "ற்றால்": 7249,
      "ப்ஸ்": 7250,
      "ரெட்டி": 7251,
      "நூற்று": 7252,
      "அரசியல்வாதி": 7253,
      "கேள்விக்கு": 7254,
      "முகாம்": 7255,
      "கிறிஸ்த": 7256,
      "சராசரி": 7257,
      "வெளிப்படையாக": 7258,
      "ow": 7259,
      "விறு": 7260,
      "லைத்": 7261,
      "வாரா": 7262,
      "பிரிக்க": 7263,
      "ராவ்": 7264,
      "ட்ரி": 7265,
      "சேகர்": 7266,
      "அமைதியாக": 7267,
      "தரையில்": 7268,
      "ளுக்காக": 7269,
      "திறக்க": 7270,
      "கரமான": 7271,
      "கவிஞர்": 7272,
      "கதையை": 7273,
      "ஆட்சியை": 7274,
      "பார்ப்போம்": 7275,
      "சகோதரி": 7276,
      "விற்கும்": 7277,
      "மதிப்பீடு": 7278,
      "அதனால்தான்": 7279,
      "வேண்டுகோள்": 7280,
      "An": 7281,
      "ஷெ": 7282,
      "தலைவரும்": 7283,
      "ரேட்": 7284,
      "முறைப்படி": 7285,
      "மோத": 7286,
      "பிரிந்து": 7287,
      "பெறலாம்": 7288,
      "பாதுகாக்க": 7289,
      "மன்னர்": 7290,
      "வதைத்": 7291,
      "பெரும்பான்": 7292,
      "உறுப்பினராக": 7293,
      "பணியாற்றிய": 7294,
      "க்ட்": 7295,
      "அமில": 7296,
      "பிரதிநிதிகள்": 7297,
      "\"),": 7298,
      "58": 7299,
      "ஏக": 7300,
      "லறை": 7301,
      "மாத்திரை": 7302,
      "கிறா": 7303,
      "மையால்": 7304,
      "தலைப்பில்": 7305,
      "ட்டியே": 7306,
      "ையில்தான்": 7307,
      "கலந்த": 7308,
      "அடித்த": 7309,
      "விடுவார்கள்": 7310,
      "ஜெயி": 7311,
      "விருந்தி": 7312,
      "வைத்தது": 7313,
      "வடிவமைப்பு": 7314,
      "வேலையை": 7315,
      "கலாச்சார": 7316,
      "நடுத்தர": 7317,
      "உங்களுடைய": 7318,
      "கம": 7319,
      "டமிருந்து": 7320,
      "பன": 7321,
      "ெடுத்த": 7322,
      "வித்து": 7323,
      "ிருக்கா": 7324,
      "சியின்": 7325,
      "திருகோண": 7326,
      "விட்டாலும்": 7327,
      "உருவான": 7328,
      "அவர்களுடைய": 7329,
      "செலுத்திய": 7330,
      "ஜனாதிப": 7331,
      "தனிமைப்படுத்த": 7332,
      "ராஜினாமா": 7333,
      "தேங்காய்": 7334,
      "பரவலாக": 7335,
      "ஆர்ட": 7336,
      "ஊராட்சியில்": 7337,
      "கத்தை": 7338,
      "ையார்": 7339,
      "புதன": 7340,
      "வைகோ": 7341,
      "மாகச்": 7342,
      "உள்ளவர்கள்": 7343,
      "ப்பட்டுள்ளனர்": 7344,
      "க்கிங்": 7345,
      "வர்களுக்கும்": 7346,
      "விடயம்": 7347,
      "எந்தப்": 7348,
      "படுகிறது": 7349,
      "சொன்னது": 7350,
      "விஷயங்கள்": 7351,
      "தொடங்கினார்": 7352,
      "ஒன்றிணை": 7353,
      "வாடகை": 7354,
      "மேம்பாட்டு": 7355,
      "தக்காளி": 7356,
      "உண்ணா": 7357,
      "தணி": 7358,
      "ரையை": 7359,
      "ப்பதும்": 7360,
      "கொன்று": 7361,
      "வரையிலான": 7362,
      "ட்விட்டர்": 7363,
      "கிறாள்": 7364,
      "விட்டரில்": 7365,
      "வழங்கப்பட்டுள்ளது": 7366,
      "அருங்கா": 7367,
      "செலுத்தும்": 7368,
      "அலங்க": 7369,
      "ஏற்படுத்தியது": 7370,
      "விமர்சனம்": 7371,
      "பசுமை": 7372,
      "பட்ஜெட்": 7373,
      "கிளிநொச்சி": 7374,
      "ஃபோ": 7375,
      "ஹு": 7376,
      "மாசு": 7377,
      "கொடூ": 7378,
      "மிழ்": 7379,
      "ர்களான": 7380,
      "சியில்": 7381,
      "பயம்": 7382,
      "கருத்தை": 7383,
      "நிலைப்": 7384,
      "ங்கால": 7385,
      "மரங்கள்": 7386,
      "2005": 7387,
      "பயன்படுத்தப்படுகிறது": 7388,
      "org": 7389,
      "அணியில்": 7390,
      "எடுக்கப்பட்ட": 7391,
      "கோயிலாகும்": 7392,
      "உருவாகும்": 7393,
      "காய்ச்சல்": 7394,
      "கண்ணீர்": 7395,
      "அய": 7396,
      "இவன்": 7397,
      "டக்": 7398,
      "க்களுக்கு": 7399,
      "்பாடு": 7400,
      "வித்யா": 7401,
      "பாண்டி": 7402,
      "போடும்": 7403,
      "நாய்": 7404,
      "ஒருவருக்கு": 7405,
      "கடலூர்": 7406,
      "அவர்களில்": 7407,
      "கட்டப்பட்ட": 7408,
      "வுக்குப்": 7409,
      "கூறுகிறது": 7410,
      "அறிமுகப்படுத்த": 7411,
      "??": 7412,
      "சதி": 7413,
      "ஷ்க": 7414,
      "ிலுள்ள": 7415,
      "விடா": 7416,
      "மாவை": 7417,
      "ச்செ": 7418,
      "வாடி": 7419,
      "பொறி": 7420,
      "பலியாக": 7421,
      "திருமதி": 7422,
      "படங்களை": 7423,
      "சீர்": 7424,
      "அம்பா": 7425,
      "நிகழ்ந்த": 7426,
      "நிகழ்வுகள்": 7427,
      "சமர": 7428,
      "ர்களைக்": 7429,
      "அனுமதிக்க": 7430,
      "போட்டியிட": 7431,
      "பாரத": 7432,
      "என்னைப்": 7433,
      "வருடங்களாக": 7434,
      "வெளியிட்டுள்ளது": 7435,
      "பிரச்சினைகள்": 7436,
      "dia": 7437,
      "விண்வெளி": 7438,
      "\"\"": 7439,
      "1000": 7440,
      "கச": 7441,
      "பிக": 7442,
      "வருவதால்": 7443,
      "அரண்": 7444,
      "கைதி": 7445,
      "முடிவடை": 7446,
      "பகவான்": 7447,
      "வேகத்தில்": 7448,
      "நூற்றாண்டை": 7449,
      "அக்கறை": 7450,
      "வியாபாரத்தில்": 7451,
      "விகித": 7452,
      "கொழுப்பு": 7453,
      "600": 7454,
      "oc": 7455,
      "அனி": 7456,
      "ஐயா": 7457,
      "ஸுக்கு": 7458,
      "டுக்கும்": 7459,
      "காவ": 7460,
      "பாணியில்": 7461,
      "சுறு": 7462,
      "புள்ள": 7463,
      "னைத்": 7464,
      "ச்சந்திரன்": 7465,
      "கோபம்": 7466,
      "தெரிந்தது": 7467,
      "தோற்று": 7468,
      "வர்களிடம்": 7469,
      "அனுப்பிய": 7470,
      "ளர்களும்": 7471,
      "என்பதைப்": 7472,
      "யோகி": 7473,
      "உறுதிப்படுத்த": 7474,
      "செய்கிறார்கள்": 7475,
      "மென்மையான": 7476,
      "கிடந்த": 7477,
      "சிவகங்கை": 7478,
      "!’": 7479,
      "72": 7480,
      "உத்த": 7481,
      "தற்": 7482,
      "நள்ளி": 7483,
      "ரமே": 7484,
      "துல்லிய": 7485,
      "மாதா": 7486,
      "பிண": 7487,
      "புன்ன": 7488,
      "பொண்ணு": 7489,
      "செய்யுங்கள்": 7490,
      "நேரு": 7491,
      "வந்தன": 7492,
      "பதிவிட்டு": 7493,
      "கிடைத்து": 7494,
      "குழந்தைகளின்": 7495,
      "மில்லாமல்": 7496,
      "இதைத்": 7497,
      "அதிகரித்த": 7498,
      "பில்லியன்": 7499,
      "புலனாய்வு": 7500,
      "2011ஆம்": 7501,
      "அருங்காட்சிய": 7502,
      "ric": 7503,
      "ஆள்": 7504,
      "இனம்": 7505,
      "உடு": 7506,
      "சத்த": 7507,
      "சிங்கம்": 7508,
      "சுக்கு": 7509,
      "லுக்கும்": 7510,
      "நோக்கில்": 7511,
      "வளரும்": 7512,
      "நடிப்பில்": 7513,
      "அருண்": 7514,
      "லியின்": 7515,
      "ிருக்கின்ற": 7516,
      "ஒவ்வொ": 7517,
      "விஷயங்களை": 7518,
      "பத்ம": 7519,
      "இன்ஸ்பெக்டர்": 7520,
      "!’’": 7521,
      "அயோ": 7522,
      "ள்ப": 7523,
      "துடை": 7524,
      "ங்கொ": 7525,
      "டுக்கு": 7526,
      "செக்": 7527,
      "ப்யூ": 7528,
      "வேதிய": 7529,
      "சுட்டு": 7530,
      "வின்படி": 7531,
      "காணப்படுகின்றன": 7532,
      "செலவில்": 7533,
      "வயதுக்கு": 7534,
      "தருண": 7535,
      "முருக": 7536,
      "அதிகாரப்பூர்வ": 7537,
      "வைத்தியசாலை": 7538,
      "தோன்றிய": 7539,
      "கணேசன்": 7540,
      "சான்றிதழ்": 7541,
      "78": 7542,
      "ற்றைய": 7543,
      "இந்தோ": 7544,
      "ர்பி": 7545,
      "ண்ணிய": 7546,
      "செய்யவில்லை": 7547,
      "ளியை": 7548,
      "கொள்ளைய": 7549,
      "பைக்": 7550,
      "மேற்கண்ட": 7551,
      "வழிகாட்டு": 7552,
      "செல்வது": 7553,
      "வைத்திருக்கும்": 7554,
      "உருவாக்கும்": 7555,
      "வாக்குகள்": 7556,
      "கொல்லப்பட்ட": 7557,
      "மார்க்கெ": 7558,
      "அங்கீகாரம்": 7559,
      "அமல்படுத்த": 7560,
      "வங்காள": 7561,
      "Pan": 7562,
      "ீர": 7563,
      "நாளுக்கு": 7564,
      "வைக்கப்பட்டது": 7565,
      "பிரகாஷ்": 7566,
      "ஏற்பா": 7567,
      "ன்பதாம்": 7568,
      "கிடைக்கவில்லை": 7569,
      "வாழ்வா": 7570,
      "இறுதியாக": 7571,
      "தெளிவு": 7572,
      "க்கப்படவில்லை": 7573,
      "சீனாவில்": 7574,
      "ஆங்கிலே": 7575,
      "லிருந்தே": 7576,
      "ஆக்சி": 7577,
      "விஞ்ஞான": 7578,
      "வெற்றியை": 7579,
      "68": 7580,
      "ub": 7581,
      "அபாய": 7582,
      "இவர்களின்": 7583,
      "எலுமி": 7584,
      "கழ": 7585,
      "டின்": 7586,
      "ப்பதில்லை": 7587,
      "வினால்": 7588,
      "ச்சியின்": 7589,
      "அரே": 7590,
      "மோதிய": 7591,
      "தவறி": 7592,
      "தொகுதிகளில்": 7593,
      "நலன்": 7594,
      "தரிசனம்": 7595,
      "விவரம்": 7596,
      "கவனிக்க": 7597,
      "சூரியன்": 7598,
      "2015ஆம்": 7599,
      "அடுக்கு": 7600,
      "தஞ்சாவூர்": 7601,
      "வெளியுறவு": 7602,
      "நாமக்கல்": 7603,
      "சட்டை": 7604,
      "களோடு": 7605,
      "கிரீ": 7606,
      "வெண்ண": 7607,
      "கோலி": 7608,
      "மூளை": 7609,
      "முதலாக": 7610,
      "அமைக்கப்பட்ட": 7611,
      "செய்யப்பட்டனர்": 7612,
      "வைக்கவும்": 7613,
      "மருந்துகள்": 7614,
      "ஏற்பட்டுள்ள": 7615,
      "சூழ்நிலையில்": 7616,
      "முதலமைச்ச": 7617,
      "சொல்கிறார்": 7618,
      "பொருத்தமான": 7619,
      "டய": 7620,
      "ரணி": 7621,
      "வதோடு": 7622,
      "ஸல்": 7623,
      "ர்ஸ்": 7624,
      "ந்தின்": 7625,
      "மிஸ்": 7626,
      "டெல்": 7627,
      "சங்கத்தின்": 7628,
      "மறுபடியும்": 7629,
      "பயிர்": 7630,
      "சனின்": 7631,
      "தயாரிப்பாளர்": 7632,
      "முடிவுகளை": 7633,
      "எதிர்பார்ப்ப": 7634,
      "போராட்டத்தை": 7635,
      "உளவு": 7636,
      "நுழைந்த": 7637,
      "கல்யாணம்": 7638,
      "நூற்றாண்டைச்": 7639,
      "52": 7640,
      "நரம்பு": 7641,
      "பரம்ப": 7642,
      "போகிறது": 7643,
      "லாந்தில்": 7644,
      "ட்ல": 7645,
      "சால்": 7646,
      "தொட்டு": 7647,
      "ரியோ": 7648,
      "நீக்கி": 7649,
      "சேரும்": 7650,
      "தன்ன": 7651,
      "இருந்ததால்": 7652,
      "இயங்க": 7653,
      "பணு": 7654,
      "காரணங்கள்": 7655,
      "எடுத்துக்கொள்ள": 7656,
      "சிறுகதை": 7657,
      "குழந்தைக்கு": 7658,
      "குழந்தைகளை": 7659,
      "குடும்பத்தினர்": 7660,
      "செயற்பா": 7661,
      "கௌரவ": 7662,
      "வரையறு": 7663,
      "பன்னீர்செல்வம்": 7664,
      "சரும": 7665,
      "இறக்குமதி": 7666,
      "த்க": 7667,
      "நன்": 7668,
      "லைய": 7669,
      "சிட்டி": 7670,
      "சாறு": 7671,
      "தொழ": 7672,
      "வெல்": 7673,
      "தென்ன": 7674,
      "பலவீன": 7675,
      "உறுதியான": 7676,
      "இருக்கின்றது": 7677,
      "பரிதாப": 7678,
      "கட்சித்": 7679,
      "நியமனம்": 7680,
      "சிறிசேன": 7681,
      "ஊடகங்கள்": 7682,
      "கோயிலில்": 7683,
      "சுதந்திரம்": 7684,
      "உருவாகி": 7685,
      "ஒழுங்க": 7686,
      "குடியிருப்பு": 7687,
      "நாளித": 7688,
      "ce": 7689,
      "ஆராய": 7690,
      "ஆபாச": 7691,
      "உண்ண": 7692,
      "குட": 7693,
      "வாசல்": 7694,
      "பாக்கம்": 7695,
      "போரில்": 7696,
      "சுப்": 7697,
      "புழு": 7698,
      "கூகு": 7699,
      "வருவதாகவும்": 7700,
      "டையின்": 7701,
      "வேலைகள்": 7702,
      "சரக்கு": 7703,
      "விரைந்து": 7704,
      "சமாதான": 7705,
      "நுழைவு": 7706,
      "தாக்குதலில்": 7707,
      "கன்னியாக": 7708,
      "நேர்காண": 7709,
      "98": 7710,
      "ஈர்க்க": 7711,
      "ஊட்ட": 7712,
      "ஊடு": 7713,
      "எங்கு": 7714,
      "தூர்": 7715,
      "நம": 7716,
      "கிழி": 7717,
      "ர்களுக்கான": 7718,
      "மீக": 7719,
      "ப்பட்டுள்ளதாக": 7720,
      "அடிமை": 7721,
      "விட்டுப்": 7722,
      "உத்தரவிட": 7723,
      "மொழிபெய": 7724,
      "அப்படிய": 7725,
      "பட்சத்தில்": 7726,
      "மிளகு": 7727,
      "இதர": 7728,
      "மயம்": 7729,
      "ரர்": 7730,
      "ப்பற்றி": 7731,
      "பாக்கிய": 7732,
      "தானி": 7733,
      "இருபது": 7734,
      "ப்பாய்": 7735,
      "அறிக்கையை": 7736,
      "...”": 7737,
      "முதல்வராக": 7738,
      "நிற்ப": 7739,
      "வெளிப்படுத்த": 7740,
      "பழம்": 7741,
      "அழைக்கப்படுகிறது": 7742,
      "மரபணு": 7743,
      "அதேபோல": 7744,
      "மறுநாள்": 7745,
      "ஹிந்து": 7746,
      "விரிவாக": 7747,
      "பகுதியைச்": 7748,
      "இலவசமாக": 7749,
      "நிராகரி": 7750,
      "iy": 7751,
      "og": 7752,
      "ஆளாக": 7753,
      "திப": 7754,
      "காமெ": 7755,
      "களத்தில்": 7756,
      "போற": 7757,
      "மற்றவர்கள்": 7758,
      "பேரூ": 7759,
      "நீரி": 7760,
      "இருந்தேன்": 7761,
      "ரன்ஸ்": 7762,
      "பொலிஸா": 7763,
      "பேரர": 7764,
      "பொருளாதாரம்": 7765,
      "உயிரிழந்து": 7766,
      "ome": 7767,
      "அறிவுறுத்த": 7768,
      "கிருஷ்ணகிரி": 7769,
      "பண்ணு": 7770,
      "வைத்தியசாலையில்": 7771,
      "புராண": 7772,
      "அதோடு": 7773,
      "ஊற": 7774,
      "ஊழ": 7775,
      "ரைய": 7776,
      "்திற": 7777,
      "நிமிடம்": 7778,
      "மீத": 7779,
      "அந்தந்த": 7780,
      "பூண்டு": 7781,
      "கட்டமைப்பு": 7782,
      "அளித்தார்": 7783,
      "வாய்ப்பை": 7784,
      "தெரியவந்துள்ளது": 7785,
      "பயன்படுத்திய": 7786,
      "வினோ": 7787,
      "உயிரின": 7788,
      "பங்கேற்றனர்": 7789,
      "திருக்கோயில்": 7790,
      ".’’": 7791,
      "eb": 7792,
      "அவரும்": 7793,
      "தவ்": 7794,
      "படியாக": 7795,
      "பாரி": 7796,
      "தாரி": 7797,
      "வீதியில்": 7798,
      "கேட்": 7799,
      "சொல்க": 7800,
      "அமைப்பை": 7801,
      "தலைநகர்": 7802,
      "வந்ததும்": 7803,
      "டெங்கு": 7804,
      "நுழ": 7805,
      "மருத்துவம்": 7806,
      "நாயகி": 7807,
      "கும்பல்": 7808,
      "சிறிதள": 7809,
      "stor": 7810,
      "வலுவான": 7811,
      "இடம்பெற்றது": 7812,
      "உட்கொ": 7813,
      "அழகாக": 7814,
      "ப்பொருள்": 7815,
      "ஸ்டேட்": 7816,
      "சும்மா": 7817,
      "sh": 7818,
      "uth": 7819,
      "சங்கி": 7820,
      "முறு": 7821,
      "மாமா": 7822,
      "களம்": 7823,
      "நிஜ": 7824,
      "ராசா": 7825,
      "சீரிய": 7826,
      "மணம்": 7827,
      "முக்கியமானது": 7828,
      "படைத்த": 7829,
      "ஜோடி": 7830,
      "மாதிரிகள்": 7831,
      "அபரா": 7832,
      "விக்னே": 7833,
      "சாயன": 7834,
      "குறியீடு": 7835,
      "ஆயிரக்கணக்கான": 7836,
      "மைக்ரோ": 7837,
      "ஜல்லி": 7838,
      "க்களம்": 7839,
      "திச": 7840,
      "தாயார்": 7841,
      "வர்த": 7842,
      "ங்கிக்": 7843,
      "பிறகும்": 7844,
      "உடற்ப": 7845,
      "விடுங்கள்": 7846,
      "காணப்படு": 7847,
      "செயல்பட்ட": 7848,
      "சிறுவன்": 7849,
      "பள்ளிகளில்": 7850,
      "பயன்படுத்தப்படும்": 7851,
      "ிருப்பதால்": 7852,
      "த்திரைப்பட": 7853,
      "கார்த்திகே": 7854,
      "ையொட்டி": 7855,
      "அறிகுறிகள்": 7856,
      "அள்ளி": 7857,
      "ஆக்க": 7858,
      "ஆட்டம்": 7859,
      "நந்த": 7860,
      "ாலம்": 7861,
      "துரி": 7862,
      "மார": 7863,
      "மைத்திரி": 7864,
      "வெட்ட": 7865,
      "வெச்சு": 7866,
      "த்திலே": 7867,
      "தெரிவிக்க": 7868,
      "வடிவில்": 7869,
      "பெய்த": 7870,
      "அழைக்கப்படும்": 7871,
      "தொகுதிகளைக்": 7872,
      "சாகுபடி": 7873,
      "அறக்கட்ட": 7874,
      "மேற்கொள்ளப்பட்ட": 7875,
      "ஹோட்ட": 7876,
      "வதிலும்": 7877,
      "ரஜினிகாந்த்": 7878,
      "கேரளாவில்": 7879,
      "கமிஷனர்": 7880,
      "ec": 7881,
      "ly": 7882,
      "எழும்": 7883,
      "சலி": 7884,
      "ரன்க": 7885,
      "்பி": 7886,
      "வாட்": 7887,
      "தொக": 7888,
      "கடலுார்": 7889,
      "கட்டளை": 7890,
      "கூட்டா": 7891,
      "சிறிலங்கா": 7892,
      "சேர்த்துக்": 7893,
      "ity": 7894,
      "எல்லையில்": 7895,
      "adu": 7896,
      "கண்டுபிடிக்க": 7897,
      "கவர்ச்சி": 7898,
      "கடினமான": 7899,
      "அதனால": 7900,
      "if": 7901,
      "ஆய": 7902,
      "இவர்களை": 7903,
      "ஐஸ்": 7904,
      "பகல்": 7905,
      "வன்ன": 7906,
      "த்திரு": 7907,
      "விலேயே": 7908,
      "தின்": 7909,
      "ரிசர்": 7910,
      "வேதனை": 7911,
      "அவதி": 7912,
      "வீச்சு": 7913,
      "தோழி": 7914,
      "மேற்கொள்": 7915,
      "காட்டுகிறது": 7916,
      "விரும்பவில்லை": 7917,
      "அவுட்": 7918,
      "கன்னியாகு": 7919,
      "ஃபீ": 7920,
      "அமீ": 7921,
      "இனிய": 7922,
      "ூறு": 7923,
      "பாணி": 7924,
      "ஒருவரின்": 7925,
      "எனில்": 7926,
      "வனாக": 7927,
      "இயக்கி": 7928,
      "அமைச்சகம்": 7929,
      "நூல்கள்": 7930,
      "ர்களைப்": 7931,
      "உண்மைய": 7932,
      "மறைந்து": 7933,
      "கண்டித்து": 7934,
      "அன்றா": 7935,
      "அதிர்ஷ்ட": 7936,
      "அபராதம்": 7937,
      "உலோக": 7938,
      "எகி": 7939,
      "வணை": 7940,
      "ஷியா": 7941,
      "சித்ரா": 7942,
      "காம்": 7943,
      "கொவிட்": 7944,
      "னைக்கு": 7945,
      "மைக்கு": 7946,
      "கோர்ட்": 7947,
      "ஞ்ச்": 7948,
      "வனும்": 7949,
      "மெகா": 7950,
      "மோதல்": 7951,
      "இருக்கும்போது": 7952,
      "உறுதிய": 7953,
      "நடிக்கும்": 7954,
      "முறையான": 7955,
      "செலவழி": 7956,
      "அப்பகுதி": 7957,
      "இணையத்தில்": 7958,
      "காட்டிலும்": 7959,
      "வரவேற்க": 7960,
      "அதிர்ச்சியை": 7961,
      "ஒத்துழைப்பு": 7962,
      "The": 7963,
      "250": 7964,
      "II": 7965,
      "அர்ப்ப": 7966,
      "எங்கும்": 7967,
      "மதா": 7968,
      "வையின்": 7969,
      "ீன்": 7970,
      "த்தர்": 7971,
      "துள": 7972,
      "பிராம": 7973,
      "எனச்": 7974,
      "தொடக்கம்": 7975,
      "யாருக்கு": 7976,
      "விட்டான்": 7977,
      "தரமான": 7978,
      "கொண்டுள்ளார்": 7979,
      "மாதங்களாக": 7980,
      "யோகம்": 7981,
      "கிருமி": 7982,
      "இடைக்கால": 7983,
      "இல்லாததால்": 7984,
      "காயமடைந்த": 7985,
      "க்களையும்": 7986,
      "பரம்பரை": 7987,
      "எலி": 7988,
      "ஐந்தா": 7989,
      "னர்கள்": 7990,
      "சித்தி": 7991,
      "காபி": 7992,
      "பாலு": 7993,
      "தாது": 7994,
      "நானே": 7995,
      "பின்னா": 7996,
      "பொருளை": 7997,
      "பரவு": 7998,
      "சீதா": 7999,
      "தனித்துவ": 8000,
      "டேட்டா": 8001,
      "மேற்படி": 8002,
      "கண்ணன்": 8003,
      "நிறைவேற்று": 8004,
      "பிளே": 8005,
      "ஒன்றியம்": 8006,
      "67": 8007,
      "ஆண்டும்": 8008,
      "சண்ட": 8009,
      "வற்றி": 8010,
      "குத்த": 8011,
      "பாடம்": 8012,
      "வேதன": 8013,
      "பிட்": 8014,
      "னாளி": 8015,
      "ஸ்வரி": 8016,
      "நிலத்தில்": 8017,
      "மெய்": 8018,
      "க்கப்பட்டனர்": 8019,
      "இயங்கு": 8020,
      "பொதுத்": 8021,
      "தூது": 8022,
      "வைத்திருக்க": 8023,
      "மலையாள": 8024,
      "வதைப்": 8025,
      "ப்டி": 8026,
      "னியம்": 8027,
      "மூலதன": 8028,
      "உறுப்பினர்களைத்": 8029,
      "இறைவன்": 8030,
      "நிரப்ப": 8031,
      "பாலாஜி": 8032,
      "சேவையை": 8033,
      "சொன்னால்": 8034,
      "',": 8035,
      "ok": 8036,
      "sex": 8037,
      "அமர்": 8038,
      "ஆச்சர்": 8039,
      "தசை": 8040,
      "லொ": 8041,
      "லகம்": 8042,
      "ட்டது": 8043,
      "விவே": 8044,
      "விக்கி": 8045,
      "பாலம்": 8046,
      "ப்ரோ": 8047,
      "சுவர்": 8048,
      "றிந்து": 8049,
      "தேட": 8050,
      "ர்களாம்": 8051,
      "உள்ளதால்": 8052,
      "மீடியா": 8053,
      "டாடா": 8054,
      "ராஜீ": 8055,
      "வளைய": 8056,
      "எந்தவித": 8057,
      "நூலக": 8058,
      "இடம்பெற": 8059,
      "அமலா": 8060,
      "தலையை": 8061,
      "தண்ணீரில்": 8062,
      "நாகரி": 8063,
      "மகிழ்ச்சிய": 8064,
      "வலிமை": 8065,
      "மின்னஞ்ச": 8066,
      "உட்கார்ந்து": 8067,
      "தேர்ந்தெடுக்கின்றனர்": 8068,
      "அடிப்படையாகக்": 8069,
      "கீழ்க்கண்ட": 8070,
      "இத்திரைப்பட": 8071,
      "ஏவு": 8072,
      "ணன்": 8073,
      "ணாக": 8074,
      "பச்ச": 8075,
      "ரயி": 8076,
      "முளை": 8077,
      "த்தில்தான்": 8078,
      "எனக்கும்": 8079,
      "தென": 8080,
      "கோப்பை": 8081,
      "வருகிறேன்": 8082,
      "திருட்டு": 8083,
      "இருந்தபோது": 8084,
      "ையினை": 8085,
      "சொல்லலாம்": 8086,
      "பாதுகாப்பாக": 8087,
      "பெருந்த": 8088,
      "இணைத்து": 8089,
      "படுக்கை": 8090,
      "ஆர்வல": 8091,
      "கண்டனம்": 8092,
      "ஸ்டாலி": 8093,
      "தெளிவான": 8094,
      "பல்கலைக்கழகம்": 8095,
      "முனைவர்": 8096,
      "கிறிஸ்து": 8097,
      "வியாபாரம்": 8098,
      "கோரிக்கையை": 8099,
      "59": 8100,
      "ிழ": 8101,
      "ூடாக": 8102,
      "செடி": 8103,
      "பாலை": 8104,
      "லிங்": 8105,
      "செய்துள்ள": 8106,
      "ஆகியவற்றில்": 8107,
      "ஜெய்": 8108,
      "அமைச்சராக": 8109,
      "மாணவிய": 8110,
      "கூறியது": 8111,
      "அனுமதிக்கப்பட்டு": 8112,
      "உட்பட்டதாகும்": 8113,
      "வெங்கடே": 8114,
      "மன்னிப்பு": 8115,
      "AA": 8116,
      "ஏக்க": 8117,
      "ஒத்த": 8118,
      "வருவதற்கு": 8119,
      "என்றனர்": 8120,
      "தீன்": 8121,
      "ையாவது": 8122,
      "கூட்டணியில்": 8123,
      "பார்த்தேன்": 8124,
      "2004": 8125,
      "இருக்கிறேன்": 8126,
      "வதைக்": 8127,
      "போட்டியிட்ட": 8128,
      "விமர்சி": 8129,
      "சிங்கப்பூர்": 8130,
      "விஜயகாந்த்": 8131,
      "எழுதப்பட்ட": 8132,
      "தோன்றியது": 8133,
      "மேம்படுத்து": 8134,
      "நான்காவது": 8135,
      "குஜராத்": 8136,
      "திருகோணமலை": 8137,
      "Gram": 8138,
      "பண்டா": 8139,
      "ம்மன்": 8140,
      "ியர்": 8141,
      "சிஸ்": 8142,
      "இருப்பார்கள்": 8143,
      "சாதிய": 8144,
      "வருடன்": 8145,
      "பிரச்சார": 8146,
      "நேற்றைய": 8147,
      "கடையில்": 8148,
      "முன்னா": 8149,
      "வெளியீடு": 8150,
      "ட்டியது": 8151,
      "கொண்டுள்ள": 8152,
      "நோக்கு": 8153,
      "நோக்கிய": 8154,
      "வழங்கப்பட": 8155,
      "இருப்பதாகவும்": 8156,
      "பெருமா": 8157,
      "நிலையங்கள்": 8158,
      "திரையு": 8159,
      "வங்கிகள்": 8160,
      "மாட்டோம்": 8161,
      "இழுத்து": 8162,
      "கார்த்திக்": 8163,
      "முன்னுரிமை": 8164,
      "அதன": 8165,
      "ொழு": 8166,
      "ருக்கான": 8167,
      "திர்": 8168,
      "நாட்டிற்கு": 8169,
      "சாஸ்தி": 8170,
      "தொல்லை": 8171,
      "நிலையிலும்": 8172,
      "பிரீ": 8173,
      "க்கிடையே": 8174,
      "பின்வரும்": 8175,
      "இடத்துக்கு": 8176,
      "நல்லூர்": 8177,
      "நியூசி": 8178,
      "பங்குச்": 8179,
      "ப்பேர": 8180,
      "ஆகியோரின்": 8181,
      "ayat": 8182,
      "நிபுணர்": 8183,
      "மாறியது": 8184,
      "என்னவென்றால்": 8185,
      "நுகர்வோர்": 8186,
      "ஆச": 8187,
      "சஞ்ச": 8188,
      "தடி": 8189,
      "மஸ்": 8190,
      "ோகம்": 8191,
      "திலிருந்து": 8192,
      "மாஸ்டர்": 8193,
      "த்துார்": 8194,
      "நிம்": 8195,
      "நாவ": 8196,
      "கோயம்": 8197,
      "யாரோ": 8198,
      "தலைப்பு": 8199,
      "டும்போது": 8200,
      "தமிழர்களின்": 8201,
      "நகரின்": 8202,
      "முகர்": 8203,
      "நிறுவனங்களுக்கு": 8204,
      "வளர்த்த": 8205,
      "விதத்தில்": 8206,
      "அதற்குப்": 8207,
      "நகரங்களில்": 8208,
      "பாரதிய": 8209,
      "வலியுறுத்திய": 8210,
      "ங்களிலிருந்து": 8211,
      "திருவள்ள": 8212,
      "முல்லைத்தீவு": 8213,
      "உத்தரவிட்டுள்ளது": 8214,
      "தோன்றுகிறது": 8215,
      "மைதானத்தில்": 8216,
      "டாஸ்மாக்": 8217,
      "ஜெனரல்": 8218,
      "அர்ப்பணி": 8219,
      "சகி": 8220,
      "பிணை": 8221,
      "வருவாய": 8222,
      "வழியே": 8223,
      "ப்பின": 8224,
      "பிரிட்டி": 8225,
      "அறிவிக்கப்பட்ட": 8226,
      "பாகு": 8227,
      "புதுக்கோட்டை": 8228,
      "உணவுப்": 8229,
      "பூசைகள்": 8230,
      "தற்காலிக": 8231,
      "ப்பிரிவு": 8232,
      "Panch": 8233,
      "உறி": 8234,
      "ளவுக்கு": 8235,
      "ப்புத்": 8236,
      "ன்றில்": 8237,
      "கோளா": 8238,
      "குறிக்கும்": 8239,
      "குறிப்புகள்": 8240,
      "...]": 8241,
      "பாதுகாப்பான": 8242,
      "கூடவே": 8243,
      "லீக்": 8244,
      "சர்ச்ச": 8245,
      "ill": 8246,
      "சோதனையில்": 8247,
      "62": 8248,
      "விதம்": 8249,
      "திங்க": 8250,
      "குரூ": 8251,
      "லைகள்": 8252,
      "ட்டுகளை": 8253,
      "கொல்கத்தா": 8254,
      "லுக்காக": 8255,
      "இருந்தே": 8256,
      "இயற்ப": 8257,
      "கலவை": 8258,
      "வந்துள்ளார்": 8259,
      "அளவை": 8260,
      "art": 8261,
      "தயாரிக்கும்": 8262,
      "கூறுகின்றனர்": 8263,
      "குறைந்தபட்சம்": 8264,
      "கோயிலுக்கு": 8265,
      "முன்னேற்றம்": 8266,
      "மன்னன்": 8267,
      "மலேசிய": 8268,
      "விநியோக": 8269,
      "மசாலா": 8270,
      "Panchayat": 8271,
      ")\"": 8272,
      "54": 8273,
      "உளு": 8274,
      "எத்தன": 8275,
      "நன்க": 8276,
      "ீரல்": 8277,
      "க்கல்ல": 8278,
      "சிந்து": 8279,
      "ஒருகாலப்": 8280,
      "வழிய": 8281,
      "டாலர்": 8282,
      "கருத்தர": 8283,
      "தரன்": 8284,
      "த்துக்குள்ள": 8285,
      "இந்தியன்": 8286,
      "கல்வெட்டு": 8287,
      "தனித்த": 8288,
      "ிடையில்": 8289,
      "மண்டபத்தில்": 8290,
      "சம்பவங்கள்": 8291,
      "age": 8292,
      "தேர்வில்": 8293,
      "பிரசாரம்": 8294,
      "கடைசியாக": 8295,
      "அற்புதமான": 8296,
      "கஞ்சா": 8297,
      "சரியா": 8298,
      "தட்ட": 8299,
      "பத்தொ": 8300,
      "மலி": 8301,
      "பொடி": 8302,
      "ரியே": 8303,
      "டையாக": 8304,
      "ப்பாளராக": 8305,
      "கொண்டால்": 8306,
      "விடுதி": 8307,
      "நேரமும்": 8308,
      "எந்தக்": 8309,
      "அறிவித்தது": 8310,
      "சந்திப்பில்": 8311,
      "படையினர்": 8312,
      "இதற்கிடையே": 8313,
      "அர்ஜு": 8314,
      "அப்துல்": 8315,
      "ஐபிஎல்": 8316,
      "ah": 8317,
      "அடிய": 8318,
      "ஊற்ற": 8319,
      "ஒன்": 8320,
      "பனை": 8321,
      "ப்பவர்கள்": 8322,
      "வாரியம்": 8323,
      "பாட்ட": 8324,
      "நாலு": 8325,
      "சான": 8326,
      "நீங்கும்": 8327,
      "ப்படாமல்": 8328,
      "செய்தியை": 8329,
      "திருட": 8330,
      "வந்தா": 8331,
      "சீர்த": 8332,
      "பிரித்து": 8333,
      "மாணவர்களை": 8334,
      "அதைச்": 8335,
      "கன்னி": 8336,
      "இல்லாம": 8337,
      "வகைப்பாட்டில்": 8338,
      "கிலோமீட்டர்": 8339,
      "கோரிக்கைகளை": 8340,
      "சபாநாயகர்": 8341,
      "விளம்பரம்": 8342,
      "கொள்கிறேன்": 8343,
      "நிபுணர்கள்": 8344,
      "எதிர்காலத்தில்": 8345,
      "நிகழ்த்த": 8346,
      "பணியிட": 8347,
      "புற்றுநோய்": 8348,
      ">>>": 8349,
      "அறநிலையத்துறையின்": 8350,
      "காகித": 8351,
      "ug": 8352,
      "ஆசியா": 8353,
      "ஜப்பான": 8354,
      "மசிங்க": 8355,
      "ஷின்": 8356,
      "த்தார்கள்": 8357,
      "காரி": 8358,
      "ற்றே": 8359,
      "ிருஷ்ண": 8360,
      "நிலவும்": 8361,
      "கேட்டா": 8362,
      "கைகளை": 8363,
      "இதுவும்": 8364,
      "இடங்களிலும்": 8365,
      "அளிக்கிறது": 8366,
      "போராளி": 8367,
      "பிரார்த்த": 8368,
      "வெளியிடு": 8369,
      "முஸ்லீ": 8370,
      "தொடர்ந்தும்": 8371,
      "ஆப்பிள்": 8372,
      "நிர்வகிக்கப்படுகிறது": 8373,
      "சுப்ரமணிய": 8374,
      "tit": 8375,
      "அமே": 8376,
      "கறி": 8377,
      "ஜியோ": 8378,
      "டமும்": 8379,
      "தஞ்சை": 8380,
      "ம்தா": 8381,
      "வையை": 8382,
      "வோடு": 8383,
      "்களை": 8384,
      "சுரங்க": 8385,
      "முதலாம்": 8386,
      "கடலோ": 8387,
      "குறைத்து": 8388,
      "ank": 8389,
      "கட்சிக்கு": 8390,
      "ஸ்கா": 8391,
      "விரிவான": 8392,
      "அறிவுரை": 8393,
      "நிகழ்ச்சிகள்": 8394,
      "நூற்றாண்டில்": 8395,
      "நாடகம்": 8396,
      "வகித்தார்": 8397,
      "அதிர்ச்சிய": 8398,
      "விரும்பினால்": 8399,
      "முஸ்லிம்கள்": 8400,
      "சிவாஜி": 8401,
      "மைத்திரிபால": 8402,
      "51": 8403,
      "அகல": 8404,
      "இராம": 8405,
      "சக்": 8406,
      "பங்களா": 8407,
      "மடி": 8408,
      "சிவில்": 8409,
      "ிறார்": 8410,
      "தாலு": 8411,
      "தாசன்": 8412,
      "கொட்டி": 8413,
      "ப்பட்டால்": 8414,
      "தோற்றம்": 8415,
      "விடக்": 8416,
      "விளக்கி": 8417,
      "தூதர": 8418,
      "இறங்க": 8419,
      "மனைவியை": 8420,
      "பணியாற்ற": 8421,
      "அறங்கா": 8422,
      "க்கப்படுகின்றது": 8423,
      "புலிகளின்": 8424,
      "கற்றுக்": 8425,
      "தனுஷ்": 8426,
      "சுந்தரம்": 8427,
      "பிக்பா": 8428,
      "அம்ப": 8429,
      "அச்சி": 8430,
      "கர்ப்பி": 8431,
      "யதார்த்த": 8432,
      "ஸர்": 8433,
      "ஹம்": 8434,
      "சிசி": 8435,
      "செய்தல்": 8436,
      "கொண்டாடு": 8437,
      "முடிக்க": 8438,
      "பொருட்டு": 8439,
      "உணவக": 8440,
      "உருளை": 8441,
      "நடித்துள்ளார்": 8442,
      "நம்மிடம்": 8443,
      "ஞ்சில்": 8444,
      "நூலில்": 8445,
      "கூறினர்": 8446,
      "யூனியன்": 8447,
      "எதிர்பாராத": 8448,
      "போட்டுக்": 8449,
      "பேரவை": 8450,
      "ite": 8451,
      "செய்யப்பட்டுள்ளனர்": 8452,
      "ish": 8453,
      "பிரச்னைகள்": 8454,
      "அச்சுறுத்த": 8455,
      "பதிலளி": 8456,
      "நிபந்தனை": 8457,
      "சுவாரஸ்ய": 8458,
      "கொடூர": 8459,
      "அர்ச்ச": 8460,
      "இசு": 8461,
      "சடங்கு": 8462,
      "பரா": 8463,
      "செட்": 8464,
      "புன": 8465,
      "தேவன்": 8466,
      "பேட்டை": 8467,
      "கோட்டா": 8468,
      "மூலி": 8469,
      "செய்வதற்காக": 8470,
      "பூரண": 8471,
      "சிறந்தது": 8472,
      "பிரிவின்": 8473,
      "அமைச்சின்": 8474,
      "வடமாகாண": 8475,
      "உத்தரவை": 8476,
      "செயலாளராக": 8477,
      "பாராட்டி": 8478,
      "ஊராட்சித்": 8479,
      "உற்பத்தியா": 8480,
      "கணித": 8481,
      "1990": 8482,
      "விவரங்களை": 8483,
      "வெப்பநிலை": 8484,
      "மண்ணில்": 8485,
      "டிரைவர்": 8486,
      "டிஜிட்டல்": 8487,
      "முன்கூ": 8488,
      "69": 8489,
      "சத்": 8490,
      "தாலி": 8491,
      "பெய்": 8492,
      "றிந்த": 8493,
      "சாரா": 8494,
      "தேர்ச்சி": 8495,
      "த்திட்டம்": 8496,
      "வில்லிய": 8497,
      "வந்தேன்": 8498,
      "ளியின்": 8499,
      "நோட்ட": 8500,
      "ஆண்டுத்": 8501,
      "வளர்ப்பு": 8502,
      "பெயர்ந்த": 8503,
      "பெய்து": 8504,
      "அதன்பின்": 8505,
      "லானது": 8506,
      "ப்பைப்": 8507,
      "ச்சாமி": 8508,
      "குழுவில்": 8509,
      "சமூகத்தில்": 8510,
      "உள்ளிட்டோர்": 8511,
      "நடத்தப்படும்": 8512,
      "துவக்க": 8513,
      "........": 8514,
      "மேற்பட்டோர்": 8515,
      "மறக்க": 8516,
      "அறுவடை": 8517,
      "குற்றம்சா": 8518,
      "விலங்குகள்": 8519,
      "மீதமுள்ள": 8520,
      "ரிசர்வ்": 8521,
      ".(": 8522,
      "our": 8523,
      "wik": 8524,
      "இராஜா": 8525,
      "மாத்திர": 8526,
      "தாழ": 8527,
      "கிண்ட": 8528,
      "தைரிய": 8529,
      "நேர்ந்த": 8530,
      "வன்க": 8531,
      "சைவ": 8532,
      "மருந்த": 8533,
      "உணவை": 8534,
      "அவர்களும்": 8535,
      "வெளிப்புற": 8536,
      "நியமன": 8537,
      "நாட்டுக்கு": 8538,
      "மனிதர்": 8539,
      "ய்க்": 8540,
      "ிருப்பார்": 8541,
      "பண்ணை": 8542,
      "அந்நிய": 8543,
      "வேளாண்மை": 8544,
      "சாத்தியம்": 8545,
      "நியூயா": 8546,
      "பதவியில்": 8547,
      "எலுமிச்சை": 8548,
      "சிறிதளவு": 8549,
      "\":": 8550,
      "அத்து": 8551,
      "ஓரா": 8552,
      "சபரி": 8553,
      "ுக்காக": 8554,
      "விநா": 8555,
      "விசுவா": 8556,
      "சிட்": 8557,
      "காசம்": 8558,
      "போனில்": 8559,
      "வரத்து": 8560,
      "சாந்தி": 8561,
      "வீதம்": 8562,
      "கம்ப்யூ": 8563,
      "பதிப்பு": 8564,
      "வெளியாகும்": 8565,
      "நகரத்தில்": 8566,
      "வளர்ப்ப": 8567,
      "விட்டுச்": 8568,
      "முழுதும்": 8569,
      "இருக்கிறதா": 8570,
      "செலவுகள்": 8571,
      "வருடங்கள்": 8572,
      "பருத்தி": 8573,
      "குளிர்க": 8574,
      "அபிஷே": 8575,
      "ஆராய்ந்து": 8576,
      "வைரலாக": 8577,
      "போட்டியிடு": 8578,
      "நைட்": 8579,
      "செய்யாமல்": 8580,
      "வைட்டமின்": 8581,
      "title": 8582,
      "\".": 8583,
      "63": 8584,
      "ast": 8585,
      "அய்ய": 8586,
      "இவருடைய": 8587,
      "லஸ்": 8588,
      "விற்று": 8589,
      "பாபா": 8590,
      "பாசன": 8591,
      "கொத்த": 8592,
      "ண்டுகள்": 8593,
      "னுக்காக": 8594,
      "பலமுறை": 8595,
      "க்காரன்": 8596,
      "வட்டம்": 8597,
      "உடலின்": 8598,
      "முகவரி": 8599,
      "என்னென்ன": 8600,
      "வந்துள்ள": 8601,
      "வகையிலும்": 8602,
      "செல்வாக்கு": 8603,
      "பகுதிக்கு": 8604,
      "கலந்துகொண்டு": 8605,
      "மில்லாத": 8606,
      "கேள்விகள்": 8607,
      "அலட்சிய": 8608,
      "வணங்கி": 8609,
      "சொன்னேன்": 8610,
      "இடைத்தேர்த": 8611,
      "த்தொகை": 8612,
      "edia": 8613,
      "வலைதளங்களில்": 8614,
      "மகாராஷ்டிரா": 8615,
      "ஆயுள்": 8616,
      "வேட்பாளராக": 8617,
      "ஐரோப்பா": 8618,
      "வேண்டுமானாலும்": 8619,
      "கதிர்": 8620,
      "சைக்கிள்": 8621,
      "ஓடு": 8622,
      "தனால்": 8623,
      "ளரான": 8624,
      "க்கமாக": 8625,
      "ப்பரு": 8626,
      "நிலு": 8627,
      "சேகர": 8628,
      "திருப்பு": 8629,
      "இலட்சம்": 8630,
      "ட்சியை": 8631,
      "பாதிக்கும்": 8632,
      "உயிரு": 8633,
      "உயரம்": 8634,
      "கடைகளில்": 8635,
      "பேசினோம்": 8636,
      "அவ்வா": 8637,
      "பேரணி": 8638,
      "இன்றைக்கு": 8639,
      "போட்டியா": 8640,
      "க்கொள்வது": 8641,
      "திணைக்களம்": 8642,
      "உண்ணாவிர": 8643,
      "800": 8644,
      "அநே": 8645,
      "ஆற": 8646,
      "நந்தி": 8647,
      "முதி": 8648,
      "செந்தில்": 8649,
      "கள்தான்": 8650,
      "பெல்": 8651,
      "தேய": 8652,
      "டியது": 8653,
      "நடா": 8654,
      "க்கிட்ட": 8655,
      "ிருந்தேன்": 8656,
      "ட்களை": 8657,
      "அதுக்கு": 8658,
      "மதுரையில்": 8659,
      "பிரிவின": 8660,
      "அதன்பிறகு": 8661,
      "தெரிவித்துள்ள": 8662,
      "செயல்முறை": 8663,
      "என்கிறது": 8664,
      "மண்டலம்": 8665,
      "தையடுத்து": 8666,
      "சேர்க்கை": 8667,
      "வராத": 8668,
      "ஏற்பாடுகள்": 8669,
      "முகாம்க": 8670,
      "ஆணையர்": 8671,
      "செல்கிறது": 8672,
      "சிற்றூர்கள்": 8673,
      "Con": 8674,
      "ஃப்ட்": 8675,
      "ஆற்றில்": 8676,
      "ஓம்": 8677,
      "மசூ": 8678,
      "ரக்": 8679,
      "காவி": 8680,
      "வேட": 8681,
      "வுள்ளதாக": 8682,
      "மித": 8683,
      "அவற்று": 8684,
      "வர்களே": 8685,
      "எழுந்துள்ளது": 8686,
      "நெரி": 8687,
      "தூண்டு": 8688,
      "பற்றிக்": 8689,
      "ரூபாயை": 8690,
      "க்கெல்லாம்": 8691,
      "திரும்பு": 8692,
      "கட்சியினர்": 8693,
      "விசாரணைகளை": 8694,
      "மறைமுக": 8695,
      "தண்ணீரை": 8696,
      "லெட்": 8697,
      "தகரா": 8698,
      "மோசமாக": 8699,
      "தம்பதி": 8700,
      "அச்சம்": 8701,
      "பூர்வமாக": 8702,
      "திடீரென்று": 8703,
      "ஸ்மார்ட்": 8704,
      "பண்டைய": 8705,
      "85": 8706,
      "by": 8707,
      "அத்": 8708,
      "ஆடம்": 8709,
      "வள்ள": 8710,
      "ிண": 8711,
      "ப்பேன்": 8712,
      "குழி": 8713,
      "பாக்கி": 8714,
      "சாட்சி": 8715,
      "கிண்ண": 8716,
      "தேதிய": 8717,
      "பேசா": 8718,
      "கோவையில்": 8719,
      "வீச": 8720,
      "அரங்கே": 8721,
      "ப்படியான": 8722,
      "ர்த்திய": 8723,
      "ல்கூட": 8724,
      "டாப்": 8725,
      "ராஜஸ்தான்": 8726,
      "எம்பி": 8727,
      "வைத்துள்ள": 8728,
      "பணிகளில்": 8729,
      "வளர்ச்சியை": 8730,
      "துவக்கி": 8731,
      "றாமல்": 8732,
      "மாட்டார்": 8733,
      "தொழில்நுட்பம்": 8734,
      "விக்ர": 8735,
      "நடக்கின்றது": 8736,
      "ஏற்படலாம்": 8737,
      "இதற்கிடையில்": 8738,
      "ஆஸ்திரேலிய": 8739,
      "தவறாக": 8740,
      "ஸ்வாமி": 8741,
      "எத்தனையோ": 8742,
      "பத்தொன்பதாம்": 8743,
      "\"(": 8744,
      "இதெல்லாம்": 8745,
      "கின்": 8746,
      "டனே": 8747,
      "நல்": 8748,
      "க்கதை": 8749,
      "விக்கப்பட்டது": 8750,
      "வரலாம்": 8751,
      "மேக்": 8752,
      "நீளம்": 8753,
      "கைவிட": 8754,
      "ங்குளம்": 8755,
      "ப்பாட்டை": 8756,
      "ற்றினார்": 8757,
      "பரின்": 8758,
      "மனதை": 8759,
      "கூறியுள்ளது": 8760,
      "னியர்": 8761,
      "விவசாயிகளின்": 8762,
      "செய்கிறார்": 8763,
      "உடைத்து": 8764,
      "சமாளிக்க": 8765,
      "வாடிக்கையாளர்கள்": 8766,
      "கமல்ஹாசன்": 8767,
      "ஓரளவு": 8768,
      "சமீபத்திய": 8769,
      "வியாழக்கிழமை": 8770,
      "எதை": 8771,
      "எட்டி": 8772,
      "ஏல": 8773,
      "ஜப்பான்": 8774,
      "வாஷி": 8775,
      "தொல்ல": 8776,
      "ரியர்": 8777,
      "கோவில": 8778,
      "தாகிருஷ்ண": 8779,
      "ப்போர்": 8780,
      "மெக்": 8781,
      "மெண்ட்": 8782,
      "எதிர்த்த": 8783,
      "தோற்க": 8784,
      "அவர்களால்": 8785,
      "ன்களின்": 8786,
      "காணும்": 8787,
      "டெலி": 8788,
      "நினைக்கிறேன்": 8789,
      "தொழிலில்": 8790,
      "one": 8791,
      "2001": 8792,
      "நடத்தப்பட்டது": 8793,
      "பக்தி": 8794,
      "விலைக்கு": 8795,
      "பக்கத்து": 8796,
      "விமானத்தில்": 8797,
      "இதனைத்": 8798,
      "த்தானே": 8799,
      "தொழிலாளி": 8800,
      "நன்மைகள்": 8801,
      "கள்ளக்குறிச்சி": 8802,
      "வங்கியின்": 8803,
      "ங்டன்": 8804,
      "77": 8805,
      "ev": 8806,
      "இழை": 8807,
      "உமா": 8808,
      "கையின்": 8809,
      "நார்": 8810,
      "மத்": 8811,
      "மாட்டு": 8812,
      "வேதா": 8813,
      "வரத": 8814,
      "பிரதேசம்": 8815,
      "...!": 8816,
      "பின்பற்றி": 8817,
      "பரவலை": 8818,
      "கலவர": 8819,
      "சோனியா": 8820,
      "சென்னைக்கு": 8821,
      "யோக": 8822,
      "இதன்படி": 8823,
      "ary": 8824,
      "கேட்டால்": 8825,
      "செய்யப்பட்டுள்ள": 8826,
      "க்கணக்கில்": 8827,
      "விருதுநகர்": 8828,
      "எச்சரிக்க": 8829,
      "படையின": 8830,
      "வாரிசு": 8831,
      "உடுமலை": 8832,
      "கன்னியாகுமரி": 8833,
      "கசிய": 8834,
      "பவர்களுக்கு": 8835,
      "மவு": 8836,
      "மங்கள": 8837,
      "ரத்தம்": 8838,
      "ீட்டை": 8839,
      "ோருக்கு": 8840,
      "ப்பறை": 8841,
      "மாடல்": 8842,
      "காச": 8843,
      "வாக்கெ": 8844,
      "வேட்டை": 8845,
      "ப்பட்டதாக": 8846,
      "தென்ப": 8847,
      "டியம்": 8848,
      "மூணு": 8849,
      "நடத்தை": 8850,
      "இரண்டும்": 8851,
      "கருணை": 8852,
      "தூக்க": 8853,
      "atest": 8854,
      "வாய்ப்புள்ளது": 8855,
      "வயதுடைய": 8856,
      "கொள்முதல்": 8857,
      "மனுவை": 8858,
      "ஒதுக்கி": 8859,
      "நாடாளுமன்றத்தில்": 8860,
      "பறக்கும்": 8861,
      "உரிமையாளர்கள்": 8862,
      "புதன்கிழமை": 8863,
      "ஊடுரு": 8864,
      "Ar": 8865,
      "[...]": 8866,
      "தங்களுடைய": 8867,
      "ந்தால்": 8868,
      "டிசை": 8869,
      "போனால்": 8870,
      "மிதி": 8871,
      "வைப்பது": 8872,
      "ச்சோ": 8873,
      "நிலத்தை": 8874,
      "செய்வதற்கான": 8875,
      "பயந்து": 8876,
      "வந்தபோது": 8877,
      "றியது": 8878,
      "விட்டா": 8879,
      "ட்டியுள்ளார்": 8880,
      "அரசியலுக்கு": 8881,
      "பழக்கம்": 8882,
      "அப்போதுதான்": 8883,
      "சொல்ற": 8884,
      "அவரைப்": 8885,
      "வடிவத்தில்": 8886,
      "ச்சேரியில்": 8887,
      "நாடாளுமன்றத்": 8888,
      "நூற்றாண்டின்": 8889,
      "தடுக்கும்": 8890,
      "நாராயணன்": 8891,
      "மூழ்கி": 8892,
      "ஆய்வாளர்": 8893,
      "உடற்பயிற்சி": 8894,
      "திருவள்ளூர்": 8895,
      "pl": 8896,
      "தங்கு": 8897,
      "த்துவிட்டு": 8898,
      "காற்ற": 8899,
      "நடப்பு": 8900,
      "அரவி": 8901,
      "செய்முறை": 8902,
      "செய்வதாக": 8903,
      "யிலை": 8904,
      "அமைக்கும்": 8905,
      "ப்பாட்டு": 8906,
      "மெதுவாக": 8907,
      "தமிழ்ப்": 8908,
      "முகத்தை": 8909,
      "சட்டத்தில்": 8910,
      "காரணத்தால்": 8911,
      "தொகுக்கப்பட்டுள்ளது": 8912,
      "அணிகள்": 8913,
      "யோகா": 8914,
      "ort": 8915,
      "வாக்குறுதி": 8916,
      "பிரதிபலி": 8917,
      "பங்கேற்று": 8918,
      "கொழும்பில்": 8919,
      "வூதிய": 8920,
      "செயல்படுகிறது": 8921,
      "செயல்திற": 8922,
      "ive": 8923,
      "தேவாலய": 8924,
      "பிரபாகரன்": 8925,
      "சிறுநீரக": 8926,
      "96": 8927,
      "ஆட": 8928,
      "எப்போ": 8929,
      "தகுந்த": 8930,
      "வத்": 8931,
      "முக்கு": 8932,
      "குவா": 8933,
      "பாமா": 8934,
      "போற்றி": 8935,
      "இருவருக்கும்": 8936,
      "சொற்ப": 8937,
      "வந்திருந்த": 8938,
      "சிறீ": 8939,
      "வசதியாக": 8940,
      "இன்ஜி": 8941,
      "செலுத்துவ": 8942,
      "அப்பகுதியில்": 8943,
      "சிகிச்சைக்காக": 8944,
      "தொழிற்சங்க": 8945,
      "அவுஸ்திரே": 8946,
      "சிற்றூர்களின்": 8947,
      "அரசியலமைப்பு": 8948,
      "ஆங்கிலேய": 8949,
      "53": 8950,
      "More": 8951,
      "காக": 8952,
      "சந்": 8953,
      "மியில்": 8954,
      "ரது": 8955,
      "ோகத்தில்": 8956,
      "மாரியம்": 8957,
      "புனை": 8958,
      "கிழ்": 8959,
      "ியாவது": 8960,
      "பேட்": 8961,
      "ர்பு": 8962,
      "வீக": 8963,
      "என்றுதான்": 8964,
      "விட்டோம்": 8965,
      "இலக்க": 8966,
      "ங்காமல்": 8967,
      "ant": 8968,
      "மியூ": 8969,
      "புரிந்துகொள்ள": 8970,
      "இம்முறை": 8971,
      "முன்னெடுத்து": 8972,
      "மாறன்": 8973,
      "பெரிதாக": 8974,
      "முதன்மைத்": 8975,
      "சீர்திரு": 8976,
      "பிக்பாஸ்": 8977,
      ".'": 8978,
      "எப்": 8979,
      "ஒட்ட": 8980,
      "ஓட": 8981,
      "வதா": 8982,
      "ெடுத்து": 8983,
      "திண": 8984,
      "லிக்க": 8985,
      "அரபு": 8986,
      "கொண்டேன்": 8987,
      "தீன": 8988,
      "ஜிபி": 8989,
      "நடைமுறையில்": 8990,
      "ர்டி": 8991,
      "பணிபுரியும்": 8992,
      "அடுத்தடுத்து": 8993,
      "சிரியர்": 8994,
      "ய்கள்": 8995,
      "எல்லாரும்": 8996,
      "டேபிள்": 8997,
      "வணக்கம்": 8998,
      "சுழற்சி": 8999,
      "Com": 9000,
      "உம்": 9001,
      "ளரை": 9002,
      "ப்பதன்": 9003,
      "மைப்": 9004,
      "மேடையில்": 9005,
      "மையத்தில்": 9006,
      "ப்பாளையம்": 9007,
      "தரவின்படி": 9008,
      "ட்டியின்": 9009,
      "வளர": 9010,
      "உயர்த்தி": 9011,
      "ட்பாடு": 9012,
      "முறையே": 9013,
      "இறந்தார்": 9014,
      "கொடுத்தது": 9015,
      "ிருப்பதாகவும்": 9016,
      "ளாக்": 9017,
      "தடுப்பூ": 9018,
      "இப்பொழுது": 9019,
      "பின்னணியில்": 9020,
      "க்கணும்": 9021,
      "த்துறையில்": 9022,
      "எல்லோருக்கும்": 9023,
      "நோயால்": 9024,
      "தெருவில்": 9025,
      "பஞ்சாய": 9026,
      "தோழர்": 9027,
      "அபாயம்": 9028,
      "இந்தோனே": 9029,
      "ஃபர்": 9030,
      "ஆரா": 9031,
      "ஆங்கா": 9032,
      "மக்": 9033,
      "த்தவர்கள்": 9034,
      "விளி": 9035,
      "விவாக": 9036,
      "த்துள்ளனர்": 9037,
      "தானா": 9038,
      "பெரம்": 9039,
      "கோலா": 9040,
      "என்றெல்லாம்": 9041,
      "என்னோட": 9042,
      "வளம்": 9043,
      "பாதிக்கப்படு": 9044,
      "தூரத்தில்": 9045,
      "கீரை": 9046,
      "கிராமங்களில்": 9047,
      "ஜாதி": 9048,
      "வழக்குப்பதிவு": 9049,
      "க்கேற்ப": 9050,
      "தேர்வுத்": 9051,
      "வாகனத்தில்": 9052,
      "ராஜ்ய": 9053,
      "கலாசார": 9054,
      "வெளியிட்டார்": 9055,
      "எழுதினார்": 9056,
      "இராச்சிய": 9057,
      "ஒருங்கிணைப்பாளர்": 9058,
      "ஒழிப்பு": 9059,
      "த்தலைவர்": 9060,
      "பற்றாக்குறை": 9061,
      "மும்பையில்": 9062,
      "tr": 9063,
      "இத்த": 9064,
      "கர்த்த": 9065,
      "தபால்": 9066,
      "தவான்": 9067,
      "பும்": 9068,
      "க்கல": 9069,
      "விசை": 9070,
      "ாகக்": 9071,
      "ரிலும்": 9072,
      "தாண்ட": 9073,
      "நாதர்": 9074,
      "கிட்டு": 9075,
      "அதிலிருந்து": 9076,
      "கேஷ்": 9077,
      "தொடக்கத்தில்": 9078,
      "ரோஜா": 9079,
      "அறிவா": 9080,
      "வெளியீட்டு": 9081,
      "விருக்கும்": 9082,
      "பணிக்கு": 9083,
      "சிறுவர்": 9084,
      "நாயகன": 9085,
      "ஸ்பா": 9086,
      "ிருக்கின்றனர்": 9087,
      "கனமழை": 9088,
      "குறிப்பிடப்பட்டுள்ளது": 9089,
      "உதவிகள்": 9090,
      "பணியாளர்": 9091,
      "திரைப்படத்தில்": 9092,
      "உலகளா": 9093,
      "வாரூர்": 9094,
      "அணுக": 9095,
      "நோயாளிகள்": 9096,
      "வியாபாரி": 9097,
      "மக்களிடையே": 9098,
      "பின்பற்று": 9099,
      "வசூல்": 9100,
      "நியாயமான": 9101,
      "பிரித்தானியா": 9102,
      "ns": 9103,
      "ous": 9104,
      "ஆற்று": 9105,
      "எரு": 9106,
      "ஷை": 9107,
      "ஹர்": 9108,
      "விரா": 9109,
      "குரோ": 9110,
      "காண்க": 9111,
      "செம": 9112,
      "வர்த்தி": 9113,
      "கிங்": 9114,
      "தொற்றால்": 9115,
      "கூர்": 9116,
      "ச்சிற": 9117,
      "படத்திற்கு": 9118,
      "பொருந்தும்": 9119,
      "ருக்குப்": 9120,
      "விடுவார்": 9121,
      "இந்தியாவை": 9122,
      "காணப்படுகின்றது": 9123,
      "ச்சாலை": 9124,
      "செல்போன்": 9125,
      "உலகப்": 9126,
      "அனுமதிக்கப்பட்ட": 9127,
      "வெளியேற": 9128,
      "மறைத்து": 9129,
      "உடல்நல": 9130,
      "நாகரீ": 9131,
      "ஆங்கிலத்தில்": 9132,
      "இந்திரா": 9133,
      "முன்கூட்டியே": 9134,
      "அகா": 9135,
      "பற்க": 9136,
      "பங்கா": 9137,
      "லியை": 9138,
      "வச்சி": 9139,
      "துடன்": 9140,
      "மாயா": 9141,
      "தாராள": 9142,
      "சுக": 9143,
      "சாமிய": 9144,
      "த்ர": 9145,
      "வென": 9146,
      "ச்சேன்": 9147,
      "வர்ற": 9148,
      "ப்பினை": 9149,
      "ப்படுகிறார்": 9150,
      "திருவாரூர்": 9151,
      "இயலாது": 9152,
      "காலத்திற்கு": 9153,
      "சார்ஜ்": 9154,
      "திறப்பு": 9155,
      "படைகள்": 9156,
      "பிரச்ன": 9157,
      "இணையதள": 9158,
      "பதவிக்கு": 9159,
      "அப்பாவி": 9160,
      "மக்கள்தொ": 9161,
      "டில்லியில்": 9162,
      "நெருக்கமான": 9163,
      "செவ்வாய்க்க": 9164,
      "சேமிப்பு": 9165,
      "உபயோகி": 9166,
      "www": 9167,
      "பயனுள்ள": 9168,
      "கோளாறு": 9169,
      "88": 9170,
      "ect": 9171,
      "sp": 9172,
      "ஆஸ்ப": 9173,
      "இக்": 9174,
      "சலம்": 9175,
      "ஜமா": 9176,
      "ங்கால்": 9177,
      "சிம்பு": 9178,
      "டிங்": 9179,
      "காத்து": 9180,
      "கார்ப்ப": 9181,
      "செங்கோ": 9182,
      "தாம்ப": 9183,
      "சுட": 9184,
      "வைக்கப்பட்டுள்ளது": 9185,
      "கிமீ": 9186,
      "மேடு": 9187,
      "பொறியா": 9188,
      "கோட்பாடு": 9189,
      "வழை": 9190,
      "மையமாக": 9191,
      "கொண்டதாக": 9192,
      "வியும்": 9193,
      "காலகட்ட": 9194,
      "அரசுப்": 9195,
      "நெகிழ்": 9196,
      "அதிகாரிகளுக்கு": 9197,
      "பெறுவது": 9198,
      "ிருப்பதை": 9199,
      "எண்ணிக்கையில்": 9200,
      "மையைக்": 9201,
      "போராட்டங்கள்": 9202,
      "மக்களால்": 9203,
      "அரசும்": 9204,
      "கவனித்து": 9205,
      "கருணாநி": 9206,
      "ப்படுத்துவது": 9207,
      "காப்பீடு": 9208,
      "கூகுள்": 9209,
      "உலகளாவிய": 9210,
      "ஊசி": 9211,
      "ன்தா": 9212,
      "’.": 9213,
      "க்குவது": 9214,
      "டிக்கை": 9215,
      "டிகிரி": 9216,
      "காக்க": 9217,
      "பான்மை": 9218,
      "வேட்ட": 9219,
      "தாயம்": 9220,
      "நாற்க": 9221,
      "அவமான": 9222,
      "தொடு": 9223,
      "வீண்": 9224,
      "திருவா": 9225,
      "வந்தான்": 9226,
      "மெயில்": 9227,
      "கருக்கு": 9228,
      "க்கொரு": 9229,
      "நோயை": 9230,
      "வலய": 9231,
      "நடித்தார்": 9232,
      "விருந்து": 9233,
      "வசந்த": 9234,
      "குழுக்கள்": 9235,
      "க்கொண்டிருக்கும்": 9236,
      "ஸ்ரீலங்கா": 9237,
      "மதிப்புள்ள": 9238,
      "ிற்காக": 9239,
      "did": 9240,
      "und": 9241,
      "குரலில்": 9242,
      "உள்ளடக்கிய": 9243,
      "தராபாத்": 9244,
      "பங்களிப்பு": 9245,
      "தலித்": 9246,
      "அருகிலுள்ள": 9247,
      "மீள்விக்கப்பட்டது": 9248,
      "நகைச்சுவை": 9249,
      "பிரிட்டிஷ்": 9250,
      "ஆபீ": 9251,
      "சளி": 9252,
      "சரஸ்": 9253,
      "லையை": 9254,
      "ழா": 9255,
      "ெடு": 9256,
      "க்கத்தக்க": 9257,
      "துளை": 9258,
      "துண்டி": 9259,
      "விற": 9260,
      "செழி": 9261,
      "ற்றது": 9262,
      "லைனில்": 9263,
      "வாசனை": 9264,
      "த்தில": 9265,
      "ையிலே": 9266,
      "ையிலுள்ள": 9267,
      "வழங்கியது": 9268,
      "தேர்தலுக்கு": 9269,
      "எம்எல்": 9270,
      "க்கூறு": 9271,
      "சங்கீ": 9272,
      "ஒன்றுக்கு": 9273,
      "மையைப்": 9274,
      "பெரும்பான்மை": 9275,
      "மேற்பார்": 9276,
      "சிக்கலான": 9277,
      "செய்யப்பட்டுள்ளார்": 9278,
      "வெள்ளம்": 9279,
      "எச்சரி": 9280,
      "அங்கீகரி": 9281,
      "சீரமை": 9282,
      "வீழ்ச்சி": 9283,
      "தேர்ந்தெடுக்கப்பட்ட": 9284,
      "திரையரங்கு": 9285,
      "நேபாள": 9286,
      "அசல்": 9287,
      "இப்": 9288,
      "பரோ": 9289,
      "ளருக்கு": 9290,
      "ெடுக்க": 9291,
      "ந்தல்": 9292,
      "குடா": 9293,
      "காள": 9294,
      "வுல": 9295,
      "கொடிய": 9296,
      "வரையான": 9297,
      "புரியா": 9298,
      "ப்பாய்வு": 9299,
      "இதுதொடர்பாக": 9300,
      "க்கப்பட்டுள்ளதாக": 9301,
      "நிறுவனமான": 9302,
      "வழங்கப்பட்டு": 9303,
      "பழங்கள்": 9304,
      "நுரைய": 9305,
      "கூறியுள்ள": 9306,
      "சமூகத்தின்": 9307,
      "உத்தரவிட்டது": 9308,
      "வரலாற்றை": 9309,
      "கால்பந்து": 9310,
      "எதுவு": 9311,
      "விடுத்துள்ளார்": 9312,
      "ஓய்வூதிய": 9313,
      "தீயணைப்பு": 9314,
      "கோர்ட்டில்": 9315,
      "உங்களிடம்": 9316,
      "தற்ப": 9317,
      "ம்பிக்": 9318,
      "க்கமான": 9319,
      "்டீ": 9320,
      "செஞ்சி": 9321,
      "வரியில்": 9322,
      "மெல்லாம்": 9323,
      "நிறுத்திய": 9324,
      "லேட்": 9325,
      "பூச": 9326,
      "மன்றம்": 9327,
      "மனே": 9328,
      "ராமசாமி": 9329,
      "நிறுவனங்களில்": 9330,
      "சட்டப்பேர": 9331,
      "பொதுமக்களுக்கு": 9332,
      "நாயகன்": 9333,
      "கட்சிகளின்": 9334,
      "கிராமப்புற": 9335,
      "ஆயினும்": 9336,
      "இலங்கைத்": 9337,
      "கூறுவது": 9338,
      "கிழக்கில்": 9339,
      "உணவுகள்": 9340,
      "பதற்ற": 9341,
      "விளைவுகள்": 9342,
      "நபரை": 9343,
      "ப்பிரதேச": 9344,
      "ரிடமும்": 9345,
      "வேறொரு": 9346,
      "ஆரோக்கியமான": 9347,
      "வேண்டுமானால்": 9348,
      "நிதியு": 9349,
      "ஆழ்ந்த": 9350,
      "நன்கொ": 9351,
      "61": 9352,
      "ஃபார்": 9353,
      "இண்ட": 9354,
      "சவால்": 9355,
      "ரையின்": 9356,
      "வித்த": 9357,
      "விண்க": 9358,
      "ையர்": 9359,
      "டுச்சு": 9360,
      "க்குது": 9361,
      "மார்க": 9362,
      "வீச்சா": 9363,
      "ராகி": 9364,
      "பொருளாக": 9365,
      "இடங்களை": 9366,
      "இருக்கின்றனர்": 9367,
      "நாயு": 9368,
      "உருவாக்கப்பட்டது": 9369,
      "att": 9370,
[...]
