{
  "version": "1.0",
  "truncation": null,
  "padding": null,
  "added_tokens": [
    {
      "id": 0,
      "content": "[UNK]",
      "single_word": false,
      "lstrip": false,
      "rstrip": false,
      "normalized": false,
      "special": true
    },
    {
      "id": 1,
      "content": "[PAD]",
      "single_word": false,
      "lstrip": false,
      "rstrip": false,
      "normalized": false,
      "special": true
    },
    {
      "id": 2,
      "content": "[CLS]",
      "single_word": false,
      "lstrip": false,
      "rstrip": false,
      "normalized": false,
      "special": true
    },
    {
      "id": 3,
      "content": "[SEP]",
      "single_word": false,
      "lstrip": false,
      "rstrip": false,
      "normalized": false,
      "special": true
    },
    {
      "id": 4,
      "content": "[MASK]",
      "single_word": false,
      "lstrip": false,
      "rstrip": false,
      "normalized": false,
      "special": true
    }
  ],
  "normalizer": {
    "type": "NFC"
  },
  "pre_tokenizer": {
    "type": "Whitespace"
  },
  "post_processor": null,
  "decoder": null,
  "model": {
    "type": "WordPiece",
    "unk_token": "[UNK]",
    "continuing_subword_prefix": "##",
    "max_input_chars_per_word": 100,
    "vocab": {
      "[UNK]": 0,
      "[PAD]": 1,
      "[CLS]": 2,
      "[SEP]": 3,
      "[MASK]": 4,
      "!": 5,
      "\"": 6,
      "#": 7,
      "$": 8,
      "%": 9,
      "&": 10,
      "'": 11,
      "(": 12,
      ")": 13,
      "*": 14,
      "+": 15,
      ",": 16,
      "-": 17,
      ".": 18,
      "/": 19,
      "0": 20,
      "1": 21,
      "2": 22,
      "3": 23,
      "4": 24,
      "5": 25,
      "6": 26,
      "7": 27,
      "8": 28,
      "9": 29,
      ":": 30,
      ";": 31,
      "<": 32,
      "=": 33,
      ">": 34,
      "?": 35,
      "@": 36,
      "A": 37,
      "B": 38,
      "C": 39,
      "D": 40,
      "E": 41,
      "F": 42,
      "G": 43,
      "H": 44,
      "I": 45,
      "J": 46,
      "K": 47,
      "L": 48,
      "M": 49,
      "N": 50,
      "O": 51,
      "P": 52,
      "Q": 53,
      "R": 54,
      "S": 55,
      "T": 56,
      "U": 57,
      "V": 58,
      "W": 59,
      "X": 60,
      "Y": 61,
      "Z": 62,
      "[": 63,
      "\\": 64,
      "]": 65,
      "^": 66,
      "_": 67,
      "`": 68,
      "a": 69,
      "b": 70,
      "c": 71,
      "d": 72,
      "e": 73,
      "f": 74,
      "g": 75,
      "h": 76,
      "i": 77,
      "j": 78,
      "k": 79,
      "l": 80,
      "m": 81,
      "n": 82,
      "o": 83,
      "p": 84,
      "q": 85,
      "r": 86,
      "s": 87,
      "t": 88,
      "u": 89,
      "v": 90,
      "w": 91,
      "x": 92,
      "y": 93,
      "z": 94,
      "{": 95,
      "|": 96,
      "}": 97,
      "~": 98,
      "": 99,
      "": 100,
      "": 101,
      "": 102,
      "": 103,
      "": 104,
      "¡": 105,
      "£": 106,
      "¨": 107,
      "©": 108,
      "ª": 109,
      "­": 110,
      "®": 111,
      "°": 112,
      "´": 113,
      "·": 114,
      "º": 115,
      "»": 116,
      "¼": 117,
      "É": 118,
      "Î": 119,
      "Ñ": 120,
      "×": 121,
      "Ø": 122,
      "Þ": 123,
      "à": 124,
      "á": 125,
      "â": 126,
      "ã": 127,
      "ä": 128,
      "ç": 129,
      "è": 130,
      "é": 131,
      "ë": 132,
      "ì": 133,
      "í": 134,
      "ñ": 135,
      "ó": 136,
      "ö": 137,
      "÷": 138,
      "ø": 139,
      "ù": 140,
      "ü": 141,
      "ć": 142,
      "ě": 143,
      "ı": 144,
      "ł": 145,
      "ř": 146,
      "Š": 147,
      "š": 148,
      "ż": 149,
      "ǐ": 150,
      "́": 151,
      "͚": 152,
      "΄": 153,
      "Ι": 154,
      "Ω": 155,
      "π": 156,
      "Є": 157,
      "В": 158,
      "Д": 159,
      "Е": 160,
      "Ж": 161,
      "И": 162,
      "М": 163,
      "Н": 164,
      "Р": 165,
      "С": 166,
      "Т": 167,
      "Ч": 168,
      "а": 169,
      "б": 170,
      "в": 171,
      "г": 172,
      "д": 173,
      "е": 174,
      "з": 175,
      "и": 176,
      "к": 177,
      "л": 178,
      "м": 179,
      "н": 180,
      "о": 181,
      "п": 182,
      "р": 183,
      "с": 184,
      "т": 185,
      "у": 186,
      "ф": 187,
      "х": 188,
      "ч": 189,
      "ш": 190,
      "ъ": 191,
      "ь": 192,
      "я": 193,
      "і": 194,
      "ј": 195,
      "ћ": 196,
      "Հ": 197,
      "ա": 198,
      "ե": 199,
      "թ": 200,
      "ի": 201,
      "յ": 202,
      "ն": 203,
      "ո": 204,
      "պ": 205,
      "ս": 206,
      "տ": 207,
      "ր": 208,
      "ւ": 209,
      "ְ": 210,
      "ִ": 211,
      "ֵ": 212,
      "ּ": 213,
      "א": 214,
      "ב": 215,
      "ו": 216,
      "י": 217,
      "ל": 218,
      "ן": 219,
      "ר": 220,
      "ئ": 221,
      "ا": 222,
      "ب": 223,
      "ة": 224,
      "ت": 225,
      "ث": 226,
      "ج": 227,
      "ح": 228,
      "د": 229,
      "ر": 230,
      "س": 231,
      "ش": 232,
      "ص": 233,
      "ع": 234,
      "ف": 235,
      "ق": 236,
      "ل": 237,
      "م": 238,
      "ن": 239,
      "و": 240,
      "ي": 241,
      "َ": 242,
      "ُ": 243,
      "ِ": 244,
      "ّ": 245,
      "چ": 246,
      "ک": 247,
      "گ": 248,
      "ہ": 249,
      "ی": 250,
      "ऀ": 251,
      "ँ": 252,
      "ं": 253,
      "ः": 254,
      "अ": 255,
      "आ": 256,
      "इ": 257,
      "ई": 258,
      "उ": 259,
      "ऊ": 260,
      "ऋ": 261,
      "ऌ": 262,
      "ऍ": 263,
      "ऎ": 264,
      "ए": 265,
      "ऐ": 266,
      "ऑ": 267,
      "ऒ": 268,
      "ओ": 269,
      "औ": 270,
      "क": 271,
      "ख": 272,
      "ग": 273,
      "घ": 274,
      "ङ": 275,
      "च": 276,
      "छ": 277,
      "ज": 278,
      "झ": 279,
      "ञ": 280,
      "ट": 281,
      "ठ": 282,
      "ड": 283,
      "ढ": 284,
      "ण": 285,
      "त": 286,
      "थ": 287,
      "द": 288,
      "ध": 289,
      "न": 290,
      "ऩ": 291,
      "प": 292,
      "फ": 293,
      "ब": 294,
      "भ": 295,
      "म": 296,
      "य": 297,
      "र": 298,
      "ऱ": 299,
      "ल": 300,
      "ळ": 301,
      "ऴ": 302,
      "व": 303,
      "श": 304,
      "ष": 305,
      "स": 306,
      "ह": 307,
      "़": 308,
      "ऽ": 309,
      "ा": 310,
      "ि": 311,
      "ी": 312,
      "ु": 313,
      "ू": 314,
      "ृ": 315,
      "ॄ": 316,
      "ॅ": 317,
      "ॆ": 318,
      "े": 319,
      "ै": 320,
      "ॉ": 321,
      "ॊ": 322,
      "ो": 323,
      "ौ": 324,
      "्": 325,
      "ॐ": 326,
      "॑": 327,
      "॓": 328,
      "॔": 329,
      "ॕ": 330,
      "ॠ": 331,
      "ॢ": 332,
      "।": 333,
      "॥": 334,
      "०": 335,
      "१": 336,
      "२": 337,
      "३": 338,
      "४": 339,
      "५": 340,
      "६": 341,
      "७": 342,
      "८": 343,
      "९": 344,
      "॰": 345,
      "ॲ": 346,
      "ॽ": 347,
      "ং": 348,
      "ক": 349,
      "গ": 350,
      "ঙ": 351,
      "চ": 352,
      "জ": 353,
      "ঝ": 354,
      "ত": 355,
      "দ": 356,
      "ধ": 357,
      "ন": 358,
      "প": 359,
      "ব": 360,
      "ভ": 361,
      "ম": 362,
      "য": 363,
      "র": 364,
      "ল": 365,
      "শ": 366,
      "স": 367,
      "হ": 368,
      "়": 369,
      "া": 370,
      "ি": 371,
      "ী": 372,
      "ে": 373,
      "ো": 374,
      "্": 375,
      "ৰ": 376,
      "ਂ": 377,
      "ਦ": 378,
      "ਨ": 379,
      "ਪ": 380,
      "ਲ": 381,
      "ਹ": 382,
      "ਾ": 383,
      "ਿ": 384,
      "க": 385,
      "ங": 386,
      "ச": 387,
      "ட": 388,
      "ண": 389,
      "த": 390,
      "ன": 391,
      "ப": 392,
      "ம": 393,
      "ர": 394,
      "ல": 395,
      "ஹ": 396,
      "ா": 397,
      "ி": 398,
      "ெ": 399,
      "ே": 400,
      "ை": 401,
      "ோ": 402,
      "்": 403,
      "ం": 404,
      "ఖ": 405,
      "చ": 406,
      "ట": 407,
      "డ": 408,
      "ద": 409,
      "న": 410,
      "ప": 411,
      "బ": 412,
      "మ": 413,
      "య": 414,
      "ర": 415,
      "వ": 416,
      "శ": 417,
      "స": 418,
      "ా": 419,
      "ి": 420,
      "ు": 421,
      "ె": 422,
      "్": 423,
      "ಂ": 424,
      "ಅ": 425,
      "ಕ": 426,
      "ಗ": 427,
      "ಚ": 428,
      "ಡ": 429,
      "ಣ": 430,
      "ದ": 431,
      "ನ": 432,
      "ಬ": 433,
      "ಮ": 434,
      "ರ": 435,
      "ವ": 436,
      "ಸ": 437,
      "ಾ": 438,
      "ಿ": 439,
      "ೀ": 440,
      "ು": 441,
      "್": 442,
      "ം": 443,
      "അ": 444,
      "ക": 445,
      "ജ": 446,
      "ട": 447,
      "ണ": 448,
      "ദ": 449,
      "ന": 450,
      "പ": 451,
      "ബ": 452,
      "മ": 453,
      "യ": 454,
      "ര": 455,
      "റ": 456,
      "ല": 457,
      "വ": 458,
      "ഷ": 459,
      "സ": 460,
      "ഹ": 461,
      "ാ": 462,
      "ി": 463,
      "ീ": 464,
      "ു": 465,
      "േ": 466,
      "്": 467,
      "൦": 468,
      "ං": 469,
      "ණ": 470,
      "ද": 471,
      "ප": 472,
      "ම": 473,
      "ර": 474,
      "ස": 475,
      "හ": 476,
      "්": 477,
      "ා": 478,
      "ි": 479,
      "ේ": 480,
      "ก": 481,
      "ง": 482,
      "ช": 483,
      "ณ": 484,
      "ร": 485,
      "ล": 486,
      "ว": 487,
      "า": 488,
      "ิ": 489,
      "་": 490,
      "ད": 491,
      "ར": 492,
      "ས": 493,
      "ོ": 494,
      "ྐ": 495,
      "ក": 496,
      "ង": 497,
      "ប": 498,
      "ម": 499,
      "រ": 500,
      "ស": 501,
      "ា": 502,
      "ុ": 503,
      "ៀ": 504,
      "្": 505,
      "ễ": 506,
      "ồ": 507,
      "​": 508,
      "‌": 509,
      "‍": 510,
      "‎": 511,
      "‐": 512,
      "–": 513,
      "—": 514,
      "―": 515,
      "‘": 516,
      "’": 517,
      "“": 518,
      "”": 519,
      "„": 520,
      "†": 521,
      "‡": 522,
      "•": 523,
      "…": 524,
      "‪": 525,
      "‰": 526,
      "′": 527,
      "″": 528,
      "€": 529,
      "₹": 530,
      "№": 531,
      "™": 532,
      "←": 533,
      "↑": 534,
      "→": 535,
      "↩": 536,
      "⇨": 537,
      "−": 538,
      "⏩": 539,
      "│": 540,
      "■": 541,
      "▪": 542,
      "▲": 543,
      "►": 544,
      "◆": 545,
      "●": 546,
      "◼": 547,
      "◾": 548,
      "☆": 549,
      "☎": 550,
      "☝": 551,
      "☺": 552,
      "♥": 553,
      "♦": 554,
      "⚡": 555,
      "⚫": 556,
      "✅": 557,
      "✌": 558,
      "✍": 559,
      "✒": 560,
      "✓": 561,
      "✳": 562,
      "❇": 563,
      "❓": 564,
      "➚": 565,
      "➟": 566,
      "➡": 567,
      "⟶": 568,
      "⦁": 569,
      "ジ": 570,
      "テ": 571,
      "ビ": 572,
      "フ": 573,
      "ョ": 574,
      "レ": 575,
      "ン": 576,
      "一": 577,
      "世": 578,
      "会": 579,
      "克": 580,
      "力": 581,
      "原": 582,
      "城": 583,
      "大": 584,
      "娜": 585,
      "子": 586,
      "宗": 587,
      "山": 588,
      "島": 589,
      "州": 590,
      "広": 591,
      "式": 592,
      "所": 593,
      "拀": 594,
      "李": 595,
      "株": 596,
      "治": 597,
      "犬": 598,
      "発": 599,
      "社": 600,
      "福": 601,
      "立": 602,
      "第": 603,
      "花": 604,
      "赛": 605,
      "郑": 606,
      "鄭": 607,
      "里": 608,
      "钦": 609,
      "阿": 610,
      "電": 611,
      "順": 612,
      "顺": 613,
      "高": 614,
      "鯉": 615,
      "대": 616,
      "세": 617,
      "정": 618,
      "": 619,
      "": 620,
      "": 621,
      "ﷺ": 622,
      "️": 623,
      "﻿": 624,
      "（": 625,
      "￭": 626,
      "￰": 627,
      "￼": 628,
      "�": 629,
      "🌹": 630,
      "🍽": 631,
      "🎂": 632,
      "🎈": 633,
      "🎬": 634,
      "🏠": 635,
      "🏻": 636,
      "🏼": 637,
      "👅": 638,
      "👇": 639,
      "👉": 640,
      "👊": 641,
      "👍": 642,
      "👎": 643,
      "👏": 644,
      "💐": 645,
      "💠": 646,
      "💪": 647,
      "💰": 648,
      "💲": 649,
      "📌": 650,
      "📢": 651,
      "🔴": 652,
      "🔶": 653,
      "🗣": 654,
      "😀": 655,
      "😃": 656,
      "😉": 657,
      "😋": 658,
      "😎": 659,
      "😏": 660,
      "😐": 661,
      "😒": 662,
      "😔": 663,
      "😛": 664,
      "😜": 665,
      "😳": 666,
      "🙂": 667,
      "🙊": 668,
      "🙌": 669,
      "🙏": 670,
      "🚩": 671,
      "🚫": 672,
      "🛑": 673,
      "🥦": 674,
      "🧽": 675,
      "##ो": 676,
      "##ज": 677,
      "##े": 678,
      "##र": 679,
      "##भ": 680,
      "##्": 681,
      "##य": 682,
      "##ा": 683,
      "##स": 684,
      "##म": 685,
      "##ध": 686,
      "##ं": 687,
      "##ड": 688,
      "##ळ": 689,
      "##च": 690,
      "##ह": 691,
      "##ी": 692,
      "##ि": 693,
      "##क": 694,
      "##ू": 695,
      "##न": 696,
      "##ौ": 697,
      "##ग": 698,
      "##ल": 699,
      "##व": 700,
      "##त": 701,
      "##ऊ": 702,
      "##श": 703,
      "##ष": 704,
      "##ु": 705,
      "##प": 706,
      "##ट": 707,
      "##द": 708,
      "##ण": 709,
      "##ब": 710,
      "##ृ": 711,
      "##ख": 712,
      "##‍": 713,
      "##a": 714,
      "##n": 715,
      "##u": 716,
      "##m": 717,
      "##ए": 718,
      "##थ": 719,
      "##ॉ": 720,
      "##ढ": 721,
      "##९": 722,
      "##५": 723,
      "##२": 724,
      "##e": 725,
      "##t": 726,
      "##ठ": 727,
      "##d": 728,
      "##i": 729,
      "##g": 730,
      "##ै": 731,
      "##०": 732,
      "##४": 733,
      "##६": 734,
      "##घ": 735,
      "##फ": 736,
      "##अ": 737,
      "##r": 738,
      "##c": 739,
      "##l": 740,
      "##ऱ": 741,
      "##9": 742,
      "##१": 743,
      "##७": 744,
      "##छ": 745,
      "##1": 746,
      "##5": 747,
      "##इ": 748,
      "##ई": 749,
      "##ॅ": 750,
      "##आ": 751,
      "##z": 752,
      "##p": 753,
      "##6": 754,
      "##h": 755,
      "##C": 756,
      "##I": 757,
      "##T": 758,
      "##F": 759,
      "##ँ": 760,
      "##s": 761,
      "##८": 762,
      "##झ": 763,
      "##३": 764,
      "##0": 765,
      "##o": 766,
      "##ञ": 767,
      "##B": 768,
      "##k": 769,
      "##ऐ": 770,
      "##़": 771,
      "##ऑ": 772,
      "##ç": 773,
      "##ओ": 774,
      "##‌": 775,
      "##ऽ": 776,
      "##उ": 777,
      "##j": 778,
      "##y": 779,
      "##b": 780,
      "##3": 781,
      "##2": 782,
      "##ऴ": 783,
      "##4": 784,
      "##G": 785,
      "##M": 786,
      "##8": 787,
      "##Y": 788,
      "##A": 789,
      "##7": 790,
      "##f": 791,
      "##v": 792,
      "##ः": 793,
      "##E": 794,
      "##R": 795,
      "##S": 796,
      "##w": 797,
      "##ಿ": 798,
      "##ನ": 799,
      "##್": 800,
      "##ಸ": 801,
      "##ವ": 802,
      "##ಾ": 803,
      "##ಮ": 804,
      "##ऋ": 805,
      "##x": 806,
      "##-": 807,
      "##ङ": 808,
      "##ऩ": 809,
      "##.": 810,
      "##:": 811,
      "##(": 812,
      "##→": 813,
      "##W": 814,
      "##º": 815,
      "##ྐ": 816,
      "##ར": 817,
      "##X": 818,
      "##H": 819,
      "##L": 820,
      "##N": 821,
      "##O": 822,
      "##’": 823,
      "##)": 824,
      "##J": 825,
      "##D": 826,
      "##?": 827,
      "##।": 828,
      "##'": 829,
      "##,": 830,
      "##P": 831,
      "##\"": 832,
      "##U": 833,
      "##q": 834,
      "##ॕ": 835,
      "##ॲ": 836,
      "##…": 837,
      "##”": 838,
      "##ć": 839,
      "##औ": 840,
      "##‘": 841,
      "##K": 842,
      "##_": 843,
      "##ॆ": 844,
      "##🏼": 845,
      "##山": 846,
      "##城": 847,
      "##“": 848,
      "##": 849,
      "##/": 850,
      "##ॊ": 851,
      "##*": 852,
      "##+": 853,
      "##;": 854,
      "##<": 855,
      "##​": 856,
      "##[": 857,
      "##V": 858,
      "##▪": 859,
      "##í": 860,
      "##`": 861,
      "##{": 862,
      "##ł": 863,
      "##ì": 864,
      "##&": 865,
      "##\\": 866,
      "##=": 867,
      "##!": 868,
      "##>": 869,
      "##ñ": 870,
      "##Z": 871,
      "##ا": 872,
      "##ُ": 873,
      "##و": 874,
      "##ی": 875,
      "##س": 876,
      "##ِ": 877,
      "###": 878,
      "##@": 879,
      "##Q": 880,
      "##ॄ": 881,
      "##😏": 882,
      "##ã": 883,
      "##â": 884,
      "##ř": 885,
      "##宗": 886,
      "##ä": 887,
      "##子": 888,
      "##у": 889,
      "##т": 890,
      "##б": 891,
      "##о": 892,
      "##л": 893,
      "##花": 894,
      "##х": 895,
      "##|": 896,
      "##é": 897,
      "##ਹ": 898,
      "##ਿ": 899,
      "##ਲ": 900,
      "##ਾ": 901,
      "##ਂ": 902,
      "##😳": 903,
      "##͚": 904,
      "##ј": 905,
      "##к": 906,
      "##в": 907,
      "##и": 908,
      "##ћ": 909,
      "##島": 910,
      "##第": 911,
      "##一": 912,
      "##原": 913,
      "##力": 914,
      "##発": 915,
      "##電": 916,
      "##所": 917,
      "##ো": 918,
      "##ক": 919,
      "##ৰ": 920,
      "##া": 921,
      "##ঝ": 922,
      "##॑": 923,
      "##ک": 924,
      "##ئ": 925,
      "##†": 926,
      "##റ": 927,
      "##ബ": 928,
      "##ി": 929,
      "##ക": 930,
      "##്": 931,
      "##ട": 932,
      "##ല": 933,
      "##ل": 934,
      "##ج": 935,
      "##ي": 936,
      "##ن": 937,
      "##ö": 938,
      "##ऍ": 939,
      "##₹": 940,
      "##ü": 941,
      "##$": 942,
      "##൦": 943,
      "##😎": 944,
      "##م": 945,
      "##ب": 946,
      "##ہ": 947,
      "##я": 948,
      "##യ": 949,
      "##ന": 950,
      "##ാ": 951,
      "##ù": 952,
      "##්": 953,
      "##ර": 954,
      "##ේ": 955,
      "##ම": 956,
      "##ද": 957,
      "##ා": 958,
      "##ස": 959,
      "##]": 960,
      "##–": 961,
      "##ش": 962,
      "##ت": 963,
      "##ق": 964,
      "##শ": 965,
      "##্": 966,
      "##চ": 967,
      "##ি": 968,
      "##ম": 969,
      "##ব": 970,
      "##ঙ": 971,
      "##গ": 972,
      "##Ñ": 973,
      "##^": 974,
      "##د": 975,
      "##ر": 976,
      "##−": 977,
      "##ִ": 978,
      "##י": 979,
      "##ב": 980,
      "##ְ": 981,
      "##ל": 982,
      "##ן": 983,
      "##💐": 984,
      "##ऎ": 985,
      "##॔": 986,
      "##│": 987,
      "##💲": 988,
      "##ø": 989,
      "##а": 990,
      "##г": 991,
      "##ъ": 992,
      "##с": 993,
      "##н": 994,
      "##ত": 995,
      "##ী": 996,
      "##য": 997,
      "##়": 998,
      "##த": 999,
      "##்": 1000,
      "##ன": 1001,
      "##ம": 1002,
      "##%": 1003,
      "##ऀ": 1004,
      "##ա": 1005,
      "##ն": 1006,
      "##ր": 1007,
      "##պ": 1008,
      "##ե": 1009,
      "##տ": 1010,
      "##ո": 1011,
      "##ւ": 1012,
      "##թ": 1013,
      "##յ": 1014,
      "##克": 1015,
      "##赛": 1016,
      "##钦": 1017,
      "##р": 1018,
      "##п": 1019,
      "##✍": 1020,
      "##🏻": 1021,
      "##✒": 1022,
      "##ф": 1023,
      "##́": 1024,
      "##м": 1025,
      "##ч": 1026,
      "##្": 1027,
      "##រ": 1028,
      "##ុ": 1029,
      "##ង": 1030,
      "##ស": 1031,
      "##ៀ": 1032,
      "##ម": 1033,
      "##ា": 1034,
      "##ប": 1035,
      "##拀": 1036,
      "##﻿": 1037,
      "##ь": 1038,
      "##à": 1039,
      "##🚩": 1040,
      "##్": 1041,
      "##ర": 1042,
      "##ె": 1043,
      "##మ": 1044,
      "##ా": 1045,
      "##Š": 1046,
      "##—": 1047,
      "##е": 1048,
      "##і": 1049,
      "##ช": 1050,
      "##ิ": 1051,
      "##ร": 1052,
      "##า": 1053,
      "##ล": 1054,
      "##ง": 1055,
      "##ก": 1056,
      "##ณ": 1057,
      "##ॠ": 1058,
      "##ਨ": 1059,
      "##🍽": 1060,
      "##א": 1061,
      "##ו": 1062,
      "##ּ": 1063,
      "##ֵ": 1064,
      "##ණ": 1065,
      "##ි": 1066,
      "##ං": 1067,
      "##හ": 1068,
      "##🎂": 1069,
      "##🌹": 1070,
      "##ồ": 1071,
      "##॓": 1072,
      "##ோ": 1073,
      "##ட": 1074,
      "##ை": 1075,
      "##க": 1076,
      "##ா": 1077,
      "##ல": 1078,
      "##®": 1079,
      "##😋": 1080,
      "##ి": 1081,
      "##శ": 1082,
      "##ఖ": 1083,
      "##ప": 1084,
      "##ట": 1085,
      "##న": 1086,
      "##ం": 1087,
      "##🥦": 1088,
      "##ż": 1089,
      "##🧽": 1090,
      "##🙂": 1091,
      "##🏠": 1092,
      "##娜": 1093,
      "##ி": 1094,
      "##ர": 1095,
      "##ே": 1096,
      "##ச": 1097,
      "##ജ": 1098,
      "##ീ": 1099,
      "##വ": 1100,
      "##ě": 1101,
      "##№": 1102,
      "##ண": 1103,
      "##„": 1104,
      "##ﷺ": 1105,
      "##á": 1106,
      "##Ι": 1107,
      "##š": 1108,
      "##ം": 1109,
      "##ര": 1110,
      "##ഷ": 1111,
      "##ണ": 1112,
      "##േ": 1113,
      "##ദ": 1114,
      "##д": 1115,
      "##式": 1116,
      "##会": 1117,
      "##社": 1118,
      "##フ": 1119,
      "##ジ": 1120,
      "##テ": 1121,
      "##レ": 1122,
      "##ビ": 1123,
      "##ョ": 1124,
      "##ン": 1125,
      "##ெ": 1126,
      "##ഹ": 1127,
      "##മ": 1128,
      "##ു": 1129,
      "##~": 1130,
      "##大": 1131,
      "##世": 1132,
      "##ங": 1133,
      "##ஹ": 1134,
      "##ة": 1135,
      "##☺": 1136,
      "##ح": 1137,
      "##州": 1138,
      "##ս": 1139,
      "##ի": 1140,
      "##ং": 1141,
      "##ল": 1142,
      "##দ": 1143,
      "##ে": 1144,
      "##র": 1145,
      "##ع": 1146,
      "##ು": 1147,
      "##ದ": 1148,
      "##ರ": 1149,
      "##♥": 1150,
      "##🙏": 1151,
      "##ễ": 1152,
      "##ǐ": 1153,
      "##َ": 1154,
      "##ّ": 1155,
      "##·": 1156,
      "##è": 1157,
      "##ш": 1158,
      "##ॢ": 1159,
      "##治": 1160,
      "##స": 1161,
      "##ద": 1162,
      "##బ": 1163,
      "##ు": 1164,
      "##య": 1165,
      "##డ": 1166,
      "##👍": 1167,
      "##ಬ": 1168,
      "##ೀ": 1169,
      "##ı": 1170,
      "##🙌": 1171,
      "##ف": 1172,
      "##ॽ": 1173,
      "##ë": 1174,
      "##ó": 1175,
      "##�": 1176,
      "##ª": 1177,
      "##￼": 1178,
      "##😜": 1179,
      "##😉": 1180,
      "##হ": 1181,
      "##☎": 1182,
      "##대": 1183,
      "##세": 1184,
      "##😛": 1185,
      "##ಡ": 1186,
      "##ಂ": 1187,
      "##ಗ": 1188,
      "##ಣ": 1189,
      "##ধ": 1190,
      "##ন": 1191,
      "##স": 1192,
      "##ভ": 1193,
      "##‡": 1194,
      "##ོ": 1195,
      "##्य": 1196,
      "##्या": 1197,
      "##ार": 1198,
      "##्र": 1199,
      "##ां": 1200,
      "##ात": 1201,
      "##ला": 1202,
      "##र्": 1203,
      "##हे": 1204,
      "##ले": 1205,
      "आहे": 1206,
      "##च्या": 1207,
      "##ना": 1208,
      "##ली": 1209,
      "##ही": 1210,
      "##ून": 1211,
      "##ाव": 1212,
      "##ती": 1213,
      "##ल्या": 1214,
      "##ने": 1215,
      "##िक": 1216,
      "अस": 1217,
      "कर": 1218,
      "##चा": 1219,
      "त्या": 1220,
      "##क्": 1221,
      "##ता": 1222,
      "##ची": 1223,
      "प्र": 1224,
      "##ण्या": 1225,
      "या": 1226,
      "##चे": 1227,
      "##्ह": 1228,
      "##नी": 1229,
      "हो": 1230,
      "##वा": 1231,
      "का": 1232,
      "##स्": 1233,
      "के": 1234,
      "##सा": 1235,
      "##ंत": 1236,
      "आण": 1237,
      "##ाज": 1238,
      "आणि": 1239,
      "वि": 1240,
      "##ाग": 1241,
      "##ित": 1242,
      "##ेत": 1243,
      "##ान": 1244,
      "##ील": 1245,
      "##वर": 1246,
      "दि": 1247,
      "##ंद": 1248,
      "##ध्य": 1249,
      "यां": 1250,
      "##ते": 1251,
      "##ठी": 1252,
      "##त्": 1253,
      "##ास": 1254,
      "##क्ष": 1255,
      "सं": 1256,
      "##ाल": 1257,
      "नि": 1258,
      "##्ट": 1259,
      "##ाह": 1260,
      "##री": 1261,
      "##का": 1262,
      "##ाण": 1263,
      "झा": 1264,
      "ना": 1265,
      "##साठी": 1266,
      "##ाय": 1267,
      "##ध्ये": 1268,
      "मु": 1269,
      "सु": 1270,
      "स्": 1271,
      "##कार": 1272,
      "##ळे": 1273,
      "दे": 1274,
      "वा": 1275,
      "को": 1276,
      "मह": 1277,
      "##णा": 1278,
      "##मु": 1279,
      "##मध्ये": 1280,
      "##णार": 1281,
      "##रो": 1282,
      "त्यां": 1283,
      "##ंग": 1284,
      "##ण्यात": 1285,
      "म्ह": 1286,
      "##्यां": 1287,
      "नाही": 1288,
      "##कर": 1289,
      "पर": 1290,
      "##्री": 1291,
      "##शी": 1292,
      "आहेत": 1293,
      "एक": 1294,
      "##ंब": 1295,
      "##द्": 1296,
      "##ष्ट": 1297,
      "##ारी": 1298,
      "##रा": 1299,
      "हे": 1300,
      "##वि": 1301,
      "ते": 1302,
      "पु": 1303,
      "##ल्": 1304,
      "##से": 1305,
      "##मुळे": 1306,
      "सा": 1307,
      "##कड": 1308,
      "आप": 1309,
      "##र्व": 1310,
      "तर": 1311,
      "##या": 1312,
      "##ंड": 1313,
      "##ळी": 1314,
      "राज": 1315,
      "मि": 1316,
      "##णी": 1317,
      "##णे": 1318,
      "मो": 1319,
      "ये": 1320,
      "##की": 1321,
      "##दी": 1322,
      "यांनी": 1323,
      "##मी": 1324,
      "पा": 1325,
      "कार": 1326,
      "##लं": 1327,
      "##लेल्या": 1328,
      "##्हा": 1329,
      "##ांना": 1330,
      "##ेश": 1331,
      "##तील": 1332,
      "पो": 1333,
      "##न्": 1334,
      "सम": 1335,
      "##िती": 1336,
      "##ावर": 1337,
      "##ळा": 1338,
      "##ंतर": 1339,
      "##धी": 1340,
      "##स्त": 1341,
      "म्हण": 1342,
      "असे": 1343,
      "##ार्": 1344,
      "##ांग": 1345,
      "##मा": 1346,
      "##वी": 1347,
      "##ातील": 1348,
      "##ाब": 1349,
      "सुर": 1350,
      "##िल": 1351,
      "##डी": 1352,
      "##टी": 1353,
      "##स्थ": 1354,
      "##िं": 1355,
      "##ांनी": 1356,
      "##ोक": 1357,
      "हा": 1358,
      "##्यात": 1359,
      "##िव": 1360,
      "होते": 1361,
      "##श्": 1362,
      "केली": 1363,
      "##पर": 1364,
      "##चं": 1365,
      "##ेट": 1366,
      "##तात": 1367,
      "काही": 1368,
      "##वे": 1369,
      "वर्": 1370,
      "##ाप": 1371,
      "जा": 1372,
      "रु": 1373,
      "उप": 1374,
      "##तो": 1375,
      "सो": 1376,
      "सर्व": 1377,
      "##ारा": 1378,
      "सर": 1379,
      "##दा": 1380,
      "लाग": 1381,
      "##रे": 1382,
      "वे": 1383,
      "मा": 1384,
      "##िस": 1385,
      "##ाख": 1386,
      "ही": 1387,
      "##पू": 1388,
      "दु": 1389,
      "केले": 1390,
      "##्रे": 1391,
      "##शा": 1392,
      "करण्या": 1393,
      "##धिक": 1394,
      "शक": 1395,
      "जात": 1396,
      "##र्ण": 1397,
      "##ग्": 1398,
      "करण्यात": 1399,
      "तु": 1400,
      "##द्ध": 1401,
      "##ेव": 1402,
      "रा": 1403,
      "##ांच्या": 1404,
      "असल्या": 1405,
      "##ऱ्या": 1406,
      "##नंतर": 1407,
      "##प्र": 1408,
      "##क्त": 1409,
      "##पास": 1410,
      "भार": 1411,
      "##ोर": 1412,
      "##िय": 1413,
      "दो": 1414,
      "##मे": 1415,
      "गे": 1416,
      "कु": 1417,
      "##दार": 1418,
      "##जे": 1419,
      "##त्र": 1420,
      "व्य": 1421,
      "##िन": 1422,
      "घेत": 1423,
      "##वड": 1424,
      "केला": 1425,
      "##त्य": 1426,
      "यांच्या": 1427,
      "लोक": 1428,
      "##ोल": 1429,
      "##क्र": 1430,
      "घे": 1431,
      "##सी": 1432,
      "##तर": 1433,
      "##पा": 1434,
      "##ात्र": 1435,
      "गु": 1436,
      "सांग": 1437,
      "##जी": 1438,
      "की": 1439,
      "##म्": 1440,
      "##द्या": 1441,
      "होती": 1442,
      "ति": 1443,
      "आले": 1444,
      "##र्म": 1445,
      "सरकार": 1446,
      "वर्ष": 1447,
      "##ांची": 1448,
      "आता": 1449,
      "पण": 1450,
      "##ताना": 1451,
      "ती": 1452,
      "##ंद्र": 1453,
      "##्ष": 1454,
      "##स्ट": 1455,
      "होत": 1456,
      "आपल्या": 1457,
      "##ावा": 1458,
      "आज": 1459,
      "दिव": 1460,
      "मी": 1461,
      "मुंब": 1462,
      "##चार": 1463,
      "##कडे": 1464,
      "होता": 1465,
      "##ोग": 1466,
      "##र्थ": 1467,
      "##ष्ट्र": 1468,
      "मुंबई": 1469,
      "##वार": 1470,
      "##ऊन": 1471,
      "##िर": 1472,
      "##के": 1473,
      "मिळ": 1474,
      "झाले": 1475,
      "##मान": 1476,
      "तो": 1477,
      "##ावे": 1478,
      "वाढ": 1479,
      "##पी": 1480,
      "त्यामुळे": 1481,
      "काय": 1482,
      "राह": 1483,
      "मात्र": 1484,
      "काम": 1485,
      "##ुक": 1486,
      "आय": 1487,
      "अधिक": 1488,
      "##ंत्र": 1489,
      "पाह": 1490,
      "स्व": 1491,
      "##ेल": 1492,
      "##िंग": 1493,
      "##िया": 1494,
      "##सार": 1495,
      "##नेक": 1496,
      "##हि": 1497,
      "उत्": 1498,
      "##त्या": 1499,
      "अनेक": 1500,
      "एका": 1501,
      "##िका": 1502,
      "येथ": 1503,
      "अन": 1504,
      "येत": 1505,
      "गो": 1506,
      "असून": 1507,
      "##ण्यासाठी": 1508,
      "##रात": 1509,
      "##क्षा": 1510,
      "माह": 1511,
      "..": 1512,
      "##ाणी": 1513,
      "आली": 1514,
      "##ुन": 1515,
      "##ोज": 1516,
      "##ांचा": 1517,
      "त्यांनी": 1518,
      "##डे": 1519,
      "##मध": 1520,
      "##ईल": 1521,
      "##्यंत": 1522,
      "बा": 1523,
      "कोरो": 1524,
      "सह": 1525,
      "##ित्र": 1526,
      "माग": 1527,
      "झाली": 1528,
      "##पासून": 1529,
      "कोरोना": 1530,
      "त्यांच्या": 1531,
      "भाज": 1532,
      "##ख्य": 1533,
      "माहिती": 1534,
      "##ंट": 1535,
      "##ंत्री": 1536,
      "##ग्ण": 1537,
      "##वारी": 1538,
      "सुरू": 1539,
      "##व्ह": 1540,
      "##ांत": 1541,
      "##िट": 1542,
      "##ष्": 1543,
      "दर": 1544,
      "म्हणून": 1545,
      "झाला": 1546,
      "करून": 1547,
      "##ंध": 1548,
      "जिल": 1549,
      "##ति": 1550,
      "अशी": 1551,
      "देश": 1552,
      "##सं": 1553,
      "किं": 1554,
      "##ोट": 1555,
      "अभ": 1556,
      "आरो": 1557,
      "परि": 1558,
      "पड": 1559,
      "आम": 1560,
      "##प्": 1561,
      "व्ह": 1562,
      "##दे": 1563,
      "पू": 1564,
      "रुग्ण": 1565,
      "स्थ": 1566,
      "##ण्याची": 1567,
      "##भाग": 1568,
      "##वळ": 1569,
      "पोल": 1570,
      "करत": 1571,
      "आला": 1572,
      "##च्": 1573,
      "निवड": 1574,
      "रो": 1575,
      "दिवस": 1576,
      "##कडून": 1577,
      "##्याय": 1578,
      "##माण": 1579,
      "##देश": 1580,
      "##ब्": 1581,
      "##पर्यंत": 1582,
      "तसे": 1583,
      "##बाब": 1584,
      "##धान": 1585,
      "##िम": 1586,
      "मोठ": 1587,
      "दोन": 1588,
      "##रु": 1589,
      "पोलिस": 1590,
      "शि": 1591,
      "##ांचे": 1592,
      "कार्य": 1593,
      "असा": 1594,
      "##्रा": 1595,
      "दाख": 1596,
      "हज": 1597,
      "##ऱ्यां": 1598,
      "##डा": 1599,
      "##पय": 1600,
      "##पे": 1601,
      "##बा": 1602,
      "##ातून": 1603,
      "ने": 1604,
      "विक": 1605,
      "दिली": 1606,
      "##नं": 1607,
      "वाट": 1608,
      "असं": 1609,
      "##्रेस": 1610,
      "##ूर": 1611,
      "##णाऱ्या": 1612,
      "साम": 1613,
      "##मार": 1614,
      "##गी": 1615,
      "##दल": 1616,
      "झाल्या": 1617,
      "त्यांना": 1618,
      "दिस": 1619,
      "मुख्य": 1620,
      "सांगित": 1621,
      "##ाने": 1622,
      "##ाच्या": 1623,
      "##पट": 1624,
      "##ध्या": 1625,
      "##िक्ष": 1626,
      "##ावी": 1627,
      "##म्ही": 1628,
      "तसेच": 1629,
      "म्हणजे": 1630,
      "हजार": 1631,
      "घट": 1632,
      "ला": 1633,
      "##गर": 1634,
      "सुरु": 1635,
      "केल्या": 1636,
      "##न्हा": 1637,
      "कोण": 1638,
      "##ूक": 1639,
      "से": 1640,
      "भाजप": 1641,
      "किंवा": 1642,
      "माझ": 1643,
      "##धार": 1644,
      "##्यातील": 1645,
      "##िने": 1646,
      "शह": 1647,
      "##ोब": 1648,
      "##म्या": 1649,
      "नस": 1650,
      "##मंत्री": 1651,
      "अशा": 1652,
      "संघ": 1653,
      "##ुल": 1654,
      "##खील": 1655,
      "२०": 1656,
      "तरी": 1657,
      "मान": 1658,
      "##रिक": 1659,
      "नाग": 1660,
      "स्प": 1661,
      "##भा": 1662,
      "महारा": 1663,
      "...": 1664,
      "##खा": 1665,
      "मे": 1666,
      "##र्ज": 1667,
      "महाराष्ट्र": 1668,
      "ठेव": 1669,
      "जाण": 1670,
      "मार्": 1671,
      "रे": 1672,
      "भाग": 1673,
      "ठा": 1674,
      "रुपय": 1675,
      "शिव": 1676,
      "##टर": 1677,
      "##ख्या": 1678,
      "विचार": 1679,
      "जी": 1680,
      "##शन": 1681,
      "##क्ती": 1682,
      "शे": 1683,
      "##ंप": 1684,
      "चित्र": 1685,
      "##पूर": 1686,
      "आपण": 1687,
      "पुढ": 1688,
      "खे": 1689,
      "टा": 1690,
      "लक्ष": 1691,
      "डॉ": 1692,
      "काळ": 1693,
      "##ँग": 1694,
      "तुम": 1695,
      "##टक": 1696,
      "##ज्": 1697,
      "##र्ग": 1698,
      "टी": 1699,
      "मन": 1700,
      "शेत": 1701,
      "नेत": 1702,
      "भर": 1703,
      "मध्ये": 1704,
      "##ायला": 1705,
      "राज्य": 1706,
      "ठर": 1707,
      "कमी": 1708,
      "होणार": 1709,
      "##ुसार": 1710,
      "##्ल": 1711,
      "##लीस": 1712,
      "##म्यान": 1713,
      "##बी": 1714,
      "##ण्याचा": 1715,
      "20": 1716,
      "निर्ण": 1717,
      "यांना": 1718,
      "##्स": 1719,
      "##ांवर": 1720,
      "##ेक": 1721,
      "निवडण": 1722,
      "हि": 1723,
      "काढ": 1724,
      "मत": 1725,
      "##ूप": 1726,
      "##ांमध्ये": 1727,
      "निय": 1728,
      "##ाजी": 1729,
      "##वास": 1730,
      "मृ": 1731,
      "म्हणा": 1732,
      "##ध्यक्ष": 1733,
      "जाग": 1734,
      "पोलीस": 1735,
      "##मधील": 1736,
      "पहि": 1737,
      "काँग": 1738,
      "##दर": 1739,
      "बस": 1740,
      "प्रय": 1741,
      "चाल": 1742,
      "##ुर": 1743,
      "काँग्रेस": 1744,
      "##जय": 1745,
      "##शे": 1746,
      "दुस": 1747,
      "##बाबत": 1748,
      "भा": 1749,
      "असलेल्या": 1750,
      "मिळा": 1751,
      "##र्वी": 1752,
      "प्रत्य": 1753,
      "क्र": 1754,
      "स्ट": 1755,
      "क्ष": 1756,
      "##हा": 1757,
      "तय": 1758,
      "##करण": 1759,
      "विद्या": 1760,
      "वापर": 1761,
      "##ोड": 1762,
      "##द्य": 1763,
      "नवी": 1764,
      "##तीय": 1765,
      "##बर": 1766,
      "शेतक": 1767,
      "येथे": 1768,
      "असेल": 1769,
      "##रोध": 1770,
      "मला": 1771,
      "##्रीय": 1772,
      "यु": 1773,
      "लाख": 1774,
      "देखील": 1775,
      "दिला": 1776,
      "##व्": 1777,
      "##ाला": 1778,
      "##सह": 1779,
      "असते": 1780,
      "निर्म": 1781,
      "दिले": 1782,
      "##ंज": 1783,
      "जे": 1784,
      "##िके": 1785,
      "चौ": 1786,
      "##वात": 1787,
      "प्रमाण": 1788,
      "प्रकार": 1789,
      "व्यव": 1790,
      "गेल्या": 1791,
      "बोल": 1792,
      "सी": 1793,
      "राष्ट्र": 1794,
      "##ष्टी": 1795,
      "##यात": 1796,
      "जिल्ह": 1797,
      "नो": 1798,
      "##दर्": 1799,
      "करणार": 1800,
      "निर्णय": 1801,
      "त्यात": 1802,
      "चांग": 1803,
      "##शि": 1804,
      "##ंबर": 1805,
      "##अर": 1806,
      "##खी": 1807,
      "सध्या": 1808,
      "केंद्र": 1809,
      "##विध": 1810,
      "बंद": 1811,
      "##ुकी": 1812,
      "पाट": 1813,
      "प्रश्": 1814,
      "गा": 1815,
      "##ल्ली": 1816,
      "विभाग": 1817,
      "कंप": 1818,
      "वर": 1819,
      "महत्": 1820,
      "##त्न": 1821,
      "##लेले": 1822,
      "##वाय": 1823,
      "चर्": 1824,
      "भू": 1825,
      "शिक्ष": 1826,
      "##व्या": 1827,
      "##ळ्या": 1828,
      "##कीय": 1829,
      "##सर": 1830,
      "जग": 1831,
      "व्या": 1832,
      "##थे": 1833,
      "त्याच्या": 1834,
      "सांगितले": 1835,
      "करण्यासाठी": 1836,
      "स्वत": 1837,
      "वेग": 1838,
      "##नुसार": 1839,
      "##वादी": 1840,
      "##बंध": 1841,
      "##व्हा": 1842,
      "##वून": 1843,
      "भारतीय": 1844,
      "लाव": 1845,
      "चित्रपट": 1846,
      "शा": 1847,
      "##ांड": 1848,
      "##घा": 1849,
      "वाह": 1850,
      "महि": 1851,
      "##खे": 1852,
      "##ृत्": 1853,
      "येणार": 1854,
      "कॉ": 1855,
      "कि": 1856,
      "प्रयत्न": 1857,
      "कारण": 1858,
      "पक्ष": 1859,
      "न्याय": 1860,
      "##्यांनी": 1861,
      "##ल्प": 1862,
      "येथील": 1863,
      "मद": 1864,
      "##गाव": 1865,
      "शिवसे": 1866,
      "टक्": 1867,
      "दाखल": 1868,
      "प्रा": 1869,
      "बाज": 1870,
      "म्हट": 1871,
      "##ंच": 1872,
      "##्यांना": 1873,
      "दरम्यान": 1874,
      "##कर्": 1875,
      "##्त": 1876,
      "##ोन": 1877,
      "डि": 1878,
      "मोदी": 1879,
      "असताना": 1880,
      "हात": 1881,
      "मरा": 1882,
      "##ंचा": 1883,
      "असल्याचे": 1884,
      "ज्या": 1885,
      "बे": 1886,
      "तीन": 1887,
      "देण्यात": 1888,
      "##हेर": 1889,
      "अव": 1890,
      "आल्या": 1891,
      "##न्स": 1892,
      "चा": 1893,
      "मुल": 1894,
      "त्याला": 1895,
      "अज": 1896,
      "##जन": 1897,
      "##ोबत": 1898,
      "आठ": 1899,
      "##गा": 1900,
      "##ीत": 1901,
      "प्रश": 1902,
      "##ोध": 1903,
      "गर": 1904,
      "##सि": 1905,
      "##क्रम": 1906,
      "इतर": 1907,
      "पाल": 1908,
      "##र्ट": 1909,
      "##श्य": 1910,
      "पुन्हा": 1911,
      "##तं": 1912,
      "खास": 1913,
      "लि": 1914,
      "दिल्ली": 1915,
      "जन": 1916,
      "गाव": 1917,
      "##लेला": 1918,
      "##्यू": 1919,
      "अर्थ": 1920,
      "##ांब": 1921,
      "म्हणाले": 1922,
      "नाव": 1923,
      "केलं": 1924,
      "झालेल्या": 1925,
      "पाहि": 1926,
      "चे": 1927,
      "ठिक": 1928,
      "पूर्ण": 1929,
      "यावे": 1930,
      "त्यानंतर": 1931,
      "##पूर्वी": 1932,
      "पाटील": 1933,
      "संप": 1934,
      "कोटी": 1935,
      "आव": 1936,
      "वै": 1937,
      "##च्छ": 1938,
      "##स्ता": 1939,
      "तयार": 1940,
      "पवार": 1941,
      "##र्ध": 1942,
      "##हो": 1943,
      "##ंना": 1944,
      "मृत्य": 1945,
      "##करे": 1946,
      "आर": 1947,
      "##षय": 1948,
      "##ज्ञ": 1949,
      "##ायक": 1950,
      "प्रे": 1951,
      "घड": 1952,
      "माल": 1953,
      "##ोष": 1954,
      "##पणे": 1955,
      "##र्स": 1956,
      "##र्भ": 1957,
      "प्रति": 1958,
      "पुर": 1959,
      "##मि": 1960,
      "प्रश्न": 1961,
      "आम्ही": 1962,
      "पाठ": 1963,
      "घेऊन": 1964,
      "नागरिक": 1965,
      "पे": 1966,
      "अनु": 1967,
      "##वाई": 1968,
      "पाव": 1969,
      "ग्र": 1970,
      "##ठा": 1971,
      "अप": 1972,
      "बन": 1973,
      "मागणी": 1974,
      "फे": 1975,
      "महाप": 1976,
      "बाब": 1977,
      "जिल्हा": 1978,
      "##स्थिती": 1979,
      "शक्य": 1980,
      "##ाणे": 1981,
      "भारता": 1982,
      "पै": 1983,
      "##ात्": 1984,
      "##भू": 1985,
      "##वान": 1986,
      "च्या": 1987,
      "ठाकरे": 1988,
      "##तीने": 1989,
      "व्यक्त": 1990,
      "परंत": 1991,
      "##ल्याने": 1992,
      "व्यक्ती": 1993,
      "होतं": 1994,
      "बि": 1995,
      "##ाचे": 1996,
      "महिन": 1997,
      "##द्दल": 1998,
      "##ये": 1999,
      "##तिक": 2000,
      "##ंनी": 2001,
      "मार": 2002,
      "##डक": 2003,
      "सि": 2004,
      "योग": 2005,
      "##्यावर": 2006,
      "वेळ": 2007,
      "आयु": 2008,
      "##वाद": 2009,
      "##सोबत": 2010,
      "##लेली": 2011,
      "##मुख": 2012,
      "नाहीत": 2013,
      "यावेळी": 2014,
      "सग": 2015,
      "##णं": 2016,
      "पद": 2017,
      "##ांसाठी": 2018,
      "##ाची": 2019,
      "पार": 2020,
      "शु": 2021,
      "जास्त": 2022,
      "घर": 2023,
      "जाते": 2024,
      "मृत्यू": 2025,
      "परंतु": 2026,
      "##ॉल": 2027,
      "##पेक्षा": 2028,
      "##त्ता": 2029,
      "ताल": 2030,
      "जो": 2031,
      "कॅ": 2032,
      "##ण्याचे": 2033,
      "##काळी": 2034,
      "देत": 2035,
      "पाणी": 2036,
      "##ाचा": 2037,
      "##दान": 2038,
      "##श्यक": 2039,
      "सोड": 2040,
      "##न्न": 2041,
      "##‍या": 2042,
      "समाज": 2043,
      "##ध्यम": 2044,
      "##ंच्या": 2045,
      "##स्था": 2046,
      "विद्यार्थ": 2047,
      "ले": 2048,
      "##क्ट": 2049,
      "तेव्हा": 2050,
      "पी": 2051,
      "अध्यक्ष": 2052,
      "मुख्यमंत्री": 2053,
      "जण": 2054,
      "पत्र": 2055,
      "##्हाला": 2056,
      "मार्ग": 2057,
      "बँ": 2058,
      "##कृ": 2059,
      "##साय": 2060,
      "##नि": 2061,
      "रुपये": 2062,
      "घेतला": 2063,
      "##आय": 2064,
      "##ष्ठ": 2065,
      "सू": 2066,
      "##ुंब": 2067,
      "खा": 2068,
      "##वाह": 2069,
      "न्यायाल": 2070,
      "खूप": 2071,
      "करू": 2072,
      "##ूल": 2073,
      "##ेशन": 2074,
      "##गार": 2075,
      "##जा": 2076,
      "कर्म": 2077,
      "##श्च": 2078,
      "ची": 2079,
      "डो": 2080,
      "##पूर्ण": 2081,
      "निर्माण": 2082,
      "पाच": 2083,
      "कृ": 2084,
      "विरोध": 2085,
      "कधी": 2086,
      "##कि": 2087,
      "कंपनी": 2088,
      "जीव": 2089,
      "##ण्यास": 2090,
      "राष्ट्रवादी": 2091,
      "रि": 2092,
      "##ांध": 2093,
      "माझ्या": 2094,
      "पोलिसांनी": 2095,
      "आरोग": 2096,
      "होईल": 2097,
      "करणे": 2098,
      "##क्षण": 2099,
      "सुरुवात": 2100,
      "१९": 2101,
      "क्षेत": 2102,
      "##च्च": 2103,
      "नव्ह": 2104,
      "रोजी": 2105,
      "चार": 2106,
      "विविध": 2107,
      "##वाल": 2108,
      "यांची": 2109,
      "श्री": 2110,
      "##ंभ": 2111,
      "##रोबर": 2112,
      "विश्": 2113,
      "भारत": 2114,
      "##ाम": 2115,
      "##ग्र": 2116,
      "##्याच्या": 2117,
      "बदल": 2118,
      "बु": 2119,
      "##ासना": 2120,
      "कुट": 2121,
      "भाव": 2122,
      "चर्चा": 2123,
      "पंत": 2124,
      "टक्के": 2125,
      "योज": 2126,
      "उत्तर": 2127,
      "##शेष": 2128,
      "##त्री": 2129,
      "##षी": 2130,
      "ठिकाणी": 2131,
      "##वले": 2132,
      "महत्त्": 2133,
      "बै": 2134,
      "##ार्थ": 2135,
      "##वत": 2136,
      "##ीर": 2137,
      "खेळ": 2138,
      "मदत": 2139,
      "तुम्ही": 2140,
      "##्यांच्या": 2141,
      "##मक": 2142,
      "मोठ्या": 2143,
      "पुढे": 2144,
      "भूम": 2145,
      "##ंची": 2146,
      "व्हि": 2147,
      "असतात": 2148,
      "यात": 2149,
      "पुणे": 2150,
      "टाक": 2151,
      "##्टी": 2152,
      "##दर्श": 2153,
      "समोर": 2154,
      "##भे": 2155,
      "असल्याने": 2156,
      "##स्थित": 2157,
      "सरकारने": 2158,
      "##शल": 2159,
      "##ष्ट्रीय": 2160,
      "आमदार": 2161,
      "सात": 2162,
      "##क्स": 2163,
      "संक": 2164,
      "##दन": 2165,
      "##पु": 2166,
      "घटना": 2167,
      "ग्रा": 2168,
      "##क्षक": 2169,
      "शहर": 2170,
      "##टे": 2171,
      "आवश्यक": 2172,
      "१०": 2173,
      "स्थान": 2174,
      "प्रव": 2175,
      "एम": 2176,
      "##तीत": 2177,
      "विशेष": 2178,
      "नुक": 2179,
      "##्व": 2180,
      "अम": 2181,
      "##प्रधान": 2182,
      "ट्र": 2183,
      "##ंदी": 2184,
      "बो": 2185,
      "बांध": 2186,
      "घ्या": 2187,
      "पहिल्या": 2188,
      "घेतली": 2189,
      "गेले": 2190,
      "संबंध": 2191,
      "कुटुंब": 2192,
      "प्रत्येक": 2193,
      "आरोप": 2194,
      "##वण": 2195,
      "##ल्ला": 2196,
      "##लक": 2197,
      "मग": 2198,
      "जवळ": 2199,
      "##वली": 2200,
      "होऊ": 2201,
      "##र्क": 2202,
      "बी": 2203,
      "याच": 2204,
      "केलेल्या": 2205,
      "विधान": 2206,
      "##ूण": 2207,
      "तिच्या": 2208,
      "##न्ही": 2209,
      "पंतप्रधान": 2210,
      "समज": 2211,
      "लॉ": 2212,
      "##ात्री": 2213,
      "महापाल": 2214,
      "तपास": 2215,
      "##को": 2216,
      "गां": 2217,
      "परिस": 2218,
      "##वेळी": 2219,
      "करण्याची": 2220,
      "आंद": 2221,
      "कुठ": 2222,
      "अमे": 2223,
      "आढ": 2224,
      "##लो": 2225,
      "मध": 2226,
      "असतो": 2227,
      "जर": 2228,
      "##ाई": 2229,
      "##व्य": 2230,
      "इत": 2231,
      "इंड": 2232,
      "होतो": 2233,
      "भाष": 2234,
      "रुग्णाल": 2235,
      "##नला": 2236,
      "बाहेर": 2237,
      "##द्धा": 2238,
      "करता": 2239,
      "घाल": 2240,
      "आंदोल": 2241,
      "##हीर": 2242,
      "कारवाई": 2243,
      "##हार": 2244,
      "साध": 2245,
      "काळात": 2246,
      "##बद्दल": 2247,
      "समिती": 2248,
      "बैठ": 2249,
      "रंग": 2250,
      "२०१": 2251,
      "##ब्ध": 2252,
      "नवीन": 2253,
      "##क्क": 2254,
      "##ण्याच्या": 2255,
      "करा": 2256,
      "भेट": 2257,
      "केवळ": 2258,
      "उपल": 2259,
      "रेल्": 2260,
      "फोट": 2261,
      "वाज": 2262,
      "##टा": 2263,
      "निवडणुकी": 2264,
      "##एस": 2265,
      "उपलब्ध": 2266,
      "माध्यम": 2267,
      "त्याचा": 2268,
      "अंत": 2269,
      "##ृह": 2270,
      "नगर": 2271,
      "अह": 2272,
      "यश": 2273,
      "कोणत्या": 2274,
      "##व्हे": 2275,
      "शिवसेने": 2276,
      "ऑफ": 2277,
      "उपस्थित": 2278,
      "##भव": 2279,
      "क्षेत्र": 2280,
      "जेव": 2281,
      "##माणे": 2282,
      "त्याने": 2283,
      "प्रदेश": 2284,
      "रेल्वे": 2285,
      "यांचा": 2286,
      "स्पष्ट": 2287,
      "##डू": 2288,
      "तरु": 2289,
      "यासाठी": 2290,
      "##ल्यानंतर": 2291,
      "##कडा": 2292,
      "राज्यात": 2293,
      "परिस्थिती": 2294,
      "चौक": 2295,
      "येईल": 2296,
      "अभिने": 2297,
      "लढ": 2298,
      "नेते": 2299,
      "##हु": 2300,
      "माजी": 2301,
      "आरोग्य": 2302,
      "फक्त": 2303,
      "सिने": 2304,
      "##मधून": 2305,
      "##घड": 2306,
      "##सम": 2307,
      "##मेद": 2308,
      "##रण": 2309,
      "खु": 2310,
      "खरे": 2311,
      "नोंद": 2312,
      "##ळून": 2313,
      "##िरी": 2314,
      "##ायर": 2315,
      "त्यांची": 2316,
      "##‍य": 2317,
      "त्याच": 2318,
      "जाणार": 2319,
      "##क्टर": 2320,
      "##भर": 2321,
      "उमेद": 2322,
      "दोघ": 2323,
      "##नात": 2324,
      "पावसा": 2325,
      "##ंदा": 2326,
      "शक्यता": 2327,
      "आई": 2328,
      "फोटो": 2329,
      "10": 2330,
      "जाहीर": 2331,
      "वर्षी": 2332,
      "ता": 2333,
      "करताना": 2334,
      "अश": 2335,
      "विजय": 2336,
      "##बल": 2337,
      "दोन्ही": 2338,
      "##य़": 2339,
      "महिला": 2340,
      "##ैकी": 2341,
      "पि": 2342,
      "यांचे": 2343,
      "##सभा": 2344,
      "वाच": 2345,
      "स्पर्ध": 2346,
      "##ावि": 2347,
      "याची": 2348,
      "##कांना": 2349,
      "मराठी": 2350,
      "संख्या": 2351,
      "##प्रमाणे": 2352,
      "द्या": 2353,
      "कार्या": 2354,
      "##ोप": 2355,
      "##ालं": 2356,
      "नियम": 2357,
      "यामुळे": 2358,
      "करण्याचा": 2359,
      "##नावर": 2360,
      "आर्थ": 2361,
      "##र्च": 2362,
      "शेतकऱ्यां": 2363,
      "सिं": 2364,
      "##डि": 2365,
      "आलं": 2366,
      "चि": 2367,
      "मंत्री": 2368,
      "मंत्र": 2369,
      "गोष्टी": 2370,
      "राम": 2371,
      "फाय": 2372,
      "माण": 2373,
      "म्हटले": 2374,
      "हॉ": 2375,
      "याचा": 2376,
      "##भार": 2377,
      "आन": 2378,
      "##णारे": 2379,
      "आर्थिक": 2380,
      "परत": 2381,
      "##हेब": 2382,
      "संस्थ": 2383,
      "परी": 2384,
      "##ाद": 2385,
      "अधिकारी": 2386,
      "##ंदर्भ": 2387,
      "मुली": 2388,
      "##मत": 2389,
      "अड": 2390,
      "##पती": 2391,
      "पक्षा": 2392,
      "सोशल": 2393,
      "##सु": 2394,
      "मोठा": 2395,
      "##वढ": 2396,
      "##न्या": 2397,
      "एखा": 2398,
      "याबाबत": 2399,
      "महत्त्वा": 2400,
      "त्यांचे": 2401,
      "गांधी": 2402,
      "##र्ड": 2403,
      "ब्र": 2404,
      "दी": 2405,
      "घोष": 2406,
      "पार्": 2407,
      "राहि": 2408,
      "##्वि": 2409,
      "##ॅन": 2410,
      "प्रमाणात": 2411,
      "##िव्ह": 2412,
      "##स्तान": 2413,
      "##ित्य": 2414,
      "एस": 2415,
      "##वला": 2416,
      "धाव": 2417,
      "##ॅट": 2418,
      "तालुक": 2419,
      "पाकि": 2420,
      "भूमिका": 2421,
      "मंद": 2422,
      "##काळ": 2423,
      "##हान": 2424,
      "हवा": 2425,
      "किती": 2426,
      "##ंदाज": 2427,
      "परिणा": 2428,
      "आरोपी": 2429,
      "##घाडी": 2430,
      "परिष": 2431,
      "##्यु": 2432,
      "बघ": 2433,
      "करतात": 2434,
      "पाहिजे": 2435,
      "सद": 2436,
      "आणखी": 2437,
      "##ोना": 2438,
      "तुम्हाला": 2439,
      "रात्री": 2440,
      "##वरून": 2441,
      "##सर्ग": 2442,
      "मंड": 2443,
      "अं": 2444,
      "ओळ": 2445,
      "लव": 2446,
      "आपल्याला": 2447,
      "नये": 2448,
      "##पैकी": 2449,
      "आत्": 2450,
      "पाय": 2451,
      "अग": 2452,
      "सुमार": 2453,
      "अटक": 2454,
      "##करणी": 2455,
      "शकते": 2456,
      "जि": 2457,
      "आलेल्या": 2458,
      "प्रकरण": 2459,
      "शोध": 2460,
      "राजकीय": 2461,
      "सर्वात": 2462,
      "न्यू": 2463,
      "मतदार": 2464,
      "अमेरिक": 2465,
      "लग्": 2466,
      "प्रवेश": 2467,
      "##्याने": 2468,
      "##्ड": 2469,
      "##पत्र": 2470,
      "##ांक": 2471,
      "##नाथ": 2472,
      "##ाती": 2473,
      "पद्ध": 2474,
      "##००": 2475,
      "त्याची": 2476,
      "एकूण": 2477,
      "##द्द": 2478,
      "##िंक": 2479,
      "वेळी": 2480,
      "##वारे": 2481,
      "गरज": 2482,
      "तक्र": 2483,
      "##्यांची": 2484,
      "##लाव": 2485,
      "##मंत्र": 2486,
      "फार": 2487,
      "करुन": 2488,
      "आधी": 2489,
      "रस्त": 2490,
      "घरी": 2491,
      "##--": 2492,
      "नंतर": 2493,
      "टे": 2494,
      "बहु": 2495,
      "##एम": 2496,
      "राज्यातील": 2497,
      "दिसत": 2498,
      "##णात": 2499,
      "यावर": 2500,
      "कराय": 2501,
      "मीड": 2502,
      "शकतो": 2503,
      "संघट": 2504,
      "योग्य": 2505,
      "##था": 2506,
      "संपूर्ण": 2507,
      "##पाल": 2508,
      "उद्ध": 2509,
      "##याने": 2510,
      "##क्का": 2511,
      "##पणा": 2512,
      "आदेश": 2513,
      "मू": 2514,
      "##शय": 2515,
      "##्यास": 2516,
      "करोना": 2517,
      "फु": 2518,
      "वाद": 2519,
      "##लय": 2520,
      "विषय": 2521,
      "मै": 2522,
      "##र्वा": 2523,
      "बाजार": 2524,
      "त्र": 2525,
      "201": 2526,
      "आघाडी": 2527,
      "##ंदर": 2528,
      "##वण्यात": 2529,
      "##दारी": 2530,
      "##त्त": 2531,
      "नेह": 2532,
      "धो": 2533,
      "एकदा": 2534,
      "##काश": 2535,
      "त्यांचा": 2536,
      "##थम": 2537,
      "आत्म": 2538,
      "##लि": 2539,
      "कळ": 2540,
      "करीत": 2541,
      "##ेड": 2542,
      "##ावेश": 2543,
      "##घात": 2544,
      "##िकेट": 2545,
      "##डण": 2546,
      "##धा": 2547,
      "मुला": 2548,
      "शिक्षण": 2549,
      "वड": 2550,
      "लवकर": 2551,
      "##चणी": 2552,
      "शर": 2553,
      "##स्त्र": 2554,
      "बॉ": 2555,
      "आधार": 2556,
      "लक्षात": 2557,
      "##बरोबर": 2558,
      "##ांपासून": 2559,
      "हिंद": 2560,
      "झालं": 2561,
      "ओळख": 2562,
      "पोहो": 2563,
      "कौ": 2564,
      "निर्": 2565,
      "##ैन": 2566,
      "तुमच्या": 2567,
      "सकाळी": 2568,
      "देशा": 2569,
      "स्वतः": 2570,
      "असल्याची": 2571,
      "फिर": 2572,
      "विकास": 2573,
      "नव्या": 2574,
      "##कु": 2575,
      "तास": 2576,
      "अधिका": 2577,
      "मोठी": 2578,
      "##साहेब": 2579,
      "गेली": 2580,
      "##वरील": 2581,
      "##द्र": 2582,
      "##पड": 2583,
      "देशात": 2584,
      "##वर्": 2585,
      "##नाच्या": 2586,
      "##ब्द": 2587,
      "##ळ्यात": 2588,
      "नार": 2589,
      "##मो": 2590,
      "समावेश": 2591,
      "##स्प": 2592,
      "सार": 2593,
      "रू": 2594,
      "##ासून": 2595,
      "जातो": 2596,
      "##ब्र": 2597,
      "##्ये": 2598,
      "##क्षित": 2599,
      "तिला": 2600,
      "आनंद": 2601,
      "##वीस": 2602,
      "##म्प": 2603,
      "इंग": 2604,
      "नसल्या": 2605,
      "कार्यकर्": 2606,
      "दिवशी": 2607,
      "प्रवा": 2608,
      "भारतात": 2609,
      "##णारा": 2610,
      "वी": 2611,
      "##गड": 2612,
      "आपले": 2613,
      "##क्षे": 2614,
      "##ल्ड": 2615,
      "क्रिकेट": 2616,
      "खरेदी": 2617,
      "##भूमी": 2618,
      "लेख": 2619,
      "प्रक": 2620,
      "दह": 2621,
      "पट": 2622,
      "उद्धव": 2623,
      "त्याचे": 2624,
      "कम": 2625,
      "अति": 2626,
      "शिक": 2627,
      "##्याचे": 2628,
      "##स्क": 2629,
      "दुसऱ्या": 2630,
      "##त्व": 2631,
      "##ृष्टी": 2632,
      "##शिवाय": 2633,
      "हर": 2634,
      "पोहोच": 2635,
      "जय": 2636,
      "मांड": 2637,
      "कार्यक्रम": 2638,
      "##र्गत": 2639,
      "सदस": 2640,
      "##00": 2641,
      "##र्त": 2642,
      "सच": 2643,
      "उपचार": 2644,
      "साह": 2645,
      "जोर": 2646,
      "##णारी": 2647,
      "##तून": 2648,
      "खात": 2649,
      "शेव": 2650,
      "लागले": 2651,
      "ऑनला": 2652,
      "जागा": 2653,
      "##राव": 2654,
      "अर्ज": 2655,
      "##गिरी": 2656,
      "##णाला": 2657,
      "लहान": 2658,
      "उद": 2659,
      "आपली": 2660,
      "परिणाम": 2661,
      "##रेंद्र": 2662,
      "चौकशी": 2663,
      "),": 2664,
      "मध्य": 2665,
      "##रू": 2666,
      "कर्ज": 2667,
      "वृत्": 2668,
      "##स्कार": 2669,
      "##डिओ": 2670,
      "संजय": 2671,
      "मंग": 2672,
      "##ंडी": 2673,
      "खासदार": 2674,
      "##द्वारे": 2675,
      "चिं": 2676,
      "जबाब": 2677,
      "होत्या": 2678,
      "##इन": 2679,
      "##सान": 2680,
      "केंद": 2681,
      "राष्ट्रीय": 2682,
      "पैसे": 2683,
      "पत्रकार": 2684,
      "लॉकडा": 2685,
      "##ुक्त": 2686,
      "उघड": 2687,
      "उत्त": 2688,
      "भी": 2689,
      "बँक": 2690,
      "##िनि": 2691,
      "##मान्य": 2692,
      "##चना": 2693,
      "खान": 2694,
      "##दु": 2695,
      "लोकांना": 2696,
      "सोम": 2697,
      "गेला": 2698,
      "निवडणूक": 2699,
      "कला": 2700,
      "करणाऱ्या": 2701,
      "##ौर": 2702,
      "शिवसेना": 2703,
      "प्रमुख": 2704,
      "##मन": 2705,
      "##ूड": 2706,
      "##र्फ": 2707,
      "एन": 2708,
      "गुन्हा": 2709,
      "म्हटलं": 2710,
      "##ल्स": 2711,
      "पाऊ": 2712,
      "19": 2713,
      "वन": 2714,
      "घरात": 2715,
      "अजून": 2716,
      "##खर": 2717,
      "नरेंद्र": 2718,
      "##भाव": 2719,
      "##ईन": 2720,
      "फोन": 2721,
      "कोणत्याही": 2722,
      "##ंदर्भात": 2723,
      "भागात": 2724,
      "नव": 2725,
      "मित्र": 2726,
      "##प्ट": 2727,
      "शेतकरी": 2728,
      "फडण": 2729,
      "अभ्यास": 2730,
      "##ियन": 2731,
      "उत्पा": 2732,
      "##पो": 2733,
      "खेळा": 2734,
      "##भरात": 2735,
      "प्रसि": 2736,
      "अन्य": 2737,
      "आयोज": 2738,
      "फडणवीस": 2739,
      "##हित": 2740,
      "##धित": 2741,
      "व्हायर": 2742,
      "##ेट्र": 2743,
      "घात": 2744,
      "लसी": 2745,
      "खर्च": 2746,
      "जिल्ह्यातील": 2747,
      "टो": 2748,
      "##शिक": 2749,
      "आपला": 2750,
      "टीका": 2751,
      "वार": 2752,
      "टीम": 2753,
      "मॅ": 2754,
      "ह्या": 2755,
      "१५": 2756,
      "करतो": 2757,
      "राजकार": 2758,
      "##नाचा": 2759,
      "##द्योग": 2760,
      "माध्यमातून": 2761,
      "##वक": 2762,
      "दिलेल्या": 2763,
      "##्रम": 2764,
      "डॉक्टर": 2765,
      "स्वा": 2766,
      "जाईल": 2767,
      "विष": 2768,
      "सांगितलं": 2769,
      "सेवा": 2770,
      "ट्वि": 2771,
      "येते": 2772,
      "कस": 2773,
      "##राज": 2774,
      "मुद्": 2775,
      "##चित": 2776,
      "##नाव": 2777,
      "ठे": 2778,
      "स्वर": 2779,
      "जातात": 2780,
      "वाहत": 2781,
      "असल्याचं": 2782,
      "##श्व": 2783,
      "##पुर": 2784,
      "करावा": 2785,
      "घेण्यात": 2786,
      "आमच्या": 2787,
      "##ंचे": 2788,
      "पाकिस्तान": 2789,
      "नात": 2790,
      "##्ला": 2791,
      "थांब": 2792,
      "संबंधित": 2793,
      "कप": 2794,
      "सहभाग": 2795,
      "मज": 2796,
      "##ांकडून": 2797,
      "चंद्र": 2798,
      "##गे": 2799,
      "शकतात": 2800,
      "वय": 2801,
      "##प्प": 2802,
      "कामा": 2803,
      "प्रशासना": 2804,
      "##खाली": 2805,
      "करावी": 2806,
      "अगदी": 2807,
      "जिल्ह्यात": 2808,
      "आठवड": 2809,
      "नेहमी": 2810,
      "##आर": 2811,
      "साव": 2812,
      "##हून": 2813,
      "दूर": 2814,
      "##रोधी": 2815,
      "घेतले": 2816,
      "शेअर": 2817,
      "आद": 2818,
      "##ंटर": 2819,
      "शब्द": 2820,
      "##मेंट": 2821,
      "कायम": 2822,
      "धर": 2823,
      "##ष्ण": 2824,
      "पुढील": 2825,
      "शरद": 2826,
      "पत्": 2827,
      "मिळत": 2828,
      "सुट": 2829,
      "##मू": 2830,
      "##ताच": 2831,
      "जु": 2832,
      "मान्य": 2833,
      "##ानं": 2834,
      "होऊन": 2835,
      "##ईट": 2836,
      "काल": 2837,
      "##शत": 2838,
      "संधी": 2839,
      "राहुल": 2840,
      "##ात्मक": 2841,
      "प्रक्र": 2842,
      "आयुष": 2843,
      "घोषणा": 2844,
      "जन्": 2845,
      "##पीठ": 2846,
      "जेव्हा": 2847,
      "ग्राम": 2848,
      "पर्यंत": 2849,
      "उच्च": 2850,
      "##ेच्या": 2851,
      "##करणा": 2852,
      "##ोत्": 2853,
      "##ंक": 2854,
      "उमेदवार": 2855,
      "##प्त": 2856,
      "निक": 2857,
      "कर्मचा": 2858,
      "##ंडे": 2859,
      "दुर्": 2860,
      "ग्राह": 2861,
      "महापालिके": 2862,
      "त्यावर": 2863,
      "##पद": 2864,
      "चीन": 2865,
      "दा": 2866,
      "##षयी": 2867,
      "##..": 2868,
      "मुंबईत": 2869,
      "##an": 2870,
      "##ॅक": 2871,
      "एकत्र": 2872,
      "एवढ": 2873,
      "यामध्ये": 2874,
      "केंद्रीय": 2875,
      "##हन": 2876,
      "##्याला": 2877,
      "आयुक्त": 2878,
      "##ळू": 2879,
      "##ंभीर": 2880,
      "देव": 2881,
      "वात": 2882,
      "परिसरात": 2883,
      "लो": 2884,
      "गंभीर": 2885,
      "##स्ती": 2886,
      "त्यावेळी": 2887,
      "महाम": 2888,
      "सहकार": 2889,
      "##++": 2890,
      "##जाव": 2891,
      "##िंप": 2892,
      "##गत": 2893,
      "धु": 2894,
      "##व्ही": 2895,
      "त्यासाठी": 2896,
      "##देशी": 2897,
      "करण्याचे": 2898,
      "शरी": 2899,
      "##्‍या": 2900,
      "##नगर": 2901,
      "नावा": 2902,
      "##षण": 2903,
      "बाजू": 2904,
      "##लंब": 2905,
      "जून": 2906,
      "##ळं": 2907,
      "प्रच": 2908,
      "##ांशी": 2909,
      "##याच्या": 2910,
      "लाभ": 2911,
      "महिल": 2912,
      "बैठकी": 2913,
      "समस": 2914,
      "##हास": 2915,
      "मिळाली": 2916,
      "##ोटी": 2917,
      "सामना": 2918,
      "##ावं": 2919,
      "अॅ": 2920,
      "दिल्या": 2921,
      "१२": 2922,
      "##ुका": 2923,
      "सामन": 2924,
      "##ूट": 2925,
      "##नामा": 2926,
      "प्रत": 2927,
      "बात": 2928,
      "लिहि": 2929,
      "##्यांचा": 2930,
      "अखे": 2931,
      "##एल": 2932,
      "##र्दी": 2933,
      "लागली": 2934,
      "धक्का": 2935,
      "गाडी": 2936,
      "##वानगी": 2937,
      "गट": 2938,
      "##धिकारी": 2939,
      "##्यांचे": 2940,
      "कर्मच": 2941,
      "वस्त": 2942,
      "##ोरी": 2943,
      "##्याची": 2944,
      "अध": 2945,
      "पॉ": 2946,
      "लागला": 2947,
      "वाचा": 2948,
      "लागेल": 2949,
      "##रोधात": 2950,
      "##ँड": 2951,
      "डे": 2952,
      "क्रम": 2953,
      "उपाय": 2954,
      "मार्च": 2955,
      "सहा": 2956,
      "##ाजिक": 2957,
      "दर्": 2958,
      "सर्वा": 2959,
      "##ीय": 2960,
      "खेळाडू": 2961,
      "इच्छ": 2962,
      "##रंग": 2963,
      "##ाळ": 2964,
      "##वणूक": 2965,
      "आतापर्यंत": 2966,
      "##िज": 2967,
      "##र्मा": 2968,
      "कोणी": 2969,
      "सत्ता": 2970,
      "##बळ": 2971,
      "औष": 2972,
      "विश्वास": 2973,
      "रवि": 2974,
      "##दायक": 2975,
      "##र्न": 2976,
      "##नाची": 2977,
      "##ॉन": 2978,
      "घटने": 2979,
      "देशातील": 2980,
      "शकता": 2981,
      "##ळेल": 2982,
      "##भूमीवर": 2983,
      "##ल्यावर": 2984,
      "##लिक": 2985,
      "आहो": 2986,
      "##नाला": 2987,
      "नाशिक": 2988,
      "##‍ॅ": 2989,
      "##ar": 2990,
      "लॉकडाऊन": 2991,
      "नुकसान": 2992,
      "जाऊ": 2993,
      "गुरु": 2994,
      "सामाजिक": 2995,
      "आंदोलन": 2996,
      "संत": 2997,
      "प्रवास": 2998,
      "##ंदे": 2999,
      "बरे": 3000,
      "मीडिय": 3001,
      "आहोत": 3002,
      "##देखील": 3003,
      "प्रतिक": 3004,
      "तिने": 3005,
      "स्थाप": 3006,
      "परा": 3007,
      "वेळा": 3008,
      "##लाय": 3009,
      "व्": 3010,
      "लागू": 3011,
      "विमान": 3012,
      "202": 3013,
      "आवड": 3014,
      "##टन": 3015,
      "##न्हे": 3016,
      "परवानगी": 3017,
      "##स्थाप": 3018,
      "15": 3019,
      "साय": 3020,
      "गुण": 3021,
      "श्र": 3022,
      "##काने": 3023,
      "तालुक्यातील": 3024,
      "करण्यास": 3025,
      "स्थानिक": 3026,
      "गुंत": 3027,
      "बाळा": 3028,
      "वातावर": 3029,
      "##==": 3030,
      "तिथे": 3031,
      "मागे": 3032,
      "पार्श्व": 3033,
      "##कांनी": 3034,
      "करावे": 3035,
      "घरा": 3036,
      "तक्रार": 3037,
      "भो": 3038,
      "आढळ": 3039,
      "जोड": 3040,
      "##पारी": 3041,
      "अभिनेत्री": 3042,
      "##िता": 3043,
      "##ूत": 3044,
      "##यी": 3045,
      "जिंक": 3046,
      "अत्य": 3047,
      "##र्या": 3048,
      "##वण्यासाठी": 3049,
      "रोज": 3050,
      "मंदिर": 3051,
      "शहरात": 3052,
      "##रुद्ध": 3053,
      "महार": 3054,
      "पोस्ट": 3055,
      "##समोर": 3056,
      "##ायचे": 3057,
      "व्हिडिओ": 3058,
      "पत्नी": 3059,
      "वृत्त": 3060,
      "योजना": 3061,
      "भाजपा": 3062,
      "आवाह": 3063,
      "पुस्त": 3064,
      "उद्": 3065,
      "मृत": 3066,
      "तसं": 3067,
      "##वाडी": 3068,
      "ऐक": 3069,
      "##ृत": 3070,
      "असता": 3071,
      "रुग्णालयात": 3072,
      "##चल": 3073,
      "भु": 3074,
      "कल": 3075,
      "##िकेत": 3076,
      "जनते": 3077,
      "12": 3078,
      "सर्वो": 3079,
      "##ाबाद": 3080,
      "##कृती": 3081,
      "शासना": 3082,
      "##िलो": 3083,
      "इंडिया": 3084,
      "चांगले": 3085,
      "ताप": 3086,
      "बद": 3087,
      "तरुण": 3088,
      "साज": 3089,
      "##ांपूर्वी": 3090,
      "काळजी": 3091,
      "सुमारे": 3092,
      "##संग": 3093,
      "##ांचं": 3094,
      "##रीत": 3095,
      "दिसून": 3096,
      "सिंह": 3097,
      "थो": 3098,
      "प्रेम": 3099,
      "अत": 3100,
      "मोबा": 3101,
      "खाली": 3102,
      "जाऊन": 3103,
      "ताब": 3104,
      "##मती": 3105,
      "सोन": 3106,
      "##दरम्यान": 3107,
      "सुद्धा": 3108,
      "थेट": 3109,
      "महाराष्ट्रात": 3110,
      "उल": 3111,
      "##क्की": 3112,
      "##साद": 3113,
      "बॉल": 3114,
      "एखाद्या": 3115,
      "ट्रे": 3116,
      "##िक्त": 3117,
      "बंग": 3118,
      "##जर": 3119,
      "देऊन": 3120,
      "करते": 3121,
      "गृह": 3122,
      "##ाणा": 3123,
      "##र्ती": 3124,
      "सिनेमा": 3125,
      "पिंप": 3126,
      "मुख्यमंत्र": 3127,
      "अजित": 3128,
      "तत्": 3129,
      "पूर्व": 3130,
      "प्रसिद्ध": 3131,
      "##थी": 3132,
      "##फी": 3133,
      "##ित्": 3134,
      "##ल्ले": 3135,
      "प्रकाश": 3136,
      "११": 3137,
      "उद्योग": 3138,
      "फा": 3139,
      "यंत्र": 3140,
      "खो": 3141,
      "आंतर": 3142,
      "अखेर": 3143,
      "न्यूज": 3144,
      "आवाहन": 3145,
      "##ळक": 3146,
      "शकत": 3147,
      "योजने": 3148,
      "औषध": 3149,
      "##पण": 3150,
      "मोठे": 3151,
      "आत्मह": 3152,
      "##सळ": 3153,
      "डी": 3154,
      "##िनिधी": 3155,
      "अत्यंत": 3156,
      "##तिहास": 3157,
      "तिस": 3158,
      "झाल्यानंतर": 3159,
      "##ंचाय": 3160,
      "##ैर": 3161,
      "विरोधी": 3162,
      "##डीओ": 3163,
      "##वेग": 3164,
      "##ड्या": 3165,
      "##ढे": 3166,
      "मागील": 3167,
      "अ‍ॅ": 3168,
      "रोख": 3169,
      "मीडियावर": 3170,
      "मतदारसं": 3171,
      "कोल": 3172,
      "##ंबा": 3173,
      "बाल": 3174,
      "मंज": 3175,
      "##रुष": 3176,
      "##ांद": 3177,
      "उतर": 3178,
      "जाने": 3179,
      "##स्ते": 3180,
      "स्थिती": 3181,
      "दुसरी": 3182,
      "##on": 3183,
      "मात": 3184,
      "लस": 3185,
      "वाहन": 3186,
      "सापड": 3187,
      "वाढत": 3188,
      "विधानसभा": 3189,
      "##माग": 3190,
      "##विण्यात": 3191,
      "जुल": 3192,
      "महिन्यात": 3193,
      "##ऱ्यांना": 3194,
      "##मीर": 3195,
      "सुविध": 3196,
      "##काम": 3197,
      "##ोबर": 3198,
      "भे": 3199,
      "##्यांमध्ये": 3200,
      "परिषद": 3201,
      "अंदाज": 3202,
      "##ब्बल": 3203,
      "महाराज": 3204,
      "सत": 3205,
      "पात": 3206,
      "##स्वी": 3207,
      "मिळेल": 3208,
      "प्रस्त": 3209,
      "अपघात": 3210,
      "मंगळ": 3211,
      "कर्मचारी": 3212,
      "शास": 3213,
      "##मता": 3214,
      "अद्या": 3215,
      "खर": 3216,
      "##र्ष": 3217,
      "सादर": 3218,
      "नोक": 3219,
      "दावा": 3220,
      "##णाच्या": 3221,
      "जख": 3222,
      "लग्न": 3223,
      "प्रकल्प": 3224,
      "जानेवारी": 3225,
      "आदी": 3226,
      "##क्रमा": 3227,
      "##ढी": 3228,
      "तयारी": 3229,
      "##ंवर": 3230,
      "असलेले": 3231,
      "करायला": 3232,
      "वग": 3233,
      "##योग": 3234,
      "धर्म": 3235,
      "इमार": 3236,
      "##वाज": 3237,
      "##प्रकरणी": 3238,
      "##शील": 3239,
      "##राम": 3240,
      "कामगार": 3241,
      "##at": 3242,
      "पर्याय": 3243,
      "जुलै": 3244,
      "##वेंद्र": 3245,
      "गुन्हे": 3246,
      "##ानंतर": 3247,
      "नेम": 3248,
      "अहवाल": 3249,
      "डिसे": 3250,
      "अद्याप": 3251,
      "असणार": 3252,
      "चर्चे": 3253,
      "##चारा": 3254,
      "राऊ": 3255,
      "वैद्य": 3256,
      "चांगली": 3257,
      "दहशत": 3258,
      "##विरोधात": 3259,
      "वर्त": 3260,
      "वर्षे": 3261,
      "##ाध्यक्ष": 3262,
      "##सेवक": 3263,
      "दौ": 3264,
      "व्हिडीओ": 3265,
      "१८": 3266,
      "गण": 3267,
      "संश": 3268,
      "ऑक्ट": 3269,
      "##नो": 3270,
      "वेगवेग": 3271,
      "##फत": 3272,
      "न्यायालयाने": 3273,
      "##or": 3274,
      "कसे": 3275,
      "शहरातील": 3276,
      "३०": 3277,
      "##सिक": 3278,
      "असतील": 3279,
      "व्यवसाय": 3280,
      "संकट": 3281,
      "तब्बल": 3282,
      "##नाचे": 3283,
      "सुधार": 3284,
      "##गु": 3285,
      "##वठा": 3286,
      "##स्थान": 3287,
      "जन्म": 3288,
      "खड": 3289,
      "वस": 3290,
      "नोव्हे": 3291,
      "##्वी": 3292,
      "##बत": 3293,
      "गोष्ट": 3294,
      "विक्री": 3295,
      "डिसेंबर": 3296,
      "दिग्": 3297,
      "मिळणार": 3298,
      "हवामान": 3299,
      "जबाबदारी": 3300,
      "एप्र": 3301,
      "राख": 3302,
      "सार्": 3303,
      "दक्ष": 3304,
      "मिन": 3305,
      "पाऊस": 3306,
      "पार्श्वभूमीवर": 3307,
      "वॉ": 3308,
      "##युक्त": 3309,
      "##सन": 3310,
      "##आधी": 3311,
      "नका": 3312,
      "सरकारी": 3313,
      "एप्रिल": 3314,
      "##क्कम": 3315,
      "##in": 3316,
      "पदा": 3317,
      "खासगी": 3318,
      "पुरस्कार": 3319,
      "##बे": 3320,
      "##विक": 3321,
      "निघ": 3322,
      "पथ": 3323,
      "देवेंद्र": 3324,
      "कोवि": 3325,
      "##डून": 3326,
      "##्याचा": 3327,
      "पुन": 3328,
      "जम": 3329,
      "आम्हाला": 3330,
      "बँके": 3331,
      "##ॅम": 3332,
      "असेही": 3333,
      "सल": 3334,
      "नोव्हेंबर": 3335,
      "##तीच्या": 3336,
      "संपर्क": 3337,
      "##िटल": 3338,
      "नियंत्र": 3339,
      "सामान्य": 3340,
      "##पीसी": 3341,
      "राऊत": 3342,
      "इथे": 3343,
      "किलो": 3344,
      "सौ": 3345,
      "दार": 3346,
      "##गस्ट": 3347,
      "##er": 3348,
      "असल्याचा": 3349,
      "##चर": 3350,
      "##ल्यास": 3351,
      "जीवन": 3352,
      "आंब": 3353,
      "नक्की": 3354,
      "ऑक्टोबर": 3355,
      "##श्र": 3356,
      "कोर्ट": 3357,
      "रद्द": 3358,
      "नेतृत्": 3359,
      "सिद्ध": 3360,
      "नदी": 3361,
      "राणे": 3362,
      "कालाव": 3363,
      "शुक्र": 3364,
      "गणे": 3365,
      "स्मार": 3366,
      "##श्चित": 3367,
      "स्वी": 3368,
      "पासून": 3369,
      "निधी": 3370,
      "##राष्ट्रीय": 3371,
      "##सेल": 3372,
      "इन्": 3373,
      "पुरुष": 3374,
      "सर्वाधिक": 3375,
      "कालावधी": 3376,
      "पसर": 3377,
      "प्रथम": 3378,
      "शिवा": 3379,
      "उत्तम": 3380,
      "चांगला": 3381,
      "ग्रामी": 3382,
      "सरकारच्या": 3383,
      "ग्रामीण": 3384,
      "अंग": 3385,
      "ज्": 3386,
      "##वासी": 3387,
      "विरोधात": 3388,
      "धोका": 3389,
      "##सारख्या": 3390,
      "बुध": 3391,
      "##नक": 3392,
      "##ग्रस्त": 3393,
      "वाजता": 3394,
      "कोणती": 3395,
      "##ज्ञान": 3396,
      "कसा": 3397,
      "##फा": 3398,
      "महिले": 3399,
      "परीक्षा": 3400,
      "आग": 3401,
      "मराठा": 3402,
      "##ावरून": 3403,
      "##व्हाण": 3404,
      "पश्च": 3405,
      "शिंदे": 3406,
      "ऑगस्ट": 3407,
      "नागपूर": 3408,
      "येतो": 3409,
      "क्ल": 3410,
      "##ळगाव": 3411,
      "##िब": 3412,
      "बॅ": 3413,
      "महा": 3414,
      "##कांत": 3415,
      "गर्दी": 3416,
      "फर": 3417,
      "##जवळ": 3418,
      "२५": 3419,
      "तरीही": 3420,
      "राजी": 3421,
      "##ुस": 3422,
      "निवडणुकीत": 3423,
      "पद्धतीने": 3424,
      "वाटत": 3425,
      "प्रेक्षक": 3426,
      "##्म": 3427,
      "##रोज": 3428,
      "चव्हाण": 3429,
      "डोक": 3430,
      "फायदा": 3431,
      "मिनिट": 3432,
      "##वाड": 3433,
      "##णाचा": 3434,
      "डिझ": 3435,
      "इंग्ल": 3436,
      "##लने": 3437,
      "वाहतूक": 3438,
      "सां": 3439,
      "जोरदार": 3440,
      "##ेने": 3441,
      "##ब्रु": 3442,
      "##नाने": 3443,
      "सहभागी": 3444,
      "शै": 3445,
      "छोट": 3446,
      "##वू": 3447,
      "##पक": 3448,
      "ठाणे": 3449,
      "सोबत": 3450,
      "आंतरराष्ट्रीय": 3451,
      "##त्ती": 3452,
      "शाह": 3453,
      "##िश": 3454,
      "होण्याची": 3455,
      "पाहून": 3456,
      "महान": 3457,
      "##्यांवर": 3458,
      "##दर्शन": 3459,
      "तंत्र": 3460,
      "कृषी": 3461,
      "इश": 3462,
      "##तरी": 3463,
      "शाळ": 3464,
      "##ब्रुवारी": 3465,
      "गोल": 3466,
      "##र्‍या": 3467,
      "येऊ": 3468,
      "काढून": 3469,
      "##ऱ्यांनी": 3470,
      "फेब्रुवारी": 3471,
      "##ावरील": 3472,
      "कुठे": 3473,
      "##िटी": 3474,
      "##निव": 3475,
      "चाह": 3476,
      "##टका": 3477,
      "मिळाला": 3478,
      "सार्व": 3479,
      "प्ल": 3480,
      "##िरिक्त": 3481,
      "पहिला": 3482,
      "फल": 3483,
      "##ळात": 3484,
      "##चालक": 3485,
      "दिवसा": 3486,
      "पालक": 3487,
      "सिंग": 3488,
      "जवळपास": 3489,
      "महत्वा": 3490,
      "उभार": 3491,
      "##ोजन": 3492,
      "पदार्थ": 3493,
      "सदस्य": 3494,
      "##पदा": 3495,
      "प्रचंड": 3496,
      "##वाला": 3497,
      "सल्ला": 3498,
      "##वल": 3499,
      "वस्तू": 3500,
      "कां": 3501,
      "रक्कम": 3502,
      "पर्य": 3503,
      "##प्टे": 3504,
      "लागणार": 3505,
      "##धारण": 3506,
      "##कात": 3507,
      "सरकारला": 3508,
      "विद्यापीठ": 3509,
      "##ध्": 3510,
      "##ाप्त": 3511,
      "अनुभव": 3512,
      "त्रास": 3513,
      "सप्टे": 3514,
      "##्वर": 3515,
      "होतात": 3516,
      "जखमी": 3517,
      "गणेश": 3518,
      "वातावरण": 3519,
      "कोल्हा": 3520,
      "झोप": 3521,
      "दहा": 3522,
      "गरजे": 3523,
      "अक्ष": 3524,
      "##बाद": 3525,
      "क्रमांक": 3526,
      "संशोध": 3527,
      "##धव": 3528,
      "##ल्याचे": 3529,
      "लोकप्र": 3530,
      "साली": 3531,
      "देशमुख": 3532,
      "प्रस्ताव": 3533,
      "11": 3534,
      "हॉट": 3535,
      "१४": 3536,
      "##ांतर": 3537,
      "याला": 3538,
      "##क्शन": 3539,
      "चालू": 3540,
      "राब": 3541,
      "पाड": 3542,
      "प्रशास": 3543,
      "दिलं": 3544,
      "हल्ला": 3545,
      "माय": 3546,
      "सप्टेंबर": 3547,
      "वृ": 3548,
      "२००": 3549,
      "समु": 3550,
      "सर्वोच्च": 3551,
      "प्रक्रिया": 3552,
      "##िक्स": 3553,
      "सोमवारी": 3554,
      "अफ": 3555,
      "आयोग": 3556,
      "गावात": 3557,
      "##ुरी": 3558,
      "सभ": 3559,
      "##ासाठी": 3560,
      "##कल": 3561,
      "##ळीत": 3562,
      "अतिशय": 3563,
      "##यं": 3564,
      "##ॉट": 3565,
      "तू": 3566,
      "असले": 3567,
      "कार्यकर्त": 3568,
      "असो": 3569,
      "आकार": 3570,
      "ड्र": 3571,
      "शनिव": 3572,
      "मनात": 3573,
      "कार्याल": 3574,
      "पिंपरी": 3575,
      "जाणून": 3576,
      "##िण": 3577,
      "##क्या": 3578,
      "पेट्र": 3579,
      "##हर": 3580,
      "झाल्याने": 3581,
      "##डीने": 3582,
      "यानंतर": 3583,
      "दिवा": 3584,
      "##क्‍": 3585,
      "शेवट": 3586,
      "स्क": 3587,
      "उत्स": 3588,
      "30": 3589,
      "म्हणतात": 3590,
      "##हात": 3591,
      "संर": 3592,
      "लोकसभा": 3593,
      "##ियम": 3594,
      "बैठक": 3595,
      "वीज": 3596,
      "काँग्रेसचे": 3597,
      "कोविड": 3598,
      "क्षेत्रात": 3599,
      "स्वच्छ": 3600,
      "##al": 3601,
      "विद्यार्थी": 3602,
      "औरंग": 3603,
      "लवकरच": 3604,
      "जल": 3605,
      "वक्त": 3606,
      "##ांकडे": 3607,
      "##व्यव": 3608,
      "##नासाठी": 3609,
      "प्रतिनिधी": 3610,
      "केल्यानंतर": 3611,
      "संसर्ग": 3612,
      "२०२": 3613,
      "##य़ा": 3614,
      "##ल्पना": 3615,
      "##ईक": 3616,
      "कायद्या": 3617,
      "पेट्रोल": 3618,
      "कोक": 3619,
      "अडचणी": 3620,
      "##िवूड": 3621,
      "##वलं": 3622,
      "कुमार": 3623,
      "वैद्यकीय": 3624,
      "##ार्ग": 3625,
      "स्वप्": 3626,
      "सचिन": 3627,
      "##कान": 3628,
      "##मीन": 3629,
      "एमपीसी": 3630,
      "परिसर": 3631,
      "माझी": 3632,
      "महाव": 3633,
      "सामन्यात": 3634,
      "##भूत": 3635,
      "साहित्य": 3636,
      "हिंदू": 3637,
      "सूर": 3638,
      "सूचना": 3639,
      "उड": 3640,
      "नै": 3641,
      "प्रत्यक्ष": 3642,
      "ताब्यात": 3643,
      "आत": 3644,
      "रस्त्यावर": 3645,
      "पॅ": 3646,
      "प्रत्ये": 3647,
      "शिवाजी": 3648,
      "उद्या": 3649,
      "##्राम": 3650,
      "राहणार": 3651,
      "##दिव": 3652,
      "तोंड": 3653,
      "शाळा": 3654,
      "##ेचे": 3655,
      "समस्या": 3656,
      "ऑस्ट": 3657,
      "वास्त": 3658,
      "अर्थात": 3659,
      "ज्ये": 3660,
      "##मिक": 3661,
      "##िनी": 3662,
      "##लीन": 3663,
      "तुझ": 3664,
      "14": 3665,
      "##र्चा": 3666,
      "माहितीनुसार": 3667,
      "घडली": 3668,
      "मॉ": 3669,
      "बोलत": 3670,
      "कंपन": 3671,
      "तसंच": 3672,
      "##ायची": 3673,
      "कामगिरी": 3674,
      "जागतिक": 3675,
      "मनसे": 3676,
      "##ताप": 3677,
      "देणार": 3678,
      "सर्वसा": 3679,
      "अभि": 3680,
      "##वं": 3681,
      "किंमत": 3682,
      "ज्येष्ठ": 3683,
      "५०": 3684,
      "##मद": 3685,
      "निश्चित": 3686,
      "##मिनी": 3687,
      "पाहायला": 3688,
      "हत्या": 3689,
      "केस": 3690,
      "कसोटी": 3691,
      "तिक": 3692,
      "कोर": 3693,
      "##विषयी": 3694,
      "बार": 3695,
      "##व्हान": 3696,
      "##----": 3697,
      "##्रेल": 3698,
      "शिक्षक": 3699,
      "यादी": 3700,
      "चिंच": 3701,
      "सुविधा": 3702,
      "स्वीकार": 3703,
      "१६": 3704,
      "बाबा": 3705,
      "इशारा": 3706,
      "कोणता": 3707,
      "तपासणी": 3708,
      "राय": 3709,
      "##ांमुळे": 3710,
      "##ल्ल्या": 3711,
      "##काला": 3712,
      "देण्यासाठी": 3713,
      "##णाची": 3714,
      "बोलताना": 3715,
      "नव्हे": 3716,
      "##ीला": 3717,
      "##ॉक": 3718,
      "रण": 3719,
      "शहरा": 3720,
      "कोरोनाच्या": 3721,
      "म्हणजेच": 3722,
      "शं": 3723,
      "माझा": 3724,
      "नोकरी": 3725,
      "##ासह": 3726,
      "टक्क": 3727,
      "उत्पादन": 3728,
      "##पोर्ट": 3729,
      "झालेली": 3730,
      "मिळाले": 3731,
      "25": 3732,
      "वर्ग": 3733,
      "##मल": 3734,
      "काश्": 3735,
      "शिवाय": 3736,
      "##ाणू": 3737,
      "घेता": 3738,
      "##लर": 3739,
      "बैठकीत": 3740,
      "##ुप": 3741,
      "##दम": 3742,
      "झालेले": 3743,
      "यशस्वी": 3744,
      "नागरिकांना": 3745,
      "महापालिका": 3746,
      "##ाट": 3747,
      "संघटने": 3748,
      "अत्या": 3749,
      "आजार": 3750,
      "अनिल": 3751,
      "ठाण्यात": 3752,
      "बॉलिवूड": 3753,
      "आत्महत्या": 3754,
      "शो": 3755,
      "उत्प": 3756,
      "करणारे": 3757,
      "कलाकार": 3758,
      "याचे": 3759,
      "अंतर": 3760,
      "धोर": 3761,
      "प्रतिक्र": 3762,
      "शांत": 3763,
      "यांच्यावर": 3764,
      "मतदान": 3765,
      "वर्षीय": 3766,
      "व्हायरल": 3767,
      "खंड": 3768,
      "औरंगाबाद": 3769,
      "उभ": 3770,
      "कुल": 3771,
      "ऑस्ट्रेल": 3772,
      "सुरक्षा": 3773,
      "##हीत": 3774,
      "येत्या": 3775,
      "विश्व": 3776,
      "है": 3777,
      "तेल": 3778,
      "लागते": 3779,
      "त्यानुसार": 3780,
      "##es": 3781,
      "ट्विट": 3782,
      "##बु": 3783,
      "मुंडे": 3784,
      "##जनिक": 3785,
      "##चन": 3786,
      "##तीन": 3787,
      "नव्हते": 3788,
      "##दर्शक": 3789,
      "18": 3790,
      "चोर": 3791,
      "##गामी": 3792,
      "दृष्टी": 3793,
      "##द्धी": 3794,
      "जाधव": 3795,
      "परिषदे": 3796,
      "आयपी": 3797,
      "##शिष्ट": 3798,
      "बातमी": 3799,
      "##िरा": 3800,
      "येतात": 3801,
      "शेती": 3802,
      "मंत्राल": 3803,
      "सार्वजनिक": 3804,
      "असल्यामुळे": 3805,
      "रुग्णालय": 3806,
      "प्रकरणात": 3807,
      "##ेचा": 3808,
      "अभिन": 3809,
      "नसल्याने": 3810,
      "ऑनलाईन": 3811,
      "##ायण": 3812,
      "अन्न": 3813,
      "१३": 3814,
      "नवा": 3815,
      "येऊन": 3816,
      "ऑनलाइन": 3817,
      "##र्फे": 3818,
      "असलेली": 3819,
      "##ाव्या": 3820,
      "यापूर्वी": 3821,
      "##ेंद्र": 3822,
      "समर्थ": 3823,
      "प्रशिक्ष": 3824,
      "मोबाईल": 3825,
      "कर्": 3826,
      "##वन": 3827,
      "संवाद": 3828,
      "तात": 3829,
      "##ायी": 3830,
      "घेऊ": 3831,
      "लाल": 3832,
      "##्ले": 3833,
      "राही": 3834,
      "##पार": 3835,
      "रक्त": 3836,
      "महावि": 3837,
      "बांधकाम": 3838,
      "इंग्लंड": 3839,
      "फि": 3840,
      "सेव": 3841,
      "२४": 3842,
      "आव्हान": 3843,
      "##यक": 3844,
      "##िष्ठ": 3845,
      "वळ": 3846,
      "प्राप्त": 3847,
      "विज": 3848,
      "आयोजित": 3849,
      "##विरुद्ध": 3850,
      "भांड": 3851,
      "रविवारी": 3852,
      "फॅ": 3853,
      "##ीट": 3854,
      "##सभे": 3855,
      "##ित्त": 3856,
      "एकमे": 3857,
      "बल": 3858,
      "संस्था": 3859,
      "##विले": 3860,
      "##ेला": 3861,
      "चाचणी": 3862,
      "मधील": 3863,
      "##विष": 3864,
      "टाळ": 3865,
      "पातळी": 3866,
      "वर्षात": 3867,
      "कायदा": 3868,
      "महाविद्या": 3869,
      "१७": 3870,
      "##ायचं": 3871,
      "वडिल": 3872,
      "निर्मिती": 3873,
      "वेब": 3874,
      "नाते": 3875,
      "स्मार्ट": 3876,
      "प्रवाश": 3877,
      "पश्चिम": 3878,
      "प्रकरणी": 3879,
      "महाग": 3880,
      "बुधवारी": 3881,
      "##िप": 3882,
      "##वजी": 3883,
      "भाजपचे": 3884,
      "चेह": 3885,
      "कार्यालय": 3886,
      "गड": 3887,
      "बाळ": 3888,
      "##ल्याण": 3889,
      "परिव": 3890,
      "##द्दी": 3891,
      "तेथे": 3892,
      "म्हणत": 3893,
      "लागत": 3894,
      "गुज": 3895,
      "कशी": 3896,
      "##फोट": 3897,
      "स्त्री": 3898,
      "कार्ड": 3899,
      "अधिकार": 3900,
      "कौत": 3901,
      "प्रतिक्रिया": 3902,
      "बंध": 3903,
      "मुंबईतील": 3904,
      "कार्यक्रमा": 3905,
      "असलेला": 3906,
      "फुट": 3907,
      "सैन": 3908,
      "निरी": 3909,
      "##श्वास": 3910,
      "सुरक्षित": 3911,
      "दुपारी": 3912,
      "व्यवस्थाप": 3913,
      "व्याव": 3914,
      "इतिहास": 3915,
      "शुक्रवारी": 3916,
      "इथ": 3917,
      "सतत": 3918,
      "##काच्या": 3919,
      "न्यायालयात": 3920,
      "मंगळवारी": 3921,
      "झालेला": 3922,
      "देऊ": 3923,
      "रुग्णांची": 3924,
      "चिंचवड": 3925,
      "जमिनी": 3926,
      "##ठे": 3927,
      "सुंदर": 3928,
      "##राट": 3929,
      "दक्षिण": 3930,
      "फॉ": 3931,
      "आरक्षण": 3932,
      "##ूस": 3933,
      "ब्ल": 3934,
      "कुणी": 3935,
      "प्रभ": 3936,
      "अचा": 3937,
      "##सुद्धा": 3938,
      "रोग": 3939,
      "##ंडा": 3940,
      "अंतिम": 3941,
      "गुंतवणूक": 3942,
      "हवे": 3943,
      "उन्हा": 3944,
      "##ल्यामुळे": 3945,
      "##याचे": 3946,
      "यंदा": 3947,
      "वतीने": 3948,
      "समा": 3949,
      "आवाज": 3950,
      "##ोत्स": 3951,
      "ज्ञ": 3952,
      "उठ": 3953,
      "तार": 3954,
      "##ट्ट": 3955,
      "##गीत": 3956,
      "##धन": 3957,
      "केलेली": 3958,
      "##ल्लेख": 3959,
      "उचल": 3960,
      "नोट": 3961,
      "संग": 3962,
      "भावना": 3963,
      "कोणतीही": 3964,
      "भविष": 3965,
      "##ताने": 3966,
      "विध": 3967,
      "मुलगा": 3968,
      "##ंग्रेस": 3969,
      "करण्याच्या": 3970,
      "दिवसांपासून": 3971,
      "टप्प": 3972,
      "होणाऱ्या": 3973,
      "एकाच": 3974,
      "नव्हती": 3975,
      "##पंचाय": 3976,
      "केलेले": 3977,
      "तोड": 3978,
      "24": 3979,
      "##संदर्भात": 3980,
      "##लाही": 3981,
      "जनता": 3982,
      "अंतर्गत": 3983,
      "##िड": 3984,
      "विमा": 3985,
      "अचानक": 3986,
      "फ्र": 3987,
      "काळा": 3988,
      "सगळ्या": 3989,
      "##ग्रह": 3990,
      "ग्राहक": 3991,
      "##बाहेर": 3992,
      "##ृती": 3993,
      "वाटते": 3994,
      "अमित": 3995,
      "##म्स": 3996,
      "सहज": 3997,
      "हॉटेल": 3998,
      "##खल": 3999,
      "चुकी": 4000,
      "नको": 4001,
      "##करी": 4002,
      "##ावेत": 4003,
      "असतं": 4004,
      "##सारखे": 4005,
      "निव": 4006,
      "दर्श": 4007,
      "सत्": 4008,
      "कोल्हापूर": 4009,
      "##ाखा": 4010,
      "मूळ": 4011,
      "50": 4012,
      "पोट": 4013,
      "अथ": 4014,
      "पात्र": 4015,
      "##बीआय": 4016,
      "बंदी": 4017,
      "त्यातून": 4018,
      "गैर": 4019,
      "शिर": 4020,
      "##ान्स": 4021,
      "##ूने": 4022,
      "दुकान": 4023,
      "कॉंग्रेस": 4024,
      "घ्याय": 4025,
      "पां": 4026,
      "नगरसेवक": 4027,
      "साजरा": 4028,
      "##रत": 4029,
      "##िकल": 4030,
      "##वणे": 4031,
      "##एफ": 4032,
      "वेगवेगळ्या": 4033,
      "मां": 4034,
      "##सेस": 4035,
      "विषाणू": 4036,
      "संशय": 4037,
      "सूत्र": 4038,
      "काग": 4039,
      "पडला": 4040,
      "गुजरात": 4041,
      "##ॉप": 4042,
      "भीती": 4043,
      "सुमारास": 4044,
      "अली": 4045,
      "##झिट": 4046,
      "वाय": 4047,
      "##ांसह": 4048,
      "सुश": 4049,
      "देण्याची": 4050,
      "पूर्वी": 4051,
      "नव्हता": 4052,
      "##फोन": 4053,
      "आश": 4054,
      "कर्ण": 4055,
      "भारतातील": 4056,
      "जमा": 4057,
      "बाप": 4058,
      "##वित": 4059,
      "घालून": 4060,
      "हिंदु": 4061,
      "पोलिसांना": 4062,
      "पहिली": 4063,
      "किर": 4064,
      "दल": 4065,
      "##वेल": 4066,
      "फस": 4067,
      "गायक": 4068,
      "धावा": 4069,
      "##प्पा": 4070,
      "बाळासाहेब": 4071,
      "##श्वर": 4072,
      "थोड": 4073,
      "##ांती": 4074,
      "फ्ल": 4075,
      "##लापूर": 4076,
      "याच्या": 4077,
      "कामे": 4078,
      "पती": 4079,
      "स्वात": 4080,
      "##ोरे": 4081,
      "##इल": 4082,
      "निम": 4083,
      "बाजारात": 4084,
      "गॅ": 4085,
      "पं": 4086,
      "सांगत": 4087,
      "लोकांनी": 4088,
      "पंच": 4089,
      "त्यांच्यावर": 4090,
      "कै": 4091,
      "##खंड": 4092,
      "करु": 4093,
      "प्रिय": 4094,
      "##काय": 4095,
      "सुनाव": 4096,
      "##कुमार": 4097,
      "स्वातंत्र": 4098,
      "##षे": 4099,
      "बसला": 4100,
      "सोडून": 4101,
      "##बाज": 4102,
      "##ांपर्यंत": 4103,
      "असू": 4104,
      "मुद्दा": 4105,
      "कल्याण": 4106,
      "द्याय": 4107,
      "उपयोग": 4108,
      "राजकारण": 4109,
      "##षक": 4110,
      "##वेदन": 4111,
      "फेस": 4112,
      "कोणताही": 4113,
      "व्यावसाय": 4114,
      "’,": 4115,
      "##ृत्ती": 4116,
      "शनिवारी": 4117,
      "अर्ध": 4118,
      "मूल": 4119,
      "##वेत": 4120,
      "##तू": 4121,
      "##इट": 4122,
      "ली": 4123,
      "##ाता": 4124,
      "प्रकारे": 4125,
      "मुस्": 4126,
      "चढ": 4127,
      "तिचा": 4128,
      "शर्मा": 4129,
      "##हाण": 4130,
      "सगळे": 4131,
      "वाग": 4132,
      "##व्र": 4133,
      "निकाल": 4134,
      "याने": 4135,
      "##ायचा": 4136,
      "व्यवस्था": 4137,
      "भारताच्या": 4138,
      "अर": 4139,
      "सर्वच": 4140,
      "गुरुवारी": 4141,
      "दू": 4142,
      "अभिय": 4143,
      "##वर्षी": 4144,
      "अडक": 4145,
      "टिक": 4146,
      "दृ": 4147,
      "##वती": 4148,
      "##पत": 4149,
      "येणाऱ्या": 4150,
      "स्वयं": 4151,
      "उभे": 4152,
      "पालिके": 4153,
      "##िकास": 4154,
      "##ळाच्या": 4155,
      "आयपीएल": 4156,
      "दिवसांपूर्वी": 4157,
      "उत्पाद": 4158,
      "13": 4159,
      "अल्प": 4160,
      "संख्य": 4161,
      "बच": 4162,
      "हाय": 4163,
      "##सू": 4164,
      "##र्जा": 4165,
      "मुलगी": 4166,
      "##en": 4167,
      "रोहित": 4168,
      "घटक": 4169,
      "व्यवहार": 4170,
      "वरिष्ठ": 4171,
      "पकड": 4172,
      "दुसरा": 4173,
      "विद्यार्थ्यांना": 4174,
      "दुसरीकडे": 4175,
      "अजूनही": 4176,
      "इच्छा": 4177,
      "घेण्यासाठी": 4178,
      "माझे": 4179,
      "लोकप्रिय": 4180,
      "##ंमध्ये": 4181,
      "##संख्या": 4182,
      "स्टेशन": 4183,
      "पंज": 4184,
      "##ad": 4185,
      "##ल्ल": 4186,
      "व्हायरस": 4187,
      "अभिनेता": 4188,
      "इंटर": 4189,
      "##ंगा": 4190,
      "मुद": 4191,
      "देणे": 4192,
      "सांगण्यात": 4193,
      "##++++": 4194,
      "साडे": 4195,
      "काहीही": 4196,
      "##लीत": 4197,
      "पोह": 4198,
      ".’": 4199,
      "गाय": 4200,
      "निर": 4201,
      "पाठि": 4202,
      "महत्त्व": 4203,
      "पृ": 4204,
      "पहा": 4205,
      "##बाधित": 4206,
      "दला": 4207,
      "नकार": 4208,
      "२२": 4209,
      "##मार्": 4210,
      "संस्": 4211,
      "भेटी": 4212,
      "राहील": 4213,
      "आलेले": 4214,
      "मुलांना": 4215,
      "धक्कादायक": 4216,
      "##कारक": 4217,
      "पुण्या": 4218,
      "कंट": 4219,
      "##ंधी": 4220,
      "रोड": 4221,
      "स्त्र": 4222,
      "##विण्यासाठी": 4223,
      "##िमंड": 4224,
      "किमान": 4225,
      "आढळून": 4226,
      "सचिव": 4227,
      "मास": 4228,
      "२१": 4229,
      "##देशीर": 4230,
      "काश्मीर": 4231,
      "मर्या": 4232,
      "नारायण": 4233,
      "मिळते": 4234,
      "पुस्तक": 4235,
      "##जण": 4236,
      "प्रो": 4237,
      "##क्षेत": 4238,
      "जिल्हाधिकारी": 4239,
      "बाय": 4240,
      "मानसिक": 4241,
      "संरक्षण": 4242,
      "उल्लेख": 4243,
      "मोह": 4244,
      "जाती": 4245,
      "लांब": 4246,
      "कोरोनाचा": 4247,
      "प्रयोग": 4248,
      "महानगर": 4249,
      "16": 4250,
      "##चाल": 4251,
      "संभ": 4252,
      "दुख": 4253,
      "##पुढे": 4254,
      "स्म": 4255,
      "लसीकरण": 4256,
      "फुल": 4257,
      "ग्रामपंचाय": 4258,
      "हिं": 4259,
      "##ासम": 4260,
      "200": 4261,
      "हल": 4262,
      "##ल्याची": 4263,
      "हॉस्प": 4264,
      "वार्": 4265,
      "##सिंग": 4266,
      "साठी": 4267,
      "##बाई": 4268,
      "व्ही": 4269,
      "मतदारसंघ": 4270,
      "##व्हर": 4271,
      "पडली": 4272,
      "##वीर": 4273,
      "....": 4274,
      "असणाऱ्या": 4275,
      "उदाह": 4276,
      "हवी": 4277,
      "##बंदी": 4278,
      "विराट": 4279,
      "##शाही": 4280,
      "तक्रारी": 4281,
      "##श्री": 4282,
      "##लेट": 4283,
      "सोह": 4284,
      "अन्": 4285,
      "आगामी": 4286,
      "##ेवर": 4287,
      "वाघ": 4288,
      "हाती": 4289,
      "पहिल्यांदा": 4290,
      "##लेज": 4291,
      "##याची": 4292,
      "पाहता": 4293,
      "झाल्याचे": 4294,
      "निर्देश": 4295,
      "करणा": 4296,
      "याव": 4297,
      "प्रसार": 4298,
      "##ल्पा": 4299,
      "##ाऱ्या": 4300,
      "बर": 4301,
      "असंही": 4302,
      "अशोक": 4303,
      "##णासाठी": 4304,
      "घेणे": 4305,
      "हातात": 4306,
      "सुनावणी": 4307,
      "असली": 4308,
      "होतील": 4309,
      "तुलने": 4310,
      "तीव्र": 4311,
      "स्वतंत्र": 4312,
      "चिंता": 4313,
      "राव": 4314,
      "सिनेम": 4315,
      ".\"": 4316,
      "मिर": 4317,
      "यू": 4318,
      "पुण्यात": 4319,
      "शत": 4320,
      "झाड": 4321,
      "बाधित": 4322,
      "टॅ": 4323,
      "##ेटा": 4324,
      "पंजाब": 4325,
      "धार": 4326,
      "कल्पना": 4327,
      "केल्याने": 4328,
      "उलट": 4329,
      "पिक": 4330,
      "##ुष": 4331,
      "अपेक्षा": 4332,
      "##ेतील": 4333,
      "##ावून": 4334,
      "हेच": 4335,
      "प्रतिसाद": 4336,
      "हिर": 4337,
      "##िकासा": 4338,
      "व्यावसायिक": 4339,
      "उम": 4340,
      "शेतकऱ्यांना": 4341,
      "तातडीने": 4342,
      "पास": 4343,
      "##मीटर": 4344,
      "असल्यास": 4345,
      "दररोज": 4346,
      "राज्यपाल": 4347,
      "नियंत्रण": 4348,
      "असत": 4349,
      "याशिवाय": 4350,
      "भाऊ": 4351,
      "अल": 4352,
      "##साह": 4353,
      "स्थापन": 4354,
      "अनेकदा": 4355,
      "##ैरे": 4356,
      "##ानुसार": 4357,
      "##र्जी": 4358,
      "##नील": 4359,
      "वेळे": 4360,
      "##सीबी": 4361,
      "महाराष्ट्रातील": 4362,
      "आक्रम": 4363,
      "##ापूर": 4364,
      "मार्क": 4365,
      "##ज्ज्ञ": 4366,
      "डा": 4367,
      "धा": 4368,
      "कोरोनाची": 4369,
      "##सभ": 4370,
      "##दू": 4371,
      "स्तर": 4372,
      "सगळ": 4373,
      "स्पर्धा": 4374,
      "सवाल": 4375,
      "हु": 4376,
      "पराभव": 4377,
      "कर्णधार": 4378,
      "येतील": 4379,
      "##िस्ट": 4380,
      "##कालीन": 4381,
      "कौतुक": 4382,
      "जुन": 4383,
      "ठेवण्यात": 4384,
      "बाजूला": 4385,
      "नेट": 4386,
      "##करिता": 4387,
      "आजही": 4388,
      "लावून": 4389,
      "प्रकरणा": 4390,
      "चो": 4391,
      "##ापासून": 4392,
      "दिवसात": 4393,
      "डाव": 4394,
      "##ेची": 4395,
      "##खान": 4396,
      "संस": 4397,
      "##ेश्वर": 4398,
      "दाखव": 4399,
      "सेल": 4400,
      "हृ": 4401,
      "त्यातील": 4402,
      "दंड": 4403,
      "नसेल": 4404,
      "##कारी": 4405,
      "##पूर्व": 4406,
      "इतकी": 4407,
      "ट्विटर": 4408,
      "गम": 4409,
      "##ंडर": 4410,
      "नेहमीच": 4411,
      "मते": 4412,
      "नसल्याचे": 4413,
      "##ॉय": 4414,
      "##फ्ट": 4415,
      "साखर": 4416,
      "भाजपच्या": 4417,
      "रुपयांची": 4418,
      "मृतदे": 4419,
      "चाहत": 4420,
      "अका": 4421,
      "४०": 4422,
      "कागद": 4423,
      "##फ्र": 4424,
      "विवाह": 4425,
      "##दास": 4426,
      "पडले": 4427,
      "इंग्र": 4428,
      "17": 4429,
      "प्ला": 4430,
      "पाळ": 4431,
      "##====": 4432,
      "भोस": 4433,
      "शासकीय": 4434,
      "काप": 4435,
      "सुपर": 4436,
      "महे": 4437,
      "आलेली": 4438,
      "##त्याने": 4439,
      "पुरवठा": 4440,
      "एसटी": 4441,
      "##ऐवजी": 4442,
      "##ण्याचं": 4443,
      "म्हणूनच": 4444,
      "साकार": 4445,
      "दिलासा": 4446,
      "तात्": 4447,
      "##राने": 4448,
      "क्": 4449,
      "करेल": 4450,
      "संचालक": 4451,
      "##ज्ञा": 4452,
      "घ्यावी": 4453,
      "जवान": 4454,
      "स्पर्धेत": 4455,
      "##फे": 4456,
      "परिस्थितीत": 4457,
      "##ध्द": 4458,
      "युद्ध": 4459,
      "हॉस्पिटल": 4460,
      "##तु": 4461,
      "परिसरातील": 4462,
      "महाविकास": 4463,
      "उत्पन्न": 4464,
      "विना": 4465,
      "लागतो": 4466,
      "गाठ": 4467,
      "विभागाने": 4468,
      "कॉल": 4469,
      "एल": 4470,
      "##क्ता": 4471,
      "भागातील": 4472,
      "अथवा": 4473,
      "अंध": 4474,
      "जप": 4475,
      "बळी": 4476,
      "याप्रकरणी": 4477,
      "दुष्": 4478,
      "तिथ": 4479,
      "राहिले": 4480,
      "##ार्‍य": 4481,
      "दूध": 4482,
      "##चाकी": 4483,
      "मारहाण": 4484,
      "तापमान": 4485,
      "ऑक्": 4486,
      "##ळव": 4487,
      "पार्टी": 4488,
      "जणांना": 4489,
      "##उन": 4490,
      "##ल्क": 4491,
      "##बुक": 4492,
      "हेही": 4493,
      "##ात्कार": 4494,
      "इमारती": 4495,
      "##ंदाजी": 4496,
      "ठेवले": 4497,
      "##ोली": 4498,
      "##घर": 4499,
      "##ेवारी": 4500,
      "बाद": 4501,
      "##थमिक": 4502,
      "प्रती": 4503,
      "संध्या": 4504,
      "केलेला": 4505,
      "कोणते": 4506,
      "कशा": 4507,
      "खरा": 4508,
      "##फर": 4509,
      "पालन": 4510,
      "मीडिया": 4511,
      "अपे": 4512,
      "बरोबर": 4513,
      "##संब": 4514,
      "##चित्र": 4515,
      "##ायको": 4516,
      "सन": 4517,
      "##णाचे": 4518,
      "सोलापूर": 4519,
      "देताना": 4520,
      "अंमल": 4521,
      "एअर": 4522,
      "कपूर": 4523,
      "धन": 4524,
      "श्रे": 4525,
      "##डीत": 4526,
      "सहाय": 4527,
      "सेंटर": 4528,
      "पूर्णपणे": 4529,
      "बरेच": 4530,
      "बाबतीत": 4531,
      "भाषा": 4532,
      "करणं": 4533,
      "##वरुन": 4534,
      "एकच": 4535,
      "आजच्या": 4536,
      "प्राथमिक": 4537,
      "कुठल्या": 4538,
      "महत्त्वाचे": 4539,
      "##ठ्": 4540,
      "दिवाळी": 4541,
      "धोरण": 4542,
      "ऑस्ट्रेलिया": 4543,
      "##दारा": 4544,
      "काहीच": 4545,
      "##वय": 4546,
      "##it": 4547,
      "घसर": 4548,
      "पाठिंबा": 4549,
      "टि": 4550,
      "नंबर": 4551,
      "विकासा": 4552,
      "महिन्या": 4553,
      "खळ": 4554,
      "##ांपैकी": 4555,
      "उमेदवारी": 4556,
      "बारा": 4557,
      "सत्य": 4558,
      "नवे": 4559,
      "सन्": 4560,
      "##ुनिक": 4561,
      "महापौर": 4562,
      "धोनी": 4563,
      "##ेडकर": 4564,
      "चर्चेत": 4565,
      "उडा": 4566,
      "त्यामध्ये": 4567,
      "राजीनामा": 4568,
      "रह": 4569,
      "रूग्ण": 4570,
      "अण": 4571,
      "##षा": 4572,
      "##दय": 4573,
      "##ाहिर": 4574,
      "##मुळं": 4575,
      "कर्मचाऱ्यां": 4576,
      "##वता": 4577,
      "##एन": 4578,
      "##बार": 4579,
      "होणे": 4580,
      "उपस्थिती": 4581,
      "चांगल्या": 4582,
      "स्वप्न": 4583,
      "साधला": 4584,
      "##सिं": 4585,
      "प्रभाव": 4586,
      "जळगाव": 4587,
      "##नेट": 4588,
      "आंबेडकर": 4589,
      "##ामध्ये": 4590,
      "संघर्ष": 4591,
      "मानले": 4592,
      "आकर्": 4593,
      "देण्याचा": 4594,
      "कोह": 4595,
      "##म्ब": 4596,
      "मराठ": 4597,
      "महिन्यां": 4598,
      "कर्ना": 4599,
      "22": 4600,
      "##हू": 4601,
      "मास्क": 4602,
      "घेणार": 4603,
      "नियोजन": 4604,
      "तशी": 4605,
      "##ित्या": 4606,
      "नाय": 4607,
      "दिसते": 4608,
      "कॅमे": 4609,
      "चंद्रकांत": 4610,
      "2020": 4611,
      "##क्षी": 4612,
      "शेख": 4613,
      "तित": 4614,
      "याद": 4615,
      "आयोजन": 4616,
      "बलात्कार": 4617,
      "जातं": 4618,
      "माणसा": 4619,
      "शरीर": 4620,
      "नाम": 4621,
      "राज्याचे": 4622,
      "विकेट": 4623,
      "क्षेत्रातील": 4624,
      "कट": 4625,
      "##पथ": 4626,
      "प्रचार": 4627,
      "वाईट": 4628,
      "##रोप": 4629,
      "इतके": 4630,
      "##झिटिव्ह": 4631,
      "21": 4632,
      "प्रदर्श": 4633,
      "दोघे": 4634,
      "गरजेचे": 4635,
      "संदर्भात": 4636,
      "##न्ह": 4637,
      "सोन्या": 4638,
      "निरीक्षक": 4639,
      "लगे": 4640,
      "सै": 4641,
      "##ंसाठी": 4642,
      "तिची": 4643,
      "वडील": 4644,
      "##राजे": 4645,
      "जारी": 4646,
      "##चक": 4647,
      "##स्टर": 4648,
      "दिवसांत": 4649,
      "मदती": 4650,
      "वगैरे": 4651,
      "डाय": 4652,
      "बजाव": 4653,
      "भग": 4654,
      "सर्वांना": 4655,
      "##मेल": 4656,
      "केल्यास": 4657,
      "##ित्ताने": 4658,
      "2021": 4659,
      "आस": 4660,
      "असला": 4661,
      "##ासमोर": 4662,
      "##स्कर": 4663,
      "सोप": 4664,
      "##वाचा": 4665,
      "संपा": 4666,
      "मल": 4667,
      "संगीत": 4668,
      "शेवटी": 4669,
      "हट": 4670,
      "##ुत": 4671,
      "विद्य": 4672,
      "नाटक": 4673,
      "##्यातून": 4674,
      "##सीसी": 4675,
      "त्व": 4676,
      "##ांमधील": 4677,
      "यांच्यासह": 4678,
      "त्याचबरोबर": 4679,
      "##ेन": 4680,
      "विनो": 4681,
      "भाजपने": 4682,
      "चेंड": 4683,
      "##नास": 4684,
      "साधारण": 4685,
      "आरक्ष": 4686,
      "जाहिर": 4687,
      "बनव": 4688,
      "मृतदेह": 4689,
      "लगेच": 4690,
      "नावे": 4691,
      "संद": 4692,
      "##ळावर": 4693,
      "दिशे": 4694,
      "मंजूर": 4695,
      "चोरी": 4696,
      "प्रसंग": 4697,
      "निघा": 4698,
      "##ic": 4699,
      "नागरिकांनी": 4700,
      "प्रशासनाने": 4701,
      "किम": 4702,
      "गौ": 4703,
      "उपक्रम": 4704,
      "दिल्लीत": 4705,
      "तरुणी": 4706,
      "##श्‍": 4707,
      "##परि": 4708,
      "भारताने": 4709,
      "तेथ": 4710,
      "ठिकाण": 4711,
      "अख": 4712,
      "बऱ्या": 4713,
      "##ाप्र": 4714,
      "##पटू": 4715,
      "टेस्ट": 4716,
      "सहकारी": 4717,
      "सायं": 4718,
      "##याला": 4719,
      "मुलाख": 4720,
      "##ारे": 4721,
      "म्हणाला": 4722,
      "१००": 4723,
      "कोकण": 4724,
      "लष्": 4725,
      "##लेश": 4726,
      "पर्यावर": 4727,
      "दीड": 4728,
      "स्वरूप": 4729,
      "ओढ": 4730,
      "भ्र": 4731,
      "##ंथ": 4732,
      "##कांच्या": 4733,
      "##ंतर्गत": 4734,
      "विनं": 4735,
      "ब्रिट": 4736,
      "तुलनेत": 4737,
      "रवी": 4738,
      "रूप": 4739,
      "रस्ता": 4740,
      "शक्ती": 4741,
      "##्यो": 4742,
      "##मुख्य": 4743,
      "कॉलेज": 4744,
      "बाग": 4745,
      "##निम": 4746,
      "निष्": 4747,
      "पुरे": 4748,
      "उपचारा": 4749,
      "ठेवून": 4750,
      "हिंदी": 4751,
      "मंडळी": 4752,
      "महामार्ग": 4753,
      "पोहच": 4754,
      "कर्नाटक": 4755,
      "विनंती": 4756,
      "जरी": 4757,
      "##ेट्टी": 4758,
      "फेसबुक": 4759,
      "अवलंब": 4760,
      "जोडी": 4761,
      "आदि": 4762,
      "जंग": 4763,
      "जमीन": 4764,
      "छत्र": 4765,
      "##याचा": 4766,
      "मालिके": 4767,
      "##मागे": 4768,
      "मोर्चा": 4769,
      "संकेत": 4770,
      "##ाविषयी": 4771,
      "छाप": 4772,
      "न्या": 4773,
      "दिन": 4774,
      "आश्वास": 4775,
      "इंद": 4776,
      "##वर्ध": 4777,
      "##ांपेक्षा": 4778,
      "यांच्यात": 4779,
      "मालिका": 4780,
      "हाल": 4781,
      "हिवा": 4782,
      "शाळे": 4783,
      "##सिजन": 4784,
      "दुर्ल": 4785,
      "आकड": 4786,
      "सुशांत": 4787,
      "अट": 4788,
      "##त्रिक": 4789,
      "फटका": 4790,
      "उपमुख्य": 4791,
      "लोकांच्या": 4792,
      "पॉझिटिव्ह": 4793,
      "क्री": 4794,
      "युन": 4795,
      "##फार": 4796,
      "मोक": 4797,
      "प्रकारच्या": 4798,
      "पान": 4799,
      "##दुर्भ": 4800,
      "हस्ते": 4801,
      "##लिम": 4802,
      "##षिक": 4803,
      "सुख": 4804,
      "साथ": 4805,
      "राजस्थान": 4806,
      "कार्यकर्ते": 4807,
      "रुप": 4808,
      "वारं": 4809,
      "गायकवाड": 4810,
      "समुद्र": 4811,
      "कच": 4812,
      "डिझेल": 4813,
      "जावे": 4814,
      "##बजाव": 4815,
      "तिचे": 4816,
      "प्रादुर्भ": 4817,
      "उदय": 4818,
      "अतिरिक्त": 4819,
      "प्रशासन": 4820,
      "मेट्र": 4821,
      "##ळकर": 4822,
      "कोसळ": 4823,
      "मोज": 4824,
      "दरवा": 4825,
      "कोहली": 4826,
      "तुला": 4827,
      "विक्र": 4828,
      "नितीन": 4829,
      "##बजावणी": 4830,
      "तसा": 4831,
      "##ज्ज": 4832,
      "अधिव": 4833,
      "पृथ": 4834,
      "##सिंह": 4835,
      "जप्त": 4836,
      "भि": 4837,
      "##णाव": 4838,
      "नाकार": 4839,
      "टीव्ही": 4840,
      "आल्यानंतर": 4841,
      "दृष्टीने": 4842,
      "वारंवार": 4843,
      "इं": 4844,
      "##ल्याचा": 4845,
      "##तः": 4846,
      "##विला": 4847,
      "राष्ट्रवादीचे": 4848,
      "याचिका": 4849,
      "नोंदणी": 4850,
      "##ठीण": 4851,
      "वर्षांपासून": 4852,
      "जुन्या": 4853,
      "##सो": 4854,
      "##निक": 4855,
      "##नल": 4856,
      "लोकल": 4857,
      "खाल": 4858,
      "गाज": 4859,
      "विसर": 4860,
      "##विता": 4861,
      "इले": 4862,
      "##प्रमुख": 4863,
      "संघटन": 4864,
      "लागण": 4865,
      "भाजपला": 4866,
      "नातेवाई": 4867,
      "##कॉ": 4868,
      "##वण्याचा": 4869,
      "##ांतील": 4870,
      "##ोटा": 4871,
      "##क्षणिक": 4872,
      "खळबळ": 4873,
      "कठीण": 4874,
      "रम": 4875,
      "##ांश": 4876,
      "##as": 4877,
      "फिर्या": 4878,
      "##तार": 4879,
      "##सर्गिक": 4880,
      "आयुष्य": 4881,
      "##ांसोबत": 4882,
      "कलम": 4883,
      "ब्रे": 4884,
      "##तोय": 4885,
      "##क्रिय": 4886,
      "झाल्यावर": 4887,
      "करणारा": 4888,
      "मंत्रिमंड": 4889,
      "तह": 4890,
      "जाता": 4891,
      "यांच्याकडे": 4892,
      "जगातील": 4893,
      "##डर": 4894,
      "प्रतिबंध": 4895,
      "ठेवा": 4896,
      "धरण": 4897,
      "२६": 4898,
      "##नेते": 4899,
      "संयुक्त": 4900,
      "तेवढ": 4901,
      "दुचाकी": 4902,
      "जाणाऱ्या": 4903,
      "सिंध": 4904,
      "बंगाल": 4905,
      "##घे": 4906,
      "सुनील": 4907,
      "##धिका": 4908,
      "निवडून": 4909,
      "श्": 4910,
      "महास": 4911,
      "##भरातील": 4912,
      "करायचे": 4913,
      "आदित्य": 4914,
      "दब": 4915,
      "##र्‍य": 4916,
      "##नीय": 4917,
      "##ार्ज": 4918,
      "कंपनीने": 4919,
      "पद्धती": 4920,
      "##धुनिक": 4921,
      "युती": 4922,
      "माणूस": 4923,
      "वक": 4924,
      "सत्त": 4925,
      "##डित": 4926,
      "युवा": 4927,
      "आवश्यकता": 4928,
      ".”": 4929,
      "चित्रपटात": 4930,
      "वेबसा": 4931,
      "ऑक्सिजन": 4932,
      "पृथ्वी": 4933,
      "##ूळ": 4934,
      "अस्त": 4935,
      "महिने": 4936,
      "##मिता": 4937,
      "बिहार": 4938,
      "अधिकाऱ्यां": 4939,
      "महापालिकेच्या": 4940,
      "खि": 4941,
      "##गल": 4942,
      "आपलं": 4943,
      "निर्बंध": 4944,
      "अँ": 4945,
      "तळ": 4946,
      "देख": 4947,
      "शिक्षा": 4948,
      "##माला": 4949,
      "##संक": 4950,
      "यातील": 4951,
      "##दै": 4952,
      "आलेला": 4953,
      "पाकिस्ता": 4954,
      "##साई": 4955,
      "##र्जन": 4956,
      "स्टार": 4957,
      "करार": 4958,
      "इतका": 4959,
      "##ष्टा": 4960,
      "गुला": 4961,
      "झाल्यास": 4962,
      "##मूद": 4963,
      "##रिका": 4964,
      "दुरु": 4965,
      "##ऱ्यावर": 4966,
      "भाजी": 4967,
      "सुरुवातीला": 4968,
      "घटनास्थ": 4969,
      "अंमलबजावणी": 4970,
      "##कत": 4971,
      "मिळवून": 4972,
      "##सभेत": 4973,
      "२८": 4974,
      "##मंत": 4975,
      "##झील": 4976,
      "संब": 4977,
      "भरपूर": 4978,
      "छान": 4979,
      "##बीसी": 4980,
      "जगात": 4981,
      "पक्षाच्या": 4982,
      "करायची": 4983,
      "प्रक्रिय": 4984,
      "मॉड": 4985,
      "अधिकृत": 4986,
      "नसून": 4987,
      "आफ्र": 4988,
      "चक": 4989,
      "##ंपर": 4990,
      "##ापती": 4991,
      "व्यवसा": 4992,
      "रिपोर्ट": 4993,
      "ट्रेन": 4994,
      "छत्रपती": 4995,
      "दश": 4996,
      "वजन": 4997,
      "##मकी": 4998,
      "##पाळ": 4999,
      "संशोधन": 5000,
      "हळू": 5001,
      "बाकी": 5002,
      "पडत": 5003,
      ".....": 5004,
      "आल्याने": 5005,
      "ऑफिस": 5006,
      "शैक्षणिक": 5007,
      "##क्षम": 5008,
      "वाढली": 5009,
      "काँग्रेसच्या": 5010,
      "राग": 5011,
      "विस्त": 5012,
      "##पाठ": 5013,
      "जोशी": 5014,
      "इत्या": 5015,
      "एफ": 5016,
      "रस्ते": 5017,
      "##द्यावर": 5018,
      "पाहिले": 5019,
      "निवडणुकीच्या": 5020,
      "पक्षाचे": 5021,
      "पटेल": 5022,
      "शासनाने": 5023,
      "तिसऱ्या": 5024,
      "खुला": 5025,
      "निषे": 5026,
      "नक्कीच": 5027,
      "यादव": 5028,
      "हॅ": 5029,
      "##मर": 5030,
      "पूर": 5031,
      "देतात": 5032,
      "विमानत": 5033,
      "##ोस": 5034,
      "##प्री": 5035,
      "##ठिक": 5036,
      "मोहि": 5037,
      "नसते": 5038,
      "वेगळे": 5039,
      "##कृत": 5040,
      "आधीच": 5041,
      "अर्": 5042,
      "##ावली": 5043,
      "पेक्षा": 5044,
      "##ार्ड": 5045,
      "राष्ट्रपती": 5046,
      "मुस्लिम": 5047,
      "उर्": 5048,
      "##वणी": 5049,
      "##पट्टी": 5050,
      "##च्छा": 5051,
      "मान्यता": 5052,
      "कडक": 5053,
      "सदर": 5054,
      "##ेतून": 5055,
      "लाट": 5056,
      "असतानाच": 5057,
      "मुद्दे": 5058,
      "23": 5059,
      "##शु": 5060,
      "##्यासाठी": 5061,
      "##वाना": 5062,
      "##वायला": 5063,
      "सायंकाळी": 5064,
      "फोड": 5065,
      "##ांडे": 5066,
      "##ासरी": 5067,
      "##काची": 5068,
      "मुले": 5069,
      "पार्क": 5070,
      "एच": 5071,
      "चॅ": 5072,
      "हल्ल्या": 5073,
      "२७": 5074,
      "पहिले": 5075,
      "इन्स्ट": 5076,
      "वक्तव्य": 5077,
      "आशा": 5078,
      "##मंड": 5079,
      "##ातच": 5080,
      "दरवर्षी": 5081,
      "चेन्न": 5082,
      "मार्केट": 5083,
      "नवर": 5084,
      "##जीव": 5085,
      "स्वातंत्र्य": 5086,
      "दखल": 5087,
      "कोणाला": 5088,
      "##रेल": 5089,
      "डोंग": 5090,
      "सातारा": 5091,
      "सावंत": 5092,
      "कालावधीत": 5093,
      "##पंच": 5094,
      "##विली": 5095,
      "राजेश": 5096,
      "तालुका": 5097,
      "थंड": 5098,
      "रत्": 5099,
      "##यू": 5100,
      "##ंदन": 5101,
      "२३": 5102,
      "##गृह": 5103,
      "##ाया": 5104,
      "आढावा": 5105,
      "नैसर्गिक": 5106,
      "##यला": 5107,
      "100": 5108,
      "घाला": 5109,
      "बांग": 5110,
      "बहि": 5111,
      "लु": 5112,
      "शाख": 5113,
      "##देव": 5114,
      "निरा": 5115,
      "बीड": 5116,
      "कपडे": 5117,
      "चिक": 5118,
      "अस्": 5119,
      "सातत्याने": 5120,
      "जाणी": 5121,
      "सकार": 5122,
      "आठवड्यात": 5123,
      "पीडित": 5124,
      "दहशतवादी": 5125,
      "उपमुख्यमंत्री": 5126,
      "वर्षांपूर्वी": 5127,
      "##ंती": 5128,
      "शकेल": 5129,
      "गोंध": 5130,
      "प्रदेशाध्यक्ष": 5131,
      "इंग्रजी": 5132,
      "३१": 5133,
      "मुक्त": 5134,
      "समजून": 5135,
      "अग्": 5136,
      "झाल्याची": 5137,
      "##शनल": 5138,
      "मैदान": 5139,
      "अक्षय": 5140,
      "आक्रमक": 5141,
      "एक्": 5142,
      "जिव": 5143,
      "सलमान": 5144,
      "चेन्नई": 5145,
      "40": 5146,
      "##क्य": 5147,
      "##न्ट": 5148,
      "रुपयांचा": 5149,
      "स्मार्टफोन": 5150,
      "नमूद": 5151,
      "##झर": 5152,
      "प्राण": 5153,
      "इंज": 5154,
      "सभाग": 5155,
      "देशाच्या": 5156,
      "फलंदाज": 5157,
      "26": 5158,
      "पह": 5159,
      "शस्त्र": 5160,
      "##घट": 5161,
      "बऱ्याच": 5162,
      "धर्मा": 5163,
      "##्यांसाठी": 5164,
      "##ार्मिक": 5165,
      "कोरोनाबाधित": 5166,
      "जागी": 5167,
      "सन्मान": 5168,
      "द्र": 5169,
      "कदा": 5170,
      "नां": 5171,
      "##धारी": 5172,
      "##लास": 5173,
      "हजारो": 5174,
      "##भाष": 5175,
      "निषेध": 5176,
      "अँड": 5177,
      "गावा": 5178,
      "नाट": 5179,
      "##कृष्ट": 5180,
      "##तेचा": 5181,
      "घेतल्या": 5182,
      "मिळू": 5183,
      "जणांचा": 5184,
      "कधीही": 5185,
      "कर्त": 5186,
      "##टीस": 5187,
      "##सारखी": 5188,
      "अर्थसंक": 5189,
      "संदेश": 5190,
      "सकारात्मक": 5191,
      "कथा": 5192,
      "दम": 5193,
      "हस्त": 5194,
      "महामंड": 5195,
      "##हीम": 5196,
      "करतील": 5197,
      "सुरूवात": 5198,
      "क्षमता": 5199,
      "डोस": 5200,
      "2019": 5201,
      "कठ": 5202,
      "मध्यम": 5203,
      "यातून": 5204,
      "##दरा": 5205,
      "निवडणुक": 5206,
      "शिवसेनेचे": 5207,
      "महत्त्वाची": 5208,
      "इत्यादी": 5209,
      "अवि": 5210,
      "##ंता": 5211,
      "निवेदन": 5212,
      "करायचा": 5213,
      "जाणीव": 5214,
      "जित": 5215,
      "##गती": 5216,
      "तुट": 5217,
      "येथून": 5218,
      "##प्स": 5219,
      "सीबीआय": 5220,
      "दुर्लक्ष": 5221,
      "धार्मिक": 5222,
      "##ऱ्यात": 5223,
      "रूपय": 5224,
      "उद्देश": 5225,
      "कंग": 5226,
      "गर्भ": 5227,
      "##ra": 5228,
      "मीटर": 5229,
      "##प्ता": 5230,
      "उर": 5231,
      "ठरला": 5232,
      "एक्स": 5233,
      "रिक्ष": 5234,
      "पोलीसनामा": 5235,
      "बेड": 5236,
      "संभाजी": 5237,
      "आदिवासी": 5238,
      "##ारंभ": 5239,
      "विदर्": 5240,
      "संस्कृती": 5241,
      "मेट्रो": 5242,
      "बरा": 5243,
      "##ळत": 5244,
      "##ावले": 5245,
      "सांगली": 5246,
      "वाटतं": 5247,
      "छोट्या": 5248,
      "सूर्य": 5249,
      "आकडेवारी": 5250,
      "##नच्या": 5251,
      "##वंत": 5252,
      "##स्तर": 5253,
      "प्रकारचे": 5254,
      "१९९": 5255,
      "##पुरवठा": 5256,
      "तज्ज्ञ": 5257,
      "##र्षी": 5258,
      "##ावत": 5259,
      "त्याचं": 5260,
      "म्हणणे": 5261,
      "बिग": 5262,
      "मैदा": 5263,
      "फरक": 5264,
      "##ाखाली": 5265,
      "##पाई": 5266,
      "##संख्य": 5267,
      "##्मी": 5268,
      "यांचं": 5269,
      "##ालो": 5270,
      "तालुक्यात": 5271,
      "कार्यक्रमात": 5272,
      "शरीरा": 5273,
      "वगळ": 5274,
      "कदाचित": 5275,
      "मलिक": 5276,
      "##अल": 5277,
      "##णाने": 5278,
      "नियमित": 5279,
      "दारू": 5280,
      "अफग": 5281,
      "महानगरपाल": 5282,
      "##योज": 5283,
      "##बाजी": 5284,
      "निसर्ग": 5285,
      "मोड": 5286,
      "रुग्णांना": 5287,
      "विक्रम": 5288,
      "विभागाच्या": 5289,
      "##सित": 5290,
      "##वाने": 5291,
      "देता": 5292,
      "##मुक्त": 5293,
      "भारताला": 5294,
      "चुक": 5295,
      "सण": 5296,
      "##ड्": 5297,
      "साथी": 5298,
      "अर्थव्यव": 5299,
      "नी": 5300,
      "##ेच": 5301,
      "कार्यालयात": 5302,
      "२०२०": 5303,
      "अय": 5304,
      "मोफत": 5305,
      "##ुरू": 5306,
      "फेरी": 5307,
      "इन": 5308,
      "कोठ": 5309,
      "##स्थेत": 5310,
      "काहीतरी": 5311,
      "वाढी": 5312,
      "सलग": 5313,
      "बाबासाहेब": 5314,
      "##ासोबत": 5315,
      "पाठी": 5316,
      "व्याज": 5317,
      "पातळीवर": 5318,
      "नऊ": 5319,
      "तेच": 5320,
      "द्यावी": 5321,
      "##यीन": 5322,
      "शाळेत": 5323,
      "##ठिकाणी": 5324,
      "वाढदिव": 5325,
      "शहा": 5326,
      "नागरी": 5327,
      "लाखो": 5328,
      "गावातील": 5329,
      "यंत्रणा": 5330,
      "संध्याकाळी": 5331,
      "31": 5332,
      "मना": 5333,
      "पूजा": 5334,
      "गाड": 5335,
      "संघटना": 5336,
      "प्रवासी": 5337,
      "##क्षेप": 5338,
      "स्वागत": 5339,
      "कमा": 5340,
      "सर्वे": 5341,
      "मिळून": 5342,
      "थोर": 5343,
      "##is": 5344,
      "त्यापैकी": 5345,
      "##ाराच्या": 5346,
      "वर्षांत": 5347,
      "##निर्म": 5348,
      "वाटप": 5349,
      "करणारी": 5350,
      "प्रादुर्भाव": 5351,
      "आकडा": 5352,
      "तथ": 5353,
      "मंडळ": 5354,
      "नर": 5355,
      "रच": 5356,
      "##तिरिक्त": 5357,
      "##ट्या": 5358,
      "##om": 5359,
      "##पासूनच": 5360,
      "देशभरात": 5361,
      "ज्यामुळे": 5362,
      "समाधान": 5363,
      "इर": 5364,
      "##कां": 5365,
      "##काचे": 5366,
      "मेड": 5367,
      "अपेक्षित": 5368,
      "##ोळ": 5369,
      "##िए": 5370,
      "##तन": 5371,
      "खरं": 5372,
      "##दृ": 5373,
      "देवी": 5374,
      "कार्यरत": 5375,
      "नाराजी": 5376,
      "महाविद्यालय": 5377,
      "सहाय्य": 5378,
      "अश्": 5379,
      "माव": 5380,
      "किलोमीटर": 5381,
      "##ठ्ठ": 5382,
      "##ेतन": 5383,
      "##त्तर": 5384,
      "मुख्या": 5385,
      "घेण्याची": 5386,
      "पैसा": 5387,
      "खाज": 5388,
      "पाण्यात": 5389,
      "##माने": 5390,
      "सहन": 5391,
      "##भि": 5392,
      "##माल": 5393,
      "##र्घ": 5394,
      "मागित": 5395,
      "ग्राहकांना": 5396,
      "पांढ": 5397,
      "जातील": 5398,
      "साग": 5399,
      "विरुद्ध": 5400,
      "राहून": 5401,
      "निवडणुका": 5402,
      "मुदत": 5403,
      "आख": 5404,
      "उंच": 5405,
      "घाब": 5406,
      "##ुद्ध": 5407,
      "हाच": 5408,
      "केल्याचा": 5409,
      "शुल्क": 5410,
      "##ंके": 5411,
      "निधन": 5412,
      "##ियर": 5413,
      "पोलिसांच्या": 5414,
      "चाच": 5415,
      "वैय": 5416,
      "##डकरी": 5417,
      "दहशतवाद": 5418,
      "पव": 5419,
      "पाण्या": 5420,
      "प्रमाणावर": 5421,
      "रत्ना": 5422,
      "याकडे": 5423,
      "शेतकऱ्यांच्या": 5424,
      "दर्शन": 5425,
      "खोट": 5426,
      "लागतात": 5427,
      "पंक": 5428,
      "##ाकडून": 5429,
      "##धरी": 5430,
      "त्यामुळेच": 5431,
      "प्रशिक्षण": 5432,
      "प्ले": 5433,
      "##धर": 5434,
      "##ाजन": 5435,
      "##तेच्या": 5436,
      "कोरोनामुळे": 5437,
      "सेने": 5438,
      "अपय": 5439,
      "आहार": 5440,
      "शपथ": 5441,
      "हक्क": 5442,
      "##ग्री": 5443,
      "अरु": 5444,
      "एकही": 5445,
      "##ांनाही": 5446,
      "माहित": 5447,
      "वेगळी": 5448,
      "##श्चर": 5449,
      "##धानी": 5450,
      "##ेते": 5451,
      "लावली": 5452,
      "वार्षिक": 5453,
      "रहि": 5454,
      "##क्तिक": 5455,
      "##धान्य": 5456,
      "मदतीने": 5457,
      "मंदिरा": 5458,
      "केल्याची": 5459,
      "क्षेत्रा": 5460,
      "पाऊल": 5461,
      "##कं": 5462,
      "##िवली": 5463,
      "मिळालेल्या": 5464,
      "प्रदर्शित": 5465,
      "मागण्या": 5466,
      "##मार्फत": 5467,
      "##ha": 5468,
      "##ाणि": 5469,
      "27": 5470,
      "##णार्‍या": 5471,
      "शेज": 5472,
      "काढले": 5473,
      "##कर्णी": 5474,
      "कृती": 5475,
      "कुटुंबीय": 5476,
      "लिहिले": 5477,
      "सुधारणा": 5478,
      "Re": 5479,
      "गळ": 5480,
      "##ॅशनल": 5481,
      "दिशा": 5482,
      "संदी": 5483,
      "हळ": 5484,
      "सरासरी": 5485,
      "माहीत": 5486,
      "अवघ": 5487,
      "करि": 5488,
      "यासंदर्भात": 5489,
      "##रीब": 5490,
      "एकनाथ": 5491,
      "राशी": 5492,
      "नेत्यांनी": 5493,
      "कधीच": 5494,
      "शासन": 5495,
      "पालकमंत्री": 5496,
      "झे": 5497,
      "बॅट": 5498,
      "हंग": 5499,
      "##दीप": 5500,
      "विकसित": 5501,
      "इंटरनेट": 5502,
      "सेट": 5503,
      "##us": 5504,
      "वर्षाच्या": 5505,
      "केल्याचे": 5506,
      "गृहमंत्री": 5507,
      "मालम": 5508,
      "जबर": 5509,
      "होण्यासाठी": 5510,
      "लोकशाही": 5511,
      "ठरले": 5512,
      "विभागाचे": 5513,
      "वेगाने": 5514,
      "बहुते": 5515,
      "परिषदेत": 5516,
      "दिशेने": 5517,
      "संदीप": 5518,
      "३५": 5519,
      "##पदी": 5520,
      "होण्या": 5521,
      "नेतृत्वा": 5522,
      "##्मण": 5523,
      "घटनास्थळी": 5524,
      "खट": 5525,
      "##ाव्यात": 5526,
      "तुमची": 5527,
      "गणपती": 5528,
      "खडसे": 5529,
      "उष्ण": 5530,
      "##ुक्ती": 5531,
      "याआधी": 5532,
      "निश": 5533,
      "हजर": 5534,
      "काढला": 5535,
      "घा": 5536,
      "##कूर": 5537,
      "मेळ": 5538,
      "##बीर": 5539,
      "शुभ": 5540,
      "परीक्षे": 5541,
      "सहकार्य": 5542,
      "मुख्यमंत्र्यांनी": 5543,
      "रश": 5544,
      "पाहणी": 5545,
      "मोदींनी": 5546,
      "भारताचा": 5547,
      "शुभे": 5548,
      "मॅच": 5549,
      "वृत्तसं": 5550,
      "नजर": 5551,
      "##नग": 5552,
      "##नमध्ये": 5553,
      "काळे": 5554,
      "##शास्त्र": 5555,
      "मुंबईच्या": 5556,
      "राहत": 5557,
      "पुढच्या": 5558,
      "तुमचे": 5559,
      "२०१९": 5560,
      "पुण्यातील": 5561,
      "उडाली": 5562,
      "##परा": 5563,
      "##ir": 5564,
      "##र्द": 5565,
      "विश": 5566,
      "उत्सुक": 5567,
      "##लट": 5568,
      "त्यांचं": 5569,
      "गोड": 5570,
      "भरती": 5571,
      "पैश": 5572,
      "द्यावे": 5573,
      "मंडळा": 5574,
      "आश्वासन": 5575,
      "##थ्या": 5576,
      "देण्याचे": 5577,
      "राजा": 5578,
      "##ाराचा": 5579,
      "मेह": 5580,
      "प्रकल्पा": 5581,
      "सैनिक": 5582,
      "चेंडू": 5583,
      "गौर": 5584,
      "चम": 5585,
      "फी": 5586,
      "वितर": 5587,
      "वर्षांच्या": 5588,
      "ठराव": 5589,
      "उभा": 5590,
      "##ion": 5591,
      "##ंगिक": 5592,
      "##माना": 5593,
      "वेध": 5594,
      "चौधरी": 5595,
      "खूपच": 5596,
      "गॅस": 5597,
      "पेट": 5598,
      "फेक": 5599,
      "##विंद": 5600,
      "सांगतात": 5601,
      "वैशिष्ट": 5602,
      "मार्गदर्शन": 5603,
      "महत्त्वाचा": 5604,
      "तप": 5605,
      "शी": 5606,
      "##चि": 5607,
      "नाईक": 5608,
      "##ाराम": 5609,
      "घेतलं": 5610,
      "पदवी": 5611,
      "',": 5612,
      "टॉ": 5613,
      "वैयक्तिक": 5614,
      "चां": 5615,
      "सभा": 5616,
      "याबद्दल": 5617,
      "##ेव्ह": 5618,
      "सरकारकडून": 5619,
      "गोळी": 5620,
      "आयुष्यात": 5621,
      "निमित्ताने": 5622,
      "धडक": 5623,
      "फो": 5624,
      "कारखान": 5625,
      "विभागात": 5626,
      "पटक": 5627,
      "##काज": 5628,
      "##णक": 5629,
      "##लाच्या": 5630,
      "नावाने": 5631,
      "धनं": 5632,
      "##गो": 5633,
      "##दित": 5634,
      "जगभरात": 5635,
      "##सोबतच": 5636,
      "ताक": 5637,
      "आधारित": 5638,
      "##लंबित": 5639,
      "तहस": 5640,
      "इस": 5641,
      "लप": 5642,
      "##िणी": 5643,
      "पहाटे": 5644,
      "घुस": 5645,
      "यंद": 5646,
      "६०": 5647,
      "ज्ञान": 5648,
      "उंची": 5649,
      "कथ": 5650,
      "तृ": 5651,
      "##स्य": 5652,
      "##un": 5653,
      "##ांत्रिक": 5654,
      "##र्प": 5655,
      "मनोर": 5656,
      "भ्रष्टा": 5657,
      "##वर्धन": 5658,
      "सभागृह": 5659,
      "थक": 5660,
      "##ल्म": 5661,
      "रुग्": 5662,
      "वाढव": 5663,
      "किश": 5664,
      "नेतृत्व": 5665,
      "शंका": 5666,
      "पर्यावरण": 5667,
      "मॉडेल": 5668,
      "विदर्भ": 5669,
      "हस": 5670,
      "##लात": 5671,
      "##पात": 5672,
      "##साला": 5673,
      "##काचा": 5674,
      "स्फोट": 5675,
      "एकी": 5676,
      "##ाबत": 5677,
      "हीच": 5678,
      "##िटर": 5679,
      "श्रील": 5680,
      "बहुतेक": 5681,
      "रस": 5682,
      "##नु": 5683,
      "##पाट": 5684,
      "आश्चर": 5685,
      "लगाव": 5686,
      "##दना": 5687,
      "प्रकारची": 5688,
      "धनंजय": 5689,
      "खरी": 5690,
      "फळ": 5691,
      "बोट": 5692,
      "##रळ": 5693,
      "प्रकृती": 5694,
      "##वाच्या": 5695,
      "##स्तीत": 5696,
      "##साच्या": 5697,
      "समान": 5698,
      "नियुक्ती": 5699,
      "##ाकार": 5700,
      "##र्ल": 5701,
      "यांनीही": 5702,
      "सुरेश": 5703,
      "गुन्ह": 5704,
      "ट्रम्प": 5705,
      "##ुती": 5706,
      "##लाच": 5707,
      "सांगून": 5708,
      "आमची": 5709,
      "काँग्रेसने": 5710,
      "सास": 5711,
      "##ूह": 5712,
      "स्वस्त": 5713,
      "मालिकेत": 5714,
      "अवघ्या": 5715,
      "हंगाम": 5716,
      "##णेकर": 5717,
      "सांभा": 5718,
      "रायगड": 5719,
      "स्त्रिय": 5720,
      "बिल": 5721,
      "##ल्यात": 5722,
      "विशिष्ट": 5723,
      "विरोधक": 5724,
      "रांग": 5725,
      "##ol": 5726,
      "यांच्याशी": 5727,
      "दाखवून": 5728,
      "पीक": 5729,
      "अहम": 5730,
      "संतोष": 5731,
      "थोडा": 5732,
      "मंजुरी": 5733,
      "रत्नागिरी": 5734,
      "होम": 5735,
      "##तेने": 5736,
      "राज्याच्या": 5737,
      "मिळव": 5738,
      "##ंचित": 5739,
      "बहुत": 5740,
      "पर्यटक": 5741,
      "जम्": 5742,
      "लोकांची": 5743,
      "विधानसभे": 5744,
      "नव्याने": 5745,
      "गोलंदाज": 5746,
      "इलेक्ट": 5747,
      "रॅ": 5748,
      "तुमचा": 5749,
      "ग्रुप": 5750,
      "##वणुकी": 5751,
      "तात्काळ": 5752,
      ".)": 5753,
      "दान": 5754,
      "शेट्टी": 5755,
      "सावर": 5756,
      "विल": 5757,
      "सरकारवर": 5758,
      "न्यूझील": 5759,
      "गडकरी": 5760,
      "बॅन": 5761,
      "मौ": 5762,
      "घेतलेल्या": 5763,
      "भाविक": 5764,
      "तै": 5765,
      "भात": 5766,
      "##ंदू": 5767,
      "सोसाय": 5768,
      "शेवटच्या": 5769,
      "शंकर": 5770,
      "लष्कर": 5771,
      "ट्वी": 5772,
      "##गन": 5773,
      "साठ": 5774,
      "किंमती": 5775,
      "##दनगर": 5776,
      "तिकीट": 5777,
      "सत्र": 5778,
      "##काल": 5779,
      "##ढा": 5780,
      "##वाही": 5781,
      "वेळेत": 5782,
      "##--------": 5783,
      "##ॉर्म": 5784,
      "भुज": 5785,
      "वंचित": 5786,
      "##अप": 5787,
      "गेलं": 5788,
      "पडतो": 5789,
      "ठरणार": 5790,
      "प्रभावी": 5791,
      "28": 5792,
      "अग्र": 5793,
      "आधुनिक": 5794,
      "##ामुळे": 5795,
      "##ण्ड": 5796,
      "वाढत्या": 5797,
      "बसून": 5798,
      "नोटीस": 5799,
      "साख": 5800,
      "##मधे": 5801,
      "किमी": 5802,
      "घरातील": 5803,
      "जम्मू": 5804,
      "बज": 5805,
      "लॅ": 5806,
      "असावा": 5807,
      "##रीज": 5808,
      "##कारे": 5809,
      "##ाराची": 5810,
      "##स्टिक": 5811,
      "मनो": 5812,
      "न्यूझीलंड": 5813,
      "आदर्श": 5814,
      "कसं": 5815,
      "पंचाय": 5816,
      "महस": 5817,
      "तेथील": 5818,
      ".'": 5819,
      "चहा": 5820,
      "##गण": 5821,
      "##क्‍य": 5822,
      "कोट": 5823,
      "##मिळ": 5824,
      "पर्यटन": 5825,
      "उज": 5826,
      "##ur": 5827,
      "##मध्येही": 5828,
      "मार्गावर": 5829,
      "बोला": 5830,
      "कोणतेही": 5831,
      "पत": 5832,
      "हद्दी": 5833,
      "##्यव": 5834,
      "##ावला": 5835,
      "घोषित": 5836,
      "रोजगार": 5837,
      "कठोर": 5838,
      "दत्त": 5839,
      "धान": 5840,
      "तरतू": 5841,
      "##िन्ह": 5842,
      "काढण्यात": 5843,
      "मोबाइल": 5844,
      ").": 5845,
      "आरा": 5846,
      "पळ": 5847,
      "##बाग": 5848,
      "लागलं": 5849,
      "वाढते": 5850,
      "खेळी": 5851,
      "##दिक": 5852,
      "##एच": 5853,
      "गरम": 5854,
      "समितीच्या": 5855,
      "मैत्री": 5856,
      "विधे": 5857,
      "आहात": 5858,
      "लावला": 5859,
      "देतो": 5860,
      "आढळले": 5861,
      "दिग्दर्शक": 5862,
      "कुलकर्णी": 5863,
      "विनोद": 5864,
      "सोय": 5865,
      "घ्यावा": 5866,
      "अफगाणि": 5867,
      "अहमदनगर": 5868,
      "धमकी": 5869,
      "##दक": 5870,
      "##le": 5871,
      "##्रो": 5872,
      "सामने": 5873,
      "नव्हतं": 5874,
      "बिन": 5875,
      "लै": 5876,
      "४५": 5877,
      "नाना": 5878,
      "कंपन्या": 5879,
      "सारख्या": 5880,
      "उर्वर": 5881,
      "आभार": 5882,
      "जरा": 5883,
      "##ाणं": 5884,
      "देण्यास": 5885,
      "असूनही": 5886,
      "अमेरिकेत": 5887,
      "मूर्ती": 5888,
      "फॉर्म": 5889,
      "##ोत्सव": 5890,
      "क्रीडा": 5891,
      "कड": 5892,
      "##जाग": 5893,
      "##वाची": 5894,
      "व्यापारी": 5895,
      "फुले": 5896,
      "ठरेल": 5897,
      "द्": 5898,
      "##णार्": 5899,
      "##ात्मा": 5900,
      "##बरोबरच": 5901,
      "राजकारणात": 5902,
      "तुझ्या": 5903,
      "२९": 5904,
      "असणे": 5905,
      "##णीत": 5906,
      "त्यातच": 5907,
      "##पुरात": 5908,
      "##तिहासिक": 5909,
      "व्यवस्थापन": 5910,
      "कंत्र": 5911,
      "कदम": 5912,
      "डेटा": 5913,
      "सक्रिय": 5914,
      "##अंतर्गत": 5915,
      "##तीश": 5916,
      "मनुष": 5917,
      "वेगळा": 5918,
      "रिझ": 5919,
      "राहिली": 5920,
      "प्रत्येकी": 5921,
      "एज": 5922,
      "कडे": 5923,
      "सला": 5924,
      "##कीस": 5925,
      "घेण्याचा": 5926,
      "शिफार": 5927,
      "##ंजन": 5928,
      "जेवण": 5929,
      "खाते": 5930,
      "##दुर्ग": 5931,
      "भोसले": 5932,
      "खाजगी": 5933,
      "जसे": 5934,
      "##वर्ण": 5935,
      "##ांमधून": 5936,
      "विकत": 5937,
      "महिना": 5938,
      "खात्री": 5939,
      "दाग": 5940,
      "हार्": 5941,
      "##ंटी": 5942,
      "##कला": 5943,
      "##स्फोट": 5944,
      "राहू": 5945,
      "रेकॉ": 5946,
      "डॉलर": 5947,
      "दुसर्‍या": 5948,
      "जिथे": 5949,
      "जबाबदार": 5950,
      "आड": 5951,
      "##ाग्राम": 5952,
      "आपल्याकडे": 5953,
      "मजब": 5954,
      "शुभेच्छा": 5955,
      "##ंका": 5956,
      "##र्वे": 5957,
      "##स्ट्री": 5958,
      "व्यक्तीला": 5959,
      "सगळं": 5960,
      "राहिला": 5961,
      "अरे": 5962,
      "##वाडा": 5963,
      "स्था": 5964,
      "भरून": 5965,
      "पालिका": 5966,
      "थोडे": 5967,
      "भुजबळ": 5968,
      "झु": 5969,
      "##ay": 5970,
      "##जीत": 5971,
      "वाढला": 5972,
      "कामकाज": 5973,
      "१९८": 5974,
      "##ैनिक": 5975,
      "अण्": 5976,
      "कचरा": 5977,
      "अधी": 5978,
      "##ित्री": 5979,
      "वर्ण": 5980,
      "वर्ल्ड": 5981,
      "युवक": 5982,
      "##ing": 5983,
      "फसवणूक": 5984,
      "महेश": 5985,
      "ऐतिहासिक": 5986,
      "घोटा": 5987,
      "चिर": 5988,
      "ताण": 5989,
      "संताप": 5990,
      "उपाध्यक्ष": 5991,
      "सर्वत्र": 5992,
      "थोडी": 5993,
      "##ूम": 5994,
      "पाहा": 5995,
      "प्रेर": 5996,
      "ठार": 5997,
      "मोट": 5998,
      "अंतरावर": 5999,
      "बाळग": 6000,
      "यावर्षी": 6001,
      "बनाव": 6002,
      "##जरी": 6003,
      "##शक्ती": 6004,
      "##लेलं": 6005,
      "निग": 6006,
      "##णीय": 6007,
      "##धीश": 6008,
      "कर्मचाऱ्यांना": 6009,
      "महाविद्याल": 6010,
      "अवलंबून": 6011,
      "##वट": 6012,
      "पुत": 6013,
      "सुरक्षे": 6014,
      "जाण्याची": 6015,
      "##िकाला": 6016,
      "विचारले": 6017,
      "एकमेक": 6018,
      "चाचण्या": 6019,
      "चक्क": 6020,
      "परदेशी": 6021,
      "सोने": 6022,
      "व्हॉट": 6023,
      "जयंत": 6024,
      "##वते": 6025,
      "मधून": 6026,
      "दुरुस्ती": 6027,
      "तड": 6028,
      "नमु": 6029,
      "##केश": 6030,
      "##नाम": 6031,
      "राजेंद्र": 6032,
      "लोकांचा": 6033,
      "गुरू": 6034,
      "##ृत्त": 6035,
      "न्यायालय": 6036,
      "तरतूद": 6037,
      "सब": 6038,
      "##नानंतर": 6039,
      "देण्या": 6040,
      "##ांतून": 6041,
      "दिलीप": 6042,
      "झाल्यामुळे": 6043,
      "ग्रंथ": 6044,
      "अमेरिका": 6045,
      "बंधन": 6046,
      "नांदे": 6047,
      "ओबीसी": 6048,
      "मशी": 6049,
      "शंभ": 6050,
      "##ाकडे": 6051,
      "इतक्या": 6052,
      "द्यावा": 6053,
      "##खड": 6054,
      "##सारखा": 6055,
      "दिसतात": 6056,
      "चाक": 6057,
      "कंपनीच्या": 6058,
      "ग्रामस्थ": 6059,
      "##विकास": 6060,
      "गोंधळ": 6061,
      "क्ला": 6062,
      "गरीब": 6063,
      "८०": 6064,
      "##बि": 6065,
      "##क्सी": 6066,
      "सेवे": 6067,
      "डिस्": 6068,
      "बॉस": 6069,
      "रोखण्यासाठी": 6070,
      "अत्याचार": 6071,
      "कुठल्याही": 6072,
      "खुलासा": 6073,
      "नांदेड": 6074,
      "दगड": 6075,
      "‘‘": 6076,
      "##्हे": 6077,
      "##क्यात": 6078,
      "##नर": 6079,
      "##>>": 6080,
      "सुभाष": 6081,
      "तेज": 6082,
      "कार्यकारी": 6083,
      "उदाहर": 6084,
      "वृत्तसंस्था": 6085,
      "सॉ": 6086,
      "असाल": 6087,
      "टाकून": 6088,
      "दीप": 6089,
      "उघडकीस": 6090,
      "रेकॉर्ड": 6091,
      "##पक्ष": 6092,
      "अस्व": 6093,
      "कोलक": 6094,
      "##टीत": 6095,
      "सोयी": 6096,
      "संघात": 6097,
      "क्षण": 6098,
      "अंश": 6099,
      "प्रत्यक्षात": 6100,
      "टप्प्यात": 6101,
      "आश्चर्य": 6102,
      "इलेक्ट्र": 6103,
      "##मेव": 6104,
      "##झे": 6105,
      "उपयुक्त": 6106,
      "मधु": 6107,
      "माणस": 6108,
      "अमेरिकन": 6109,
      "माती": 6110,
      "प्रगती": 6111,
      "होताना": 6112,
      "##साची": 6113,
      "बिब": 6114,
      "अमराव": 6115,
      "इंडियन": 6116,
      "२०२१": 6117,
      "##योजना": 6118,
      "##भरा": 6119,
      "तिघ": 6120,
      "म्हणाल्या": 6121,
      "देते": 6122,
      "पद्धत": 6123,
      "घातला": 6124,
      "तंत्रज्ञान": 6125,
      "##टीच्या": 6126,
      "सगळी": 6127,
      "स्थापना": 6128,
      "फलंदाजी": 6129,
      "हैदरा": 6130,
      ",’": 6131,
      "आत्ता": 6132,
      "ठोक": 6133,
      "##ाइन": 6134,
      "##वल्या": 6135,
      "मुळे": 6136,
      "पाक": 6137,
      "सामन्या": 6138,
      "असतानाही": 6139,
      "अॅप": 6140,
      "उभी": 6141,
      "एटी": 6142,
      "##्रीन": 6143,
      "##मानी": 6144,
      "अनुभ": 6145,
      "सुरुवाती": 6146,
      "पावसाळ्यात": 6147,
      "आकाश": 6148,
      "तणाव": 6149,
      "##लन": 6150,
      "होई": 6151,
      "##ाज्य": 6152,
      "##ालय": 6153,
      "सुच": 6154,
      "##सेवा": 6155,
      "आमचा": 6156,
      "मानवी": 6157,
      "डोळे": 6158,
      "महसूल": 6159,
      "35": 6160,
      "कित्य": 6161,
      "घाट": 6162,
      "गेलेल्या": 6163,
      "##ात्रा": 6164,
      "चालक": 6165,
      "अहमद": 6166,
      "त्वचे": 6167,
      "##ंदिव": 6168,
      "मुख": 6169,
      "मुलं": 6170,
      "प्रशांत": 6171,
      "ट्रॅ": 6172,
      "एखादी": 6173,
      "बचाव": 6174,
      "सिंधु": 6175,
      "कित्येक": 6176,
      "कविता": 6177,
      "दरात": 6178,
      "सक्षम": 6179,
      "केरळ": 6180,
      "नाहीये": 6181,
      "माघ": 6182,
      "##म्मद": 6183,
      "मुंबईकर": 6184,
      "हैदराबाद": 6185,
      "In": 6186,
      "राहतात": 6187,
      "अशीच": 6188,
      "पक्षनेते": 6189,
      "अधिकाऱ्यांनी": 6190,
      "जॉ": 6191,
      "##यत": 6192,
      "विर": 6193,
      "आमचे": 6194,
      "प्राधान्य": 6195,
      "२०१४": 6196,
      "दुर्दै": 6197,
      "अग्नि": 6198,
      "##ंदिवस": 6199,
      "##कट": 6200,
      "##ॉर": 6201,
      "##र्डी": 6202,
      "##ासार": 6203,
      "महाजन": 6204,
      "वरील": 6205,
      "##त्तम": 6206,
      "मजबूत": 6207,
      "##हळू": 6208,
      "##खं": 6209,
      "##झा": 6210,
      "परदेश": 6211,
      "अशाच": 6212,
      "29": 6213,
      "असावी": 6214,
      "लक्ष्य": 6215,
      "एमआय": 6216,
      "दीर्घ": 6217,
      "यावरून": 6218,
      "छाया": 6219,
      "धोक": 6220,
      "पगार": 6221,
      "##ोले": 6222,
      "कान": 6223,
      "शास्त्र": 6224,
      "अनुदान": 6225,
      "स्वामी": 6226,
      "महत्वाचे": 6227,
      "चेहरा": 6228,
      "इंध": 6229,
      "##णूक": 6230,
      "आठवण": 6231,
      "स्थानक": 6232,
      "जबरद": 6233,
      "##िष्ट": 6234,
      "##पन": 6235,
      "राजू": 6236,
      "मोहीम": 6237,
      "डोंब": 6238,
      "ऑफर": 6239,
      "##लाल": 6240,
      "##तीच": 6241,
      "##न्ना": 6242,
      "दुध": 6243,
      "समर्थन": 6244,
      "स्तरावर": 6245,
      "हृदय": 6246,
      "दाद": 6247,
      "बच्च": 6248,
      "रॉय": 6249,
      "##ांज": 6250,
      "विस": 6251,
      "##शीर": 6252,
      "साई": 6253,
      "दिवसे": 6254,
      "माझं": 6255,
      "ठेवली": 6256,
      "सत्ताधारी": 6257,
      "भविष्यात": 6258,
      "##्‍": 6259,
      "##कडील": 6260,
      "कोरोनाचे": 6261,
      "मोठय़ा": 6262,
      "मतदारसंघात": 6263,
      "पथक": 6264,
      "खून": 6265,
      "रड": 6266,
      "##िफ": 6267,
      "##ॉड": 6268,
      "##रोग": 6269,
      "साहेब": 6270,
      "कुणाला": 6271,
      "भूमिके": 6272,
      "एकीकडे": 6273,
      "60": 6274,
      "सवल": 6275,
      "##वादा": 6276,
      "लक्षणे": 6277,
      "सध्याच्या": 6278,
      "कांदा": 6279,
      "##जू": 6280,
      "##शान": 6281,
      "##ातही": 6282,
      "संक्रम": 6283,
      "##विन": 6284,
      "##ाईन": 6285,
      "जनतेला": 6286,
      "दाब": 6287,
      "बरी": 6288,
      "बंड": 6289,
      "दोषी": 6290,
      "अनेकांना": 6291,
      "दीपक": 6292,
      "उपाययोजना": 6293,
      "##++++++++": 6294,
      "अर्थसंकल्प": 6295,
      "घाबर": 6296,
      "तला": 6297,
      "आणले": 6298,
      "स्थिर": 6299,
      "अवस्था": 6300,
      "शिवसेनेच्या": 6301,
      "परिणामी": 6302,
      "सर्वसाधारण": 6303,
      "पहिल्यांदाच": 6304,
      "खराब": 6305,
      "तहसील": 6306,
      "७०": 6307,
      "##ांनंतर": 6308,
      "##कडी": 6309,
      "पाहू": 6310,
      "सीर": 6311,
      "##ाशी": 6312,
      "##ाचं": 6313,
      "राहते": 6314,
      "लेखक": 6315,
      "नेतृत्वाखाली": 6316,
      "जै": 6317,
      "ज्यो": 6318,
      "नक्ष": 6319,
      "##ed": 6320,
      "##id": 6321,
      "##्यांत": 6322,
      "त्यानं": 6323,
      "##्रेड": 6324,
      "ठेवला": 6325,
      "अडथ": 6326,
      "##मूर्ती": 6327,
      "नम": 6328,
      "रज": 6329,
      "संदर्भ": 6330,
      "आर्य": 6331,
      "##सळधार": 6332,
      "वक्तव्या": 6333,
      "नीट": 6334,
      "##यर": 6335,
      "राजधानी": 6336,
      "मिश्र": 6337,
      "घटन": 6338,
      "महत्त्वाच्या": 6339,
      "हळूहळू": 6340,
      "ट्वीट": 6341,
      "तथा": 6342,
      "षटक": 6343,
      "अवघड": 6344,
      "बाजारपे": 6345,
      "उध": 6346,
      "गज": 6347,
      "चर": 6348,
      "वान": 6349,
      "##ँच": 6350,
      "कोणीही": 6351,
      "अजय": 6352,
      "ऑपर": 6353,
      "यावी": 6354,
      "एकमेव": 6355,
      "पैकी": 6356,
      "उन्हाळ्यात": 6357,
      "ब्रेक": 6358,
      "विस्तार": 6359,
      "आव्हा": 6360,
      "चौथ्या": 6361,
      "बहुतांश": 6362,
      "इस्": 6363,
      "ताज": 6364,
      "##लाचे": 6365,
      "सुवर्ण": 6366,
      "एके": 6367,
      "##ियो": 6368,
      "वेगळ्या": 6369,
      "शिवसेनेने": 6370,
      "पिढी": 6371,
      "क्रमांकावर": 6372,
      "सभापती": 6373,
      "निशाणा": 6374,
      "उल्": 6375,
      "खबर": 6376,
      "पंड": 6377,
      "हेत": 6378,
      "##ंचं": 6379,
      "##ण्यावर": 6380,
      "विन": 6381,
      "सुप्री": 6382,
      "महाराष्ट्राच्या": 6383,
      "डिज": 6384,
      "बाबी": 6385,
      "त्याचप्रमाणे": 6386,
      "कामाला": 6387,
      "महिलांना": 6388,
      "निघून": 6389,
      "अधिवेशन": 6390,
      "लैंगिक": 6391,
      "आल": 6392,
      "आट": 6393,
      "कांब": 6394,
      "फूट": 6395,
      "वेतन": 6396,
      "##रल": 6397,
      "##डीए": 6398,
      "पाहत": 6399,
      "##ांतर्गत": 6400,
      "दिलेली": 6401,
      "घ्यायला": 6402,
      "संशयित": 6403,
      "गिर": 6404,
      "##घन": 6405,
      "मालक": 6406,
      "अन्यथा": 6407,
      "दृष्ट": 6408,
      "उद्य": 6409,
      "##दि": 6410,
      "##पाला": 6411,
      "विजयी": 6412,
      "घातली": 6413,
      "अक्षर": 6414,
      "सायक": 6415,
      "##ोदर": 6416,
      "##फॉर्म": 6417,
      "मिळतो": 6418,
      "स्थल": 6419,
      "ट्रक": 6420,
      "समितीचे": 6421,
      "##क्षेत्र": 6422,
      "दिवसेंदिवस": 6423,
      "##ममध्ये": 6424,
      "##am": 6425,
      "प्रोत्": 6426,
      "##ापि": 6427,
      "सेल्": 6428,
      "म्हणाली": 6429,
      "##स्थानी": 6430,
      "दबाव": 6431,
      "##्यामध्ये": 6432,
      "व्हायला": 6433,
      "एखादा": 6434,
      "दुर्घट": 6435,
      "उर्वरित": 6436,
      "आजी": 6437,
      "##ातल्या": 6438,
      "##तेच": 6439,
      "निवास": 6440,
      "##णीस": 6441,
      "ठरली": 6442,
      "नुकताच": 6443,
      "भाषण": 6444,
      "वृक्ष": 6445,
      "महागाई": 6446,
      "अफगाणिस्तान": 6447,
      "दर्जा": 6448,
      "##म्य": 6449,
      "##il": 6450,
      "निदर्श": 6451,
      "घेतात": 6452,
      "##कृतिक": 6453,
      "डोळ": 6454,
      "कोर्टाने": 6455,
      "ग्रामपंचायत": 6456,
      "अंब": 6457,
      "अडी": 6458,
      "ज्यात": 6459,
      "नग": 6460,
      "##ेर": 6461,
      "##लीज": 6462,
      "##नेश": 6463,
      "##स्व": 6464,
      "असेच": 6465,
      "##रुंग": 6466,
      "##घाटन": 6467,
      "किशोर": 6468,
      "##जागृती": 6469,
      "ग्ल": 6470,
      "##डो": 6471,
      "आणून": 6472,
      "##ाजवळ": 6473,
      "गुप्त": 6474,
      "स्टा": 6475,
      "सीसी": 6476,
      "२०१८": 6477,
      "गि": 6478,
      "##सात": 6479,
      "##फो": 6480,
      "देसाई": 6481,
      "##सेव": 6482,
      "लागल्या": 6483,
      "##त्ये": 6484,
      "सरकारची": 6485,
      "होणारी": 6486,
      "योजन": 6487,
      "ड्रग्": 6488,
      "गिरी": 6489,
      "जाव": 6490,
      "##वणार": 6491,
      "##देत": 6492,
      "##चाली": 6493,
      "मिळालं": 6494,
      "स्थग": 6495,
      "वाटा": 6496,
      "व्हे": 6497,
      "किरण": 6498,
      "##पूर्वक": 6499,
      "पंचायत": 6500,
      "हवं": 6501,
      "##लेय": 6502,
      "प्री": 6503,
      "विवे": 6504,
      "मुसळधार": 6505,
      "##कीत": 6506,
      "रुपयांच्या": 6507,
      "लढाई": 6508,
      "उपस्थितीत": 6509,
      "बांगला": 6510,
      "अको": 6511,
      "जर्म": 6512,
      "रेट": 6513,
      "प्रभाग": 6514,
      "वाटले": 6515,
      "व्याया": 6516,
      "यादीत": 6517,
      "चोरट": 6518,
      "थोरात": 6519,
      "शारी": 6520,
      "शेल": 6521,
      "##ुत्तर": 6522,
      "##सेज": 6523,
      "##माच्या": 6524,
      "पंढ": 6525,
      "##सीसीआय": 6526,
      "उशि": 6527,
      "बुक": 6528,
      "##नेस": 6529,
      "प्रसाद": 6530,
      "##ल्हे": 6531,
      "##न्सी": 6532,
      "माने": 6533,
      "शकणार": 6534,
      "त्यांच्याकडे": 6535,
      "पुढाकार": 6536,
      "शास्त": 6537,
      "##जनक": 6538,
      "कोर्टात": 6539,
      "चूक": 6540,
      "टोल": 6541,
      "शूट": 6542,
      "##लित": 6543,
      "##नेही": 6544,
      "मतदा": 6545,
      "##ज्ञात": 6546,
      "अभ्यासक्रम": 6547,
      "सुप्रीम": 6548,
      "ढकल": 6549,
      "पॉल": 6550,
      "सकाळ": 6551,
      "##्यांकडून": 6552,
      "जास्तीत": 6553,
      "प्रमाणे": 6554,
      "सीमे": 6555,
      "प्रतिमा": 6556,
      "दोघांनी": 6557,
      "पाया": 6558,
      "टोला": 6559,
      "पदाधिकारी": 6560,
      "किमती": 6561,
      "किंग": 6562,
      "जाल": 6563,
      "##रीच्या": 6564,
      "महात्मा": 6565,
      "##माळ": 6566,
      "नसताना": 6567,
      "कुटुंबिय": 6568,
      "संपर्कात": 6569,
      "उत्सव": 6570,
      "मैदानावर": 6571,
      "पद्": 6572,
      "##फाई": 6573,
      "यापुढे": 6574,
      "##ाराला": 6575,
      "युरोप": 6576,
      "पेपर": 6577,
      "खुप": 6578,
      "राखी": 6579,
      "कार्यकर्त्यांनी": 6580,
      "भिं": 6581,
      "##सल": 6582,
      "##वडी": 6583,
      "##ऊंट": 6584,
      "##स्पती": 6585,
      "गेलो": 6586,
      "मुलांच्या": 6587,
      "लॉकडाउन": 6588,
      "रमेश": 6589,
      "सिंधुदुर्ग": 6590,
      "प्रोत्सा": 6591,
      "संघाने": 6592,
      "ठाकूर": 6593,
      "दुसरे": 6594,
      "घराबाहेर": 6595,
      "##मारी": 6596,
      "##डम": 6597,
      "##et": 6598,
      "##क्ते": 6599,
      "##याधीश": 6600,
      "सरपंच": 6601,
      "##चार्य": 6602,
      "बेस्ट": 6603,
      "सांस्": 6604,
      "धाड": 6605,
      "सहाय्यक": 6606,
      "ममता": 6607,
      "व्हा": 6608,
      "##व्यात": 6609,
      "##प्रे": 6610,
      "##लीम": 6611,
      "दुर्ग": 6612,
      "##क्ति": 6613,
      "बेकाय": 6614,
      "बीसीसीआय": 6615,
      "सर्वसामान्य": 6616,
      "सत्ते": 6617,
      "अधीक्षक": 6618,
      "नित": 6619,
      "##ोपाठ": 6620,
      "##लना": 6621,
      "नेता": 6622,
      "विचारला": 6623,
      "अज्ञात": 6624,
      "ईडी": 6625,
      "कामात": 6626,
      "मोठं": 6627,
      "दिसणार": 6628,
      "यंत्रणे": 6629,
      "##ore": 6630,
      "संख्येने": 6631,
      "व्हॉट्स": 6632,
      "ऑल": 6633,
      "##रित्या": 6634,
      "##ध्यक्षा": 6635,
      "##ायल": 6636,
      "लागतील": 6637,
      "तुरुंग": 6638,
      "##ांवरील": 6639,
      "वाहतुकी": 6640,
      "उदाहरण": 6641,
      "##परिष": 6642,
      "ख्र": 6643,
      "त्वर": 6644,
      "३७": 6645,
      "त्याच्यावर": 6646,
      "आल्यावर": 6647,
      "##म्पिक": 6648,
      "दहावी": 6649,
      "##य्या": 6650,
      "सुना": 6651,
      "चालत": 6652,
      "पावसाने": 6653,
      "मुलाला": 6654,
      "लगावला": 6655,
      "शारीरिक": 6656,
      "नौ": 6657,
      "माज": 6658,
      "##गारी": 6659,
      "##अर्स": 6660,
      "##झी": 6661,
      "##नेर": 6662,
      "सुप्र": 6663,
      "देणाऱ्या": 6664,
      "राज्यमंत्री": 6665,
      "कॉन्": 6666,
      "भाषेत": 6667,
      "डोंगर": 6668,
      "हर्ष": 6669,
      "##दाय": 6670,
      "विजे": 6671,
      "पाण्याचा": 6672,
      "##न्ड": 6673,
      "सरळ": 6674,
      "जेणेकर": 6675,
      "लावण्यात": 6676,
      "बोलाय": 6677,
      "नावाच्या": 6678,
      "तत्कालीन": 6679,
      "सौंदर": 6680,
      "अमरावती": 6681,
      "##वण्याची": 6682,
      "निदान": 6683,
      "पुष्": 6684,
      "लाई": 6685,
      "##भाऊ": 6686,
      "समाजातील": 6687,
      "चिंत": 6688,
      "सांस्कृतिक": 6689,
      "##सृष्टी": 6690,
      "##टली": 6691,
      "##ांबाबत": 6692,
      "होय": 6693,
      "होण्यास": 6694,
      "परम": 6695,
      "##मधल्या": 6696,
      "स्टेट": 6697,
      "आल्याचे": 6698,
      "२०१७": 6699,
      "पोहोचली": 6700,
      "बातम्या": 6701,
      "मेडिकल": 6702,
      "उल्लं": 6703,
      "पॅन": 6704,
      "सभे": 6705,
      "##राष्ट्र": 6706,
      "तोपर्यंत": 6707,
      "गोळा": 6708,
      "सामोरे": 6709,
      "प्रमाणपत्र": 6710,
      "पालघर": 6711,
      "योगदान": 6712,
      "आदर": 6713,
      "ठळक": 6714,
      "नॅशनल": 6715,
      "बोर": 6716,
      "लात": 6717,
      "##नेत": 6718,
      "करावं": 6719,
      "तिन्ही": 6720,
      "मिळतात": 6721,
      "उत्साह": 6722,
      "कुटुंबातील": 6723,
      "समितीने": 6724,
      "आधारे": 6725,
      "नाराज": 6726,
      "##========": 6727,
      "डिजिटल": 6728,
      "नृ": 6729,
      "##जेत": 6730,
      "##खन": 6731,
      "##घु": 6732,
      "##लीव": 6733,
      "##करणे": 6734,
      "वाढले": 6735,
      "##देवी": 6736,
      "लाँच": 6737,
      "##तंय": 6738,
      "सोनिया": 6739,
      "मोहम्मद": 6740,
      "वकील": 6741,
      "कंत्राट": 6742,
      "५००": 6743,
      "##येत": 6744,
      "##चाही": 6745,
      "विठ्ठ": 6746,
      "केल्यामुळे": 6747,
      "शेतकर्‍य": 6748,
      "घडला": 6749,
      "समाजाला": 6750,
      "खाद्य": 6751,
      "नवाब": 6752,
      "फिर्यादी": 6753,
      "पवित्र": 6754,
      "!!": 6755,
      "फ्रे": 6756,
      "##विरोधी": 6757,
      "##शाली": 6758,
      "पडलेल्या": 6759,
      "भाई": 6760,
      "जीवनात": 6761,
      "विश्वच": 6762,
      "परिवहन": 6763,
      "आंध": 6764,
      "ओर": 6765,
      "राठ": 6766,
      "रुग्णांचा": 6767,
      "लावले": 6768,
      "पवारांनी": 6769,
      "वनस्पती": 6770,
      "नातेवाईक": 6771,
      "भास": 6772,
      "##ोळी": 6773,
      "##वर्क": 6774,
      "याचं": 6775,
      "##विभाग": 6776,
      "व्हावी": 6777,
      "ऐकून": 6778,
      "बदला": 6779,
      "in": 6780,
      "आलो": 6781,
      "चक्र": 6782,
      "भूक": 6783,
      "##उंट": 6784,
      "असाच": 6785,
      "गाड्या": 6786,
      "सुट्टी": 6787,
      "वृद्ध": 6788,
      "नष्ट": 6789,
      "समीर": 6790,
      "##ूला": 6791,
      "##ऊस": 6792,
      "##रीय": 6793,
      "##मुक": 6794,
      "कार्": 6795,
      "सोपे": 6796,
      "##ाराने": 6797,
      "पाहु": 6798,
      "##पत्रक": 6799,
      "तंत्रज्ञा": 6800,
      "मर्यादा": 6801,
      "तथापि": 6802,
      "ज्यांना": 6803,
      "##रस": 6804,
      "##षित": 6805,
      "प्रदू": 6806,
      "##णाऱ्यां": 6807,
      "##न्सर": 6808,
      "वाजे": 6809,
      "उत्तरे": 6810,
      "उपचारासाठी": 6811,
      "चांदी": 6812,
      "कमि": 6813,
      "तारी": 6814,
      "भान": 6815,
      "लिंक": 6816,
      "सज्ज": 6817,
      "##वाणी": 6818,
      "##लंय": 6819,
      "##ेटर": 6820,
      "##ियल": 6821,
      "##डाच्या": 6822,
      "ग्रॅम": 6823,
      "समाजात": 6824,
      "भीषण": 6825,
      "मनी": 6826,
      "आजवर": 6827,
      "पडू": 6828,
      "सीमा": 6829,
      "पक्षात": 6830,
      "अमोल": 6831,
      "##सुली": 6832,
      "करायचं": 6833,
      "स्वतःच्या": 6834,
      "सुटका": 6835,
      "शैली": 6836,
      "अमिता": 6837,
      "##राच्या": 6838,
      "##ख्याने": 6839,
      "चांगलं": 6840,
      "प्राधिक": 6841,
      "जनजागृती": 6842,
      "१९७": 6843,
      "##स्पद": 6844,
      "मैदानात": 6845,
      "45": 6846,
      "चळव": 6847,
      "सवय": 6848,
      "##बो": 6849,
      "##वाढ": 6850,
      "लोकसंख्या": 6851,
      "मागच्या": 6852,
      "ठेवण्यासाठी": 6853,
      "भारताचे": 6854,
      "##प्रमाणेच": 6855,
      "अस्वस्थ": 6856,
      "रात्र": 6857,
      "##्‍य": 6858,
      "##ांसमोर": 6859,
      "करण": 6860,
      "प्रज": 6861,
      "वर्षा": 6862,
      "##िटे": 6863,
      "सेंट": 6864,
      "व्यक्ति": 6865,
      "लढा": 6866,
      "शेतकऱ्यांनी": 6867,
      "शासनाच्या": 6868,
      "उद्योज": 6869,
      "अडीच": 6870,
      "खां": 6871,
      "जान": 6872,
      "वास": 6873,
      "##ंस": 6874,
      "एकदम": 6875,
      "आपाप": 6876,
      "समृ": 6877,
      "वेस्ट": 6878,
      "सरकारचा": 6879,
      "पुनर्व": 6880,
      "हिंसा": 6881,
      "बराच": 6882,
      "डान्स": 6883,
      "पठ": 6884,
      "३२": 6885,
      "##वराज": 6886,
      "मुर": 6887,
      "येणे": 6888,
      "##वीण": 6889,
      "व्यापार": 6890,
      "प्रतिष्ठ": 6891,
      "पावसामुळे": 6892,
      "एकत्रित": 6893,
      "गाणं": 6894,
      "पंध": 6895,
      "##ीन": 6896,
      "##तेचे": 6897,
      "##ोषण": 6898,
      "विद्यार्थ्यांनी": 6899,
      "मधे": 6900,
      "##द्योगिक": 6901,
      "प्रवाशांना": 6902,
      "उल्लंघन": 6903,
      "आशि": 6904,
      "उस्": 6905,
      "टन": 6906,
      "रान": 6907,
      "सवि": 6908,
      "##वाचे": 6909,
      "##णाली": 6910,
      "##ंपरा": 6911,
      "क्रांती": 6912,
      "##वर्ती": 6913,
      "स्वच्छता": 6914,
      "क्वार": 6915,
      "श्वास": 6916,
      "राठोड": 6917,
      "ओल": 6918,
      "किन": 6919,
      "##बरी": 6920,
      "##लेस": 6921,
      "##ल्लक": 6922,
      "साप": 6923,
      "##धिकृत": 6924,
      "##क्रिया": 6925,
      "ठाम": 6926,
      "जीएस": 6927,
      "लिहून": 6928,
      "महिन्याच्या": 6929,
      "अगोदर": 6930,
      "वेबसाईट": 6931,
      "घो": 6932,
      "हिम": 6933,
      "केलाय": 6934,
      "येतं": 6935,
      "लक्ष्मी": 6936,
      "रामदास": 6937,
      "एवढी": 6938,
      "पथकाने": 6939,
      "बारामती": 6940,
      "इस्ला": 6941,
      "अप्र": 6942,
      "खर्चा": 6943,
      "##एशन": 6944,
      "उत्कृष्ट": 6945,
      "बाजूने": 6946,
      "कॅमेरा": 6947,
      "सत्तेत": 6948,
      "ऑलि": 6949,
      "धड": 6950,
      "भय": 6951,
      "भावा": 6952,
      "##टो": 6953,
      "##नाश": 6954,
      "त्यामुळं": 6955,
      "यापैकी": 6956,
      "संमेल": 6957,
      "वापरा": 6958,
      "पोच": 6959,
      "प्रश्‍": 6960,
      "बेळगाव": 6961,
      "मिनिटे": 6962,
      "Read": 6963,
      "औद्योगिक": 6964,
      "गंग": 6965,
      "थर": 6966,
      "सिक": 6967,
      "##ID": 6968,
      "प्रवीण": 6969,
      "##ाहून": 6970,
      "मुळात": 6971,
      "समन्": 6972,
      "##ाबाबत": 6973,
      "होणारे": 6974,
      "काढली": 6975,
      "विभागातील": 6976,
      "तालिब": 6977,
      "तत्त्व": 6978,
      "सांभाळ": 6979,
      "सविस्तर": 6980,
      "तालिबान": 6981,
      "पर्व": 6982,
      "##बॉल": 6983,
      "##इड": 6984,
      "##ाते": 6985,
      "##नामुळे": 6986,
      "विज्ञान": 6987,
      "दुकाने": 6988,
      "व्हावे": 6989,
      "##रुख": 6990,
      "शिवसेनेला": 6991,
      "चांगलीच": 6992,
      "अकर": 6993,
      "काव": 6994,
      "पन": 6995,
      "##ळाचे": 6996,
      "##टीव्ही": 6997,
      "जाम": 6998,
      "अन्याय": 6999,
      "भाडे": 7000,
      "लिह": 7001,
      "संपत्ती": 7002,
      "##पत्रे": 7003,
      "उमट": 7004,
      "झळक": 7005,
      "##ोरा": 7006,
      "मिळवला": 7007,
      "स्थायी": 7008,
      "नसल्याचं": 7009,
      "एनसीबी": 7010,
      "पराभ": 7011,
      "महिलेने": 7012,
      "सिनेमात": 7013,
      "भिंती": 7014,
      "##पि": 7015,
      "##नाडू": 7016,
      "कायदे": 7017,
      "होणारा": 7018,
      "जगताप": 7019,
      "अलीकडे": 7020,
      "हमी": 7021,
      "##श्या": 7022,
      "स्पे": 7023,
      "भागी": 7024,
      "शालेय": 7025,
      "##कृष्ण": 7026,
      "संकल्प": 7027,
      "जिवंत": 7028,
      "याविषयी": 7029,
      "##िद": 7030,
      "परंपरा": 7031,
      "##ावरुन": 7032,
      "अवै": 7033,
      "प्रशासकीय": 7034,
      "द्यायला": 7035,
      "जपान": 7036,
      "अमिताभ": 7037,
      ",”": 7038,
      "##वतात": 7039,
      "##वतो": 7040,
      "##hi": 7041,
      "##ल्याचं": 7042,
      "असावे": 7043,
      "##णामुळे": 7044,
      "पोर्ट": 7045,
      "अनेकांनी": 7046,
      "##प्शन": 7047,
      "##वायचे": 7048,
      "आठवले": 7049,
      "घ्यावे": 7050,
      "बघित": 7051,
      "ताकद": 7052,
      "बनावट": 7053,
      "पौ": 7054,
      "##ुड": 7055,
      "##ॅप": 7056,
      "##ब्लिक": 7057,
      "ग्रह": 7058,
      "दलित": 7059,
      "मासे": 7060,
      "फंड": 7061,
      "३६": 7062,
      "##चण": 7063,
      "प्राणी": 7064,
      "पडून": 7065,
      "##िमित्त": 7066,
      "बॉम्ब": 7067,
      "महापालिकेने": 7068,
      "अंगावर": 7069,
      "##ड्डी": 7070,
      "##वयीन": 7071,
      "##बोध": 7072,
      "समावि": 7073,
      "अनधिकृत": 7074,
      "##ध्यापक": 7075,
      "भारताची": 7076,
      "दौरा": 7077,
      "##गुती": 7078,
      "सोहळा": 7079,
      "जाहिरात": 7080,
      "यंदाच्या": 7081,
      "डोंबिवली": 7082,
      "तिन": 7083,
      "पांड": 7084,
      "रन": 7085,
      "हून": 7086,
      "##मय": 7087,
      "##खोर": 7088,
      "प्रधान": 7089,
      "प्रारंभ": 7090,
      "##ापे": 7091,
      "घेण्यास": 7092,
      "पाणीपुरवठा": 7093,
      "कृष्ण": 7094,
      "राष्ट्रवादीच्या": 7095,
      "अत्याव": 7096,
      "मावळ": 7097,
      "शंभर": 7098,
      "अटी": 7099,
      "नंद": 7100,
      "वयाच्या": 7101,
      "##ूच्या": 7102,
      "पडणार": 7103,
      "आठवणी": 7104,
      "डॉक्टरांनी": 7105,
      "शाहरुख": 7106,
      "अडचणीत": 7107,
      "##संबंधी": 7108,
      "दोघेही": 7109,
      "ड्रेस": 7110,
      "##चंद्र": 7111,
      "देणारे": 7112,
      "##पूस": 7113,
      "घेताना": 7114,
      "चर्च": 7115,
      "उड्ड": 7116,
      "वगळता": 7117,
      "अब्": 7118,
      "##कळ": 7119,
      "असणारे": 7120,
      "##स्वा": 7121,
      "सुरवात": 7122,
      "माफ": 7123,
      "कायदेशीर": 7124,
      "कृष्": 7125,
      "वादग्रस्त": 7126,
      "शरीरात": 7127,
      "अस्तित्": 7128,
      "ओव्हर": 7129,
      "जैन": 7130,
      "मर": 7131,
      "७५": 7132,
      "##नेल": 7133,
      "##ंगी": 7134,
      "लागून": 7135,
      "रुग्णांच्या": 7136,
      "मनोज": 7137,
      "महत्व": 7138,
      "फेर": 7139,
      "घरगुती": 7140,
      "फॅशन": 7141,
      "इथं": 7142,
      "स्वरूपात": 7143,
      "मोहिमे": 7144,
      "ऊर्जा": 7145,
      "गार": 7146,
      "##लोड": 7147,
      "##टकार": 7148,
      "##ण्य": 7149,
      "##यासाठी": 7150,
      "बोलले": 7151,
      "टाकले": 7152,
      "प्रदेशात": 7153,
      "2018": 7154,
      "अर्जुन": 7155,
      "मंदिरात": 7156,
      "अ‍ॅप": 7157,
      "धोकादायक": 7158,
      "सूत्रांनी": 7159,
      "उशिरा": 7160,
      "मस्त": 7161,
      "##चंद": 7162,
      "येण्याची": 7163,
      "##डीसी": 7164,
      "##िसी": 7165,
      "कायद": 7166,
      "क्षम": 7167,
      "भूमिकेत": 7168,
      "अधिकाऱ्या": 7169,
      "##संबंध": 7170,
      "साल": 7171,
      "##गज": 7172,
      "##दायी": 7173,
      "##रेकर": 7174,
      "##सीय": 7175,
      "गुंड": 7176,
      "##संती": 7177,
      "भाजपमध्ये": 7178,
      "मेहन": 7179,
      "##कर्त": 7180,
      "बुद्ध": 7181,
      "बॉक्स": 7182,
      "स्थितीत": 7183,
      "अपघातात": 7184,
      "इमारत": 7185,
      "डोके": 7186,
      "आसपास": 7187,
      "खबरदारी": 7188,
      "बांगलादेश": 7189,
      "ऑलिम्पिक": 7190,
      "80": 7191,
      "##ल्याच्या": 7192,
      "##वानी": 7193,
      "तुळ": 7194,
      "##प्रदेश": 7195,
      "प्रामु": 7196,
      "मारली": 7197,
      "विषयावर": 7198,
      "पोहोचले": 7199,
      "एवढा": 7200,
      ",'": 7201,
      "कष्ट": 7202,
      "कडून": 7203,
      "गोर": 7204,
      "##ंकर": 7205,
      "##har": 7206,
      "##ित्व": 7207,
      "कुंभ": 7208,
      "##जेरी": 7209,
      "रेड": 7210,
      "बँकेच्या": 7211,
      "शतक": 7212,
      "पंकजा": 7213,
      "आराम": 7214,
      "झो": 7215,
      "झोन": 7216,
      "रक": 7217,
      "सान": 7218,
      "हायको": 7219,
      "##ारीक": 7220,
      "##णीच्या": 7221,
      "जाण्यासाठी": 7222,
      "माफी": 7223,
      "##पदाची": 7224,
      "थोड्या": 7225,
      "श्रेय": 7226,
      "##निमित्त": 7227,
      "मालमत्ता": 7228,
      "सायकल": 7229,
      "हायकोर्ट": 7230,
      "थंडी": 7231,
      "##तर्फे": 7232,
      "##बन": 7233,
      "##लावर": 7234,
      "दिल": 7235,
      "##तेची": 7236,
      "पाण्याची": 7237,
      "##माची": 7238,
      "कुर": 7239,
      "ठेवणे": 7240,
      "नेत्यांना": 7241,
      "मार्गदर्श": 7242,
      "मार्गदर्शक": 7243,
      "सूट": 7244,
      "##काळात": 7245,
      "मर्यादित": 7246,
      "महिन्यांपासून": 7247,
      "उदयन": 7248,
      "प्रेरणा": 7249,
      "कांबळे": 7250,
      "तारीख": 7251,
      "टेल": 7252,
      "हवाई": 7253,
      "##di": 7254,
      "##विणे": 7255,
      "रुपयांचे": 7256,
      "टाइ": 7257,
      "नावावर": 7258,
      "पक्षाला": 7259,
      "फिल्म": 7260,
      "अण्णा": 7261,
      "बाह": 7262,
      "भव्य": 7263,
      "##ot": 7264,
      "आहेच": 7265,
      "असती": 7266,
      "##स्पर": 7267,
      "##कडो": 7268,
      "##ग्न": 7269,
      "जाणे": 7270,
      "लढत": 7271,
      "फारच": 7272,
      "बहुजन": 7273,
      "सावध": 7274,
      "बरीच": 7275,
      "लातूर": 7276,
      "##el": 7277,
      "शकले": 7278,
      "उत्सा": 7279,
      "संघाला": 7280,
      "अवस्थेत": 7281,
      "पेर": 7282,
      "डोळ्या": 7283,
      "चांगलाच": 7284,
      "कोरडे": 7285,
      "महत्त्वपूर्ण": 7286,
      "सर्वेक्षण": 7287,
      "##निर्माण": 7288,
      "##मिळनाडू": 7289,
      "मनुष्य": 7290,
      "बच्चन": 7291,
      "पद्म": 7292,
      "टप्पा": 7293,
      "रचना": 7294,
      "##स्टी": 7295,
      "##ंडेशन": 7296,
      "##दारांना": 7297,
      "आजचा": 7298,
      "नेमक": 7299,
      "संघाचे": 7300,
      "ठरत": 7301,
      "सगळ्यात": 7302,
      "प्रसिद्धी": 7303,
      "प्रेक्षकांच्या": 7304,
      "व्यायाम": 7305,
      "प्रोत्साहन": 7306,
      "आक्षेप": 7307,
      "म्यु": 7308,
      "##रच्या": 7309,
      "मुद्द": 7310,
      "##र्व्ह": 7311,
      "बाई": 7312,
      "व्यास": 7313,
      "पाहिलं": 7314,
      "##दृष्ट": 7315,
      "बौ": 7316,
      "री": 7317,
      "३३": 7318,
      "##ऊट": 7319,
      "याय": 7320,
      "कारभार": 7321,
      "स्पष्टी": 7322,
      "वाहने": 7323,
      "अंक": 7324,
      "धरून": 7325,
      "गुणव": 7326,
      "अतिव": 7327,
      "ड्राय": 7328,
      "अकाऊंट": 7329,
      "हालचाली": 7330,
      "प्रामुख्याने": 7331,
      "मोहन": 7332,
      "##ार्‍या": 7333,
      "नागरिकांच्या": 7334,
      "बिघड": 7335,
      "भाष्य": 7336,
      "भगवान": 7337,
      "विशाल": 7338,
      "70": 7339,
      "दर्ज": 7340,
      "##फु": 7341,
      "##फान": 7342,
      "त्यास": 7343,
      "##ण्यापूर्वी": 7344,
      "सर्व्ह": 7345,
      "काँग्रेसला": 7346,
      "कौशल": 7347,
      "नेटवर्क": 7348,
      "##णार्थ": 7349,
      "शेलार": 7350,
      "टोक": 7351,
      "##पळ": 7352,
      "##av": 7353,
      "##ब्ल": 7354,
      "वाटलं": 7355,
      "##ांबद्दल": 7356,
      "टाकला": 7357,
      "नसल्यामुळे": 7358,
      "कपात": 7359,
      "इच्छित": 7360,
      "सेवन": 7361,
      "उत्पादक": 7362,
      "रशिया": 7363,
      "एर": 7364,
      "गाणी": 7365,
      "द्वि": 7366,
      "हजेरी": 7367,
      "आणण्यासाठी": 7368,
      "कोंडी": 7369,
      "संपु": 7370,
      "गांभ": 7371,
      "मॅने": 7372,
      "अर्थव्यवस्थ": 7373,
      "समाविष्ट": 7374,
      "##र्श": 7375,
      "शकतं": 7376,
      "##ियन्स": 7377,
      "##ावेळी": 7378,
      "सुरूच": 7379,
      "दिसले": 7380,
      "सोडले": 7381,
      "न्यायालयाच्या": 7382,
      "मुलीला": 7383,
      "रवींद्र": 7384,
      "##त्रे": 7385,
      "##ाविर": 7386,
      "केजरी": 7387,
      "##ाराचे": 7388,
      "लागवड": 7389,
      "दुः": 7390,
      "##प्ले": 7391,
      "ठाण्या": 7392,
      "##र्डर": 7393,
      "स्वतःला": 7394,
      "लसीकरणा": 7395,
      "परिषदेच्या": 7396,
      "कमाई": 7397,
      "वितरण": 7398,
      "बॅनर्जी": 7399,
      "##ew": 7400,
      "विधी": 7401,
      "राहणाऱ्या": 7402,
      "मनपा": 7403,
      "स्टे": 7404,
      "पार्ट": 7405,
      "चिनी": 7406,
      "##द्दीन": 7407,
      "स्थलांतर": 7408,
      "एकर": 7409,
      "लां": 7410,
      "##ोबा": 7411,
      "##लाची": 7412,
      "आपत्ती": 7413,
      "वाढू": 7414,
      "गोवा": 7415,
      "पूल": 7416,
      "शिल्लक": 7417,
      "प्राण्या": 7418,
      "घडत": 7419,
      "अंत्य": 7420,
      "पाकिस्तानी": 7421,
      "बायको": 7422,
      "##मूल": 7423,
      "##्युन": 7424,
      "दिल्यानंतर": 7425,
      "##्टा": 7426,
      "यांच्यातील": 7427,
      "घरच्या": 7428,
      "सारे": 7429,
      "##र्तन": 7430,
      "खालील": 7431,
      "महावित": 7432,
      "तारखे": 7433,
      "जाताना": 7434,
      "नाट्य": 7435,
      "सलामी": 7436,
      "बंधनकारक": 7437,
      "केजरीवाल": 7438,
      "?’": 7439,
      "टू": 7440,
      "टाय": 7441,
      "##परी": 7442,
      "##ळाची": 7443,
      "##क्रो": 7444,
      "आजपर्यंत": 7445,
      "दिसतो": 7446,
      "मेसेज": 7447,
      "वरून": 7448,
      "समाजाच्या": 7449,
      "अमर": 7450,
      "बघून": 7451,
      "देशाला": 7452,
      "खात्यात": 7453,
      "सर्वोत्तम": 7454,
      "गौरव": 7455,
      "तैनात": 7456,
      "स्पष्टीकरण": 7457,
      "जह": 7458,
      "##साम": 7459,
      "संय": 7460,
      "संचार": 7461,
      "##स्ट्र": 7462,
      "ग्रामपंचायती": 7463,
      "अत्यावश्यक": 7464,
      "तांद": 7465,
      "धाग": 7466,
      "##भो": 7467,
      "निलेश": 7468,
      "फेरीत": 7469,
      "संस्थाप": 7470,
      "अमेरिकेच्या": 7471,
      "राजीव": 7472,
      "आयोगाने": 7473,
      "अभिनंदन": 7474,
      "लीग": 7475,
      "अतिवृष्टी": 7476,
      "ब्रा": 7477,
      "सिर": 7478,
      "हॉल": 7479,
      "##जित": 7480,
      "##्यांशी": 7481,
      "परस्पर": 7482,
      "##वीत": 7483,
      "शकतील": 7484,
      "आयटी": 7485,
      "##खाना": 7486,
      "##खेडे": 7487,
      "मोदींच्या": 7488,
      "नुकतीच": 7489,
      "क्लब": 7490,
      "असोसि": 7491,
      "सेलि": 7492,
      "महानगरपालिके": 7493,
      "अयो": 7494,
      ",\"": 7495,
      "अंबा": 7496,
      "तांत्रिक": 7497,
      "##फ्": 7498,
      "##ri": 7499,
      "प्रार्थ": 7500,
      "##ियस": 7501,
      "कुत्र": 7502,
      "जणू": 7503,
      "हॉस्पिटलमध्ये": 7504,
      "37": 7505,
      "कने": 7506,
      "घु": 7507,
      "३४": 7508,
      "मोरे": 7509,
      "लोकसभे": 7510,
      "##र्मि": 7511,
      "झाल्याचं": 7512,
      "लाटे": 7513,
      "व्यवस्थ": 7514,
      "##एमसी": 7515,
      "2014": 7516,
      "महामारी": 7517,
      "रविवार": 7518,
      "दिग्गज": 7519,
      "रिंग": 7520,
      "हवेत": 7521,
      "९०": 7522,
      "सामान": 7523,
      "##पाक": 7524,
      "दिवसभरात": 7525,
      "वेळो": 7526,
      "दोघांना": 7527,
      "अडचण": 7528,
      "शब्दात": 7529,
      "मान्यवर": 7530,
      "लोकप्रत": 7531,
      "सभेत": 7532,
      "फौ": 7533,
      "##तम": 7534,
      "##हीद": 7535,
      "##वाल्या": 7536,
      "निध": 7537,
      "खेड": 7538,
      "टाटा": 7539,
      "व्यवस्थित": 7540,
      "असल्याचेही": 7541,
      "पावसाची": 7542,
      "आकर्षक": 7543,
      "##जर्स": 7544,
      "##ेसाठी": 7545,
      "##पांडे": 7546,
      "काद": 7547,
      "झाडे": 7548,
      "साफ": 7549,
      "##पूत": 7550,
      "मीठ": 7551,
      "नसतो": 7552,
      "जीबी": 7553,
      "केंद्रात": 7554,
      "रिलीज": 7555,
      "नियमांचे": 7556,
      "पक्षाने": 7557,
      "टोपे": 7558,
      "दादा": 7559,
      "##र्नर": 7560,
      "संख्येत": 7561,
      "सीसीटीव्ही": 7562,
      "उदयनराजे": 7563,
      "500": 7564,
      "अच": 7565,
      "गव": 7566,
      "जनावर": 7567,
      "फिट": 7568,
      "##हेरी": 7569,
      "निवि": 7570,
      "ठरू": 7571,
      "१९६": 7572,
      "मांडली": 7573,
      "अर्धा": 7574,
      "भ्रष्टाचार": 7575,
      "जेणेकरून": 7576,
      "कच्": 7577,
      "सदा": 7578,
      "##ल्य": 7579,
      "##वासा": 7580,
      "दिल्याने": 7581,
      "मिस": 7582,
      "घेतल्यानंतर": 7583,
      "सरकारचे": 7584,
      "ज्यामध्ये": 7585,
      "अजिब": 7586,
      "##मोडी": 7587,
      "कांद्या": 7588,
      "अल्पवयीन": 7589,
      "जितेंद्र": 7590,
      "वेळोवेळी": 7591,
      "घडा": 7592,
      "बद्दल": 7593,
      "##वावे": 7594,
      "##तच": 7595,
      "##रीस": 7596,
      "त्यांच्याकडून": 7597,
      "बसले": 7598,
      "चित्रपटाच्या": 7599,
      "वयोग": 7600,
      "अतुल": 7601,
      "सागर": 7602,
      "करिअर": 7603,
      "पंढर": 7604,
      "आशिष": 7605,
      "महावितरण": 7606,
      "अध्या": 7607,
      "पसंती": 7608,
      "##हाणी": 7609,
      "##िकार": 7610,
      "होण्याचा": 7611,
      "आणली": 7612,
      "##विण्याचा": 7613,
      "जामीन": 7614,
      "सर्वांनी": 7615,
      "##िटणीस": 7616,
      "शेकडो": 7617,
      "##कोळ": 7618,
      "क्रिकेटपटू": 7619,
      "टक्क्यांनी": 7620,
      "सोसायटी": 7621,
      "क्वारंट": 7622,
      "आझ": 7623,
      "रसिक": 7624,
      "लिटर": 7625,
      "सख": 7626,
      "##्डे": 7627,
      "##लेख": 7628,
      "प्रमो": 7629,
      "गुर": 7630,
      "सरकारनं": 7631,
      "तोच": 7632,
      "दिल्लीतील": 7633,
      "सिटी": 7634,
      "उत्सुकता": 7635,
      "बाजारपेठ": 7636,
      "अल्": 7637,
      "आर्": 7638,
      "कर्क": 7639,
      "फ्री": 7640,
      "##ळाचा": 7641,
      "वेदना": 7642,
      "बंदोब": 7643,
      "विशेषत": 7644,
      "धावांची": 7645,
      "अभियान": 7646,
      "प्रश्‍न": 7647,
      "उडी": 7648,
      "चव": 7649,
      "शॉ": 7650,
      "सज": 7651,
      "यात्रे": 7652,
      "ओळखले": 7653,
      "बारावी": 7654,
      "पनवेल": 7655,
      "सेलिब्र": 7656,
      "चु": 7657,
      "दही": 7658,
      "देईल": 7659,
      "मिळवण्यासाठी": 7660,
      "शिखर": 7661,
      "निर्णया": 7662,
      "जनरल": 7663,
      "पाहिजेत": 7664,
      "##भेद": 7665,
      "परीक्ष": 7666,
      "आरोपींना": 7667,
      "कमतर": 7668,
      "उद्घाटन": 7669,
      "वसई": 7670,
      "##ent": 7671,
      "ब्रिटिश": 7672,
      "कर्तव्य": 7673,
      "तिनं": 7674,
      ">>": 7675,
      "ज्यांनी": 7676,
      "##य्य": 7677,
      "प्रवाह": 7678,
      "##्हास": 7679,
      "चाळी": 7680,
      "सैन्य": 7681,
      "अरविंद": 7682,
      "कागदपत्र": 7683,
      "विद्यमान": 7684,
      "लोकप्रतिनिधी": 7685,
      "अब्द": 7686,
      "##्ज": 7687,
      "##ंशी": 7688,
      "##डप": 7689,
      "##पणी": 7690,
      "##ॅक्स": 7691,
      "प्रस": 7692,
      "प्रणाली": 7693,
      "परभ": 7694,
      "म्हणता": 7695,
      "संकल्पना": 7696,
      "घटनेची": 7697,
      "##लायन्स": 7698,
      "बदली": 7699,
      "सापडले": 7700,
      "प्लॅट": 7701,
      "दुष्काळ": 7702,
      "मशीन": 7703,
      "आर्यन": 7704,
      "फै": 7705,
      "बुल": 7706,
      "रिट": 7707,
      "##ळु": 7708,
      "##वलेल्या": 7709,
      "##ac": 7710,
      "##ताच्या": 7711,
      "##वरही": 7712,
      "##माध्यम": 7713,
      "व्यापा": 7714,
      "श्रीमंत": 7715,
      "##ाविरोधात": 7716,
      "अधिकाऱ्यांना": 7717,
      "एटीएम": 7718,
      "विठ्ठल": 7719,
      "गांभीर": 7720,
      "गी": 7721,
      "घेव": 7722,
      "नुस": 7723,
      "रिस": 7724,
      "वसाह": 7725,
      "##सैनिक": 7726,
      "##्य़": 7727,
      "प्रदान": 7728,
      "नाहीतर": 7729,
      "##ाबद्दल": 7730,
      "##वेळा": 7731,
      "##वेअर": 7732,
      "कोटींची": 7733,
      "बोर्ड": 7734,
      "चळवळी": 7735,
      "##रेगाव": 7736,
      "##वडा": 7737,
      "सोमवार": 7738,
      "गोलंदाजी": 7739,
      "उभ्या": 7740,
      "अभिनय": 7741,
      "मागितली": 7742,
      "विधेयक": 7743,
      "शिफारस": 7744,
      "वाजेपर्यंत": 7745,
      "जीएसटी": 7746,
      "संस्थापक": 7747,
      "गेट": 7748,
      "हित": 7749,
      "३८": 7750,
      "##शमन": 7751,
      "##ॉम": 7752,
      "##लाचा": 7753,
      "काट": 7754,
      "कोड": 7755,
      "म्हणणं": 7756,
      "यांच्याकडून": 7757,
      "पडता": 7758,
      "##गीय": 7759,
      "##षयक": 7760,
      "अशाप्र": 7761,
      "पहायला": 7762,
      "अरुण": 7763,
      "दागिने": 7764,
      "000": 7765,
      "गती": 7766,
      "निकाला": 7767,
      "हार": 7768,
      "##ीक": 7769,
      "##दात": 7770,
      "##नाय": 7771,
      "आजू": 7772,
      "मिळतील": 7773,
      "राहतील": 7774,
      "नेपाळ": 7775,
      "पक्षी": 7776,
      "##ांबरोबर": 7777,
      "तासांत": 7778,
      "सारखे": 7779,
      "चंद्रपूर": 7780,
      "महत्वाची": 7781,
      "इंजे": 7782,
      "इन्स्टाग्राम": 7783,
      "आंध्र": 7784,
      "ओलांड": 7785,
      "रिका": 7786,
      "हिंग": 7787,
      "५५": 7788,
      "हाऊस": 7789,
      "##त्याच": 7790,
      "कार्यवाही": 7791,
      "काळ्या": 7792,
      "अहवाला": 7793,
      "2017": 7794,
      "मजुर": 7795,
      "कामासाठी": 7796,
      "चीनच्या": 7797,
      "रूपये": 7798,
      "उस्माना": 7799,
      "आग्रह": 7800,
      "गीत": 7801,
      "झी": 7802,
      "पेश": 7803,
      "पिव": 7804,
      "लिम": 7805,
      "##ांहून": 7806,
      "##करता": 7807,
      "##राला": 7808,
      "राजपूत": 7809,
      "करणार्‍या": 7810,
      "जगभरातील": 7811,
      "बोर्": 7812,
      "बॉलीव": 7813,
      "स्वाभि": 7814,
      "वस्तु": 7815,
      "प्रेक्षकांना": 7816,
      "गोळीबार": 7817,
      "झालो": 7818,
      "प्राय": 7819,
      "काळी": 7820,
      "कोळ": 7821,
      "मिल": 7822,
      "##ळाला": 7823,
      "दोष": 7824,
      "सांगता": 7825,
      "देशपांडे": 7826,
      "##जन्य": 7827,
      "मंत्रालयाने": 7828,
      "किरकोळ": 7829,
      "मूल्य": 7830,
      "रवाना": 7831,
      "दाखवली": 7832,
      "पावले": 7833,
      "नगरसेव": 7834,
      "तासात": 7835,
      "हरकत": 7836,
      "कपिल": 7837,
      "जबरदस्त": 7838,
      "मच्छ": 7839,
      "##मला": 7840,
      "##शिंग": 7841,
      "महाय": 7842,
      "##्यांचं": 7843,
      "होताच": 7844,
      "##पीठा": 7845,
      "मागास": 7846,
      "सेल्स": 7847,
      "शेतात": 7848,
      "जागेवर": 7849,
      "शुद्ध": 7850,
      "वर्तु": 7851,
      "वानखेडे": 7852,
      "धडा": 7853,
      "सतीश": 7854,
      "##गुरू": 7855,
      "##ंगाने": 7856,
      "म्हणतो": 7857,
      "##वडे": 7858,
      "घेण्या": 7859,
      "##ुकूल": 7860,
      "देशांमध्ये": 7861,
      "संघाचा": 7862,
      "मानव": 7863,
      "##कर्ष": 7864,
      "मालकी": 7865,
      "आत्मवि": 7866,
      "वसंत": 7867,
      "दिग्दर्श": 7868,
      "घसरण": 7869,
      "90": 7870,
      ":-": 7871,
      "किट": 7872,
      "पार्थ": 7873,
      "भोग": 7874,
      "##मॅट": 7875,
      "##चार्ज": 7876,
      "##िग": 7877,
      "करी": 7878,
      "प्रलंबित": 7879,
      "##दुखी": 7880,
      "प्रकाशित": 7881,
      "सर्वसामान": 7882,
      "आजूबाज": 7883,
      "36": 7884,
      "32": 7885,
      "##मतीत": 7886,
      "##निय": 7887,
      "##षेक": 7888,
      "आणी": 7889,
      "##स्त्रा": 7890,
      "##वायचा": 7891,
      "केलंय": 7892,
      "हरि": 7893,
      "धुळे": 7894,
      "वृत्तपत्र": 7895,
      "पदाधिका": 7896,
      "झोपड": 7897,
      "संबोध": 7898,
      "अवैध": 7899,
      "ध्व": 7900,
      "बड": 7901,
      "##ळणी": 7902,
      "##बंद": 7903,
      "##साचे": 7904,
      "झाक": 7905,
      "##न्शन": 7906,
      "गोपी": 7907,
      "झालाय": 7908,
      "केल्यावर": 7909,
      "महिलेला": 7910,
      "तिच्यावर": 7911,
      "इंडस्ट्री": 7912,
      "२०१५": 7913,
      "लाभार्थ": 7914,
      "अॅड": 7915,
      "व्हेर": 7916,
      "खोली": 7917,
      "छोटे": 7918,
      "टक्क्यां": 7919,
      "उस्मानाबाद": 7920,
      "##खु": 7921,
      "मिलि": 7922,
      "##शाच्या": 7923,
      "##हिनी": 7924,
      "रोम": 7925,
      "लक्ष्मण": 7926,
      "ठरते": 7927,
      "दिलेले": 7928,
      "बोलून": 7929,
      "नुकतेच": 7930,
      "तिसरा": 7931,
      "भविष्य": 7932,
      "शेजारी": 7933,
      "पंडित": 7934,
      "अजिबात": 7935,
      "गत": 7936,
      "डेव्ह": 7937,
      "भक्त": 7938,
      "समी": 7939,
      "##ईड": 7940,
      "##हेत": 7941,
      "##नाखाली": 7942,
      "संभाव": 7943,
      "पुल": 7944,
      "भारती": 7945,
      "वाढेल": 7946,
      "##रात्री": 7947,
      "अभ्या": 7948,
      "सामील": 7949,
      "सेना": 7950,
      "राष्ट्राध्यक्ष": 7951,
      "पोहोचला": 7952,
      "नावाचा": 7953,
      "प्रशिक्षक": 7954,
      "वेबसाइट": 7955,
      "विमानतळ": 7956,
      "##ांजली": 7957,
      "असोसिएशन": 7958,
      "##दला": 7959,
      "याप्र": 7960,
      "वादा": 7961,
      "##क्टिव्ह": 7962,
      "##निष्ठ": 7963,
      "त्याचवेळी": 7964,
      "गणित": 7965,
      "सिद्धार्थ": 7966,
      "लुट": 7967,
      "##ापेक्षा": 7968,
      "आशी": 7969,
      "तलाव": 7970,
      "वावर": 7971,
      "वीर": 7972,
      "सौर": 7973,
      "##लू": 7974,
      "##फिक": 7975,
      "##माफी": 7976,
      "स्टो": 7977,
      "भूमी": 7978,
      "न्यायमूर्ती": 7979,
      "पुरावे": 7980,
      "संघटनेचे": 7981,
      "निवृत्ती": 7982,
      "मासिक": 7983,
      "महेंद्र": 7984,
      "फिर्याद": 7985,
      "कंगना": 7986,
      "उड्डाण": 7987,
      "घन": 7988,
      "४२": 7989,
      "कराल": 7990,
      "##विरोध": 7991,
      "गेम": 7992,
      "##िटेड": 7993,
      "येणारे": 7994,
      "आल्याची": 7995,
      "दिल्लीच्या": 7996,
      "व्यक्तींना": 7997,
      "कंपनीला": 7998,
      "१९४": 7999,
      "टाळण्यासाठी": 8000,
      "फ्रान्स": 8001,
      "आशिया": 8002,
      "मुलाखतीत": 8003,
      "इंजिन": 8004,
      "वर्णन": 8005,
      "वयोगट": 8006,
      "इंट": 8007,
      "पित": 8008,
      "बाजी": 8009,
      "यवत": 8010,
      "##लेशन": 8011,
      "त्याबाबत": 8012,
      "##वाले": 8013,
      "##राचा": 8014,
      "कारणे": 8015,
      "##ळाने": 8016,
      "काढण्यासाठी": 8017,
      "कॅन": 8018,
      "गुन्हेगार": 8019,
      "शनिवार": 8020,
      "बचत": 8021,
      "बरं": 8022,
      "बर्‍या": 8023,
      "##रं": 8024,
      "##ंकडे": 8025,
      "##ाबा": 8026,
      "##डीला": 8027,
      "दुब": 8028,
      "घेतो": 8029,
      "शिज": 8030,
      "जिल्हाध्यक्ष": 8031,
      "विशेषतः": 8032,
      "साधन": 8033,
      "फायदे": 8034,
      "डिझाइन": 8035,
      "फुटबॉल": 8036,
      "जाहिराती": 8037,
      "वाढदिवस": 8038,
      "##स्वामी": 8039,
      "कल्प": 8040,
      "खोल": 8041,
      "गावी": 8042,
      "शत्र": 8043,
      "##खोरी": 8044,
      "विखे": 8045,
      "वर्षांचा": 8046,
      "शेतकऱ्या": 8047,
      "दिलेला": 8048,
      "पावसाचा": 8049,
      "ब्राह": 8050,
      "निकष": 8051,
      "परिवार": 8052,
      "मतदारसंघातून": 8053,
      "गं": 8054,
      "बारीक": 8055,
      "राणी": 8056,
      "वं": 8057,
      "##मार्ग": 8058,
      "##वर्ग": 8059,
      "##बू": 8060,
      "##ापू": 8061,
      "भरपाई": 8062,
      "व्यक्तिम": 8063,
      "विश्ले": 8064,
      "मुलीच्या": 8065,
      "देशाचे": 8066,
      "नेमके": 8067,
      "ब्लॅक": 8068,
      "##वेदनशील": 8069,
      "सोहळ्या": 8070,
      "प्लास्टिक": 8071,
      "उदाहरणार्थ": 8072,
      "ड्रग्ज": 8073,
      "कादंब": 8074,
      "ताव": 8075,
      "मेल": 8076,
      "रिक्त": 8077,
      "वज": 8078,
      "##षभ": 8079,
      "##बद्ध": 8080,
      "केश": 8081,
      "गुड": 8082,
      "गुगल": 8083,
      "राहतो": 8084,
      "स्टेड": 8085,
      "विभागीय": 8086,
      "भूमि": 8087,
      "रिलायन्स": 8088,
      "नुकसा": 8089,
      "लेखन": 8090,
      "प्लॅन": 8091,
      "##नाल्ड": 8092,
      "यास": 8093,
      "मुळ": 8094,
      "##डीच्या": 8095,
      "कुण": 8096,
      "वापरले": 8097,
      "##्यूट": 8098,
      "बाबत": 8099,
      "व्यक्तीच्या": 8100,
      "व्यक्तीने": 8101,
      "फायदेशीर": 8102,
      "संकटात": 8103,
      "पालिकेच्या": 8104,
      "आफ्रिके": 8105,
      "कोलकाता": 8106,
      "अक": 8107,
      "चांद": 8108,
      "नांद": 8109,
      "पळून": 8110,
      "##ंव्हा": 8111,
      "##लेल": 8112,
      "##पाचे": 8113,
      "आयात": 8114,
      "##शिप": 8115,
      "मृत्यु": 8116,
      "श्रीराम": 8117,
      "पटोले": 8118,
      "##्रमण": 8119,
      "वातावरणात": 8120,
      "तपशील": 8121,
      "श्रीलंके": 8122,
      "नक्षल": 8123,
      "आव्हाड": 8124,
      "घडामोडी": 8125,
      "आगी": 8126,
      "उद्द": 8127,
      "दंग": 8128,
      "यात्रा": 8129,
      "४८": 8130,
      "##जि": 8131,
      "##संत": 8132,
      "##ut": 8133,
      "##ov": 8134,
      "उपनि": 8135,
      "व्हावा": 8136,
      "प्रत्युत्तर": 8137,
      "##गाळ": 8138,
      "अनुष": 8139,
      "जणांनी": 8140,
      "प्रदेशातील": 8141,
      "नेहरू": 8142,
      "अभियंता": 8143,
      "##ंपरिक": 8144,
      "बहिणी": 8145,
      "ज्योति": 8146,
      "गाणे": 8147,
      "लाय": 8148,
      "तेही": 8149,
      "नियोज": 8150,
      "वापरून": 8151,
      "##पुरी": 8152,
      "जुळ": 8153,
      "प्रकरणाची": 8154,
      "हिवाळ्यात": 8155,
      "सभागृहात": 8156,
      "अग्निशमन": 8157,
      "त्वरित": 8158,
      "चित्री": 8159,
      "तांब": 8160,
      "##्वे": 8161,
      "##चने": 8162,
      "##ताचे": 8163,
      "यासह": 8164,
      "##माचा": 8165,
      "सहायक": 8166,
      "२०१६": 8167,
      "वसूल": 8168,
      "मंत्रिमंडळ": 8169,
      "रहिवा": 8170,
      "स्टेडियम": 8171,
      "?,": 8172,
      "फार्": 8173,
      "बळ": 8174,
      "शहीद": 8175,
      "##डिया": 8176,
      "##निस": 8177,
      "असलं": 8178,
      "##साचा": 8179,
      "कोव्ह": 8180,
      "तुकडे": 8181,
      "वैभव": 8182,
      "पाठवण्यात": 8183,
      "विधानसभेत": 8184,
      "समजले": 8185,
      "कितीही": 8186,
      "मध्यरात्री": 8187,
      "पॅके": 8188,
      "मंत्रालय": 8189,
      "थोडक्यात": 8190,
      "स्मृती": 8191,
      "चाहत्यांना": 8192,
      "खोटे": 8193,
      "भौ": 8194,
      "सॅन": 8195,
      "##ोत": 8196,
      "##ूकी": 8197,
      "##ट्र": 8198,
      "##नीत": 8199,
      "देणारी": 8200,
      "##ळीच्या": 8201,
      "काराग": 8202,
      "##ंतराव": 8203,
      "##टीने": 8204,
      "पोलिसांकडून": 8205,
      "सेक": 8206,
      "##धारक": 8207,
      "मेक": 8208,
      "खेळत": 8209,
      "ट्रोल": 8210,
      "##नावश्यक": 8211,
      "एवढे": 8212,
      "चांगलेच": 8213,
      "डोक्यावर": 8214,
      "इथल्या": 8215,
      "ज्ञाने": 8216,
      "हद्दीत": 8217,
      "धान्य": 8218,
      "रिझर्व्ह": 8219,
      "इंधन": 8220,
      "तहसीलदार": 8221,
      "भंग": 8222,
      "मसा": 8223,
      "रॉ": 8224,
      "सुल": 8225,
      "##काराम": 8226,
      "कार्त": 8227,
      "केलीय": 8228,
      "##प्रा": 8229,
      "संघाच्या": 8230,
      "नुकत्याच": 8231,
      "बघत": 8232,
      "औषधे": 8233,
      "रिक्षा": 8234,
      "प्लॅटफॉर्म": 8235,
      "75": 8236,
      "?\"": 8237,
      "ठो": 8238,
      "##ंघ": 8239,
      "##ट्स": 8240,
      "##अस": 8241,
      "नाक": 8242,
      "लोकांचे": 8243,
      "##चारिक": 8244,
      "##ऱ्यांच्या": 8245,
      "दिसू": 8246,
      "भाड": 8247,
      "पदार्": 8248,
      "लेखी": 8249,
      "स्कूल": 8250,
      "मराठवाड": 8251,
      "जंगल": 8252,
      "प्रतिबंधक": 8253,
      "पंधरा": 8254,
      "परभणी": 8255,
      "इंजेक्शन": 8256,
      "डेट": 8257,
      "दात": 8258,
      "फळे": 8259,
      "##टुंब": 8260,
      "##रोड": 8261,
      "आलाय": 8262,
      "शहरी": 8263,
      "ठरवले": 8264,
      "हाताळ": 8265,
      "घडवून": 8266,
      "संस्थेच्या": 8267,
      "अमेरिकेतील": 8268,
      "लवकरात": 8269,
      "जनतेच्या": 8270,
      "परिषदेचे": 8271,
      "एकमेकांना": 8272,
      "फॉर": 8273,
      "चुकीचे": 8274,
      "बाप्": 8275,
      "विद्युत": 8276,
      "एक्स्प": 8277,
      "कोठडी": 8278,
      "##कू": 8279,
      "##राळ": 8280,
      "पुज": 8281,
      "असल्याच्या": 8282,
      "गोळ्या": 8283,
      "सांगितली": 8284,
      "विद्यार्थ्यांच्या": 8285,
      "अमृ": 8286,
      "अभिनेते": 8287,
      "देशाची": 8288,
      "##संगी": 8289,
      "आपापल्या": 8290,
      "प्रार्थना": 8291,
      "यवतमाळ": 8292,
      "इम": 8293,
      "उग": 8294,
      "चेक": 8295,
      "मिट": 8296,
      "##ारासाठी": 8297,
      "माध": 8298,
      "##सारखं": 8299,
      "वाहून": 8300,
      "##खेड": 8301,
      "डिस्ट": 8302,
      "बेरोज": 8303,
      "योगेश": 8304,
      "कळत": 8305,
      "घरातून": 8306,
      "नोटा": 8307,
      "मूलभूत": 8308,
      "खरो": 8309,
      "लुक": 8310,
      "##र्वाद": 8311,
      "प्रका": 8312,
      "##वाट": 8313,
      "विहि": 8314,
      "महाद": 8315,
      "सराव": 8316,
      "तुकाराम": 8317,
      "दिवसांच्या": 8318,
      "अपमान": 8319,
      "पारंपरिक": 8320,
      "जवळजवळ": 8321,
      "मैत्र": 8322,
      "निवृत्त": 8323,
      "संपादक": 8324,
      "व्हॉट्सअ": 8325,
      "हक्का": 8326,
      "##फेक": 8327,
      "त्याबद्दल": 8328,
      "प्रदर्शन": 8329,
      "आयसी": 8330,
      "जोरावर": 8331,
      "कर्जमाफी": 8332,
      "सायबर": 8333,
      "भोसरी": 8334,
      "न्यायाधीश": 8335,
      "उर्फ": 8336,
      "दैन": 8337,
      "फटा": 8338,
      "##ंमुळे": 8339,
      "##हारी": 8340,
      "##द्रा": 8341,
      "##विण्याची": 8342,
      "सर्वांचे": 8343,
      "वाटेल": 8344,
      "पाठवले": 8345,
      "तालु": 8346,
      "समजते": 8347,
      "अश्या": 8348,
      "जुने": 8349,
      "प्रथमच": 8350,
      "तिकडे": 8351,
      "सत्कार": 8352,
      "युनिट": 8353,
      "34": 8354,
      "घरे": 8355,
      "तब": 8356,
      "##मह": 8357,
      "##चिटणीस": 8358,
      "##ईत": 8359,
      "##ांका": 8360,
      "त्यापेक्षा": 8361,
      "##धीर": 8362,
      "सुरळीत": 8363,
      "रुग्णांवर": 8364,
      "स्पेश": 8365,
      "विचारात": 8366,
      "नोकर": 8367,
      "ट्रस्ट": 8368,
      "टेक्": 8369,
      "पाकिस्तानच्या": 8370,
      "कुठेही": 8371,
      "पांडे": 8372,
      "धन्य": 8373,
      "##ाविरुद्ध": 8374,
      "उद्दिष्ट": 8375,
      "अलि": 8376,
      "ऊस": 8377,
      "रिया": 8378,
      "३००": 8379,
      "६५": 8380,
      "##फाय": 8381,
      "##han": 8382,
      "होण्याचे": 8383,
      "##्यांसह": 8384,
      "वास्तविक": 8385,
      "वळण": 8386,
      "बिबट": 8387,
      "एमआयडीसी": 8388,
      "कवी": 8389,
      "फेट": 8390,
      "##वण्याचे": 8391,
      "##तेखाली": 8392,
      "परवड": 8393,
      "परंपर": 8394,
      "##िंगमध्ये": 8395,
      "नियुक्त": 8396,
      "कुठली": 8397,
      "त्रि": 8398,
      "घातले": 8399,
      "पराभूत": 8400,
      "अहवालात": 8401,
      "वेगवेगळे": 8402,
      "दमदार": 8403,
      "कपड": 8404,
      "शौ": 8405,
      "##ांस": 8406,
      "##विषयक": 8407,
      "तरच": 8408,
      "वर्च": 8409,
      "सरस": 8410,
      "दुर": 8411,
      "वर्षांची": 8412,
      "भरत": 8413,
      "गाण्या": 8414,
      "प्राची": 8415,
      "तामिळनाडू": 8416,
      "ब्रह": 8417,
      "जिओ": 8418,
      "स्वरुप": 8419,
      "जिंकली": 8420,
      "दुखाप": 8421,
      "चमक": 8422,
      "झपाट": 8423,
      "टँ": 8424,
      "बटा": 8425,
      "शाखा": 8426,
      "##त्त्व": 8427,
      "साच": 8428,
      "##पाच्या": 8429,
      "##पाची": 8430,
      "घट्ट": 8431,
      "अर्थमंत्री": 8432,
      "मारून": 8433,
      "लोख": 8434,
      "दौऱ्यावर": 8435,
      "जमिनीवर": 8436,
      "छायाचित्र": 8437,
      "बंदोबस्त": 8438,
      "पॅकेज": 8439,
      "ओटी": 8440,
      "##ct": 8441,
      "##राचे": 8442,
      "##ार्क": 8443,
      "त्यांच्यासाठी": 8444,
      "##गीकरण": 8445,
      "वेगवान": 8446,
      "कंपनीचे": 8447,
      "##एमआर": 8448,
      "यंत्रण": 8449,
      "खंडपीठ": 8450,
      "विवेक": 8451,
      "लांबी": 8452,
      "संभाव्य": 8453,
      "मजा": 8454,
      "हनु": 8455,
      "##चो": 8456,
      "##टके": 8457,
      "##ँट": 8458,
      "सरचिटणीस": 8459,
      "##पाली": 8460,
      "तिचं": 8461,
      "झाल्याचा": 8462,
      "मोदींना": 8463,
      "अध्यक्षतेखाली": 8464,
      "माझ्याकडे": 8465,
      "साहित": 8466,
      "जुनी": 8467,
      "नावाची": 8468,
      "साजरी": 8469,
      "इन्स्टिट": 8470,
      "अपयशी": 8471,
      "मनोरंजन": 8472,
      "ऐन": 8473,
      "तल": 8474,
      "नज": 8475,
      "भंड": 8476,
      "सॅ": 8477,
      "##लिंग": 8478,
      "##ॉजी": 8479,
      "##EO": 8480,
      "##लील": 8481,
      "##ान्": 8482,
      "कोणा": 8483,
      "##रोली": 8484,
      "##ंबीर": 8485,
      "दिसला": 8486,
      "मेग": 8487,
      "सोडण्यात": 8488,
      "आनंदी": 8489,
      "बघायला": 8490,
      "199": 8491,
      "महिलांच्या": 8492,
      "जिंकून": 8493,
      "##oron": 8494,
      "चाहते": 8495,
      "तोंडावर": 8496,
      "आर्ट": 8497,
      "गप्पा": 8498,
      "तळे": 8499,
      "##शै": 8500,
      "याठिकाणी": 8501,
      "##्टर": 8502,
      "म्हणुन": 8503,
      "##ेटिव्ह": 8504,
      "सांगू": 8505,
      "##ंटल": 8506,
      "पडते": 8507,
      "जागांवर": 8508,
      "महत्त": 8509,
      "कॉम": 8510,
      "लिंब": 8511,
      "आघाडीच्या": 8512,
      "सापडला": 8513,
      "##ation": 8514,
      "फरार": 8515,
      "कंपन्यांनी": 8516,
      "मुस्लीम": 8517,
      "प्रयोगशा": 8518,
      "अखिल": 8519,
      "साखळी": 8520,
      "दीपिका": 8521,
      "शास्त्रज्ञ": 8522,
      "निदर्शनास": 8523,
      "एड": 8524,
      "ठोस": 8525,
      "##ेस": 8526,
      "##वतीने": 8527,
      "##इत": 8528,
      "##os": 8529,
      "विष्ण": 8530,
      "संस्कार": 8531,
      "म्हा": 8532,
      "##विधी": 8533,
      "पुत्र": 8534,
      "वर्षापासून": 8535,
      "##ोग्रा": 8536,
      "अधिकार्‍य": 8537,
      "शिवसैनिक": 8538,
      "स्ट्र": 8539,
      "कोटींचा": 8540,
      "कॅन्सर": 8541,
      "बालक": 8542,
      "पुनर्": 8543,
      "अर्धशत": 8544,
      "अकाउंट": 8545,
      "त्वचा": 8546,
      "गिरीश": 8547,
      "कृष्णा": 8548,
      "बोग": 8549,
      "मद्य": 8550,
      "हम": 8551,
      "प्रण": 8552,
      "##स्म": 8553,
      "आणला": 8554,
      "संगी": 8555,
      "साक्षी": 8556,
      "##केल": 8557,
      "कामावर": 8558,
      "अनो": 8559,
      "##हाचे": 8560,
      "बदलून": 8561,
      "खुर्": 8562,
      "महत्त्वाचं": 8563,
      "स्वरू": 8564,
      "अद्यापही": 8565,
      "##ध्दा": 8566,
      "कार्यकर्त्यांना": 8567,
      "शांतता": 8568,
      "कागदपत्रे": 8569,
      "निघाले": 8570,
      "उद्योजक": 8571,
      "क्व": 8572,
      "फर्": 8573,
      "मय": 8574,
      "वसुली": 8575,
      "४४": 8576,
      "##वताना": 8577,
      "निमंत्र": 8578,
      "##ायच्या": 8579,
      "शकला": 8580,
      "##पादन": 8581,
      "आजपासून": 8582,
      "दिसली": 8583,
      "##कर्स": 8584,
      "बैल": 8585,
      "प्रवक्ते": 8586,
      "माध्यमिक": 8587,
      "प्रशासनाला": 8588,
      "दादर": 8589,
      "श्रद्धा": 8590,
      "निर्यात": 8591,
      "बजेट": 8592,
      "ऑपरेशन": 8593,
      "मार्गदर्शनाखाली": 8594,
      "नेमकं": 8595,
      "कब": 8596,
      "डाग": 8597,
      "##धर्म": 8598,
      "##चारी": 8599,
      "##बोल": 8600,
      "##छा": 8601,
      "##लाग": 8602,
      "विश्र": 8603,
      "मिश": 8604,
      "सोना": 8605,
      "यांच्यासोबत": 8606,
      "पहिल्याच": 8607,
      "##ंदर्भातील": 8608,
      "करोनाच्या": 8609,
      "कर्मचार्‍य": 8610,
      "खड्डे": 8611,
      "स्वयंसेवक": 8612,
      "संसदेत": 8613,
      "मनोहर": 8614,
      "सेल्सियस": 8615,
      "48": 8616,
      "कं": 8617,
      "तट": 8618,
      "##वै": 8619,
      "##ांनुसार": 8620,
      "##वाण": 8621,
      "संग्रह": 8622,
      "##िलि": 8623,
      "घेण्याचे": 8624,
      "सांगतो": 8625,
      "##डेकर": 8626,
      "येणारा": 8627,
      "उमेदव": 8628,
      "अशक्य": 8629,
      "वीस": 8630,
      "टोळी": 8631,
      "महिलांनी": 8632,
      "कोकणात": 8633,
      "उन्हाळा": 8634,
      "दृश्य": 8635,
      "हेतू": 8636,
      "अव्": 8637,
      "सद्य": 8638,
      "##कारण": 8639,
      "##शीत": 8640,
      "नसलेल्या": 8641,
      "मान्स": 8642,
      "##ॅकेट": 8643,
      "असतांना": 8644,
      "वेळेस": 8645,
      "अक्षरश": 8646,
      "टॉप": 8647,
      "मश": 8648,
      "मध्या": 8649,
      "”,": 8650,
      "##ड्र": 8651,
      "##चय": 8652,
      "##वावा": 8653,
      "##ानु": 8654,
      "##त्स": 8655,
      "परराष्ट्र": 8656,
      "##माचे": 8657,
      "##श्‍य": 8658,
      "शिथ": 8659,
      "रेस्ट": 8660,
      "घालत": 8661,
      "वाचून": 8662,
      "##्युअल": 8663,
      "बहुमत": 8664,
      "भाजपाचे": 8665,
      "बँकेने": 8666,
      "क्लिक": 8667,
      "प्रकरणाचा": 8668,
      "संसदे": 8669,
      "वकिल": 8670,
      "दृष्टिक": 8671,
      "##प्रेमी": 8672,
      "नृत्य": 8673,
      "गृ": 8674,
      "राजे": 8675,
      "विद्यापीठा": 8676,
      "##च्छे": 8677,
      "बुड": 8678,
      "निवडणुकीसाठी": 8679,
      "आठवडा": 8680,
      "उद्भव": 8681,
      "चुकीच्या": 8682,
      "हृद": 8683,
      "##IDEO": 8684,
      "मेहनत": 8685,
      "फौज": 8686,
      "महत्तवाचा": 8687,
      "मान्सून": 8688,
      "33": 8689,
      "VIDEO": 8690,
      "खत": 8691,
      "बरो": 8692,
      "लशी": 8693,
      "लंड": 8694,
      "३९": 8695,
      "##ंकडून": 8696,
      "##हाय": 8697,
      "##टल": 8698,
      "##ईस": 8699,
      "##ॅक्ट": 8700,
      "##झन": 8701,
      "##लाईन": 8702,
      "##तीचा": 8703,
      "##शाची": 8704,
      "आयकर": 8705,
      "याचिके": 8706,
      "महापालिकेत": 8707,
      "घराच्या": 8708,
      "वास्तव": 8709,
      "अख्": 8710,
      "रहिवासी": 8711,
      "सॉफ्ट": 8712,
      "अडथळा": 8713,
      "##दृष्ट्या": 8714,
      "कमतरता": 8715,
      "ओम": 8716,
      "कबु": 8717,
      "तपा": 8718,
      "वस्ती": 8719,
      "##गडा": 8720,
      "##आप": 8721,
      "साठा": 8722,
      "कारणी": 8723,
      "सोया": 8724,
      "करण्याचं": 8725,
      "करण्याबाबत": 8726,
      "वाटू": 8727,
      "##भाई": 8728,
      "लिख": 8729,
      "जाणारे": 8730,
      "मंगल": 8731,
      "एवढेच": 8732,
      "वर्तमान": 8733,
      "प्रसंगी": 8734,
      "चक्री": 8735,
      "आराख": 8736,
      "स्थानावर": 8737,
      "अध्यक्षा": 8738,
      "चल": 8739,
      "चला": 8740,
      "बेट": 8741,
      "मकर": 8742,
      "##um": 8743,
      "एकदिव": 8744,
      "मिळवले": 8745,
      "अभय": 8746,
      "दिवसांनी": 8747,
      "जाणारी": 8748,
      "रुपयांपर्यंत": 8749,
      "नागरिकत्व": 8750,
      "ट्रान्स": 8751,
      "जुना": 8752,
      "संतप्त": 8753,
      "श्रद्ध": 8754,
      "इराण": 8755,
      "मेहता": 8756,
      "सौंदर्य": 8757,
      "अनुषंगाने": 8758,
      "कार्तिक": 8759,
      "चह": 8760,
      "##फ्रे": 8761,
      "##re": 8762,
      "होण्याच्या": 8763,
      "##ानक": 8764,
      "वर्क": 8765,
      "करण्यापूर्वी": 8766,
      "मुंबईला": 8767,
      "लाड": 8768,
      "भाजपची": 8769,
      "भागवत": 8770,
      "कमीत": 8771,
      "पदक": 8772,
      "बांधका": 8773,
      "पावसाळा": 8774,
      "पिश": 8775,
      "गरजेचं": 8776,
      "##क्‍त": 8777,
      "अहमदाबाद": 8778,
      "भागीदारी": 8779,
      "निविदा": 8780,
      "अतिक": 8781,
      "०००": 8782,
      "##यन": 8783,
      "सुन": 8784,
      "मिळताच": 8785,
      "टीके": 8786,
      "नावाखाली": 8787,
      "योगी": 8788,
      "कॅप": 8789,
      "कार्यक्रमाचे": 8790,
      "मिश्रण": 8791,
      "अकोला": 8792,
      "ऋतू": 8793,
      "कन्या": 8794,
      "चं": 8795,
      "जड": 8796,
      "दस": 8797,
      "प्रताप": 8798,
      "जाण्याचा": 8799,
      "लोकं": 8800,
      "त्यांच्यात": 8801,
      "भाजपचा": 8802,
      "विचारणा": 8803,
      "अर्थाने": 8804,
      "पाठपुर": 8805,
      "कौटुंब": 8806,
      "म्हटलंय": 8807,
      "जलद": 8808,
      "संघटनेच्या": 8809,
      "कैद": 8810,
      "ख्रि": 8811,
      "दुखापत": 8812,
      "दवा": 8813,
      "बर्या": 8814,
      "लूक": 8815,
      "##भंग": 8816,
      "##ुग": 8817,
      "##oo": 8818,
      "तेंड": 8819,
      "लोकसंख्य": 8820,
      "##ावाला": 8821,
      "पडेल": 8822,
      "प्रश्नच": 8823,
      "कॅप्ट": 8824,
      "१९५": 8825,
      "आंदोलनात": 8826,
      "निर्धार": 8827,
      "ठेके": 8828,
      "शब्दांत": 8829,
      "##पदार्थ": 8830,
      "पुस्तके": 8831,
      "सोबतच": 8832,
      "सल्लागार": 8833,
      "रकमे": 8834,
      "अना": 8835,
      "आवर": 8836,
      "जायचे": 8837,
      "शू": 8838,
      "##iv": 8839,
      "झाडा": 8840,
      "स्ना": 8841,
      "##्यांकडे": 8842,
      "##दारांनी": 8843,
      "मिळावी": 8844,
      "बाईक": 8845,
      "लाइ": 8846,
      "मानस": 8847,
      "ठेवत": 8848,
      "##वायची": 8849,
      "पक्षांनी": 8850,
      "बनला": 8851,
      "जिल्हाधिका": 8852,
      "साधून": 8853,
      "आरोपीला": 8854,
      "आघाडीचे": 8855,
      "प्रशासनाकडून": 8856,
      "नेमकी": 8857,
      "डोक्यात": 8858,
      "होईपर्यंत": 8859,
      "सीमेवर": 8860,
      "बर्‍याच": 8861,
      "कारणीभूत": 8862,
      "39": 8863,
      "ठीक": 8864,
      "थे": 8865,
      "बेल": 8866,
      "रिक": 8867,
      "शब्": 8868,
      "सव्": 8869,
      "##he": 8870,
      "##ष्टात": 8871,
      "पुरो": 8872,
      "पाळी": 8873,
      "गुप्ता": 8874,
      "आजारी": 8875,
      "राहण्याची": 8876,
      "अनि": 8877,
      "बिल्ड": 8878,
      "टाकली": 8879,
      "बांधव": 8880,
      "बांधून": 8881,
      "2016": 8882,
      "##ज्ञानिक": 8883,
      "प्रत्येकाला": 8884,
      "स्वयंपाक": 8885,
      "अँटी": 8886,
      "शस्त्रक्रिया": 8887,
      "अपयश": 8888,
      "चाकण": 8889,
      "अंबानी": 8890,
      "चतु": 8891,
      "##कुल": 8892,
      "##ॉग": 8893,
      "##**": 8894,
      "यासारख्या": 8895,
      "##स्वर": 8896,
      "देण्याच्या": 8897,
      "समूह": 8898,
      "दिवसभर": 8899,
      "महाराष्ट्राचे": 8900,
      "रेखा": 8901,
      "आलंय": 8902,
      "वृत्ता": 8903,
      "तत्काळ": 8904,
      "महाड": 8905,
      "शहराच्या": 8906,
      "सीरिज": 8907,
      "कौटुंबिक": 8908,
      "भगत": 8909,
      "##ऊक": 8910,
      "##पत्ता": 8911,
      "असणारी": 8912,
      "##पीएफ": 8913,
      "##हिता": 8914,
      "##बीन": 8915,
      "कॉर्प": 8916,
      "घालण्यात": 8917,
      "रेल्वेच्या": 8918,
      "कमाल": 8919,
      "बँकेत": 8920,
      "सोन्याच्या": 8921,
      "उल्हास": 8922,
      "सतर्क": 8923,
      "संकेतस्थ": 8924,
      "बॉलीवूड": 8925,
      "खरोखर": 8926,
      "कट्ट": 8927,
      "यावा": 8928,
      "हौ": 8929,
      "हसन": 8930,
      "##ेमध्ये": 8931,
      "##ावती": 8932,
      "##ालयात": 8933,
      "उपज": 8934,
      "लागल्याने": 8935,
      "##ुलकर": 8936,
      "जाणारा": 8937,
      "पाचव्या": 8938,
      "गमाव": 8939,
      "कॉलनी": 8940,
      "टिळक": 8941,
      "दिनांक": 8942,
      "धोक्यात": 8943,
      "विश्वचषक": 8944,
      "अस्तित्वात": 8945,
      "दुःख": 8946,
      "लिमिटेड": 8947,
      "पदार्पण": 8948,
      "कक्ष": 8949,
      "चिम": 8950,
      "नुसार": 8951,
      "पर्जन": 8952,
      "श्रम": 8953,
      "षटकार": 8954,
      "हंगा": 8955,
      "##ण्याबाबत": 8956,
      "स्वि": 8957,
      "देणारा": 8958,
      "परवाना": 8959,
      "कुर्": 8960,
      "मिळण्याची": 8961,
      "देशभरातील": 8962,
      "प्रामाण": 8963,
      "कराड": 8964,
      "वेळीच": 8965,
      "मजूर": 8966,
      "बाळाला": 8967,
      "मातो": 8968,
      "दारु": 8969,
      "अर्थातच": 8970,
      "अभिषेक": 8971,
      "अस्तित्व": 8972,
      "कौशल्य": 8973,
      "पंढरपूर": 8974,
      "महादेव": 8975,
      "बुर": 8976,
      "##यव": 8977,
      "##हरण": 8978,
      "विचित्र": 8979,
      "मतभेद": 8980,
      "प्रकारचा": 8981,
      "##न्सिंग": 8982,
      "घडले": 8983,
      "##वर्गीय": 8984,
      "इच्छुक": 8985,
      "कार्यक्रमाला": 8986,
      "सैन्या": 8987,
      "राखीव": 8988,
      "एक्स्प्रेस": 8989,
      "दैनंद": 8990,
      "ठप्प": 8991,
      "बिय": 8992,
      "वाव": 8993,
      "##ेरी": 8994,
      "##्यत": 8995,
      "##लेंडर": 8996,
      "किंमतीत": 8997,
      "वापरली": 8998,
      "पीसीबी": 8999,
      "बँका": 9000,
      "२०१३": 9001,
      "सगळ्यांना": 9002,
      "ब्रिटन": 9003,
      "##भोवती": 9004,
      "अष्ट": 9005,
      "क्वि": 9006,
      "ज्यांच्या": 9007,
      "तंब": 9008,
      "यो": 9009,
      "##साव": 9010,
      "##मंद": 9011,
      "##द्री": 9012,
      "कोथ": 9013,
      "##मध्येच": 9014,
      "##िवार": 9015,
      "तुलना": 9016,
      "##पीएस": 9017,
      "बनले": 9018,
      "पत्रात": 9019,
      "नियमावली": 9020,
      "##पोटी": 9021,
      "शूटिंग": 9022,
      "मिलिंद": 9023,
      "ब्राह्मण": 9024,
      "चक्रीवाद": 9025,
      "दराने": 9026,
      "पाण": 9027,
      "भिज": 9028,
      "##सून": 9029,
      "##ंही": 9030,
      "##इस": 9031,
      "##ांत्य": 9032,
      "##राची": 9033,
      "मोहित": 9034,
      "##स्तव": 9035,
      "##ांगी": 9036,
      "##डीवर": 9037,
      "दाखवला": 9038,
      "कृष": 9039,
      "जवळच्या": 9040,
      "##मोहन": 9041,
      "ट्विटरवर": 9042,
      "बेकायदेशीर": 9043,
      "अचूक": 9044,
      "सॅनिट": 9045,
      "दैनंदिन": 9046,
      "उघ": 9047,
      "छगन": 9048,
      "दण": 9049,
      "५२": 9050,
      "##चून": 9051,
      "##वर्ड": 9052,
      "##ईम": 9053,
      "##स्सा": 9054,
      "महोत्स": 9055,
      "साद": 9056,
      "असल्यानं": 9057,
      "शिब": 9058,
      "लाच": 9059,
      "चालली": 9060,
      "मिळाल्या": 9061,
      "ठाकरेंनी": 9062,
      "पक्षाची": 9063,
      "दौऱ्या": 9064,
      "पसरली": 9065,
      "उभारण्यात": 9066,
      "महिन्यांत": 9067,
      "बॅटरी": 9068,
      "बर्याच": 9069,
      "तेंडुलकर": 9070,
      "अदा": 9071,
      "चिन्ह": 9072,
      "पशु": 9073,
      "##जात": 9074,
      "##भावी": 9075,
      "##िमे": 9076,
      "##ul": 9077,
      "संवेदनशील": 9078,
      "कोंब": 9079,
      "पुर्ण": 9080,
      "##शाला": 9081,
      "##संस्कार": 9082,
      "चालना": 9083,
      "##घाट": 9084,
      "लिहिलं": 9085,
      "##स्थापित": 9086,
      "तिकिट": 9087,
      "समर्थक": 9088,
      "द्वारे": 9089,
      "संचारबंदी": 9090,
      "अमृता": 9091,
      "पंप": 9092,
      "बर्फ": 9093,
      "##20": 9094,
      "##्टन": 9095,
      "माले": 9096,
      "##जेक्ट": 9097,
      "गोल्ड": 9098,
      "युव": 9099,
      "किसान": 9100,
      "पदावर": 9101,
      "शोधून": 9102,
      "खेळाडूंना": 9103,
      "नकारात्मक": 9104,
      "करणाऱ्यां": 9105,
      "स्थगिती": 9106,
      "सुप्रिया": 9107,
      "व्यासपीठ": 9108,
      "गुणवत्ता": 9109,
      "प्राचीन": 9110,
      "कॉर्पोर": 9111,
      "कले": 9112,
      "दाल": 9113,
      "भिव": 9114,
      "सारा": 9115,
      "४१": 9116,
      "५१": 9117,
      "आयसीसी": 9118,
      "वाटचाल": 9119,
      "##मारे": 9120,
      "मेंदू": 9121,
      "पक्षप्रमुख": 9122,
      "अजिंक": 9123,
      "रस्त्याच्या": 9124,
      "करोनाचा": 9125,
      "माता": 9126,
      "उभारणी": 9127,
      "रुग्णालयातील": 9128,
      "तोडगा": 9129,
      "भेटीला": 9130,
      "टॅक्सी": 9131,
      "विक्रेत": 9132,
      "खाल्": 9133,
      "वैशिष्ट्य": 9134,
      "संपुष्टात": 9135,
      "??": 9136,
      "ऑटो": 9137,
      "जेट": 9138,
      "##मच्या": 9139,
      "##ूष": 9140,
      "##ख्यात": 9141,
      "##क्ष्म": 9142,
      "पाण्याच्या": 9143,
      "व्यतिरिक्त": 9144,
      "तीच": 9145,
      "दाखवत": 9146,
      "राज्यभरात": 9147,
      "आईला": 9148,
      "विरार": 9149,
      "कॅप्टन": 9150,
      "प्रामाणिक": 9151,
      "गप्प": 9152,
      "नफा": 9153,
      "##्ही": 9154,
      "##डेट": 9155,
      "##िओ": 9156,
      "##oc": 9157,
      "##्यान": 9158,
      "##सागर": 9159,
      "##वरच": 9160,
      "##त्वे": 9161,
      "पाने": 9162,
      "असंख्य": 9163,
      "##य़ात": 9164,
      "मंगेश": 9165,
      "खरंच": 9166,
      "विद्यापीठाच्या": 9167,
      "कंपन्यांना": 9168,
      "##est": 9169,
      "संगम": 9170,
      "हंगामात": 9171,
      "एकदिवसीय": 9172,
      "आसाम": 9173,
      "खऱ्या": 9174,
      "##ंसह": 9175,
      "##गां": 9176,
      "##लच्या": 9177,
      "##शिक्ष": 9178,
      "##ag": 9179,
      "##फोड": 9180,
      "राज्या": 9181,
      "येताच": 9182,
      "सर्वप्र": 9183,
      "सांगा": 9184,
      "सांगताना": 9185,
      "शिष": 9186,
      "माझ्यावर": 9187,
      "स्पर्श": 9188,
      "काढत": 9189,
      "वैज्ञानिक": 9190,
      "नागरिकांची": 9191,
      "चौकात": 9192,
      "माणसे": 9193,
      "माणसं": 9194,
      "##मंत्र्यांनी": 9195,
      "प्रेमात": 9196,
      "दृष्टिकोन": 9197,
      "घोड": 9198,
      "तस": 9199,
      "तत्व": 9200,
      "लघु": 9201,
      "##भक्त": 9202,
      "##ंढ": 9203,
      "सुळे": 9204,
      "सुधीर": 9205,
      "म्हात": 9206,
      "##करांना": 9207,
      "उपांत्य": 9208,
      "चित्रपटातील": 9209,
      "अपक्ष": 9210,
      "डोनाल्ड": 9211,
      "रिप": 9212,
      "विश्‍": 9213,
      "बोलाव": 9214,
      "शेतकऱ्यांचे": 9215,
      "करोनाची": 9216,
      "##पदाचा": 9217,
      "शेवटचा": 9218,
      "गायब": 9219,
      "रॅली": 9220,
      "जालना": 9221,
      "किस": 9222,
      "घाई": 9223,
      "नर्स": 9224,
      "##प्य": 9225,
      "##!!": 9226,
      "##नाचं": 9227,
      "निलंबित": 9228,
      "समारंभ": 9229,
      "म्हणते": 9230,
      "दुपार": 9231,
      "##ियात": 9232,
      "वर्षांनी": 9233,
      "भाज्या": 9234,
      "व्याख्या": 9235,
      "कर्जत": 9236,
      "वनडे": 9237,
      "दाट": 9238,
      "तरुणांना": 9239,
      "फ्लॅट": 9240,
      "वर्चस्व": 9241,
      "छळ": 9242,
      "नयेत": 9243,
      "हिने": 9244,
      "##शास": 9245,
      "##तीची": 9246,
      "पोटन": 9247,
      "##िवडण": 9248,
      "काळातील": 9249,
      "चालणार": 9250,
      "युवराज": 9251,
      "विभागाकडून": 9252,
      "##सिद्ध": 9253,
      "शिवसेनेत": 9254,
      "अमेरिकेचे": 9255,
      "जयंती": 9256,
      "पोस्टर": 9257,
      "अभिमान": 9258,
      "हिरव्या": 9259,
      "डाऊन": 9260,
      "तात्पुर": 9261,
      "विनय": 9262,
      "फेटाळ": 9263,
      "अव्वल": 9264,
      "अजिंक्य": 9265,
      "[…": 9266,
      "एबी": 9267,
      "तिव": 9268,
      "रखड": 9269,
      "##भी": 9270,
      "##नामी": 9271,
      "संसार": 9272,
      "##रीचे": 9273,
      "हेक्टर": 9274,
      "##विनी": 9275,
      "पुरात": 9276,
      "राज्यांमध्ये": 9277,
      "मोर": 9278,
      "लागतं": 9279,
      "##देशिक": 9280,
      "डोळ्यात": 9281,
      "२०११": 9282,
      "आधारावर": 9283,
      "##and": 9284,
      "लोह": 9285,
      "नियंत्रणात": 9286,
      "संघटनेने": 9287,
      "कंटेन": 9288,
      "तिथल्या": 9289,
      "महिन्यांपूर्वी": 9290,
      "अधिवेश": 9291,
      "##ews": 9292,
      "[…]": 9293,
      "दत्": 9294,
      "बट": 9295,
      "लाज": 9296,
      "सक्ती": 9297,
      "४३": 9298,
      "##सिस": 9299,
      "##ig": 9300,
      "केव्हा": 9301,
      "वाझे": 9302,
      "साक्ष": 9303,
      "अनंत": 9304,
      "आरोपींनी": 9305,
      "बघता": 9306,
      "व्यवसायात": 9307,
      "जर्मनी": 9308,
      "घेवून": 9309,
      "उपनिरी": 9310,
      "आऊट": 9311,
      "उदा": 9312,
      "डब": 9313,
      "रक्ता": 9314,
      "वांद": 9315,
      "सप": 9316,
      "सफाई": 9317,
      "हत्य": 9318,
      "##गोल": 9319,
      "वित्त": 9320,
      "##करांनी": 9321,
      "उपनग": 9322,
      "परिधान": 9323,
      "केंद्रावर": 9324,
      "व्याप": 9325,
      "अपहरण": 9326,
      "मार्गाने": 9327,
      "पॉवर": 9328,
      "##योग्य": 9329,
      "कोणालाही": 9330,
      "घोटाळा": 9331,
      "नगरा": 9332,
      "पोटनिवडण": 9333,
      "इति": 9334,
      "खार": 9335,
      "पिं": 9336,
      "मनावर": 9337,
      "##राय": 9338,
      "##पद्ध": 9339,
      "##बोली": 9340,
      "##खाने": 9341,
      "प्रां": 9342,
      "काका": 9343,
      "केअर": 9344,
      "दिनेश": 9345,
      "निरो": 9346,
      "##ंगे": 9347,
      "##दाम": 9348,
      "##पाने": 9349,
      "##ंद्रा": 9350,
      "त्यातही": 9351,
      "किल्ल्या": 9352,
      "प्राध्यापक": 9353,
      "माझ्यासाठी": 9354,
      "मध्यवर्ती": 9355,
      "नदीच्या": 9356,
      "शुक्रवार": 9357,
      "महानगरपालिका": 9358,
      "माघारी": 9359,
      "दुर्दैवी": 9360,
      "प्रदूषण": 9361,
      "अब्ज": 9362,
      "##ब्ल्यू": 9363,
      "बघा": 9364,
      "सिन": 9365,
      "##जिक": 9366,
      "##ंढे": 9367,
      "त्यावरून": 9368,
      "##मुखी": 9369,
      "परब": 9370,
      "गोंद": 9371,
      "अवयव": 9372,
      "मारले": 9373,
      "भावनिक": 9374,
      "इंडियन्स": 9375,
      "कमांड": 9376,
      "##रूद्ध": 9377,
      "गुंतवणुकी": 9378,
      "दलाच्या": 9379,
      "सोन्याचे": 9380,
      "शेजार": 9381,
      "टेक": 9382,
      "दत्ता": 9383,
      "ध्ये": 9384,
      "पत्ता": 9385,
      "सजाव": 9386,
      "##भावा": 9387,
      "##यास": 9388,
      "##डिय": 9389,
      "##लर्स": 9390,
      "##pp": 9391,
      "##उट": 9392,
      "वाळू": 9393,
      "##पाचा": 9394,
      "##स्टार": 9395,
      "##ष्कार": 9396,
      "सेक्स": 9397,
      "ठेवलं": 9398,
      "ठरवलं": 9399,
      "##ांवरून": 9400,
      "##ंचाई": 9401,
      "अनुसू": 9402,
      "करतोय": 9403,
      "नेमका": 9404,
      "वॉर्ड": 9405,
      "महिलेच्या": 9406,
      "विनायक": 9407,
      "मालिकेतील": 9408,
      "नुकसानी": 9409,
      "विश्रांती": 9410,
      "डेल": 9411,
      "दै": 9412,
      "वयात": 9413,
      "##्यतिरिक्त": 9414,
      "होणं": 9415,
      "##स्को": 9416,
      "##ंट्स": 9417,
      "सामूह": 9418,
      "युरो": 9419,
      "गेल्यावर": 9420,
      "कारणांमुळे": 9421,
      "##्यूब": 9422,
      "जवळील": 9423,
      "मुद्द्या": 9424,
      "कर्मचाऱ्यांनी": 9425,
      "तिसरी": 9426,
      "उभं": 9427,
      "मिरची": 9428,
      "मधुमे": 9429,
      "सामूहिक": 9430,
      "कण": 9431,
      "ग्": 9432,
      "गर्ल": 9433,
      "मनाला": 9434,
      "सरा": 9435,
      "##ताचा": 9436,
      "मुहू": 9437,
      "वाक": 9438,
      "सांगते": 9439,
      "वाटतो": 9440,
      "ठेवू": 9441,
      "रेम": 9442,
      "टाळा": 9443,
      "आरटी": 9444,
      "संस्थेचे": 9445,
      "आघाडीवर": 9446,
      "जनतेने": 9447,
      "मांस": 9448,
      "पाठपुरावा": 9449,
      "38": 9450,
      "52": 9451,
      "नीर": 9452,
      "बॅक": 9453,
      "##ुली": 9454,
      "##तीचे": 9455,
      "विचारा": 9456,
      "स्क्र": 9457,
      "##कार्ड": 9458,
      "तरूण": 9459,
      "हानी": 9460,
      "घेणाऱ्या": 9461,
      "अनुकूल": 9462,
      "रुग्णसंख्या": 9463,
      "बसणार": 9464,
      "मुलांसाठी": 9465,
      "विरोधकांनी": 9466,
      "अ‍ॅड": 9467,
      "प्रतीक": 9468,
      "##une": 9469,
      "चोरट्यांनी": 9470,
      "वांद्रे": 9471,
      "IP": 9472,
      "आळ": 9473,
      "कडा": 9474,
      "छोटी": 9475,
      "फेटा": 9476,
      "मेट": 9477,
      "लखन": 9478,
      "##ॉप्ट": 9479,
      "##फेल": 9480,
      "##ॅड": 9481,
      "यायला": 9482,
      "वाड": 9483,
      "मिशन": 9484,
      "माळ": 9485,
      "##हानी": 9486,
      "पाहिला": 9487,
      "##सायला": 9488,
      "आरोग्यमंत्री": 9489,
      "झालंय": 9490,
      "शिक्": 9491,
      "गटात": 9492,
      "सोनवणे": 9493,
      "छोटा": 9494,
      "गडचि": 9495,
      "हिवाळा": 9496,
      "बौद्ध": 9497,
      "ज्ञानेश्वर": 9498,
      "धन्यवाद": 9499,
      "कबुली": 9500,
      "सर्वप्रथम": 9501,
      "राणा": 9502,
      "शान": 9503,
      "शोक": 9504,
      "##सच्या": 9505,
      "##लयात": 9506,
      "##पाणी": 9507,
      "करावेत": 9508,
      "##ंगत": 9509,
      "हेलिक": 9510,
      "वर्षभर": 9511,
      "##ष्ठा": 9512,
      "##्राइ": 9513,
      "केंद्रित": 9514,
      "ज्याला": 9515,
      "पुरावा": 9516,
      "इतक": 9517,
      "फिरत": 9518,
      "हरिय": 9519,
      "फाशी": 9520,
      "मराठवाडा": 9521,
      "हल्ल्यात": 9522,
      "प्रमोद": 9523,
      "दुबई": 9524,
      "##श्‍यक": 9525,
      "गार्ड": 9526,
      "जेल": 9527,
      "तज्ञ": 9528,
      "बह": 9529,
      "मंच": 9530,
      "मॅन": 9531,
      "हास": 9532,
      "९९": 9533,
      "##ai": 9534,
      "##फळ": 9535,
      "##ण्यापेक्षा": 9536,
      "केदार": 9537,
      "दिसेल": 9538,
      "##ांनीही": 9539,
      "दिव्या": 9540,
      "पाहण्यासाठी": 9541,
      "##ियाच्या": 9542,
      "मानला": 9543,
      "विचारलं": 9544,
      "##विधा": 9545,
      "पेमेंट": 9546,
      "कॅम्प": 9547,
      "पीठ": 9548,
      "पीएम": 9549,
      "चिमुक": 9550,
      "कामाचा": 9551,
      "समस्ये": 9552,
      "अखेरीस": 9553,
      "ताबा": 9554,
      "राखून": 9555,
      "अफवा": 9556,
      "गौतम": 9557,
      "कोकणातील": 9558,
      "पृथ्वीराज": 9559,
      "उद्देशाने": 9560,
      "दानवे": 9561,
      "हार्दिक": 9562,
      "परदेशात": 9563,
      "सवलत": 9564,
      "पॉलिसी": 9565,
      "रहिवाश": 9566,
      "42": 9567,
      "कवित": 9568,
      "जावं": 9569,
      "दळ": 9570,
      "फ़": 9571,
      "सक": 9572,
      "##ेपणा": 9573,
      "##द्वार": 9574,
      "साध्य": 9575,
      "घेणं": 9576,
      "मिळाल्याने": 9577,
      "चौकार": 9578,
      "##ळ्याच्या": 9579,
      "चित्रपटाचे": 9580,
      "होतोय": 9581,
      "चिख": 9582,
      "क्रिकेटमध्ये": 9583,
      "दिवसांपूर्वीच": 9584,
      "कंटा": 9585,
      "माणसाला": 9586,
      "ठराविक": 9587,
      "इस्र": 9588,
      "कोट्यव": 9589,
      "हिंसाचार": 9590,
      "##ाबाहेर": 9591,
      "कोट्यवधी": 9592,
      "आचार": 9593,
      "चार्ज": 9594,
      "४६": 9595,
      "##्रोल": 9596,
      "आहेस": 9597,
      "##तेसाठी": 9598,
      "निवे": 9599,
      "##ल्डक": 9600,
      "सर्वोत्": 9601,
      "राधा": 9602,
      "सरकारकडे": 9603,
      "राहणे": 9604,
      "##संपदा": 9605,
      "पडद्यावर": 9606,
      "वेगळं": 9607,
      "पेठ": 9608,
      "पावडर": 9609,
      "##स्थितीत": 9610,
      "##्वस्त": 9611,
      "फायनल": 9612,
      "आठवड्या": 9613,
      "महिलेचा": 9614,
      "हॉटेलमध्ये": 9615,
      "प्रियंका": 9616,
      "अब्दुल": 9617,
      "''": 9618,
      "Coron": 9619,
      "इंद्र": 9620,
      "ग्रीन": 9621,
      "मिक्स": 9622,
      "##चर्स": 9623,
      "##फास": 9624,
      "##ँक": 9625,
      "##साळ": 9626,
      "विस्क": 9627,
      "मिनी": 9628,
      "नसतात": 9629,
[...]
