{
  "version": "1.0",
  "truncation": null,
  "padding": null,
  "added_tokens": [
    {
      "id": 0,
      "content": "[UNK]",
      "single_word": false,
      "lstrip": false,
      "rstrip": false,
      "normalized": false,
      "special": true
    },
    {
      "id": 1,
      "content": "[PAD]",
      "single_word": false,
      "lstrip": false,
      "rstrip": false,
      "normalized": false,
      "special": true
    },
    {
      "id": 2,
      "content": "[CLS]",
      "single_word": false,
      "lstrip": false,
      "rstrip": false,
      "normalized": false,
      "special": true
    },
    {
      "id": 3,
      "content": "[SEP]",
      "single_word": false,
      "lstrip": false,
      "rstrip": false,
      "normalized": false,
      "special": true
    },
    {
      "id": 4,
      "content": "[MASK]",
      "single_word": false,
      "lstrip": false,
      "rstrip": false,
      "normalized": false,
      "special": true
    }
  ],
  "normalizer": null,
  "pre_tokenizer": {
    "type": "ByteLevel",
    "add_prefix_space": true,
    "trim_offsets": true,
    "use_regex": true
  },
  "post_processor": null,
  "decoder": null,
  "model": {
    "type": "BPE",
    "dropout": null,
    "unk_token": "[UNK]",
    "continuing_subword_prefix": null,
    "end_of_word_suffix": null,
    "fuse_unk": false,
    "byte_fallback": false,
    "ignore_merges": false,
    "vocab": {
      "[UNK]": 0,
      "[PAD]": 1,
      "[CLS]": 2,
      "[SEP]": 3,
      "[MASK]": 4,
      "!": 5,
      "\"": 6,
      "#": 7,
      "$": 8,
      "%": 9,
      "&": 10,
      "'": 11,
      "(": 12,
      ")": 13,
      "*": 14,
      "+": 15,
      ",": 16,
      "-": 17,
      ".": 18,
      "/": 19,
      "0": 20,
      "1": 21,
      "2": 22,
      "3": 23,
      "4": 24,
      "5": 25,
      "6": 26,
      "7": 27,
      "8": 28,
      "9": 29,
      ":": 30,
      ";": 31,
      "<": 32,
      "=": 33,
      ">": 34,
      "?": 35,
      "@": 36,
      "A": 37,
      "B": 38,
      "C": 39,
      "D": 40,
      "E": 41,
      "F": 42,
      "G": 43,
      "H": 44,
      "I": 45,
      "J": 46,
      "K": 47,
      "L": 48,
      "M": 49,
      "N": 50,
      "O": 51,
      "P": 52,
      "Q": 53,
      "R": 54,
      "S": 55,
      "T": 56,
      "U": 57,
      "V": 58,
      "W": 59,
      "X": 60,
      "Y": 61,
      "Z": 62,
      "[": 63,
      "\\": 64,
      "]": 65,
      "^": 66,
      "_": 67,
      "`": 68,
      "a": 69,
      "b": 70,
      "c": 71,
      "d": 72,
      "e": 73,
      "f": 74,
      "g": 75,
      "h": 76,
      "i": 77,
      "j": 78,
      "k": 79,
      "l": 80,
      "m": 81,
      "n": 82,
      "o": 83,
      "p": 84,
      "q": 85,
      "r": 86,
      "s": 87,
      "t": 88,
      "u": 89,
      "v": 90,
      "w": 91,
      "x": 92,
      "y": 93,
      "z": 94,
      "{": 95,
      "|": 96,
      "}": 97,
      "~": 98,
      "¡": 99,
      "¢": 100,
      "£": 101,
      "¤": 102,
      "¥": 103,
      "¦": 104,
      "§": 105,
      "¨": 106,
      "©": 107,
      "ª": 108,
      "«": 109,
      "¬": 110,
      "®": 111,
      "¯": 112,
      "°": 113,
      "±": 114,
      "²": 115,
      "³": 116,
      "´": 117,
      "µ": 118,
      "¶": 119,
      "·": 120,
      "¸": 121,
      "¹": 122,
      "º": 123,
      "»": 124,
      "¼": 125,
      "½": 126,
      "¾": 127,
      "¿": 128,
      "À": 129,
      "Á": 130,
      "Â": 131,
      "Ã": 132,
      "Ä": 133,
      "Å": 134,
      "Æ": 135,
      "Ç": 136,
      "È": 137,
      "É": 138,
      "Ê": 139,
      "Ë": 140,
      "Ì": 141,
      "Í": 142,
      "Î": 143,
      "Ï": 144,
      "Ð": 145,
      "Ñ": 146,
      "Ò": 147,
      "Ó": 148,
      "Ô": 149,
      "Õ": 150,
      "Ö": 151,
      "×": 152,
      "Ø": 153,
      "Ù": 154,
      "Ú": 155,
      "Û": 156,
      "Ü": 157,
      "Ý": 158,
      "Þ": 159,
      "ß": 160,
      "à": 161,
      "á": 162,
      "â": 163,
      "ã": 164,
      "ä": 165,
      "å": 166,
      "æ": 167,
      "ç": 168,
      "è": 169,
      "é": 170,
      "ê": 171,
      "ë": 172,
      "ì": 173,
      "í": 174,
      "î": 175,
      "ï": 176,
      "ð": 177,
      "ñ": 178,
      "ò": 179,
      "ó": 180,
      "ô": 181,
      "õ": 182,
      "ö": 183,
      "÷": 184,
      "ø": 185,
      "ù": 186,
      "ú": 187,
      "û": 188,
      "ü": 189,
      "ý": 190,
      "þ": 191,
      "ÿ": 192,
      "Ā": 193,
      "ā": 194,
      "Ă": 195,
      "ă": 196,
      "Ą": 197,
      "ą": 198,
      "Ć": 199,
      "ć": 200,
      "Ĉ": 201,
      "ĉ": 202,
      "Ċ": 203,
      "ċ": 204,
      "Č": 205,
      "č": 206,
      "Ď": 207,
      "ď": 208,
      "Đ": 209,
      "đ": 210,
      "Ē": 211,
      "ē": 212,
      "Ĕ": 213,
      "ĕ": 214,
      "Ė": 215,
      "ė": 216,
      "Ę": 217,
      "ę": 218,
      "Ě": 219,
      "ě": 220,
      "Ĝ": 221,
      "ĝ": 222,
      "Ğ": 223,
      "ğ": 224,
      "Ġ": 225,
      "ġ": 226,
      "Ģ": 227,
      "ģ": 228,
      "Ĥ": 229,
      "ĥ": 230,
      "Ħ": 231,
      "ħ": 232,
      "Ĩ": 233,
      "ĩ": 234,
      "Ī": 235,
      "ī": 236,
      "Ĭ": 237,
      "ĭ": 238,
      "Į": 239,
      "į": 240,
      "İ": 241,
      "ı": 242,
      "Ĳ": 243,
      "ĳ": 244,
      "Ĵ": 245,
      "ĵ": 246,
      "Ķ": 247,
      "ķ": 248,
      "ĸ": 249,
      "Ĺ": 250,
      "ĺ": 251,
      "Ļ": 252,
      "ļ": 253,
      "Ľ": 254,
      "ľ": 255,
      "Ŀ": 256,
      "ŀ": 257,
      "Ł": 258,
      "ł": 259,
      "Ń": 260,
      "à¤": 261,
      "à¥": 262,
      "Ġà¤": 263,
      "à¤¾": 264,
      "à¥į": 265,
      "à¤°": 266,
      "à¥ĩ": 267,
      "à¥Ģ": 268,
      "à¤¤": 269,
      "à¤¯": 270,
      "à¤²": 271,
      "à¤¿": 272,
      "à¤¨": 273,
      "à¤Ĥ": 274,
      "à¤ķ": 275,
      "à¤µ": 276,
      "à¤ļ": 277,
      "à¤¸": 278,
      "à¤¹": 279,
      "à¤£": 280,
      "à¥ĭ": 281,
      "Ġà¤ķ": 282,
      "Ġà¤Ĩ": 283,
      "à¤®": 284,
      "à¥ģ": 285,
      "Ġà¤¸": 286,
      "Ġà¤ª": 287,
      "Ġà¤®": 288,
      "à¤¾à¤Ĥ": 289,
      "à¤ª": 290,
      "à¤¦": 291,
      "Ġà¤¤": 292,
      "à¥Ĥ": 293,
      "Ġà¤ħ": 294,
      "à¤Ĺ": 295,
      "à¤Ł": 296,
      "Ġà¤µ": 297,
      "à¤¡": 298,
      "à¤ľ": 299,
      "Ġà¤¯": 300,
      "Ġà¤¹": 301,
      "à¤§": 302,
      "Ġà¤¨": 303,
      "à¤³": 304,
      "Ġà¤¦": 305,
      "à¤¶": 306,
      "à¥ĩ.": 307,
      "Ġà¤Ĩà¤¹": 308,
      "à¤·": 309,
      "à¤¬": 310,
      "Ġà¤ľ": 311,
      "Ġà¤°": 312,
      "čĊ": 313,
      "Ġà¤¬": 314,
      "Ġà¤ķà¤°": 315,
      "Ġà¤ħà¤¸": 316,
      "Ġà¤¶": 317,
      "à¤ł": 318,
      "Ġà¤Ĺ": 319,
      "Ġà¤²": 320,
      "à¤ĸ": 321,
      "à¤µà¤°": 322,
      "à¤¥": 323,
      "Ġà¤Ń": 324,
      "Ġà¤Ĩà¤£": 325,
      "Ġà¤ļ": 326,
      "Ġà¤ĺ": 327,
      "à¤Ń": 328,
      "Ġà¤ī": 329,
      "Ġà¤ı": 330,
      "à¥Ģ.": 331,
      "Ġà¥": 332,
      "âĢ": 333,
      "Ġà¤Ŀ": 334,
      "à¤°à¤ķ": 335,
      "à¤Ī": 336,
      "à¤¾.": 337,
      "à¤®à¤§": 338,
      "Ġà¤ĸ": 339,
      "à¤¤à¤°": 340,
      "Ġà¤ķà¤°à¤£": 341,
      "Ġà¤ıà¤ķ": 342,
      "Ġà¤«": 343,
      "à¤°à¤¤": 344,
      "Ġà¤Ĩà¤²": 345,
      "à¤¿à¤Ĥ": 346,
      "à¤¢": 347,
      "à¥ī": 348,
      "Ġà¤®à¤¹": 349,
      "Ġà¤Ł": 350,
      "à¤°à¤£": 351,
      "à¤¯à¤ķ": 352,
      "Ġà¤¤à¤°": 353,
      "à¤¹à¤£": 354,
      "Ġà¤ªà¤°": 355,
      "à¤ĺ": 356,
      "à¥ĥ": 357,
      "Ġà¤ĩ": 358,
      "à¥Ī": 359,
      "à¥ĩ,": 360,
      "à¤µà¤¸": 361,
      "à¤°à¤®": 362,
      "Ġà¤ł": 363,
      "à¤ķà¤°": 364,
      "à¥ĩà¤Ĥ": 365,
      "à¥ħ": 366,
      "à¤«": 367,
      "à¤Ĭ": 368,
      "à¥Ģ,": 369,
      "Ġà¤¡": 370,
      "à¤¤à¤²": 371,
      "à¤ķà¤¡": 372,
      "Ġà¤ħà¤¸à¤²": 373,
      "Ġà¤Ĩà¤ª": 374,
      "à¤°à¤µ": 375,
      "à¤ªà¤°": 376,
      "à¥¦": 377,
      "à¥ģà¤Ĥ": 378,
      "à¤±": 379,
      "Ġà¤§": 380,
      "Ġà¤¸à¤°": 381,
      "Ġà¤¸à¤®": 382,
      "Ġà¤ħà¤¨": 383,
      "Ġà¤µà¤°": 384,
      "ĠâĢ": 385,
      "à¤µà¤²": 386,
      "Ġà¤ħà¤¸à¤¤": 387,
      "Ġà¤ķà¤°à¤¤": 388,
      "à¤¾,": 389,
      "Ġà¤ħà¤¶": 390,
      "Ġà¤Ĩà¤ªà¤²": 391,
      "à¤°à¤¸": 392,
      "à¤µà¤£": 393,
      "Ġ(": 394,
      "à¤¯à¤®": 395,
      "à¤Ŀ": 396,
      "Ġà¤īà¤ª": 397,
      "Ġà¤ħà¤§": 398,
      "à¤°à¤ļ": 399,
      "à¤µà¤¤": 400,
      "§à¥": 401,
      "à¥Ģà¤Ĥ": 402,
      "Ġà¤¶à¤ķ": 403,
      "Ġà¤Ĩà¤¤": 404,
      "à¤Ĺà¤²": 405,
      "à¤°à¤²": 406,
      "à¤µà¤¡": 407,
      "à¥Į": 408,
      "..": 409,
      "Ġà¤¨à¤µ": 410,
      "à¤¦à¤°": 411,
      "âĢĻ": 412,
      "Ġà¤Ĩà¤°": 413,
      "à¤·à¤£": 414,
      "à¤¸à¤°": 415,
      "à¤¬à¤°": 416,
      "à¤ı": 417,
      "à¤ģ": 418,
      "à¤ľà¤¨": 419,
      "Ġà¥¨": 420,
      "à¤¡à¤²": 421,
      "à¤Ĺà¤¤": 422,
      "à¤¯à¤¤": 423,
      "à¤Ĺà¤°": 424,
      "Ġ1": 425,
      "ĠâĢĺ": 426,
      "à¤¬à¤¤": 427,
      "Ġà¤¸à¤°à¤ķ": 428,
      "à¤Łà¤²": 429,
      "Ġà¤ªà¤£": 430,
      "à¥ĭ.": 431,
      "Ġà¤Ĩà¤ľ": 432,
      "Ġà¤Ĩà¤®": 433,
      "à¤¬à¤Ī": 434,
      "à¤²à¤¯": 435,
      "à¤°à¤ª": 436,
      "à¤ħ": 437,
      "à¤¹à¤¤": 438,
      "Ġ2": 439,
      "à¤Ĭà¤¨": 440,
      "à¤Łà¤¨": 441,
      "à¤¶à¤¨": 442,
      "à¤Ĥ.": 443,
      "âĢį": 444,
      "à¤ªà¤¨": 445,
      "Ġà¥§à¥": 446,
      "à¤Ĺà¤£": 447,
      "Ġà¤ĳ": 448,
      "à¤Ĩ": 449,
      "à¤°à¤¶": 450,
      "à¤¯à¤ļ": 451,
      "à¤¤à¤ķ": 452,
      "à¤Łà¤°": 453,
      "à¤¯à¤²": 454,
      "à¤ķà¤²": 455,
      "Ġà¤®à¤§": 456,
      "Ġà¤īà¤¤": 457,
      "à¤µà¤³": 458,
      "à¤¸à¤²": 459,
      "à¤Īà¤²": 460,
      "à¤¹à¤°": 461,
      "Ġà¤¤à¤¸": 462,
      "à¤Łà¤ķ": 463,
      "Ġà¤Ĩà¤¯": 464,
      "à¤Ĺà¤³": 465,
      "à¥įâĢį": 466,
      "à¤¸à¤¨": 467,
      "Ġà¤¥": 468,
      "Ġà¤¸à¤¹": 469,
      "Ġà¤¶à¤ķà¤¤": 470,
      "Ġ:": 471,
      "à¤¦à¤²": 472,
      "à¤®à¤ļ": 473,
      "Ġà¤ķà¤®": 474,
      "Ġà¤ħà¤°": 475,
      "à¤ľà¤ª": 476,
      "à¤²à¤ķ": 477,
      "à¤¨à¤ļ": 478,
      "Ġà¤ĺà¤°": 479,
      "Ġà¤ħà¤Ń": 480,
      "à¤°à¤¦": 481,
      "Ġà¤īà¤¦": 482,
      "à¥ĭà¤Ĥ": 483,
      "à¤ªà¤£": 484,
      "à¤¸à¤¤": 485,
      "Ġà¤¹à¤ľ": 486,
      "à¤ªà¤¯": 487,
      "à¤²à¤¨": 488,
      "Ġà¤ĵ": 489,
      "à¤®à¤¨": 490,
      "Ġ'": 491,
      "à¤®à¤¤": 492,
      "Ġà¤®à¤¨": 493,
      "Ġà¤Ĩà¤µ": 494,
      "Ġà¤ªà¤¦": 495,
      "à¤ĩ": 496,
      "Ġà¤ĸà¤°": 497,
      "Ġà¤ªà¤ķ": 498,
      "à¤ĸà¤²": 499,
      "à¤¹à¤£à¤ľ": 500,
      "Ġà¤ªà¤¹": 501,
      "à¤³à¤¤": 502,
      "à¤ªà¤¤": 503,
      "Ġà¤¦à¤°": 504,
      "à¤¡à¤£": 505,
      "à¤¸à¤¹": 506,
      "Ġà¤®à¤¤": 507,
      "à¤¾à¤ģ": 508,
      "à¤µà¤¨": 509,
      "à¤¸à¤ļ": 510,
      "à¤°à¤ľ": 511,
      "Ġà¤ªà¤¤": 512,
      "à¤°à¤ĸ": 513,
      "à¤£à¤¤": 514,
      "à¤¨à¤²": 515,
      "à¥¨": 516,
      "Ġ-": 517,
      "Ġà¤®à¤²": 518,
      "à¤µà¤¡à¤£": 519,
      "Ġà¤ħà¤®": 520,
      "Ġà¤²à¤ķ": 521,
      "Ġà¤Ĩà¤ªà¤£": 522,
      "à¤·à¤ķ": 523,
      "Ġà¤ľà¤¨": 524,
      "Ġà¤ħà¤¤": 525,
      "Ġà¥¨à¥¦": 526,
      "à¤¯à¤¦": 527,
      "à¤ľà¤¯": 528,
      "à¤¤à¤ļ": 529,
      "à¤¬à¤¦": 530,
      "à¤¯à¤¨": 531,
      "à¤°à¤¨": 532,
      "à¥«": 533,
      "à¤£à¤¯": 534,
      "Ġà¤ħà¤ª": 535,
      "Ġà¤¶à¤¹à¤°": 536,
      "à¤¦à¤¨": 537,
      "Ġà¤Ľ": 538,
      "Ġà¤¸à¤¤": 539,
      "à¤°à¤ķà¤°à¤£": 540,
      "à¤ľà¤ķ": 541,
      "Ġà¤ķà¤²": 542,
      "à¤¹à¤¨": 543,
      "à¤ĵ": 544,
      "Ġà¤®à¤°": 545,
      "Ġà¥©": 546,
      "à¤³à¤£": 547,
      "à¤¨à¤¸": 548,
      "Ġà¤¤à¤¯": 549,
      "à¤¦à¤¤": 550,
      "à¤ķà¤¤": 551,
      "à¤ľà¤°": 552,
      "à¤ķà¤¸": 553,
      "Ġ20": 554,
      "Ġà¤¹à¤µ": 555,
      "ĠâĢĵ": 556,
      "à¤ŀ": 557,
      "à¤¯à¤µà¤¸": 558,
      "Ġà¤ļà¤°": 559,
      "à¤¤à¤µ": 560,
      "Ġà¥§": 561,
      "Ġà¤Ĩà¤¦": 562,
      "à¤¾-": 563,
      "à¤Ńà¤°": 564,
      "à¤®à¤ķ": 565,
      "à¤²à¤¤": 566,
      "Ġà¤ĺà¤Łà¤¨": 567,
      "Ġà¤¸à¤§": 568,
      "à¤Ľ": 569,
      "à¥§à¥": 570,
      "Ġà¤®à¤¹à¤¤": 571,
      "à¤ħà¤°": 572,
      "Ġà¤¬à¤°": 573,
      "à¤°à¤ªà¤Ł": 574,
      "Ġà¤Ĩà¤§": 575,
      "Ġà¤ħà¤ľ": 576,
      "Ġ3": 577,
      "à¤¡à¤¤": 578,
      "à¤°à¤¯à¤¤": 579,
      "Ġà¤¨à¤ķ": 580,
      "à¤§à¤µ": 581,
      "à¤§à¤¨": 582,
      "Ġà¤¦à¤°à¤®": 583,
      "à¤ķà¤°à¤£": 584,
      "à¤·à¤¯": 585,
      "Ġà¤Łà¤ķ": 586,
      "à¤ļà¤²": 587,
      "à¤¹à¤Łà¤²": 588,
      "Ġà¤ªà¤µ": 589,
      "à¤¡à¤ķ": 590,
      "Ġà¤ķà¤¸": 591,
      "à¤³à¤²": 592,
      "à¤²à¤ļ": 593,
      "Ġà¤°à¤¸": 594,
      "Ġà¤ľà¤°": 595,
      "à¤¢à¤²": 596,
      "à¥ª": 597,
      "à¤²à¤¬": 598,
      "Ġà¤¸à¤ķ": 599,
      "Ġà¤Ĩà¤ł": 600,
      "Ġà¤¬à¤¦à¤²": 601,
      "Ġà¤ĩà¤¤à¤°": 602,
      "Ġà¤®à¤¦à¤¤": 603,
      "Ġà¤ľà¤®": 604,
      "à¤¢à¤¤": 605,
      "...": 606,
      "à¤¤à¤®": 607,
      "Ġà¥«": 608,
      "à¤ļà¤¨": 609,
      "à¥§": 610,
      "à¤¤à¤ª": 611,
      "à¤¡à¤ļ": 612,
      "à¤µà¤ļ": 613,
      "à¥©": 614,
      "à¤¹à¤®": 615,
      "à¤¯à¤µ": 616,
      "à¤¬à¤²": 617,
      "à¤¸à¤®": 618,
      "Ġà¥ª": 619,
      "Ġ\"": 620,
      "à¤°à¤§": 621,
      "à¤¦à¤µ": 622,
      "à¤¨à¤µ": 623,
      "à¥¯": 624,
      "à¤¡à¤³": 625,
      "à¤ªà¤²": 626,
      "à¤ªà¤¦": 627,
      "à¥®": 628,
      "à¤Łà¤ļ": 629,
      "à¤°à¤¹": 630,
      "à¤Łà¤¤": 631,
      "à¥¬": 632,
      "à¤ĥ": 633,
      "Ġà¤ªà¤¡à¤²": 634,
      "Ġà¤ħà¤¸à¤£": 635,
      "Ġà¤¤à¤ª": 636,
      "Ġà¤¨à¤¸à¤²": 637,
      "Ġ5": 638,
      "à¥Ń": 639,
      "à¤ī": 640,
      "à¤µà¤ķ": 641,
      "Ġà¤īà¤ªà¤¸": 642,
      "Ġà¤¸à¤Ĺà¤³": 643,
      "à¤Ĺà¤¦": 644,
      "Ġà¤®à¤¤à¤¦": 645,
      "à¤§à¤¤": 646,
      "Ġà¤ľà¤£": 647,
      "Ġà¤µà¤¸": 648,
      "ĠĠ": 649,
      "à¤²à¤Ĺ": 650,
      "Ġà¤¬à¤¸": 651,
      "Ġà¤²à¤Ĺ": 652,
      "à¤µà¤¯": 653,
      "Ġà¤Ĩà¤¶": 654,
      "à¤ķà¤£": 655,
      "Ġà¤ľà¤Ĺ": 656,
      "Ġà¤īà¤®": 657,
      "Ġà¤Ķ": 658,
      "à¤µà¤¶": 659,
      "Ġà¤Ĺà¤°à¤ľ": 660,
      "à¤¸à¤ķ": 661,
      "à¤¶à¤²": 662,
      "Ġà¤īà¤Ń": 663,
      "Ġ4": 664,
      "à¥¦à¥¦": 665,
      "Ġà¤ķà¤§": 666,
      "à¤°à¤Ń": 667,
      "Ġà¤¦à¤¹": 668,
      "Ġà¤¬à¤¹": 669,
      "à¤Ĺà¤¡": 670,
      "Ġà¤Ĺà¤°": 671,
      "à¤§à¤ķ": 672,
      "à¤¨à¤¹": 673,
      "Ġà¤Ĩà¤µà¤¶": 674,
      "à¥Ģ-": 675,
      "à¥ĭ,": 676,
      "à¤ľà¤²": 677,
      "à¤¸à¤¦": 678,
      "à¥ī.": 679,
      "Ġà¤Ĩà¤®à¤¦": 680,
      "Ġà¤ħà¤²": 681,
      "Ġà¤Ĩà¤ķ": 682,
      "Ġà¤°à¤ķ": 683,
      "à¥Ĥà¤Ĥ": 684,
      "à¤ªà¤·": 685,
      "Ġà¤¶à¤°": 686,
      "Ġà¤²à¤¸": 687,
      "à¤Īà¤¨": 688,
      "Ġà¤ħà¤µ": 689,
      "à¤®à¤Ĺ": 690,
      "Ġà¤Ĳ": 691,
      "à¤¯à¤¸": 692,
      "00": 693,
      "Ġà¤Ĩà¤®à¤ļ": 694,
      "à¤¨à¤ķ": 695,
      "Ġà¤ľà¤µà¤³": 696,
      "Ġà¤¸à¤¦": 697,
      "à¤¾?": 698,
      "à¤³à¤µ": 699,
      "à¤łà¤ķ": 700,
      "Ġà¤ıà¤®": 701,
      "à¤Ĺà¤µ": 702,
      "à¤²à¤µ": 703,
      "à¤¤à¤¨": 704,
      "Ġà¥§à¥¯": 705,
      "Ġà¤ķà¤ª": 706,
      "Ġà¤¯à¤¶": 707,
      "Ġà¤Ĩà¤¢": 708,
      "à¤Ĥ,": 709,
      "à¤ªà¤ķ": 710,
      "à¤ıà¤¸": 711,
      "à¤¹à¤£à¤¤": 712,
      "Ġà¤®à¤Ĺ": 713,
      "à¤Ńà¤µ": 714,
      "Ġà¤Ĩà¤Ĺ": 715,
      "à¤¨à¤°": 716,
      "à¤·à¤¦": 717,
      "Ġà¤īà¤ªà¤²à¤¬": 718,
      "Ġà¤ĩà¤¤à¤ķ": 719,
      "âĢ¦": 720,
      "à¤¤à¤ķà¤±": 721,
      "à¤ķà¤¶": 722,
      "à¤¤à¤¹": 723,
      "à¥Ł": 724,
      "Ġ,": 725,
      "Ġà¤ıà¤ķà¤¦": 726,
      "à¤ĺà¤Łà¤¨": 727,
      "à¤¸à¤±": 728,
      "à¤ªà¤Ł": 729,
      "Ġà¤ĳà¤«": 730,
      "à¤¯à¤°": 731,
      "Ġà¤«à¤ķ": 732,
      "à¤¢à¤£": 733,
      "Ġà¤ħà¤ķ": 734,
      "Ġà¤¹à¤²": 735,
      "à¤Ĩà¤¯": 736,
      "à¤ľà¤¤": 737,
      "Ġà¤¬à¤¨": 738,
      "à¤ķà¤Ł": 739,
      "à¤µà¤¢": 740,
      "Ġà¥¬": 741,
      "à¤¯à¤ķà¤°": 742,
      "à¤µà¤ķà¤°": 743,
      "Ġà¤ªà¤°à¤¤": 744,
      "ĠâĢľ": 745,
      "Ġà¤¨à¤°": 746,
      "à¤¤à¤³": 747,
      "Ġà¤§à¤°": 748,
      "Ġà¤īà¤ªà¤ļ": 749,
      "à¤¡à¤µ": 750,
      "Ġà¤¸à¤²": 751,
      "Ġà¥¨à¥¦à¥§à¥": 752,
      "Ġà¤¨à¤¯": 753,
      "Ġà¤Ńà¤°": 754,
      "à¤ļà¤°": 755,
      "à¤¬à¤Īà¤¤": 756,
      "Ġà¤¬à¤ĺ": 757,
      "Ġà¤°à¤µ": 758,
      "à¤®à¤µ": 759,
      "à¤¶à¤ķ": 760,
      "Ġà¥Ń": 761,
      "Ġà¤īà¤²": 762,
      "Ġà¤Ĩà¤¨": 763,
      "à¤¸à¤£": 764,
      "à¤µà¤°à¤£": 765,
      "Ġà¤ħà¤Łà¤ķ": 766,
      "à¤łà¤²": 767,
      "à¤¬à¤³": 768,
      "Ġà¤ĵà¤³": 769,
      "à¤¤à¤ķà¤°": 770,
      "Ġà¤¸à¤Ń": 771,
      "à¤¨à¤Ĺà¤°": 772,
      "Ġà¤Ĺà¤£": 773,
      "à¤²à¤²": 774,
      "Ġ6": 775,
      "à¤ĸà¤°": 776,
      "Ġà¤ıà¤¸": 777,
      "Ġà¤ıà¤ĸ": 778,
      "à¤²à¤£": 779,
      "à¤ıà¤®": 780,
      "à¤¶à¤¯": 781,
      "à¤¯à¤ª": 782,
      "Ġà¤ħà¤ĸ": 783,
      "Ġà¤ľà¤¨à¤¤": 784,
      "Ġà¤¤à¤ķ": 785,
      "Ġà¤Ĩà¤£à¤ĸ": 786,
      "à¤µà¤ª": 787,
      "Ġà¤ĺà¤¡à¤²": 788,
      "à¤£à¤¸": 789,
      "à¤¨à¤Ĺ": 790,
      "à¤¿.": 791,
      "Ġà¤Ī": 792,
      "Ġà¤Ĩà¤ĺ": 793,
      "à¤¥à¤®": 794,
      "Ġà¥®": 795,
      "--": 796,
      "à¤¸à¤µ": 797,
      "à¤ķà¤ļ": 798,
      "à¤µà¤Ń": 799,
      "à¤¤à¤¤": 800,
      "à¤Ĺà¤ļ": 801,
      "à¤ľà¤ªà¤ļ": 802,
      "Ġà¥§à¥¦": 803,
      "à¤ļà¤£": 804,
      "à¥Ģ)": 805,
      "à¤Łà¤£": 806,
      "à¤¨à¤®à¤§": 807,
      "à¤µà¤Ł": 808,
      "Ġà¤Ĩà¤Ī": 809,
      "à¤ķà¤¨": 810,
      "Ġà¤ħà¤¹": 811,
      "Ġà¤īà¤ĺ": 812,
      "Ġà¤ĳà¤ķ": 813,
      "Ġà¤²à¤µà¤ķà¤°": 814,
      "âĢĿ": 815,
      "Ġà¤łà¤°à¤²": 816,
      "Ġà¤ĩà¤¥": 817,
      "Ġà¤īà¤ļ": 818,
      "à¤¹à¤ķ": 819,
      "à¤¨à¤¸à¤Ń": 820,
      "Ġ201": 821,
      "Ġ7": 822,
      "à¤°à¤ķà¤²": 823,
      "à¤µà¤§": 824,
      "Ġà¤¨à¤¸à¤¤": 825,
      "Ġ.": 826,
      "Ġà¤µà¤¡": 827,
      "à¤¾âĢĻ": 828,
      "à¤®à¤²": 829,
      "à¤¡à¤¸": 830,
      "Ġà¤²à¤¹": 831,
      "à¤°à¤®à¤§": 832,
      "à¤Łà¤®à¤§": 833,
      "à¤µà¤°à¤ļ": 834,
      "Ġà¤ħà¤¦": 835,
      "Ġà¤ľà¤¬": 836,
      "à¤¨à¤¨": 837,
      "à¤Ĺà¤¸": 838,
      "Ġà¤¸à¤ļ": 839,
      "à¤¥à¤³": 840,
      "Ġà¤ªà¤°à¤µ": 841,
      "à¤ķà¤®": 842,
      "Ġà¤¶à¤¬": 843,
      "Ġà¤ĩà¤®": 844,
      "à¤ķà¤¦": 845,
      "Ġà¤¬à¤¸à¤²": 846,
      "Ġà¤ķà¤¶": 847,
      "Ġà¥¯": 848,
      "à¤ĩà¤¨": 849,
      "Ġ8": 850,
      "Ġà¤¸à¤¦à¤¸": 851,
      "Ġà¤¨à¤¸": 852,
      "Ġà¤ªà¤¡à¤¤": 853,
      "Ġà¤ĳà¤¨à¤²": 854,
      "à¤¬à¤¤à¤ļ": 855,
      "Ġà¤µà¤ķ": 856,
      "à¤²à¤°": 857,
      "à¤®à¤¦": 858,
      "Ġà¤¢": 859,
      "à¤Ĺà¤ª": 860,
      "à¤³à¤ľ": 861,
      "à¤µà¤ľ": 862,
      "à¤®à¤¸": 863,
      "Ġ10": 864,
      "à¤¡à¤£à¤µ": 865,
      "Ġà¤¸à¤¹à¤ķ": 866,
      "à¤¥à¤ķ": 867,
      "à¤ªà¤ļ": 868,
      "Ġà¤¸à¤®à¤ľ": 869,
      "à¤¡à¤°": 870,
      "Ġà¤ĩà¤¨": 871,
      "Ġà¤ıà¤ķà¤¤": 872,
      "à¥ĢâĢĻ": 873,
      "Ġà¤«à¤¡à¤£à¤µ": 874,
      "Ġà¤§à¤ķ": 875,
      "Ġà¤ªà¤¸": 876,
      "),": 877,
      "Ġà¤ªà¤¡": 878,
      "à¤§à¤°": 879,
      "Ġ9": 880,
      "à¤ĺà¤°": 881,
      "an": 882,
      "Ġà¤īà¤¡": 883,
      "Ġà¤¸à¤¹à¤Ń": 884,
      "à¤¸à¤®à¤§": 885,
      "à¤®à¤°": 886,
      "Ġà¤Ĩà¤łà¤µà¤¡": 887,
      "Ġà¤¸à¤ª": 888,
      "Ġà¤ĩà¤¤": 889,
      "à¤§à¤²": 890,
      "Ġà¤ħà¤Ĺà¤¦": 891,
      "à¤Łà¤µà¤°": 892,
      "à¤Īà¤ķ": 893,
      "Ġà¤¹à¤¤": 894,
      "Ġà¤ħà¤¡": 895,
      "Ġà¤¨à¤Ĺà¤°": 896,
      "à¤łà¤µ": 897,
      "à¤°à¤¯": 898,
      "Ġà¤Ĩà¤°à¤ķ": 899,
      "Ġà¤ļà¤µ": 900,
      "Ġà¤¶à¤°à¤¦": 901,
      "Ġà¤¸à¤®à¤¸": 902,
      "Ġà¤µà¤¯": 903,
      "âĢįà¥ħ": 904,
      "++": 905,
      "à¤°à¤Ĺ": 906,
      "à¤Ĭà¤¸": 907,
      "Ġà¤Ĩà¤µà¤¡": 908,
      "Ġà¤ıà¤µà¤¢": 909,
      "à¤ļà¤µ": 910,
      "Ġà¤¦à¤²": 911,
      "Ġà¤®à¤ľ": 912,
      "Ġà¤ªà¤Ł": 913,
      "Ġà¥§à¥«": 914,
      "à¤³à¤Ĺ": 915,
      "à¤ľà¤µà¤³": 916,
      "à¤Ĺà¤¨": 917,
      "à¤¡à¤ķà¤°": 918,
      "Ġà¤°à¤¹": 919,
      "à¤¹à¤²": 920,
      "Ġà¤¸à¤¨": 921,
      "in": 922,
      "Ġà¤¤à¤¤": 923,
      "ar": 924,
      "à¤¸à¤Ĺ": 925,
      "Ġà¤ĵà¤³à¤ĸ": 926,
      "Ġà¤²à¤¢": 927,
      "Ġà¤ħà¤¹à¤µ": 928,
      "Ġà¤ĩà¤ļ": 929,
      "à¤ľà¤Ĺ": 930,
      "à¤Ĩà¤°": 931,
      "à¤ķà¤¸à¤Ń": 932,
      "20": 933,
      "à¤Łà¤ª": 934,
      "à¤·à¤§": 935,
      "Ġà¤ªà¤¶": 936,
      "à¤¤à¤¸": 937,
      "à¥ĩ?": 938,
      "Ġà¤łà¤°à¤µ": 939,
      "à¤²à¤®à¤§": 940,
      "Ġà¤¹à¤¸": 941,
      "à¤Īà¤Ł": 942,
      "à¤ķà¤ª": 943,
      "Ġà¤Ķà¤·à¤§": 944,
      "Ġà¤¤à¤¬": 945,
      "==": 946,
      "à¤¸à¤ª": 947,
      "Ġà¤ħà¤Ĺ": 948,
      "à¤ľà¤µ": 949,
      "à¤ľà¤ļ": 950,
      "à¤¥à¤µ": 951,
      "Ġà¤¸à¤µ": 952,
      "à¤¬à¤¸": 953,
      "à¤ľà¤¸": 954,
      "Ġà¤Ĺà¤Ł": 955,
      "à¤®à¤ª": 956,
      "Ġà¤Ńà¤µ": 957,
      "à¤¡à¤®à¤§": 958,
      "Ġà¤¹à¤°": 959,
      "à¤¤à¤µà¤£": 960,
      "on": 961,
      "Ġà¤¨à¤Ĺ": 962,
      "Ġà¤łà¤°": 963,
      "Ġà¤¶à¤¹": 964,
      "à¤ĸà¤®": 965,
      "Ġ19": 966,
      "Ġà¥§à¥¨": 967,
      "Ġà¤¨à¤¦": 968,
      "à¤¤à¤¦": 969,
      "à¤¦à¤°à¤®": 970,
      "à¤¶à¤®": 971,
      "Ġà¤ıà¤ª": 972,
      "à¤®à¤£": 973,
      "Ġà¤ļà¤ķ": 974,
      "à¥¨à¥¦": 975,
      "Ġ...": 976,
      "à¤°à¤µà¤ł": 977,
      "à¤®à¤¹à¤¤": 978,
      "Ġ?": 979,
      "à¤³à¤ķ": 980,
      "à¤ĸà¤µ": 981,
      "à¤Ĩà¤§": 982,
      "Ġà¤Łà¤ª": 983,
      "Ġà¤ıà¤¨": 984,
      "Ġà¤īà¤¤à¤°": 985,
      "Ġà¤ıà¤ķà¤®": 986,
      "à¤¡à¤ļà¤£": 987,
      "à¤¡à¤¨": 988,
      "Ġà¤ħà¤ªà¤ĺ": 989,
      "Ġà¤Ĩà¤£à¤²": 990,
      "à¤ĸà¤£": 991,
      "à¤¹à¤³": 992,
      "Ġà¤ľà¤¯": 993,
      "Ġ15": 994,
      "Ġà¤ħà¤¡à¤ļà¤£": 995,
      "à¤·à¤¤": 996,
      "à¤ķà¤³": 997,
      "Ġà¤¦à¤¹à¤¶": 998,
      "à¥ĩ-": 999,
      "at": 1000,
      "à¤¦à¤ķ": 1001,
      "à¤ľà¤£": 1002,
      "à¤°à¤¦à¤°": 1003,
      "à¤¨à¤¦": 1004,
      "à¤¡à¤ª": 1005,
      "à¤§à¤£": 1006,
      "Ġà¤ľà¤ĸà¤®": 1007,
      "à¤°à¤ªà¤¤": 1008,
      "or": 1009,
      "Ġà¤Ĩà¤ķà¤¡": 1010,
      "à¤³à¤µà¤²": 1011,
      "Ġà¤ľà¤ª": 1012,
      "Ġà¤§à¤¨": 1013,
      "Ġà¤ķà¤¡": 1014,
      "Ġà¤¬à¤ļ": 1015,
      "Ġà¤®à¤¨à¤¸": 1016,
      "à¤ľà¤®": 1017,
      "à¤«à¤¤": 1018,
      "Ġà¤ĩà¤¶": 1019,
      "Ġà¤īà¤ªà¤¯": 1020,
      "à¤²à¤¦": 1021,
      "Ġà¤Ĩà¤ľà¤ļ": 1022,
      "à¤Łà¤®": 1023,
      "Ġà¤°à¤¦": 1024,
      "Ġà¤ħà¤ļ": 1025,
      "à¤¡à¤Ĺ": 1026,
      "Ġ12": 1027,
      "Ġà¤¦à¤ķ": 1028,
      "à¤Ĭà¤¤": 1029,
      "er": 1030,
      "Ġà¤¨à¤®": 1031,
      "à¤°à¤¬": 1032,
      "Ġà¤¶à¤¨": 1033,
      "Ġà¤Ĩà¤£à¤£": 1034,
      "à¤²à¤¸": 1035,
      "à¤°à¤µà¤°": 1036,
      "à¤¹à¤£à¤£": 1037,
      "à¤ķà¤µ": 1038,
      "à¥Ĥ,": 1039,
      "à¤¤à¤°à¤°": 1040,
      "à¤Łà¤¸": 1041,
      "à¤¾'": 1042,
      "Ġà¤ķà¤¨": 1043,
      "à¤Īà¤ļ": 1044,
      "Ġà¤µà¤¨": 1045,
      "à¤°à¤³": 1046,
      "Ġà¤¬à¤³": 1047,
      "à¤ªà¤®": 1048,
      "Ġà¤¦à¤¹à¤¶à¤¤à¤µ": 1049,
      "Ġà¤ĳà¤Ĺà¤¸": 1050,
      "Ġà¤ıà¤®à¤ª": 1051,
      "ĠĠĠĠ": 1052,
      "Ġà¤®à¤¸": 1053,
      "Ġà¤¨à¤Ĺà¤°à¤¸": 1054,
      "à¤°à¤¥à¤®": 1055,
      "à¤Ĺà¤³à¤µ": 1056,
      "Ġà¤īà¤°": 1057,
      "Ġà¤ķà¤ł": 1058,
      "à¤¢à¤µ": 1059,
      "ĠM": 1060,
      "Ġà¤«à¤²": 1061,
      "Ġà¤Ĭ": 1062,
      "Ġà¤īà¤¨": 1063,
      "Ġà¤ĳà¤¸": 1064,
      "Ġà¤¸à¤®à¤°": 1065,
      "Ġ|": 1066,
      "à¤¯à¤°à¤²": 1067,
      "Ġà¤¬à¤²": 1068,
      "à¤ıà¤²": 1069,
      "Ġà¥§à¥®": 1070,
      "Ġà¤ľà¤µà¤³à¤ª": 1071,
      "Ġà¤§à¤°à¤£": 1072,
      "Ġà¤Ķà¤°": 1073,
      "Ġà¤ħà¤«": 1074,
      "à¤¯à¤µà¤¹": 1075,
      "Ġà¤ķà¤µ": 1076,
      "ĠS": 1077,
      "à¤·à¤®à¤¤": 1078,
      "Ġà¤ĺà¤¡": 1079,
      "à¤°à¤¡": 1080,
      "Ġ!": 1081,
      "à¤¬à¤µ": 1082,
      "à¤Ĺà¤¦à¤°": 1083,
      "al": 1084,
      "à¤Łà¤«": 1085,
      "à¤°à¤ķà¤°": 1086,
      "à¤¯à¤£": 1087,
      "Ġà¤ķà¤¥": 1088,
      "ĠP": 1089,
      "à¤¬à¤°à¤ļ": 1090,
      "Ġà¤ªà¤¥à¤ķ": 1091,
      "Ġà¤²à¤µà¤ķà¤°à¤ļ": 1092,
      "à¥īà¤Ĥ": 1093,
      "à¤¶à¤µ": 1094,
      "ĠC": 1095,
      "Ġà¤ĩà¤¸": 1096,
      "ĠR": 1097,
      "à¤¹à¤¸": 1098,
      "à¤ªà¤¡à¤²": 1099,
      "à¤®à¤¹": 1100,
      "Ġà¤¬à¤ľ": 1101,
      "à¤¥à¤¨": 1102,
      "Ġà¥¨à¥¦à¥¦": 1103,
      "Ġà¥¨à¥«": 1104,
      "à¤ĸà¤¤": 1105,
      "----": 1106,
      "à¤³à¤µà¤£": 1107,
      "à¤Ŀà¤°": 1108,
      "Ġà¤¶à¤ķà¤²": 1109,
      "à¤¨à¤¤": 1110,
      "à¤ļà¤ķ": 1111,
      "Ġà¤¬à¤¨à¤µ": 1112,
      "Ġà¤ķà¤¦": 1113,
      "Ġà¤¯à¤¶à¤¸": 1114,
      "à¤ªà¤°à¤²": 1115,
      "Ġà¤ľà¤µ": 1116,
      "à¤µà¤ľà¤¨": 1117,
      "....": 1118,
      "à¤¹à¤°à¤£": 1119,
      "Ġ11": 1120,
      "à¤¨à¤®": 1121,
      "Ġà¤ħà¤¬": 1122,
      "Ġà¥§à¥ª": 1123,
      "à¤¸à¤µà¤°": 1124,
      "Ġà¤¹à¤³": 1125,
      "à¤¶à¤¨à¤ļ": 1126,
      "Ġà¤īà¤ĺà¤¡": 1127,
      "Ġà¤µà¤¤": 1128,
      "Ġà¥©à¥¦": 1129,
      "Ġà¤Ĩà¤¢à¤³à¤²": 1130,
      "es": 1131,
      "à¤ıà¤¨": 1132,
      "Ġà¤Ĩà¤¯à¤ª": 1133,
      "Ġà¥§à¥§": 1134,
      "Ġà¤łà¤°à¤¤": 1135,
      "Ġà¤°à¤£": 1136,
      "à¥Ģ'": 1137,
      "à¤¦à¤£": 1138,
      "Ġà¤ħà¤µà¤ĺ": 1139,
      "Ġà¤ĺà¤Łà¤ķ": 1140,
      "Ġà¤ªà¤ķà¤¡": 1141,
      "à¤¸à¤³": 1142,
      "Ġà¤ªà¤¡à¤£": 1143,
      "Ġ14": 1144,
      "à¤¯à¤°à¤¸": 1145,
      "à¤¤à¤¡": 1146,
      "Ġà¤īà¤ªà¤ķ": 1147,
      "à¤ªà¤¸": 1148,
      "à¤ıà¤«": 1149,
      "Ġ)": 1150,
      "à¤²à¤ķà¤°": 1151,
      "Ġà¤Ńà¤°à¤¤": 1152,
      "à¥Ģ?": 1153,
      "Ġà¤Ľà¤¤": 1154,
      "à¤ĸà¤µà¤²": 1155,
      "à¤Łà¤µ": 1156,
      "à¤°à¤ķà¤¡": 1157,
      "à¤ªà¤¡": 1158,
      "à¤µà¤°à¤¹": 1159,
      "à¤¼": 1160,
      "Ġà¤īà¤ļà¤²": 1161,
      "Ġà¤«à¤°": 1162,
      "Ġà¤«à¤³": 1163,
      "Ġà¥«à¥¦": 1164,
      "à¤ļà¤µà¤¡": 1165,
      "à¤¨à¤ª": 1166,
      "à¤¦à¤³": 1167,
      "à¤¤à¤ªà¤£": 1168,
      "ĠA": 1169,
      "à¤µà¤Łà¤ļ": 1170,
      "à¤£à¤ªà¤£": 1171,
      "Ġà¥§à¥¬": 1172,
      "à¤¾)": 1173,
      "à¤¸à¤¬": 1174,
      "à¤°à¤®à¤£": 1175,
      "à¤¥à¤²": 1176,
      "Ġ25": 1177,
      "à¤¯à¤¯": 1178,
      "à¤³à¤ļ": 1179,
      "à¤¢à¤ļ": 1180,
      "à¤ĸà¤¨": 1181,
      "Ġà¤¤à¤¥": 1182,
      "Ġà¤Ĺà¤¡": 1183,
      "à¤°à¤µà¤£": 1184,
      "à¤¶à¤Ńà¤°": 1185,
      "Ġà¤¹à¤ķ": 1186,
      "à¤¾!": 1187,
      "à¤łà¤µà¤²": 1188,
      "Ġà¤«à¤Łà¤ķ": 1189,
      "à¤Łà¤°à¤¨": 1190,
      "Ġà¤Ĩà¤¢à¤³": 1191,
      "Ġà¤Ĳà¤ķ": 1192,
      "Ġà¥¨à¥ª": 1193,
      "Ġà¤¤à¤¶": 1194,
      "à¤ĩà¤²": 1195,
      "à¤£à¤ķ": 1196,
      "Ġ18": 1197,
      "Ġ30": 1198,
      "Ġà¤¤à¤³": 1199,
      "Ġà¤Ńà¤°à¤ª": 1200,
      "21": 1201,
      "Ġà¤¬à¤¨à¤²": 1202,
      "à¥ĩâĢĻ": 1203,
      "à¤Ĺà¤®": 1204,
      "à¤·à¤®": 1205,
      "Ġà¤Ńà¤°à¤²": 1206,
      "à¤¬à¤Īà¤ļ": 1207,
      "Ġà¤ķà¤Ł": 1208,
      "à¤Ĳ": 1209,
      "Ġà¥§à¥©": 1210,
      "à¤¦à¤ļ": 1211,
      "Ġà¤ľà¤Ĺà¤Ńà¤°": 1212,
      "à¤²à¤®": 1213,
      "Ġà¤¸à¤¤à¤¤": 1214,
      "Ġà¤ķà¤³": 1215,
      "Ġà¤¦à¤°à¤µ": 1216,
      "à¤¬à¤¡": 1217,
      "à¤¸à¤¸": 1218,
      "Ġà¤¦à¤¤": 1219,
      "à¤°à¤¥": 1220,
      "Ġà¤ħà¤µà¤¸": 1221,
      "à¤¤à¤°à¤£": 1222,
      "en": 1223,
      "Ġ24": 1224,
      "à¤¯à¤Ł": 1225,
      "Ġà¤ħà¤¹à¤®": 1226,
      "ad": 1227,
      "Ġà¥§à¥Ń": 1228,
      "ĠI": 1229,
      "à¥ĩ)": 1230,
      "à¥ģ,": 1231,
      "Ġà¤Ĩà¤¸": 1232,
      "à¤ļà¤¤": 1233,
      "à¤¯à¤¬": 1234,
      "à¤£à¤§": 1235,
      "Ġà¤ķà¤ªà¤¡": 1236,
      "Ġà¤ĸà¤¡": 1237,
      "Ġà¤ªà¤°à¤¦": 1238,
      "++++": 1239,
      "Ġà¤ĭ": 1240,
      "Ġà¤®à¤¶": 1241,
      "à¤ķà¤®à¤§": 1242,
      "Ġà¤ľà¤¸": 1243,
      ">>": 1244,
      "Ġà¤Ńà¤°à¤£": 1245,
      "à¤ļà¤ª": 1246,
      "à¤£à¤µ": 1247,
      "à¥ĩ;": 1248,
      "Ġà¤Ĩà¤¦à¤°": 1249,
      "à¤¨à¤¯": 1250,
      "à¤Ĳà¤µà¤ľ": 1251,
      "à¤ļà¤¬à¤°": 1252,
      "à¤®à¤®à¤§": 1253,
      "à¤¾...": 1254,
      "Ġà¤µà¤ľà¤¨": 1255,
      "Ġà¤¸à¤ľ": 1256,
      "à¤ľà¤ªà¤¨": 1257,
      "Ġ50": 1258,
      "à¤°à¤ªà¤£": 1259,
      "Ġà¤·": 1260,
      "à¤¶à¤¨à¤²": 1261,
      "à¤Łà¤°à¤ļ": 1262,
      "à¤¦à¤¯": 1263,
      "à¤²à¤ª": 1264,
      "Ġà¤¤à¤ľ": 1265,
      "Ġ13": 1266,
      "à¤¡à¤®": 1267,
      "Ġà¤¦à¤°à¤°": 1268,
      "à¤¨à¤¶": 1269,
      "Ġà¤ĺà¤Ł": 1270,
      "Ġà¤ıà¤ķà¤ļ": 1271,
      "à¤¬à¤°à¤¦": 1272,
      "à¤ıà¤ļ": 1273,
      "Ġà¤ĵà¤²": 1274,
      "====": 1275,
      "Ġà¤Ĩà¤ľà¤¹": 1276,
      "Ġ200": 1277,
      "à¤£à¤ļ": 1278,
      "à¤¯à¤ķà¤¤": 1279,
      "Ġà¤ĩà¤²": 1280,
      "Ġà¤Ĩà¤łà¤µà¤£": 1281,
      "Ġà¤Ĺà¤³": 1282,
      "à¥ħà¤Ĥ": 1283,
      "à¤®à¤¯": 1284,
      "à¥Ĥ-": 1285,
      "Ġà¤¶à¤¤à¤ķ": 1286,
      "Ġà¤ħà¤¥à¤µ": 1287,
      "Ġà¤Ĩà¤µà¤¡à¤¤": 1288,
      "Ġà¤ķà¤²à¤®": 1289,
      "Ġà¤¶à¤¸": 1290,
      "Ġ16": 1291,
      "Ġà¤Ĺà¤¤": 1292,
      "à¤¤à¤°à¤ļ": 1293,
      "à¤¬à¤¨": 1294,
      "Ġà¤ĸà¤³": 1295,
      "it": 1296,
      "Ġà¤¤à¤²": 1297,
      "Ġà¤ħà¤Ł": 1298,
      "Ġà¤ħà¤µà¤²": 1299,
      "Ġà¥§à¥¦à¥¦": 1300,
      "à¥ĩ!": 1301,
      "Ġà¤ıà¤¸à¤Ł": 1302,
      "Ġà¤ĵà¤³à¤ĸà¤²": 1303,
      "Ġà¤ħà¤£": 1304,
      "à¤łà¤µà¤£": 1305,
      "Ġà¤īà¤²à¤Ł": 1306,
      "Ġà¤Ĩà¤ķà¤°": 1307,
      "à¤¬à¤°à¤²": 1308,
      "Ġà¤µà¤Ĺ": 1309,
      "Ġà¤ħà¤®à¤°": 1310,
      "Ġà¤īà¤ªà¤®": 1311,
      "à¤§à¤³": 1312,
      "à¤²à¤Ń": 1313,
      "Ġà¤°à¤¤": 1314,
      "ĠN": 1315,
      "Ġà¤ľà¤³à¤Ĺ": 1316,
      "à¤£à¤µà¤¤": 1317,
      "à¤¢à¤µà¤£": 1318,
      "à¤ªà¤µ": 1319,
      "Ġà¤ĩà¤°": 1320,
      "à¥Ģ;": 1321,
      "Ġà¤ĺà¤¸": 1322,
      "à¤¾;": 1323,
      "Ġà¥¤": 1324,
      "Ġà¤¸à¤®à¤ľà¤¤": 1325,
      "ĠB": 1326,
      "à¤ħà¤²": 1327,
      "âĢĮ": 1328,
      "à¤³à¤ķà¤°": 1329,
      "à¤ļà¤ļ": 1330,
      "à¤¯à¤ķà¤µ": 1331,
      "à¥Ģ!": 1332,
      "à¤¾à¥ħ": 1333,
      "Ġ/": 1334,
      "à¤¶à¤ļ": 1335,
      "Ġà¤«à¤¸": 1336,
      "Ġà¤ĵà¤µ": 1337,
      "Ġà¤°à¤¶": 1338,
      "Ġà¤ªà¤²": 1339,
      "Ġà¤īà¤¶": 1340,
      "Ġà¤¬à¤±": 1341,
      "à¤«à¤°": 1342,
      "ic": 1343,
      "à¤¥à¤¸": 1344,
      "Ġà¥ªà¥¦": 1345,
      "à¥Ģ...": 1346,
      "à¤®à¤¶": 1347,
      "à¤Ĭà¤²": 1348,
      "à¤¨à¤µà¤°": 1349,
      "Ġà¤¸à¤®à¤ľà¤²": 1350,
      "à¥Īà¤Ĥ": 1351,
      "Ġà¥¨à¥¨": 1352,
      "ĠT": 1353,
      "à¤¥à¤°": 1354,
      "Ġà¤Ĩà¤Ń": 1355,
      "à¤Łà¤¬": 1356,
      "Ġà¤ıà¤²": 1357,
      "Ġ17": 1358,
      "Ġà¤«à¤°à¤ķ": 1359,
      "à¤Łà¥Ł": 1360,
      "Ġà¤ªà¤¦à¤µ": 1361,
      "Ġà¤²à¤·": 1362,
      "Ġà¤Ńà¤ķ": 1363,
      "à¤¯à¤Łà¤¨": 1364,
      "Ġà¤ĳà¤²": 1365,
      "à¤¾..": 1366,
      "Ġà¤¸à¤¹à¤ľ": 1367,
      "as": 1368,
      "à¤¤à¤°à¤¹": 1369,
      "Ġ2020": 1370,
      "Ġ2021": 1371,
      "à¤¸à¤³à¤²": 1372,
      "Ġà¤ļà¤¹": 1373,
      "Ġà¤·à¤Łà¤ķ": 1374,
      "à¤ªà¤³": 1375,
      "Ġà¤ľà¤Ĺà¤¤": 1376,
      "Ġà¤²à¤¢à¤¤": 1377,
      "Ġà¤¬à¤ĺà¤¤": 1378,
      "à¤²à¤¬à¤ľ": 1379,
      "à¤ľà¤ªà¤²": 1380,
      "Ġà¤¨à¤ľà¤°": 1381,
      "Ġà¤¬à¤¦à¤²à¤²": 1382,
      "à¥ĩ...": 1383,
      "Ġà¤į": 1384,
      "à¤Ľà¤¤": 1385,
      "à¤¾à¥ĩ": 1386,
      "à¥¨à¥§": 1387,
      "Ġ100": 1388,
      "Ġà¤°à¤®": 1389,
      "Ġà¤ħà¤¯": 1390,
      "Ġà¤ĸà¤³à¤¬à¤³": 1391,
      "Ġà¤µà¤Ĺà¤³": 1392,
      "Ġà¤¤à¤°à¤¤": 1393,
      "Ġà¤īà¤·": 1394,
      "à¤·à¤¨": 1395,
      "Ġà¤§à¤®à¤ķ": 1396,
      "à¤°à¤·": 1397,
      "à¤ªà¤°à¤¤": 1398,
      "Ġ0": 1399,
      "à¤¦à¤Ĺ": 1400,
      "Ġà¤Ĩà¤«": 1401,
      "à¤ªà¤°à¤£": 1402,
      "ra": 1403,
      "à¤Īà¤¤": 1404,
      "à¤ħà¤¸": 1405,
      "à¤®à¤²à¤¬à¤ľ": 1406,
      "Ġà¤ªà¤³": 1407,
      "âĢĺ": 1408,
      "Ġà¤ªà¤¸à¤°à¤²": 1409,
      "à¤²à¤µà¤£": 1410,
      "à¤µà¤µ": 1411,
      "à¤²à¤ķà¤®": 1412,
      "à¤°à¤Ĺà¤¤": 1413,
      "Ġà¤¨à¤µà¤°": 1414,
      "Ġà¤łà¤°à¤£": 1415,
      "Ġà¤¦à¤Ĺà¤¡": 1416,
      "Ġà¤łà¤°à¤µà¤²": 1417,
      "Ġà¤¸à¤£": 1418,
      "ĠV": 1419,
      "Ġà¤Ĭà¤°": 1420,
      "Ġà¤ķà¤³à¤¤": 1421,
      "à¥ĩ..": 1422,
      "à¤ĳ": 1423,
      "Ġà¤ĵà¤¬": 1424,
      "à¥Įà¤Ĥ": 1425,
      "à¤¨à¤¤à¤³": 1426,
      "Ġà¤«à¤¸à¤µà¤£": 1427,
      "à¤°à¤µà¤²": 1428,
      "à¤ıà¤ķ": 1429,
      "à¤ĸà¤ķ": 1430,
      "Ġà¤¹à¤¦": 1431,
      "à¤¾:": 1432,
      "à¥Ĥ.": 1433,
      "Ġà¤ķà¤¡à¤ķ": 1434,
      "Ġà¤¦à¤ĸà¤²": 1435,
      "à¤ĩà¤Ł": 1436,
      "Ġà¤¦à¤°à¤µà¤°": 1437,
      "Ġà¤Ĩà¤¯à¤¸": 1438,
      "à¤¯à¤¥": 1439,
      "Ġ22": 1440,
      "Ġà¤¸à¤²à¤®": 1441,
      "à¤ªà¤¹": 1442,
      "Ġ21": 1443,
      "à¤µà¤¸à¤Ńà¤°": 1444,
      "Ġà¤¡à¤¬": 1445,
      "à¤°à¤Ł": 1446,
      "Ġà¤ıà¤ķà¤¹": 1447,
      "à¤¯à¤µà¤°": 1448,
      "à¤Łà¤°à¤µà¤°": 1449,
      "Ġà¤¸à¤¦à¤°": 1450,
      "Ġà¤ıà¤ķà¤Ł": 1451,
      "à¤ļà¤¸": 1452,
      "Ġà¥¨à¥§": 1453,
      "is": 1454,
      "à¥ĩ'": 1455,
      "Ġà¤¹à¤®": 1456,
      "Ġà¤¤à¤£": 1457,
      "à¤¨à¤Ĺà¤°à¤ª": 1458,
      "Ġà¤Ĺà¤®": 1459,
      "Ġà¤§à¤¡": 1460,
      "Ġà¤ľà¤²": 1461,
      "Ġà¤ĺà¤¡à¤¤": 1462,
      "à¤Ĺà¤®à¤§": 1463,
      "à¤ĸà¤¡": 1464,
      "à¤īà¤¨": 1465,
      "à¤¯à¤¡": 1466,
      "Ġà¤¦à¤¬": 1467,
      "à¤ľà¤®à¤§": 1468,
      "Ġà¤¸à¤²à¤Ĺ": 1469,
      "Ġà¤Ĺà¤£à¤ªà¤¤": 1470,
      "à¤°à¤®à¤ķ": 1471,
      "à¥§à¥¯": 1472,
      "Ġà¤®à¤¦": 1473,
      "Ġà¥¨à¥¬": 1474,
      "Ġà¤ķà¤ļ": 1475,
      "à¤¬à¤Ł": 1476,
      "à¤¢à¤¦": 1477,
      "à¤ªà¤¥": 1478,
      "Ġà¤¬à¤¨à¤µà¤£": 1479,
      "à¤¯à¤°à¤¤": 1480,
      "Ġà¤ıà¤ķà¤¨": 1481,
      "Ġà¤¬à¤¨à¤µà¤²": 1482,
      "19": 1483,
      "Ġà¤īà¤¸": 1484,
      "Ġ2019": 1485,
      "Ġà¥²": 1486,
      "à¤³à¤¸": 1487,
      "Ġà¤ħà¤¡à¤ķà¤²": 1488,
      "ha": 1489,
      "om": 1490,
      "à¤ķà¤ľ": 1491,
      "à¤Ĺà¤Ł": 1492,
      "Ġà¤ħà¤«à¤Ĺ": 1493,
      "à¤°à¤«": 1494,
      "Ġà¤¸à¤¹à¤¨": 1495,
      "à¤ħà¤ª": 1496,
      "à¤³à¤µà¤³": 1497,
      "Ġà¥¨à¥®": 1498,
      "à¤Ĺà¤¦à¤ªà¤¤": 1499,
      "Ġà¤¨à¤Ĭ": 1500,
      "à¤ªà¤¯à¤¶": 1501,
      "à¤¯à¤ķà¤²": 1502,
      "Ġà¤ķà¤¬": 1503,
      "Ġà¤ĸà¤¡à¤¸": 1504,
      "à¤·à¤ªà¤¦": 1505,
      "à¤ĸà¤³": 1506,
      "Ġà¤¬à¤¸à¤£": 1507,
      "Ġà¤īà¤ľ": 1508,
      "à¤¡à¤µà¤°": 1509,
      "Ġà¥§à¥¯à¥¯": 1510,
      "us": 1511,
      "Ġà¤ıà¤«": 1512,
      "à¤¢à¤°": 1513,
      "Ġà¥¨à¥¦à¥¨à¥¦": 1514,
      "Ġà¤ħà¤ªà¤¯à¤¶": 1515,
      "Ġà¥¨à¥Ń": 1516,
      "Ġà¤Ĺà¤°à¤®": 1517,
      "Ġà¤Ńà¤Ĺà¤µ": 1518,
      "à¤®à¤§à¤²": 1519,
      "Ġ23": 1520,
      "à¤²à¤®à¤¤": 1521,
      "un": 1522,
      "ĠD": 1523,
      "à¤ļà¤µà¤£": 1524,
      "à¤¡à¤µà¤²": 1525,
      "Ġà¤®à¤¹à¤¸": 1526,
      "âĢĻ,": 1527,
      "Ġ26": 1528,
      "Ġà¤®à¤ľà¤²": 1529,
      "à¤¦à¤®": 1530,
      "Ġà¤§à¤°à¤²": 1531,
      "ir": 1532,
      "à¤¯à¤Ńà¤°": 1533,
      "Ġà¥¨à¥©": 1534,
      "Ġà¤¹à¤ľà¤°": 1535,
      "le": 1536,
      "à¤ķà¤µà¤°": 1537,
      "à¤¯à¤¶": 1538,
      "à¤ľà¤¬": 1539,
      "Ġà¤Ńà¤¯": 1540,
      "Ġà¤ļà¤³à¤µà¤³": 1541,
      "Ġ40": 1542,
      "ion": 1543,
      "à¤·à¤Ńà¤°": 1544,
      "à¤¢à¤µà¤²": 1545,
      "à¤ĸà¤µà¤£": 1546,
      "à¤¬à¤ļ": 1547,
      "à¤¾âĢ¦": 1548,
      "Ġà¤ķà¤ļà¤°": 1549,
      "Ġà¤¸à¤µà¤¯": 1550,
      "à¤µà¤¦": 1551,
      "Ġ31": 1552,
      "Ġà¤īà¤¤à¤°à¤²": 1553,
      "à¤°à¤°": 1554,
      "Ġà¤ªà¤Ĺ": 1555,
      "Ġà¤ľà¤µà¤³à¤ļ": 1556,
      "Ġà¤Ĺà¤ª": 1557,
      "à¤¤à¤ªà¤¤": 1558,
      "Ġà¤¬à¤¦": 1559,
      "Ġà¤īà¤Ĺ": 1560,
      "à¤Īà¤¸": 1561,
      "Ġà¤¤à¤¹à¤¸": 1562,
      "Ġà¤¬à¤¸à¤¤": 1563,
      "à¥Ģ..": 1564,
      "Ġà¤ªà¤°à¤¤à¤²": 1565,
      "à¤¯à¤Łà¤ķ": 1566,
      "à¤ľà¤¦": 1567,
      "Ġà¤¬à¤¡": 1568,
      "à¤Īà¤¡": 1569,
      "Ġà¤ªà¤Łà¤ķ": 1570,
      "Ġà¥¨à¥¦à¥§à¥¯": 1571,
      "Ġà¤¦à¤¶à¤ķ": 1572,
      "à¥ĩ:": 1573,
      "à¤®à¤µà¤°": 1574,
      "à¤³à¤¨": 1575,
      "à¤Ĭà¤¨à¤ļ": 1576,
      "à¤ĺà¤¨": 1577,
      "Ġà¤Ĩà¤ªà¤¤": 1578,
      "Ġm": 1579,
      "Ġà¤Ĩà¤ļ": 1580,
      "à¤²à¤ĸ": 1581,
      "Ġà¤Īà¤¡": 1582,
      "Ġà¤¬à¤¦à¤²à¤¤": 1583,
      "ĠL": 1584,
      "Ġà¤Ĺà¤¡à¤ķà¤°": 1585,
      "Ġà¤ıà¤ħà¤°": 1586,
      "Ġà¤ªà¤¡à¤¦": 1587,
      "à¤Ĺà¤µà¤¡": 1588,
      "à¤¦à¤¨à¤Ĺà¤°": 1589,
      "à¤ªà¤®à¤§": 1590,
      "Ġà¤ĺà¤°à¤ļ": 1591,
      "Ġà¤¸à¤®à¤¨": 1592,
      "à¤ľà¤¨à¤ķ": 1593,
      "--------": 1594,
      "Ġà¤¶à¤ķà¤£": 1595,
      "à¤¯à¤Ĺà¤¡": 1596,
      "à¤¿,": 1597,
      "Ġà¤®à¤ľà¤¬": 1598,
      "Ġà¤ľà¤Ĺà¤£": 1599,
      "à¤·à¤°": 1600,
      "Ġà¤¬à¤¦à¤²à¤£": 1601,
      "ol": 1602,
      "ur": 1603,
      "à¥Ģ:": 1604,
      "Ġà¤¥à¤°": 1605,
      "Ġà¥©à¥§": 1606,
      "à¤¶à¤°": 1607,
      "Ġà¤ķà¤ķ": 1608,
      "à¤®à¤ľ": 1609,
      "à¤¶à¤ª": 1610,
      "ĠRe": 1611,
      "à¤¦à¤µà¤²": 1612,
      "à¤§à¤ļ": 1613,
      "à¤¯à¤¨à¤°": 1614,
      "à¤£à¤¨": 1615,
      "à¤Īà¤®": 1616,
      "Ġà¤ľà¤¨à¤ľ": 1617,
      "à¤¹à¤µ": 1618,
      "à¤łà¥Ł": 1619,
      "Ġà¤§à¤¡à¤ķ": 1620,
      "000": 1621,
      "à¤Ĥ?": 1622,
      "Ġ27": 1623,
      "à¥§à¥¦": 1624,
      "à¤Łà¤ķà¤°": 1625,
      "Ġ..": 1626,
      "à¤Ńà¤µà¤¤": 1627,
      "Ġà¤īà¤ĺà¤¡à¤ķ": 1628,
      "Ġà¤ıà¤ļ": 1629,
      "Ġà¥¦": 1630,
      "à¤ħà¤¨": 1631,
      "à¤¡à¥Ł": 1632,
      "à¤ľà¤¬à¤³": 1633,
      "Ġà¤Ĳà¤¤": 1634,
      "Ġà¤ķà¤³à¤²": 1635,
      "Ġà¤īà¤§": 1636,
      "à¤¯à¤Ĺ": 1637,
      "à¥ģ.": 1638,
      "Ġà¤¹à¤Ł": 1639,
      "Ġà¤°à¤ļà¤¨": 1640,
      "ĠĠĠĠĠĠĠĠ": 1641,
      "!!": 1642,
      "Ġà¤¸à¤«": 1643,
      "à¤Łà¤ªà¤Ł": 1644,
      "ing": 1645,
      "ay": 1646,
      "Ġà¤¸à¤°à¤ª": 1647,
      "Ġà¥¬à¥¦": 1648,
      "à¤ľà¤§": 1649,
      "à¤¤à¤°à¤¤": 1650,
      "à¤¨à¤¡": 1651,
      "à¤¯à¤®à¤ļ": 1652,
      "à¤°à¤ķà¤¤": 1653,
      "Ġà¤Īà¤¶": 1654,
      "Ġ*": 1655,
      "à¤¯à¤ªà¤¦": 1656,
      "à¤¦à¤¶": 1657,
      "à¤ĸà¤µà¤¤": 1658,
      "à¤Łà¤°à¤®à¤§": 1659,
      "ĠG": 1660,
      "à¥«à¥¦": 1661,
      "à¥©à¥¦": 1662,
      "à¤²à¤¹": 1663,
      "Ġà¤¨à¤¶": 1664,
      "à¤¬à¤£": 1665,
      "Ġà¤ĺà¤¡à¤µ": 1666,
      "Ġà¤¥à¤ķ": 1667,
      "ĠH": 1668,
      "ĠâĢĺâĢĺ": 1669,
      "à¤µà¤¸à¤¨": 1670,
      "Ġà¤Ĩà¤Īà¤ļ": 1671,
      "à¤²à¤µà¤¤": 1672,
      "à¤Ĺà¤ľ": 1673,
      "Ġà¤ıà¤Ł": 1674,
      "âĢĻâĢĻ": 1675,
      "Ġà¤ĳà¤«à¤°": 1676,
      "Ġà¤ķà¤¦à¤®": 1677,
      "Ġà¤µà¤¨à¤¸": 1678,
      "à¤£à¤ªà¤¤": 1679,
      "Ġà¤ªà¤¨": 1680,
      "à¤§à¤¶": 1681,
      "à¤Ĩà¤¯à¤ļ": 1682,
      "à¤µà¤²à¤¤": 1683,
      "à¤¬à¤Īà¤ķà¤°": 1684,
      "Ġà¤ĳà¤°": 1685,
      "Ġs": 1686,
      "à¤µà¤Ĺ": 1687,
      "à¤Łà¤²à¤®à¤§": 1688,
      "ed": 1689,
      "à¤µà¤¹": 1690,
      "Ġ28": 1691,
      "à¤ĩà¤®": 1692,
      "Ġà¥§à¥¯à¥®": 1693,
      "Ġc": 1694,
      "à¤¡à¤¬": 1695,
      "à¤¬à¤°à¤¦à¤¸": 1696,
      "Ġà¤¨à¤µà¤¨": 1697,
      "à¤ıà¤¸à¤Ł": 1698,
      "ĠK": 1699,
      "Ġà¤¤à¤¡": 1700,
      "Ġà¤¢à¤ķà¤²": 1701,
      "Ġà¤®à¤®à¤¤": 1702,
      "++++++++": 1703,
      "Ġà¤ľà¤¬à¤°à¤¦à¤¸": 1704,
      "am": 1705,
      "id": 1706,
      "à¤·à¤ª": 1707,
      "Ġà¤īà¤ł": 1708,
      "à¤Ŀà¤¨": 1709,
      "Ġ[": 1710,
      "à¥¦à¥¦à¥¦": 1711,
      "Ġà¥¨à¥¦à¥§à¥ª": 1712,
      "Ġà¤¸à¤µà¤²à¤¤": 1713,
      "à¤¬à¤µà¤£": 1714,
      "Ġà¥¨à¥¦à¥¨à¥§": 1715,
      "ĠE": 1716,
      "Ġà¤ĸà¤Łà¤²": 1717,
      "à¤ķà¤¹": 1718,
      "à¤Ĩà¤¯à¤¨": 1719,
      "à¤¸à¤³à¤§": 1720,
      "à¥¤": 1721,
      "à¤®à¤Ł": 1722,
      "Ġà¤ħà¤¡à¤¥à¤³": 1723,
      "à¤Łà¤¦": 1724,
      "Ġà¤Ĩà¤łà¤µà¤²": 1725,
      "Ġà¤ĩà¤¥à¤²": 1726,
      "Ġà¤ħà¤¹à¤®à¤¦à¤¨à¤Ĺà¤°": 1727,
      "ĠF": 1728,
      "à¤²à¤µà¤°": 1729,
      "à¤łà¤¡": 1730,
      "Ġà¤ļà¤¢": 1731,
      "Ġà¤ĭà¤¤": 1732,
      "Ġà¤Ĳà¤ķà¤²": 1733,
      "à¤¥à¤Ĺ": 1734,
      "à¥įâĢĮ": 1735,
      "à¤¬à¤¹": 1736,
      "à¤·à¤¯à¤ķ": 1737,
      "à¤¬à¤µà¤²": 1738,
      "il": 1739,
      "à¤°à¤ªà¤°": 1740,
      "à¤²à¤µà¤²": 1741,
      "à¥ĭ-": 1742,
      "Ġà¤ħà¤¹à¤®à¤¦": 1743,
      "ĠW": 1744,
      "Ġà¤²à¤¢à¤£": 1745,
      "à¤ľà¤ªà¤®à¤§": 1746,
      "à¥ģ:": 1747,
      "à¤¯à¤¬à¤°": 1748,
      "Ġà¤ªà¤°à¤®": 1749,
      "50": 1750,
      "Ġà¤Ĩà¤µà¤°": 1751,
      "Ġà¤¶à¤ªà¤¥": 1752,
      "Ġà¥¨à¥¯": 1753,
      "Ġà¤®à¤¨à¤®": 1754,
      "Ġà¤ªà¤ķà¤¡à¤²": 1755,
      "Ġà¤īà¤°à¤²": 1756,
      "à¤¹à¤ļà¤²": 1757,
      "à¤Ńà¤ķ": 1758,
      "Ġà¤īà¤ļà¤²à¤²": 1759,
      "à¤³à¤ĸ": 1760,
      "Ġà¤²à¤µ": 1761,
      "Ġà¤¬à¤¸à¤µ": 1762,
      "Ġà¤ıà¤®à¤Ĩà¤¯": 1763,
      "Ġ>>": 1764,
      "Ġà¥©à¥«": 1765,
      "à¥ĢâĢ¦": 1766,
      "Ġà¤ıà¤¨à¤¸": 1767,
      "Ġà¤ĵà¤¢": 1768,
      "à¤µà¤ļà¤·à¤ķ": 1769,
      "Ġà¤ħà¤µà¤ĺà¤¡": 1770,
      "et": 1771,
      "à¤¤à¤¬": 1772,
      "Ġà¥®à¥¦": 1773,
      "à¤Ĩà¤£": 1774,
      "à¤ķà¤µà¤£": 1775,
      "Ġà¤µà¤°à¤ļ": 1776,
      "Ġà¤°à¤¨": 1777,
      "à¤īà¤¤": 1778,
      "Ġà¥¨à¥¦à¥§à¥®": 1779,
      "à¤Ńà¤²": 1780,
      "ore": 1781,
      "Ġà¤Łà¤¨": 1782,
      "Ġà¤īà¤ªà¤¨à¤Ĺà¤°": 1783,
      "à¤¶à¤¦": 1784,
      "Ġà¤Ĺà¤µ": 1785,
      "à¤°à¤µà¤ķ": 1786,
      "========": 1787,
      "à¤µà¤¹à¤¨": 1788,
      "Ġà¤Ĩà¤³": 1789,
      "Ġà¤ħà¤ªà¤°": 1790,
      "Ġà¤Ķà¤¦": 1791,
      "à¤Ĺà¤¶": 1792,
      "à¤Ĺà¤µà¤¤": 1793,
      "Ġà¤ķà¤¸à¤²": 1794,
      "ĠâĢ¦": 1795,
      "Ġà¤łà¤³à¤ķ": 1796,
      "à¤¨à¤Ī": 1797,
      "Ġà¤Ĩà¤¢à¤³à¤¤": 1798,
      "Ġà¤ĺà¤¸à¤°à¤£": 1799,
      "Ġt": 1800,
      "Ġà¤ĳà¤ªà¤°": 1801,
      "Ġà¤¨à¤·": 1802,
      "à¤łà¤£": 1803,
      "Ġà¤Ĩà¤£à¤¤": 1804,
      "à¤¨à¤ĸ": 1805,
      "Ġà¤ħà¤ľà¤¯": 1806,
      "Ġà¤Ĺà¤²": 1807,
      "Ġ29": 1808,
      "à¤¯à¤¸à¤Ń": 1809,
      "Ġà¤¸à¤ĸ": 1810,
      "à¤¶à¤¨à¤®à¤§": 1811,
      "Ġ60": 1812,
      "à¤¯à¤°à¤¸à¤ļ": 1813,
      "hi": 1814,
      "Ġà¤ļà¤®à¤ļ": 1815,
      "à¤³à¤ª": 1816,
      "à¤Īà¤ªà¤°": 1817,
      "Ġà¥¨à¥¦à¥§à¥Ń": 1818,
      "à¤¬à¤§": 1819,
      "à¤§à¤¨à¤ķ": 1820,
      "Ġà¤²à¤ĺ": 1821,
      "ID": 1822,
      "Ġà¥Ńà¥¦": 1823,
      "Ġà¤¶à¤¤": 1824,
      "Ġà¤®à¤¨à¤ª": 1825,
      "Ġp": 1826,
      "Ġà¤ľà¤¹": 1827,
      "à¤¹à¤±": 1828,
      "à¤ħà¤Ń": 1829,
      "Ġà¤¬à¤Ł": 1830,
      "à¤ķà¤²à¤¨": 1831,
      "Ġà¤ªà¤°à¤¸": 1832,
      "Ġà¤Ŀà¤Łà¤ķ": 1833,
      "à¤¯à¤ľ": 1834,
      "à¤®à¤°à¤£": 1835,
      "Ġà¤µà¤³à¤£": 1836,
      "di": 1837,
      "Ġà¤ħà¤¨à¤§": 1838,
      "Ġà¤¤à¤®": 1839,
      "à¤¹à¤¨à¤¤": 1840,
      "Ġà¤¹à¤¨": 1841,
      "à¤¬à¤°à¤ª": 1842,
      "Ġà¥ªà¥«": 1843,
      "Ġà¥§à¥¯à¥Ń": 1844,
      "har": 1845,
      "Ġà¤¸à¤°à¤³": 1846,
      "Ġà¤¹à¤°à¤ķà¤¤": 1847,
      "à¤Ńà¤£": 1848,
      "ĠâĢĻ": 1849,
      "à¤¨à¤Ń": 1850,
      "Ġà¤ķà¤·": 1851,
      "Ġà¤ĸà¤¬à¤°à¤¦": 1852,
      "Ġà¤īà¤ĺà¤¡à¤²": 1853,
      "à¤ķà¤·": 1854,
      "Ġà¤ħà¤ķà¤°": 1855,
      "Ġà¤ļà¤²": 1856,
      "à¤ıà¤®à¤¸": 1857,
      "Ġà¤µà¤Ĺà¤³à¤¤": 1858,
      "ac": 1859,
      "à¤¨à¤ªà¤£": 1860,
      "à¤ıà¤²à¤ļ": 1861,
      "à¤¤à¤µà¤²": 1862,
      "Ġà¤ĺà¤°à¤Ĺ": 1863,
      "à¤¹à¤ļ": 1864,
      "à¥ģà¤ĥ": 1865,
      "Ġà¤°à¤ľ": 1866,
      "el": 1867,
      "Ġà¤Ĩà¤Ł": 1868,
      "Ġà¤īà¤ªà¤µ": 1869,
      "Ġà¤¤à¤ªà¤¶": 1870,
      "Ġà¤ıà¤ķà¤¦à¤®": 1871,
      "Ġà¥©à¥Ń": 1872,
      "ot": 1873,
      "Ġà¤Ĩà¤¸à¤ª": 1874,
      "Ġà¤¹à¤²à¤ķ": 1875,
      "Ġà¤Ĩà¤µà¤¡à¤²": 1876,
      "Ġà¤Ĺà¤ľ": 1877,
      "ĠRead": 1878,
      "à¤³à¤¶": 1879,
      "à¤¡à¤¯": 1880,
      "à¤¦à¤²à¤ļ": 1881,
      "à¥ĩâĢ¦": 1882,
      "à¤ķà¤°à¤¤": 1883,
      "à¤£à¤Ĺ": 1884,
      "Ġà¤¸à¤¬": 1885,
      "Ġà¤Ńà¤µà¤¨": 1886,
      "Ġà¤®à¤§à¤²": 1887,
      "à¤¯à¤¸à¤¨": 1888,
      "à¤¸à¤ķà¤¡": 1889,
      "à¤Łà¤ªà¤£": 1890,
      "à¤ĵà¤®à¤§": 1891,
      "Ġ2018": 1892,
      "Ġà¤īà¤ªà¤ķà¤°à¤£": 1893,
      "à¤µà¤¡à¤²": 1894,
      "Ġà¤ªà¤¦à¤ķ": 1895,
      "à¤²à¤Ł": 1896,
      "Ġà¤Ĩà¤¯à¤Ł": 1897,
      "à¤īà¤¦": 1898,
      "à¤ľà¤µà¤²": 1899,
      "Ġà¤¬à¤ķ": 1900,
      "Ġà¤ĸà¤¤": 1901,
      "and": 1902,
      "à¤³à¤µà¤¤": 1903,
      "Ġà¤ĭà¤·": 1904,
      "Ġà¤ªà¤ł": 1905,
      "av": 1906,
      "Ġà¤Ńà¤²": 1907,
      "Ġà¤ıà¤ľ": 1908,
      "Ġ35": 1909,
      "à¤¯à¤«": 1910,
      "à¤¢à¤°à¤ª": 1911,
      "Ġà¤ĩà¤ķ": 1912,
      "ew": 1913,
      "à¤¸à¤ħ": 1914,
      "Ġà¤ľà¤²à¤¸": 1915,
      "à¤ķà¤¡à¤ļ": 1916,
      "à¤ªà¤µà¤²": 1917,
      "Ġà¤īà¤ªà¤¨": 1918,
      "Ġà¤¨à¤«": 1919,
      "Ġà¤¸à¤°à¤¸": 1920,
      "Ġà¤īà¤¦à¤¯": 1921,
      "à¤ļà¤µà¤²": 1922,
      "à¤ªà¤µà¤°": 1923,
      "à¤ªà¤µà¤¯": 1924,
      "Ġà¤¯à¤¶à¤µ": 1925,
      "ri": 1926,
      "Ġà¤ħà¤¶à¤ķ": 1927,
      ").": 1928,
      "Ġà¤Ĩà¤ľà¤ªà¤°": 1929,
      "30": 1930,
      "Ġà¤ħà¤°à¤¬": 1931,
      "Ġà¤ħà¤ªà¤®": 1932,
      "Ġà¤°à¤ķà¤®": 1933,
      "à¤¤à¤®à¤§": 1934,
      "Ġà¤ĵà¤Ł": 1935,
      "ĠIn": 1936,
      "ht": 1937,
      "à¤¤à¤ľ": 1938,
      "à¤¨à¤¬": 1939,
      "Ġà¤ľà¤¡": 1940,
      "à¤ĩà¤¡": 1941,
      "Ġà¤¸à¤¤à¤°": 1942,
      "Ġà¤Łà¤°": 1943,
      "Ġà¤¬à¤ļà¤¤": 1944,
      "à¤¯à¤¨à¤²": 1945,
      "Ġà¤ªà¤°à¤°": 1946,
      "à¤Ĺà¤£à¤ķ": 1947,
      "ent": 1948,
      "à¤¦à¤¨à¤¶": 1949,
      "re": 1950,
      "Ġà¤ħà¤°à¤µ": 1951,
      "Ġà¤ıà¤ķà¤°": 1952,
      "Ġà¥©à¥¬": 1953,
      "Ġà¤¬à¤ĺà¤£": 1954,
      "à¤²à¤ĺà¤°": 1955,
      "à¤¶à¤¹": 1956,
      "Ġà¤Ŀà¤³": 1957,
      "Ġà¤Ĩà¤Ŀ": 1958,
      "à¤Īà¤µ": 1959,
      "à¤ħà¤°à¤ļ": 1960,
      "Ġà¤¨à¤Ĺà¤°à¤ª": 1961,
      "à¤µà¤°à¤¤": 1962,
      "Ġà¤īà¤¦à¤¯à¤¨à¤°": 1963,
      "à¤¸à¤«": 1964,
      "Ġà¤®à¤ļ": 1965,
      "Ġà¤¸à¤¹à¤¸": 1966,
      "Ġà¤ľà¤¨à¤°à¤²": 1967,
      "Ġà¤ħà¤µà¤ķ": 1968,
      "Ġb": 1969,
      "à¤¦à¤®à¤§": 1970,
      "à¤ĸà¤¦": 1971,
      "Ġà¤ķà¤®à¤¤à¤°à¤¤": 1972,
      "à¤ļà¤¯": 1973,
      "à¤¶à¤®à¤¨": 1974,
      "Ġ2014": 1975,
      "Ġà¤ķà¤³à¤µ": 1976,
      "Ġà¤¦à¤®à¤¦": 1977,
      "Ġà¤«à¤Ł": 1978,
      "à¤ĩà¤ķ": 1979,
      "Ġà¤ĳà¤¡": 1980,
      "Ġà¤ľà¤®à¤²": 1981,
      "Ġà¤¬à¤¨à¤¤": 1982,
      "ov": 1983,
      "à¤£à¤²": 1984,
      "à¤°à¤ļà¤¨": 1985,
      "à¤¯à¤Ń": 1986,
      "à¤¨à¤ªà¤°": 1987,
      "à¥¨à¥¨": 1988,
      "âĢĿ,": 1989,
      "à¤¹à¤¯": 1990,
      "Ġà¤Ĩà¤ľà¤µà¤°": 1991,
      "à¤²à¤¡": 1992,
      "à¥§à¥«": 1993,
      "',": 1994,
      "Ġ>": 1995,
      "à¤ªà¤¬": 1996,
      "Ġà¤¦à¤¶": 1997,
      "à¤ĩà¤¸": 1998,
      "Ġà¤Ĩà¤ĸ": 1999,
      "à¤ªà¤µà¤£": 2000,
      "Ġà¤Ĳà¤µà¤ľ": 2001,
      "Ġà¤ħà¤«à¤µ": 2002,
      "à¤¦à¤¹": 2003,
      "Ġà¤Ŀà¤ª": 2004,
      "à¤°à¤¸à¤¨": 2005,
      "Ġà¥«à¥¦à¥¦": 2006,
      "Ġà¤¬à¤¦à¤¨": 2007,
      "à¤Ĩà¤®": 2008,
      "Ġ;": 2009,
      "à¤ļà¤®à¤§": 2010,
      "Ġà¤ħà¤¡à¤ķ": 2011,
      "à¤Ĩà¤¤": 2012,
      "Ġà¥§à¥¯à¥¬": 2013,
      "Ġ80": 2014,
      "à¤ļà¤¦": 2015,
      "à¤Łà¤¯": 2016,
      "à¤¡à¤µà¤£": 2017,
      "à¤ļà¤¶": 2018,
      "Ġà¤¦à¤µ": 2019,
      "à¤¬à¤ķ": 2020,
      "Ġà¤Ĩà¤łà¤µ": 2021,
      "à¥ĭâĢĻ": 2022,
      "Ġà¤ĵà¤¸": 2023,
      "ĠU": 2024,
      "à¤ħà¤¶": 2025,
      "à¤ķà¤ľà¤£": 2026,
      "à¤¡à¤«": 2027,
      "Ġà¤Ĺà¤¹": 2028,
      "à¤°à¤£à¤ªà¤£": 2029,
      "Ġ45": 2030,
      "Ġà¤ªà¤¨à¤µ": 2031,
      "à¤¯à¤Ŀ": 2032,
      "Ġà¤Ĩà¤¯à¤¡": 2033,
      "à¤ĵà¤ļ": 2034,
      "à¥§à¥®": 2035,
      "Ġ37": 2036,
      "ut": 2037,
      "Ġà¤ķà¤¹": 2038,
      "Ġà¤¶à¤¶": 2039,
      "à¤ľà¤¨à¤ļ": 2040,
      "à¤ķà¤ªà¤£": 2041,
      "Ġà¤īà¤ķ": 2042,
      "Ġà¤īà¤ľà¤µ": 2043,
      "à¤Ĭà¤Ł": 2044,
      "Ġà¥¨à¥¦à¥§à¥«": 2045,
      "à¤¬à¤¦à¤²": 2046,
      "Ġà¥©à¥¨": 2047,
      "Ġ70": 2048,
      "Ġà¤¯à¤µà¤¤": 2049,
      "Ġà¤ļà¤¤": 2050,
      "Ġ2017": 2051,
      "à¥Ģ\"": 2052,
      "à¤ľà¤µà¤°": 2053,
      "à¤ħà¤§": 2054,
      "Ġà¤ĳà¤Ł": 2055,
      "Ġà¤Ĳà¤ķà¤¤": 2056,
      "Ġà¤Ĩà¤łà¤µà¤¤": 2057,
      "Ġà¥¯à¥¦": 2058,
      "à¤®à¤³": 2059,
      "à¤¬à¤Īà¤²": 2060,
      "à¤®à¤¡": 2061,
      "à¤ıà¤¶à¤¨": 2062,
      "Ġà¤ķà¤®à¤²": 2063,
      "Ġà¤§à¤®": 2064,
      "à¥§à¥¨": 2065,
      "à¤¾\"": 2066,
      "à¤®à¤®": 2067,
      "Ġà¤īà¤ĺà¤¡à¤£": 2068,
      "à¤°à¤¥à¤®à¤ļ": 2069,
      "Ġà¤¸à¤¸": 2070,
      "à¤Ĺà¤®à¤¨": 2071,
      "à¤ķà¤°à¤ļ": 2072,
      "Ġà¥§à¥¯à¥ª": 2073,
      "à¤¨à¤µà¤£": 2074,
      "Ġà¤°à¤ļà¤²": 2075,
      "Ġà¤Ńà¤Ł": 2076,
      "Ġà¤ļà¤²à¤¨": 2077,
      "Ġà¤ĸà¤¨": 2078,
      "à¤°à¤µà¤¤": 2079,
      "Ġà¤Ĩà¤ľà¤ª": 2080,
      "Ġà¥§à¥§à¥": 2081,
      "Ġf": 2082,
      "à¤¶à¤¸": 2083,
      "à¤łà¤ª": 2084,
      "Ġà¤ľà¤µà¤³à¤ľà¤µà¤³": 2085,
      "Ġà¤¯à¤µà¤¤à¤®": 2086,
      "à¤Łà¤¹": 2087,
      "Ġà¤¤à¤°à¤ļ": 2088,
      "Ġà¤ĵà¤®": 2089,
      "Ġà¥©à¥ª": 2090,
      "Ġà¤µà¤¹": 2091,
      "à¤łà¤®": 2092,
      "Ġà¤¸à¤°à¤ļ": 2093,
      "à¤¸à¤ĸ": 2094,
      "Ġà¤ªà¤¬": 2095,
      "à¤¶à¤®à¤§": 2096,
      "Ġà¤¹à¤³à¤¦": 2097,
      "à¤ķà¤µà¤²": 2098,
      "Ġà¤ıà¤¨à¤¡": 2099,
      "he": 2100,
      "à¤¤à¤£": 2101,
      "à¤ıà¤Ł": 2102,
      "Ġà¤ķà¤£": 2103,
      "EO": 2104,
      "à¤°à¤ªà¤¦": 2105,
      "oron": 2106,
      "à¤°à¤¹à¤£": 2107,
      "à¤£à¤®": 2108,
      "Ġà¤®à¤ķ": 2109,
      "à¤¡à¤ĸ": 2110,
      "à¤Ńà¤µà¤²": 2111,
      "à¤ħà¤®": 2112,
      "ation": 2113,
      "os": 2114,
      "à¤¦à¤°à¤ļ": 2115,
      "Ġà¤®à¤¤à¤Ń": 2116,
      "Ġà¥¨à¥¦à¥§à¥¬": 2117,
      "à¤§à¤¶à¤¤à¤ķ": 2118,
      "22": 2119,
      "Ġà¤īà¤ªà¤ľ": 2120,
      "Ġà¥Ńà¥«": 2121,
      "Ġ#": 2122,
      "à¤ĺà¤¤": 2123,
      "Ġà¤¸à¤°à¤¨": 2124,
      "Ġà¤¸à¤°à¤¦": 2125,
      "Ġà¤°à¤£à¤ľ": 2126,
      "Ġà¤ıà¤®à¤Ĩà¤¯à¤¡": 2127,
      "à¤¤à¤¶": 2128,
      "à¤Ĩà¤ľ": 2129,
      "Ġà¥©à¥©": 2130,
      "à¥§à¥§": 2131,
      "Ġ90": 2132,
      "à¤¯à¤¹": 2133,
      "à¤Ĩà¤°à¤ª": 2134,
      "Ġà¤Ĩà¤Ĺà¤®à¤¨": 2135,
      ".\"": 2136,
      "à¤·à¤°à¤¶": 2137,
      "Ġà¤²à¤¶": 2138,
      "Ġà¤ĸà¤¡à¤ķ": 2139,
      "Ġ36": 2140,
      "Ġà¤®à¤¯": 2141,
      "Ġà¤łà¤°à¤µà¤£": 2142,
      "ct": 2143,
      "ĠO": 2144,
      "Ġà¤ĺà¤Łà¤¸": 2145,
      "IDEO": 2146,
      "um": 2147,
      "à¤Ĩà¤ªà¤²": 2148,
      "Ġà¤ľà¤¨à¤¸": 2149,
      "Ġ199": 2150,
      "Ġà¤ħà¤µà¤¤": 2151,
      "à¤Ĺà¤¹": 2152,
      "Ġà¤ıà¤ħ": 2153,
      "Ġà¤ªà¤°à¤Ńà¤£": 2154,
      "Ġà¤ĵà¤°": 2155,
      "Ġà¥©à¥®": 2156,
      "ĠVIDEO": 2157,
      "??": 2158,
      "Ġà¤ľà¤²à¤¦": 2159,
      "à¤¬à¤°à¤®à¤§": 2160,
      "Ġà¤¢à¤Ĺ": 2161,
      "ĠÂ": 2162,
      "Ġâ": 2163,
      "à¤łà¤¯": 2164,
      "à¥¨à¥«": 2165,
      "Ġà¤µà¤¨à¤¡": 2166,
      "oo": 2167,
      "Ġà¤°à¤ĸ": 2168,
      "à¤ĩà¤¤à¤ķ": 2169,
      "à¤¨à¤§": 2170,
      "Ġà¤¹à¤¸à¤¨": 2171,
      "Ġà¤¹à¤²à¤µ": 2172,
      "Ġà¤ķà¤°à¤®": 2173,
      "Ġà¤ªà¤ķà¤¡à¤£": 2174,
      "**": 2175,
      "à¤Ĺà¤Ń": 2176,
      "Ġà¤µà¤§": 2177,
      "à¤¯à¤®à¤µà¤°": 2178,
      "Ġà¤¬à¤¨à¤µà¤¤": 2179,
      "Ġà¤Ĩà¤¯à¤ķà¤°": 2180,
      "à¤ľà¤µà¤Ł": 2181,
      "Ġà¤ħà¤ªà¤µ": 2182,
      "Ġà¤ĺà¤¸à¤°à¤²": 2183,
      "Ġà¤¨à¤µà¤²": 2184,
      "à¤ĺà¤ķ": 2185,
      "à¤ıà¤²à¤®à¤§": 2186,
      "à¤ľà¤ªà¤ķà¤¡": 2187,
      "ĠĠĠ": 2188,
      "ag": 2189,
      "Ġà¤Ńà¤Ĺà¤¤": 2190,
      "Ġ32": 2191,
      "Ġin": 2192,
      "Ġà¤®à¤°à¤£": 2193,
      "Ġà¤®à¤ķà¤°": 2194,
      "à¤¡à¤¶": 2195,
      "Ġà¤Ńà¤Łà¤ķ": 2196,
      "à¤¯à¤µà¤§": 2197,
      "à¥¯à¥¯": 2198,
      "à¤Ĩà¤¯à¤Ł": 2199,
      "à¤¦à¤ª": 2200,
      "à¥ĩ.\"": 2201,
      "à¤Ĭà¤¯": 2202,
      "iv": 2203,
      "à¤¨à¤ķà¤°": 2204,
      "Ġà¤°à¤¡": 2205,
      "à¤µà¤°à¤ķà¤°": 2206,
      "Ġà¤ıà¤°": 2207,
      "Ġà¥ªà¥®": 2208,
      "Ġà¤Ĺà¤¦": 2209,
      "Ġà¤łà¤ª": 2210,
      "à¤·à¤£à¤®": 2211,
      "Ġà¤ħà¤ªà¤¹à¤°à¤£": 2212,
      "ul": 2213,
      "Ġd": 2214,
      "Ġà¤Ĩà¤Īà¤²": 2215,
      "à¤·à¤²à¤µ": 2216,
      "Ġà¤ªà¤°à¤³": 2217,
      "18": 2218,
      "à¤°à¤®à¤¨": 2219,
      "à¥§à¥ª": 2220,
      "Ġ34": 2221,
      "Ġà¤ħà¤·": 2222,
      "Ġà¤īà¤łà¤²": 2223,
      "à¤Ĩà¤ª": 2224,
      "à¤ıà¤¸à¤¸": 2225,
      "à¤Ĭà¤ķ": 2226,
      "à¥§à¥©": 2227,
      "Ġà¤Ĭà¤¸": 2228,
      "à¤ªà¤¡à¤ªà¤Ł": 2229,
      "10": 2230,
      "à¥ĭ?": 2231,
      "Ġà¤ıà¤¡": 2232,
      "à¤«à¤°à¤¨": 2233,
      "Ġà¤Ľà¤Ĺà¤¨": 2234,
      "han": 2235,
      "à¤¨à¤ªà¤¤": 2236,
      "à¤£à¤ª": 2237,
      "Ġà¤ªà¤µà¤¨": 2238,
      "à¤Ĺà¤ķ": 2239,
      "Ġà¤ıà¤µ": 2240,
      "oc": 2241,
      "Ġà¤ªà¤Łà¤²": 2242,
      ".....": 2243,
      "Ġà¤ħà¤ªà¤ķ": 2244,
      "à¤·à¤Ń": 2245,
      "Ġà¤ıà¤¬": 2246,
      "à¤«à¤³": 2247,
      "Ġà¤µà¤¸à¤Ī": 2248,
      "à¤¹à¤ľ": 2249,
      "à¤Ĩà¤¯à¤¸": 2250,
      "Ġà¤ĵà¤ªà¤¨": 2251,
      "à¥§à¥Ń": 2252,
      "est": 2253,
      "ap": 2254,
      "à¤¶à¤¬": 2255,
      "à¤·à¤¸": 2256,
      "à¤²à¤ľ": 2257,
      "Ġà¤Ĩà¤Īà¤¨": 2258,
      "Ġà¤ĸà¤±": 2259,
      "Ġà¤ħà¤µà¤¯à¤µ": 2260,
      "Ġà¤Ĺà¤¡à¤ļ": 2261,
      "à¤¬à¤Īà¤®à¤§": 2262,
      "à¤Ĭà¤¨à¤®": 2263,
      "Ġ500": 2264,
      "Ġ2016": 2265,
      "à¤ķà¤§": 2266,
      "à¤£à¤µà¤²": 2267,
      "à¤Ĺà¤µà¤²": 2268,
      "à¤¬à¤°à¤ªà¤°": 2269,
      "Ġà¤Ľà¤³": 2270,
      "ai": 2271,
      "à¤¤à¤Ĺ": 2272,
      "à¤¸à¤°à¤²": 2273,
      "à¤¡à¤°à¤ļ": 2274,
      "Ġà¤¹à¤¸à¤¤": 2275,
      "Ġà¥«à¥«": 2276,
      "âĢ¦]": 2277,
      "Ġ[âĢ¦]": 2278,
      "ews": 2279,
      "à¤²à¤ªà¤£": 2280,
      "à¤¸à¤Ń": 2281,
      "Ġà¤Ĩà¤·": 2282,
      "à¥Ģ/": 2283,
      "à¤¸à¤°à¤ļ": 2284,
      "à¤Ĺà¤µà¤£": 2285,
      "Ġà¤ªà¤°à¤¬": 2286,
      "à¤«à¤²": 2287,
      "à¤¨à¤ķà¤¡": 2288,
      "Ġà¤¨à¤ľ": 2289,
      "à¥ĩ.âĢĻ": 2290,
      "Ġà¤ĩà¤µ": 2291,
      "Ġà¤§à¤°à¤¤": 2292,
      "Ġ48": 2293,
      "Ġà¥¨à¥¦à¥§à¥©": 2294,
      "Ġ+": 2295,
      "Ġv": 2296,
      "à¤¹à¤¨à¤ļ": 2297,
      "à¤®à¤Ń": 2298,
      "à¥§à¥¬": 2299,
      "ĠJ": 2300,
      "à¥ĩ.âĢĿ": 2301,
      "Ġà¤«à¤µ": 2302,
      "Ġà¤īà¤ļà¤²à¤£": 2303,
      "à¥ĩ\"": 2304,
      "à¤ķà¤ħà¤ª": 2305,
      "Ġà¥¥": 2306,
      "Ġà¤«à¤²à¤ķ": 2307,
      "Ġà¤ĩà¤ľ": 2308,
      "à¥Į.": 2309,
      "Ġà¤ħà¤Ńà¤¯": 2310,
      "Ġà¤ļà¤ķà¤®à¤ķ": 2311,
      "Ġà¤¦à¤¯": 2312,
      "Ġà¤ļà¤®à¤ķ": 2313,
      "une": 2314,
      "Ġà¤¤à¤¨": 2315,
      "à¤ľà¤µà¤£": 2316,
      "à¤ľà¤¦à¤°": 2317,
      "à¤°à¤µà¤¡": 2318,
      "à¤¼à¤¾": 2319,
      "15": 2320,
      "Ġà¤¤à¤²à¤µ": 2321,
      "à¤ªà¤°à¤¸": 2322,
      "12": 2323,
      "à¤łà¤°": 2324,
      "Ġà¤¸à¤®à¤¤": 2325,
      "à¤µà¤ĺ": 2326,
      "à¤¹à¤¬": 2327,
      "à¤®à¤¬": 2328,
      "Ġà¤¸à¤¯": 2329,
      "Ġà¥ªà¥ª": 2330,
      "Ġà¤ħà¤¡à¤µ": 2331,
      "à¤ĵà¤¤": 2332,
      "of": 2333,
      "Ġà¤Ĺà¤®à¤µ": 2334,
      "ĠâĢĿ": 2335,
      "Ġà¤ħà¤ªà¤¡": 2336,
      "à¤Ĭà¤¨à¤¹": 2337,
      "Ġà¤Ĳà¤¶": 2338,
      "Ġà¤īà¤¤à¤°à¤£": 2339,
      "Ġà¤Ĺà¤³à¤«": 2340,
      "à¤µà¤®": 2341,
      "Ġà¤µà¤³": 2342,
      "Ġà¤²à¤¢à¤µ": 2343,
      "Ġ`": 2344,
      "à¤ĸà¤Ń": 2345,
      "à¤¥à¤¤": 2346,
      "à¤¤à¤Ń": 2347,
      "à¤ķà¤ł": 2348,
      "à¤ªà¤¡à¤¤": 2349,
      "Ġà¤ľà¤¶": 2350,
      "Ġà¤¸à¤¹à¤®à¤¤": 2351,
      "Ġà¥©à¥¦à¥¦": 2352,
      "Ġà¤īà¤¤à¤°à¤¤": 2353,
      "Ġw": 2354,
      "à¤¯à¤Ŀà¤°": 2355,
      "à¤²à¤°à¤ļ": 2356,
      "à¤ĵà¤¨": 2357,
      "ig": 2358,
      "à¤Łà¤°à¤²": 2359,
      "Ġ33": 2360,
      "Ġà¤ħà¤Łà¤²": 2361,
      "Ġà¤¢à¤ķà¤²à¤£": 2362,
      ".âĢĻ": 2363,
      "Ġà¤Ĩà¤¬": 2364,
      "à¤ľà¤ªà¤£": 2365,
      "Ġà¥¨à¥¦à¥§à¥§": 2366,
      "----------------": 2367,
      "à¤ķà¤ķ": 2368,
      "à¤¸à¤ķà¤°": 2369,
      "Ġà¤¹à¤ª": 2370,
      "à¤¥à¤ļ": 2371,
      "Ġà¤Ĩà¤°à¤¬": 2372,
      "à¤Ĩà¤ĺ": 2373,
      "à¤Ĥ..": 2374,
      "à¤Ĺà¤ªà¤¤": 2375,
      "à¤ľà¤¶": 2376,
      "Ġà¤¨à¤¸à¤£": 2377,
      "Ġà¤²à¤²": 2378,
      "Ġà¤Ĩà¤°à¤¤": 2379,
      "à¤ľà¤¹": 2380,
      "Ġà¤¦à¤®": 2381,
      "à¤Īà¤ª": 2382,
      "Ġà¤Ĩà¤°à¤Ł": 2383,
      "à¤¼à¥į": 2384,
      ".âĢĿ": 2385,
      "à¤¨à¤ªà¤¦": 2386,
      "Ġà¤µà¤ļà¤¨": 2387,
      "à¤·à¤µ": 2388,
      "à¤·à¤µà¤°": 2389,
      "Ġà¤²à¤ĸà¤¨": 2390,
      "Ġà¤īà¤²à¤Ĺ": 2391,
      "à¤«à¤¨": 2392,
      "à¤¶à¤¨à¤µà¤°": 2393,
      "à¤Īà¤²à¤ļ": 2394,
      "Ġà¤°à¤ĸà¤¡à¤²": 2395,
      "à¤£à¤¬": 2396,
      "Ġà¤µà¤¨à¤µ": 2397,
      "Ġà¤ľà¤³": 2398,
      "Ġà¤ĺà¤¡à¤£": 2399,
      "Ġà¥ªà¥¨": 2400,
      "Ġà¥¬à¥«": 2401,
      "ab": 2402,
      "à¤²à¤«": 2403,
      "Ġà¤ķà¤°à¤µ": 2404,
      "Ġà¤īà¤ªà¤°": 2405,
      "à¤¬à¤¤à¤¹": 2406,
      "à¤Ĩà¤°à¤¡": 2407,
      "++++++++++++++++": 2408,
      "Ġà¤Ĩà¤µà¤³": 2409,
      "Ġà¤ªà¤¦à¤°": 2410,
      "Ġà¤ľà¤Ĺà¤¦": 2411,
      "Ġà¤īà¤¡à¤µ": 2412,
      "à¤ĺà¤¡à¤²": 2413,
      "ĠâĢĭ": 2414,
      "Ġ75": 2415,
      "Ġà¤°à¤£à¤¨": 2416,
      "Ġmore": 2417,
      "ter": 2418,
      "à¤¦à¤°à¤²": 2419,
      "Ġà¤¦à¤¸": 2420,
      "Ġà¤¶à¤®": 2421,
      "Ġà¤ıà¤ķà¤¤à¤°": 2422,
      "à¤°à¤¸à¤®à¤ľ": 2423,
      "Ġà¤Ĳà¤¨": 2424,
      "Ġà¤¦à¤¶à¤²à¤ķ": 2425,
      "à¤Ĥ!": 2426,
      "à¤Ĥ...": 2427,
      "à¤ļà¤®": 2428,
      "à¤Łà¤µà¤¡": 2429,
      "à¤¶à¤µà¤²": 2430,
      "à¤ĺà¤®": 2431,
      "Ġà¤§à¤¨à¤Ĺà¤°": 2432,
      "Ġà¤¨à¤µà¤¨à¤µ": 2433,
      "à¤ĵà¤µ": 2434,
      "Ġà¥©à¥¯": 2435,
      "à¥Ģ),": 2436,
      "à¤¨à¤£": 2437,
      "à¤§à¤®": 2438,
      "à¤¯à¤®à¤¸": 2439,
      "à¤µà¤¡à¤¤": 2440,
      "Ġà¥§à¥«à¥¦": 2441,
      ".)": 2442,
      "11": 2443,
      "ak": 2444,
      "à¤µà¤®à¤§": 2445,
      "Ġà¤ĩà¤ķà¤¡": 2446,
      "Ġà¤Ĩà¤¶à¤¯": 2447,
      "Ġà¤²à¤¡": 2448,
      "Ġà¤īà¤¡à¤µà¤²": 2449,
      "à¤¹à¤°à¤²": 2450,
      "à¤£à¤§à¤°": 2451,
      "à¤µà¤°à¤²": 2452,
      "à¤¢à¤µà¤¤": 2453,
      "Ġà¤§à¤µà¤¨": 2454,
      "à¤°à¤¸à¤¹": 2455,
      "à¤ĩà¤Łà¤µà¤°": 2456,
      "à¤¡à¤³à¤ķà¤°": 2457,
      "à¤ķà¤±": 2458,
      "à¤ªà¤¶": 2459,
      "Ġà¤¹à¤°à¤µà¤²": 2460,
      "Ġà¤¬à¤¸à¤ļ": 2461,
      "à¥ĥà¤Ĥ": 2462,
      "à¥¬à¥¦": 2463,
      "Ġà¤¬à¤¸à¤µà¤£": 2464,
      "à¤¸à¤ķà¤Ł": 2465,
      "PL": 2466,
      "à¤ĺà¤£": 2467,
      "Ġà¥§à¥¯à¥«": 2468,
      "Ġà¤ªà¤°à¤ķ": 2469,
      "à¤Īà¤Łà¤µà¤°": 2470,
      "à¤¯à¤²à¤Ł": 2471,
      "Ġà¤®à¤¤à¤®": 2472,
      "Ġà¤¬à¤¨à¤£": 2473,
      "Ġà¤¢à¤µà¤³": 2474,
      "Ġà¤ªà¤¸à¤°à¤¤": 2475,
      "à¤£à¤®à¤§": 2476,
      "à¤¨à¤§à¤¨": 2477,
      "à¤µà¤¬": 2478,
      "Ġà¤ªà¤§": 2479,
      "99": 2480,
      "à¤¦à¤µà¤£": 2481,
      "Ġà¤Ĺà¤³à¤¤": 2482,
      "Ġà¤¨à¤Ĺà¤°à¤ªà¤°": 2483,
      "Ġà¤Ńà¤¤": 2484,
      "Ġà¤§à¤¡à¤ª": 2485,
      "à¥¨à¥ª": 2486,
      "à¤¸à¤®à¤µ": 2487,
      "17": 2488,
      "à¥ĭ..": 2489,
      "à¤Īà¤¬": 2490,
      "Ġà¤ĩà¤Łà¤²": 2491,
      "Ġà¤ħà¤¨à¤²": 2492,
      "Ġà¤¸à¤¹à¤ľà¤ªà¤£": 2493,
      "Ġà¤Ńà¤°à¤Ńà¤°": 2494,
      "Ġ2015": 2495,
      "Ġà¤²à¤¢à¤µà¤£": 2496,
      "ĠÂ»": 2497,
      "à¤¾/": 2498,
      "à¤²à¤Ĺà¤¤": 2499,
      "Ġà¤®à¤£": 2500,
      "à¤¬à¤®à¤§": 2501,
      "Ġà¤²à¤ª": 2502,
      "à¤Ŀà¤²": 2503,
      "à¤µà¤¡à¤°": 2504,
      "Ġà¥¨à¥¦à¥§à¥¨": 2505,
      "à¤°à¤³à¤®à¤§": 2506,
      "à¤ķà¤¬": 2507,
      "à¤®à¤ĸ": 2508,
      "à¤¸à¤²à¤®": 2509,
      "================": 2510,
      "ch": 2511,
      "Ġà¤ªà¤¡à¤³à¤ķà¤°": 2512,
      "Ġà¤¹à¤Łà¤µ": 2513,
      "à¤Īà¤ľ": 2514,
      "Ġà¤ªà¤°à¤®à¤¬": 2515,
      "à¤£à¤¹": 2516,
      "à¤¬à¤°à¤¨": 2517,
      "40": 2518,
      "à¤¡à¤¹": 2519,
      "à¤Īà¤«": 2520,
      "Ġà¤ĸà¤²": 2521,
      "à¤ľà¤ªà¤µà¤°": 2522,
      "Ġ198": 2523,
      "od": 2524,
      "Ġof": 2525,
      "à¤¯à¤¬à¤³": 2526,
      "à¥ĤâĢĻ": 2527,
      "Ġà¤ĵà¤ł": 2528,
      "Ġ42": 2529,
      "ĠĠĠĠĠĠĠĠĠĠĠĠĠĠĠĠ": 2530,
      "BI": 2531,
      "à¤ķà¤¥": 2532,
      "Ġà¤®à¤Ĺà¤°": 2533,
      "Ġà¤ľà¤¯à¤ª": 2534,
      "Ġà¤Ĩà¤ľà¤ķ": 2535,
      "à¤ħà¤ĸ": 2536,
      "à¤ĩà¤µ": 2537,
      "à¤µà¤¨à¤¶": 2538,
      "ome": 2539,
      "Ġà¤¥à¤ķà¤¬": 2540,
      "à¤·à¤²": 2541,
      "Ġà¤¶à¤ª": 2542,
      "Ġà¤Ńà¤¨": 2543,
      "Ġà¥ŀ": 2544,
      "Ġ:-": 2545,
      "Ġà¤ĵà¤Ŀ": 2546,
      "à¤°à¤ªà¤Łà¤¸": 2547,
      "Ġà¥¬à¥ª": 2548,
      "à¤°à¤ĺ": 2549,
      "à¤łà¤¤": 2550,
      "à¤Ĩà¤°à¤¸": 2551,
      "Ġ38": 2552,
      "Ġà¥ªà¥©": 2553,
      "à¤ıà¤«à¤ļ": 2554,
      "''": 2555,
      "im": 2556,
      "à¤ļà¤¹": 2557,
      "à¤ªà¤Ĺ": 2558,
      "Ġà¤µà¤¸à¤¤": 2559,
      "à¤µà¤ľà¤£": 2560,
      "Ġ....": 2561,
      "à¥ĭ!": 2562,
      "à¤·à¤ļ": 2563,
      "Ġà¤°à¤ľà¤¨": 2564,
      "à¤Ńà¤§": 2565,
      "à¤ķà¤°à¤¨": 2566,
      "à¤ĵà¤²": 2567,
      "Ġà¥ªà¥Ń": 2568,
      "irus": 2569,
      "à¤°à¤Ńà¤°": 2570,
      "à¤Ĺà¤ł": 2571,
      "Ġà¤ıà¤ľà¤¨": 2572,
      "Ġà¤Ĩà¤µà¤ķ": 2573,
      "Ġ52": 2574,
      "ps": 2575,
      "à¤¯à¤¨à¤ļ": 2576,
      "Ġà¤Ĩà¤Ĭà¤Ł": 2577,
      "Ġà¤«à¤¡à¤ķ": 2578,
      "à¤¤à¤Ĺà¤¤": 2579,
      "à¤µà¤ł": 2580,
      "Ġà¤Ĩà¤ĸà¤²": 2581,
      "à¤§à¤ª": 2582,
      "Ġà¤Ĺà¤µà¤³": 2583,
      "à¤°à¤®à¤µ": 2584,
      "à¥ªà¥«": 2585,
      "à¤¸à¤¸à¤¹": 2586,
      "Ġà¤Ĩà¤¸à¤¨": 2587,
      "Ġà¤ħà¤µà¤¶": 2588,
      "à¤Łà¤°à¤¸": 2589,
      "à¤¬à¤°à¤®": 2590,
      "à¤łà¤µà¤¤": 2591,
      "Ġà¤ļà¤°à¤£": 2592,
      "Ġà¤ªà¤°à¤«": 2593,
      "à¤¶à¤¨à¤¨": 2594,
      "Ġà¤ĺà¤Łà¤²": 2595,
      "à¤ĺà¤Ł": 2596,
      "Ġà¤¬à¤¸à¤®à¤§": 2597,
      "à¤Ĩà¤¯à¤ª": 2598,
      "ĠNews": 2599,
      "à¤¡à¤ĺ": 2600,
      "à¤Ńà¤®": 2601,
      "à¤Ńà¤µà¤¨": 2602,
      "à¤¸à¤¨à¤Ĺà¤°": 2603,
      "Ġ47": 2604,
      "Ġà¤Ĳà¤ķà¤£": 2605,
      "Ġà¤¸à¤®à¤ľà¤£": 2606,
      "Ġà¤ĵà¤³à¤ĸà¤¤": 2607,
      "Âł": 2608,
      "à¤Ĺà¤§": 2609,
      "Ġà¤ĳà¤ª": 2610,
      "Ġà¤ħà¤®à¤²": 2611,
      "à¥ªà¥¦": 2612,
      "Ġ46": 2613,
      "Ġà¤¦à¤¹à¤¶à¤¤": 2614,
      "pp": 2615,
      "ro": 2616,
      "Ġà¤¨à¤¹": 2617,
      "Ġà¤ĸà¤ľ": 2618,
      "Ġà¤¨à¤µà¤ľ": 2619,
      "Ġà¤ĵà¤ķ": 2620,
      "Ġ''": 2621,
      "à¤¾âĢĻ,": 2622,
      "ĠMore": 2623,
      "Ġà¤¹à¤Łà¤µà¤£": 2624,
      "ide": 2625,
      "à¤®à¤ł": 2626,
      "à¤¡à¤ªà¤£": 2627,
      "Ġà¤Ĺà¤Łà¤¨": 2628,
      "Ġà¤Ŀà¤³à¤ķ": 2629,
      "Ġà¤ıà¤ķà¤µ": 2630,
      "Ġà¤łà¤°à¤µà¤¤": 2631,
      "Ġl": 2632,
      "Ġà¤ķà¤¹à¤°": 2633,
      "à¤ªà¤°à¤ķà¤°": 2634,
      "à¤Łà¤²à¤ļ": 2635,
      "Ġà¤¬à¤³à¤ķà¤Ł": 2636,
      "Ġà¤°à¤£à¤µ": 2637,
      "à¥ĭ...": 2638,
      "à¥¨à¥©": 2639,
      "à¤¦à¤¤à¤µ": 2640,
      "à¤¾),": 2641,
      "à¤Ĺà¤µà¤°": 2642,
      "Ġà¤¦à¤£": 2643,
      "à¥ĩ....": 2644,
      "Ġà¤µà¤°à¤³": 2645,
      "Ġà¤īà¤ªà¤Ĺ": 2646,
      "Ġà¤¨à¤µà¤µ": 2647,
      "à¤ıà¤®à¤ıà¤¸": 2648,
      "Ġà¤¶à¤ªà¤¥à¤µ": 2649,
      "14": 2650,
      "ma": 2651,
      "st": 2652,
      "Ġà¤Ĩà¤¡à¤µ": 2653,
      "Ġà¤¦à¤¸à¤°": 2654,
      "Ġà¤²à¤¤": 2655,
      "âĢĵ": 2656,
      "Ġà¤ªà¤°à¤µà¤¡à¤£": 2657,
      "à¤Ĩà¤¹": 2658,
      "Ġà¥ªà¥¬": 2659,
      "à¤µà¤ķà¤±": 2660,
      "Ġà¥®à¥«": 2661,
      "Ġà¤²à¤¢à¤µà¤²": 2662,
      "à¥ĭ'": 2663,
      "Ġà¤Ĩà¤¡": 2664,
      "Ġà¤Ńà¤¡": 2665,
      "Ġà¤°à¤¹à¤¸": 2666,
      "16": 2667,
      "à¤ķà¤°à¤®": 2668,
      "Ġà¤ıà¤°à¤µ": 2669,
      "Ġ56": 2670,
      "ĠPune": 2671,
      "dia": 2672,
      "25": 2673,
      "39": 2674,
      "à¤¨à¤µà¤¤": 2675,
      "Ġà¤ĩà¤¯à¤¤": 2676,
      "à¤Łà¤¨à¤®à¤§": 2677,
      "Ġà¥ªà¥¯": 2678,
      "Ġà¥ªà¥¦à¥¦": 2679,
      "à¥ĩà¥ĩ": 2680,
      "à¤¯à¤ªà¤£": 2681,
      "à¤Ĥ-": 2682,
      "Ġà¤ļà¤ª": 2683,
      "à¥Ī.": 2684,
      "à¤Ŀà¤µ": 2685,
      "à¤Ŀà¤®": 2686,
      "à¤ıà¤¡": 2687,
      "à¤Ĩà¤¡": 2688,
      "Ġ65": 2689,
      "ment": 2690,
      "Ġà¤µà¤ľ": 2691,
      "à¤ĸà¤ļ": 2692,
      "à¤Łà¤¨à¤ļ": 2693,
      "à¤Łà¤ķà¤¨": 2694,
      "Ġà¤¦à¤°à¤¬": 2695,
      "Ġà¤ĩà¤¤à¤°à¤¹": 2696,
      "ant": 2697,
      "ice": 2698,
      "à¤¨à¤ľ": 2699,
      "à¤µà¤¬à¤³": 2700,
      "Ġà¤µà¤¸à¤²": 2701,
      "à¤«à¤ļ": 2702,
      "à¤¯à¤®à¤¨": 2703,
      "à¤¬à¤Īà¤¤à¤²": 2704,
      "Ġ300": 2705,
      "Ġà¤¨à¤ķà¤³à¤¤": 2706,
      "Ġà¥«à¥¨": 2707,
      "Ġ44": 2708,
      "à¤¨à¤¸à¤°": 2709,
      "à¤¹à¤°à¤ļ": 2710,
      "Ġà¤¸à¤¦à¤¨": 2711,
      "à¤³à¤¯": 2712,
      "Ġà¤ľà¤¬à¤°": 2713,
      "Ġà¤ľà¤²à¤µ": 2714,
      "Ġà¤ĩà¤¸à¤®": 2715,
      "à¤ªà¤¦à¤ķ": 2716,
      "à¤ĭ": 2717,
      "à¤¯à¤°à¤ļ": 2718,
      "Ġà¤ªà¤¡à¤¸": 2719,
      "Ġà¤¯à¤ľà¤®": 2720,
      "à¤¥à¤ª": 2721,
      "Ġà¤ĳà¤¨": 2722,
      "Ġà¥²à¤ķ": 2723,
      "à¤ķà¤µà¤¤": 2724,
      "à¤¬à¤¡à¤¤": 2725,
      "Ġà¤ħà¤¸à¤¹": 2726,
      "à¤ĸà¤°à¤ļ": 2727,
      "à¤Ĩà¤®à¤ļ": 2728,
      "à¤ķà¤²à¤ļ": 2729,
      "Ġà¤ıà¤®à¤ıà¤®": 2730,
      "Ġà¤ıà¤¸à¤¬": 2731,
      "à¤ĳà¤ķ": 2732,
      "à¤ķà¤®à¤¤": 2733,
      "Ġà¤ªà¤¥": 2734,
      "Ġà¤ľà¤ªà¤£": 2735,
      "à¤Īà¤®à¤§": 2736,
      "Ġà¤ĸà¤Ł": 2737,
      "à¤¶à¤¨à¤¸": 2738,
      "Ġà¤ħà¤ªà¤²": 2739,
      "à¤ĵà¤ª": 2740,
      "Ġ55": 2741,
      "Ġà¤¬à¤¸à¤µà¤²": 2742,
      "Ġà¥¨à¥¦à¥¦à¥¯": 2743,
      "Ġà¤µà¤Ĺà¤³à¤£": 2744,
      "à¤²à¤¶": 2745,
      "à¤®à¤ķà¤¤": 2746,
      "Ġà¤®à¤ľà¤ķ": 2747,
      "Ġà¤°à¤ĺ": 2748,
      "Ġà¤ĵà¤¡": 2749,
      "Ġà¤ļà¤°à¤¬": 2750,
      "Ġà¥«à¥¬": 2751,
      "Ġ43": 2752,
      "à¤ľà¤µà¤³à¤ļ": 2753,
      "ate": 2754,
      "ce": 2755,
      "Ġà¤ķà¤¤": 2756,
      "Ġà¤ľà¤¯à¤¸": 2757,
      "Ġà¤ıà¤ķà¤¸": 2758,
      "Ġà¤Łà¤³à¤²": 2759,
      "Ġ54": 2760,
      "Ġà¤ħà¤µà¤§": 2761,
      "com": 2762,
      "Ġà¤¹à¤Łà¤ķ": 2763,
      "à¤¬à¤°à¤¤": 2764,
      "Ġà¤Ńà¤¡à¤ķ": 2765,
      "Ġà¤ĺà¤°à¤ķ": 2766,
      "à¤Ĭà¤¨à¤®à¤§": 2767,
      "Ġà¤Ĩà¤¯à¤«": 2768,
      "à¥¨à¥®": 2769,
      "à¤īà¤Ł": 2770,
      "à¥ĩâĢĻ,": 2771,
      "Ġà¤Ĩà¤°à¤¸": 2772,
      "Ġà¤®à¤³": 2773,
      "à¤¦à¤¯à¤µ": 2774,
      "à¤³à¤Ĺà¤£": 2775,
      "Ġà¤°à¤ļ": 2776,
      "Ġà¤²à¤ªà¤µ": 2777,
      "à¤¯à¤ķà¤¡": 2778,
      "à¤ħà¤°à¤®à¤§": 2779,
      "à¥ĩ),": 2780,
      "Ġà¤ķà¤£à¤ķ": 2781,
      "à¤Łà¤°à¤ª": 2782,
      "à¤ªà¤°à¤¹": 2783,
      "à¤¬à¤Īà¤¸à¤¹": 2784,
      "à¤ħà¤Ĺ": 2785,
      "à¤Łà¤°à¤¹": 2786,
      "Ġà¥¨à¥¦à¥§à¥¦": 2787,
      "Ġà¥«à¥ª": 2788,
      "Ġà¤¸à¤Ī": 2789,
      "Ġà¤ªà¤ª": 2790,
      "Ġà¤¨à¤®à¤¸": 2791,
      "Ġà¤°à¤¬": 2792,
      "à¥Ģ.\"": 2793,
      "Ġà¤¨à¤µà¤±": 2794,
      "à¤Ĺà¤£à¤¨": 2795,
      "Ġà¤ķà¤®à¤ķ": 2796,
      "à¤ĵà¤®": 2797,
      "à¥©à¥«": 2798,
      "In": 2799,
      "à¤¸à¤°à¤£": 2800,
      "à¤£à¤ªà¤¦à¤ķ": 2801,
      "Ġà¤Ńà¤ľà¤¨": 2802,
      "à¤°à¤£à¤¤": 2803,
      "Ġà¤¬à¤¸à¤¸": 2804,
      "Ġà¤¤à¤¡à¤ľ": 2805,
      "ow": 2806,
      "Ġà¤µà¤³à¤²": 2807,
      "à¤°à¤ķà¤Ł": 2808,
      "à¤¤à¤°à¤ª": 2809,
      "à¥¨à¥Ń": 2810,
      "Ġà¥«à¥§": 2811,
      "à¤ıà¤®à¤ª": 2812,
      "ers": 2813,
      "Ġà¤®à¤¯à¤¤": 2814,
      "à¤Ńà¤¯": 2815,
      "à¤«à¤ķ": 2816,
      "Ġà¤§à¤¬à¤§": 2817,
      "Ġà¥¯à¥«": 2818,
      "Ġà¤Ĺà¤¡à¤¦": 2819,
      "Ġà¤§à¤¬à¤§à¤¬": 2820,
      "à¤²à¤ªà¤°": 2821,
      "à¤¡à¤¦": 2822,
      "Ġà¤²à¤ĸ": 2823,
      "Ġà¤īà¤¡à¤¤": 2824,
      "Ġà¤īà¤łà¤µà¤²": 2825,
      "Ġà¤ĩà¤¬": 2826,
      "à¤°à¤¸à¤°à¤£": 2827,
      "art": 2828,
      "Ġà¤ıà¤ļà¤¡": 2829,
      "à¤Ļ": 2830,
      "à¤¾âĢĿ": 2831,
      "à¤¸à¤°à¤¤": 2832,
      "Ġà¤¹à¤¡à¤ª": 2833,
      "à¤¶à¤Ń": 2834,
      "Ġà¤ľà¤¤": 2835,
      "Ġà¤īà¤łà¤µ": 2836,
      "à¤ĺà¤¡": 2837,
      "à¤Ĺà¤£à¤µ": 2838,
      "à¤µà¤¨à¤¸à¤¤": 2839,
      "Ġà¥«à¥Ń": 2840,
      "à¤īà¤²à¤Ł": 2841,
      "umb": 2842,
      "ik": 2843,
      "Ġn": 2844,
      "à¤¸à¤§": 2845,
      "à¤¸à¤³à¤£": 2846,
      "Ġà¤µà¤²": 2847,
      "Ġà¤ĺà¤¡à¤µà¤£": 2848,
      "Ġà¤Ńà¤Ĺà¤¤à¤¸": 2849,
      "à¥ĩâĢĿ": 2850,
      "à¤µà¤ªà¤ķ": 2851,
      "à¤¸à¤ľ": 2852,
      "Ġà¤¹à¤¯": 2853,
      "Ġà¤¨à¤°à¤¸": 2854,
      "à¤³à¤®à¤§": 2855,
      "à¤ĸà¤Ł": 2856,
      "Ġà¤ļà¤®à¤¤": 2857,
      "à¤Ĭà¤¨à¤²": 2858,
      "à¥¨à¥¬": 2859,
      "Ġ39": 2860,
      "Ġà¥ªà¥§": 2861,
      "à¥®à¥¦": 2862,
      "Ġ57": 2863,
      "Ġ49": 2864,
      "Ġà¤ħà¤µà¤®": 2865,
      "Ġà¤Ĩà¤łà¤µà¤¡à¥Ł": 2866,
      "23": 2867,
      "60": 2868,
      "aw": 2869,
      "à¤ļà¤¡": 2870,
      "à¤¸à¤¶": 2871,
      "à¤ľà¤¡": 2872,
      "Ġà¤Ńà¤Ĺ": 2873,
      "à¤ıà¤®à¤ļ": 2874,
      "à¤°à¤ªà¤ķ": 2875,
      "à¤ĩà¤ľ": 2876,
      "à¤¯à¤¨à¤¶": 2877,
      "Ġà¥«à¥©": 2878,
      "Ġ64": 2879,
      "à¤µà¤ªà¤³": 2880,
      "Ġà¤µà¤¡à¤Ĺ": 2881,
      "ess": 2882,
      "24": 2883,
      "ia": 2884,
      "à¤¦à¤Ń": 2885,
      "Ġà¤µà¤³à¤µ": 2886,
      "Ġà¤¸à¤®à¤Ń": 2887,
      "à¤µà¤³à¤£": 2888,
      "Ġà¤ħà¤²à¤°": 2889,
      "Ġ197": 2890,
      "ĠIPL": 2891,
      "Ġà¤ĩà¤°à¤«": 2892,
      "à¤¬à¤µà¤¤": 2893,
      "Ġà¤°à¤¡à¤¤": 2894,
      "Ġà¤łà¤¸": 2895,
      "Ġà¤¡à¤¹": 2896,
      "Ġà¤Ĩà¤ªà¤Ł": 2897,
      "à¤¹à¤°à¤®à¤§": 2898,
      "Ġà¤¥à¤ķà¤µ": 2899,
      "à¤ľà¤ªà¤¤": 2900,
      "à¤§à¤µà¤Ł": 2901,
      "Ġ150": 2902,
      "avirus": 2903,
      "oronavirus": 2904,
      "à¤µà¤µà¤¤": 2905,
      "Ġà¤Ĩà¤ĸà¤£": 2906,
      "à¥ĩ.'": 2907,
      "à¤Ńà¤¦": 2908,
      "à¥Ģ....": 2909,
      "Ġà¤ıà¤ķà¤®à¤¤": 2910,
      "Ġà¤ħà¤¨à¤ª": 2911,
      "Ġà¤¦à¤°à¤¡": 2912,
      "à¤ıà¤¸à¤Ī": 2913,
      "Ġà¤īà¤²à¤Łà¤²": 2914,
      "à¥ĢâĢĻ,": 2915,
      "ang": 2916,
      "Ġà¤įà¤ķ": 2917,
      "Ġà¤§à¤¡à¤ªà¤¡": 2918,
      "Ġà¤Ĺà¤¸": 2919,
      "à¤ıà¤µà¤¢": 2920,
      "Ġà¤ĵà¤ĺ": 2921,
      "à¤ĩà¤«": 2922,
      "à¤¹à¤¨à¤¹": 2923,
      "Ġ99": 2924,
      "Ġà¤°à¤£à¤¬": 2925,
      "à¤¸à¤³à¤¤": 2926,
      "Ġà¤¶à¤°à¤£": 2927,
      "Ġà¤Ĺà¤µà¤¤": 2928,
      "Ġà¤ħà¤¨à¤¨": 2929,
      "Ġà¥¨à¥¦à¥¦à¥¦": 2930,
      "aj": 2931,
      "à¤¨à¤¤à¤°": 2932,
      "à¤¨à¤«": 2933,
      "Ġà¤ªà¤¸à¤°": 2934,
      "à¤¦à¤¸": 2935,
      "à¤łà¤ļ": 2936,
      "à¤ķà¤°à¤²": 2937,
      "à¤¸à¤°à¤ª": 2938,
      "à¤Ĩà¤¨": 2939,
      "Ġà¤īà¤®à¤Łà¤²": 2940,
      "Ġà¤Ĩà¤Īà¤¸": 2941,
      "Ġà¤ıà¤«à¤Ĩà¤¯": 2942,
      "orona": 2943,
      "à¤¤à¤ĸ": 2944,
      "Ġà¤ķà¤¬à¤¡": 2945,
      "à¤Łà¤Ĺ": 2946,
      "Ġà¤Ĺà¤ľà¤°": 2947,
      "Ġà¤ĸà¤°à¤ļ": 2948,
      "à¥¯à¥¦": 2949,
      "Ġ400": 2950,
      "Ġà¥¨à¥«à¥¦": 2951,
      "me": 2952,
      "op": 2953,
      "Âº": 2954,
      "à¤£à¤ĺ": 2955,
      "à¤³à¤®": 2956,
      "Ġà¤ľà¤®à¤¤": 2957,
      "Ġà¤īà¤£": 2958,
      "Ġà¤īà¤ªà¤®à¤¹": 2959,
      "à¤Łà¤ķà¤±": 2960,
      "Ġ51": 2961,
      "ĠHome": 2962,
      "Ġà¤¢à¤ķà¤²à¤²": 2963,
      "Ġà¤¦à¤£à¤ķ": 2964,
      "Ġà¤ĺà¤£": 2965,
      "Ġà¤īà¤ªà¤¦": 2966,
      "à¤ıà¤¶à¤¨à¤ļ": 2967,
      "end": 2968,
      "asht": 2969,
      "à¤¸à¤°à¤ķ": 2970,
      "Ġà¤ķà¤¡à¤µ": 2971,
      "Ġà¤ªà¤ļà¤¨": 2972,
      "Ġà¤®à¤ł": 2973,
      "Ġà¤²à¤¢à¤²": 2974,
      "à¤¢à¤¤à¤ļ": 2975,
      "à¥Ńà¥¦": 2976,
      "à¤ıà¤«à¤¸": 2977,
      "Ġà¤ķà¤ļà¤±": 2978,
      "SC": 2979,
      "if": 2980,
      "Ġg": 2981,
      "à¥¥": 2982,
      "à¤¯à¤¡à¤°": 2983,
      "à¤²à¤ªà¤Ł": 2984,
      "à¤ļà¤µà¤¤": 2985,
      "Ġà¤ªà¤³à¤µ": 2986,
      "à¤¶à¤Ńà¤ķ": 2987,
      "Ġà¤Ńà¤²à¤¤": 2988,
      "à¤Ńà¤¤": 2989,
      "à¤Īà¤ĵ": 2990,
      "Ġà¤ĸà¤ļ": 2991,
      "à¤Ĭà¤ļ": 2992,
      "Ġà¥«à¥®": 2993,
      "Ġà¤ľà¤¯à¤¶": 2994,
      "à¤°à¤Ĺà¤°": 2995,
      "à¤ªà¤±": 2996,
      "à¤ľà¤µà¤¤": 2997,
      "Ġà¤¯à¤·": 2998,
      "Ġà¤¶à¤µà¤µ": 2999,
      "à¤Ńà¤³": 3000,
      "Ġà¤ªà¤°à¤¶": 3001,
      "à¤°à¤ļà¤²": 3002,
      "Ġà¤¥à¤ķà¤²": 3003,
      "Ġà¤ķà¤²à¤°": 3004,
      "Ġà¤īà¤®à¤Ł": 3005,
      "Ġ85": 3006,
      "Ġà¤ªà¤Łà¤µ": 3007,
      "Ġà¤ĵà¤³à¤ĸà¤£": 3008,
      "à¤¨à¤¯à¤Ń": 3009,
      "Ġà¤ķà¤£à¤ķà¤µà¤²": 3010,
      "\",": 3011,
      "//": 3012,
      "://": 3013,
      "à¤¹à¤Ĺà¤¡": 3014,
      "Ġà¤¸à¤¬à¤¸": 3015,
      "Ġà¤Ĩà¤¦à¤®": 3016,
      "Ġà¤Ĩà¤Īà¤µà¤¡": 3017,
      "Ġà¥¯à¥¬": 3018,
      "ist": 3019,
      "htt": 3020,
      "70": 3021,
      "80": 3022,
      "up": 3023,
      "à¤®à¤ķà¤°": 3024,
      "à¤ľà¤¨à¤¨": 3025,
      "Ġà¤ķà¤®à¤°": 3026,
      "Ġà¤ªà¤°à¤¤à¤£": 3027,
      "arat": 3028,
      "Ġà¤ĵà¤³à¤ĸà¤ªà¤¤": 3029,
      "Ġà¤ķà¤¡à¤ķà¤¡": 3030,
      "Ġà¤ĸà¤³à¤¬à¤³à¤ľà¤¨à¤ķ": 3031,
      "Âºà¤¯": 3032,
      "13": 3033,
      "ly": 3034,
      "Ġ=": 3035,
      "Ġà¤®à¤Ĭ": 3036,
      "à¤¬à¤Ĺ": 3037,
      "à¤Ńà¤ª": 3038,
      "à¤¾....": 3039,
      "à¤¢à¤±": 3040,
      "à¤ĺà¤µ": 3041,
      "Ġà¤ĩà¤Ł": 3042,
      "à¤¸à¤²à¤ļ": 3043,
      "à¤Īà¤²à¤µà¤°": 3044,
      "à¤ľà¤ªà¤¸": 3045,
      "à¤¯à¤¨à¤²à¤®à¤§": 3046,
      "og": 3047,
      "Ġà¤ĥ": 3048,
      "à¤°à¤¤à¤°à¤¤": 3049,
      "à¤ķà¤ĺà¤°": 3050,
      "à¥ĭ)": 3051,
      "Ġà¤¦à¤Ĺ": 3052,
      "Ġà¤¶à¤²": 3053,
      "à¤łà¤Ń": 3054,
      "à¤Īà¤°": 3055,
      "Ġà¤ıà¤ķà¤ľ": 3056,
      "Ġà¤¸à¤°à¤¸à¤ķà¤Ł": 3057,
      "à¤Ĩà¤¯à¤ķà¤¡": 3058,
      "Ġà¤Īà¤®": 3059,
      "Ġà¤īà¤ļà¤²à¤¤": 3060,
      "harasht": 3061,
      "<<": 3062,
      "ĠX": 3063,
      "à¤ļà¤ªà¤¤": 3064,
      "à¤Ĺà¤°à¤®": 3065,
      "à¤Ĺà¤°à¤ļ": 3066,
      "Ġà¤¨à¤²": 3067,
      "à¥ĩ,âĢĿ": 3068,
      "à¤ķà¤°à¤°": 3069,
      "à¤ķà¤°à¤¦": 3070,
      "à¤ıà¤¸à¤ļ": 3071,
      "Ġà¤ľà¤¨à¤¹": 3072,
      "Ġà¤¦à¤°à¤®à¤¹": 3073,
      "Ġà¥«à¥¯": 3074,
      "Ġà¥¯à¥¯": 3075,
      "Ġà¤ªà¤¸à¤°à¤µ": 3076,
      "Ġà¤¦à¤Ĺà¤¡à¤«": 3077,
      "à¤¯à¤ĺà¤Łà¤¨": 3078,
      "Ġà¤Ĩà¤Ĺà¤³": 3079,
      "Ġà¤µà¤³à¤¤": 3080,
      "Ġà¤¨à¤Ł": 3081,
      "à¤¶à¤ķà¤°": 3082,
      "Ġà¤«à¤¸à¤µ": 3083,
      "à¤ĺà¤¡à¤£": 3084,
      "à¥ĩ,âĢĻ": 3085,
      "Ġà¤Ĩà¤°à¤¡": 3086,
      "à¤ħà¤°à¤®à¤¨": 3087,
      "à¤Ĩà¤ªà¤£": 3088,
      "à¤°à¤¶à¤ķ": 3089,
      "Ġà¤Ĩà¤¯à¤°": 3090,
      "à¤¤à¤ļà¤°": 3091,
      "Ġ63": 3092,
      "Ġ2013": 3093,
      "à¤¤à¤°à¤£à¤ļ": 3094,
      "ideo": 3095,
      "umbai": 3096,
      ".'": 3097,
      "th": 3098,
      "Ġhtt": 3099,
      "à¤¨à¤°à¤ļ": 3100,
      "à¥ĭ;": 3101,
      "à¤·à¤¶": 3102,
      "Ġà¤ļà¤·": 3103,
      "à¤Īà¤¨à¤ļ": 3104,
      "à¤Łà¤ķà¤ļ": 3105,
      "Ġà¤ĵà¤°à¤¡": 3106,
      "à¥¨à¥¯": 3107,
      "à¤īà¤¸": 3108,
      "à¤ıà¤®à¤Ł": 3109,
      "ya": 3110,
      "à¤¯à¤Ĺà¤°": 3111,
      "à¤²à¤¢": 3112,
      "Ġà¤ķà¤³à¤µà¤²": 3113,
      "à¤¦à¤¦": 3114,
      "Ġà¤µà¤³à¤¸": 3115,
      "à¤¡à¤µà¤¤": 3116,
      "Ġà¤¹à¤°à¤Ń": 3117,
      "à¤¥à¤¶": 3118,
      "Ġà¤ļà¤¢à¤¤": 3119,
      "à¤°à¤ªà¤Łà¤Ĺ": 3120,
      "Ġà¤ķà¤¸à¤¬": 3121,
      "Ġà¥®à¥ª": 3122,
      "Ġà¤ıà¤¨à¤Ĩà¤¯": 3123,
      "HO": 3124,
      "hat": 3125,
      "à¤¸à¤¦à¤°": 3126,
      "à¤Łà¤¶": 3127,
      "Ġà¤¬à¤¬": 3128,
      "à¤µà¤¡à¤ķ": 3129,
      "Ġà¤Ĩà¤ªà¤£à¤¹": 3130,
      "à¤ĵà¤¸": 3131,
      "à¤īà¤¨à¤ļ": 3132,
      "Ġà¤ªà¤°à¤¤à¤¤": 3133,
      "li": 3134,
      "à¤®à¤ªà¤£": 3135,
      "à¥ģ-": 3136,
      "à¤Łà¤ħà¤ª": 3137,
      "Ġà¤¨à¤³": 3138,
      "Ġà¤¨à¤ĸ": 3139,
      "à¤·à¤¬": 3140,
      "Ġà¤°à¤¥": 3141,
      "Ġà¤ĺà¤¸à¤°": 3142,
      "à¤Īà¤µà¤°": 3143,
      "à¤°à¤®à¤¸": 3144,
      "Ġà¤īà¤ªà¤¸à¤°à¤ª": 3145,
      "à¤¶à¤¨à¤¶": 3146,
      "Ġ58": 3147,
      "Ġà¥¬à¥¬": 3148,
      "Ġà¤Īà¤¸": 3149,
      "em": 3150,
      "Ġr": 3151,
      "à¤¨à¤Īà¤ļ": 3152,
      "Ġà¤¬à¤°à¤¸": 3153,
      "Ġà¤²à¤¯": 3154,
      "Ġà¤ıà¤¶": 3155,
      "Ġà¤¸à¤®à¤¶": 3156,
      "à¤¯à¤²à¤ļ": 3157,
      "Ġ41": 3158,
      ",âĢĻ": 3159,
      "45": 3160,
      "ðŁ": 3161,
      "à¤¨à¤Ł": 3162,
      "Ġà¤ķà¤¢": 3163,
      "Ġà¤ķà¤±": 3164,
      "Ġà¤¸à¤Ł": 3165,
      "à¤Łà¤ĸ": 3166,
      "à¤Łà¤¸à¤¹": 3167,
      "à¤ľà¤¯à¤ķ": 3168,
      "à¤¶à¤¤": 3169,
      "à¤īà¤²": 3170,
      "Ġà¤Ķà¤ļ": 3171,
      "Ġà¤¹à¤²à¤µà¤£": 3172,
      "Ġà¤Ĺà¤¤à¤µà¤°": 3173,
      "à¤¸à¤Ĺà¤¡": 3174,
      "à¤¹à¤ª": 3175,
      "à¤ľà¤³": 3176,
      "à¤³à¤ķà¤¤": 3177,
      "Ġà¤ļà¤¢à¤²": 3178,
      "à¤ħà¤ľ": 3179,
      "à¤Ĩà¤¯à¤²": 3180,
      "Ġà¥Ńà¥®": 3181,
      "Ġà¥Ńà¥Ń": 3182,
      "Ġ72": 3183,
      "ank": 3184,
      "Ġà¥¨à¥¦à¥¦à¥®": 3185,
      "Ġà¤ıà¤ħà¤°à¤Ł": 3186,
      "Ġà¤ļà¤®à¤ķà¤¦": 3187,
      "harashtra": 3188,
      "ec": 3189,
      "à¤½": 3190,
      "à¥ĢâĢĿ": 3191,
      "à¤¤à¤¸à¤°": 3192,
      "Ġà¤¸à¤¨à¤°": 3193,
      "à¤ªà¤¡à¤£": 3194,
      "à¥ĩ.)": 3195,
      "âĢĭ": 3196,
      "à¤Ĭà¤°": 3197,
      "Ġà¤Ĩà¤ªà¤£à¤ļ": 3198,
      "Ġà¥Ńà¥¨": 3199,
      "Ġà¥Ńà¥©": 3200,
      "ĠMa": 3201,
      "ĠPr": 3202,
      "esh": 3203,
      "Ġà¤ıà¤®à¤ıà¤®à¤Ĩà¤°à¤¡": 3204,
      "Ġà¤¹à¤¡à¤ªà¤¸à¤°": 3205,
      "35": 3206,
      "à¤µà¤¯à¤ķ": 3207,
      "à¤¸à¤«à¤°": 3208,
      "à¤¹à¤¦": 3209,
      "à¤£à¤µà¤£": 3210,
      "Ġà¤ķà¤³à¤£": 3211,
      "à¤ªà¤°à¤µ": 3212,
      "Ġà¤¹à¤°à¤µ": 3213,
      "à¤³à¤ªà¤Ł": 3214,
      "Ġà¤ľà¤¤à¤¨": 3215,
      "à¤ĺà¤²": 3216,
      "à¥Ī,": 3217,
      "à¤Ĭà¤¦": 3218,
      "Ġà¤µà¤°à¤¦": 3219,
      "Ġà¤¸à¤¹à¤µ": 3220,
      "à¤Ĩà¤¯à¤¡": 3221,
      "Ġ67": 3222,
      "Ġà¤Ĺà¤¡à¤¬à¤¡": 3223,
      "Ġà¤¹à¤Łà¤µà¤²": 3224,
      "ex": 3225,
      "ial": 3226,
      "à¤²à¤ĺ": 3227,
      "à¤¿:": 3228,
      "à¤¸à¤Ł": 3229,
      "Ġà¤®à¤Ł": 3230,
      "Ġà¤¤à¤¹": 3231,
      "Ġà¤¤à¤¹à¤ķ": 3232,
      "à¤¬à¤µà¤°": 3233,
      "Ġà¤ļà¤¢à¤µà¤²": 3234,
      "à¤Ńà¤¨": 3235,
      "à¤Ńà¤°à¤¤": 3236,
      "Ġà¤īà¤¬à¤¦": 3237,
      "Ġà¤ªà¤°à¤ª": 3238,
      "à¤ķà¤²à¤®à¤§": 3239,
      "à¤®à¤ķà¤°à¤£": 3240,
      "Ġ2012": 3241,
      "Ġà¤īà¤¤à¤°à¤µ": 3242,
      "Ġà¤ªà¤Łà¤ķà¤¨": 3243,
      "****": 3244,
      "à¤¾à¤¾": 3245,
      "à¥Ģ(": 3246,
      "à¤¤à¤¯": 3247,
      "Ġà¤ķà¤¤à¤°": 3248,
      "Ġà¤ľà¤¨à¤Ĺà¤£à¤¨": 3249,
      "à¥Ńà¥«": 3250,
      "Ġà¥Ńà¥ª": 3251,
      "Ġà¤ıà¤¸à¤¯": 3252,
      "ud": 3253,
      "à¤ķà¤«": 3254,
      "à¤ļà¤²à¤¨": 3255,
      "à¤¦à¥Ł": 3256,
      "Ġà¤¤à¤Łà¤ķà¤°": 3257,
      "Ġà¤¯à¤ķ": 3258,
      "à¥Ģ.âĢĻ": 3259,
      "Ġà¤ıà¤ķà¤ª": 3260,
      "à¤ıà¤¸à¤ķ": 3261,
      "à¤ħà¤¤": 3262,
      "Ġà¥¬à¥©": 3263,
      "Ġà¥¨à¥¦à¥¦à¥«": 3264,
      "à¤ĭà¤¤": 3265,
      ",âĢĿ": 3266,
      "à¤¾(": 3267,
      "à¤¨à¤¸à¤¹": 3268,
      "Ġà¤¤à¤¬à¤²": 3269,
      "à¤¡à¤¨à¤®à¤§": 3270,
      "à¤ľà¤µà¤¡": 3271,
      "Ġà¤¹à¤°à¤¯": 3272,
      "à¤¶à¤¤à¤ķ": 3273,
      "Ġà¤¬à¤Ĺ": 3274,
      "Ġà¤ķà¤°à¤¦": 3275,
      "à¤ıà¤Łà¤°": 3276,
      "à¤Ĩà¤²": 3277,
      "Ġà¤¸à¤¹à¤²": 3278,
      "Ġà¤Ľà¤ª": 3279,
      "Ġ59": 3280,
      "Ġà¤ľà¤Ĺà¤¨": 3281,
      "Ġà¤Īà¤µ": 3282,
      "Ġà¤īà¤ĺà¤¡à¤¤": 3283,
      "Ġà¤ªà¤¸à¤°à¤µà¤£": 3284,
      "ine": 3285,
      "Ġà¥©à¥Ńà¥¦": 3286,
      "CB": 3287,
      "à¤£à¤ķà¤°": 3288,
      "Ġà¤ªà¤Łà¤¤": 3289,
      "à¤Łà¤ªà¤°": 3290,
      "Ġà¤¯à¤ľ": 3291,
      "Ġà¤ķà¤°à¤ª": 3292,
      "Ġà¤ĺà¤¨": 3293,
      "à¤°à¤£à¤µ": 3294,
      "à¤ĺà¤Łà¤ķ": 3295,
      "Ġà¤ĩà¤«": 3296,
      "à¤ķà¤°à¤µ": 3297,
      "à¤Ĩà¤¶": 3298,
      "Ġ53": 3299,
      "à¤ıà¤®à¤®à¤§": 3300,
      "à¤¯à¤°à¤¸à¤®": 3301,
      "à¥ĩ/": 3302,
      "à¤ļà¤µà¤°": 3303,
      "à¤ļà¤ªà¤°": 3304,
      "Ġà¤¦à¤³à¤£": 3305,
      "Ġà¤¦à¤¡à¤ªà¤£": 3306,
      "Ġà¤Ĺà¤ł": 3307,
      "Ġà¤ļà¤®": 3308,
      "Ġà¤īà¤°à¤£": 3309,
      "Ġà¤īà¤ķà¤¡": 3310,
      "Ġ2022": 3311,
      "Ġà¤ıà¤®à¤ıà¤¸": 3312,
      "ĠSt": 3313,
      "Ġà¤Ŀà¤³à¤ķà¤²": 3314,
      "ive": 3315,
      "26": 3316,
      "29": 3317,
      "ck": 3318,
      "à¤¯à¤ªà¤°": 3319,
      "Ġà¤¹à¤°à¤²": 3320,
      "à¤¬à¤Īà¤¨": 3321,
      "Ġ74": 3322,
      "Ġ84": 3323,
      "one": 3324,
      "Ġà¤ĺà¤¡à¤µà¤²": 3325,
      "Ġà¥¨à¥¦à¥¦à¥ª": 3326,
      "Ġà¤įà¤¡": 3327,
      "?\"": 3328,
      "ww": 3329,
      "à¤ļà¤Ĺ": 3330,
      "Ġà¤Ńà¤°à¤§": 3331,
      "à¤Ńà¤µà¤£": 3332,
      "à¤¹à¤£à¤²": 3333,
      "Ġà¤Ĩà¤¯à¤Ĩà¤¯à¤Ł": 3334,
      "Ġà¤¸à¤¹à¤¯": 3335,
      "Ġ2000": 3336,
      "Ġà¤ľà¤®à¤µ": 3337,
      "Ġà¤īà¤ªà¤¸à¤Ń": 3338,
      "Ġà¤īà¤®à¤°": 3339,
      "à¤Īà¤¨à¤®à¤§": 3340,
      "Ġà¥Ńà¥¦à¥¦": 3341,
      "Ġà¤Ĺà¤£à¤¨": 3342,
      "Ġà¤īà¤¤à¤°à¤µà¤²": 3343,
      "Ġâļ": 3344,
      "Ġà¤Ńà¤¡à¤ķà¤²": 3345,
      "27": 3346,
      "ĠY": 3347,
      "à¤ľà¤Ńà¤µà¤¨": 3348,
      "à¤Ĺà¤²à¤ļ": 3349,
      "à¤¦à¤°à¤¨": 3350,
      "Ġà¥§à¥¯à¥©": 3351,
      "Ġà¥¬à¥¯": 3352,
      "Ġà¥¬à¥®": 3353,
      "Ġà¥¯à¥ª": 3354,
      "Ġà¤¨à¤Ĺà¤°à¤µ": 3355,
      "Ġà¤ıà¤«à¤Ĩà¤¯à¤Ĩà¤°": 3356,
      "Ġâļ¡": 3357,
      "her": 3358,
      "à¤Ĥ;": 3359,
      "Ġà¤¯à¤¥": 3360,
      "à¤³à¤Ĺà¤²": 3361,
      "à¤ĸà¤°à¤ª": 3362,
      "Ġà¤Ŀà¤²à¤ķ": 3363,
      "à¤¾.\"": 3364,
      "Ġà¤Ĩà¤¢à¤³à¤£": 3365,
      "Ġà¥®à¥¬": 3366,
      "à¤µà¤§à¤Ĺ": 3367,
      "Ġà¥¨à¥¦à¥¦à¥¬": 3368,
      "à¤ıà¤¨à¤ľ": 3369,
      "Ġ2008": 3370,
      "arathi": 3371,
      "55": 3372,
      "à¤¾à¤Ĥà¤Ĥ": 3373,
      "à¤ªà¤¦à¤°": 3374,
      "Ġà¤ħà¤³": 3375,
      "à¤¶à¤ľ": 3376,
      "Ġà¤Ĺà¤Ĺà¤¨": 3377,
      "Ġà¤ļà¤Łà¤ķ": 3378,
      "Ġhttps": 3379,
      "Ġà¤Ĩà¤¤à¤²": 3380,
      "Ġà¤¹à¤¸à¤²": 3381,
      "à¤¬à¤²à¤ķ": 3382,
      "Ġà¤ĺà¤¶": 3383,
      "à¤°à¤ķà¤ļ": 3384,
      "Ġà¤¸à¤°à¤ķà¤¤": 3385,
      "à¤ħà¤ķ": 3386,
      "à¤¸à¤¨à¤²": 3387,
      "Ġà¤ħà¤ľà¤¬": 3388,
      "Ġà¤īà¤®à¤Łà¤¤": 3389,
      "Ġ196": 3390,
      "à¥Ģ',": 3391,
      "à¥ĩ',": 3392,
      "Ġà¤²à¤ĸà¤¨à¤Ĭ": 3393,
      "28": 3394,
      "IC": 3395,
      "IS": 3396,
      "hin": 3397,
      "à¤£à¤£": 3398,
      "à¤ªà¤ªà¤¤": 3399,
      "à¤Ĺà¤¬": 3400,
      "à¤Ĺà¤ľà¤¨": 3401,
      "Ġà¤ľà¤¸à¤ª": 3402,
      "Ġà¤Ĺà¤ļ": 3403,
      "à¤Ńà¤Ł": 3404,
      "à¥Ģ.âĢĿ": 3405,
      "Ġà¤«à¤¸à¤²": 3406,
      "à¤ıà¤¬": 3407,
      "à¤¨à¤Ĺà¤°à¤®à¤§": 3408,
      "Ġ2011": 3409,
      "Ġ!!": 3410,
      "Ġà¤ħà¤¯à¤¶à¤¸": 3411,
      "Ġà¤²à¤ĺà¤µ": 3412,
      "ction": 3413,
      "io": 3414,
      "Ġ&": 3415,
      "à¤ļà¤ªà¤¦": 3416,
      "Ġà¤¨à¤¤": 3417,
      "Ġà¤¨à¤¯à¤¨": 3418,
      "Ġà¤Ŀà¤Łà¤ªà¤Ł": 3419,
      "à¤¶à¤¨à¤°": 3420,
      "Ġà¤ĵà¤¢à¤²": 3421,
      "Ġ68": 3422,
      "Ġ95": 3423,
      "Ġà¥¨à¥¦à¥¦à¥Ń": 3424,
      "hav": 3425,
      "Ġà¤īà¤²à¤Ĺà¤¡": 3426,
      "?âĢĻ": 3427,
      "ok": 3428,
      "à¤ķà¤¯": 3429,
      "à¤¹à¤¶": 3430,
      "à¤¦à¤¬": 3431,
      "à¤Łà¤ķà¤¡": 3432,
      "Ġà¤Ŀà¤°": 3433,
      "Ġà¤ĺà¤°à¤«": 3434,
      "Ġà¤ķà¤³à¤¸": 3435,
      "ity": 3436,
      "Ġà¤ıà¤«à¤¡": 3437,
      "ock": 3438,
      "Ġ$": 3439,
      "à¥ľ": 3440,
      "à¤¤à¤°à¤ķ": 3441,
      "à¤²à¤ķà¤²": 3442,
      "à¤ļà¤°à¤²": 3443,
      "à¤¸à¤ĺ": 3444,
      "à¤ªà¤ķà¤°": 3445,
      "Ġà¤¤à¤¡à¤ķ": 3446,
      "à¤Łà¤°à¤®": 3447,
      "à¤Łà¤Ńà¤°": 3448,
      "Ġà¤¬à¤¤": 3449,
      "à¤ĸà¤®à¤§": 3450,
      "Ġà¤Ńà¤°à¤µ": 3451,
      "Ġà¤īà¤¸à¤³à¤²": 3452,
      "à¤¾.....": 3453,
      "à¥ĩ,'": 3454,
      "à¤Ĩà¤ł": 3455,
      "à¤¹à¤°à¤¨": 3456,
      "à¤®à¤¨à¤¸": 3457,
      "Ġà¤ľà¤¨à¤°": 3458,
      "à¥¯à¥«": 3459,
      "Ġà¥¯à¥Ń": 3460,
      "à¤ļà¤µà¤¡à¤®à¤§": 3461,
      "à¤ĳà¤«": 3462,
      "Ġà¤ĭà¤·à¤Ń": 3463,
      "Ġk": 3464,
      "à¥ŀ": 3465,
      "à¤µà¤Ī": 3466,
      "à¤µà¤ªà¤¦": 3467,
      "Ġà¤ľà¤ªà¤²": 3468,
      "à¥ĩ,\"": 3469,
      "à¤°à¤®à¤¶": 3470,
      "à¥ĩà¤Ĥ.": 3471,
      "Ġà¤¡à¤¬à¤²": 3472,
      "à¥©à¥©": 3473,
      "à¤īà¤·": 3474,
      "Ġà¤Ķà¤ªà¤ļ": 3475,
      "à¤¾?,": 3476,
      "Ġà¤¸à¤«à¤°à¤ļ": 3477,
      "ĠIndia": 3478,
      "à¥į.": 3479,
      "à¤ķà¤ķà¤²": 3480,
      "à¤µà¤ªà¤Ł": 3481,
      "à¤£à¤¦": 3482,
      "Ġà¤Ĩà¤µà¤°à¤£": 3483,
      "Ġà¤¸à¤¡à¤ķ": 3484,
      "Ġà¤ħà¤²à¤ķ": 3485,
      "à¤Ĺà¤Ŀ": 3486,
      "à¤¡à¤°à¤²": 3487,
      "à¤¶à¤µà¤¤": 3488,
      "à¤²à¤ķà¤¤": 3489,
      "Ġà¤ĵà¤¤à¤£": 3490,
      "à¤ĩà¤¨à¤ļ": 3491,
      "à¥¨à¥¦à¥¦": 3492,
      "Ġà¥§à¥¯à¥¦": 3493,
      "Ġà¥¬à¥¦à¥¦": 3494,
      "Ġ62": 3495,
      "Ġ66": 3496,
      "Ġà¥®à¥®": 3497,
      "Ġà¤§à¤¡à¤ķà¤²": 3498,
      ",'": 3499,
      "47": 3500,
      "à¤Ķ": 3501,
      "à¤ķà¤¸à¤¤": 3502,
      "Ġà¤Ĩà¤¯à¤¤": 3503,
      "à¤°à¤ķà¤±": 3504,
      "à¤ķà¤°à¤ª": 3505,
      "à¤Ŀà¤¡": 3506,
      "à¤Īà¤²à¤®à¤§": 3507,
      "Ġà¤ķà¤®à¤³": 3508,
      "Ġ73": 3509,
      "Ġà¤¹à¤¤à¤¬à¤²": 3510,
      "Ġà¤ħà¤¡à¤µà¤£": 3511,
      "Ġà¥§à¥¨à¥¦": 3512,
      "Ġ2009": 3513,
      "und": 3514,
      "à¤¯à¤ªà¤¦à¤ķ": 3515,
      "à¤¨à¤Ńà¤°à¤ª": 3516,
      "++++++++++++++++++++++++++++++++": 3517,
      "ev": 3518,
      "Ġà¤¿": 3519,
      "Ġà¤¦à¤³à¤µ": 3520,
      "à¤¶à¤ķà¤¤": 3521,
      "Ġà¤Ĺà¤¯": 3522,
      "Ġà¤ļà¤¹à¤²": 3523,
      "à¤¬à¤°à¤µà¤°": 3524,
      "à¤¬à¤Īà¤¹": 3525,
      "à¤ĩà¤ª": 3526,
      "à¤¤à¤®à¤ľ": 3527,
      "Ġà¤¬à¤¸à¤ª": 3528,
      "Ġà¤ħà¤µà¤ľà¤¡": 3529,
      "Ġà¤¹à¤²à¤Ĺà¤°": 3530,
      "Ġà¥¬à¥Ń": 3531,
      "Ġà¤ªà¤°à¤¤à¤«": 3532,
      "Ġà¤ıà¤¸à¤ıà¤®à¤ıà¤¸": 3533,
      "Ġà¤ħà¤ĸà¤¤": 3534,
      "Ġà¥¯à¥©": 3535,
      "à¤¡à¤°à¤µà¤°": 3536,
      "Ġà¤īà¤ĺà¤¡à¤ªà¤£": 3537,
      "ĠVideo": 3538,
      "Ġ370": 3539,
      "Ġà¤ıà¤ħà¤°à¤²": 3540,
      "à¤°à¤µà¤¸": 3541,
      "à¤°à¤¬à¤³": 3542,
      "à¤ļà¤°à¤ļ": 3543,
      "Ġà¤ķà¤³à¤µà¤£": 3544,
      "Ġà¤¤à¤µ": 3545,
      "à¤¡à¤ķà¤¡": 3546,
      "Ġà¤¬à¤ķà¤°": 3547,
      "Ġà¤ķà¤°à¤¨": 3548,
      "Ġà¤Ĺà¤µà¤¸": 3549,
      "à¥ħà¤¾": 3550,
      "à¤°à¤¸à¤Ń": 3551,
      "à¤¯à¤®à¤¯": 3552,
      "à¤¯à¤®à¤®à¤§": 3553,
      "Ġà¤Ĩà¤°à¤ª": 3554,
      "à¤Ĺà¤¤à¤ļ": 3555,
      "à¤¬à¤Īà¤¸": 3556,
      "à¤¾?\"": 3557,
      "Ġà¤ıà¤®à¤¬": 3558,
      ">>>>": 3559,
      "à¤¾à¥ħ.": 3560,
      "over": 3561,
      "our": 3562,
      "à¥Ģà¤ĥ": 3563,
      "à¤ķà¤ķà¤°": 3564,
      "à¤¸à¤®à¤¨": 3565,
      "à¤¸à¤Ĩà¤ĺ": 3566,
      "Ġà¤ķà¤Łà¤ķ": 3567,
      "à¤³à¤Ĺà¤¤": 3568,
      "à¤«à¤¸à¤«": 3569,
      "à¤Ĩà¤ķ": 3570,
      "à¤¯à¤ļà¤ķ": 3571,
      "Ġà¥¨à¥¦à¥¨à¥¨": 3572,
      "Ġ600": 3573,
      "à¤ıà¤®à¤Ĩà¤¯": 3574,
      "Ġà¥®à¥Ń": 3575,
      "Ġà¥®à¥¦à¥¦": 3576,
      "à¤ıà¤¨à¤ı": 3577,
      "à¥ĩ).": 3578,
      "Ġà¥§à¥¦à¥¦à¥¦": 3579,
      "Ġà¤Ĩà¤ī": 3580,
      "Ġà¤¸à¤¡": 3581,
      "Ġà¤¸à¤°à¤¤": 3582,
      "Ġà¤ªà¤³à¤¤": 3583,
      "à¤ľà¤°à¤¨": 3584,
      "Ġà¤¨à¤¡": 3585,
      "à¤³à¤Ń": 3586,
      "Ġà¤¬à¤°à¤ĸ": 3587,
      "à¤ĸà¤¸": 3588,
      "à¤ĸà¤¹": 3589,
      "à¤°à¤£à¤¹": 3590,
      "à¤ĺà¤ļ": 3591,
      "à¤°à¤®à¤ļ": 3592,
      "à¤ħà¤°à¤¸": 3593,
      "à¤Ĩà¤°à¤ļ": 3594,
      "Ġ69": 3595,
      "ard": 3596,
      "Ġ195": 3597,
      "ort": 3598,
      "ish": 3599,
      "Ġvs": 3600,
      "ep": 3601,
      "pur": 3602,
      "ub": 3603,
      "à¥²": 3604,
      "à¤°à¤³à¤ķ": 3605,
      "à¤¯à¤§": 3606,
      "à¤¯à¤±": 3607,
      "à¤ĤâĢĻ": 3608,
      "à¤¹à¤ķà¤°": 3609,
      "à¥ĭ:": 3610,
      "Ġà¤ķà¤«": 3611,
      "Ġà¤ķà¤µà¤ļ": 3612,
      "Ġà¤¬à¤¨à¤¸": 3613,
      "Ġà¤²à¤ł": 3614,
      "Ġà¤ļà¤·à¤ķ": 3615,
      "Ġà¤ļà¤Łà¤£": 3616,
      "Ġà¤łà¤ªà¤ķ": 3617,
      "à¤ªà¤°à¤ļ": 3618,
      "à¤ªà¤°à¤Ĺ": 3619,
      "à¤ıà¤¤": 3620,
      "Ġ120": 3621,
      "à¤Ĩà¤Ĭà¤Ł": 3622,
      "à¤¸à¤¨à¤¨": 3623,
      "Ġà¤ķà¤®à¤ľ": 3624,
      "à¤īà¤ª": 3625,
      "à¤īà¤¨à¤²": 3626,
      "Ġà¤ĩà¤®à¤°": 3627,
      "Ġà¤ħà¤¡à¤µà¤²": 3628,
      "à¤¹à¤²à¤ªà¤®": 3629,
      "Ġà¤Ĭà¤¨": 3630,
      "Ġà¤¹à¤³à¤¹à¤³": 3631,
      "Ġ1000": 3632,
      "ram": 3633,
      "à¤°à¤«à¤³": 3634,
      "Ġà¥§à¥¯à¥¯à¥¯": 3635,
      "Ġà¤ıà¤ħà¤°à¤ª": 3636,
      "à¤¤à¤ĸà¤³à¤ķà¤°": 3637,
      "ax": 3638,
      "Ġ%": 3639,
      "à¤²à¤¥": 3640,
      "à¤ªà¤§": 3641,
      "Ġà¤¤à¤Ł": 3642,
      "Ġà¤ľà¤¯à¤¦": 3643,
      "Ġà¤¬à¤ľà¤°": 3644,
      "Ġà¤«à¤¡": 3645,
      "à¤µà¤¸à¤®": 3646,
      "à¤¶à¤¨à¤¹": 3647,
      "à¤Ĩà¤¯à¤µ": 3648,
      "à¤®à¤¨à¤Ĺà¤°": 3649,
      "Ġà¤ľà¤¨à¤ķ": 3650,
      "Ġà¥¯à¥®": 3651,
      "kar": 3652,
      "à¤¤à¤µà¤°": 3653,
      "à¤¿-": 3654,
      "à¤¸à¤ªà¤°": 3655,
      "Ġà¤®à¤°à¤¤": 3656,
      "Ġà¤®à¤¦à¤¨": 3657,
      "à¤Łà¤¡": 3658,
      "Ġà¤¯à¤®": 3659,
      "Ġà¤²à¤µà¤ļ": 3660,
      "à¤ĸà¤ª": 3661,
      "à¤¥à¤µà¤°": 3662,
      "à¤Łà¤°à¤Ł": 3663,
      "à¤¦à¤²à¤¹": 3664,
      "Ġà¤ĩà¤¤à¤°à¤¤": 3665,
      "à¤ıà¤¸à¤Ĩà¤¯": 3666,
      "Ġ76": 3667,
      "75": 3668,
      "MC": 3669,
      "Ġon": 3670,
      "à¤ªà¤³à¤Ĺ": 3671,
      "Ġà¤¤à¤Ĺ": 3672,
      "à¥Ĥ)": 3673,
      "Ġà¤ħà¤łà¤°": 3674,
      "à¤ľà¤«": 3675,
      "à¤¥à¤¡": 3676,
      "Ġà¤īà¤§à¤³": 3677,
      "Ġà¤ĸà¤¬à¤°": 3678,
      "à¥Ģ,âĢĿ": 3679,
      "Ġà¤¸à¤®à¤µ": 3680,
      "Ġà¤¨à¤µà¤µà¤°": 3681,
      "à¤ĵà¤°à¤¡": 3682,
      "à¥ªà¥ª": 3683,
      "Ġà¤ĳà¤«à¤²": 3684,
      "Ġ83": 3685,
      "ĠRa": 3686,
      "Ġà¤¦à¤£à¤¦à¤£": 3687,
      "CC": 3688,
      "à¥ĩ(": 3689,
      "à¤ķà¤¸à¤¹": 3690,
      "à¤®à¤°à¤¸": 3691,
      "Ġà¤¨à¤°à¤ķ": 3692,
      "à¤·à¤¹": 3693,
      "Ġà¤°à¤¤à¤¨": 3694,
      "Ġà¤¬à¤¡à¤Ĺ": 3695,
      "Ġà¤Ĺà¤¨": 3696,
      "Ġà¤ļà¤£": 3697,
      "Ġà¤īà¤łà¤µà¤£": 3698,
      "Ġà¤ıà¤²à¤ª": 3699,
      "Ġà¤ĸà¤²à¤¨": 3700,
      "Ġà¤Ĩà¤ªà¤¸": 3701,
      "Ġà¤¸à¤®à¤²": 3702,
      "âĢĻ.": 3703,
      "à¤ıà¤ª": 3704,
      "Ġà¤Ĩà¤®à¤¨": 3705,
      "Ġà¤ĵà¤¢à¤£": 3706,
      "à¤¡à¤ķà¤ª": 3707,
      "ana": 3708,
      "Ġà¤µà¤Ĺà¤³à¤²": 3709,
      "old": 3710,
      "49": 3711,
      "à¤µà¤ľà¤¯": 3712,
      "Ġà¤¨à¤µà¤¸": 3713,
      "à¤·à¤ªà¤£": 3714,
      "à¤¬à¤±": 3715,
      "Ġà¤°à¤¯à¤¤": 3716,
      "Ġà¤²à¤Łà¤ķ": 3717,
      "à¤Łà¤²à¤µà¤°": 3718,
      "à¤¬à¤Īà¤ķà¤¡": 3719,
      "à¤Ĩà¤Ī": 3720,
      "à¤ªà¤£à¤¨": 3721,
      "à¤²à¤¨à¤ķà¤°": 3722,
      "Ġà¥Ńà¥§": 3723,
      "Ġà¥®à¥©": 3724,
      "Ġ250": 3725,
      "ash": 3726,
      "Ġà¥²à¤¡": 3727,
      "Ġà¤¦à¤³à¤£à¤µà¤³à¤£": 3728,
      ",\"": 3729,
      "ĠZ": 3730,
      "à¤ķà¤Łà¤²": 3731,
      "à¤¸à¤¬à¤°": 3732,
      "Ġà¤¤à¤«": 3733,
      "Ġà¤ħà¤Ŀ": 3734,
      "à¤Łà¤Ł": 3735,
      "Ġà¤µà¤³à¤µà¤²": 3736,
      "à¤¡à¤¨à¤ļ": 3737,
      "Ġà¤°à¤®à¤£": 3738,
      "Ġà¤²à¤ªà¤²": 3739,
      "à¤¤à¤°à¤²": 3740,
      "Ġà¤īà¤ªà¤ª": 3741,
      "Ġà¤ĳà¤Īà¤²": 3742,
      "à¤ĵà¤µà¤°": 3743,
      "à¥¯à¥®": 3744,
      "Ġà¤Ĺà¤£à¤°": 3745,
      "Ġ78": 3746,
      "Ġ88": 3747,
      "Ġà¤īà¤¡à¤µà¤£": 3748,
      "à¥Ĥ-(": 3749,
      "à¤²à¤Ĺà¤¤à¤ļ": 3750,
      "48": 3751,
      "à¤¾à¤ĥ": 3752,
      "à¤¯à¤²à¤¯": 3753,
      "Ġà¤¸à¤ªà¤¨": 3754,
      "Ġà¤®à¤®": 3755,
      "Ġà¤®à¤Łà¤£": 3756,
      "à¤Ĺà¤°à¤£": 3757,
      "Ġà¤µà¤°à¤¤": 3758,
      "à¤³à¤ªà¤°": 3759,
      "à¤¶à¤¹à¤°": 3760,
      "Ġà¤Ĺà¤®à¤¤": 3761,
      "Ġà¤²à¤¹à¤°": 3762,
      "à¥Ģ,âĢĻ": 3763,
      "Ġà¤ªà¤¦à¤Ń": 3764,
      "à¤²à¤¬à¤ļ": 3765,
      "à¤ıà¤¸à¤ıà¤¸": 3766,
      "Ġà¥¯à¥¨": 3767,
      "Ġ96": 3768,
      "à¤Ĩà¤°à¤Ł": 3769,
      "Ġà¤Ĺà¤Łà¤µ": 3770,
      "GB": 3771,
      "IR": 3772,
      "ÃŃ": 3773,
      "à¤¯à¤¯à¤¨": 3774,
      "à¤¯à¤ľà¤°": 3775,
      "à¤¶à¤Ł": 3776,
      "Ġà¤ıà¤¨à¤°": 3777,
      "à¤Īà¤ķà¤ļ": 3778,
      "ĠâĢ¢": 3779,
      "à¤Łà¤ķà¤®à¤§": 3780,
      "à¤ľà¤ªà¤¶": 3781,
      "à¤ĩà¤²à¤ļ": 3782,
      "à¤µà¤¨à¤ķ": 3783,
      "à¥«à¥«": 3784,
      "à¥¬à¥¬": 3785,
      "Ġà¤ķà¤ªà¤®à¤§": 3786,
      "Ġà¥¬à¥§": 3787,
      "Ġ700": 3788,
      "Ġ97": 3789,
      "Ġà¤¨à¤Ĺà¤°à¤®à¤§": 3790,
      "Ġà¤²à¤¢à¤µà¤¤": 3791,
      "Ġà¤ĸà¤¡à¤¤à¤°": 3792,
      "à¤ıà¤ļà¤¡": 3793,
      "Ġà¤¹à¤®à¤ĸ": 3794,
      "Ġà¥§à¥¯à¥¯à¥¦": 3795,
      "à¤²à¤ķà¤¡": 3796,
      "à¤Ĥà¤Ĥ": 3797,
      "à¥Ĥ'": 3798,
      "Ġà¤¹à¤¬": 3799,
      "Ġà¤¹à¤°à¤ª": 3800,
      "Ġà¤ħà¤¸à¤®": 3801,
      "Ġà¤ħà¤¸à¤®à¤°": 3802,
      "Ġà¤ļà¤¢à¤µ": 3803,
      "Ġà¤īà¤ķà¤³": 3804,
      "Ġà¤«à¤ľ": 3805,
      "à¤¸à¤¨à¤ļ": 3806,
      "Ġà¤ĵà¤ª": 3807,
      "Ġà¤ħà¤ķà¤¬à¤°": 3808,
      "à¤µà¤§à¤°": 3809,
      "Ġà¤¸à¤¨à¤¦": 3810,
      "à¤¾',": 3811,
      "ĠMarathi": 3812,
      "Ġ2005": 3813,
      "================================": 3814,
      ".âĢĻâĢĻ": 3815,
      "IA": 3816,
      "Ġh": 3817,
      "Ġi": 3818,
      "à¥ĩâĢĿ,": 3819,
      "à¤²à¤¬à¤°": 3820,
      "à¤£à¤µà¤°": 3821,
      "à¤ªà¤ª": 3822,
      "à¥ĩ.....": 3823,
      "Ġà¤ľà¤¡à¤£": 3824,
      "Ġà¤Ńà¤¸": 3825,
      "à¥Ģ.'": 3826,
      "Ġà¤Ĩà¤ľà¤µà¤°à¤ļ": 3827,
      "à¤°à¤¶à¤¸": 3828,
      "à¤µà¤³à¤²": 3829,
      "à¥įâĢįâĢĮ": 3830,
      "Ġà¤ķà¤®à¤µ": 3831,
      "à¥«à¥Ń": 3832,
      "Ġà¤ķà¤¸à¤°à¤¤": 3833,
      "à¥©à¥¨": 3834,
      "à¥©à¥§": 3835,
      "à¥©à¥Ń": 3836,
      "à¤Īà¤¨à¤Ĺà¤°": 3837,
      "âĢ¦.": 3838,
      "Ġà¤Ńà¤°à¤ĺ": 3839,
      "Ġà¥®à¥¨": 3840,
      "à¤¯à¤°à¤¸à¤¨": 3841,
      "à¤ĩà¤²à¤µà¤°": 3842,
      "acc": 3843,
      "Ġà¤Ĩà¤Ŀà¤®": 3844,
      "imp": 3845,
      "ob": 3846,
      "ru": 3847,
      "ry": 3848,
      "Ġre": 3849,
      "à¤į": 3850,
      "à¤µà¤ĸ": 3851,
      "à¤¸à¤ªà¤£": 3852,
      "Ġà¤¸à¤µà¤°": 3853,
      "Ġà¤¸à¤ķà¤²": 3854,
      "Ġà¤ħà¤Ĺà¤°": 3855,
      "Ġà¤ħà¤ªà¤¤": 3856,
      "à¤¡à¤§": 3857,
      "Ġà¤¦à¤®à¤Ł": 3858,
      "Ġà¤¬à¤Łà¤°": 3859,
      "à¤¥à¤¤à¤ľ": 3860,
      "Ġà¤ļà¤¢à¤£": 3861,
      "Ġà¤Ĩà¤¤à¤®à¤§": 3862,
      "à¤¡à¤²à¤µà¤°": 3863,
      "à¤Ĩà¤īà¤Ł": 3864,
      "à¤¤à¤ķà¤®": 3865,
      "à¤·à¤¯à¤°": 3866,
      "à¤¤à¤ªà¤¦": 3867,
      "à¥©à¥®": 3868,
      "Ġà¤²à¤Ĺà¤¬à¤Ĺ": 3869,
      "Ġà¤ıà¤¸à¤ª": 3870,
      "Ġ77": 3871,
      "are": 3872,
      "à¤°à¤³à¤ļ": 3873,
      "all": 3874,
      "ĠAn": 3875,
      "Ġà¥§à¥¯à¥®à¥¦": 3876,
      ":-": 3877,
      "PF": 3878,
      "ta": 3879,
      "Ġand": 3880,
      "à¤°à¤¤à¤°": 3881,
      "à¤µà¤Ĺà¤£": 3882,
      "Ġà¤Ĩà¤µà¤¡à¤£": 3883,
      "Ġà¤Ĩà¤¡à¤¨": 3884,
      "Ġà¤¤à¤³à¤²": 3885,
      "Ġà¤¬à¤Łà¤£": 3886,
      "Ġà¤²à¤ªà¤µà¤²": 3887,
      "à¤µà¤°à¤¸": 3888,
      "Ġà¤Ŀà¤Ł": 3889,
      "à¤¾.âĢĻ": 3890,
      "Ġà¤īà¤ªà¤Ń": 3891,
      "à¤Ĺà¤²à¤¨": 3892,
      "à¤ľà¤¨à¤¶": 3893,
      "Ġà¤ªà¤£à¤ľ": 3894,
      "Ġà¤Ĩà¤ľà¤®": 3895,
      "à¤°à¤ªà¤¡": 3896,
      "à¤Łà¤¨à¤°": 3897,
      "à¤ķà¤²à¤ķ": 3898,
      "Ġà¤ħà¤®à¤³à¤¨": 3899,
      "Ġà¤¤à¤ªà¤ķ": 3900,
      "à¤īà¤°": 3901,
      "Ġà¤Ĭà¤¸à¤¤": 3902,
      "Ġà¥§à¥§à¥¦": 3903,
      "Ġà¤īà¤łà¤¤": 3904,
      "Ġto": 3905,
      "ood": 3906,
      "Ma": 3907,
      "ss": 3908,
      "à¥ĩà¤¼": 3909,
      "à¤¯à¤Łà¤°": 3910,
      "Ġà¤Ĩà¤ķà¤²à¤¨": 3911,
      "à¤®à¤«": 3912,
      "Ġà¤¸à¤ľà¤µ": 3913,
      "Ġà¤®à¤¦à¤°": 3914,
      "à¤łà¤ªà¤£": 3915,
      "Ġà¤Ĺà¤ľà¤¬": 3916,
      "Ġà¤Ĺà¤Ŀà¤²": 3917,
      "Ġà¤Ńà¤ľ": 3918,
      "Ġà¤ıà¤²à¤¬": 3919,
      "à¤Īà¤Łà¤ļ": 3920,
      "à¤±à¤¯": 3921,
      "Ġà¤¸à¤°à¤ķà¤²": 3922,
      "à¥ªà¥®": 3923,
      "à¤ıà¤¸à¤ª": 3924,
      "à¤ķà¤Łà¤µà¤°": 3925,
      "Ġà¤ªà¤¡à¤Ŀà¤¡": 3926,
      "Ġà¥¨à¥¦à¥¦à¥¨": 3927,
      "Ġà¤ªà¤ķà¤¡à¤¤": 3928,
      "Ġà¤®à¤¶à¤°": 3929,
      "awar": 3930,
      "?,": 3931,
      "Coronavirus": 3932,
      "jay": 3933,
      "à¤¨à¤Ĺà¤¡": 3934,
      "à¤Ĥ'": 3935,
      "Ġà¤ħà¤¥": 3936,
      "à¤§à¤µà¤°": 3937,
      "à¤¬à¤²à¤ļ": 3938,
      "Ġà¤ĺà¤°à¤ª": 3939,
      "Ġà¤ªà¤°à¤µà¤¡à¤¤": 3940,
      "Ġà¤īà¤ªà¤ħà¤§": 3941,
      "Ġà¤Ĩà¤¯à¤ı": 3942,
      "à¤ĩà¤¥": 3943,
      "à¤ľà¤¯à¤¸": 3944,
      "Ġà¤¸à¤¤à¤¤à¤ļ": 3945,
      "à¥¯à¥Ń": 3946,
      "à¥¬à¥«": 3947,
      "Ġà¤ľà¤Ĺà¤ľ": 3948,
      "Ġà¤Ĳà¤¨à¤µ": 3949,
      "Ġà¤ıà¤®à¤¸": 3950,
      "Ġà¥¬à¥¨": 3951,
      "à¤ıà¤®à¤ıà¤ļ": 3952,
      "Ġà¤Īà¤ª": 3953,
      "à¤µà¤Łà¤ªà¤°": 3954,
      "ans": 3955,
      "Ġà¥¨à¥¦à¥¦à¥§": 3956,
      "à¤¯à¤«à¤²": 3957,
      "Ġfor": 3958,
      "Ġà¤¹à¤°à¤Ńà¤ľà¤¨": 3959,
      "90": 3960,
      "__": 3961,
      "ric": 3962,
      "à¤¯à¤°à¤¨": 3963,
      "à¤µà¤¨à¤ļ": 3964,
      "à¤¦à¤µà¤¡": 3965,
      "Ġà¤ħà¤¥à¤ķ": 3966,
      "à¤¡à¤°à¤¸": 3967,
      "Ġà¤¯à¤¹": 3968,
      "à¤³à¤¹": 3969,
      "Ġà¤ľà¤³à¤ľ": 3970,
      "à¥Ģ.....": 3971,
      "à¤µà¤¸à¤ķà¤°": 3972,
      "à¤·à¤£à¤¹": 3973,
      "à¤·à¤£à¤Ńà¤°": 3974,
      "à¥«à¥®": 3975,
      "à¤ĵà¤¹": 3976,
      "Ġà¤ªà¤¸à¤°à¤£": 3977,
      "Ġ94": 3978,
      "Ġà¤§à¤°à¤£à¤Ĺ": 3979,
      "Ġà¤ªà¤Łà¤ķà¤¥": 3980,
      "!!!": 3981,
      "36": 3982,
      "ip": 3983,
      "à¤¨à¤µà¤¡": 3984,
      "à¤¨à¤°à¤¨": 3985,
      "à¤ķà¤Ĺ": 3986,
      "à¤¦à¤ĸ": 3987,
      "à¤Łà¤µà¤¸": 3988,
      "Ġà¤ľà¤Ł": 3989,
      "Ġà¤°à¤¡à¤£": 3990,
      "Ġà¤īà¤°à¤¤": 3991,
      "Ġà¤Ŀà¤Ĺ": 3992,
      "à¤ħà¤¹": 3993,
      "à¤·à¤ķà¤ªà¤¦": 3994,
      "à¤¨à¤¸à¤®": 3995,
      "à¤ķà¤£à¤ļ": 3996,
      "Ġà¤¹à¤²à¤µà¤²": 3997,
      "Ġ86": 3998,
      "ath": 3999,
      "ast": 4000,
      "Ġà¤°à¤®à¤ľ": 4001,
      "Ġà¤ħà¤Łà¤²à¤ľ": 4002,
      "endra": 4003,
      "Ġ@": 4004,
      "à¥į,": 4005,
      "à¤¤à¤¨à¤µ": 4006,
      "à¤ķà¤¸à¤¨": 4007,
      "à¤¸à¤Ńà¤°": 4008,
      "à¤¹à¤ļà¤¤": 4009,
      "Ġà¤ħà¤µà¤°": 4010,
      "à¤Ĺà¤¢": 4011,
      "à¤§à¤¡": 4012,
      "à¤·à¤¯à¤ļ": 4013,
      "Ġà¤¬à¤¸à¤¨": 4014,
      "Ġà¤¬à¤¢à¤¤": 4015,
      "Ġà¤ħà¤¸à¤¦": 4016,
      "à¤ĸà¤¨à¤¨": 4017,
      "à¤¥à¤¹": 4018,
      "Ġà¤ĸà¤Łà¤ķ": 4019,
      "Ġà¤¤à¤¸à¤ļ": 4020,
      "à¤®à¤ļà¤°": 4021,
      "à¤ľà¤ªà¤µ": 4022,
      "à¤ľà¤ķà¤¤": 4023,
      "à¥ªà¥¨": 4024,
      "à¤°à¤¹à¤ľà¤°": 4025,
      "Ġà¥Ńà¥¬": 4026,
      "Ġà¤«à¤²à¤Łà¤£": 4027,
      "Ġà¤īà¤ķà¤³à¤¤": 4028,
      "hats": 4029,
      "/-": 4030,
      "500": 4031,
      "à¤°à¤Ĺà¤²": 4032,
      "à¤¯à¤¡à¤¨": 4033,
      "à¤ļà¤ªà¤£": 4034,
      "à¤¹à¤¢": 4035,
      "Ġà¤Ĩà¤¦à¤²": 4036,
      "à¤ªà¤°à¤®": 4037,
      "à¤Łà¤µà¤£": 4038,
      "Ġà¤¦à¤¡à¤²": 4039,
      "à¤¬à¤¶": 4040,
      "Ġà¤ľà¤²à¤¯": 4041,
      "Ġà¤°à¤«": 4042,
      "à¥Ģ.)": 4043,
      "Ġà¤ĩà¤¯à¤°": 4044,
      "à¤ķà¤°à¤®à¤§": 4045,
      "Ġà¤¸à¤°à¤¬à¤¤": 4046,
      "à¤µà¤¨à¤¸": 4047,
      "à¤¨à¤²à¤ļ": 4048,
      "Ġ--": 4049,
      "Ġ-----------------": 4050,
      "Ġà¤®à¤²à¤Ī": 4051,
      "à¤ŀà¤¤": 4052,
      "à¤ıà¤¸à¤¬": 4053,
      "Ġ89": 4054,
      "Ġ92": 4055,
      "Ġà¥¨à¥¦à¥¦à¥©": 4056,
      "hack": 4057,
      "Ġà¤ľà¤³à¤ľà¤³": 4058,
      "31": 4059,
      "38": 4060,
      "ld": 4061,
      "ress": 4062,
      "Ġà¤±": 4063,
      "à¤ļà¤µà¤Ł": 4064,
      "à¤ĸà¤ªà¤£": 4065,
      "à¤¥à¤ªà¤£": 4066,
      "Ġà¤Ńà¤¦": 4067,
      "à¤µà¤¤à¤ļ": 4068,
      "à¤ıà¤ı": 4069,
      "à¤ħà¤µ": 4070,
      "à¤¯à¤²à¤²": 4071,
      "Ġà¤Ĩà¤¯à¤Łà¤®": 4072,
      "Ġà¤ĺà¤°à¤¬": 4073,
      "à¤®à¤ķà¤¥": 4074,
      "à¥ªà¥¬": 4075,
      "à¥®à¥®": 4076,
      "Ġà¥®à¥¯": 4077,
      "Ġà¤ªà¤¸à¤°à¤µà¤²": 4078,
      "Ġ98": 4079,
      "à¤Ĺà¤¨à¤®à¤¤": 4080,
      "Ġà¤ªà¤²à¤Łà¤µ": 4081,
      "Ġà¤ıà¤²à¤Īà¤¡": 4082,
      "à¥¤à¥¤": 4083,
      "Ġthe": 4084,
      "Ġà¤ķà¤±à¤£": 4085,
      "AA": 4086,
      "PSC": 4087,
      "iz": 4088,
      "Ġa": 4089,
      "à¤¤à¤¬à¤¦": 4090,
      "à¤¨à¤°à¤²": 4091,
      "à¤ķà¤ķà¤³": 4092,
      "à¤µà¤±": 4093,
      "à¤¹à¤Ĺ": 4094,
      "à¤ªà¤ľà¤¨à¤ķ": 4095,
      "Ġà¤¤à¤³à¤£": 4096,
      "à¥Ĥ?": 4097,
      "à¤Łà¤°à¤µ": 4098,
      "Ġà¤¦à¤¸à¤±": 4099,
      "Ġà¤ľà¤ķ": 4100,
      "Ġà¤Ńà¤°à¤®à¤¸": 4101,
      "à¤°à¤¤à¤ļ": 4102,
      "à¤¢à¤³": 4103,
      "Ġà¤łà¤£à¤ķ": 4104,
      "à¥Į-": 4105,
      "à¤¯à¤¤à¤ķ": 4106,
      "à¤µà¤³à¤¤": 4107,
      "Ġà¤ĵà¤¹": 4108,
      "à¥§à¥§à¥": 4109,
      "à¥ªà¥Ń": 4110,
      "Ġà¤Ĺà¤£à¤µ": 4111,
      "à¥Ģ).": 4112,
      "Ġ2010": 4113,
      "Ġ800": 4114,
      "Ġà¤ıà¤²à¤Ĩà¤¯à¤¸": 4115,
      "à¤ĳà¤°": 4116,
      "ust": 4117,
      "Ġst": 4118,
      "ife": 4119,
      "hacker": 4120,
      "200": 4121,
      "76": 4122,
      "MS": 4123,
      "ne": 4124,
      "à¤¨à¤Īà¤¤": 4125,
      "à¤µà¤Ĺà¤¡": 4126,
      "Ġà¤¸à¤ªà¤ķ": 4127,
      "Ġà¤¸à¤¶à¤ķ": 4128,
      "Ġà¤¸à¤¶à¤¸": 4129,
      "à¤¦à¤¯à¤°": 4130,
      "à¤§à¤¹": 4131,
      "à¤§à¤°à¤µà¤¡": 4132,
      "à¤¬à¤®": 4133,
      "à¤ĸà¤µà¤Ł": 4134,
      "Ġà¤ĺà¤¨à¤ķ": 4135,
      "à¤Ńà¤°à¤£": 4136,
      "Ġà¤īà¤ľà¤¨": 4137,
      "Ġà¤Ŀà¤ķ": 4138,
      "à¤Īà¤¸à¤°": 4139,
      "à¤¾.âĢĿ": 4140,
      "à¤¬à¤°à¤ł": 4141,
      "à¤ıà¤¸à¤¨": 4142,
      "à¤°à¤¦à¤¯": 4143,
      "Ġà¤ĵà¤¢à¤µà¤²": 4144,
      "Ġà¤Ľà¤Ł": 4145,
      "Ġà¤®à¤¦à¤¤à¤¨": 4146,
      "à¥©à¥¬": 4147,
      "Ġà¤Ĳà¤°à¤£": 4148,
      "Ġà¥§à¥¦à¥«": 4149,
      "Ġ81": 4150,
      "à¤®à¤¸à¤Ń": 4151,
      "Ġà¤īà¤¤à¤°à¤µà¤£": 4152,
      "Ġà¥§à¥®à¥¦": 4153,
      "Ġ2006": 4154,
      "Ġà¤Ĩà¤ļà¤°à¤£": 4155,
      "ingh": 4156,
      "Ġwww": 4157,
      "oday": 4158,
      "impri": 4159,
      "ST": 4160,
      "pd": 4161,
      "ue": 4162,
      "à¤°à¤°à¤ķ": 4163,
      "à¤ĤâĢ¦": 4164,
      "à¤¹à¥Ł": 4165,
      "à¤£à¤°": 4166,
      "à¤£à¤ľ": 4167,
      "Ġà¤ķà¤µà¤¡": 4168,
      "Ġà¤¸à¤ľà¤Ĺ": 4169,
      "Ġà¤¸à¤«à¤°": 4170,
      "à¤ªà¤ªà¤°": 4171,
      "Ġà¤ħà¤ĺ": 4172,
      "Ġà¤µà¤Łà¤µ": 4173,
      "Ġà¤¨à¤¥": 4174,
      "à¤·à¤°à¤¤": 4175,
      "Ġà¤¬à¤¬à¤¨": 4176,
      "Ġà¤Ĺà¤²à¤µ": 4177,
      "Ġà¤īà¤Ĺà¤®": 4178,
      "à¤Īà¤Łà¤¨": 4179,
      "Ġà¤«à¤¤": 4180,
      "Ġà¤Łà¤ªà¤°": 4181,
      "Ġà¤ķà¤®à¤²à¤¨": 4182,
      "Ġà¤īà¤¦à¤ĺ": 4183,
      "Ġà¤ĵà¤¢à¤¤": 4184,
      "Ġà¤ľà¤®à¤µà¤²": 4185,
      "à¤ķà¤£à¤ķà¤°": 4186,
      "Ġà¤Ĺà¤°à¤¬": 4187,
      "à¤µà¤°à¤£à¤ª": 4188,
      "à¤¤à¤¤à¤§": 4189,
      "ance": 4190,
      "Ġà¤Ĩà¤łà¤µà¤¡à¤¯": 4191,
      "Ġà¥§à¥®à¥®": 4192,
      "ĠCh": 4193,
      "Ġ2004": 4194,
      "Ġà¥§à¥¯à¥®à¥¯": 4195,
      "ĠâĢĭâĢĭ": 4196,
      "der": 4197,
      "gl": 4198,
      "odi": 4199,
      "uk": 4200,
      "Ġà¤Ļ": 4201,
      "à¤¤à¤Ł": 4202,
      "à¤¤à¤Ĳà¤µà¤ľ": 4203,
      "à¤²à¤°à¤¨": 4204,
      "à¤ļà¤°à¤£": 4205,
      "à¤ľà¤ľ": 4206,
      "Ġà¤¨à¤¬": 4207,
      "à¥ĩ.âĢ¦": 4208,
      "à¤łà¤¬à¤³": 4209,
      "Ġà¤īà¤¦à¤°à¤¨": 4210,
      "Ġà¤ĸà¤£": 4211,
      "à¤¤à¤°à¤¨": 4212,
      "à¤ĺà¤¡à¤¤": 4213,
      "à¤¾,âĢĻ": 4214,
      "Ġà¤īà¤ªà¤¹": 4215,
      "Ġà¤Ĩà¤ľà¤¤": 4216,
      "à¤ħà¤°à¤²": 4217,
      "à¤ħà¤°à¤¨": 4218,
      "à¤¨à¤¸à¤¶": 4219,
      "Ġà¤Ĩà¤¦à¤³à¤²": 4220,
      "Ġà¤ľà¤®à¤£": 4221,
      "Ġà¤¸à¤¦à¤°à¤ļ": 4222,
      "Ġà¥®à¥§": 4223,
      "Ġà¥§à¥¨à¥«": 4224,
      "......": 4225,
      "Ġà¤°à¤£à¤¦": 4226,
      "Ġà¤°à¤£à¤§": 4227,
      "Ġà¤ĭà¤£": 4228,
      "Ġà¤¨à¤µà¤°à¤¦": 4229,
      "Ġà¥§à¥¯à¥¯à¥§": 4230,
      "ĠWor": 4231,
      "ack": 4232,
      "Ġà¤Ŀà¤³à¤ķà¤£": 4233,
      "Ġà¤ľà¤¡à¤£à¤ĺà¤¡à¤£": 4234,
      "\".": 4235,
      "'.": 4236,
      "33": 4237,
      "44": 4238,
      "JP": 4239,
      "ies": 4240,
      "ou": 4241,
      "à¤¯à¤¦à¤°": 4242,
      "à¤¯à¤¦à¤²": 4243,
      "à¤¯à¤ĸà¤³": 4244,
      "à¤ķà¤ħ": 4245,
      "Ġà¤ķà¤ªà¤²": 4246,
      "à¤®à¤ªà¤°": 4247,
      "Ġà¤ªà¤Ĺà¤¡": 4248,
      "Ġà¤¤à¤±": 4249,
      "à¤Łà¤°à¤ķà¤¡": 4250,
      "Ġà¤µà¤¨à¤ķ": 4251,
      "à¤¡à¤Ľ": 4252,
      "à¤ľà¤°à¤ļ": 4253,
      "à¤¬à¤ª": 4254,
      "Ġà¤ķà¤°à¤¡": 4255,
      "Ġà¤ķà¤°à¤®à¤£": 4256,
      "à¤ĸà¤ªà¤¤": 4257,
      "Ġà¤®à¤¹à¤®": 4258,
      "Ġà¤¸à¤°à¤²": 4259,
      "à¤ıà¤¤à¤¨": 4260,
      "à¤Īà¤²à¤¨": 4261,
      "à¥«à¥¬": 4262,
      "à¤ħà¤°à¤µà¤°": 4263,
      "à¥¯à¥ª": 4264,
      "à¥¯à¥¬": 4265,
      "à¤¾?âĢĻ": 4266,
      "à¤ıà¤¸à¤Ĩà¤°": 4267,
      "à¤ıà¤¸à¤ıà¤®à¤Ł": 4268,
      "Ġà¤ħà¤«à¤²": 4269,
      "Ġà¤·à¤¡à¤¯": 4270,
      "à¤¯à¤Łà¤¨à¤¸": 4271,
      "Ġà¤ıà¤ļà¤Ĩà¤¯à¤µ": 4272,
      "ĠWHO": 4273,
      "Ġà¤ĵà¤¸à¤°à¤²": 4274,
      "?)": 4275,
      "RC": 4276,
      "à¤²à¤¸à¤°": 4277,
      "à¤¿à¤ĥ": 4278,
      "à¤¨à¤¬à¤¦": 4279,
      "à¤¸à¤ħà¤ª": 4280,
      "Ġà¤¤à¤Łà¤¸": 4281,
      "à¤Ĺà¤ķà¤°": 4282,
      "à¤·à¤¯à¤¨": 4283,
      "Ġà¤ļà¤¡": 4284,
      "à¤¢à¥Ł": 4285,
      "Ġà¤ĩà¤·": 4286,
      "Ġà¤ĩà¤¨à¤ķ": 4287,
      "Ġà¤Ĩà¤¤à¤¡": 4288,
      "à¤ıà¤¨à¤¸": 4289,
      "Ġà¤¸à¤¹à¤ľà¤¤": 4290,
      "à¤¯à¤¨à¤¨": 4291,
      "à¤°à¤¨à¤Ĺà¤°": 4292,
      "à¥Ńà¥Ń": 4293,
      "Ġà¤ıà¤¸à¤Ĩà¤¯à¤Ł": 4294,
      "Ġà¤Īà¤¦": 4295,
      "à¤µà¤Ńà¤ķ": 4296,
      "à¤Ĩà¤°à¤ıà¤«": 4297,
      "à¤°à¤¬à¤¦à¤²": 4298,
      "Ġà¤Ĭà¤¤": 4299,
      "ĠApp": 4300,
      "Ġ2003": 4301,
      "ase": 4302,
      "à¤¯à¤ķà¤²à¤µà¤°": 4303,
      "Ġ>>>": 4304,
      "dian": 4305,
      "rime": 4306,
      "IT": 4307,
      "SS": 4308,
      "Ġà¤Ĩà¤ķà¤¸": 4309,
      "Ġà¤®à¤Łà¤ķ": 4310,
      "à¤¡à¤ªà¤¤": 4311,
      "Ġà¤¬à¤Łà¤¨": 4312,
      "Ġà¤¬à¤¬à¤²": 4313,
      "Ġà¤²à¤ľ": 4314,
      "à¤ĸà¤¬à¤°": 4315,
      "Ġà¤ĺà¤¨à¤¦": 4316,
      "à¤Īà¤ıà¤®": 4317,
      "Ġà¤«à¤£à¤¸": 4318,
      "à¤°à¤®à¤ª": 4319,
      "Ġà¤ħà¤¨à¤°": 4320,
      "Ġà¤īà¤ªà¤¸à¤®": 4321,
      "à¤µà¤¤à¤¯": 4322,
      "à¤¦à¤°à¤ªà¤£": 4323,
      "à¤ľà¤¨à¤¸": 4324,
      "à¤Łà¤²à¤°": 4325,
      "à¤Łà¤°à¤ªà¤°": 4326,
      "Ġà¤¥à¤Ł": 4327,
      "Ġà¤ªà¤¤à¤¸": 4328,
      "Ġà¤ªà¤µà¤Ī": 4329,
      "à¥©à¥ª": 4330,
      "ĠSh": 4331,
      "ĠPawar": 4332,
      "ens": 4333,
      "ure": 4334,
      "Ġà¤īà¤ķà¤³à¤£": 4335,
      "app": 4336,
      "Ġà¤īà¤ķà¤¡à¤²": 4337,
      "ND": 4338,
      "oy": 4339,
      "sp": 4340,
      "Ġe": 4341,
      "à¤¨à¤¬à¤°": 4342,
      "à¤¹à¤®à¤§": 4343,
      "à¤¹à¤ļà¤µ": 4344,
      "Ġà¤ªà¤Łà¤¨": 4345,
      "Ġà¤ªà¤Łà¤£": 4346,
      "Ġà¤¤à¤Ĺà¤¡": 4347,
      "à¤Łà¤µà¤²": 4348,
      "à¤³à¤ĺ": 4349,
      "à¤ĸà¤²à¤¨": 4350,
      "Ġà¤ļà¤Ł": 4351,
      "Ġà¤īà¤«": 4352,
      "Ġà¤īà¤¡à¤£": 4353,
      "Ġà¤ĸà¤Ĺ": 4354,
      "à¤¤à¤°à¤¦": 4355,
      "à¤¤à¤°à¤ľ": 4356,
      "à¥Ī)": 4357,
      "à¤Ĭà¤¦à¤ļ": 4358,
      "à¤°à¤µà¤³": 4359,
      "à¤ªà¤°à¤Ńà¤£": 4360,
      "à¤¯à¤®à¤°": 4361,
      "à¤Ŀà¤ļ": 4362,
      "Ġà¤ªà¤£à¤¨": 4363,
      "à¤ħà¤ķà¤°": 4364,
      "à¤Ĩà¤¦": 4365,
      "à¤Łà¤°à¤¬": 4366,
      "à¤ĩà¤²à¤®à¤§": 4367,
      "Ġà¤®à¤²à¤®": 4368,
      "à¤Ľà¤¡": 4369,
      "Ġ350": 4370,
      "à¤¸à¤¦à¤¸": 4371,
      "Ġ61": 4372,
      "Ġ93": 4373,
      "Ġà¤īà¤¡à¤µà¤¤": 4374,
      "à¤Ĩà¤°à¤ıà¤¸": 4375,
      "Ġà¤¨à¤Ĺà¤°à¤ļ": 4376,
      "ĠPimpri": 4377,
      "Ġà¤¤à¤³à¤®à¤³": 4378,
      "Ġ04": 4379,
      "Ġ07": 4380,
      "Ġà¥§à¥¯à¥¯à¥«": 4381,
      "ung": 4382,
      "à¤¯à¤Ŀà¤°à¤ļ": 4383,
      "Ġà¤ĸà¤¡à¤ķà¤µ": 4384,
      "à¤½à¤½": 4385,
      "hackeray": 4386,
      "05": 4387,
      "Mumbai": 4388,
      "PC": 4389,
      "gov": 4390,
      "Ġy": 4391,
      "à¤°à¤ľà¤¨à¤¨": 4392,
      "à¤¤à¤ľà¤®": 4393,
      "à¤²à¤°à¤®à¤§": 4394,
      "à¤¸à¤ªà¤Ł": 4395,
      "Ġà¤Ĩà¤īà¤Ł": 4396,
      "Ġà¤ªà¤ļ": 4397,
      "à¤¦à¤¡": 4398,
      "Ġà¤ħà¤¡à¤¸": 4399,
      "Ġà¤ļà¤¨": 4400,
      "Ġà¤®à¤¹à¤°": 4401,
      "à¥ĪâĢĻ": 4402,
      "à¥Ģ,\"": 4403,
      "à¥Ģ,'": 4404,
      "Ġà¤¸à¤®à¤ķ": 4405,
      "Ġà¤Ĩà¤®à¤Ł": 4406,
      "Ġà¤ĳà¤ĩà¤²": 4407,
      "à¤Ĺà¤³à¤¸": 4408,
      "Ġà¤ĺà¤°à¤Ł": 4409,
      "à¤°à¤ĸà¤°": 4410,
      "à¤¸à¤®à¤¸": 4411,
      "Ġà¤Ķà¤¤": 4412,
      "à¤°à¤Ńà¤ķ": 4413,
      "Ġà¤ħà¤µà¤Ĺà¤¤": 4414,
      "2020": 4415,
      "ĠSp": 4416,
      "Ġà¤įà¤¨": 4417,
      "Ġà¥²à¤ª": 4418,
      "Ġà¥§à¥¯à¥¯à¥¨": 4419,
      "ovid": 4420,
      "ĠĠĠĠĠĠĠĠĠĠĠĠĠĠĠĠĠĠĠĠĠĠĠĠĠĠĠĠĠĠĠĠ": 4421,
      "AT": 4422,
      "ET": 4423,
      "IV": 4424,
      "ee": 4425,
      "ĠðŁ": 4426,
      "à¤°à¤¹à¤®": 4427,
      "à¤²à¤§": 4428,
      "à¤®à¤ĺ": 4429,
      "à¤®à¤ķà¤¡": 4430,
      "Ġà¤µà¤·": 4431,
      "Ġà¤µà¤°à¤£": 4432,
      "à¤ľà¤²à¤Ĺ": 4433,
      "à¤¶à¤Ŀ": 4434,
      "à¤¬à¤°à¤£": 4435,
      "Ġà¤ľà¤ªà¤¤": 4436,
      "Ġà¤īà¤¸à¤³": 4437,
      "Ġà¤ıà¤ıà¤¨": 4438,
      "à¤°à¤®à¤¦": 4439,
      "à¤Ĭà¤¥": 4440,
      "à¤°à¤¸à¤ª": 4441,
      "à¤Ĺà¤¤à¤ľ": 4442,
      "à¤Ĺà¤°à¤Ĺ": 4443,
      "à¤Łà¤¨à¤¨": 4444,
      "à¤¸à¤²à¤Ĺ": 4445,
      "à¤Łà¤ķà¤ķ": 4446,
      "Ġà¤Ĩà¤¯à¤¬": 4447,
      "Ġà¤ĵà¤¤": 4448,
      "à¥«à¥¦à¥¦": 4449,
      "à¤ĵà¤ķ": 4450,
      "Ġà¥©à¥«à¥¦": 4451,
      "à¤¨à¤µà¤Ł": 4452,
      "à¤īà¤¨à¤®à¤§": 4453,
      "à¤Ĩà¤¯à¤ı": 4454,
      "Ġà¥Ńà¥¯": 4455,
      "à¤¨à¤Ĺà¤°à¤ļ": 4456,
      "Ġ79": 4457,
      "à¤°à¤®à¤§à¤²": 4458,
      "Ġà¥¯à¥§": 4459,
      "à¤¡à¤®à¤§à¤²": 4460,
      "à¤ıà¤¨à¤¬": 4461,
      "Ġ01": 4462,
      "à¤ĳà¤¨": 4463,
      "à¤ĳà¤ªà¤°": 4464,
      "Ġà¤īà¤§à¤³à¤£": 4465,
      "Ġà¤īà¤§à¤³à¤²": 4466,
      "!!!!": 4467,
      "ĠEx": 4468,
      "Ġà¤ıà¤®à¤Ĩà¤¯à¤ıà¤®": 4469,
      "Ġà¥§à¥¯à¥ªà¥Ń": 4470,
      "67": 4471,
      "SE": 4472,
      "à¤µà¤ĸà¤°": 4473,
      "à¤¦à¤µà¤¨": 4474,
      "Ġà¤ľà¤Ĺà¤²": 4475,
      "Ġà¤°à¤¨à¤ļ": 4476,
      "Ġà¤°à¤ļà¤£": 4477,
      "à¤°à¤ķà¤¨": 4478,
      "à¤Īà¤ªà¤²": 4479,
      "à¤¤à¤°à¤ľà¤®": 4480,
      "Ġà¤ĩà¤¡": 4481,
      "à¤Ĩà¤µ": 4482,
      "à¥¬à¥Ń": 4483,
      "Ġà¤¬à¤¸à¤µà¤¤": 4484,
      "Ġà¤ľà¤Ĺà¤ª": 4485,
      "à¤Łà¤®à¤§à¤²": 4486,
      "Ġà¥§à¥«à¥¦à¥¦": 4487,
      "ong": 4488,
      "Ġà¤ıà¤¨à¤Ĩà¤°à¤¸": 4489,
      "Ġà¤µà¤¨à¤ª": 4490,
      "ĠPol": 4491,
      "ĠCO": 4492,
      "Ġ110": 4493,
      "à¤ıà¤¨à¤¯": 4494,
      "à¤ıà¤¨à¤ª": 4495,
      "Ġà¤įà¤ª": 4496,
      "Ġà¤īà¤ľà¤³": 4497,
      "Ġà¥§à¥¯à¥®à¥ª": 4498,
      "Ġà¤¤à¤¡à¤«": 4499,
      "ams": 4500,
      "Ġà¥§à¥¯à¥¬à¥¦": 4501,
      "ĠUpd": 4502,
      "Ġà¤ľà¤²à¤¦à¤Ĺà¤¤": 4503,
      "Ġà¤Ĩà¤¯à¤ıà¤ıà¤¸": 4504,
      "Ġà¤ĺà¤°à¤¬à¤¸à¤²": 4505,
      "42": 4506,
      "95": 4507,
      "AI": 4508,
      "TC": 4509,
      "ff": 4510,
      "had": 4511,
      "Ġj": 4512,
      "Ĥ¹": 4513,
      "à¤¨à¤Ĭ": 4514,
      "à¤ķà¤ķà¤¡": 4515,
      "à¤µà¤¤à¤°": 4516,
      "à¤µà¤§à¤¨": 4517,
      "à¤ļà¤¦à¤°à¤®": 4518,
      "à¤¸à¤Ĺà¤³": 4519,
      "Ġà¤ķà¤¯": 4520,
      "Ġà¤¸à¤ĸà¤²": 4521,
      "Ġà¤ħà¤Ŀà¤°": 4522,
      "à¤Ĺà¤Ĺ": 4523,
      "à¤¡à¤ªà¤²": 4524,
      "à¤³à¥Ł": 4525,
      "Ġà¤²à¤ªà¤µà¤£": 4526,
      "à¤µà¤°à¤®à¤§": 4527,
      "à¤¥à¤°à¤¸": 4528,
      "Ġà¤īà¤¬": 4529,
      "Ġà¤ĸà¤µà¤²": 4530,
      "à¤°à¤£à¤ļ": 4531,
      "à¤¹à¤£à¤µ": 4532,
      "Ġà¤ªà¤°à¤ĸà¤¡": 4533,
      "Ġà¤¡à¤ļ": 4534,
      "Ġà¤§à¤¸": 4535,
      "à¤Ŀà¤¨à¤®à¤§": 4536,
      "à¤Ĥ.\"": 4537,
      "à¤Ĩà¤°à¤ķ": 4538,
      "à¤Ĩà¤ªà¤ļ": 4539,
      "à¤¸à¤¨à¤¹": 4540,
      "Ġà¤ľà¤¨à¤®": 4541,
      "à¤¯à¤¦à¤³": 4542,
      "Ġà¤ıà¤®à¤Ł": 4543,
      "à¤ıà¤¸à¤ı": 4544,
      "Ġà¤ħà¤Łà¤ķà¤ª": 4545,
      "Ġ87": 4546,
      "Ġà¤ıà¤¨à¤ª": 4547,
      "Ġà¤ıà¤¨à¤Ł": 4548,
      "ĠCorona": 4549,
      "ĠRes": 4550,
      "Ġà¤«à¤°à¤«": 4551,
      "Ġà¥§à¥©à¥¦": 4552,
      "Ġ2007": 4553,
      "Ġà¥§à¥¯à¥¯à¥¬": 4554,
      "ill": 4555,
      "ĠWhats": 4556,
      "ult": 4557,
      "ight": 4558,
      "46": 4559,
      "UV": 4560,
      "ect": 4561,
      "hot": 4562,
      "à¤°à¤ĺà¤°": 4563,
      "à¤¸à¤°à¤¸": 4564,
      "Ġà¤Ĩà¤Łà¤ª": 4565,
      "Ġà¤¸à¤ľà¤²": 4566,
      "à¤ªà¤ķà¤¤": 4567,
      "Ġà¤¹à¤°à¤¤": 4568,
      "Ġà¤¹à¤°à¤£": 4569,
      "à¤³à¤ªà¤£": 4570,
      "Ġà¤¬à¤²à¤ķ": 4571,
      "Ġà¤ĺà¤Łà¤¤": 4572,
      "Ġà¤ĺà¤¨à¤¶": 4573,
      "Ġà¤ĸà¤¦": 4574,
      "à¤Ĭà¤³": 4575,
      "Ġà¤µà¤°à¤µà¤°": 4576,
      "à¤¯à¤®à¤²": 4577,
      "..!": 4578,
      "à¤¬à¤Īà¤µà¤°": 4579,
      "à¤Ĩà¤Ĺ": 4580,
      "à¤¯à¤²à¤®à¤§": 4581,
      "à¤°à¤ľà¤µà¤³": 4582,
      "à¤£à¤¤à¤£": 4583,
      "Ġà¤ħà¤ľà¤®": 4584,
      "à¤¡à¤ķà¤ªà¤®à¤§": 4585,
      "à¥©à¥¯": 4586,
      "Ġ71": 4587,
      "ari": 4588,
      "Ġà¤µà¤¨à¤®": 4589,
      "ĠPat": 4590,
      "ena": 4591,
      "lection": 4592,
      "Ġà¤ıà¤ħà¤°à¤µ": 4593,
      "ĠMaharashtra": 4594,
      "Ġ&#": 4595,
      ")-": 4596,
      "02": 4597,
      "58": 4598,
      "Ah": 4599,
      "ile": 4600,
      "ks": 4601,
      "à¤°à¤ł": 4602,
      "à¤ķà¤Ń": 4603,
      "à¤¸à¤°à¤ķà¤°": 4604,
      "à¤¹à¤ļà¤µà¤£": 4605,
      "à¤ľà¤±": 4606,
      "à¤§à¤Ĺ": 4607,
      "Ġà¤¦à¤¬à¤¦": 4608,
      "à¤¶à¤ĸà¤¬à¤°": 4609,
      "à¤¥à¤¸à¤¹": 4610,
      "Ġà¤ļà¤ªà¤²": 4611,
      "à¤¾.)": 4612,
      "Ġà¤ĸà¤ļà¤²": 4613,
      "à¤°à¤¤à¤ľ": 4614,
      "à¤«à¤¸": 4615,
      "Ġà¤¡à¤²": 4616,
      "Ġà¤¸à¤®à¤Ĺ": 4617,
      "à¤¯à¤®à¤¬": 4618,
      "à¤¦à¤°à¤®à¤§": 4619,
      "à¤¬à¤°à¤¡": 4620,
      "Ġà¤ªà¤£à¤¤": 4621,
      "à¤¬à¤²à¤µà¤°": 4622,
      "à¥Ńà¥®": 4623,
      "Ġà¤®à¤Ĺà¤ļ": 4624,
      "Ġà¥§à¥¦à¥®": 4625,
      "ont": 4626,
      "ĠMumbai": 4627,
      "ali": 4628,
      "Ġà¤ķà¤¥à¤¨": 4629,
      "Ġà¤«à¤³à¤¬": 4630,
      "Ġà¤Ĩà¤¢à¤³à¤°": 4631,
      "Ġà¤įà¤¸": 4632,
      "Ġà¤įà¤®": 4633,
      "Ġà¥§à¥¯à¥¯à¥©": 4634,
      "hiv": 4635,
      "Ġà¥§à¥¯à¥Ńà¥§": 4636,
      "à¤¨à¤Ńà¤µà¤¨": 4637,
      "act": 4638,
      "ĠâĤ¹": 4639,
      "Ġà¤ħà¤Łà¤²à¤¬": 4640,
      "Ġà¤ıà¤¨à¤Ĩà¤¯à¤ı": 4641,
      "Ġà¤ĺà¤¨à¤ķà¤ļà¤°": 4642,
      "App": 4643,
      "eb": 4644,
      "wit": 4645,
      "à´": 4646,
      "à¤ķà¤Łà¤ķ": 4647,
      "Ġà¤ķà¤³à¤ķ": 4648,
      "Ġà¤Ĩà¤Ĺà¤°": 4649,
      "Ġà¤Ĩà¤ĸà¤¤": 4650,
      "à¤¦à¤ķà¤°": 4651,
      "Ġà¤¤à¤Łà¤¬": 4652,
      "à¥Ĥ;": 4653,
      "Ġà¤µà¤³à¤µà¤£": 4654,
      "à¤³à¤°": 4655,
      "Ġà¤¦à¤ª": 4656,
      "Ġà¤¦à¤¡à¤ª": 4657,
      "Ġà¤Ĺà¤¬": 4658,
      "Ġà¤Ńà¤°à¤µà¤²": 4659,
      "Ġà¤«à¤°à¤¹": 4660,
      "à¤µà¤¸à¤°": 4661,
      "à¤°à¤®à¤¹": 4662,
      "à¥¦à¥¯": 4663,
      "Ġà¤īà¤ªà¤ķà¤°": 4664,
      "à¤ıà¤Īà¤®à¤§": 4665,
      "à¤Ĺà¤¤à¤ª": 4666,
      "à¤¯à¤¤à¤ļ": 4667,
      "Ġà¤¸à¤¹à¤ª": 4668,
      "à¤¨à¤²à¤µà¤°": 4669,
      "à¥«à¥©": 4670,
      "à¤īà¤ļ": 4671,
      "à¤¯à¤¸à¤ªà¤°": 4672,
      "Ġà¤ıà¤®à¤¡": 4673,
      "à¤ıà¤¸à¤ıà¤¨": 4674,
      "Ġà¤Ĺà¤£à¤²": 4675,
      "à¤²à¤°à¤µà¤°": 4676,
      "anc": 4677,
      "Ġà¤ļà¤µà¤¦": 4678,
      "Ġà¤Ĺà¤Łà¤¬": 4679,
      "ĠRBI": 4680,
      "à¤ļà¤µà¤¡à¤ļ": 4681,
      "Ġà¥²à¤¨": 4682,
      "Ġà¤īà¤Ĺà¤µà¤£": 4683,
      "ĠKhan": 4684,
      "ell": 4685,
      "Ġà¤¦à¤¬à¤¦à¤¬": 4686,
      "!\"": 4687,
      "68": 4688,
      "BC": 4689,
      "]]": 4690,
      "ear": 4691,
      "qu": 4692,
      "à¤ķà¤µà¤¸": 4693,
      "à¤¹à¤µà¤°": 4694,
      "à¤¹à¤ļà¤£": 4695,
      "à¤£à¤¬à¤¤": 4696,
      "à¤®à¤¸à¤¨": 4697,
      "à¤¾à¤ĤâĢĻ": 4698,
      "à¤ªà¤µà¤¤": 4699,
      "Ġà¤ħà¤ķà¤²": 4700,
      "à¤Ĺà¤¸à¤¹": 4701,
      "à¤¡à¤¸à¤¹": 4702,
      "à¤ľà¤ĺà¤°": 4703,
      "Ġà¤ľà¤¯à¤µ": 4704,
      "Ġà¤°à¤¹à¤®": 4705,
      "Ġà¤¬à¤¹à¤°": 4706,
      "à¤łà¤Ńà¤°": 4707,
      "Ġà¤Ĺà¤¡à¤ķ": 4708,
      "Ġà¤ĺà¤°à¤®": 4709,
      "Ġà¤ıà¤Ĩà¤¯": 4710,
      "Ġà¤Ŀà¤¡à¤¤": 4711,
      "à¤Īà¤¦": 4712,
      "à¤°à¤¤à¤®": 4713,
      "à¤Ĭà¤¬": 4714,
      "Ġà¤Ĩà¤ªà¤ļ": 4715,
      "à¤µà¤²à¤¨": 4716,
      "à¥ĭ.\"": 4717,
      "à¤°à¤ªà¤³": 4718,
      "à¤ħà¤¹à¤®": 4719,
      "Ġà¤ĵà¤¶": 4720,
      "Ġà¤ľà¤¨à¤®à¤¤": 4721,
      "à¤ĵà¤Ĺ": 4722,
      "à¤ħà¤°à¤¬": 4723,
      "à¥¬à¥®": 4724,
      "à¤īà¤¨à¤®": 4725,
      "Ġà¤Ĳà¤°": 4726,
      "à¤¤à¤¨à¤ª": 4727,
      "Ġà¤ıà¤¸à¤¸": 4728,
      "à¤¸à¤®à¤§à¤²": 4729,
      "à¤Īà¤ķà¤µà¤°": 4730,
      "Ġà¤ħà¤¡à¤ķà¤¤": 4731,
      "à¤Ĩà¤°à¤ı": 4732,
      "ates": 4733,
      "ĠPM": 4734,
      "ass": 4735,
      "Ġà¤®à¤¦à¤¤à¤ķ": 4736,
      "Ġà¤ıà¤®à¤Ĩà¤¯à¤ıà¤®à¤ļ": 4737,
      "Ġà¥§à¥¯à¥ªà¥¨": 4738,
      "own": 4739,
      "100": 4740,
      "41": 4741,
      "43": 4742,
      "65": 4743,
      "DA": 4744,
      "gle": 4745,
      "à¤°à¤Ĺà¤£": 4746,
      "à¤°à¤¬à¤¦": 4747,
      "à¥Ģà¤¼": 4748,
      "à¥ĢâĢĿ,": 4749,
      "à¤¤à¤¨à¤ķ": 4750,
      "à¤²à¤¸à¤¹": 4751,
      "à¤²à¤¸à¤ļ": 4752,
      "à¤¨à¤¸à¤¨": 4753,
      "à¤¨à¤µà¤¨": 4754,
      "à¤µà¤Ľà¤¤": 4755,
      "Ġà¤Ĩà¤Ĭ": 4756,
      "à¤®à¤ľà¤²": 4757,
      "à¤Łà¤ķà¤²": 4758,
      "Ġà¤µà¤¶": 4759,
      "Ġà¤¹à¤¸à¤£": 4760,
      "Ġà¤ľà¤¯à¤ķ": 4761,
      "à¤µà¤°à¤¦": 4762,
      "Ġà¤Ŀà¤¹": 4763,
      "Ġà¤Ŀà¤Ĺà¤¡": 4764,
      "Ġà¤ĸà¤¤à¤ª": 4765,
      "à¤¢à¤µà¤³": 4766,
      "à¥Ī'": 4767,
      "à¤°à¤®à¤²": 4768,
      "Ġà¤¡à¤®": 4769,
      "à¤ıà¤²à¤¸": 4770,
      "à¤¶à¤¨à¤®": 4771,
      "Ġà¤®à¤¤à¤ª": 4772,
      "à¥«à¥§": 4773,
      "à¥§à¥¦à¥¦": 4774,
      "Ġà¤Ķà¤·": 4775,
      "à¤¯à¤°à¤®à¤§": 4776,
      "Ġà¥¯à¥¦à¥¦": 4777,
      "à¤Ĩà¤°à¤ıà¤«à¤ļ": 4778,
      "Ġà¤¹à¤°à¤Ńà¤°": 4779,
      "Ġ180": 4780,
      "ĠToday": 4781,
      "rain": 4782,
      "iss": 4783,
      "à¤¦à¤¶à¤¹": 4784,
      "Ġpr": 4785,
      "ational": 4786,
      "à¤ķà¤¸à¤¨à¤¶": 4787,
      "ĠWorld": 4788,
      "witter": 4789,
      "77": 4790,
      "Corona": 4791,
      "MI": 4792,
      "PO": 4793,
      "VID": 4794,
      "co": 4795,
      "mp": 4796,
      "mit": 4797,
      "uc": 4798,
      "à¥įâĢĻ": 4799,
      "à¤°à¤¬à¤°": 4800,
      "à¤¨à¤Īà¤¨": 4801,
      "à¤¸à¤¯": 4802,
      "Ġà¤ªà¤łà¤£": 4803,
      "à¥Ĥ:": 4804,
      "Ġà¤ħà¤ľà¤°": 4805,
      "à¤¡à¤Ī": 4806,
      "Ġà¤¹à¤°à¤µà¤£": 4807,
      "à¤§à¤°à¤£": 4808,
      "à¤§à¤µà¤¨": 4809,
      "à¤¶à¤°à¤¦": 4810,
      "à¤°à¤ķà¤£": 4811,
      "à¤Īà¤Ī": 4812,
      "à¤Īà¤¡à¤ļ": 4813,
      "Ġà¤ĸà¤®": 4814,
      "Ġà¤ıà¤ķà¤²": 4815,
      "Ġà¤ĩà¤Ĺà¤¤à¤ª": 4816,
      "à¤µà¤¸à¤¹": 4817,
      "à¤°à¤µà¤ļà¤¨": 4818,
      "à¤ªà¤°à¤®à¤§": 4819,
      "Ġà¤ħà¤¨à¤®": 4820,
      "à¤µà¤²à¤²": 4821,
      "à¤ħà¤®à¤°": 4822,
      "à¤Ĩà¤ľà¤ļ": 4823,
      "à¤Łà¤°à¤¦": 4824,
      "à¤ľà¤¯à¤¨": 4825,
      "à¥«à¥¨": 4826,
      "Ġà¤Ĩà¤Ĺà¤°à¤ķà¤°": 4827,
      "anjay": 4828,
      "Ġà¤°à¤¹à¤¦": 4829,
      "ond": 4830,
      "Ġà¤¶à¤¹à¤°à¤µ": 4831,
      "ĠSingh": 4832,
      "ĠAl": 4833,
      "Ġà¤ħà¤¹à¤®à¤¦à¤¨": 4834,
      "ashi": 4835,
      "Ġà¤ıà¤«à¤Ĩà¤°à¤ª": 4836,
      "Ġà¤īà¤Ĺà¤µà¤¤": 4837,
      "Ġà¤Ŀà¤³à¤ķà¤¤": 4838,
      "à¤ıà¤¶à¤¨à¤¨": 4839,
      "oogle": 4840,
      "age": 4841,
      "********": 4842,
      "Ġà¤¹à¤°à¤ªà¤²": 4843,
      "OS": 4844,
      "dd": 4845,
      "ga": 4846,
      "oh": 4847,
      "out": 4848,
      "à¦": 4849,
      "à¤¾à¥Ī": 4850,
      "à¤¾à¥¤": 4851,
      "à¤°à¤ľà¤¨": 4852,
      "à¤ļà¤Ń": 4853,
      "Ġà¤Ĩà¤¯à¤²": 4854,
      "Ġà¤ªà¤Łà¤µà¤°": 4855,
      "à¤ªà¤¤à¤°": 4856,
      "Ġà¤ħà¤²à¤Ĺ": 4857,
      "à¤ľà¤Ĺà¤¡": 4858,
      "Ġà¤¦à¤¯à¤¨": 4859,
      "à¤¶à¤µà¤°": 4860,
      "à¥ĩ.âĢĻâĢĻ": 4861,
      "Ġà¤¬à¤§": 4862,
      "Ġà¤Ĺà¤¤à¤µ": 4863,
      "à¤ĸà¤ł": 4864,
      "Ġà¤Ńà¤°à¤µà¤£": 4865,
      "Ġà¤ļà¤Łà¤ķà¤¨": 4866,
      "à¤Ńà¤ļ": 4867,
      "âĢľ": 4868,
      "à¤°à¤ķà¤Łà¤²": 4869,
      "à¤Īà¤ĺ": 4870,
      "Ġà¤ĸà¤ª": 4871,
      "Ġà¤ıà¤ķà¤ľà¤£": 4872,
      "Ġà¤łà¤£": 4873,
      "Ġà¤¨à¤µà¤ĸ": 4874,
      "à¤ıà¤µ": 4875,
      "à¤ıà¤¶": 4876,
      "à¤¹à¤¤à¤Ĺ": 4877,
      "à¤ĩà¤¶": 4878,
      "à¤µà¤¨à¤¦": 4879,
      "à¤ĵà¤¬": 4880,
      "à¥ªà¥§": 4881,
      "à¤ļà¤¨à¤®à¤§": 4882,
      "à¥¬à¥¯": 4883,
      "à¤īà¤®": 4884,
      "Ġà¤ħà¤µà¤¤à¤°à¤²": 4885,
      "à¤¯à¤¸à¤°à¤ķ": 4886,
      "à¤Łà¤£à¤ķà¤°": 4887,
      "Ġà¤ĺà¤¡à¤µà¤¤": 4888,
      "Ġà¥§à¥¬à¥¦": 4889,
      "Ġ188": 4890,
      "à¤²à¤®à¤¡à¤²": 4891,
      "à¤¤à¤°à¤£à¤¨": 4892,
      "ĠIC": 4893,
      "Ġ2001": 4894,
      "ĠThe": 4895,
      "ĠThackeray": 4896,
      "Ġ05": 4897,
      "à¤°à¤®à¤ķà¤ªà¤£": 4898,
      "Ġà¤īà¤łà¤µà¤¤": 4899,
      "Ġà¤Ĩà¤µà¤°à¤¤": 4900,
      "Ġà¤¦à¤¶à¤°à¤¥": 4901,
      "Ġà¤ħà¤¡à¤ķà¤£": 4902,
      "Ġà¤Ĩà¤µà¤³à¤²": 4903,
      "India": 4904,
      "à¤Ķà¤°": 4905,
      "Ġà¤ķà¤³à¤ķà¤³": 4906,
      "PS": 4907,
      "la": 4908,
      "à¥ĩà¥¤": 4909,
      "à¤¯à¤īà¤¤": 4910,
      "à¤Ĥ....": 4911,
      "à¤ļà¤ĸ": 4912,
      "à¤¹à¤µà¤¤": 4913,
      "à¤£à¤Ń": 4914,
      "Ġà¤Ĩà¤¸à¤°": 4915,
      "Ġà¤Ĩà¤ļà¤°": 4916,
      "à¤®à¤¸à¤®": 4917,
      "Ġà¤®à¤¥": 4918,
      "à¤ªà¤°à¤ķ": 4919,
      "à¤ªà¤ķà¤²": 4920,
      "à¤ªà¤²à¤ļ": 4921,
      "à¤¦à¤Ĺà¤¡": 4922,
      "Ġà¤ħà¤µà¤¨": 4923,
      "Ġà¤ħà¤ķà¤¸": 4924,
      "Ġà¤¨à¤Łà¤²": 4925,
      "à¥ĩ.[": 4926,
      "à¤·à¤µà¤²": 4927,
      "à¤·à¤¦à¤°": 4928,
      "Ġà¤ľà¤¯à¤°": 4929,
      "Ġà¤¬à¤Ľà¤¡": 4930,
      "à¤µà¤°à¤¨": 4931,
      "à¤Ńà¤®à¤¨": 4932,
      "à¤Īà¤¶": 4933,
      "à¤Īà¤Ŀ": 4934,
      "à¤¾.'": 4935,
      "à¤ĺà¤³": 4936,
      "à¤Ĭà¤¸à¤®à¤§": 4937,
      "Ġà¤¡à¤Ŀà¤¨": 4938,
      "à¤°à¤¸à¤¦": 4939,
      "à¤Ŀà¤µà¤°": 4940,
      "Ġà¤Ĩà¤¤à¤ļ": 4941,
      "à¤ľà¤¨à¤²": 4942,
      "à¤Ĩà¤°à¤¨": 4943,
      "Ġà¤Ĩà¤¯à¤ıà¤®": 4944,
      "Ġà¤ĵà¤¨": 4945,
      "à¤ĩà¤¨à¤°": 4946,
      "à¤¹à¤¨à¤®à¤§": 4947,
      "à¤¹à¤¨à¤¤à¤³": 4948,
      "à¤īà¤¡": 4949,
      "Ġà¤īà¤Ńà¤¯": 4950,
      "Ġà¤Ĳà¤¸": 4951,
      "à¤Ĩà¤¯à¤ıà¤¸": 4952,
      "âĢĿ.": 4953,
      "Ġ82": 4954,
      "ary": 4955,
      "2021": 4956,
      "Ġà¤ıà¤¨à¤ıà¤¸": 4957,
      "Ġà¤§à¤¨à¤¤": 4958,
      "ĠSc": 4959,
      "à¤ıà¤¨à¤ıà¤¸": 4960,
      "à¤²à¤ķà¤°à¤ļ": 4961,
      "Ġà¤ĸà¤¡à¤¬à¤¡": 4962,
      "Ġ09": 4963,
      "à¤ĳà¤¨à¤²": 4964,
      "Ġà¥§à¥¯à¥¯à¥®": 4965,
      "Ġà¤īà¤ķà¤³à¤²": 4966,
      "Ġà¤ķà¤£à¤ĸà¤°": 4967,
      "ook": 4968,
      "ocial": 4969,
      "Ch": 4970,
      "eal": 4971,
      "eet": 4972,
      "ug": 4973,
      "à¤¸à¤µà¤¡": 4974,
      "à¥ĭ....": 4975,
      "Ġà¤Ĩà¤¯à¤ķ": 4976,
      "à¤¦à¤ľ": 4977,
      "à¤Łà¤ľ": 4978,
      "Ġà¤µà¤¯à¤¸": 4979,
      "Ġà¤µà¤£à¤µ": 4980,
      "à¤¡à¤¸à¤°": 4981,
      "à¤ľà¤°à¤²": 4982,
      "à¤§à¤¨à¤¸": 4983,
      "à¤¶à¤µà¤£": 4984,
      "à¤¬à¤ľ": 4985,
      "Ġà¤ľà¤²à¤ķ": 4986,
      "Ġà¤ľà¤²à¤ª": 4987,
      "Ġà¤¬à¤¢": 4988,
      "Ġà¤Ńà¤°à¤¦": 4989,
      "Ġà¤īà¤ķà¤²": 4990,
      "à¤°à¤¤à¤µ": 4991,
      "à¤Ĭà¤£": 4992,
      "..âĢĻ": 4993,
      "à¤¦à¤°à¤ª": 4994,
      "à¤ħà¤³": 4995,
      "à¤¤à¤ķà¤£": 4996,
      "Ġà¤Ĩà¤¯à¤Ĩà¤°à¤¸": 4997,
      "à¤ľà¤ªà¤¤à¤°": 4998,
      "Ġà¤ĵà¤¤à¤²": 4999,
      "à¤®à¤¨à¤°": 5000,
      "à¤ĩà¤Ŀ": 5001,
      "à¤ĩà¤¨à¤®à¤§": 5002,
      "à¤¡à¤ķà¤ªà¤ļ": 5003,
      "à¥ªà¥©": 5004,
      "à¥ªà¥¯": 5005,
      "à¤¬à¤²à¤ª": 5006,
      "à¥¯à¥¨": 5007,
      "Ġ5000": 5008,
      "Ġà¤īà¤²à¤¥": 5009,
      "Ġà¤Īà¤ıà¤®à¤Ĩà¤¯": 5010,
      "Ġà¤ªà¤¸à¤°à¤µà¤¤": 5011,
      "Ġà¤¸à¤ªà¤¶": 5012,
      "ind": 5013,
      "arm": 5014,
      "Ġà¤ıà¤¨à¤ľ": 5015,
      "ĠCom": 5016,
      "ĠCoronavirus": 5017,
      "à¤²à¤®à¤¡": 5018,
      "ital": 5019,
      "ĠNCB": 5020,
      "icle": 5021,
      "Ġà¥§à¥¯à¥®à¥®": 5022,
      "Ġà¤Ĩà¤³à¤¶": 5023,
      "Ġà¥§à¥¯à¥Ńà¥Ń": 5024,
      "Ġà¤ĩà¤¨à¤ķà¤®": 5025,
      "59": 5026,
      "AR": 5027,
      "PI": 5028,
      "ral": 5029,
      "Ġ<<": 5030,
      "à¤µà¤·": 5031,
      "à¤¹à¤ĸ": 5032,
      "Ġà¤ĨÃŃ": 5033,
      "Ġà¤¸à¤³": 5034,
      "Ġà¤¤à¤¦": 5035,
      "à¤Łà¤¬à¤¦": 5036,
      "à¤ľà¤Ń": 5037,
      "Ġà¤¹à¤²à¤¤": 5038,
      "Ġà¤¹à¤³à¤µ": 5039,
      "à¤§à¤³à¤²": 5040,
      "à¤³à¤¬": 5041,
      "Ġà¤²à¤¬": 5042,
      "à¤Īà¤¡à¤²": 5043,
      "à¤¤à¤°à¤®": 5044,
      "à¤¤à¤°à¤ªà¤¤": 5045,
      "à¥īà¤ģ": 5046,
      "à¥ħ.": 5047,
      "à¤«à¤£": 5048,
      "à¤Ŀà¤¨à¤ļ": 5049,
      "à¤ıà¤®à¤§": 5050,
      "Ġà¥¨à¥¨à¥¦": 5051,
      "à¤Ĺà¤°à¤®à¤§": 5052,
      "à¤Łà¤²à¤²": 5053,
      "à¤ħà¤°à¤µ": 5054,
      "à¤ħà¤¸à¤¤": 5055,
      "à¤¯à¤²à¤¨": 5056,
      "Ġà¤®à¤§à¤®": 5057,
      "à¤ľà¤ªà¤ª": 5058,
      "à¤²à¤ķà¤Ł": 5059,
      "Ġà¤īà¤¦à¤Ĺ": 5060,
      "à¤®à¤¨à¤¦": 5061,
      "Ġà¤ªà¤¦à¤ªà¤¥": 5062,
      "à¤¯à¤¨à¤®à¤§": 5063,
      "Ġà¤Ĩà¤¦à¤°à¤£": 5064,
      "à¤īà¤¥": 5065,
      "à¤¾?'": 5066,
      "à¤Ńà¤µà¤µ": 5067,
      "Ġà¤ĩà¤¤à¤ķà¤ļ": 5068,
      "Ġ125": 5069,
      "Ġà¤ķà¤µà¤ł": 5070,
      "ĠSBI": 5071,
      "ĠPre": 5072,
      "ĠRaj": 5073,
      "Ġà¤ħà¤Łà¤³": 5074,
      "à¤ħà¤¸à¤ªà¤°": 5075,
      "Ġà¥§à¥¯à¥®à¥¨": 5076,
      "Ġ[[": 5077,
      "harad": 5078,
      "Ġà¥§à¥¯à¥¬à¥¨": 5079,
      "maz": 5080,
      "ĠPrice": 5081,
      ",,": 5082,
      "66": 5083,
      "97": 5084,
      "AN": 5085,
      "à¤¯à¤ľà¤¨": 5086,
      "à¤²à¤¨à¤ļ": 5087,
      "à¤¸à¤¬à¤¦": 5088,
      "Ġà¤®à¤¡": 5089,
      "à¤¦à¤µà¤¤": 5090,
      "Ġà¤¤à¤¡à¤µ": 5091,
      "à¤¡à¤ªà¤Ł": 5092,
      "Ġà¤¯à¤²": 5093,
      "à¤³à¤¦": 5094,
      "Ġà¤ľà¤¡à¤²": 5095,
      "Ġà¤ľà¤³à¤¤": 5096,
      "Ġà¤°à¤®à¤²": 5097,
      "Ġà¤¬à¤³à¤ľ": 5098,
      "à¤°à¤ķà¤®": 5099,
      "Ġà¤«à¤²à¤¦": 5100,
      "Ġà¤Łà¤ļ": 5101,
      "Ġà¤Ĩà¤ªà¤Łà¤²": 5102,
      "à¤°à¤µà¤¨": 5103,
      "à¤°à¤µà¤¶": 5104,
      "à¤·à¤£à¤ļ": 5105,
      "à¤¸à¤°à¤¶": 5106,
      "à¤¯à¤¤à¤¦": 5107,
      "à¤Ĺà¤°à¤ª": 5108,
      "à¥ĭ.âĢĻ": 5109,
      "à¤ħà¤ļ": 5110,
      "à¤Ĩà¤°à¤®à¤§": 5111,
      "à¤Ĺà¤³à¤¯": 5112,
      "Ġà¤ĵà¤¢à¤µ": 5113,
      "Ġà¤ķà¤²à¤¶": 5114,
      "à¥¯à¥§": 5115,
      "à¥Ńà¥©": 5116,
      "à¥Ńà¥¬": 5117,
      "à¤īà¤ľ": 5118,
      "Ġà¤¬à¤¸à¤µà¤°": 5119,
      "à¤ķà¤£à¤µ": 5120,
      "Ġà¤ħà¤²à¤Ĺà¤¦": 5121,
      "Ġà¤²à¤¸à¤£": 5122,
      "ane": 5123,
      "à¤ıà¤«à¤ĵ": 5124,
      "Ġ06": 5125,
      "à¤ĳà¤²": 5126,
      "Ġà¤ıà¤«à¤¸": 5127,
      "iral": 5128,
      "Ġà¤¬à¤¡à¤¬à¤¡": 5129,
      "ĠLife": 5130,
      "Ġà¤ħà¤¡à¤ķà¤µ": 5131,
      "Ġà¤¸à¤Īà¤¦": 5132,
      "Ġà¤īà¤®à¤Łà¤µà¤²": 5133,
      "Ġà¤¬à¤¬à¤¨à¤°": 5134,
      ".,": 5135,
      "32": 5136,
      "34": 5137,
      "52": 5138,
      "?'": 5139,
      "ef": 5140,
      "hy": 5141,
      "na": 5142,
      "ĠQ": 5143,
      "à¥Ľ": 5144,
      "à¤¾à¤¼": 5145,
      "à¥įà¤Ĥ": 5146,
      "à¤¿...": 5147,
      "à¤Ĥ)": 5148,
      "à¤¹à¤°à¤®": 5149,
      "à¤¹à¤²à¤ļ": 5150,
      "à¥ĭâĢ¦": 5151,
      "Ġà¤ķà¤µà¤Ł": 5152,
      "Ġà¤ªà¤³à¤µà¤²": 5153,
      "Ġà¤®à¤µ": 5154,
      "Ġà¤®à¤²à¤ķ": 5155,
      "à¤¦à¤°à¤µ": 5156,
      "à¤Łà¤¸à¤¨": 5157,
      "Ġà¤µà¤£": 5158,
      "Ġà¤¹à¤¶": 5159,
      "Ġà¤¹à¤«": 5160,
      "Ġà¤ľà¤ľ": 5161,
      "Ġà¤°à¤¡à¤²": 5162,
      "Ġà¤¬à¤³à¤ķ": 5163,
      "à¤ĸà¤ķà¤°": 5164,
      "à¤µà¤°à¤ª": 5165,
      "à¤°à¤ķà¤®à¤§": 5166,
      "à¤«à¤¡à¤ķ": 5167,
      "à¤°à¤µà¤¯": 5168,
      "à¤ªà¤°à¤«": 5169,
      "à¤¾,\"": 5170,
      "Ġà¤¨à¤µà¤µà¤§": 5171,
      "à¤ıà¤ĸ": 5172,
      "à¤ħà¤Ĺà¤¦": 5173,
      "à¤¸à¤²à¤¤": 5174,
      "à¤¸à¤¹à¤ľ": 5175,
      "à¤°à¤ľà¤£": 5176,
      "à¤ĵà¤ıà¤¸": 5177,
      "Ġà¥©à¥¦à¥¦à¥¦": 5178,
      "Ġà¤µà¤¸à¤Īà¤¤": 5179,
      "à¤µà¤¶à¤ķ": 5180,
      "à¤¨à¤ķà¤ªà¤£": 5181,
      "Ġà¤ıà¤®à¤ľ": 5182,
      "à¤ıà¤®à¤Ĩà¤°à¤¡": 5183,
      "Ġà¤Īà¤¦à¤ļ": 5184,
      "Ġà¥§à¥¦à¥¬": 5185,
      "Ġà¤Ĩà¤Īà¤ķà¤¡": 5186,
      "Ġ105": 5187,
      "Ġ108": 5188,
      "à¤Ĩà¤°à¤¬": 5189,
      "à¤ıà¤²à¤¡": 5190,
      "ale": 5191,
      "ĠCrime": 5192,
      "ĠRT": 5193,
      "Ġ144": 5194,
      "ĠAir": 5195,
      "Ġà¥§à¥©à¥«": 5196,
      "Ġà¤ķà¤³à¤ª": 5197,
      "Ġà¤ľà¤¸à¤ľà¤¸": 5198,
      "ical": 5199,
      "à¤Łà¥Łà¤µà¤§": 5200,
      "Ġ08": 5201,
      "Ġà¤¬à¤¡à¤¤à¤°": 5202,
      "Ġ.....": 5203,
      "Ġà¥§à¥¯à¥®à¥¬": 5204,
      "Ġà¤ĵà¤¸à¤°à¤¤": 5205,
      "Ġà¤ĵà¤°à¤¡à¤²": 5206,
      "Ġà¤ħà¤µà¤¯à¤µà¤¦": 5207,
      "Ġà¤¦à¤®à¤Ľ": 5208,
      "999": 5209,
      "overn": 5210,
      "Ġà¤łà¤£à¤łà¤£": 5211,
      "Ġà¤ĨÃŃà¤¥à¤ķ": 5212,
      "!)": 5213,
      "'s": 5214,
      "37": 5215,
      "An": 5216,
      "BJP": 5217,
      "ED": 5218,
      "IPL": 5219,
      "MP": 5220,
      "down": 5221,
      "Ġx": 5222,
      "à¤¤à¤¤à¤³": 5223,
      "à¤²à¤ªà¤¤": 5224,
      "à¤ļà¤ľà¤£": 5225,
      "à¤¹à¤Ł": 5226,
      "Ġà¤Ĩà¤°à¤®": 5227,
      "à¤®à¤Ŀ": 5228,
      "à¤®à¤ľà¤¨": 5229,
      "Ġà¤¸à¤¬à¤¨": 5230,
      "à¤Ĺà¤°à¤ķ": 5231,
      "à¤¡à¤°à¤®à¤§": 5232,
      "à¤§à¤¸": 5233,
      "Ġà¤¨à¤Łà¤°": 5234,
      "Ġà¤¨à¤ķà¤²": 5235,
      "à¥ĩ.''": 5236,
      "à¤µà¤°à¤ķ": 5237,
      "Ġà¤ļà¤²à¤¤": 5238,
      "à¤Ńà¤¸": 5239,
      "à¤Ńà¤Ĺ": 5240,
      "à¤Īà¤Łà¤²": 5241,
      "à¤¯à¤ķà¤²à¤ļ": 5242,
      "à¥ĩà¤Ĥ,": 5243,
      "à¤«à¤µ": 5244,
      "Ġà¤¡à¤°": 5245,
      "à¤ıà¤ıà¤ļ": 5246,
      "à¥ĭ.âĢĿ": 5247,
      "à¤¶à¤¨à¤ķ": 5248,
      "à¤¶à¤¨à¤ª": 5249,
      "Ġà¤ªà¤¦à¤¯": 5250,
      "à¤ĩà¤¤": 5251,
      "à¤ĩà¤Łà¤ļ": 5252,
      "à¤µà¤¨à¤®": 5253,
      "Ġà¤ªà¤¤à¤§": 5254,
      "Ġà¤ħà¤ªà¤ª": 5255,
      "Ġà¤Ľà¤¡": 5256,
      "à¤Ńà¤°à¤¹": 5257,
      "Ġà¤ħà¤ľà¤Ĺà¤°": 5258,
      "à¤¤à¤®à¤°": 5259,
      "à¥¯à¥©": 5260,
      "Ġ900": 5261,
      "Ġà¤ħà¤Ĺà¤°à¤µ": 5262,
      "Ġ1500": 5263,
      "ati": 5264,
      "atest": 5265,
      "à¤¨à¤¦à¤¯": 5266,
      "ĠMot": 5267,
      "Ġà¥§à¥ªà¥ª": 5268,
      "Ġ140": 5269,
      "ĠAT": 5270,
      "ĠIND": 5271,
      ">>>": 5272,
      "Ġà¤ĸà¤³à¤ĸà¤³": 5273,
      "rav": 5274,
      "ister": 5275,
      "Ġà¤ľà¤²à¤¤à¤°à¤£": 5276,
      "Ġà¤īà¤Ĺà¤µà¤²": 5277,
      "Ġà¥§à¥¯à¥®à¥Ń": 5278,
      "Ġà¥§à¥¯à¥Ńà¥«": 5279,
      "Ġà¥§à¥§à¥«": 5280,
      "ost": 5281,
      "Ġ1999": 5282,
      "Ġà¤§à¤µà¤¨à¤¨": 5283,
      "Ġnews": 5284,
      "Ġà¤Ĺà¤µà¤¸à¤£": 5285,
      "Ġà¤ķà¤Łà¤ķà¤Ł": 5286,
      "Ġà¤Ĺà¤ľà¤¬à¤ľà¤²": 5287,
      "Ġà¤¬à¤³à¤ľà¤¬à¤°": 5288,
      "%)": 5289,
      "54": 5290,
      "56": 5291,
      "DR": 5292,
      "MR": 5293,
      "OC": 5294,
      "Raj": 5295,
      "TV": 5296,
      "ead": 5297,
      "ho": 5298,
      "hone": 5299,
      "ket": 5300,
      "Ġart": 5301,
      "à¤¯à¤µà¤¤": 5302,
      "à¤²à¤Ŀ": 5303,
      "à¤²à¤°à¤²": 5304,
      "à¤µà¤ªà¤°": 5305,
      "à¤µà¤¦à¤¤": 5306,
      "à¤£à¤¶": 5307,
      "à¤£à¤ĸà¤¤": 5308,
      "Ġà¤Ĩà¤ĩ": 5309,
      "à¤®à¤¥": 5310,
      "Ġà¤®à¤£à¤ķ": 5311,
      "à¤ªà¤Ĺà¤¡": 5312,
      "Ġà¤ħà¤¥à¤°": 5313,
      "à¤Ĺà¤¨à¤ļ": 5314,
      "Ġà¤µà¤±": 5315,
      "Ġà¤¨à¤¨": 5316,
      "Ġà¤¨à¤Ĺà¤£": 5317,
      "à¤³à¤§": 5318,
      "Ġà¤ľà¤²à¤®": 5319,
      "à¤Ĭà¤¡": 5320,
      "à¤ªà¤°à¤¨": 5321,
      "à¤°à¤¸à¤®": 5322,
      "à¤Ŀà¤µà¤£": 5323,
      "à¤·à¤£à¤¸": 5324,
      "à¤¯à¤¤à¤¨": 5325,
      "à¤ħà¤¡": 5326,
      "à¤ķà¤²à¤®": 5327,
      "Ġà¤¤à¤¸à¤¤à¤¸": 5328,
      "Ġà¤Ĩà¤¯à¤ıà¤¸": 5329,
      "Ġà¤ħà¤ªà¤¶à¤¬": 5330,
      "à¤ĵà¤ľ": 5331,
      "à¤Ľà¤ª": 5332,
      "à¥¬à¥§": 5333,
      "Ġà¤¸à¤Ĺà¤³à¥Ł": 5334,
      "Ġà¤ķà¤ªà¤ļ": 5335,
      "Ġà¤ªà¤°à¤¤à¤µ": 5336,
      "Ġà¤¨à¤°à¤¹à¤°": 5337,
      "à¤µà¤°à¤£à¤µ": 5338,
      "à¤µà¤°à¤£à¤ªà¤¤": 5339,
      "Ġ91": 5340,
      "Ġà¤ıà¤µà¤¢à¥Ł": 5341,
      "ins": 5342,
      "Ġà¥§à¥¨à¥®": 5343,
      "orm": 5344,
      "à¤³à¤µà¤²à¤ķà¤°": 5345,
      "ĠCS": 5346,
      "Ġà¥§à¥ªà¥¦": 5347,
      "à¤ıà¤¨à¤¡": 5348,
      "Ġà¤°à¤£à¤Ĺ": 5349,
      "ĠAd": 5350,
      "à¥ĩâĢĻ.": 5351,
      "Ġà¤¸à¤ľà¤µà¤£": 5352,
      "Ġ2002": 5353,
      "Ġà¥¤à¥¤": 5354,
      "ĠBank": 5355,
      "ĠTV": 5356,
      "ident": 5357,
      "ĠED": 5358,
      "Ġà¤ħà¤¹à¤®à¤¦à¤¨à¤Ĺà¤°à¤®à¤§": 5359,
      "Ġà¤¬à¤ļà¤¤à¤Ĺà¤Ł": 5360,
      "ĠCOVID": 5361,
      "98": 5362,
      "Gold": 5363,
      "US": 5364,
      "ge": 5365,
      "way": 5366,
      "à¥į-": 5367,
      "à¤²à¤°à¤¶": 5368,
      "à¤ķà¤Łà¤ļ": 5369,
      "à¥ĭ\"": 5370,
      "à¥ĭà¥ĩ": 5371,
      "à¥ģà¥ģ": 5372,
      "Ġà¤®à¤Łà¤¨": 5373,
      "Ġà¤¤à¤¨à¤ª": 5374,
      "Ġà¤ħà¤®à¤¨": 5375,
      "à¤Łà¤ħ": 5376,
      "à¤Łà¤Ńà¤Ł": 5377,
      "à¤¡à¤®à¤¨": 5378,
      "à¤¡à¤¨à¤²": 5379,
      "à¤ľà¤ķà¤¡": 5380,
      "Ġà¤¯à¤¤": 5381,
      "Ġà¤ľà¤¯à¤²à¤²": 5382,
      "Ġà¤°à¤¬à¤°": 5383,
      "Ġà¤°à¤ļà¤¤": 5384,
      "Ġà¤ħà¤¸à¤ļ": 5385,
      "Ġà¤¶à¤¬à¤°": 5386,
      "à¤łà¤¸": 5387,
      "Ġà¤²à¤Ĺà¤¤": 5388,
      "à¤ĸà¤ªà¤¦": 5389,
      "à¤µà¤°à¤Ĺ": 5390,
      "Ġà¤Ńà¤¡à¤Ĺ": 5391,
      "Ġà¤ļà¤¯": 5392,
      "Ġà¤ıà¤Ĺ": 5393,
      "Ġà¥Ĳ": 5394,
      "Ġà¤ĸà¤µ": 5395,
      "Ġà¤ĸà¤ªà¤µ": 5396,
      "à¤¤à¤°à¤µ": 5397,
      "à¤°à¤¤à¤®à¤§": 5398,
      "à¤Ĭà¤¸à¤ļ": 5399,
      "à¥¦à¥§": 5400,
      "à¤¸à¤°à¤¨": 5401,
      "à¤ľà¤¨à¤µà¤°": 5402,
      "à¤¬à¤Īà¤¤à¤¹": 5403,
      "à¤ħà¤¬": 5404,
      "Ġà¤ķà¤®à¤¬": 5405,
      "à¤°à¤¦à¤ķ": 5406,
      "Ġà¤ĵà¤®à¤°": 5407,
      "à¤ĩà¤°": 5408,
      "à¤²à¤¤à¤¤": 5409,
      "à¤ļà¤²à¤ķà¤°": 5410,
      "à¤¡à¤ķà¤³": 5411,
      "à¥®à¥«": 5412,
      "à¥¬à¥©": 5413,
      "Ġà¤¬à¤¹à¤°à¤²": 5414,
      "à¤Ĩà¤¯à¤¬": 5415,
      "à¤ıà¤®à¤Ĩà¤°": 5416,
      "Ġà¤Īà¤°": 5417,
      "à¤ªà¤ļà¤¯": 5418,
      "ani": 5419,
      "Ġ128": 5420,
      "ĠIT": 5421,
      "à¤²à¤Ńà¤Ń": 5422,
      "Ġ03": 5423,
      "à¤°à¤«à¤Łà¤ķ": 5424,
      "ush": 5425,
      "Ġà¥§à¥¯à¥®à¥«": 5426,
      "à¤¤à¤¬à¤Ĺ": 5427,
      "Ġà¥§à¥¯à¥ªà¥®": 5428,
      "Ġà¤ªà¤¬à¤ľ": 5429,
      "Ġà¤ĵà¤°à¤¡à¤¤": 5430,
      "ext": 5431,
      "Ġà¤¤à¤Łà¤°à¤ķ": 5432,
      "mazon": 5433,
      "57": 5434,
      "CP": 5435,
      "az": 5436,
      "ti": 5437,
      "Ġ),": 5438,
      "ĪĴ": 5439,
      "à¤°à¤Ĺà¤³": 5440,
      "à¥ĩà¤¾": 5441,
      "à¤¤à¤¨à¤ļ": 5442,
      "à¤¯à¤®à¤§": 5443,
      "à¤¨à¤Ŀ": 5444,
      "à¤¸à¤µà¤²": 5445,
      "Ġà¤¸à¤¶": 5446,
      "Ġà¤¸à¤°à¤®": 5447,
      "Ġà¤¸à¤ķà¤¸": 5448,
      "Ġà¤®à¤°à¤ķ": 5449,
      "à¤Łà¤®à¤¨": 5450,
      "à¤Łà¤ľà¤µà¤³": 5451,
      "à¤¡à¤°à¤¨": 5452,
      "à¤ľà¤¯à¤¦": 5453,
      "à¤¥à¤®à¤§": 5454,
      "Ġà¤īà¤°à¤ķ": 5455,
      "Ġà¤īà¤¥à¤³": 5456,
      "âĢĶ": 5457,
      "Ġà¤ĸà¤¤à¤°à¤¨": 5458,
      "à¤°à¤¤à¤Ńà¤°": 5459,
      "Ġà¤ĩà¤¡à¤²": 5460,
      "à¤¤à¤²à¤Ĺ": 5461,
      "Ġà¤¸à¤®à¤Ŀ": 5462,
      "Ġà¤Ĩà¤°à¤ľ": 5463,
      "à¤ıà¤Ī": 5464,
      "à¤Ĭà¤¨à¤¨": 5465,
      "à¤Ĺà¤£à¤ªà¤¤": 5466,
      "à¤ķà¤²à¤¸": 5467,
      "Ġà¤Ľà¤¬": 5468,
      "à¥Ńà¥ª": 5469,
      "à¤¾?âĢĿ": 5470,
      "à¤®à¤²à¤¦": 5471,
      "à¥ĩ?\"": 5472,
      "Ġà¤ķà¤¡à¤§": 5473,
      "à¤²à¤¦à¤¸": 5474,
      "Ġ1200": 5475,
      "Ġà¤µà¤¨à¤ªà¤°": 5476,
      "ĠModi": 5477,
      "ĠSams": 5478,
      "ala": 5479,
      "à¤¼à¥ĩ": 5480,
      "à¤¼à¤¾à¤Ĥ": 5481,
      "à¤¤à¤°à¤£à¤ķà¤¡": 5482,
      "Ġà¤ĺà¤¸à¤°à¤¤": 5483,
      "à¤®à¤¶à¤¹": 5484,
      "Ġ170": 5485,
      "Ġà¤ľà¤²à¤ªà¤°": 5486,
      "Ġà¥§à¥¯à¥¯à¥ª": 5487,
      "Ġà¤īà¤łà¤£": 5488,
      "ĠEn": 5489,
      "Ġà¤ļà¤¢à¤īà¤¤": 5490,
      "Ġà¤µà¤°à¤ļà¤¢": 5491,
      "Ġà¥§à¥§à¥®": 5492,
      "Ġà¤¬à¤°à¤¸à¤²": 5493,
      "ockdown": 5494,
      "ddhav": 5495,
      "lus": 5496,
      "ver": 5497,
      "Ġra": 5498,
      "à¤¿à¥į": 5499,
      "à¤ķà¤¤à¤ļ": 5500,
      "à¤µà¤ĺà¤°": 5501,
      "Ġà¤ªà¤Ľ": 5502,
      "à¤ªà¤ľ": 5503,
      "à¤¦à¤ķà¤¤": 5504,
      "à¥Ĥ!": 5505,
      "Ġà¤¦à¤«": 5506,
      "Ġà¤¦à¤¹à¤¨": 5507,
      "Ġà¤¬à¤µ": 5508,
      "Ġà¤²à¤Ĺà¤¤à¤ļ": 5509,
      "Ġà¤²à¤Łà¤ķà¤²": 5510,
      "Ġà¤īà¤¸à¤¨": 5511,
      "Ġà¤Ŀà¤Łà¤¤": 5512,
      "à¤°à¤£à¤®": 5513,
      "à¤¯à¤ķà¤¥": 5514,
      "Ġà¤ªà¤°à¤µà¤¡": 5515,
      "à¤°à¤®à¤°à¤£": 5516,
      "à¤°à¤®à¤ķà¤¤": 5517,
      "à¥ħà¤ģ": 5518,
      "ĠâĢĮ": 5519,
      "à¤Ŀà¤¡à¤¤": 5520,
      "à¤°à¤²à¤¯": 5521,
      "à¤·à¤£à¤µ": 5522,
      "à¤¬à¤°à¤¹": 5523,
      "à¤ıà¤Łà¤°à¤®à¤§": 5524,
      "à¤Ĺà¤¤à¤¦": 5525,
      "Ġà¤Ĩà¤®à¤²": 5526,
      "à¤ħà¤£": 5527,
      "à¤Łà¤¨à¤¸": 5528,
      "à¤Łà¤¨à¤ªà¤Ł": 5529,
      "à¤¶à¤¨à¤Ĺà¤°": 5530,
      "Ġà¤¥à¤°à¤¥": 5531,
      "Ġà¤®à¤¨à¤Ĺà¤Ł": 5532,
      "Ġà¤®à¤¤à¤¹": 5533,
      "à¤¨à¤²à¤²": 5534,
      "Ġà¤ħà¤®à¤°à¤¨": 5535,
      "Ġà¤ħà¤ªà¤¹": 5536,
      "Ġà¤ķà¤²à¤¹": 5537,
      "à¤¹à¤¨à¤§": 5538,
      "à¥®à¥¯": 5539,
      "à¥¬à¥ª": 5540,
      "Ġà¤¤à¤ªà¤¸": 5541,
      "à¤Īà¤¨à¤µà¤°": 5542,
      "à¤Ĩà¤¯à¤ıà¤®": 5543,
      "à¤µà¤¢à¥Ł": 5544,
      "Ġà¥§à¥¦à¥¯": 5545,
      "Ġà¤Ĩà¤Īà¤¬": 5546,
      "à¥ĩ?âĢĻ": 5547,
      "ĠCAA": 5548,
      "Ġà¤Ĺà¤¡à¤¹": 5549,
      "Ġà¤¸à¤ľà¤µà¤²": 5550,
      "à¥ĩ!!": 5551,
      "âĢĮà¤¿": 5552,
      "Ġà¤«à¤¸à¤µà¤²": 5553,
      "Ġ02": 5554,
      "let": 5555,
      "ĠLatest": 5556,
      "edia": 5557,
      "ĠEV": 5558,
      "Ġà¥§à¥¯à¥Ńà¥¦": 5559,
      "Ġà¥§à¥¯à¥Ńà¥¨": 5560,
      "Ġà¥§à¥¯à¥Ńà¥¯": 5561,
      "Ġà¥§à¥¯à¥¬à¥¯": 5562,
      "Ġà¤¨à¤ľà¤°à¤ķ": 5563,
      "Ġà¤īà¤²à¤Ĺà¤¡à¤²": 5564,
      "Ġà¤īà¤²à¤Ĺà¤¡à¤£": 5565,
      "Ġà¤īà¤²à¤Ĺà¤¡à¤¤": 5566,
      "Ġà¤²à¤ªà¤µà¤¤": 5567,
      "à¤¸à¤Ĺà¤¡à¤®à¤§": 5568,
      "à¤²à¤ĺà¤°à¤®à¤§": 5569,
      "Ġà¤Ĩà¤īà¤Łà¤«": 5570,
      "ĠWhatsApp": 5571,
      "overnment": 5572,
      "01": 5573,
      "?âĢĿ": 5574,
      "KR": 5575,
      "St": 5576,
      "ber": 5577,
      "rom": 5578,
      "twitter": 5579,
      "Ġ^": 5580,
      "à¤°à¤¡à¤²": 5581,
      "à¥Ģà¥¤": 5582,
      "à¤¨à¤²à¤¨": 5583,
      "à¤ķà¤Ĩà¤īà¤Ł": 5584,
      "à¤¸à¥²": 5585,
      "Ġà¤Ĩà¤¡à¤®": 5586,
      "Ġà¤Ĩà¤³à¤¸": 5587,
      "Ġà¤Ĩà¤ĩà¤¸": 5588,
      "à¥ģà¥į": 5589,
      "Ġà¤¸à¤£à¤¸": 5590,
      "à¤ªà¤Ń": 5591,
      "à¥Ĥ...": 5592,
      "Ġà¤ħà¤Ĺà¤¤": 5593,
      "à¤Ĺà¤«": 5594,
      "Ġà¤µà¤£à¤µà¤£": 5595,
      "Ġà¤¹à¤°à¤®": 5596,
      "Ġà¤¹à¤°à¤µà¤¤": 5597,
      "à¤³à¤«": 5598,
      "Ġà¤¦à¤¶à¤®": 5599,
      "à¤¶à¤¶": 5600,
      "à¥ĩ.(": 5601,
      "Ġà¤¬à¤Ĺà¤²": 5602,
      "Ġà¤ķà¤°à¤ķà¤°": 5603,
      "Ġà¤¶à¤µ": 5604,
      "à¤¯à¤ķà¤¶": 5605,
      "à¤ĺà¤³à¤²": 5606,
      "Ġà¤ĩà¤ļà¤²à¤ķà¤°": 5607,
      "à¤°à¤®à¤®à¤§": 5608,
      "à¥¦à¥¬": 5609,
      "Ġà¤ħà¤¨à¤¨à¤¸": 5610,
      "à¤Ŀà¤«": 5611,
      "à¤µà¤¨à¤Ĺà¤°": 5612,
      "Ġà¤ľà¤¨à¤Ĩ": 5613,
      "à¥«à¥ª": 5614,
      "à¤£à¤¯à¤¹": 5615,
      "à¤²à¤¬à¤®à¤§": 5616,
      "Ġà¥«à¥¦à¥¦à¥¦": 5617,
      "à¤¨à¤µà¤ľ": 5618,
      "à¥®à¥¨": 5619,
      "à¥®à¥©": 5620,
      "Ġà¤Ĺà¤°à¤ľà¤ļ": 5621,
      "Ġà¤ıà¤®à¤ıà¤²à¤¡": 5622,
      "Ġà¤¹à¤²à¤µà¤¤": 5623,
      "Ġà¥Ńà¥«à¥¦": 5624,
      "Ġà¤ıà¤¸à¤Ĩà¤¯à¤ª": 5625,
      "Ġà¤Īà¤¬": 5626,
      "---": 5627,
      "Ġà¥§à¥¦à¥¨": 5628,
      "à¤¨à¤®à¤§à¤²": 5629,
      "Ġà¤ĩà¤¥à¤ªà¤°": 5630,
      "Ġà¥§à¥¨à¥¦à¥¦": 5631,
      "Ġà¤ľà¤¯à¤ĺ": 5632,
      "ated": 5633,
      "ĠMi": 5634,
      "ĠMin": 5635,
      "Ġ||": 5636,
      "ĠCup": 5637,
      "à¤²à¤ķà¤°à¤¨": 5638,
      "ĠAm": 5639,
      "à¤¾).": 5640,
      "à¤°à¤®à¤£à¤§": 5641,
      "Ġà¤·à¤¡": 5642,
      "Ġà¤ĵà¤²à¤¸à¤°": 5643,
      "ĠNar": 5644,
      "ĠTest": 5645,
      "Ġà¥§à¥¯à¥¯à¥Ń": 5646,
      "ĠDay": 5647,
      "Ġà¤ıà¤ħà¤°à¤¬": 5648,
      "olog": 5649,
      "Ġà¥¦à¥ª": 5650,
      "ĠElection": 5651,
      "à¤®à¤°à¤£à¤¶à¤ķ": 5652,
      "oss": 5653,
      "hind": 5654,
      "accine": 5655,
      "ĠPolice": 5656,
      "ĠUpdate": 5657,
      "69": 5658,
      "ea": 5659,
      "mAh": 5660,
      "ve": 5661,
      "à®": 5662,
      "âĪĴ": 5663,
      "Ġ00": 5664,
      "à¤¿âĢį": 5665,
      "à¤¨à¤Īà¤²": 5666,
      "à¤ļà¤ķà¤°": 5667,
      "à¤¹à¤°à¤ª": 5668,
      "à¤®à¤¦à¤°": 5669,
      "à¤®à¤¨à¤ļ": 5670,
      "Ġà¤ħà¤¡à¤²": 5671,
      "Ġà¤ħà¤ªà¤¨": 5672,
      "à¤Łà¤¸à¤°": 5673,
      "à¤Łà¤µà¤°à¤ļ": 5674,
      "à¤ľà¤¯à¤ļ": 5675,
      "à¤§à¤µà¤¸": 5676,
      "à¤§à¤°à¤¨": 5677,
      "à¤§à¤¡à¤ķ": 5678,
      "à¤¬à¤²à¤¤": 5679,
      "Ġà¤ľà¤łà¤°": 5680,
      "Ġà¤°à¤Ŀ": 5681,
      "Ġà¤ķà¤°à¤¸": 5682,
      "Ġà¤¶à¤°à¤®": 5683,
      "Ġà¤¶à¤«": 5684,
      "Ġà¤Ĺà¤«": 5685,
      "Ġà¤ļà¤ªà¤°": 5686,
      "Ġà¤ļà¤ķà¤²": 5687,
      "Ġà¤ļà¤ªà¤³": 5688,
      "Ġà¤ıà¤ļà¤¸": 5689,
      "à¤°à¤£à¤¯": 5690,
      "Ġà¤ħà¤¨à¤¸": 5691,
      "à¤¾,'": 5692,
      "à¤¦à¤°à¤¹": 5693,
      "Ġà¤Ĩà¤°à¤¶": 5694,
      "à¤ľà¤¨à¤®à¤§": 5695,
      "à¤¬à¤Īà¤ª": 5696,
      "à¤Łà¤¨à¤²": 5697,
      "à¤Łà¤¨à¤°à¤¶": 5698,
      "à¤Ĺà¤£à¤ĺ": 5699,
      "Ġà¤ĳà¤²à¤°": 5700,
      "Ġà¤ĳà¤°à¤Ĺ": 5701,
      "à¤µà¤³à¤ļ": 5702,
      "à¤¹à¤°à¤¬": 5703,
      "Ġà¤¸à¤¹à¤ľà¤ļ": 5704,
      "à¤²à¤ķà¤ªà¤¦": 5705,
      "à¤ĩà¤¤à¤°": 5706,
      "à¤ĩà¤¤à¤ªà¤¤": 5707,
      "à¥®à¥§": 5708,
      "à¥®à¥¬": 5709,
      "à¥Ńà¥§": 5710,
      "Ġà¤¸à¤Ĺà¤³à¤¯": 5711,
      "Ġà¤Ķà¤¸": 5712,
      "Ġà¤Ķà¤Ł": 5713,
      "Ġà¤ħà¤²à¤µ": 5714,
      "Ġà¤ıà¤®à¤ıà¤ļ": 5715,
      "à¤¤à¤¨à¤Ĺà¤°": 5716,
      "à¤¤à¤ķà¤±à¤¯": 5717,
      "à¤Ĩà¤¯à¤ıà¤²": 5718,
      "Ġà¤Ĺà¤£à¤ªà¤¤à¤°": 5719,
      "à¤ıà¤®à¤ıà¤²": 5720,
      "à¤Łà¤£à¤®": 5721,
      "ination": 5722,
      "à¤®à¤£à¤Ĺ": 5723,
      "ord": 5724,
      "ory": 5725,
      "Ġà¤§à¤¨à¤¶": 5726,
      "à¤ľà¤®à¤¹": 5727,
      "à¤°à¤¥à¤®à¤¦à¤°": 5728,
      "Ġà¤ħà¤«à¤°": 5729,
      "eng": 5730,
      "Ġ130": 5731,
      "ick": 5732,
      "à¤°à¤«à¤¡": 5733,
      "ĠLive": 5734,
      "ĠGal": 5735,
      "ĠGoogle": 5736,
      "Ġà¥§à¥§à¥ª": 5737,
      "Ġ1998": 5738,
      "Ġà¤ķà¤¢à¤Īà¤¤": 5739,
      "Ġà¤ĸà¤£à¤ĸà¤£": 5740,
      "ĠSamsung": 5741,
      "!âĢĻ": 5742,
      "03": 5743,
      "51": 5744,
      "78": 5745,
      "82": 5746,
      "IN": 5747,
      "Pune": 5748,
      "br": 5749,
      "iew": 5750,
      "nb": 5751,
      "port": 5752,
      "sh": 5753,
      "à¤¯à¤¬à¤²": 5754,
      "à¤ķà¤¨à¤ļ": 5755,
      "à¤ļà¤ķà¤Ł": 5756,
      "à¤¹à¤¬à¤¦": 5757,
      "à¤¹à¤°à¤ļà¤¨": 5758,
      "Ġà¤ķà¤µà¤¯": 5759,
      "Ġà¤¤à¤³à¤µ": 5760,
      "à¤¡à¤°à¤¸à¤¨": 5761,
      "Ġà¤¦à¤°à¤¦": 5762,
      "Ġà¤¬à¤Ĺà¤¦": 5763,
      "Ġà¤¬à¤²à¤¸": 5764,
      "Ġà¤ħà¤¸à¤Ń": 5765,
      "Ġà¤¶à¤Łà¤°": 5766,
      "Ġà¤Ĺà¤¡à¤Ĺ": 5767,
      "Ġà¤Ńà¤Ĺà¤µà¤¤": 5768,
      "Ġà¤Ńà¤°à¤ķà¤Łà¤²": 5769,
      "Ġà¤ļà¤ļ": 5770,
      "Ġà¤ĺà¤¨à¤¤": 5771,
      "Ġà¤īà¤ĸ": 5772,
      "à¤¯à¤ķà¤®": 5773,
      "Ġà¤ĩà¤¯": 5774,
      "Ġà¤ĩà¤ħà¤°": 5775,
      "à¤ķà¤°à¤¶": 5776,
      "à¥¦à¥¨": 5777,
      "Ġà¤§à¤µà¤²": 5778,
      "Ġà¤§à¤¨à¤°": 5779,
      "Ġà¤ķà¤°à¤¤à¤ļ": 5780,
      "Ġà¤¨à¤µà¤¦": 5781,
      "à¤Ĩà¤¸": 5782,
      "à¤ķà¤²à¤²": 5783,
      "Ġà¤¥à¤µ": 5784,
      "à¤²à¤¨à¤¹": 5785,
      "Ġà¥¨à¥¦à¥§": 5786,
      "à¤ĵà¤¢": 5787,
      "à¤¤à¤®à¤¸": 5788,
      "à¥Ńà¥¨": 5789,
      "à¥Ńà¥¯": 5790,
      "Ġà¤ľà¤Ĺà¤µ": 5791,
      "Ġà¤ıà¤¸à¤ıà¤®": 5792,
      "Ġà¤Īà¤Ł": 5793,
      "Ġà¥§à¥¦à¥§": 5794,
      "à¤¾âĢĻ.": 5795,
      "Ġ104": 5796,
      "à¤Ĭà¤¸à¤µà¤°": 5797,
      "int": 5798,
      "ĠCC": 5799,
      "ĠCM": 5800,
      "Ġà¥¨à¥ªà¥¦": 5801,
      "ence": 5802,
      "Ġ160": 5803,
      "à¤²à¤Ńà¤¤": 5804,
      "ĠNIA": 5805,
      "ĠBh": 5806,
      "à¤¡à¤µà¤²à¤¦": 5807,
      "led": 5808,
      "Ġà¥¦à¥¬": 5809,
      "ings": 5810,
      "Ġ1991": 5811,
      "agram": 5812,
      "Ġ1980": 5813,
      "stagram": 5814,
      "Maharashtra": 5815,
      "Ġà¤¦à¤¡à¤ªà¤¶": 5816,
      "Ġarticle": 5817,
      "):": 5818,
      ",âĢ¦": 5819,
      "63": 5820,
      "?;": 5821,
      "CO": 5822,
      "FC": 5823,
      "eg": 5824,
      "war": 5825,
      "à°": 5826,
      "Ġis": 5827,
      "à¤°à¤Ĺà¤¡": 5828,
      "à¤°à¤°à¤¥": 5829,
      "à¤¤à¤«": 5830,
      "à¤¹à¤¹": 5831,
      "Ġà¤Ĩà¤¸à¤®": 5832,
      "Ġà¤ªà¤³à¤£": 5833,
      "Ġà¤®à¤¢": 5834,
      "à¤¦à¤°à¤¸": 5835,
      "Ġà¤¤à¤°à¤£": 5836,
      "à¤Ĺà¤°à¤²": 5837,
      "à¤¡à¤¬à¤°": 5838,
      "Ġà¤¨à¤¤à¤®à¤¸": 5839,
      "Ġà¤¦à¤¡": 5840,
      "Ġà¤¦à¤³": 5841,
      "à¤¶à¤ªà¤¤": 5842,
      "Ġà¤¬à¤¡à¤µ": 5843,
      "à¤µà¤°à¤®": 5844,
      "Ġà¤ĺà¤°à¤µ": 5845,
      "Ġà¤īà¤Ĺà¤µ": 5846,
      "à¤°à¤®à¤°": 5847,
      "à¤ķà¤°à¤¸": 5848,
      "à¥¦à¥«": 5849,
      "à¤µà¤²à¤Ĺ": 5850,
      "Ġà¤īà¤ªà¤ĸ": 5851,
      "à¤ıà¤®à¤¨": 5852,
      "à¤¡à¤²à¤ļ": 5853,
      "à¤Łà¤²à¤°à¤ļ": 5854,
      "Ġà¤Ĩà¤®à¤°à¤£": 5855,
      "à¤Ĩà¤®à¤¦": 5856,
      "Ġà¤¦à¤°à¤¹": 5857,
      "à¥«à¥¯": 5858,
      "à¤¦à¤¨à¤µà¤¨": 5859,
      "à¤§à¤µà¤ľ": 5860,
      "à¤§à¤¨à¤Ĺ": 5861,
      "...!": 5862,
      "...\"": 5863,
      "à¥®à¥¦à¥¦": 5864,
      "à¤§à¤¤à¤¶": 5865,
      "à¤ıà¤¸à¤¡": 5866,
      "Ġà¤ħà¤¡à¤¸à¤°": 5867,
      "à¤²à¤®à¤§à¤²": 5868,
      "à¥¨à¥¦à¥¨à¥¦": 5869,
      "à¤°à¤µà¤łà¥Ł": 5870,
      "ata": 5871,
      "ert": 5872,
      "ĠMPSC": 5873,
      "ĠSha": 5874,
      "ĠAr": 5875,
      "ĠAmazon": 5876,
      "Ġà¤Ĺà¤¡à¤Ĺà¤¡": 5877,
      "ĠIM": 5878,
      "ĠIS": 5879,
      "Ġ135": 5880,
      "ĠBS": 5881,
      "ics": 5882,
      "à¤¡à¤µà¤²à¤¶": 5883,
      "olha": 5884,
      "ĠUn": 5885,
      "Ġà¥§à¥§à¥©": 5886,
      "Ġà¤§à¤¡à¤ªà¤¡à¤¤": 5887,
      "Ġà¤ıà¤ķà¤µà¤Łà¤²": 5888,
      "à¤ĭà¤·": 5889,
      "à¤ķà¤®à¤¤à¤ļ": 5890,
      "Ġà¤ªà¤¥à¤¦": 5891,
      "à¤ļà¤ªà¤¦à¤¸": 5892,
      "axy": 5893,
      "IVE": 5894,
      "Ġà¤ħà¤¹à¤®à¤¦à¤¨à¤Ĺà¤°à¤ļ": 5895,
      "&#": 5896,
      "08": 5897,
      "85": 5898,
      "92": 5899,
      "AL": 5900,
      "RT": 5901,
      "bit": 5902,
      "goo": 5903,
      "¸ı": 5904,
      "ï¸ı": 5905,
      "à¤¾à¥ħà¤Ĥ": 5906,
      "à¥ĩà¤ĥ": 5907,
      "à¤¤à¤ķà¤¡": 5908,
      "à¤¯à¤Łà¤²": 5909,
      "à¤²à¤¸à¤®": 5910,
      "à¤¨à¤¹à¤°": 5911,
      "à¤ļà¤Ĺà¤£": 5912,
      "à¤ļà¤¨à¤ļ": 5913,
      "à¤¸à¤µà¤£": 5914,
      "à¤¸à¤®à¤¤": 5915,
      "à¤®à¤¸à¤²à¤¤": 5916,
      "Ġà¤ªà¤®": 5917,
      "Ġà¤®à¤ĸà¤°": 5918,
      "à¤¦à¤µà¤°": 5919,
      "à¤¦à¤ķà¤¡": 5920,
      "à¤¦à¤¶à¤®": 5921,
      "Ġà¤¤à¤³à¤µà¤²à¤ķà¤°": 5922,
      "Ġà¤ħà¤°à¤®": 5923,
      "Ġà¤µà¤¤à¤¨": 5924,
      "Ġà¤¨à¤Ń": 5925,
      "à¤³à¤¸à¤°": 5926,
      "Ġà¤¦à¤«à¤¨": 5927,
      "Ġà¤ľà¤¬à¤²à¤ª": 5928,
      "à¤łà¤¶": 5929,
      "Ġà¤Ĺà¤¹à¤²": 5930,
      "à¤Īà¤¹": 5931,
      "à¤¤à¤°à¤¸": 5932,
      "Ġà¤łà¤ķ": 5933,
      "Ġà¤¸à¤®à¤¯": 5934,
      "à¥Ģà¤Ĥ,": 5935,
      "Ġà¤Ĩà¤¤à¤·à¤¬": 5936,
      "à¤ıà¤Ĺ": 5937,
      "à¤ıà¤ħà¤°": 5938,
      "à¤ľà¤¨à¤¹": 5939,
      "à¤¯à¤¤à¤¶": 5940,
      "à¤Ĥ.âĢĻ": 5941,
      "à¤ªà¤¨à¤µ": 5942,
      "à¤ªà¤¨à¤¦": 5943,
      "à¤¤à¤ķà¤²": 5944,
      "Ġà¤Ĩà¤¯à¤¶": 5945,
      "à¤¸à¤¨à¤¸": 5946,
      "à¤ĩà¤¨à¤²": 5947,
      "Ġà¤ĸà¤°à¤¬": 5948,
      "à¤µà¤¨à¤Ĺ": 5949,
      "à¤°à¤ľà¤ļ": 5950,
      "Ġà¤®à¤²à¤¬": 5951,
      "Ġà¤ľà¤¨à¤¨": 5952,
      "à¤¦à¤¨à¤ķ": 5953,
      "à¤¤à¤µà¤µ": 5954,
      "à¥®à¥ª": 5955,
      "à¤Ĺà¤¡à¥Ł": 5956,
      "à¤¾?âĢĻâĢĻ": 5957,
      "à¤Ĥ,\"": 5958,
      "à¤ªà¤Łà¤£": 5959,
      "Ġà¤ıà¤¸à¤¡": 5960,
      "Ġà¤¨à¤Ĺà¤°à¤°à¤ļà¤¨": 5961,
      "ink": 5962,
      "à¤Īà¤Łà¤¸": 5963,
      "Ġ?,": 5964,
      "à¤¯à¤°à¤¸à¤ª": 5965,
      "its": 5966,
      "ĠTr": 5967,
      "Ġà¤ıà¤²à¤ľ": 5968,
      "à¤Łà¥Łà¤Ĺ": 5969,
      "à¤ĳà¤¸": 5970,
      "Ġà¤Ńà¤¯à¤Ń": 5971,
      "à¤¯à¤Ĺà¤¡à¤®à¤§": 5972,
      "ĠFIR": 5973,
      "Ġ>>>>": 5974,
      "Ġà¤¸à¤¬à¤®": 5975,
      "Ġà¤¸à¤¬à¤¬": 5976,
      "Ġà¥§à¥¯à¥ªà¥¯": 5977,
      "Ġà¥§à¥§à¥§": 5978,
      "Ġà¥§à¥§à¥¯": 5979,
      "Ġà¤¢à¤Ĺà¤«": 5980,
      "à¥¯à¥¯à¥¯": 5981,
      "Ġà¤Ĺà¤µà¤¸à¤²": 5982,
      "CCI": 5983,
      "Ġ---------------------------------": 5984,
      "Ġà¤ĸà¤¦à¤ĸà¤¦": 5985,
      "ashik": 5986,
      "nbsp": 5987,
      "olhapur": 5988,
      "62": 5989,
      "IP": 5990,
      "PM": 5991,
      "Shiv": 5992,
      "man": 5993,
      "oon": 5994,
      "se": 5995,
      "Ġï": 5996,
      "à¥Ħ": 5997,
      "à¤¯à¤ĺ": 5998,
      "à¤²à¤µà¤¡": 5999,
      "à¤¨à¤ĺ": 6000,
      "à¤¨à¤ĸà¤¡": 6001,
      "à¤¸à¤¤à¤°": 6002,
      "à¤¸à¤¸à¤®": 6003,
      "Ġà¤ķà¤Ń": 6004,
      "Ġà¤ķà¤¬à¤°": 6005,
      "à¤ªà¤Łà¤²": 6006,
      "à¤¦à¤®à¤°": 6007,
      "Ġà¤ħà¤¤à¤°": 6008,
      "Ġà¤µà¤ļà¤ķ": 6009,
      "à¤¡à¤ľ": 6010,
      "à¤¡à¤Ńà¤°": 6011,
      "à¤§à¤ªà¤£": 6012,
      "à¤¬à¤ķà¤°": 6013,
      "Ġà¤Ĺà¤¢": 6014,
      "Ġà¤Ĺà¤¹à¤¨": 6015,
      "Ġà¤²à¤°": 6016,
      "à¤µà¤°à¤µ": 6017,
      "à¤¥à¤¦": 6018,
      "Ġà¤ļà¤°à¤¸": 6019,
      "Ġà¤ļà¤¢à¤µà¤£": 6020,
      "Ġà¤ĺà¤Łà¤£": 6021,
      "Ġà¤īà¤ķà¤°": 6022,
      "à¤Īà¤ķà¤²": 6023,
      "à¤®à¤§à¤¡": 6024,
      "Ġà¤ĸà¤°à¤ª": 6025,
      "Ġà¤ıà¤ķà¤¬": 6026,
      "Ġà¤Łà¤³": 6027,
      "à¤¯à¤ķà¤ļ": 6028,
      "Ġà¤ªà¤°à¤Ĺ": 6029,
      "à¥ĩ,âĢĻâĢĻ": 6030,
      "à¤ķà¤°à¤¬à¤°": 6031,
      "à¤«à¤®à¤§": 6032,
      "Ġà¤¡à¤ķ": 6033,
      "à¤¤à¤²à¤ĸ": 6034,
      "Ġà¤Ĩà¤ªà¤Ĩà¤ªà¤²": 6035,
      "à¤ªà¤°à¤¦": 6036,
      "à¥¦à¥ª": 6037,
      "à¥¦à¥®": 6038,
      "Ġà¤§à¤¨à¤ķ": 6039,
      "Ġà¤§à¤µà¤¨à¤ļ": 6040,
      "à¤°à¤¸à¤¤": 6041,
      "à¤·à¤£à¤ķ": 6042,
      "à¤¸à¤°à¤µà¤°": 6043,
      "à¤Łà¤°à¤«": 6044,
      "Ġà¤¸à¤¹à¤¸à¤ļ": 6045,
      "à¤ĩà¤Łà¤¨": 6046,
      "à¤ľà¤¯à¤¨à¤Ĺà¤°": 6047,
      "à¤¯à¤¨à¤Ĺà¤°": 6048,
      "à¤®à¤ķà¤¹": 6049,
      "Ġà¤°à¤¸à¤¦": 6050,
      "Ġà¤®à¤¦à¤¤à¤¹": 6051,
      "Ġà¥ªà¥«à¥¦": 6052,
      "à¤¾??": 6053,
      "à¤¨à¤°à¤®à¤§": 6054,
      "à¤Ĩà¤¯à¤®à¤§": 6055,
      "Ġà¤¬à¤¨à¤ķà¤°": 6056,
      "Ġà¥¬à¥«à¥¦": 6057,
      "Ġà¥§à¥¦à¥ª": 6058,
      "Ġà¤¸à¤®à¤ľà¤µ": 6059,
      "Ġà¤ªà¤Łà¤µà¤£": 6060,
      "à¤¹à¤²à¤®à¤§": 6061,
      "à¤¹à¤²à¤ªà¤°": 6062,
      "à¤¸à¤Ĺà¤¢": 6063,
      "à¤¸à¤Ĺà¤¡à¤ļ": 6064,
      "à¤Ĩà¤°à¤Ĩà¤¯": 6065,
      "à¤®à¤£à¤°": 6066,
      "Ġà¤ľà¤¯à¤ľà¤¯à¤ķ": 6067,
      "atch": 6068,
      "Ġ122": 6069,
      "ĠĠĠĠĠĠĠ": 6070,
      "........": 6071,
      "à¤ıà¤«à¤Ł": 6072,
      "ĠAct": 6073,
      "Ġà¥§à¥¬à¥¦à¥¦": 6074,
      "ite": 6075,
      "ith": 6076,
      "ĠNag": 6077,
      "Ġà¤įà¤¡à¤®": 6078,
      "hak": 6079,
      "ĠHD": 6080,
      "Ġà¥§à¥¯à¥®à¥©": 6081,
      "Ġcom": 6082,
      "Ġà¤łà¤³à¤ķà¤ªà¤£": 6083,
      "Ġth": 6084,
      "ach": 6085,
      "à¤¯à¤«à¤³": 6086,
      "Ġà¥§à¥¯à¥¬à¥«": 6087,
      "Ġà¤Ńà¤Łà¤ķà¤¤": 6088,
      "ake": 6089,
      "Ġà¥§à¥¯à¥«à¥«": 6090,
      "Ġà¥ŀà¤ķ": 6091,
      "à¤¸à¤¨à¤Ĺà¤°à¤®à¤§": 6092,
      "Ġà¤ļà¤ªà¤ĸà¤²": 6093,
      "à¥ĩâĢĿ.": 6094,
      "ious": 6095,
      "à¤¬à¤²à¤ļà¤ķ": 6096,
      "ĠGalaxy": 6097,
      "af": 6098,
      "ms": 6099,
      "put": 6100,
      "à¤°à¤¯à¤¸": 6101,
      "à¤¤à¤µà¤¸": 6102,
      "à¤¤à¤µà¤¤": 6103,
      "à¤¯à¤°à¤®": 6104,
      "à¤²à¤®à¤¨": 6105,
      "à¤¿âĢĻ": 6106,
      "à¤¨à¤µà¤²": 6107,
      "à¤¨à¤ī": 6108,
      "à¤ĤâĢĻ,": 6109,
      "à¤ķà¤ªà¤°": 6110,
      "à¤ķà¤Ĩà¤Ĭà¤Ł": 6111,
      "à¤¹à¤°à¤¸": 6112,
      "Ġà¤ķà¤²à¤ķà¤¤": 6113,
      "à¤®à¤°à¤¤": 6114,
      "à¤®à¤¸à¤¹": 6115,
      "à¤ªà¤ķà¤¡": 6116,
      "Ġà¤ħà¤µà¤ļ": 6117,
      "à¤Ĺà¤¡à¤ļ": 6118,
      "à¤Łà¤¸à¤ļ": 6119,
      "à¤Łà¤®à¤°": 6120,
      "Ġà¤µà¤¨à¤°": 6121,
      "à¤¡à¤ħà¤³": 6122,
      "à¤ľà¤³à¤Ĺ": 6123,
      "Ġà¤°à¤¨à¤°": 6124,
      "Ġà¤¶à¤¯à¤¨": 6125,
      "Ġà¤¶à¤¹à¤¨": 6126,
      "à¤łà¤²à¤µ": 6127,
      "Ġà¤Ĺà¤³à¤ļ": 6128,
      "Ġà¤ĺà¤®": 6129,
      "Ġà¤ĺà¤µà¤ĺ": 6130,
      "Ġà¤ĺà¤¨à¤µà¤Ł": 6131,
      "à¤Ńà¤°à¤ļ": 6132,
      "Ġà¤īà¤¦à¤°": 6133,
      "Ġà¤ıà¤£": 6134,
      "Ġà¤ıà¤¯à¤°": 6135,
      "Ġà¤ıà¤²à¤°": 6136,
      "à¤°à¤ķà¤¸": 6137,
      "à¤Īà¤¦à¤²": 6138,
      "à¤¢à¤ª": 6139,
      "à¤«à¤¡": 6140,
      "Ġ(?)": 6141,
      "à¤Ŀà¤¬": 6142,
      "Ġà¤īà¤ªà¤¶": 6143,
      "à¥Ģà¤Ĥ.": 6144,
      "à¤Ĺà¤²à¤®": 6145,
      "à¤Ĺà¤²à¤µà¤°": 6146,
      "Ġà¤Ĩà¤°à¤ıà¤¸": 6147,
      "Ġà¤Ĩà¤°à¤ıà¤¸à¤ıà¤¸": 6148,
      "à¤ıà¤ķà¤¦": 6149,
      "à¤ľà¤¨à¤¬à¤¦": 6150,
      "à¤Ĺà¤£à¤¸": 6151,
      "Ġà¤ĳà¤¬": 6152,
      "à¤Ĩà¤ļ": 6153,
      "Ġà¤ĵà¤®à¤ª": 6154,
      "à¤ĩà¤Łà¤²": 6155,
      "Ġà¤ķà¤²à¤°à¤ļ": 6156,
      "à¤¹à¤¨à¤¸": 6157,
      "Ġà¤®à¤°à¤Ĺà¤³": 6158,
      "à¥¬à¥¨": 6159,
      "à¤Ĩà¤¯à¤ľ": 6160,
      "Ġà¤Ńà¤°à¤¡à¤²": 6161,
      "Ġ101": 6162,
      "à¥ĢâĢĻ.": 6163,
      "à¤Ĭà¤¸à¤«": 6164,
      "Ġà¤ıà¤µà¤¢à¤ļ": 6165,
      "ars": 6166,
      "erv": 6167,
      "ĠĠĠĠĠĠ": 6168,
      "Ġà¥¨à¥«à¥¦à¥¦": 6169,
      "à¤ıà¤¨à¤Ł": 6170,
      "ĠICC": 6171,
      "à¤®à¤®à¤§à¤²": 6172,
      "Ġà¤ªà¤²à¤Ł": 6173,
      "ĠTe": 6174,
      "ĠLIC": 6175,
      "ĠLok": 6176,
      "ĠEMI": 6177,
      "IDAI": 6178,
      "Ġpic": 6179,
      "Ġà¥§à¥¯à¥Ńà¥ª": 6180,
      "Ġà¥§à¥¯à¥Ńà¥¬": 6181,
      "à¥Ģ\",": 6182,
      "???": 6183,
      "hant": 6184,
      "Ġà¤ªà¤ļà¤¨à¤ķ": 6185,
      "Ġà¤Ńà¤°à¤µà¤¶": 6186,
      "ourt": 6187,
      "Ġà¤īà¤§à¤³à¤ªà¤Ł": 6188,
      "à¤ķà¤¸à¤¹à¤Ń": 6189,
      "Ġà¤ļà¤£à¤ļà¤£": 6190,
      "Ġà¤¬à¤²à¤ķà¤µà¤¡": 6191,
      ",âĢĻâĢĻ": 6192,
      "07": 6193,
      "71": 6194,
      "86": 6195,
      "Hz": 6196,
      "PE": 6197,
      "Te": 6198,
      "ib": 6199,
      "min": 6200,
      "pl": 6201,
      "ual": 6202,
      "yc": 6203,
      "Ġat": 6204,
      "à¤¾âĪĴ": 6205,
      "à¤°à¤¬à¤²": 6206,
      "à¤¤à¤Ĺà¤Ł": 6207,
      "à¤¿à¤¾": 6208,
      "à¤µà¤Ĺà¤¤": 6209,
      "à¤¸à¤·": 6210,
      "à¤¹à¤¡": 6211,
      "Ġà¤µà¤Ŀà¤°": 6212,
      "à¤¡à¤µà¤¡": 6213,
      "à¤§à¤ľà¤¨": 6214,
      "à¤¶à¤²à¤¤": 6215,
      "Ġà¤ľà¤ł": 6216,
      "Ġà¤ľà¤¯à¤¤": 6217,
      "à¤łà¤¦": 6218,
      "Ġà¤Ĺà¤³à¤£": 6219,
      "à¤¥à¤¨à¤Ĺà¤°": 6220,
      "à¤Īà¤ķà¤°": 6221,
      "Ġà¤ıà¤ķà¤°à¤ķà¤®": 6222,
      "Ġà¤«à¤°à¤¶": 6223,
      "à¤°à¤£à¤ª": 6224,
      "à¤ĺà¤¹": 6225,
      "à¤°à¤®à¤ľ": 6226,
      "Ġà¤ħà¤¨à¤µ": 6227,
      "Ġà¤ħà¤¨à¤Ń": 6228,
      "à¤¯à¤®à¤¸à¤¨": 6229,
      "à¤Ŀà¤¸": 6230,
      "à¤Ŀà¤£": 6231,
      "à¤Ĺà¤²à¤¬": 6232,
      "à¤¸à¤°à¤®à¤§": 6233,
      "à¤ıà¤ľ": 6234,
      "à¤ıà¤¸à¤²": 6235,
      "à¤¶à¤¨à¤¦": 6236,
      "à¤¹à¤°à¤¹": 6237,
      "à¤¹à¤°à¤Ł": 6238,
      "à¤Łà¤ķà¤¸à¤°": 6239,
      "Ġà¤ĺà¤°à¤Ń": 6240,
      "Ġà¤ĵà¤µà¤°": 6241,
      "Ġà¤ĵà¤¸à¤°": 6242,
      "à¤®à¤¨à¤¨": 6243,
      "à¤®à¤¨à¤µ": 6244,
      "à¤·à¤ķà¤¹": 6245,
      "à¤¯à¤¨à¤¸": 6246,
      "à¤ĵà¤¦": 6247,
      "à¤ĵà¤¡": 6248,
      "à¤§à¤µà¤ļ": 6249,
      "à¤ķà¤°à¤£à¤ļ": 6250,
      "à¤ķà¤°à¤£à¤¹": 6251,
      "Ġà¤ľà¤®à¤¶": 6252,
      "à¤ıà¤¸à¤Īà¤ļ": 6253,
      "Ġà¤ĳà¤«à¤¸": 6254,
      "Ġà¤Ńà¤°à¤µà¤¸": 6255,
      "Ġà¤īà¤²à¤Łà¤¸": 6256,
      "à¤ıà¤®à¤Ī": 6257,
      "Ġà¤ħà¤¡à¤Ĺà¤³": 6258,
      "à¥ĩ?,": 6259,
      "Ġà¥§à¥¨à¥¨": 6260,
      "ater": 6261,
      "ĠĠĠĠĠ": 6262,
      "ĠPro": 6263,
      "ĠCBI": 6264,
      "ade": 6265,
      "adn": 6266,
      "à¤¦à¤¯à¤¸à¤®": 6267,
      "ĠBl": 6268,
      "âĢĮà¥ħ": 6269,
      "Ġà¤¡à¤¬à¤ĺ": 6270,
      "Ġà¤ľà¤²à¤¶": 6271,
      "Ġà¤īà¤ľà¤³à¤£": 6272,
      "ĠDi": 6273,
      "Ġcr": 6274,
      "Ġà¤¢à¤ķà¤²à¤¤": 6275,
      "Ġà¤Ĩà¤µà¤°à¤²": 6276,
      "Ġà¥§à¥¯à¥Ńà¥©": 6277,
      "Ġà¥§à¥¯à¥Ńà¥®": 6278,
      "ots": 6279,
      "ave": 6280,
      "ĠIndian": 6281,
      "ove": 6282,
      "Ġà¥§à¥§à¥¨": 6283,
      "ĠOn": 6284,
      "Ġà¥§à¥¯à¥«à¥®": 6285,
      "Ġà¤®à¤³à¤®à¤³": 6286,
      "Ġà¤ªà¤ªà¤Ī": 6287,
      "à¥²à¤ķ": 6288,
      "Ġà¤«à¤°à¤«à¤Łà¤¤": 6289,
      "hoto": 6290,
      "Ġà¤ĺà¤µà¤ĺà¤µ": 6291,
      "09": 6292,
      "83": 6293,
      "84": 6294,
      "PG": 6295,
      "bh": 6296,
      "pr": 6297,
      "à¤°à¥Ł": 6298,
      "à¤¤à¤®à¤ļ": 6299,
      "à¤¯à¤°à¤ª": 6300,
      "à¤²à¤Łà¤²": 6301,
      "à¤¨à¤¸à¤²": 6302,
      "à¤¨à¤®à¤¸": 6303,
      "à¤ķà¤Łà¤¤": 6304,
      "à¤µà¤¦à¤°": 6305,
      "à¤µà¤ļà¤¨": 6306,
      "à¤ļà¤¬": 6307,
      "à¤¹à¤¨à¤²": 6308,
      "Ġà¤ķà¤¸à¤°": 6309,
      "Ġà¤ķà¤£à¤¸": 6310,
      "Ġà¤Ĩà¤¡à¤ķ": 6311,
      "Ġà¤¸à¤¬à¤³": 6312,
      "à¤ªà¤¸à¤®à¤§": 6313,
      "à¤¦à¤ªà¤£": 6314,
      "Ġà¤ħà¤¢à¤³": 6315,
      "à¤¡à¤¸à¤®": 6316,
      "Ġà¤¨à¤£": 6317,
      "Ġà¤¨à¤°à¤®": 6318,
      "à¤¶à¤Ĺ": 6319,
      "Ġà¤°à¤Ĺ": 6320,
      "Ġà¤¬à¤¶": 6321,
      "Ġà¤ļà¤®à¤ķà¤¤": 6322,
      "à¤Ńà¤Ĺà¤µ": 6323,
      "à¥Ģ.,": 6324,
      "à¥Ģ.âĢĻâĢĻ": 6325,
      "Ġà¥Ł": 6326,
      "à¤Īà¤ķà¤¡": 6327,
      "à¤°à¤¤à¤¹": 6328,
      "Ġà¤¤à¤°à¤²": 6329,
      "à¤°à¤®à¤¤à¤µ": 6330,
      "à¤«à¤ĸ": 6331,
      "Ġà¤Ĩà¤ªà¤¨": 6332,
      "à¥¦à¥Ń": 6333,
      "Ġà¤§à¤¸à¤ķ": 6334,
      "Ġà¤¸à¤®à¤¸à¤®": 6335,
      "à¤ıà¤®à¤ķ": 6336,
      "à¤ıà¤Ĩà¤¯": 6337,
      "à¤ıà¤ļà¤ª": 6338,
      "à¤Łà¤²à¤®": 6339,
      "à¤ħà¤°à¤®": 6340,
      "à¤ħà¤¡à¤ļà¤£": 6341,
      "Ġà¤ĳà¤¥": 6342,
      "à¤¯à¤ļà¤¯": 6343,
      "à¤¤à¤ķÂºà¤¯": 6344,
      "à¤¯à¤²à¤®": 6345,
      "à¤²à¤¨à¤Ĺà¤°": 6346,
      "à¤ªà¤¤à¤Ĺ": 6347,
      "Ġà¤®à¤¤à¤ªà¤¤": 6348,
      "à¤¨à¤²à¤®à¤§": 6349,
      "à¤ĵà¤Ł": 6350,
      "à¤Ľà¤Ł": 6351,
      "Ġà¤īà¤®à¤¦": 6352,
      "Ġà¤īà¤®à¤°à¤Ĺ": 6353,
      "Ġà¤īà¤®à¤Łà¤µ": 6354,
      "Ġ450": 6355,
      "à¤Īà¤¨à¤¨": 6356,
      "Ġà¤ħà¤µà¤ľ": 6357,
      "à¤ıà¤¸à¤ıà¤«à¤ļ": 6358,
      "Ġà¤ĳà¤«à¤®à¤§": 6359,
      "Ġà¤ħà¤Łà¤ķà¤¹": 6360,
      "Ġà¤¢à¤¸": 6361,
      "Ġ102": 6362,
      "Ġà¤®à¤ľà¤¦": 6363,
      "2019": 6364,
      "Ġ?\"": 6365,
      "Ġ126": 6366,
      "Ġà¤ķà¤łà¤¡": 6367,
      "ĠMS": 6368,
      "ĠST": 6369,
      "ĠPHO": 6370,
      "ĠRo": 6371,
      "à¤ıà¤«à¤¡": 6372,
      "à¥Ģ?,": 6373,
      "ĠAc": 6374,
      "Ġà¤¤à¤³à¤®à¤ľà¤²": 6375,
      "ĠNext": 6376,
      "à¤ĳà¤Ĺà¤¸": 6377,
      "Ġà¥²à¤®": 6378,
      "Ġà¤¨à¤Ĭà¤µ": 6379,
      "à¤¯à¤Ĺà¤¡à¤ļ": 6380,
      "Ġà¤¸à¤«à¤²": 6381,
      "à¤¯à¤¸à¤¨à¤®": 6382,
      "ree": 6383,
      "Ġà¤ħà¤¡à¤ķà¤µà¤²": 6384,
      "Ġà¥§à¥¯à¥¬à¥¬": 6385,
      "Ġ1990": 6386,
      "Ġà¥§à¥¯à¥«à¥¬": 6387,
      "Ġà¤°à¤¥à¤¯": 6388,
      "Ġà¤ħà¤Ĺà¤°à¤¬à¤¤": 6389,
      "ealth": 6390,
      "ĠATM": 6391,
      "à¤¸à¥²à¤ª": 6392,
      "ĠPHOT": 6393,
      "))": 6394,
      ".(": 6395,
      "400": 6396,
      "Me": 6397,
      "NL": 6398,
      "Pr": 6399,
      "RP": 6400,
      "get": 6401,
      "les": 6402,
      "mi": 6403,
      "à¤´": 6404,
      "à¤¨à¤Łà¤ķ": 6405,
      "à¤¨à¤¯à¤¨": 6406,
      "à¥ģâĢĻ": 6407,
      "Ġà¤¸à¤¨à¤¸": 6408,
      "à¤ªà¤ł": 6409,
      "à¤¦à¤°à¤¤": 6410,
      "à¥Ĥà¤ģ": 6411,
      "Ġà¤ħà¤¦à¤²": 6412,
      "à¤Łà¤°à¤ķ": 6413,
      "Ġà¤µà¤Ł": 6414,
      "Ġà¤µà¤Łà¤¹": 6415,
      "à¤¡à¤¸à¤¨": 6416,
      "à¤ľà¤¸à¤¹": 6417,
      "Ġà¤¹à¤Łà¤²": 6418,
      "Ġà¤¦à¤²à¤µ": 6419,
      "à¤·à¤ľ": 6420,
      "à¤¬à¤ķà¤¡": 6421,
      "à¤¬à¤ªà¤°": 6422,
      "Ġà¤ľà¤«à¤°": 6423,
      "Ġà¤¬à¤²à¤°": 6424,
      "à¤ĸà¤°à¤£": 6425,
      "à¤¥à¤°à¤²": 6426,
      "à¤¥à¤ļà¤ķ": 6427,
      "Ġà¤ĺà¤¬à¤°": 6428,
      "Ġà¤ĺà¤¨à¤®": 6429,
      "Ġà¤ĺà¤¨à¤«": 6430,
      "Ġà¤ıà¤²à¤¸": 6431,
      "Ġà¤Ŀà¤¡à¤ª": 6432,
      "Ġà¤«à¤¨": 6433,
      "Ġà¤«à¤¤à¤µ": 6434,
      "Ġà¤¤à¤°à¤¡": 6435,
      "Ġà¤¤à¤°à¤¬": 6436,
      "Ġà¤ĩà¤Ĺ": 6437,
      "Ġà¤ĩà¤ľà¤°": 6438,
      "à¤ķà¤°à¤¶à¤¹": 6439,
      "à¤ķà¤¡à¥Ł": 6440,
      "Ġà¤¸à¤°à¤¡": 6441,
      "Ġà¤¸à¤°à¤«à¤°": 6442,
      "à¤¾,âĢĿ": 6443,
      "à¤°à¤¸à¤ļ": 6444,
      "à¤°à¤¸à¤°à¤ķ": 6445,
      "Ġà¤īà¤ªà¤¸à¤ļ": 6446,
      "..?": 6447,
      "à¤ħà¤«": 6448,
      "à¤ħà¤¸à¤²": 6449,
      "Ġà¤ĵà¤Ŀà¤°": 6450,
      "Ġà¤ªà¤¦à¤Ńà¤°à¤¤": 6451,
      "à¤¡à¤£à¤Ĺà¤¡": 6452,
      "à¤µà¤¨à¤µ": 6453,
      "Ġà¤ªà¤¤à¤ª": 6454,
      "Ġà¤ľà¤¨à¤Ĩà¤¶": 6455,
      "Ġà¤ħà¤ªà¤ļà¤¨": 6456,
      "à¤¦à¤¨à¤¹": 6457,
      "Ġ2024": 6458,
      "Ġ3000": 6459,
      "Ġà¤ľà¤°à¤¬": 6460,
      "Ġà¤Ĩà¤łà¤ļ": 6461,
      "...'": 6462,
      "à¥©à¥¦à¥¦": 6463,
      "à¥®à¥Ń": 6464,
      "Ġà¤¤à¤ªà¤®": 6465,
      "à¤īà¤ķ": 6466,
      "Ġà¤ħà¤²à¤®": 6467,
      "Ġà¥§à¥¯à¥«à¥¦": 6468,
      "Ġà¤Īà¤¤à¤°": 6469,
      "à¤ķà¤ļà¤ķ": 6470,
      "Ġà¤¢à¤³": 6471,
      "à¤Łà¤µà¤°à¤¹": 6472,
      "Ġà¥§à¥«à¥§": 6473,
      "ara": 6474,
      "Ġà¤²à¤¢à¤µà¤¯": 6475,
      "2017": 6476,
      "Ġà¤¨à¤Ĺà¤°à¤ķà¤°": 6477,
      "à¥¨à¥¦à¥¨à¥§": 6478,
      "Ġà¤ıà¤¨à¤¬": 6479,
      "à¤ľà¤£à¤Ĺ": 6480,
      "ork": 6481,
      "orp": 6482,
      "Ġà¥§à¥®à¥¦à¥¦": 6483,
      "Ġà¤ħà¤«à¤ľà¤²": 6484,
      "ĠCase": 6485,
      "ĠRate": 6486,
      "Ġà¤ħà¤¬à¤ķ": 6487,
      "Ġ149": 6488,
      "à¤¯à¤°à¤¸à¤²": 6489,
      "à¤²à¤®à¤ľ": 6490,
      "enc": 6491,
      "ham": 6492,
      "hay": 6493,
      "ire": 6494,
      "ĠLIVE": 6495,
      "ĠâĢ¦.": 6496,
      "elhi": 6497,
      "Ġà¤ĩà¤ķà¤¬": 6498,
      "ĠInd": 6499,
      "Ġby": 6500,
      "Ġà¥§à¥¯à¥¬à¥©": 6501,
      "ĠUddhav": 6502,
      "Ġà¥§à¥¯à¥ªà¥«": 6503,
      "ĠOT": 6504,
      "Ġ1992": 6505,
      "ĠJio": 6506,
      "Ġ1989": 6507,
      "Indian": 6508,
      "Ġà¤īà¤®à¤Łà¤µà¤£": 6509,
      "Ġà¤ļà¤®à¤ķà¤²": 6510,
      "à¤ĳà¤«à¤®à¤§": 6511,
      "Ġà¤ľà¤¯à¤¦à¤¤": 6512,
      "ĠRaut": 6513,
      "ongress": 6514,
      "ĠPatil": 6515,
      "à¤ħà¤¹à¤®à¤¦à¤¨à¤Ĺà¤°": 6516,
      "ĠPrev": 6517,
      "ĠCSK": 6518,
      "Ġà¤¹à¤°à¤®à¤¨à¤ª": 6519,
      "06": 6520,
      "300": 6521,
      "53": 6522,
      "BP": 6523,
      "II": 6524,
      "IM": 6525,
      "NG": 6526,
      "Sharad": 6527,
      "gan": 6528,
      "ips": 6529,
      "jit": 6530,
      "line": 6531,
      "à²": 6532,
      "Ġ]": 6533,
      "Ġle": 6534,
      "à¤°à¤Ŀ": 6535,
      "à¤¯à¤¬à¤°à¤ļ": 6536,
      "à¤¨à¤¦à¤°": 6537,
      "à¤¨à¤¨à¤Ĺà¤°": 6538,
      "à¤¸à¤¡": 6539,
      "à¤£à¤ĸ": 6540,
      "à¤£à¤¥à¤³": 6541,
      "à¤®à¤¬à¤°": 6542,
      "Ġà¤¸à¤¢à¤³": 6543,
      "Ġà¤ªà¤ļà¤µ": 6544,
      "Ġà¤ªà¤³à¤µà¤£": 6545,
      "à¥ĤâĢ¦": 6546,
      "à¤Ĺà¤¯": 6547,
      "à¤Ĺà¤ķà¤¡": 6548,
      "à¤Łà¤µà¤¤": 6549,
      "à¤Łà¤ĩ": 6550,
      "Ġà¤µà¤Ĺà¤°": 6551,
      "à¤ľà¤ķà¤°": 6552,
      "à¤ľà¤ĺà¤Łà¤ķ": 6553,
      "Ġà¤¹à¤°à¤¦": 6554,
      "Ġà¤¹à¤Ńà¤ª": 6555,
      "Ġà¤¨à¤ª": 6556,
      "à¤³à¤µà¤¡": 6557,
      "Ġà¤ľà¤³à¤£": 6558,
      "Ġà¤°à¤ĸà¤®": 6559,
      "Ġà¤¬à¤°à¤ļ": 6560,
      "Ġà¤¬à¤²à¤µ": 6561,
      "Ġà¤¬à¤«à¤°": 6562,
      "Ġà¤ķà¤°à¤µà¤¸": 6563,
      "à¤łà¤³": 6564,
      "Ġà¤²à¤µà¤²": 6565,
      "à¤¥à¤¯": 6566,
      "à¤Īà¤®à¤ª": 6567,
      "à¤¾.âĢĻâĢĻ": 6568,
      "Ġà¤«à¤°à¤¸": 6569,
      "à¤ĺà¤¶": 6570,
      "à¤µà¤¸à¤ħà¤ĸ": 6571,
      "à¤ķà¤°à¤¦à¤¨": 6572,
      "à¤Ĭà¤ľ": 6573,
      "Ġà¤¸à¤°à¤³à¤¸": 6574,
      "à¤Ŀà¤°à¤¨": 6575,
      "à¤µà¤¡à¤°à¤ļ": 6576,
      "à¤ıà¤°": 6577,
      "à¤ıà¤ķà¤¡": 6578,
      "à¤Ĺà¤°à¤°": 6579,
      "à¤Łà¤²à¤¨": 6580,
      "à¤¬à¤Īà¤¤à¤ļ": 6581,
      "à¤Łà¤¨à¤¹": 6582,
      "à¤¸à¤¨à¤¤": 6583,
      "Ġà¤īà¤¦à¤¯à¤¸": 6584,
      "Ġà¤īà¤¦à¤¯à¤ª": 6585,
      "à¤²à¤¨à¤ª": 6586,
      "à¤ĩà¤¬": 6587,
      "à¤°à¤ĸà¤ª": 6588,
      "à¤ĵà¤ķà¤¡": 6589,
      "à¤ħà¤°à¤¹": 6590,
      "Ġà¤ħà¤ľà¤®à¤²": 6591,
      "à¤ļà¤²à¤°": 6592,
      "Ġà¥«à¥«à¥¦": 6593,
      "à¤¸à¤®à¤Ł": 6594,
      "Ġà¥ªà¥¨à¥¦": 6595,
      "à¤ªà¤²à¤µ": 6596,
      "à¤Łà¤¤à¤¯": 6597,
      "à¥¬à¥¦à¥¦": 6598,
      "à¤īà¤¡à¤µ": 6599,
      "Ġà¤µà¤¸à¤Īà¤ļ": 6600,
      "Ġà¤ľà¤Ĺà¤¨à¤®": 6601,
      "à¤¤à¤¨à¤¶": 6602,
      "Ġà¤ķà¤ªà¤Ł": 6603,
      "à¤ıà¤¸à¤ıà¤«": 6604,
      "à¤¨à¤°à¤µà¤°": 6605,
      "Ġà¤Ńà¤°à¤Ĺà¤ļ": 6606,
      "Ġà¤Īà¤¥": 6607,
      "Ġ750": 6608,
      "Ġà¤ľà¤¬à¤¡": 6609,
      "Ġ106": 6610,
      "à¤¡à¤°à¤°": 6611,
      "Ġà¥§à¥«à¥«": 6612,
      "ĠSu": 6613,
      "ĠShar": 6614,
      "Ġ!!!": 6615,
      "à¤¯à¤£à¤Ĺ": 6616,
      "ĠAM": 6617,
      "Ġ256": 6618,
      "à¤¾!âĢĻ": 6619,
      "Ġà¤Ĳà¤ķà¤µà¤²": 6620,
      "Ġà¤ķà¤³à¤¸à¤ķà¤°": 6621,
      "Ġà¤ķà¤ªà¤¡à¥Ł": 6622,
      "Ġà¤ĭà¤Ĺ": 6623,
      "Ġà¤ľà¤¸à¤ľà¤¶": 6624,
      "Ġà¤ıà¤²à¤«": 6625,
      "Ġà¤įà¤²": 6626,
      "Ġmar": 6627,
      "urder": 6628,
      "Ġà¥¦à¥§": 6629,
      "ĠKolhapur": 6630,
      "ĠFD": 6631,
      "Ġà¤¶à¤ªà¤¥à¤ªà¤¤": 6632,
      "Ġà¤Ĺà¤µà¤Ī": 6633,
      "ote": 6634,
      "Ġà¤Ĺà¤ľà¤Ń": 6635,
      "avis": 6636,
      "ĠUIDAI": 6637,
      "à¤¾\",": 6638,
      "Ġ1993": 6639,
      "????": 6640,
      "ocal": 6641,
      "à¤¤à¤Ńà¤Ł": 6642,
      "Ġà¤µà¤ļà¤¨à¤¨": 6643,
      "ĠXUV": 6644,
      "Ġà¤ıà¤¨à¤Ĩà¤¯à¤ıà¤ļ": 6645,
      "PFO": 6646,
      "PCR": 6647,
      "ology": 6648,
      "ĠNagpur": 6649,
      "ĠPrevious": 6650,
      "74": 6651,
      "88": 6652,
      "93": 6653,
      "NE": 6654,
      "SA": 6655,
      "Sanjay": 6656,
      "ain": 6657,
      "hon": 6658,
      "hil": 6659,
      "ke": 6660,
      "rol": 6661,
      "uj": 6662,
      "à¥Ĩ": 6663,
      "à¥Ĭ": 6664,
      "à¥ķ": 6665,
      "à¤¾âĢĿ,": 6666,
      "à¥ĢâĢĵ": 6667,
      "à¤²à¤¬à¤¦": 6668,
      "à¤²à¤®à¤°": 6669,
      "à¤¨à¤°à¤¸": 6670,
      "à¤¨à¤¤à¤®": 6671,
      "à¤¨à¤ªà¤Ł": 6672,
      "à¤ķà¤¦à¤µ": 6673,
      "à¤ķà¤ªà¤Ł": 6674,
      "à¤µà¤ķà¤²": 6675,
      "à¤µà¤ļà¤²": 6676,
      "Ġà¤ķà¤Łà¤°": 6677,
      "à¤®à¤²à¤¤": 6678,
      "Ġà¤¸à¤¬à¤²": 6679,
      "Ġà¤®à¤ĸ": 6680,
      "à¤¾à¤Ĥ,": 6681,
      "à¤ªà¤Łà¤°": 6682,
      "à¤ªà¤²à¤¨": 6683,
      "à¤ªà¤¸à¤¹": 6684,
      "à¤¦à¤°à¤ķ": 6685,
      "Ġà¤ħà¤¡à¤¤": 6686,
      "Ġà¤ħà¤ļà¤²": 6687,
      "à¤ľà¤ĸ": 6688,
      "à¤ľà¤®à¤¨": 6689,
      "Ġà¤¹à¤®à¤¸": 6690,
      "Ġà¤¦à¤ļ": 6691,
      "Ġà¤¦à¤®à¤²": 6692,
      "à¤¬à¤¬": 6693,
      "à¤¬à¤°à¤µ": 6694,
      "à¤¬à¤°à¤¸": 6695,
      "Ġà¤°à¤®à¤¤": 6696,
      "Ġà¤°à¤£à¤¸": 6697,
      "Ġà¤¬à¤°à¤£": 6698,
      "Ġà¤¬à¤ĸà¤°": 6699,
      "Ġà¤ļà¤ķà¤¤": 6700,
      "à¤Ńà¤°à¤ķà¤°": 6701,
      "Ġà¤īà¤Ĺà¤²": 6702,
      "Ġà¤ıà¤²à¤¨": 6703,
      "Ġà¤ıà¤¨à¤ķ": 6704,
      "Ġà¤ĸà¤µà¤¯": 6705,
      "Ġà¤ıà¤ķà¤¸à¤®": 6706,
      "Ġà¤Ĩà¤²à¤®": 6707,
      "à¤°à¤£à¤Ĺ": 6708,
      "Ġà¤¤à¤°à¤¤à¤°": 6709,
      "à¤¹à¤£à¤¨": 6710,
      "à¤¹à¤£à¤ķà¤°": 6711,
      "à¤ĺà¤³à¤£": 6712,
      "Ġà¤ĩà¤¸à¤µ": 6713,
      "à¤ªà¤°à¤µà¤°": 6714,
      "Ġà¤§à¤£": 6715,
      "Ġà¤ħà¤¨à¤ĺ": 6716,
      "ĠâĢĶ": 6717,
      "à¤¯à¤®à¤¹": 6718,
      "à¤Ŀà¤Ĺ": 6719,
      "à¤Ŀà¤®à¤ļ": 6720,
      "à¤Ĺà¤²à¤ª": 6721,
      "à¤¬à¤°à¤¦à¤°à¤®": 6722,
      "à¤ľà¤¨à¤¤": 6723,
      "Ġà¤¸à¤°à¤ķà¤°": 6724,
      "à¥ĭ.)": 6725,
      "Ġ220": 6726,
      "à¤¶à¤¨à¤ªà¤°": 6727,
      "Ġà¤ķà¤®à¤µà¤£": 6728,
      "à¤ľà¤ªà¤ķ": 6729,
      "à¤®à¤¤à¤¹": 6730,
      "à¤ĩà¤ļ": 6731,
      "Ġà¤®à¤¤à¤ķà¤°": 6732,
      "à¤µà¤¨à¤¯": 6733,
      "à¤¯à¤¦à¤ķ": 6734,
      "à¤¯à¤¨à¤®à¤¸": 6735,
      "à¤ĵà¤¥": 6736,
      "à¤·à¤¯à¤¹": 6737,
      "à¤¬à¤²à¤®à¤§": 6738,
      "Ġà¤Ķà¤ķ": 6739,
      "Ġà¥§à¥¯à¥©à¥¦": 6740,
      "âĢ¦âĢĻ": 6741,
      "à¤ļà¤°à¤®à¤§": 6742,
      "Ġà¤Īà¤¤à¤ķ": 6743,
      "Ġà¥§à¥¦à¥©": 6744,
      "Ġà¥§à¥¦à¥Ń": 6745,
      "Ġà¤ªà¤Łà¤¸": 6746,
      "Ġà¤¶à¤¹à¤°à¤ª": 6747,
      "Ġ1947": 6748,
      "Ġà¥§à¥¨à¥©": 6749,
      "Ġà¥§à¥¨à¥¯": 6750,
      "Ġ156": 6751,
      "Ġ123": 6752,
      "ĠMal": 6753,
      "ĠMedia": 6754,
      "Ġ!\"": 6755,
      "ĠCR": 6756,
      "ĠCovid": 6757,
      "Ġ112": 6758,
      "Ġ116": 6759,
      "Ġ119": 6760,
      "à¤ıà¤¨à¤ıà¤ļ": 6761,
      "à¤ªà¤¡à¥Ł": 6762,
      "à¤¼à¥Ģ": 6763,
      "Ġà¤¤à¤³à¤¹": 6764,
      "Ġà¥§à¥Ńà¥¦": 6765,
      "Ġ162": 6766,
      "Ġà¤ªà¤³à¤¸": 6767,
      "Ġà¤¸à¤£à¤¸à¤£": 6768,
      "Ġà¤§à¤¡à¤§": 6769,
      "à¤¬à¤Łà¤¯": 6770,
      "Ġà¥¨à¥®à¥®": 6771,
      "Ġ260": 6772,
      "Ġà¤¦à¤¶à¤ķà¤Ńà¤°": 6773,
      "ĠLe": 6774,
      "ĠReal": 6775,
      "à¤¨à¤Īà¤®à¤§": 6776,
      "Ġà¤Ĺà¤²à¤¥": 6777,
      "ace": 6778,
      "Ġà¤¸à¤¬à¤ķ": 6779,
      "Ġà¥©à¥¬à¥¦": 6780,
      "Ġà¥§à¥§à¥Ń": 6781,
      "à¤¤à¤¶à¤¤": 6782,
      "ctor": 6783,
      "ĠOne": 6784,
      "ivo": 6785,
      "à¥ĩ\",": 6786,
      "ign": 6787,
      "Ġà¤¢à¤µà¤³à¤¤": 6788,
      "à¤²à¤¢à¤ķà¤²": 6789,
      "à¤²à¤ĺà¤°à¤ļ": 6790,
      "udget": 6791,
      "Ġà¤²à¤ĸà¤¨à¤Ĭà¤®à¤§": 6792,
      "================================================================": 6793,
      "ĠAnd": 6794,
      "Ġà¤µà¤°à¤£à¤Ĺ": 6795,
      "à¤®à¤¸à¤®à¤°": 6796,
      "ĠCCTV": 6797,
      "\")": 6798,
      "87": 6799,
      "AC": 6800,
      "Dev": 6801,
      "NS": 6802,
      "ection": 6803,
      "oj": 6804,
      "oor": 6805,
      "Ġ++++++++++++++++++++++++++++++++": 6806,
      "Ġapp": 6807,
      "Ġà¤£": 6808,
      "à¥įà¤¼": 6809,
      "à¥ĩà¥į": 6810,
      "à¤¯à¤ªà¤¨": 6811,
      "à¤²à¤µà¤¸": 6812,
      "à¤²à¤ľà¤µà¤³": 6813,
      "à¤ļà¤§": 6814,
      "à¥ĭâĢĿ": 6815,
      "à¥ĭâĢĻ,": 6816,
      "à¤®à¤¸à¤°": 6817,
      "à¤®à¤Ńà¤°": 6818,
      "Ġà¤¸à¤Ĺ": 6819,
      "Ġà¤¸à¤¡à¤ª": 6820,
      "Ġà¤ªà¤ļà¤µà¤£": 6821,
      "à¥Ĥ\"": 6822,
      "à¤Ĺà¤ªà¤°": 6823,
      "à¤Ĺà¤®à¤°": 6824,
      "à¤Łà¤®à¤ļ": 6825,
      "à¤Łà¤°à¤¸à¤¹": 6826,
      "Ġà¤µà¤¦": 6827,
      "Ġà¤µà¤²à¤¯": 6828,
      "à¤§à¤Ł": 6829,
      "à¤§à¤¬": 6830,
      "Ġà¤¨à¤®à¤¨": 6831,
      "Ġà¤¨à¤Ĺà¤¦": 6832,
      "Ġà¤¦à¤¬à¤²": 6833,
      "à¤·à¤ķà¤°": 6834,
      "à¤·à¤±": 6835,
      "Ġà¤ľà¤³à¤²": 6836,
      "Ġà¤°à¤¨à¤µà¤°": 6837,
      "Ġà¤°à¤Īà¤¸": 6838,
      "Ġà¤ħà¤¸à¤¶": 6839,
      "Ġà¤ħà¤¸à¤®à¤¤": 6840,
      "à¤łà¤®à¤²": 6841,
      "Ġà¤īà¤Ŀà¤¬": 6842,
      "à¤Īà¤Ĺà¤¡": 6843,
      "Ġà¤ıà¤ķà¤ķ": 6844,
      "Ġà¤Ĩà¤²à¤¬": 6845,
      "à¤ĺà¤Ĺà¤°": 6846,
      "à¥Ī-": 6847,
      "à¥Ī:": 6848,
      "à¤ķà¤°à¤µà¤°": 6849,
      "à¤«à¤Ł": 6850,
      "Ġà¤¡à¤¸": 6851,
      "à¥¦à¥©": 6852,
      "Ġà¤§à¤°à¤ª": 6853,
      "Ġà¤§à¤Ĺà¤§": 6854,
      "à¤µà¤£à¤ķ": 6855,
      "à¤¯à¤®à¤¶": 6856,
      "à¤Ŀà¤°à¤®à¤§": 6857,
      "à¤Ĺà¤²à¤µ": 6858,
      "à¤Ĺà¤²à¤Ł": 6859,
      "à¤¦à¤°à¤°": 6860,
      "à¤·à¤£à¤ķà¤°": 6861,
      "à¤ıà¤¬à¤²": 6862,
      "à¤ľà¤¨à¤µ": 6863,
      "à¤ħà¤Ł": 6864,
      "à¤¶à¤¨à¤ķà¤¡": 6865,
      "à¤¶à¤¨à¤ľà¤µà¤³": 6866,
      "à¤Ĥ.'": 6867,
      "à¤Ĥ.âĢĿ": 6868,
      "à¤Ĩà¤Ĭ": 6869,
      "à¤Ĩà¤°à¤µ": 6870,
      "à¤Łà¤°à¤¨à¤²": 6871,
      "à¤µà¤³à¤ķà¤°": 6872,
      "à¤µà¤³à¤¸à¤°": 6873,
      "à¤Īà¤²à¤²": 6874,
      "Ġà¤Ĩà¤¯à¤¨": 6875,
      "Ġà¤ĵà¤ıà¤¨à¤ľ": 6876,
      "à¤®à¤¤à¤¦": 6877,
      "à¤ĩà¤¡à¤ļ": 6878,
      "à¤¸à¤¹à¤ķ": 6879,
      "Ġà¤ħà¤®à¤²à¤¬à¤ľ": 6880,
      "Ġà¥¨à¥¦à¥¨à¥ª": 6881,
      "à¤ľà¤¯à¤¶": 6882,
      "à¤ľà¤¯à¤µà¤°": 6883,
      "à¤ĵà¤°": 6884,
      "Ġ4000": 6885,
      "Ġà¤Ĳà¤ļ": 6886,
      "Ġà¤ĳà¤«à¤°à¤ļ": 6887,
      "à¤ķà¤Łà¤µ": 6888,
      "à¤µà¤°à¤£à¤®": 6889,
      "à¤ıà¤®à¤Ĩà¤°à¤¨": 6890,
      "à¤¿.,": 6891,
      "Ġà¤Ĩà¤Īà¤µà¤°": 6892,
      "à¤ĩà¤¨à¤µà¤°": 6893,
      "Ġà¤¨à¤¸à¤¬": 6894,
      "Ġà¤¢à¤®": 6895,
      "Ġ1950": 6896,
      "Ġà¥§à¥¨à¥¬": 6897,
      "à¥¨à¥¦à¥§à¥§": 6898,
      "atus": 6899,
      "Ġà¤ķà¤¡à¤¬": 6900,
      "Ġ124": 6901,
      "ĠMH": 6902,
      "ĠCB": 6903,
      ".......": 6904,
      "Ġ115": 6905,
      "à¥Ģ'.": 6906,
      "à¤¾!!": 6907,
      "Ġà¥§à¥Ńà¥«": 6908,
      "à¤ķà¤®à¤§à¤²": 6909,
      "Ġ132": 6910,
      "à¤ıà¤ļà¤ĵ": 6911,
      "ĠBy": 6912,
      "Ġà¤ªà¤²à¤Łà¤£": 6913,
      "ĠTH": 6914,
      "ases": 6915,
      "ise": 6916,
      "à¤ĸà¤¡à¥Ł": 6917,
      "à¤³à¤¸à¤ķà¤°": 6918,
      "Ġà¤¨à¤Ĭà¤ļ": 6919,
      "à¤¾âĢ¦.": 6920,
      "Ġsp": 6921,
      "ilway": 6922,
      "Ġpol": 6923,
      "à¤¯à¤¨à¤²à¤ļ": 6924,
      "Ġbe": 6925,
      "à¤¾\".": 6926,
      "umar": 6927,
      "Ġ1996": 6928,
      "hane": 6929,
      "igg": 6930,
      "++++++++++++++++++++": 6931,
      "tern": 6932,
      "Ġà¤ıà¤¨à¤Ĩà¤¯à¤ıà¤¨": 6933,
      "++++++++++++++++++++++++++++++++++++++++++++++++++++": 6934,
      "Ġà¤«à¤¡à¤ķà¤²": 6935,
      "accination": 6936,
      "Ġà¤®à¤¦à¤°à¤¶": 6937,
      "Ġà¤ıà¤ıà¤¨à¤Ĩà¤¯": 6938,
      "à¤ıà¤¸à¤ıà¤¨à¤ıà¤²à¤ļ": 6939,
      "Ġà¤Ķà¤·à¤§à¤¨": 6940,
      "gaon": 6941,
      "ĠNarendra": 6942,
      "hindra": 6943,
      "adnavis": 6944,
      "Ġ++++++++++++++++++++++++++++++++++++++++++++++++++++++++++++++++++++++++++++++++++++": 6945,
      "Ġà¤§à¤°à¤ªà¤ķà¤¡": 6946,
      ".-": 6947,
      "61": 6948,
      "72": 6949,
      "700": 6950,
      "Ad": 6951,
      "BS": 6952,
      "Read": 6953,
      "Ta": 6954,
      "Too": 6955,
      "WHO": 6956,
      "view": 6957,
      "yl": 6958,
      "yst": 6959,
      "Ġam": 6960,
      "à¤¾à¥į": 6961,
      "à¤°à¤Ĩ": 6962,
      "à¤¤à¤§": 6963,
      "à¤¯à¤ĸ": 6964,
      "à¤¯à¤¸à¤®": 6965,
      "à¤¿à¥ĩ": 6966,
      "à¤¨à¤°à¤ĸ": 6967,
      "à¤ķà¤¤à¤°": 6968,
      "à¤ķà¤¨à¤Ĺà¤°": 6969,
      "à¤¹à¤Łà¤ķà¤°": 6970,
      "à¤£à¤ķà¤¡": 6971,
      "à¥Ĥ..": 6972,
      "à¤Łà¤ĺà¤°": 6973,
      "Ġà¤µà¤°à¤ķà¤°à¤£": 6974,
      "Ġà¤¹à¤°à¤¸": 6975,
      "Ġà¤¹à¤Łà¤£": 6976,
      "Ġà¤¨à¤ļ": 6977,
      "Ġà¤¨à¤°à¤µà¤£": 6978,
      "Ġà¤°à¤®à¤¨": 6979,
      "Ġà¤¬à¤³à¤µ": 6980,
      "à¤¥à¤¬": 6981,
      "Ġà¤ıà¤¡à¤µà¤°": 6982,
      "âĢķ": 6983,
      "Ġà¤ĸà¤µà¤³à¤²": 6984,
      "Ġà¤ıà¤ķà¤Łà¥Ł": 6985,
      "Ġà¤®à¤¹à¤²": 6986,
      "Ġà¤Łà¤µ": 6987,
      "à¤¯à¤ķà¤²à¤¸": 6988,
      "Ġà¤ªà¤°à¤ľ": 6989,
      "Ġà¤ªà¤°à¤®à¤µ": 6990,
      "à¤°à¤®à¤Ĺà¤¡": 6991,
      "à¤«à¤¡à¤£à¤µ": 6992,
      "à¤ªà¤°à¤ĸ": 6993,
      "à¤µà¤²à¤ļ": 6994,
      "Ġà¤ħà¤¶à¤°à¤«": 6995,
      "Ġ(\"": 6996,
      "Ġ()": 6997,
      "à¤Ŀà¤²à¤ĸ": 6998,
      "Ġà¤īà¤ªà¤ħà¤Ń": 6999,
      "à¤·à¤£à¤ª": 7000,
      "à¤¸à¤°à¤³": 7001,
      "à¤ıà¤²à¤¬": 7002,
      "à¤ħà¤¯": 7003,
      "à¤¶à¤¨à¤¤à¤°": 7004,
      "à¤¶à¤¨à¤¸à¤¹": 7005,
      "à¤ªà¤¨à¤²": 7006,
      "à¤Ĩà¤¦à¤°": 7007,
      "à¤¤à¤ķà¤¥": 7008,
      "à¤Łà¤°à¤¡": 7009,
      "à¤¹à¤°à¤µà¤°": 7010,
      "Ġà¤ķà¤®à¤µà¤¤": 7011,
      "à¤²à¤ķà¤ļ": 7012,
      "à¤®à¤¨à¤µà¤®": 7013,
      "Ġà¤®à¤¨à¤°": 7014,
      "Ġà¤®à¤¨à¤¦": 7015,
      "à¤ĩà¤ªà¤²": 7016,
      "à¤°à¤ľà¤²": 7017,
      "Ġà¤ħà¤®à¤°à¤¸": 7018,
      "Ġà¤ľà¤¨à¤¸à¤®": 7019,
      "Ġà¤ħà¤ªà¤Ĺ": 7020,
      "à¤ĵà¤³à¤ĸ": 7021,
      "Ġà¤¸à¤ķà¤ª": 7022,
      "à¤¤à¤ªà¤Ł": 7023,
      "à¤°à¤¹à¤¸": 7024,
      "Ġà¤ıà¤®à¤ıà¤ıà¤ļ": 7025,
      "à¤Ĩà¤¯à¤Ĩà¤¯": 7026,
      "Ġà¤Ńà¤°à¤¡": 7027,
      "Ġà¤Ńà¤°à¤°à¤¸": 7028,
      "à¤łà¤²à¤°": 7029,
      "à¥Ģ)-": 7030,
      "Ġà¤Ĩà¤Īà¤¶": 7031,
      "à¤®à¤²à¤·": 7032,
      "Ġà¤¸à¤ļà¤¦": 7033,
      "à¤°à¤¯à¤·": 7034,
      "Ġà¤¦à¤²à¤¦à¤²": 7035,
      "Ġà¥§à¥«à¥ª": 7036,
      "ons": 7037,
      "Ġà¥§à¥¨à¥§": 7038,
      "à¥¨à¥¦à¥§à¥¯": 7039,
      "à¥¨à¥¦à¥§à¥¬": 7040,
      "Ġ??": 7041,
      "Ġà¤īà¤¤à¤°à¤µà¤¤": 7042,
      "Ġà¤ľà¤¯à¤µà¤°": 7043,
      "ĠMC": 7044,
      "à¤°à¤¡à¥Ł": 7045,
      "ĠPar": 7046,
      "ĠPay": 7047,
      "ĠCourt": 7048,
      "à¤ıà¤«à¤ıà¤¸": 7049,
      "ĠAt": 7050,
      "Ġà¥§à¥¬à¥¨": 7051,
      "Ġà¥§à¥©à¥Ń": 7052,
      "à¤¬à¤¡à¥Ł": 7053,
      "Ġà¤µà¤ľà¤¨à¤¦": 7054,
      "à¤¨à¤¶à¤°": 7055,
      "ĠBMC": 7056,
      "Ġ210": 7057,
      "Ġà¥¨à¥§à¥¦": 7058,
      "Ġà¤ľà¤²à¤¸à¤®": 7059,
      "Ġà¥¨à¥Ńà¥¦": 7060,
      "unt": 7061,
      "ions": 7062,
      "Ġmin": 7063,
      "ĠRec": 7064,
      "Ġà¤§à¤¡à¤ķà¤£": 7065,
      "Ġ288": 7066,
      "Ġcl": 7067,
      "ama": 7068,
      "ame": 7069,
      "ĠFor": 7070,
      "hip": 7071,
      "reat": 7072,
      "Ġà¥§à¥¯à¥¬à¥§": 7073,
      "Ġfl": 7074,
      "Ġâĸ": 7075,
      "Ġà¤ļà¤®à¤ķà¤£": 7076,
      "igh": 7077,
      "Ġà¤Ńà¤¡à¤ķà¤µà¤£": 7078,
      "angana": 7079,
      "Ġà¤ķà¤¡à¤µà¤Ł": 7080,
      "Ġà¤Ĩà¤īà¤Łà¤²": 7081,
      "ube": 7082,
      "à¤įà¤²": 7083,
      "Ġà¤Ŀà¤Ĺà¤¡à¤¤": 7084,
      "ĠApple": 7085,
      "Ġà¤ıà¤¨à¤Ĩà¤¯à¤ıà¤ķà¤¡": 7086,
      "à¤ħà¤¹à¤®à¤¦": 7087,
      "Ġà¤§à¤¨à¤ķà¤µà¤¡": 7088,
      "MeToo": 7089,
      "%,": 7090,
      "600": 7091,
      "79": 7092,
      "94": 7093,
      "AM": 7094,
      "Am": 7095,
      "Amit": 7096,
      "CM": 7097,
      "EE": 7098,
      "Phone": 7099,
      "eat": 7100,
      "gh": 7101,
      "hul": 7102,
      "ool": 7103,
      "ron": 7104,
      "zw": 7105,
      "ÃĹ": 7106,
      "àµ": 7107,
      "Ġ<": 7108,
      "Ġ\\": 7109,
      "Ġad": 7110,
      "Ġex": 7111,
      "Ġher": 7112,
      "à¤¾à¥Ģ": 7113,
      "à¥į/": 7114,
      "à¤°à¤Łà¥Ł": 7115,
      "à¤¯à¤¤à¤°": 7116,
      "à¤¯à¤¸à¤²": 7117,
      "à¤²à¤¡à¤¬": 7118,
      "à¤¨à¤¸à¤ļ": 7119,
      "à¤ĤâĢĿ": 7120,
      "à¤¸à¤®à¤ķ": 7121,
      "à¤¸à¤µà¤°à¤ļ": 7122,
      "à¤¸à¤ªà¤ļ": 7123,
      "à¤¸à¤į": 7124,
      "à¤£à¤ķà¤Ł": 7125,
      "Ġà¤ķà¤¨à¤ķ": 7126,
      "Ġà¤Ĩà¤ľà¤¨": 7127,
      "Ġà¤Ĩà¤¸à¤µ": 7128,
      "Ġà¤Ĩà¤¡à¤Ĺ": 7129,
      "à¤®à¤¹à¤°": 7130,
      "à¤®à¤²à¤²": 7131,
      "Ġà¤¸à¤°à¤µ": 7132,
      "Ġà¤¸à¤¡à¤²": 7133,
      "Ġà¤®à¤«": 7134,
      "Ġà¤®à¤³à¤²": 7135,
      "à¤ªà¤ĸ": 7136,
      "à¤ªà¤®à¤¤": 7137,
      "à¤¦à¤µà¤ļ": 7138,
      "Ġà¤ħà¤Ĺà¤£": 7139,
      "à¤Ĺà¤°à¤¸": 7140,
      "à¤Ĺà¤®à¤ª": 7141,
      "Ġà¤µà¤°à¤µ": 7142,
      "à¤ľà¤¯à¤²": 7143,
      "à¤ľà¤ķà¤²": 7144,
      "à¤§à¤Ń": 7145,
      "Ġà¤¦à¤ĸ": 7146,
      "Ġà¤¦à¤¡à¤µ": 7147,
      "à¤¶à¤ķà¤¡": 7148,
      "à¤¶à¤¸à¤¹": 7149,
      "à¤¶à¤²à¤ļ": 7150,
      "à¤·à¤²à¤Ĺ": 7151,
      "à¤¬à¤ĺ": 7152,
      "Ġà¤ķà¤°à¤¶": 7153,
      "Ġà¤ħà¤¸à¤¨": 7154,
      "Ġà¤²à¤ĸà¤²": 7155,
      "Ġà¤Ńà¤µà¤¤": 7156,
      "Ġà¤ļà¤ķà¤ļà¤ķ": 7157,
      "Ġà¤ıà¤®à¤ķ": 7158,
      "Ġà¤ıà¤ļà¤ª": 7159,
      "à¤Īà¤¯": 7160,
      "à¤Īà¤¨à¤²": 7161,
      "à¤Īà¤ķà¤¸": 7162,
      "Ġà¤ĸà¤°à¤®à¤°": 7163,
      "Ġà¤Łà¤®": 7164,
      "à¤¹à¤£à¤µà¤£": 7165,
      "à¥ĥ.": 7166,
      "à¤µà¤¸à¤ļ": 7167,
      "à¤«à¤°à¤ļ": 7168,
      "à¤«à¤°à¤²": 7169,
      "Ġà¤¡à¥Ł": 7170,
      "Ġà¤¸à¤°à¤¹à¤¦": 7171,
      "Ġà¤µà¤°à¤µà¤°à¤ļ": 7172,
      "à¤Ĺà¤²à¤²": 7173,
      "à¤¦à¤°à¤¬": 7174,
      "à¥ĭ.âĢĻâĢĻ": 7175,
      "Ġà¤Ĩà¤ľà¤°": 7176,
      "à¤ħà¤ªà¤°": 7177,
      "à¤¯à¤²à¤¢": 7178,
      "à¤Ĺà¤³à¤¤": 7179,
      "à¤¸à¤¨à¤ķà¤°": 7180,
      "Ġà¤¸à¤¹à¤ķà¤²": 7181,
      "à¤²à¤ķà¤¹": 7182,
      "Ġà¤īà¤¦à¤¯à¤¨": 7183,
      "Ġà¤¹à¤ľà¤°à¤¤": 7184,
      "à¤²à¤¨à¤¸": 7185,
      "Ġà¤ĵà¤°à¤ĸ": 7186,
      "Ġà¤®à¤¨à¤ľ": 7187,
      "Ġà¤ªà¤¦à¤¸": 7188,
      "à¤ĩà¤ķà¤ļ": 7189,
      "Ġà¤ľà¤¨à¤§à¤¨": 7190,
      "à¤¹à¤¨à¤¨": 7191,
      "Ġà¥©à¥¨à¥¦": 7192,
      "Ġà¤Ĩà¤¦à¤³": 7193,
      "Ġà¤¸à¤§à¤¨": 7194,
      "à¤ħà¤°à¤¡": 7195,
      "Ġà¤°à¤¸à¤Ĺ": 7196,
      "Ġà¤ľà¤®à¤¦à¤Ĺ": 7197,
      "à¥¯à¥¦à¥¦": 7198,
      "Ġà¤¬à¤¸à¤Ĺ": 7199,
      "Ġà¤ħà¤µà¤¹": 7200,
      "à¤³à¤µà¤Ł": 7201,
      "à¤Ĺà¤µà¤Ł": 7202,
      "Ġà¤¯à¤¶à¤°": 7203,
      "à¤ıà¤¸à¤¯": 7204,
      "à¤Ńà¤µà¤¹": 7205,
      "Ġà¤ıà¤ķà¤¦à¤®à¤ļ": 7206,
      "Ġà¤īà¤²à¤Łà¤¤": 7207,
      "Ġ6000": 7208,
      "Ġ650": 7209,
      "Ġà¤ıà¤¸à¤Īà¤¬": 7210,
      "à¤ıà¤®à¤Ĩà¤°à¤ļ": 7211,
      "Ġà¤ĩà¤¨à¤¬": 7212,
      "Ġà¤ªà¤¡à¤µà¤³": 7213,
      "Ġà¥§à¥¨à¥ª": 7214,
      "orn": 7215,
      "ĠMan": 7216,
      "ĠMar": 7217,
      "ĠMand": 7218,
      "ĠSMS": 7219,
      "à¤¯à¤£à¤¨": 7220,
      "ĠPl": 7221,
      "ĠCard": 7222,
      "ĠRane": 7223,
      "Ġà¥¨à¥«à¥¬": 7224,
      "Ġ118": 7225,
      "Ġà¥§à¥ªà¥¦à¥¦": 7226,
      "à¤ıà¤¨à¤Ĩà¤¯à¤ı": 7227,
      "Ġà¤°à¤£à¤¶": 7228,
      "Ġà¤«à¤³à¤Ŀ": 7229,
      "ĠAg": 7230,
      "à¤·à¤®à¤ªà¤£": 7231,
      "à¤Łà¥Łà¤ª": 7232,
      "raj": 7233,
      "rak": 7234,
      "ĠVi": 7235,
      "ĠVivo": 7236,
      "Ġà¤ķà¤³à¤¤à¤ļ": 7237,
      "à¤ĳà¤Ł": 7238,
      "à¤°à¤Łà¤¯": 7239,
      "ushant": 7240,
      "ĠDe": 7241,
      "Ġà¤¬à¤¡à¥Ł": 7242,
      "ĠLPG": 7243,
      "à¥Ģ:-": 7244,
      "Ġà¥¦à¥©": 7245,
      "Ġà¤¸à¤«à¤¦à¤°": 7246,
      "ĠGST": 7247,
      "ĠGovernment": 7248,
      "Ġà¥§à¥¯à¥®à¥§": 7249,
      "Ġà¥©à¥«à¥ª": 7250,
      "harat": 7251,
      "à¤¹à¤ļà¤µà¤²": 7252,
      "Ġà¥§à¥¯à¥¬à¥ª": 7253,
      "Ġà¥§à¥¯à¥¬à¥Ń": 7254,
      "Ġà¤ĸà¤¡à¤ķà¤ª": 7255,
      "ĠOf": 7256,
      "ĠâĹ": 7257,
      "Ġà¤¨à¤µà¤²à¤ĸ": 7258,
      "Ġde": 7259,
      "Ġà¥§à¥¯à¥«à¥¨": 7260,
      "Ġà¥§à¥¯à¥«à¥¯": 7261,
      "chn": 7262,
      "Ġ1985": 7263,
      "Ġoff": 7264,
      "Ġ......": 7265,
      "Ġà¤ħà¤¸à¤¹à¤®à¤¤": 7266,
      "ope": 7267,
      "Ġres": 7268,
      "Ġà¤¬à¤°à¤¸à¤£": 7269,
      "ĠMahindra": 7270,
      "Ġà¤¨à¤¯à¤¨à¤°à¤®": 7271,
      "à¤Ķà¤·à¤§": 7272,
      "obile": 7273,
      "Ġà¤ĸà¤Łà¤ķà¤¤": 7274,
      "Ġ-------------------------": 7275,
      "Ġà¤¤à¤¡à¤«à¤¡": 7276,
      "à¤ıà¤¸à¤ıà¤²à¤µ": 7277,
      "ontin": 7278,
      "à¤ıà¤¸à¤ıà¤¨à¤ıà¤²": 7279,
      "à¤°à¤Ĺà¤³à¤²": 7280,
      "ĠMinister": 7281,
      "ĠShah": 7282,
      "Ġà¤Ĩà¤°à¤ıà¤¸à¤ıà¤¸à¤ļ": 7283,
      "PEC": 7284,
      "à¤Īà¤Ĺà¤¡à¤¬à¤¡": 7285,
      "Ġà¤§à¤Ĺà¤§à¤Ĺà¤¤": 7286,
      ".''": 7287,
      "91": 7288,
      "AD": 7289,
      "CS": 7290,
      "New": 7291,
      "OT": 7292,
      "PR": 7293,
      "RBI": 7294,
      "Sa": 7295,
      "Social": 7296,
      "ail": 7297,
      "ahe": 7298,
      "day": 7299,
      "ka": 7300,
      "mart": 7301,
      "nath": 7302,
      "sena": 7303,
      "ty": 7304,
      "wad": 7305,
      "wali": 7306,
      "yan": 7307,
      "ÂĴ": 7308,
      "Ġan": 7309,
      "Ġun": 7310,
      "à¤©": 7311,
      "Ġà¤¾": 7312,
      "à¤¾à¥ĩà¤Ĥ": 7313,
      "à¤¾âĢĮ": 7314,
      "à¥į&": 7315,
      "à¤°à¤¡à¤£": 7316,
      "à¤°à¤Ĭà¤°": 7317,
      "à¥Ģ+": 7318,
      "à¤¤à¤¥": 7319,
      "à¤¤à¤ĺ": 7320,
      "à¤²à¤°à¤¤": 7321,
      "à¤¿âĢ¦": 7322,
      "à¤¨à¤¦à¤°à¤®": 7323,
      "à¤ļà¤®à¤¨": 7324,
      "à¤£à¥Ł": 7325,
      "Ġà¤ķà¤Łà¤²": 7326,
      "à¥ģ)": 7327,
      "Ġà¤ªà¤¢": 7328,
      "Ġà¤ªà¤¡à¤µ": 7329,
      "à¤ªà¤¸à¤²": 7330,
      "à¤ªà¤¬à¤¦": 7331,
      "à¤¦à¤³à¤µ": 7332,
      "Ġà¤¤à¤¸à¤²": 7333,
      "Ġà¤ħà¤¦à¤°": 7334,
      "à¤Ĺà¤ĸ": 7335,
      "à¤Łà¤¦à¤°": 7336,
      "à¤Łà¤®à¤¸": 7337,
      "à¤¡à¤ªà¤°": 7338,
      "à¤¡à¤Ŀ": 7339,
      "à¤¡à¤µà¤³": 7340,
      "à¤¡à¤µà¤°à¤ļ": 7341,
      "à¤¡à¤¨à¤¨": 7342,
      "à¤ľà¤¸à¤¤": 7343,
      "à¤ľà¤¬à¤¦": 7344,
      "Ġà¤¹à¤¸à¤°": 7345,
      "Ġà¤¹à¤°à¤¹": 7346,
      "Ġà¤¨à¤°à¤µ": 7347,
      "Ġà¤¨à¤°à¤Ńà¤ķ": 7348,
      "à¤³à¤Ĺà¤¡": 7349,
      "à¤¬à¤®à¤¨": 7350,
      "Ġà¤ľà¤¹à¤°": 7351,
      "Ġà¤ľà¤¸à¤µ": 7352,
      "à¤łà¤¬": 7353,
      "Ġà¤Ĺà¤Ŀ": 7354,
      "Ġà¤Ĺà¤Ĺà¤¨à¤ļ": 7355,
      "Ġà¤²à¤ķà¤¡": 7356,
      "à¤ĸà¤°à¤²": 7357,
      "Ġà¤Ńà¤°à¤µà¤¤": 7358,
      "Ġà¤Ńà¤°à¤Ńà¤ķ": 7359,
      "Ġà¤ĺà¤³": 7360,
      "Ġà¤ĺà¤°à¤¤": 7361,
      "à¤Ńà¤¹": 7362,
      "Ġà¤ıà¤¡à¤®": 7363,
      "à¤°à¤ķà¤ª": 7364,
      "à¤Īà¤Ĺ": 7365,
      "Ġà¤«à¤£": 7366,
      "à¤¢à¤¹": 7367,
      "Ġà¤Łà¤ķà¤²": 7368,
      "Ġà¤Łà¤°à¤¬": 7369,
      "à¤¯à¤ķà¤°à¤£": 7370,
      "à¤ĺà¤µà¤¨": 7371,
      "Ġà¤ĩà¤¨à¤¸": 7372,
      "à¤°à¤®à¤¯": 7373,
      "à¤Ĭà¤ªà¤£": 7374,
      "Ġà¤µà¤°à¤ª": 7375,
      "Ġà¤¨à¤µà¤®": 7376,
      "à¤·à¤£à¤¤à¤ľ": 7377,
      "Ġà¤Ĩà¤ľà¤ĺà¤¡": 7378,
      "à¤¬à¤Īà¤¬": 7379,
      "à¤°à¤ªà¤ļ": 7380,
      "à¤ħà¤¨à¤²": 7381,
      "à¤¶à¤¨à¤¬": 7382,
      "à¤¶à¤¨à¤ªà¤¤": 7383,
      "à¤ķà¤²à¤¶": 7384,
      "Ġà¤Ĩà¤¯à¤ĵà¤ıà¤¸": 7385,
      "à¤Ĺà¤³à¥Ł": 7386,
      "Ġà¤¥à¤°à¤ķ": 7387,
      "Ġà¤¸à¤¹à¤¦": 7388,
      "Ġà¤¸à¤¹à¤¨à¤¶": 7389,
      "Ġà¤ĵà¤®à¤ķ": 7390,
      "Ġà¤Ĩà¤µà¤Ł": 7391,
      "Ġà¤ªà¤¦à¤ļ": 7392,
      "à¤ĩà¤¨à¤¸": 7393,
      "Ġà¤ħà¤®à¤ľà¤¦": 7394,
      "à¤Ľà¤°": 7395,
      "à¤°à¤ªà¤Łà¤¹": 7396,
      "Ġà¤ħà¤ľà¤¯à¤ļ": 7397,
      "Ġà¤ħà¤ľà¤¹à¤°": 7398,
      "à¤ļà¤²à¤ļ": 7399,
      "à¤²à¤¬à¤¨": 7400,
      "à¤²à¤¬à¤¹": 7401,
      "Ġà¤¸à¤ķà¤Ł": 7402,
      "Ġà¤ľà¤®à¤µà¤£": 7403,
      "à¤¸à¤®à¤°": 7404,
      "à¤Łà¤ļà¤ķ": 7405,
      "Ġ,\"": 7406,
      "à¤Ĩà¤¯à¤Ĩà¤¯à¤Ł": 7407,
      "à¤¨à¤Ĺà¤°à¤¸": 7408,
      "Ġà¤Īà¤ķ": 7409,
      "Ġà¤Īà¤ļ": 7410,
      "Ġà¥¯à¥¯à¥¯": 7411,
      "Ġ107": 7412,
      "Ġà¤ĩà¤¨à¤ª": 7413,
      "Ġà¤ĩà¤¨à¤«": 7414,
      "Ġà¤ªà¤¡à¤ĺ": 7415,
      "Ġà¤ıà¤µà¤¢à¤¯": 7416,
      "à¤Ĩà¤°à¤ıà¤ļ": 7417,
      "Ġ193": 7418,
      "Ġà¤ıà¤¨à¤ıà¤®": 7419,
      "à¤Łà¤¸à¤ħ": 7420,
      "à¤ıà¤²à¤ª": 7421,
      "ĠSup": 7422,
      "ĠPand": 7423,
      "ĠRana": 7424,
      "Ġ111": 7425,
      "Ġ114": 7426,
      "Ġà¥§à¥ªà¥¯": 7427,
      "Ġà¥§à¥ªà¥¬": 7428,
      "Ġ145": 7429,
      "à¤¯à¤°à¤¸à¤µà¤°": 7430,
      "Ġ).": 7431,
      "à¥Ģ?'": 7432,
      "Ġà¤īà¤ļà¤²à¤¬": 7433,
      "Ġà¤ķà¤³à¤µà¤¤": 7434,
      "ĠIPO": 7435,
      "Ġà¤ĸà¤¡à¤ĸà¤¡": 7436,
      "Ġà¤ĭà¤ļ": 7437,
      "Ġ167": 7438,
      "ĠNRC": 7439,
      "ĠBJP": 7440,
      "icide": 7441,
      "Ġà¥¨à¥¨à¥«": 7442,
      "à¤¾..âĢĻ": 7443,
      "Ġà¤ļà¤¹à¤²à¤¨": 7444,
      "Ġà¤įà¤Ĺ": 7445,
      "Ġà¤įà¤²à¤°": 7446,
      "Ġ224": 7447,
      "isha": 7448,
      "Ġà¥²à¤£": 7449,
      "use": 7450,
      "ĠDig": 7451,
      "Ġà¥¨à¥©à¥¦": 7452,
      "oli": 7453,
      "ĠRed": 7454,
      "à¤Ĥ?,": 7455,
      "Ġà¤īà¤§à¤³à¤¤": 7456,
      "ĠHer": 7457,
      "ĠHigh": 7458,
      "Ġcon": 7459,
      "Ġà¤ļà¤¢à¤µà¤¤": 7460,
      "etrol": 7461,
      "Ġà¤¬à¤ķà¤±": 7462,
      "riv": 7463,
      "ĠUS": 7464,
      "Ġà¥§à¥¯à¥ªà¥¬": 7465,
      "ĠÂĳ": 7466,
      "ape": 7467,
      "Ġvideo": 7468,
      "Ġwith": 7469,
      "able": 7470,
      "Ġà¤«à¤¡à¤ķà¤µ": 7471,
      "Ġà¤¨à¤Łà¤¸à¤®": 7472,
      "Ġhttp": 7473,
      "liance": 7474,
      "Ġà¤¬à¤°à¤¸à¤¤": 7475,
      "à¤³à¤ķà¤¤à¤ķà¤°": 7476,
      "hina": 7477,
      "ruit": 7478,
      "Ġread": 7479,
      "Ġà¤Ĺà¤ľà¤¬à¤ľ": 7480,
      "____": 7481,
      "ukh": 7482,
      "ĠExp": 7483,
      "ĠUpdates": 7484,
      "Ġà¤«à¤°à¤«à¤Ł": 7485,
      "ebook": 7486,
      "ission": 7487,
      "****************": 7488,
      "ĠMotor": 7489,
      "DRF": 7490,
      "Ġà¤¥à¤°à¤¥à¤°à¤¤": 7491,
      "Ġà¤Ĺà¤¡à¤Ĺà¤¡à¤²": 7492,
      "$$": 7493,
      "04": 7494,
      "73": 7495,
      "BMC": 7496,
      "IB": 7497,
      "Man": 7498,
      "RD": 7499,
      "WS": 7500,
      "hal": 7501,
      "jp": 7502,
      "mat": 7503,
      "mad": 7504,
      "nd": 7505,
      "ns": 7506,
      "pt": 7507,
      "rad": 7508,
      "ï¿": 7509,
      "Ġz": 7510,
      "à¤¯à¤°à¤ķ": 7511,
      "à¤¯à¤£à¤¸": 7512,
      "à¤¯à¤°à¤ļà¤¨": 7513,
      "à¤¯à¤ıà¤¸à¤Ĩà¤°": 7514,
      "à¤²à¤¤à¤°": 7515,
      "à¤¨à¤¨à¤²": 7516,
      "à¤¨à¤µà¤°à¤ļ": 7517,
      "à¤ķà¤®à¤²": 7518,
      "à¤µà¤ķà¤¡": 7519,
      "à¤¸à¤Ŀ": 7520,
      "à¥ĭ',": 7521,
      "Ġà¤Ĩà¤Łà¤²": 7522,
      "Ġà¤®à¤³à¤£": 7523,
      "Ġà¤®à¤¡à¤ķ": 7524,
      "Ġà¤®à¤Ĺà¤¦": 7525,
      "Ġà¤®à¤¥à¤³": 7526,
      "à¤ªà¤Ľ": 7527,
      "Ġà¤¤à¤¡à¤¸": 7528,
      "à¥Ĥà¥į": 7529,
      "Ġà¤ħà¤¢": 7530,
      "à¤Łà¤§": 7531,
      "à¤¡à¤ľà¤µà¤³": 7532,
      "à¤ľà¤µà¤¸": 7533,
      "à¤ľà¤®à¤¤": 7534,
      "Ġà¤¯à¤®à¤ķ": 7535,
      "Ġà¤¨à¤®à¤µ": 7536,
      "Ġà¤¦à¤®à¤¨": 7537,
      "Ġà¤ľà¤ĸ": 7538,
      "Ġà¤ľà¤¸à¤²": 7539,
      "Ġà¤ľà¤¨à¤²": 7540,
      "Ġà¤°à¤ľà¤¤": 7541,
      "Ġà¤¬à¤®": 7542,
      "Ġà¤¬à¤Łà¤²à¤°": 7543,
      "Ġà¤¶à¤Łà¤²": 7544,
      "Ġà¤¶à¤®à¤¶": 7545,
      "Ġà¤Ĺà¤£à¤¤": 7546,
      "à¤ĸà¤ľ": 7547,
      "à¤ĸà¤³à¤¤": 7548,
      "à¤ĸà¤°à¤¨": 7549,
      "Ġà¤Ńà¤Ĺà¤¦": 7550,
      "Ġà¤ļà¤ªà¤Ł": 7551,
      "Ġà¤īà¤ĸà¤¡": 7552,
      "à¥Ģ.âĢ¦": 7553,
      "à¤°à¤ķà¤°à¤¨": 7554,
      "à¤ĺà¤²à¤ķ": 7555,
      "à¤ķà¤°à¤Ńà¤°à¤¤": 7556,
      "à¤«à¤°à¤ª": 7557,
      "à¤ķà¤¡à¤¯": 7558,
      "Ġà¤§à¤ľ": 7559,
      "Ġà¤§à¤®à¤¨": 7560,
      "Ġà¤¸à¤®à¤¦": 7561,
      "à¤µà¤²à¤£": 7562,
      "à¤µà¤²à¤ķà¤°": 7563,
      "à¤Ĺà¤²à¤Ĺ": 7564,
      "à¤¸à¤°à¤¡": 7565,
      "à¤ıà¤ıà¤¨": 7566,
      "Ġà¤Ĩà¤ľà¤¬": 7567,
      "à¤²à¤¯à¤ļ": 7568,
      "à¤Łà¤¨à¤ª": 7569,
      "Ġà¤ĳà¤¨à¤°": 7570,
      "à¤Ĩà¤³": 7571,
      "à¤Ĩà¤«": 7572,
      "à¤µà¤³à¤Ł": 7573,
      "Ġà¤¤à¤¸à¤¦": 7574,
      "Ġà¤Ĩà¤¯à¤ľ": 7575,
      "Ġà¤¥à¤²": 7576,
      "à¤®à¤¨à¤®": 7577,
      "à¤®à¤¤à¤¤": 7578,
      "Ġà¤®à¤¨à¤µ": 7579,
      "Ġà¤®à¤¨à¤§à¤°à¤£": 7580,
      "à¤ĩà¤¡à¤²": 7581,
      "Ġà¤ĸà¤°à¤Ĺ": 7582,
      "à¤ªà¤¤à¤¨": 7583,
      "Ġà¤ľà¤¨à¤¶à¤ķ": 7584,
      "Ġà¤ľà¤¨à¤Ĩà¤°": 7585,
      "Ġà¤Ĩà¤łà¤¶": 7586,
      "à¤¬à¤²à¤²": 7587,
      "à¤ķà¤£à¤¸": 7588,
      "Ġà¤¬à¤¹à¤²": 7589,
      "à¤§à¤ķà¤¹": 7590,
      "à¥ĭ,\"": 7591,
      "à¤łà¤ķà¤¹": 7592,
      "Ġà¤Ĩà¤Ĺà¤ª": 7593,
      "Ġà¤¹à¤²à¤£": 7594,
      "à¤ıà¤®à¤¡à¤¬": 7595,
      "à¤¨à¤Ĺà¤°à¤²": 7596,
      "Ġà¤īà¤ļà¤ķ": 7597,
      "à¤µà¤§à¤ªà¤£": 7598,
      "à¤ķà¤®à¤¹": 7599,
      "à¤ĩà¤¨à¤®": 7600,
      "à¤®à¤¦à¤¹à¤¨": 7601,
      "Ġ103": 7602,
      "Ġ109": 7603,
      "Ġà¤ĩà¤¤à¤ªà¤¤": 7604,
      "à¤Īà¤ķà¤µ": 7605,
      "Ġà¤¶à¤°à¤¦à¤ļ": 7606,
      "Ġà¥§à¥«à¥®": 7607,
      "à¥ĩ??": 7608,
      "Ġà¤ļà¤ķà¤µ": 7609,
      "à¥¨à¥¦à¥§à¥©": 7610,
      "Ġà¤µà¤¨à¤°à¤ķ": 7611,
      "Ġà¤ħà¤«à¤Ŀà¤²à¤ĸ": 7612,
      "ĠCl": 7613,
      "ĠCr": 7614,
      "ĠChe": 7615,
      "ĠRE": 7616,
      "Ġà¥§à¥ªà¥¨": 7617,
      "Ġà¤īà¤ĺà¤¡à¥Ł": 7618,
      "Ġà¥§à¥§à¥¦à¥¦": 7619,
      "Ġ143": 7620,
      "Ġ148": 7621,
      "Ġà¤Ńà¤°à¤¤à¤¨": 7622,
      "ĠAC": 7623,
      "à¤¾!)": 7624,
      "Ġà¥§à¥©à¥ª": 7625,
      "Ġà¥§à¥©à¥¯": 7626,
      "Ġà¥§à¥©à¥¬": 7627,
      "Ġà¤¦à¤°à¤µà¤³": 7628,
      "ĠIRC": 7629,
      "Ġà¤·à¤·": 7630,
      "Ġ137": 7631,
      "Ġ165": 7632,
      "Ġ166": 7633,
      "Ġ169": 7634,
      "à¥Ģ!!": 7635,
      "Ġà¥¨à¥¨à¥¦à¥¦": 7636,
      "à¥ĩ......": 7637,
      "ĠDI": 7638,
      "Ġà¤Īà¤¡à¤¬": 7639,
      "Ġ270": 7640,
      "Ġà¥¦à¥«": 7641,
      "ĠGB": 7642,
      "Ġsc": 7643,
      "ĠKKR": 7644,
      "amb": 7645,
      "ild": 7646,
      "ilver": 7647,
      "Ġà¤Ŀà¤Łà¤ķà¤£": 7648,
      "acebook": 7649,
      "eli": 7650,
      "otest": 7651,
      "avi": 7652,
      "Ġà¥§à¥§à¥¬": 7653,
      "osp": 7654,
      "Ġ1995": 7655,
      "Ġà¤ĵà¤°à¤¡à¤£": 7656,
      "ĠâĨ": 7657,
      "Ġà¤ĵà¤ªà¤¨à¤ļ": 7658,
      "Ġvaccine": 7659,
      "à¥ĩ\".": 7660,
      "--------------------------------": 7661,
      "abad": 7662,
      "Ġà¤ĸà¤²à¤¬à¤¤": 7663,
      "Ġ1983": 7664,
      "Ġà¤«à¤¡à¤ķà¤µà¤£": 7665,
      "rop": 7666,
      "à¤ķà¤®à¤¤à¤¨": 7667,
      "ika": 7668,
      "ific": 7669,
      "Ġà¤¹à¤°à¤Ńà¤±": 7670,
      "anka": 7671,
      "à¤Ĩà¤łà¤µà¤¡": 7672,
      ">>>>>": 7673,
      "IRAL": 7674,
      "Ġà¤Ŀà¤Ĺà¤¡à¤£": 7675,
      "Ġà¤Ŀà¤Ĺà¤®à¤Ĺ": 7676,
      "à¤ķà¤ħà¤ªà¤ļ": 7677,
      "Ġà¤ªà¤ļà¤¨à¤¸": 7678,
      "Ġà¤ıà¤ıà¤¨à¤Ĩà¤¯à¤¨": 7679,
      "Ġà¤ıà¤¨à¤ıà¤¸à¤ľ": 7680,
      "ĠQu": 7681,
      "à¤Łà¤ħà¤ªà¤ļ": 7682,
      "ĠSharma": 7683,
      "ĠRealme": 7684,
      "à¤Ĺà¤®à¤°à¤µà¤°": 7685,
      "ontinue": 7686,
      "!âĢĿ": 7687,
      ".âĢ¦": 7688,
      "?âĢĻâĢĻ": 7689,
      "AE": 7690,
      "DC": 7691,
      "Dr": 7692,
      "NC": 7693,
      "On": 7694,
      "Pol": 7695,
      "][": 7696,
      "ie": 7697,
      "oint": 7698,
      "rat": 7699,
      "vis": 7700,
      "weet": 7701,
      "Ġal": 7702,
      "Ġdi": 7703,
      "Ġover": 7704,
      "à¤¾âĢį": 7705,
      "à¥įà¥į": 7706,
      "à¥į...": 7707,
      "à¤¤à¤±": 7708,
      "à¤¯à¤ħ": 7709,
      "à¤¯à¤ĳà¤ķ": 7710,
      "à¤²à¤¸à¤¨": 7711,
      "à¤¿à¤¿": 7712,
      "à¤¨à¤ľà¤¨à¤ķ": 7713,
      "à¤¨à¤µà¤¸à¤¨": 7714,
      "à¤Ĥ.....": 7715,
      "à¤µà¤Ĩà¤ĺ": 7716,
      "à¤ļà¤°à¤¨": 7717,
      "à¤ļà¤ķà¤¤": 7718,
      "à¤ļà¤ªà¤Ł": 7719,
      "à¤¸à¤ªà¤¦": 7720,
      "à¤¸à¤Łà¤¤": 7721,
      "à¤¹à¤³à¤£": 7722,
      "à¥ĭ.....": 7723,
      "Ġà¤ķà¤Ŀ": 7724,
      "à¤®à¤°à¤ļ": 7725,
      "à¤®à¤¸à¤¤": 7726,
      "à¥ģ'": 7727,
      "Ġà¤¸à¤ªà¤¤": 7728,
      "Ġà¤¸à¤³à¤¸": 7729,
      "Ġà¤ªà¤¡à¤ķ": 7730,
      "Ġà¤®à¤¤à¤²": 7731,
      "à¤¾à¤Ĥ'": 7732,
      "à¤ªà¤Łà¤ķ": 7733,
      "à¤ªà¤ªà¤£": 7734,
      "à¤ªà¤¸à¤®": 7735,
      "à¤¦à¤¶à¤¨": 7736,
      "à¤¦à¤¯à¤¸": 7737,
      "Ġà¤ħà¤ľà¤¨": 7738,
      "à¤Łà¤°à¤¤": 7739,
      "Ġà¤µà¤Ŀ": 7740,
      "Ġà¤µà¤¹à¤¨": 7741,
      "Ġà¤µà¤¨à¤Ĺ": 7742,
      "Ġà¤µà¤ļà¤ª": 7743,
      "à¤¡à¤°à¤µ": 7744,
      "à¤ľà¤°à¤ª": 7745,
      "Ġà¤¨à¤µà¤¤": 7746,
      "à¤³à¤®à¤³": 7747,
      "Ġà¤°à¤¡à¤ķ": 7748,
      "Ġà¤¬à¤¯": 7749,
      "Ġà¤Ĺà¤Łà¤ª": 7750,
      "Ġà¤²à¤Ĺà¤¦": 7751,
      "à¤¥à¤Ĺà¤¤": 7752,
      "à¤Ńà¤µà¤ļ": 7753,
      "Ġà¤īà¤¹": 7754,
      "Ġà¤īà¤Īà¤ķ": 7755,
      "âĢ²": 7756,
      "Ġà¤Ŀà¤°à¤¦": 7757,
      "à¤°à¤ķà¤ªà¤£": 7758,
      "à¤Īà¤ķà¤¨": 7759,
      "Ġà¤ĸà¤¸à¤ĸ": 7760,
      "Ġà¤ķà¤°à¤£à¤¨": 7761,
      "Ġà¤ıà¤ķà¤¶": 7762,
      "à¤¿à¤Ĥ.": 7763,
      "à¤¢à¤¯": 7764,
      "Ġà¤Łà¤µà¤Ł": 7765,
      "à¤¯à¤ķà¤¹": 7766,
      "à¤«à¤°à¤¸": 7767,
      "à¤Ĭà¤³à¤Ĺ": 7768,
      "à¤¤à¤²à¤¯": 7769,
      "Ġà¤Ĩà¤ªà¤ķ": 7770,
      "Ġà¤§à¤¨à¤²": 7771,
      "Ġà¤¸à¤°à¤ªà¤Łà¤£": 7772,
      "Ġà¤ħà¤¨à¤ķ": 7773,
      "à¤¯à¤®à¤Ĺà¤¤": 7774,
      "à¤Ŀà¤ª": 7775,
      "à¤Ŀà¤®à¤§": 7776,
      "à¤Ŀà¤°à¤ļ": 7777,
      "Ġà¤īà¤ªà¤Ł": 7778,
      "Ġà¤īà¤ªà¤¸à¤²": 7779,
      "Ġà¤īà¤ªà¤ľà¤¤": 7780,
      "Ġà¤īà¤ªà¤¨à¤¦": 7781,
      "âĢĻ;": 7782,
      "à¤ľà¤¨à¤ª": 7783,
      "à¤Ĺà¤°à¤¨": 7784,
      "à¤Łà¤²à¤°à¤¨": 7785,
      "à¤ħà¤®à¤ļ": 7786,
      "à¤ħà¤¸à¤ª": 7787,
      "à¤Ĭà¤¨à¤¸": 7788,
      "Ġà¤ĳà¤¨à¤¸": 7789,
      "à¤¤à¤ķà¤ļ": 7790,
      "à¤¯à¤²à¤Łà¤ļ": 7791,
      "à¤Łà¤ķà¤³à¤¤": 7792,
      "Ġà¤Ĩà¤¯à¤µ": 7793,
      "Ġà¤¸à¤¹à¤Ĩà¤¯": 7794,
      "à¤ľà¤ªà¤¸à¤¹": 7795,
      "Ġà¤ĵà¤¦": 7796,
      "Ġà¤ªà¤¦à¤®": 7797,
      "à¤ĩà¤²à¤¨": 7798,
      "à¤ĸà¤²à¤ª": 7799,
      "à¤ĸà¤²à¤¦à¤°": 7800,
      "à¤°à¤ĸà¤¤": 7801,
      "Ġ---": 7802,
      "à¤¯à¤¨à¤µ": 7803,
      "à¤¦à¤¨à¤¸": 7804,
      "à¤ľà¤ķà¤¨": 7805,
      "à¤¹à¤¨à¤ªà¤°": 7806,
      "Ġ2023": 7807,
      "à¤¡à¤ķà¤¨": 7808,
      "à¤²à¤¬à¤²": 7809,
      "Ġà¤¬à¤¦à¤²à¤µ": 7810,
      "à¤µà¤ļà¤£": 7811,
      "à¤µà¤ļà¤ľà¤£": 7812,
      "à¤¸à¤®à¤¯": 7813,
      "à¤¸à¤®à¤ľ": 7814,
      "Ġà¥ªà¥¯à¥¯": 7815,
      "à¤°à¤§à¤°": 7816,
      "à¤īà¤ªà¤¨": 7817,
      "à¤²à¤Ĺà¤¡": 7818,
      "Ġà¥§à¥¯à¥¨à¥¦": 7819,
      "Ġà¤ķà¤ªà¤¸": 7820,
      "à¤ªà¤ķà¤¨": 7821,
      "à¤·à¤¦à¤ļ": 7822,
      "Ġà¥Ńà¥¨à¥¦": 7823,
      "Ġà¤ıà¤¸à¤Ĩà¤°à¤ª": 7824,
      "Ġà¤ıà¤¸à¤Ĩà¤°à¤ı": 7825,
      "Ġà¥¯à¥«à¥¦": 7826,
      "à¤®à¤¦à¤ļ": 7827,
      "à¤¡à¤°à¤Ĺ": 7828,
      "à¤ľà¤µà¤³à¤ª": 7829,
      "à¤¡à¤ķà¤°à¤µ": 7830,
      "inal": 7831,
      "ines": 7832,
      "2016": 7833,
      "à¥ĩ?âĢĿ": 7834,
      "Ġ?âĢĻ": 7835,
      "Ġ151": 7836,
      "Ġ157": 7837,
      "ator": 7838,
      "Ġà¤§à¤¨à¤ľ": 7839,
      "à¤ľà¤®à¤ľ": 7840,
      "Ġ127": 7841,
      "Ġ129": 7842,
      "ery": 7843,
      "à¤¾'.": 7844,
      "ĠMI": 7845,
      "ĠPF": 7846,
      "ĠCha": 7847,
      "ĠRam": 7848,
      "ĠRCB": 7849,
      "Ġà¤°à¤£à¤ķ": 7850,
      "Ġà¤«à¤³à¤ª": 7851,
      "Ġà¤«à¤³à¤Ń": 7852,
      "à¤ļà¤µà¤¡à¤ķà¤°": 7853,
      "à¤¾!!!": 7854,
      "Ġ302": 7855,
      "Ġà¤ķà¤³à¤µà¤³": 7856,
      "à¤°à¤¥à¤®à¤¤": 7857,
      "à¤¤à¤°à¤£à¤²": 7858,
      "Ġà¥§à¥Ńà¥ª": 7859,
      "Ġà¥§à¥Ńà¥¬": 7860,
      "ĠNE": 7861,
      "Ġà¤ĺà¤¸à¤ĺà¤¶": 7862,
      "à¤®à¤¶à¤¤": 7863,
      "à¤¾..!": 7864,
      "Ġà¤¸à¤¹à¤ľà¤Ĺà¤¤": 7865,
      "Ġà¤°à¤®à¤®": 7866,
      "rap": 7867,
      "Ġà¤ªà¤³à¤¶": 7868,
      "ĠVIRAL": 7869,
      "à¤¾:-": 7870,
      "Ġà¥²à¤¡à¤®": 7871,
      "hag": 7872,
      "irat": 7873,
      "à¥ĩ:-": 7874,
      "Ġma": 7875,
      "urg": 7876,
      "Ġà¤¹à¤Łà¤ķà¤²": 7877,
      "ayan": 7878,
      "ĠGold": 7879,
      "ĠGET": 7880,
      "Ġà¤¥à¤ķà¤µà¤²": 7881,
      "ĠInstagram": 7882,
      "ĠUPSC": 7883,
      "Ġà¥§à¥¯à¥ªà¥©": 7884,
      "osit": 7885,
      "Ġ1994": 7886,
      "uly": 7887,
      "ĠJune": 7888,
      "à¤Ĺà¤łà¤¬": 7889,
      "lip": 7890,
      "ðŁĺ": 7891,
      "www": 7892,
      "Ġà¥§à¥¯à¥©à¥¯": 7893,
      "Ġ1969": 7894,
      "Ġyou": 7895,
      "ĠResult": 7896,
      "Ġprice": 7897,
      "ĠEngl": 7898,
      "ĠBSNL": 7899,
      "à¤ħà¤«à¤Ĺ": 7900,
      "Ġà¤®à¤ĸà¤®à¤²": 7901,
      "Ġà¤ħà¤ļà¤²à¤ª": 7902,
      "ĠMalik": 7903,
      "Ġ+++++++++++++++++++++++++++++++++++++++++++++++++++++++++++++++++++++++++++++++++++++": 7904,
      "Taas": 7905,
      "ystem": 7906,
      "zwj": 7907,
      "Ġà¤ĵà¤°à¤ĸà¤¡": 7908,
      "aheb": 7909,
      "ĠIRCTC": 7910,
      "Ġà¤Łà¤µà¤Łà¤µ": 7911,
      "!'": 7912,
      "';": 7913,
      "81": 7914,
      "89": 7915,
      "96": 7916,
      "Bay": 7917,
      "ON": 7918,
      "SL": 7919,
      "TA": 7920,
      "ey": 7921,
      "form": 7922,
      "lic": 7923,
      "ner": 7924,
      "we": 7925,
      "||": 7926,
      "Ã©": 7927,
      "Ø§": 7928,
      "Ġhe": 7929,
      "Ġare": 7930,
      "à¤¾à¤¿": 7931,
      "à¤°à¤¹à¤°": 7932,
      "à¤°à¤µà¤°à¤ļ": 7933,
      "à¥ĩà¥ĩ.": 7934,
      "à¥Ģà¥ĩ": 7935,
      "à¤¤à¤ªà¤°": 7936,
      "à¤²à¤¤à¤ļ": 7937,
      "à¤²à¤Ĺà¤£à¤¨": 7938,
      "à¤¨à¤¯à¤ķ": 7939,
      "à¤¨à¤®à¤¨": 7940,
      "à¤ķà¤ľà¤¨": 7941,
      "à¤ķà¤Łà¤°": 7942,
      "à¤ķà¤¬à¤§": 7943,
      "à¤µà¤µà¤°": 7944,
      "à¤µà¤¥": 7945,
      "à¤¸à¤µà¤¤": 7946,
      "à¤¸à¤ķà¤²": 7947,
      "à¥ĭâĢĿ,": 7948,
      "Ġà¤ķà¤¦à¤°": 7949,
      "Ġà¤Ĩà¤µà¤¤": 7950,
      "à¤®à¤²à¤ķ": 7951,
      "à¤®à¤ªà¤¤": 7952,
      "à¤®à¤°à¤¨": 7953,
      "à¤®à¤ĺà¤°": 7954,
      "à¤®à¤Ńà¤ķ": 7955,
      "Ġà¤¸à¤°à¤£": 7956,
      "Ġà¤¸à¤¶à¤°": 7957,
      "Ġà¤ªà¤ļà¤£": 7958,
      "Ġà¤ªà¤¥à¤¨": 7959,
      "Ġà¤®à¤²à¤¨": 7960,
      "Ġà¤®à¤¡à¤Ĺ": 7961,
      "à¤ªà¤Łà¤¨": 7962,
      "Ġà¤¤à¤ĸ": 7963,
      "à¥Ĥà¥Ĥ": 7964,
      "à¥ĤâĢĻ,": 7965,
      "Ġà¤ħà¤°à¤£": 7966,
      "à¤Ĺà¤¡à¤¤": 7967,
      "à¤Ĺà¤¨à¤¨": 7968,
      "à¤ľà¤°à¤¸": 7969,
      "à¤ľà¤Ĺà¤¤": 7970,
      "Ġà¤¯à¤¡": 7971,
      "Ġà¤¹à¤¯à¤Ĺ": 7972,
      "Ġà¤¦à¤®à¤£": 7973,
      "à¤¶à¤«": 7974,
      "à¤¶à¤ªà¤°": 7975,
      "à¤¶à¤°à¤ļ": 7976,
      "à¤¶à¤¤à¤µ": 7977,
      "à¤¬à¤¨à¤µ": 7978,
      "Ġà¤ľà¤²à¤ļ": 7979,
      "Ġà¤°à¤Ł": 7980,
      "Ġà¤¬à¤«": 7981,
      "Ġà¤¬à¤Ĺà¤³": 7982,
      "Ġà¤¬à¤²à¤¦": 7983,
      "Ġà¤ħà¤¸à¤¹à¤ķ": 7984,
      "Ġà¤Ĺà¤°à¤µ": 7985,
      "Ġà¤²à¤³": 7986,
      "Ġà¤²à¤ļà¤ķ": 7987,
      "à¤ĸà¤¬": 7988,
      "à¤ĸà¤¨à¤ļ": 7989,
      "à¤¥à¤ªà¤°": 7990,
      "à¤Ńà¤¶": 7991,
      "à¤Ńà¤°à¤µà¤¶": 7992,
      "Ġà¤īà¤¥à¤ª": 7993,
      "à¤Īà¤Łà¤®à¤§": 7994,
      "à¤Īà¤Ńà¤ķ": 7995,
      "Ġà¤ĸà¤¯": 7996,
      "Ġà¤ĸà¤¬à¤±": 7997,
      "Ġà¤ıà¤ķà¤Łà¤ķ": 7998,
      "Ġà¤«à¤°à¤¦": 7999,
      "à¤°à¤£à¤¬": 8000,
      "Ġà¤¤à¤°à¤¸": 8001,
      "à¤ĺà¤³à¤¤": 8002,
      "Ġà¤ĩà¤ª": 8003,
      "Ġà¤¡à¤³à¤®à¤³": 8004,
      "Ġà¤§à¤¨à¤µ": 8005,
      "Ġà¤¸à¤°à¤¶": 8006,
      "Ġà¤ħà¤¨à¤Ł": 8007,
      "Ġà¤īà¤ªà¤²": 8008,
      "Ġà¤īà¤ªà¤µà¤¨à¤¸": 8009,
      "à¤Ĺà¤²à¤°": 8010,
      "à¤Ĺà¤²à¤ķ": 8011,
      "à¤¬à¤°à¤ħà¤ĸ": 8012,
      "à¤ıà¤²à¤²": 8013,
      "Ġà¥¨à¥§à¥¯": 8014,
      "Ġà¤¸à¤°à¤ķà¤£": 8015,
      "à¤¶à¤¨à¤§": 8016,
      "à¤Ĩà¤°à¤ľ": 8017,
      "à¤Łà¤°à¤Ĺ": 8018,
      "Ġà¤Ĩà¤¯à¤Ĩà¤°à¤ıà¤¸": 8019,
      "Ġà¤Ĩà¤¯à¤ıà¤¨à¤ıà¤¸": 8020,
      "Ġà¤¸à¤¹à¤ľà¤°": 8021,
      "Ġà¤¸à¤¹à¤ľà¤¸": 8022,
      "à¤²à¤ķà¤µ": 8023,
      "à¤¨à¤ļà¤°": 8024,
      "Ġà¤ĺà¤°à¤ĸà¤°": 8025,
      "Ġà¤ĵà¤ĸ": 8026,
      "Ġà¤ĵà¤°à¤¬": 8027,
      "à¤®à¤¤à¤ļ": 8028,
      "à¤ĩà¤ķà¤²": 8029,
      "à¤µà¤¨à¤ªà¤¦": 8030,
      "à¤°à¤¨à¤µà¤°": 8031,
      "Ġà¤ħà¤ªà¤¸": 8032,
      "Ġà¤Ľà¤ªà¤°": 8033,
      "à¤¹à¤¨à¤ª": 8034,
      "Ġà¥©à¥©à¥¦": 8035,
      "à¤ķà¤¤à¤®": 8036,
      "à¤§à¤µà¤µ": 8037,
      "à¤¡à¤ķà¤ªà¤¸": 8038,
      "Ġà¤Ĩà¤łà¤¹": 8039,
      "Ġà¤¬à¤¦à¤²à¤¹": 8040,
      "à¤¸à¤®à¤¸à¤ļ": 8041,
      "Ġà¥ªà¥¦à¥¦à¥¦": 8042,
      "à¤Łà¤ļà¤°": 8043,
      "à¤°à¤¹à¤ľ": 8044,
      "à¥Ńà¥¦à¥¦": 8045,
      "à¤īà¤Ń": 8046,
      "à¤ķà¤£à¤®à¤§": 8047,
      "Ġà¤ľà¤Ĺà¤µà¤£": 8048,
      "Ġà¤Ĺà¤°à¤ľà¤µ": 8049,
      "à¤¶à¤²à¤µà¤°": 8050,
      "à¤¾???": 8051,
      "à¤²à¤µà¤ķà¤°": 8052,
      "Ġà¥§à¥¯à¥§à¥®": 8053,
      "Ġà¤¯à¤¶à¤¹": 8054,
      "à¤¯à¤°à¤µà¤°": 8055,
      "à¤ķà¤Łà¤Ĺ": 8056,
      "à¤ıà¤®à¤ľ": 8057,
      "à¤ıà¤®à¤µà¤°": 8058,
      "à¤ıà¤®à¤ĵ": 8059,
      "à¤ıà¤®à¤ıà¤®à¤Ĩà¤°à¤¡": 8060,
      "Ġà¤Ĩà¤Īà¤ª": 8061,
      "Ġà¤ĩà¤¥à¤ª": 8062,
      "Ġ850": 8063,
      "Ġà¤¹à¤¤à¤¬à¤²à¤¤": 8064,
      "Ġà¤ħà¤¡à¤µà¤¤": 8065,
      "à¤°à¤Ĺà¤Ł": 8066,
      "Ġà¥§à¥«à¥©": 8067,
      "Ġà¤¸à¤¨à¤¸à¤¨": 8068,
      "ini": 8069,
      "iness": 8070,
      "arr": 8071,
      "à¥ĩ?'": 8072,
      "onal": 8073,
      "Ġà¤¶à¤¹à¤ľ": 8074,
      "Ġ192": 8075,
      "Ġ1960": 8076,
      "à¥¨à¥¦à¥§à¥®": 8077,
      "à¥¨à¥¦à¥§à¥Ń": 8078,
      "à¤ķà¤³à¤¦": 8079,
      "eric": 8080,
      "ĠMay": 8081,
      "Ġà¤¬à¤²à¤µà¤¤": 8082,
      "Ġà¥§à¥®à¥«": 8083,
      "ĠSch": 8084,
      "ĠSPEC": 8085,
      "ĠCap": 8086,
      "ĠRs": 8087,
      "Ġ117": 8088,
      "Ġà¥§à¥ªà¥«": 8089,
      "Ġà¤°à¤£à¤ª": 8090,
      "Ġà¤Ńà¤°à¤¤à¤ķ": 8091,
      "ĠAy": 8092,
      "ĠABP": 8093,
      "Ġà¥§à¥¬à¥ª": 8094,
      "Ġ2500": 8095,
      "Ġ181": 8096,
      "Ġ1800": 8097,
      "Ġà¥§à¥©à¥¨": 8098,
      "Ġà¥§à¥©à¥¦à¥¦": 8099,
      "adesh": 8100,
      "Ġà¥§à¥Ńà¥¦à¥¦": 8101,
      "Ġ136": 8102,
      "Ġ1300": 8103,
      "à¤ıà¤ļà¤ĵà¤ļ": 8104,
      "ĠNDRF": 8105,
      "ĠBoss": 8106,
      "ĠBCCI": 8107,
      "ĠTips": 8108,
      "à¤Łà¥Łà¤¸": 8109,
      "Ġà¤įà¤¡à¤µ": 8110,
      "Ġà¤¡à¤¬à¤ķ": 8111,
      "Ġà¥²à¤Ĺ": 8112,
      "Ġà¥²à¤Ł": 8113,
      "Ġà¥¨à¥®à¥¦": 8114,
      "Ġà¤īà¤ľà¤³à¤²": 8115,
      "Ġà¤Ńà¤Ĺà¤µà¤¦": 8116,
      "ĠLockdown": 8117,
      "Ġà¥¦à¥®": 8118,
      "Ġcorona": 8119,
      "Ġcase": 8120,
      "ĠKap": 8121,
      "ĠEd": 8122,
      "ĠEPFO": 8123,
      "Ġà¤ħà¤¹à¤®à¤¦à¤ª": 8124,
      "Ġà¥¨à¥¯à¥¦": 8125,
      "à¤µà¤¹à¤¨à¤®": 8126,
      "Ġà¤ļà¤®à¤ļà¤®": 8127,
      "hare": 8128,
      "achin": 8129,
      "ott": 8130,
      "à¥ĩâĢ¦.": 8131,
      "ande": 8132,
      "andhi": 8133,
      "ents": 8134,
      "entral": 8135,
      "Ġà¥©à¥¬à¥«": 8136,
      "à¤¦à¤¹à¤¶à¤¤à¤µ": 8137,
      "Ġà¥§à¥¯à¥¬à¥®": 8138,
      "Ġà¤īà¤ķà¤³à¤µ": 8139,
      "Ġ360": 8140,
      "Ġ365": 8141,
      "ĠOr": 8142,
      "agar": 8143,
      "à¥¯à¥¯à¥¦": 8144,
      "Ġà¥§à¥¯à¥«à¥§": 8145,
      "990": 8146,
      "ode": 8147,
      "à¤°à¤ĺà¤³à¤²": 8148,
      "Ġà¤«à¤¡à¤ķà¤µà¤²": 8149,
      "Ġà¤Ĺà¤µà¤³à¤£": 8150,
      "istan": 8151,
      "Ġà¤ıà¤®à¤ıà¤¸à¤ª": 8152,
      "ĠYou": 8153,
      "unde": 8154,
      "ishes": 8155,
      "ĠRain": 8156,
      "IAL": 8157,
      "à¤µà¤Ĺà¤£à¤ļ": 8158,
      "Ġà¤Ŀà¤Łà¤ķà¤²": 8159,
      "à¤¡à¤°à¤¸à¤¨à¤¨": 8160,
      "ustral": 8161,
      "Ġà¤®à¤²à¤®à¤ªà¤Ł": 8162,
      "ector": 8163,
      "Ġà¤¡à¤Ŀà¤¨à¤Ńà¤°": 8164,
      "ĠComm": 8165,
      "ARS": 8166,
      "ĠITR": 8167,
      "ĠEVM": 8168,
      "ĠTHIS": 8169,
      "ruitment": 8170,
      "Ġreading": 8171,
      "Ġà¤ĸà¤¸à¤ĸà¤¸": 8172,
      "Ġà¤¹à¤¯à¤Ĺà¤¯": 8173,
      "ustralia": 8174,
      "!âĢĻâĢĻ": 8175,
      "'!": 8176,
      ");": 8177,
      "800": 8178,
      "=âĢĿ": 8179,
      "Bl": 8180,
      "Co": 8181,
      "CBI": 8182,
      "ES": 8183,
      "Lockdown": 8184,
      "Nar": 8185,
      "NCP": 8186,
      "OM": 8187,
      "Ra": 8188,
      "Ram": 8189,
      "TI": 8190,
      "The": 8191,
      "Un": 8192,
      "air": 8193,
      "chan": 8194,
      "light": 8195,
      "vest": 8196,
      "»¿": 8197,
      "Â°": 8198,
      "Ã¬": 8199,
      "ĠÐ": 8200,
      "Ġas": 8201,
      "Ġag": 8202,
      "à¤°à¤¡à¤µ": 8203,
      "à¥ĢâĢĺ": 8204,
      "à¤¤à¤Ĺà¤£": 8205,
      "à¤¤à¤®à¤¤": 8206,
      "à¤¤à¤¸à¤¹": 8207,
      "à¤¤à¤Ĺà¤¡": 8208,
      "à¤¯à¤¸à¤ļ": 8209,
      "à¤²à¤ł": 8210,
      "à¤¨à¤Ĭà¤ļ": 8211,
      "à¤Ĥ\"": 8212,
      "à¤ļà¤Ł": 8213,
      "à¤ļà¤±": 8214,
      "à¤ļà¤²à¤ķ": 8215,
      "à¤ļà¤¨à¤¸": 8216,
      "à¤ļà¤ķà¤³": 8217,
      "à¤¸à¤ł": 8218,
      "à¤¸à¤ķà¤¤": 8219,
      "à¤£à¤¤à¤ķ": 8220,
      "Ġà¤Ĩà¤µà¤²": 8221,
      "Ġà¤Ĩà¤¸à¤²": 8222,
      "à¤®à¤°à¤ķ": 8223,
      "à¤®à¤¯à¤ķ": 8224,
      "à¤®à¤¯à¤¤": 8225,
      "à¤®à¤Ĩà¤°": 8226,
      "à¥ģà¤¼": 8227,
      "Ġà¤¸à¤Īà¤ļ": 8228,
      "Ġà¤¸à¤£à¤µ": 8229,
      "à¤¾à¤Ĥ.": 8230,
      "à¤ªà¤Łà¤¤": 8231,
      "à¤ªà¤¸à¤£": 8232,
      "à¤¦à¤¯à¤¦": 8233,
      "Ġà¤¤à¤ľà¤µ": 8234,
      "Ġà¤ħà¤ł": 8235,
      "à¤Ĺà¤¡à¤²": 8236,
      "à¤Ĺà¤¬à¤¦": 8237,
      "à¤Ĺà¤¨à¤Ĺà¤°": 8238,
      "à¤Łà¤Ń": 8239,
      "Ġà¤µà¤µ": 8240,
      "Ġà¤µà¤¡à¤²": 8241,
      "à¤¡à¤Ń": 8242,
      "à¤¡à¤°à¤¶": 8243,
      "à¤ľà¤¸à¤®": 8244,
      "Ġà¤¯à¤¦": 8245,
      "Ġà¤¹à¤°à¤ĸ": 8246,
      "Ġà¤¹à¤®à¤°": 8247,
      "Ġà¤¹à¤£à¤®": 8248,
      "Ġà¤¨à¤¸à¤°": 8249,
      "Ġà¤¨à¤°à¤ĸ": 8250,
      "Ġà¤¦à¤¡à¤ªà¤²": 8251,
      "à¤¶à¤²à¤¨": 8252,
      "à¤·à¤Ĺ": 8253,
      "à¤·à¤¯à¤¤": 8254,
      "à¤¬à¤ķà¤²": 8255,
      "à¤¬à¤¨à¤Ĺà¤°": 8256,
      "à¤¬à¤Łà¥Ł": 8257,
      "Ġà¤ľà¤¥": 8258,
      "Ġà¤ľà¤¡à¤¤": 8259,
      "Ġà¤¬à¤ª": 8260,
      "Ġà¤ķà¤°à¤µà¤¤": 8261,
      "à¤łà¤µà¤°": 8262,
      "Ġà¤²à¤«à¤¡": 8263,
      "à¤µà¤°à¤µà¤°": 8264,
      "à¤µà¤°à¤«": 8265,
      "à¤µà¤°à¤¨à¤Ĺà¤°": 8266,
      "Ġà¤ļà¤¶": 8267,
      "Ġà¤ļà¤ķà¤°": 8268,
      "Ġà¤ļà¤±": 8269,
      "Ġà¤ļà¤Łà¤ªà¤Ł": 8270,
      "Ġà¤ĺà¤¨à¤¸": 8271,
      "Ġà¤ĺà¤Łà¤µ": 8272,
      "Ġà¤Ŀà¤£": 8273,
      "Ġà¤Ŀà¤¡": 8274,
      "à¤°à¤ķà¤¹": 8275,
      "à¤°à¤ķà¤¶à¤ķ": 8276,
      "à¤¾.,": 8277,
      "Ġà¤«à¤¡à¤£": 8278,
      "Ġà¤«à¤¡à¤¤": 8279,
      "Ġà¤«à¤¡à¤¶": 8280,
      "à¤°à¤¤à¤ª": 8281,
      "à¤°à¤¤à¤³": 8282,
      "à¤°à¤¤à¤Ń": 8283,
      "à¤¢à¤¸": 8284,
      "Ġà¤ĩà¤µà¤²": 8285,
      "Ġà¤ĩà¤°à¤¸": 8286,
      "Ġà¤ĩà¤¤à¤®": 8287,
      "Ġà¤ĩà¤®à¤²": 8288,
      "Ġà¤ĩà¤ķà¤¡à¤ļ": 8289,
      "Ġà¤¡à¤Ĺà¤®": 8290,
      "à¤ªà¤°à¤ª": 8291,
      "Ġà¤§à¤¨à¤¦": 8292,
      "Ġà¤¸à¤®à¤ķà¤ķ": 8293,
      "à¤µà¤²à¤ķ": 8294,
      "à¤°à¤¸à¤°": 8295,
      "Ġ('": 8296,
      "à¤¯à¤®à¤®": 8297,
      "à¤µà¤¤à¤¨": 8298,
      "Ġà¤Ĩà¤¤à¤¡à¥Ł": 8299,
      "à¤Ĺà¤²à¤®à¤¯": 8300,
      "Ġà¤¨à¤µà¤ļ": 8301,
      "à¤¦à¤°à¤Ĺà¤¡": 8302,
      "âĢĻ!": 8303,
      "à¤ıà¤ķà¤Ł": 8304,
      "Ġà¥¨à¥§à¥¨": 8305,
      "à¤¡à¤²à¤°": 8306,
      "à¥ĭ.'": 8307,
      "Ġà¤ĳà¤²à¤®": 8308,
      "à¤Ĩà¤°à¤¤": 8309,
      "à¤Ĩà¤Īà¤ļ": 8310,
      "à¤Łà¤°à¤°": 8311,
      "à¤µà¤³à¤®à¤§": 8312,
      "à¤¸à¤²à¤°": 8313,
      "à¤¹à¤°à¤«": 8314,
      "Ġà¤¤à¤¸à¤¤à¤¶": 8315,
      "Ġà¤Ĩà¤¯à¤Īà¤¡": 8316,
      "Ġà¤Ĩà¤¯à¤Ĩà¤°à¤¬": 8317,
      "à¤¸à¤¨à¤°": 8318,
      "à¤¸à¤¨à¤µ": 8319,
      "à¤¸à¤¨à¤Ĺà¤°à¤ļ": 8320,
      "à¤¨à¤ļà¤ķ": 8321,
      "à¤ªà¤£à¤ĸ": 8322,
      "à¤®à¤¤à¤µ": 8323,
      "Ġà¤®à¤¨à¤¨": 8324,
      "à¤ĩà¤¸à¤ļ": 8325,
      "à¤ĩà¤«à¤²": 8326,
      "à¤µà¤¨à¤°": 8327,
      "à¤·à¤ķà¤ļ": 8328,
      "Ġà¥¨à¥¦à¥«": 8329,
      "Ġà¥¨à¥¦à¥¨à¥©": 8330,
      "à¤ľà¤¯à¤°": 8331,
      "Ġà¤¶à¤¹à¤°à¤Ńà¤°": 8332,
      "Ġà¤Ľà¤³à¤£": 8333,
      "à¤¹à¤¨à¤µ": 8334,
      "à¤²à¤¤à¤ľ": 8335,
      "à¤§à¤¨à¤µ": 8336,
      "Ġà¥«à¥¬à¥¦": 8337,
      "Ġà¥«à¥ªà¥«": 8338,
      "Ġ\"\"": 8339,
      "à¤¨à¤µà¤µ": 8340,
      "à¤īà¤ľà¤µ": 8341,
      "à¤Ĺà¤¦à¤°à¤®": 8342,
      "Ġà¤µà¤¸à¤®à¤¤": 8343,
      "Ġà¤²à¤Ĺà¤Ł": 8344,
      "Ġà¤īà¤®à¤²à¤¤": 8345,
      "à¤Ĺà¤¡à¤®à¤§": 8346,
      "Ġà¤ħà¤µà¤¤à¤°à¤£": 8347,
      "à¤¨à¤ķà¤ļ": 8348,
      "Ġà¥§à¥¯à¥¨à¥§": 8349,
      "Ġà¥§à¥¯à¥¨à¥®": 8350,
      "Ġà¥§à¥¯à¥¨à¥Ń": 8351,
      "âĢ¦âĢ¦": 8352,
      "à¤µà¤¢à¤¯": 8353,
      "à¤ļà¤°à¤µà¤°": 8354,
      "à¤ıà¤®à¤ıà¤®": 8355,
      "à¤ıà¤®à¤Ĩà¤¯à¤¡": 8356,
      "à¤¯à¤ªà¤ļ": 8357,
      "Ġà¥®à¥«à¥¦": 8358,
      "à¤ķà¤¨à¤°à¤ļ": 8359,
      "Ġà¤īà¤ļà¤ķà¤Ł": 8360,
      "Ġ720": 8361,
      "Ġà¤µà¤¡à¤¨": 8362,
      "Ġà¤¢à¤¬": 8363,
      "Ġà¥§à¥¨à¥Ń": 8364,
      "Ġ158": 8365,
      "oration": 8366,
      "Ġ121": 8367,
      "ĠMe": 8368,
      "ĠMet": 8369,
      "Ġà¤Ĭà¤Ń": 8370,
      "à¤ıà¤²à¤Ĩà¤°": 8371,
      "ĠSC": 8372,
      "ĠSUV": 8373,
      "ĠPU": 8374,
      "esident": 8375,
      "Ġà¤ħà¤µà¤ĺà¤¡à¤²": 8376,
      "Ġ141": 8377,
      "Ġ147": 8378,
      "à¤ıà¤«à¤®à¤§": 8379,
      "à¤ıà¤«à¤ıà¤ķ": 8380,
      "à¥Ģ?\"": 8381,
      "ĠAUS": 8382,
      "Ġà¥§à¥¬à¥«": 8383,
      "Ġà¥§à¥©à¥®": 8384,
      "Ġà¤ķà¤³à¤®à¤ķà¤°": 8385,
      "Ġ240": 8386,
      "adha": 8387,
      "Ġà¥§à¥Ńà¥¨": 8388,
      "ĠID": 8389,
      "Ġà¤ĭà¤ľ": 8390,
      "à¤¾......": 8391,
      "Ġ139": 8392,
      "à¤ıà¤ļà¤Ĩà¤°": 8393,
      "à¤ıà¤ļà¤ĵà¤¨": 8394,
      "Ġà¤Ĩà¤łà¤µà¤£à¤¹": 8395,
      "itt": 8396,
      "itya": 8397,
      "à¥ĩ!\"": 8398,
      "à¥ĩ!)": 8399,
      "ĠBi": 8400,
      "ĠBo": 8401,
      "ĠBudget": 8402,
      "icy": 8403,
      "Ġà¥¨à¥¨à¥®": 8404,
      "ĠTh": 8405,
      "Ġà¤ıà¤²à¤Ł": 8406,
      "Ġà¤ıà¤²à¤ıà¤²à¤¬": 8407,
      "Ġ175": 8408,
      "Ġà¤įà¤£": 8409,
      "ism": 8410,
      "à¥ĩ'.": 8411,
      "Ġà¤ľà¤²à¤ľ": 8412,
      "à¤Ĺà¤®à¤§à¤²": 8413,
      "à¤ĸà¤¡à¤¯": 8414,
      "Ġà¤®à¤¦à¤¨à¤²": 8415,
      "Ġà¥¨à¥¬à¥¦": 8416,
      "ĠDesh": 8417,
      "ĠDep": 8418,
      "irl": 8419,
      "ĠLocal": 8420,
      "---------": 8421,
      "à¤Ĥ?âĢĻ": 8422,
      "Ġà¥¦à¥¨": 8423,
      "Ġsu": 8424,
      "ĠKoh": 8425,
      "ĠFarm": 8426,
      "Ġà¤ıà¤®à¤Ĩà¤¯à¤Ł": 8427,
      "à¥ĢâĢ¦.": 8428,
      "Ġà¤ħà¤ľà¤¯à¤¨": 8429,
      "à¤ħà¤Ńà¤¯": 8430,
      "eld": 8431,
      "ands": 8432,
      "riend": 8433,
      "reme": 8434,
      "à¥§à¥«à¥¦": 8435,
      "Ġà¤Ĩà¤ĸà¤¡à¤¤": 8436,
      "ĠUP": 8437,
      "Ġà¥§à¥¯à¥ªà¥¦": 8438,
      "Ġà¥§à¥¯à¥ªà¥§": 8439,
      "ump": 8440,
      "ĠÂ°": 8441,
      "Ġà¤ķà¤°à¤®à¤°à¤ķà¤°": 8442,
      "Ġà¤ªà¤µà¤¨à¤°": 8443,
      "aik": 8444,
[...]
