{
  "version": "1.0",
  "truncation": null,
  "padding": null,
  "added_tokens": [
    {
      "id": 0,
      "content": "[UNK]",
      "single_word": false,
      "lstrip": false,
      "rstrip": false,
      "normalized": false,
      "special": true
    },
    {
      "id": 1,
      "content": "[PAD]",
      "single_word": false,
      "lstrip": false,
      "rstrip": false,
      "normalized": false,
      "special": true
    },
    {
      "id": 2,
      "content": "[CLS]",
      "single_word": false,
      "lstrip": false,
      "rstrip": false,
      "normalized": false,
      "special": true
    },
    {
      "id": 3,
      "content": "[SEP]",
      "single_word": false,
      "lstrip": false,
      "rstrip": false,
      "normalized": false,
      "special": true
    },
    {
      "id": 4,
      "content": "[MASK]",
      "single_word": false,
      "lstrip": false,
      "rstrip": false,
      "normalized": false,
      "special": true
    }
  ],
  "normalizer": {
    "type": "NFC"
  },
  "pre_tokenizer": {
    "type": "Metaspace",
    "replacement": "▁",
    "prepend_scheme": "always",
    "split": true
  },
  "post_processor": null,
  "decoder": null,
  "model": {
    "type": "Unigram",
    "unk_id": 0,
    "vocab": [
      [
        "[UNK]",
        0.0
      ],
      [
        "[PAD]",
        0.0
      ],
      [
        "[CLS]",
        0.0
      ],
      [
        "[SEP]",
        0.0
      ],
      [
        "[MASK]",
        0.0
      ],
      [
        "\n",
        -4.110550245629142
      ],
      [
        "\r",
        -4.110550245629142
      ],
      [
        ",",
        -4.21633763145104
      ],
      [
        "▁आहे.",
        -4.281510831475771
      ],
      [
        "▁",
        -4.653436940300294
      ],
      [
        "▁आणि",
        -4.76442183431878
      ],
      [
        "▁या",
        -4.791283522770408
      ],
      [
        "च्या",
        -4.866113522873112
      ],
      [
        "त",
        -5.186370232478005
      ],
      [
        ".",
        -5.209440185015913
      ],
      [
        "च",
        -5.251570507890204
      ],
      [
        "ी",
        -5.294058212699811
      ],
      [
        "ला",
        -5.299247148543079
      ],
      [
        "चा",
        -5.399468981144745
      ],
      [
        "ची",
        -5.424046486901844
      ],
      [
        "ा",
        -5.426693773762894
      ],
      [
        "ही",
        -5.438935490536476
      ],
      [
        "चे",
        -5.4685347392572226
      ],
      [
        "े",
        -5.506602185800984
      ],
      [
        "▁हे",
        -5.6280270326876725
      ],
      [
        "ने",
        -5.675093994996734
      ],
      [
        "▁आहेत.",
        -5.702472254245686
      ],
      [
        "▁यांनी",
        -5.7345304020613455
      ],
      [
        "▁व",
        -5.7913987935305915
      ],
      [
        "▁तर",
        -5.796568870717934
      ],
      [
        "▁ते",
        -5.872047493253016
      ],
      [
        "▁एक",
        -5.909596037979755
      ],
      [
        "मध्ये",
        -5.911124882220886
      ],
      [
        "वर",
        -5.966446098914126
      ],
      [
        "▁हा",
        -5.9770638832657745
      ],
      [
        "ल",
        -6.049285743249902
      ],
      [
        "स",
        -6.097760345599323
      ],
      [
        "न",
        -6.0991417325519315
      ],
      [
        "र",
        -6.0996708957295365
      ],
      [
        "ं",
        -6.122027616137228
      ],
      [
        ")",
        -6.133298318667784
      ],
      [
        "▁काही",
        -6.164706607552372
      ],
      [
        "▁ही",
        -6.175551100664999
      ],
      [
        "▁करण्यात",
        -6.1773265363014485
      ],
      [
        "ात",
        -6.181552080105266
      ],
      [
        "▁नाही.",
        -6.221489482457567
      ],
      [
        "▁होते.",
        -6.222148427614238
      ],
      [
        "-",
        -6.240804508307363
      ],
      [
        "▁आहे",
        -6.249493516751663
      ],
      [
        "▁असे",
        -6.280031324856029
      ],
      [
        "ून",
        -6.303903422252159
      ],
      [
        "क",
        -6.3509434483975316
      ],
      [
        "साठी",
        -6.378221774888887
      ],
      [
        "▁केली",
        -6.391016836495647
      ],
      [
        "▁पण",
        -6.421006648183679
      ],
      [
        "▁त्या",
        -6.444366821760033
      ],
      [
        "ाच्या",
        -6.470724110254574
      ],
      [
        "’",
        -6.4916336846639275
      ],
      [
        "▁आता",
        -6.497602921177544
      ],
      [
        "ाचा",
        -6.518839495240236
      ],
      [
        "ाची",
        -6.522765529240392
      ],
      [
        "▁त्यामुळे",
        -6.532837988877407
      ],
      [
        "▁(",
        -6.545831498027647
      ],
      [
        "▁होती.",
        -6.550551911172777
      ],
      [
        "म",
        -6.602771142638064
      ],
      [
        "▁त्यांनी",
        -6.6282826822460805
      ],
      [
        "ाचे",
        -6.632645522690574
      ],
      [
        "▁आपल्या",
        -6.638863562793226
      ],
      [
        "▁यांच्या",
        -6.661735564375695
      ],
      [
        "▁एका",
        -6.674505123538411
      ],
      [
        "▁:",
        -6.68163994546204
      ],
      [
        "▁होता.",
        -6.684478511451163
      ],
      [
        "ली",
        -6.6890312735712545
      ],
      [
        "ले",
        -6.69318088060106
      ],
      [
        "▁केला",
        -6.697614371954581
      ],
      [
        "▁केले",
        -6.699878029279022
      ],
      [
        "▁अनेक",
        -6.725126412102046
      ],
      [
        "▁करून",
        -6.729560351115406
      ],
      [
        "व",
        -6.736098022789298
      ],
      [
        "▁तो",
        -6.7376893243030995
      ],
      [
        "▁न",
        -6.739768416755066
      ],
      [
        "ाला",
        -6.7524849827829065
      ],
      [
        "▁नाही",
        -6.760992853637962
      ],
      [
        "▁अशी",
        -6.778042263577589
      ],
      [
        "▁माहिती",
        -6.782558735092735
      ],
      [
        "▁सुरू",
        -6.782697138606208
      ],
      [
        "▁सर्व",
        -6.783175204568709
      ],
      [
        "▁करत",
        -6.7884552725209755
      ],
      [
        "▁मी",
        -6.791929818635312
      ],
      [
        "▁म्हणून",
        -6.7923531833239235
      ],
      [
        "▁असून",
        -6.793382123740814
      ],
      [
        "▁‘",
        -6.8142963966653145
      ],
      [
        "▁की",
        -6.821533424538435
      ],
      [
        "▁मात्र",
        -6.824350125163088
      ],
      [
        "▁काम",
        -6.833001072607388
      ],
      [
        "य",
        -6.843829857252512
      ],
      [
        "ता",
        -6.871941829477619
      ],
      [
        "▁दोन",
        -6.879940837978648
      ],
      [
        "▁आज",
        -6.8829559891494085
      ],
      [
        "ाने",
        -6.884778766191728
      ],
      [
        "▁असा",
        -6.89898555683687
      ],
      [
        "ना",
        -6.903168775302307
      ],
      [
        "ू",
        -6.908891361585447
      ],
      [
        "ांना",
        -6.914009933788654
      ],
      [
        "▁आले",
        -6.916591367593357
      ],
      [
        "▁त्यांच्या",
        -6.918557685997639
      ],
      [
        "ांच्या",
        -6.921953033890867
      ],
      [
        "▁त्यांना",
        -6.922595845909827
      ],
      [
        "प",
        -6.935079658967776
      ],
      [
        "▁आली",
        -6.940772365192071
      ],
      [
        "▁ती",
        -6.9467479143886735
      ],
      [
        "चं",
        -6.948102510397472
      ],
      [
        "▁होत",
        -6.951196628841602
      ],
      [
        "▁असं",
        -6.952230067127399
      ],
      [
        "▁मुंबई",
        -6.968331256894279
      ],
      [
        "ावर",
        -6.96933638284667
      ],
      [
        "▁आहे,",
        -6.970964144864633
      ],
      [
        "▁किंवा",
        -6.986381113111065
      ],
      [
        "'",
        -6.992242680924042
      ],
      [
        "तील",
        -6.994170030622742
      ],
      [
        "▁तसेच",
        -6.995620225421847
      ],
      [
        "▁हजार",
        -7.010498977005323
      ],
      [
        "▁अशा",
        -7.01493071422653
      ],
      [
        "▁झाली",
        -7.0330772729914095
      ],
      [
        "्या",
        -7.036660117013671
      ],
      [
        "ज",
        -7.046347690352471
      ],
      [
        "ील",
        -7.051378898891283
      ],
      [
        "ड",
        -7.05562719913471
      ],
      [
        "▁का",
        -7.059299014362164
      ],
      [
        "ट",
        -7.066998584637652
      ],
      [
        "▁जात",
        -7.085147910360341
      ],
      [
        "▁-",
        -7.092910703963318
      ],
      [
        "ण",
        -7.096839389024208
      ],
      [
        "▁आपण",
        -7.102224154906521
      ],
      [
        "शी",
        -7.102915483426273
      ],
      [
        "▁झाले",
        -7.119341626605204
      ],
      [
        "ातील",
        -7.122457331149777
      ],
      [
        "ांची",
        -7.129271951096669
      ],
      [
        "▁झाला",
        -7.141445696382325
      ],
      [
        "▁म्हणजे",
        -7.1479353921727125
      ],
      [
        "▁केली.",
        -7.149408650958646
      ],
      [
        "▁आला",
        -7.149949838611409
      ],
      [
        "▁कमी",
        -7.157915946576299
      ],
      [
        "▁'",
        -7.158943695329826
      ],
      [
        "ांनी",
        -7.1614833808537455
      ],
      [
        "ल्या",
        -7.164701139859343
      ],
      [
        "मधील",
        -7.165758497640875
      ],
      [
        "▁राज्य",
        -7.166633833513586
      ],
      [
        "▁काय",
        -7.1689522914297665
      ],
      [
        "▁अ",
        -7.182581627588592
      ],
      [
        "▁असलेल्या",
        -7.207192217331743
      ],
      [
        "्स",
        -7.2095526785386
      ],
      [
        "▁मध्ये",
        -7.210875393786621
      ],
      [
        "▁तरी",
        -7.2117069220340415
      ],
      [
        "▁कोरोना",
        -7.212086786244486
      ],
      [
        "▁यांना",
        -7.230438950748196
      ],
      [
        "▁येत",
        -7.240239020537256
      ],
      [
        "▁निर्णय",
        -7.246536221644439
      ],
      [
        "?",
        -7.247687017898235
      ],
      [
        "▁येथे",
        -7.25696232280389
      ],
      [
        "▁–",
        -7.2630845311093
      ],
      [
        "▁देखील",
        -7.263124160966164
      ],
      [
        "▁पोलीस",
        -7.275936240328063
      ],
      [
        "नं",
        -7.2956117010791495
      ],
      [
        "मुळे",
        -7.296105092659953
      ],
      [
        "ब",
        -7.2994519855741515
      ],
      [
        "ंना",
        -7.304662403890346
      ],
      [
        "▁की,",
        -7.305835869840948
      ],
      [
        "▁मला",
        -7.316694297288558
      ],
      [
        "ासाठी",
        -7.320685427202266
      ],
      [
        "▁होणार",
        -7.3212001788063255
      ],
      [
        "ांचा",
        -7.323419406592478
      ],
      [
        "▁सध्या",
        -7.325890810011089
      ],
      [
        "▁विचार",
        -7.34744601740617
      ],
      [
        "कर",
        -7.350892842258171
      ],
      [
        "▁दाखल",
        -7.355680941254661
      ],
      [
        "▁करण्यासाठी",
        -7.358245467450333
      ],
      [
        "▁भारतीय",
        -7.374947801592114
      ],
      [
        "नी",
        -7.385101972949004
      ],
      [
        "कडे",
        -7.389386176494325
      ],
      [
        "▁येथील",
        -7.395724098407113
      ],
      [
        "▁अधिक",
        -7.3990671566849695
      ],
      [
        "▁लाख",
        -7.40917537728032
      ],
      [
        "▁कारण",
        -7.4099710831099355
      ],
      [
        "▁प्रयत्न",
        -7.419303988445744
      ],
      [
        "▁गेल्या",
        -7.430000608860153
      ],
      [
        "▁केले.",
        -7.430566550232395
      ],
      [
        "▁स",
        -7.432469614969133
      ],
      [
        "▁देण्यात",
        -7.433421314173492
      ],
      [
        "ो",
        -7.438372134187215
      ],
      [
        "िंग",
        -7.443453934123811
      ],
      [
        "▁दिली",
        -7.4470647199361775
      ],
      [
        ":",
        -7.449418339754795
      ],
      [
        "▁त्याला",
        -7.459374067140967
      ],
      [
        "▁केला.",
        -7.466012410203003
      ],
      [
        "ित",
        -7.466485375094477
      ],
      [
        "▁पुन्हा",
        -7.46768919218642
      ],
      [
        ";",
        -7.474550587130079
      ],
      [
        "▁तीन",
        -7.478680505760382
      ],
      [
        "ि",
        -7.479014757441261
      ],
      [
        "▁झालेल्या",
        -7.486841395244049
      ],
      [
        "▁असल्याचे",
        -7.490389405735643
      ],
      [
        "!",
        -7.4911841541438715
      ],
      [
        "ग",
        -7.492564365977655
      ],
      [
        "ांचे",
        -7.492669928605196
      ],
      [
        "▁तयार",
        -7.496527972887112
      ],
      [
        "▁त्यानंतर",
        -7.503637471724655
      ],
      [
        "ंनी",
        -7.504835042461412
      ],
      [
        "▁दिवस",
        -7.507763004863687
      ],
      [
        "द",
        -7.515436295666513
      ],
      [
        "▁इतर",
        -7.516571917125354
      ],
      [
        "ंच्या",
        -7.523663732726435
      ],
      [
        "री",
        -7.525008424308007
      ],
      [
        "▁घेऊन",
        -7.532167900693569
      ],
      [
        "▁प्रश्न",
        -7.532334146534989
      ],
      [
        "▁केंद्र",
        -7.533176344380831
      ],
      [
        "पासून",
        -7.540725616655161
      ],
      [
        "▁त्याच्या",
        -7.543343131130355
      ],
      [
        "कडून",
        -7.547573856034996
      ],
      [
        "▁नाही,",
        -7.550995680357191
      ],
      [
        "▁सरकार",
        -7.555871164868638
      ],
      [
        "▁वापर",
        -7.5580744310597545
      ],
      [
        "▁आहेत",
        -7.562059682238884
      ],
      [
        "▁येणार",
        -7.562770395278063
      ],
      [
        "फ",
        -7.565534505978821
      ],
      [
        "▁आम्ही",
        -7.574880766408551
      ],
      [
        "लं",
        -7.576548189632737
      ],
      [
        "▁जे",
        -7.580351091276798
      ],
      [
        "▁मागणी",
        -7.585798039241869
      ],
      [
        "ह",
        -7.586712823757246
      ],
      [
        "▁सुरु",
        -7.588966773312327
      ],
      [
        "▁लोक",
        -7.594881607473008
      ],
      [
        "▁जास्त",
        -7.598439327606734
      ],
      [
        "श",
        -7.598555497225851
      ],
      [
        "ळ",
        -7.605169534357717
      ],
      [
        "रा",
        -7.6059251457568084
      ],
      [
        "▁यावेळी",
        -7.613058127383322
      ],
      [
        "▁नाव",
        -7.619637106491442
      ],
      [
        "वा",
        -7.619673276829632
      ],
      [
        "िक",
        -7.6254851893773665
      ],
      [
        "▁\"",
        -7.631360009264423
      ],
      [
        "णे",
        -7.633652322276012
      ],
      [
        "...",
        -7.635011167598224
      ],
      [
        "या",
        -7.646043032719696
      ],
      [
        "▁बंद",
        -7.647679000010047
      ],
      [
        "▁असते.",
        -7.65148870060227
      ],
      [
        "ीत",
        -7.652000013499823
      ],
      [
        "▁वाढ",
        -7.659161540615697
      ],
      [
        "डी",
        -7.662514706919042
      ],
      [
        "▁महाराष्ट्र",
        -7.66309218605732
      ],
      [
        "▁ज्या",
        -7.664228986063003
      ],
      [
        "▁रुपये",
        -7.6659081877175215
      ],
      [
        "▁करू",
        -7.680948245913896
      ],
      [
        "▁ठाकरे",
        -7.685511648172202
      ],
      [
        "▁कोटी",
        -7.690458898851098
      ],
      [
        "ंचा",
        -7.695512952674175
      ],
      [
        "▁मुख्यमंत्री",
        -7.696493975793466
      ],
      [
        "जी",
        -7.69776428583817
      ],
      [
        "▁निर्माण",
        -7.698255527972645
      ],
      [
        "▁असताना",
        -7.702729466176631
      ],
      [
        "▁पूर्ण",
        -7.7028053571052695
      ],
      [
        "▁मृत्यू",
        -7.704094172536768
      ],
      [
        "▁त्यात",
        -7.711700148755838
      ],
      [
        "▁आले.",
        -7.714031542190201
      ],
      [
        "▁पोलिसांनी",
        -7.715788650565219
      ],
      [
        "▁असेल",
        -7.720286735065159
      ],
      [
        "▁मदत",
        -7.722721328043269
      ],
      [
        "सह",
        -7.723586722783619
      ],
      [
        "▁रोजी",
        -7.7273491909643734
      ],
      [
        "▁विविध",
        -7.728834635186628
      ],
      [
        "ु",
        -7.737522330052748
      ],
      [
        "▁चर्चा",
        -7.738686569945601
      ],
      [
        "सा",
        -7.740230591739673
      ],
      [
        "▁मोदी",
        -7.741966521238767
      ],
      [
        "▁पवार",
        -7.744498314900092
      ],
      [
        "▁व्यक्त",
        -7.745894270190341
      ],
      [
        "णी",
        -7.747543574461137
      ],
      [
        "▁तेव्हा",
        -7.748851535467766
      ],
      [
        "▁टक्के",
        -7.749239957642656
      ],
      [
        "नंतर",
        -7.750307180988061
      ],
      [
        "्य",
        -7.7522436860977155
      ],
      [
        "▁ठिकाणी",
        -7.756384046946502
      ],
      [
        "▁दिले",
        -7.75760016116695
      ],
      [
        "▁पाटील",
        -7.758808238161649
      ],
      [
        "ंची",
        -7.7633657604423725
      ],
      [
        "▁प्रत्येक",
        -7.766620914661889
      ],
      [
        "▁असल्याने",
        -7.776327059411955
      ],
      [
        "▁यांची",
        -7.776480257151251
      ],
      [
        "▁पुढे",
        -7.777056864199658
      ],
      [
        "▁समोर",
        -7.777693717343629
      ],
      [
        "पर्यंत",
        -7.777805261997019
      ],
      [
        "▁उत्तर",
        -7.777911185046634
      ],
      [
        "▁दिला",
        -7.779756288723409
      ],
      [
        "ंग",
        -7.781981616993491
      ],
      [
        "▁मोठ्या",
        -7.784448814392897
      ],
      [
        "▁सरकारने",
        -7.787455313500274
      ],
      [
        "▁दिल्ली",
        -7.791416572443209
      ],
      [
        "▁तुम्ही",
        -7.792767987654942
      ],
      [
        "▁पाणी",
        -7.797648987901704
      ],
      [
        "▁मात्र,",
        -7.8022900876725405
      ],
      [
        "▁परंतु",
        -7.807699466191483
      ],
      [
        "▁डॉ.",
        -7.810075261761401
      ],
      [
        "▁होते",
        -7.812543309507987
      ],
      [
        "▁चार",
        -7.816666484373348
      ],
      [
        "▁मग",
        -7.818918141238285
      ],
      [
        "▁आरोप",
        -7.822188760010761
      ],
      [
        "▁अध्यक्ष",
        -7.827047437620706
      ],
      [
        "▁खूप",
        -7.830592027569246
      ],
      [
        "▁होऊ",
        -7.836871337796127
      ],
      [
        "ई",
        -7.840158692817688
      ],
      [
        "▁केलेल्या",
        -7.8421705088822
      ],
      [
        "थ",
        -7.848260637292526
      ],
      [
        "का",
        -7.848423412267877
      ],
      [
        "▁वेळ",
        -7.854126831325477
      ],
      [
        "▁करण्याची",
        -7.855697166806758
      ],
      [
        "ुन",
        -7.857309685856329
      ],
      [
        "लेल्या",
        -7.862416662673661
      ],
      [
        "▁झाला.",
        -7.862748889351689
      ],
      [
        "वि",
        -7.866329522581545
      ],
      [
        "▁माझ्या",
        -7.8676237270211615
      ],
      [
        "▁घटना",
        -7.868670467566776
      ],
      [
        "▁आमदार",
        -7.871396308994484
      ],
      [
        "तून",
        -7.874256269796215
      ],
      [
        "▁आरोग्य",
        -7.874478366723286
      ],
      [
        "▁केलं",
        -7.874842924707865
      ],
      [
        "▁कारवाई",
        -7.875071733530177
      ],
      [
        "▁ना",
        -7.877105989930078
      ],
      [
        "▁काळात",
        -7.8777543472680716
      ],
      [
        "▁भाजप",
        -7.879453641201334
      ],
      [
        "▁पाच",
        -7.879588787971043
      ],
      [
        "▁दिली.",
        -7.880320102197709
      ],
      [
        "ातून",
        -7.885696298915917
      ],
      [
        "▁जर",
        -7.887451031311576
      ],
      [
        "▁नवीन",
        -7.888799933994223
      ],
      [
        "▁करणे",
        -7.89277112651688
      ],
      [
        "▁भाग",
        -7.893157618515518
      ],
      [
        "▁महिला",
        -7.893173718234234
      ],
      [
        "▁रुग्ण",
        -7.893832376279828
      ],
      [
        "▁ब",
        -7.894664688045628
      ],
      [
        "▁उपलब्ध",
        -7.90149784146416
      ],
      [
        "▁केवळ",
        -7.901534025320288
      ],
      [
        "▁झाली.",
        -7.902113291409307
      ],
      [
        "ते",
        -7.902727790606125
      ],
      [
        "ास",
        -7.903090750978892
      ],
      [
        "▁करता",
        -7.903719982404089
      ],
      [
        "▁उपस्थित",
        -7.910905350580153
      ],
      [
        "▁काँग्रेस",
        -7.913859756646763
      ],
      [
        "मा",
        -7.916351245493916
      ],
      [
        "▁वर",
        -7.922289575704024
      ],
      [
        "▁होतं.",
        -7.9231662114383195
      ],
      [
        "▁बाहेर",
        -7.9236418142278175
      ],
      [
        "ामुळे",
        -7.924714817777295
      ],
      [
        "▁पुणे",
        -7.929771186643416
      ],
      [
        "▁त्याचा",
        -7.93378414649033
      ],
      [
        "▁जाते.",
        -7.935196264894831
      ],
      [
        "▁आली.",
        -7.935283679287005
      ],
      [
        "▁क",
        -7.9355449100077955
      ],
      [
        "▁पंतप्रधान",
        -7.939972656483501
      ],
      [
        "▁तिच्या",
        -7.940390728479883
      ],
      [
        "▁भारत",
        -7.940709269533206
      ],
      [
        "▁जिल्हा",
        -7.94072540986555
      ],
      [
        "▁त्याने",
        -7.942292770003398
      ],
      [
        "▁दर",
        -7.942497669668882
      ],
      [
        "▁नेते",
        -7.945626278594794
      ],
      [
        "ांवर",
        -7.947716889082713
      ],
      [
        "ती",
        -7.947780488408869
      ],
      [
        "ंचे",
        -7.953010711183767
      ],
      [
        "▁सु",
        -7.9537449069260875
      ],
      [
        "▁यांचा",
        -7.955273894530929
      ],
      [
        "▁बदल",
        -7.956709250351765
      ],
      [
        "▁करणार",
        -7.9567324790575515
      ],
      [
        "▁जाहीर",
        -7.963672833359104
      ],
      [
        "▁शक्यता",
        -7.964867251366481
      ],
      [
        "▁राज",
        -7.965650531621337
      ],
      [
        "▁फक्त",
        -7.965741340285704
      ],
      [
        "…",
        -7.966446113232523
      ],
      [
        "▁राज्यात",
        -7.966796293900921
      ],
      [
        "▁त्यांची",
        -7.967749798163261
      ],
      [
        "▁माजी",
        -7.968443936869835
      ],
      [
        "▁सांगितले.",
        -7.97018504404351
      ],
      [
        "▁म",
        -7.97056171741627
      ],
      [
        "▁व्यक्ती",
        -7.973813157819621
      ],
      [
        "▁घर",
        -7.973949478925179
      ],
      [
        "▁चित्रपट",
        -7.9751436462143745
      ],
      [
        "\"",
        -7.975816117516996
      ],
      [
        "▁करताना",
        -7.975909549081593
      ],
      [
        "▁मे",
        -7.975983257315043
      ],
      [
        "▁प्र",
        -7.976640224460981
      ],
      [
        "▁घेत",
        -7.977168345740254
      ],
      [
        "▁यासाठी",
        -7.980040363946362
      ],
      [
        "▁आ",
        -7.980088709115857
      ],
      [
        "▁पक्ष",
        -7.981146790995454
      ],
      [
        "▁दोन्ही",
        -7.986674140345127
      ],
      [
        "▁बस",
        -7.989016825998369
      ],
      [
        "सोबत",
        -7.990404854017924
      ],
      [
        "▁स्पष्ट",
        -7.991507395629777
      ],
      [
        "▁१९",
        -7.992041474669491
      ],
      [
        "ंड",
        -7.992513748411433
      ],
      [
        "▁नवी",
        -7.992625433341992
      ],
      [
        "▁विजय",
        -7.997233313294925
      ],
      [
        "▁दिसत",
        -8.004815318654135
      ],
      [
        "▁करण्याचा",
        -8.005252533595602
      ],
      [
        "▁शिक्षण",
        -8.007411859727924
      ],
      [
        "▁विशेष",
        -8.008627192192673
      ],
      [
        "▁भर",
        -8.010124408905696
      ],
      [
        "ांमध्ये",
        -8.010885450597206
      ],
      [
        "▁झाले.",
        -8.016311547377237
      ],
      [
        "▁फोटो",
        -8.016993783048122
      ],
      [
        "▁यांचे",
        -8.02116570252582
      ],
      [
        "▁संख्या",
        -8.022352021936992
      ],
      [
        "▁घेतला",
        -8.026507949178715
      ],
      [
        "▁यामुळे",
        -8.02782645508265
      ],
      [
        "▁भेट",
        -8.028178636086144
      ],
      [
        "▁आवश्यक",
        -8.029580151330823
      ],
      [
        "▁सुरुवात",
        -8.034801224598638
      ],
      [
        "▁पोलिस",
        -8.036364446786873
      ],
      [
        "▁याबाबत",
        -8.03647904846152
      ],
      [
        "▁जाणार",
        -8.03756190946908
      ],
      [
        "▁मोठा",
        -8.043515894940896
      ],
      [
        "▁प्रकार",
        -8.043753277983416
      ],
      [
        "▁भूमिका",
        -8.044207038121687
      ],
      [
        "▁“",
        -8.045124592410456
      ],
      [
        "▁सोशल",
        -8.048630722241043
      ],
      [
        "ामध्ये",
        -8.052261349049736
      ],
      [
        "▁प्रमाणात",
        -8.054218580393737
      ],
      [
        "▁त्यांचे",
        -8.05489284349062
      ],
      [
        "▁रेल्वे",
        -8.062508034707212
      ],
      [
        "ख",
        -8.06367707000249
      ],
      [
        "▁इ",
        -8.065278209190495
      ],
      [
        "▁आला.",
        -8.065391671108351
      ],
      [
        "▁आर्थिक",
        -8.06550300683909
      ],
      [
        "▁द",
        -8.065774133235221
      ],
      [
        "▁वि",
        -8.066184625433705
      ],
      [
        "▁मुख्य",
        -8.073287734333569
      ],
      [
        "▁देत",
        -8.078597123618582
      ],
      [
        "▁म्हटले",
        -8.081026777720997
      ],
      [
        "▁गाव",
        -8.081683583879817
      ],
      [
        "▁मराठी",
        -8.084553772160522
      ],
      [
        "▁मंत्री",
        -8.086737470973443
      ],
      [
        "▁लक्ष",
        -8.088179489672036
      ],
      [
        "▁यात",
        -8.089885883711382
      ],
      [
        "▁दरम्यान,",
        -8.091296538499773
      ],
      [
        "▁तुम्हाला",
        -8.096239260199358
      ],
      [
        "▁आलेल्या",
        -8.101295460025536
      ],
      [
        "सी",
        -8.10223085372963
      ],
      [
        "▁असतात.",
        -8.103620620023262
      ],
      [
        "▁विकास",
        -8.106206594001453
      ],
      [
        "▁सांगितले",
        -8.108835324340312
      ],
      [
        "▁अधिकारी",
        -8.110080810992208
      ],
      [
        "▁अटक",
        -8.111870221718767
      ],
      [
        "▁राजकीय",
        -8.113712062852224
      ],
      [
        "▁प",
        -8.114601183677355
      ],
      [
        "णाऱ्या",
        -8.114908989607196
      ],
      [
        "▁आपल्याला",
        -8.118909900982441
      ],
      [
        "▁ह्या",
        -8.122308198760965
      ],
      [
        "▁करुन",
        -8.125475500369895
      ],
      [
        "▁दरम्यान",
        -8.127841835477136
      ],
      [
        "णार",
        -8.127892795352064
      ],
      [
        "▁पार",
        -8.129900678181404
      ],
      [
        "▁सर्वात",
        -8.13187189422271
      ],
      [
        "▁याची",
        -8.13221824571663
      ],
      [
        "मधून",
        -8.13299903724865
      ],
      [
        "▁योग्य",
        -8.139624167365142
      ],
      [
        "▁आणखी",
        -8.139981297438611
      ],
      [
        "▁१",
        -8.140357697002745
      ],
      [
        "▁आंदोलन",
        -8.141987730364974
      ],
      [
        "▁ग",
        -8.146233904053359
      ],
      [
        "▁राज्यातील",
        -8.14676482311325
      ],
      [
        "वे",
        -8.14705032971971
      ],
      [
        "▁त्याची",
        -8.147360804091317
      ],
      [
        "..",
        -8.147805215366834
      ],
      [
        "▁संपूर्ण",
        -8.14966401454246
      ],
      [
        "य.",
        -8.150745810537991
      ],
      [
        "रे",
        -8.151209014527794
      ],
      [
        "▁गरज",
        -8.15317743169458
      ],
      [
        "के",
        -8.154395090045707
      ],
      [
        "▁कर",
        -8.154760921594624
      ],
      [
        "से",
        -8.157586486012942
      ],
      [
        "▁कधी",
        -8.161791861397566
      ],
      [
        "▁करीत",
        -8.162811378596098
      ],
      [
        "▁गेले",
        -8.164817365120244
      ],
      [
        "▁नाहीत.",
        -8.165587316476799
      ],
      [
        "▁रात्री",
        -8.166899615208573
      ],
      [
        "▁नंतर",
        -8.167096916797174
      ],
      [
        "▁नि",
        -8.168378561109773
      ],
      [
        "▁१०",
        -8.17008081974664
      ],
      [
        "▁याचा",
        -8.17081871203522
      ],
      [
        "▁एकदा",
        -8.171326793794075
      ],
      [
        "▁परत",
        -8.17358549502572
      ],
      [
        "▁त्यांचा",
        -8.177113009747952
      ],
      [
        "▁गोष्टी",
        -8.179971073486975
      ],
      [
        "▁करणाऱ्या",
        -8.180394422705014
      ],
      [
        "▁जागा",
        -8.18302278414738
      ],
      [
        "दा",
        -8.185944166036482
      ],
      [
        "▁शहर",
        -8.186763409967588
      ],
      [
        "▁उपचार",
        -8.189416356696565
      ],
      [
        "▁राष्ट्रवादी",
        -8.192030353793811
      ],
      [
        "▁लक्षात",
        -8.192832945317942
      ],
      [
        "▁असल्याची",
        -8.200916211347625
      ],
      [
        "▁देशात",
        -8.201502619092809
      ],
      [
        "▁एकूण",
        -8.202316643163073
      ],
      [
        "▁गांधी",
        -8.202984593520092
      ],
      [
        "▁सकाळी",
        -8.207813779798919
      ],
      [
        "▁घरी",
        -8.20838416523763
      ],
      [
        "▁असतो.",
        -8.208853150002623
      ],
      [
        "ायला",
        -8.209963838811836
      ],
      [
        "▁समावेश",
        -8.210291067136545
      ],
      [
        "▁प्रवेश",
        -8.211689856517898
      ],
      [
        "▁मोठी",
        -8.213360756259483
      ],
      [
        "▁तिला",
        -8.213769353124533
      ],
      [
        "▁पहिल्या",
        -8.21416044440883
      ],
      [
        "▁निवडणूक",
        -8.214228061719282
      ],
      [
        "▁देव",
        -8.214630794544298
      ],
      [
        "▁२",
        -8.21719963304938
      ],
      [
        "▁खर्च",
        -8.217584277823164
      ],
      [
        "वी",
        -8.21798589853723
      ],
      [
        "▁आदेश",
        -8.22072665589956
      ],
      [
        "पणे",
        -8.220893550736967
      ],
      [
        "▁वेळी",
        -8.223767660522265
      ],
      [
        "ंवर",
        -8.225747157634014
      ],
      [
        "▁दिवशी",
        -8.232042313610092
      ],
      [
        "टी",
        -8.239957989405287
      ],
      [
        "ला.",
        -8.242213677293504
      ],
      [
        "▁आपले",
        -8.244538398354226
      ],
      [
        "▁ज",
        -8.24727378052856
      ],
      [
        "▁आहेत,",
        -8.250785972344996
      ],
      [
        "शा",
        -8.250917500662784
      ],
      [
        "▁उद्धव",
        -8.254843875581383
      ],
      [
        "▁खेळ",
        -8.256596066193605
      ],
      [
        "▁ने",
        -8.256863597466568
      ],
      [
        "▁भारतात",
        -8.259410613011067
      ],
      [
        "▁करोना",
        -8.260181862092484
      ],
      [
        "▁घेतली",
        -8.261868933311668
      ],
      [
        "▁किती",
        -8.263819466761223
      ],
      [
        "्",
        -8.266734677489758
      ],
      [
        "▁संघ",
        -8.275372194921026
      ],
      [
        "▁खासदार",
        -8.276872247873484
      ],
      [
        "बाबत",
        -8.278174227500848
      ],
      [
        "▁सेवा",
        -8.278500978170541
      ],
      [
        "प्र",
        -8.278964811969704
      ],
      [
        "ाचं",
        -8.279994636984377
      ],
      [
        "▁उ",
        -8.28112906643477
      ],
      [
        "▁हात",
        -8.28136917832124
      ],
      [
        "▁त्याचे",
        -8.2822676635375
      ],
      [
        "▁होता",
        -8.283900853111689
      ],
      [
        "▁आपली",
        -8.284435104584912
      ],
      [
        "हा",
        -8.285661066529457
      ],
      [
        "▁दुसऱ्या",
        -8.28830285971316
      ],
      [
        "▁३",
        -8.29056715370635
      ],
      [
        "ांसाठी",
        -8.290786131875727
      ],
      [
        "▁पैसे",
        -8.295503061252488
      ],
      [
        "▁परिणाम",
        -8.298165767843638
      ],
      [
        "▁संजय",
        -8.302127914385604
      ],
      [
        "▁तपास",
        -8.302811717197915
      ],
      [
        "▁वा",
        -8.305212803969638
      ],
      [
        "की",
        -8.305687476901365
      ],
      [
        "▁1",
        -8.30661794720912
      ],
      [
        "▁प्रमुख",
        -8.306743337701516
      ],
      [
        "/",
        -8.308412295719219
      ],
      [
        "▁जो",
        -8.308722644259355
      ],
      [
        "▁लोकांना",
        -8.309097031840903
      ],
      [
        "▁गुन्हा",
        -8.312315748692807
      ],
      [
        "▁राष्ट्रीय",
        -8.312361602884693
      ],
      [
        "▁का?",
        -8.31253943304926
      ],
      [
        "त्या",
        -8.31478282863167
      ],
      [
        "▁निवड",
        -8.315507069046525
      ],
      [
        "▁ला",
        -8.316539955975285
      ],
      [
        "दार",
        -8.317782013135469
      ],
      [
        "▁परिस्थिती",
        -8.319518691057127
      ],
      [
        "▁मिळत",
        -8.323484190073891
      ],
      [
        "ताना",
        -8.324683152872389
      ],
      [
        "▁भागात",
        -8.327121212197898
      ],
      [
        "▁नरेंद्र",
        -8.329147973551915
      ],
      [
        "▁5",
        -8.330004945137281
      ],
      [
        "▁10",
        -8.331153170392739
      ],
      [
        "ीय",
        -8.331952310597897
      ],
      [
        "▁खरेदी",
        -8.332517788427651
      ],
      [
        "▁राम",
        -8.334841744889044
      ],
      [
        "▁शेतकरी",
        -8.3350331244604
      ],
      [
        "▁देश",
        -8.336078198055707
      ],
      [
        "▁विषय",
        -8.337386607156635
      ],
      [
        "▁पि",
        -8.338737854822725
      ],
      [
        "ले.",
        -8.338754026975629
      ],
      [
        "▁कोणत्याही",
        -8.338756026456569
      ],
      [
        "▁टीम",
        -8.339356118592331
      ],
      [
        "पी",
        -8.342471927300984
      ],
      [
        "▁2",
        -8.343194868795155
      ],
      [
        "▁जिल्ह्यातील",
        -8.343716057898302
      ],
      [
        "▁प्रवास",
        -8.344426065568637
      ],
      [
        "▁माध्यमातून",
        -8.34649290906243
      ],
      [
        "▁दिलेल्या",
        -8.349962072258826
      ],
      [
        "▁आनंद",
        -8.350456577959884
      ],
      [
        "▁आपला",
        -8.35195573014066
      ],
      [
        "ॅ",
        -8.35215878828482
      ],
      [
        "▁सहा",
        -8.352841400995626
      ],
      [
        "▁चौकशी",
        -8.35701802526144
      ],
      [
        "▁होती",
        -8.357328643490387
      ],
      [
        "▁मार्ग",
        -8.358549561573241
      ],
      [
        "▁तुमच्या",
        -8.358980303825568
      ],
      [
        "िन",
        -8.35938461911872
      ],
      [
        "▁को",
        -8.362699361527868
      ],
      [
        "ंमध्ये",
        -8.366118827350007
      ],
      [
        "▁घेण्यात",
        -8.368839753082213
      ],
      [
        "▁खान",
        -8.369237465626405
      ],
      [
        "▁५",
        -8.371109659659785
      ],
      [
        "▁संबंधित",
        -8.373962305732766
      ],
      [
        "▁वाट",
        -8.374670696993954
      ],
      [
        "▁रंग",
        -8.376271267201405
      ],
      [
        "▁कार्यक्रम",
        -8.379945278571281
      ],
      [
        "▁प्रकल्प",
        -8.380123986444213
      ],
      [
        "▁योजना",
        -8.38129878343691
      ],
      [
        "▁केल्या",
        -8.381615875321499
      ],
      [
        "e",
        -8.382593544951918
      ],
      [
        "▁शेअर",
        -8.386936248973798
      ],
      [
        "वरील",
        -8.387700352233383
      ],
      [
        "झ",
        -8.39039647095412
      ],
      [
        "▁जिल्ह्यात",
        -8.390774464285958
      ],
      [
        "▁मान",
        -8.392689366417951
      ],
      [
        "▁फडणवीस",
        -8.393112025802942
      ],
      [
        "पेक्षा",
        -8.39435918870647
      ],
      [
        "▁लग्न",
        -8.394575766769634
      ],
      [
        "▁जग",
        -8.403327896961713
      ],
      [
        "▁मत",
        -8.404083999450126
      ],
      [
        "▁तास",
        -8.40477221423215
      ],
      [
        "▁चा",
        -8.404786414979075
      ],
      [
        "▁होऊन",
        -8.4050567381624
      ],
      [
        "▁ऑफ",
        -8.40554324612259
      ],
      [
        "▁पुढील",
        -8.405691828306363
      ],
      [
        "▁संधी",
        -8.405906529171135
      ],
      [
        "▁विभाग",
        -8.407114603806708
      ],
      [
        "बद्दल",
        -8.40844808674699
      ],
      [
        "▁टीका",
        -8.411894067934892
      ],
      [
        "▁प्रदेश",
        -8.41285090312297
      ],
      [
        "▁शरद",
        -8.415413286536785
      ],
      [
        "क्ष",
        -8.416122945386459
      ],
      [
        "▁सिनेमा",
        -8.416510948534212
      ],
      [
        "ानंतर",
        -8.418023232333896
      ],
      [
        "▁आलं",
        -8.418349132775568
      ],
      [
        "▁लहान",
        -8.419146220030484
      ],
      [
        "▁राहुल",
        -8.421239617129881
      ],
      [
        "जा",
        -8.421239728646084
      ],
      [
        "▁मा",
        -8.422014596176576
      ],
      [
        "▁होईल.",
        -8.422508138815427
      ],
      [
        "पणा",
        -8.422717328384714
      ],
      [
        "▁ओ",
        -8.423504231196624
      ],
      [
        "वरून",
        -8.424883572745689
      ],
      [
        "स्ट",
        -8.427377950536297
      ],
      [
        "नि",
        -8.427412101135404
      ],
      [
        "▁जी",
        -8.43422204287512
      ],
      [
        "▁वर्ष",
        -8.435297573206574
      ],
      [
        "▁होतो.",
        -8.435659102158928
      ],
      [
        "व्ह",
        -8.435978185114951
      ],
      [
        "गाव",
        -8.436114566929657
      ],
      [
        "▁चाल",
        -8.436939093834543
      ],
      [
        "राव",
        -8.437036088274027
      ],
      [
        "▁परिसरात",
        -8.437310440992924
      ],
      [
        "),",
        -8.437358648978677
      ],
      [
        "▁केंद्रीय",
        -8.43756809806714
      ],
      [
        "▁जेव्हा",
        -8.437993282327458
      ],
      [
        "▁असल्याचं",
        -8.438346065215928
      ],
      [
        "▁गंभीर",
        -8.440243787827619
      ],
      [
        "▁चित्र",
        -8.44043346163604
      ],
      [
        "ेल",
        -8.441101732053646
      ],
      [
        "बी",
        -8.441658719726718
      ],
      [
        "▁त्यावर",
        -8.44266381783983
      ],
      [
        "▁आरोपी",
        -8.442856490675867
      ],
      [
        "▁3",
        -8.444426341350379
      ],
      [
        "”",
        -8.444758043986935
      ],
      [
        "o",
        -8.445661166448106
      ],
      [
        "▁म्हणाले",
        -8.44649602231518
      ],
      [
        "भ",
        -8.448687083801037
      ],
      [
        "तात.",
        -8.449187546594086
      ],
      [
        "▁सामना",
        -8.449360426559657
      ],
      [
        "▁करण्याचे",
        -8.449960522089409
      ],
      [
        "▁फार",
        -8.450844301223817
      ],
      [
        "डे",
        -8.451445256619326
      ],
      [
        "▁त्यावेळी",
        -8.45304158891306
      ],
      [
        "▁वर्षी",
        -8.455366084475077
      ],
      [
        "▁भाव",
        -8.455795017564755
      ],
      [
        "▁श",
        -8.456642293964423
      ],
      [
        "▁नव्या",
        -8.456766590359752
      ],
      [
        "द्वारे",
        -8.45819215734225
      ],
      [
        "▁ख",
        -8.459330351945725
      ],
      [
        "▁प्रेम",
        -8.459974065160488
      ],
      [
        "▁घोषणा",
        -8.464569404202017
      ],
      [
        "ली.",
        -8.468275542439812
      ],
      [
        "▁अगदी",
        -8.471441005234162
      ],
      [
        "▁शिवसेना",
        -8.473315613068202
      ],
      [
        "▁आई",
        -8.47485871191973
      ],
      [
        "ठ",
        -8.474999269110821
      ],
      [
        "▁मन",
        -8.475005969374617
      ],
      [
        "▁त्यासाठी",
        -8.475301104543652
      ],
      [
        "सं",
        -8.475665781634138
      ],
      [
        "▁सदस्य",
        -8.47640971306557
      ],
      [
        "▁असून,",
        -8.481710699663306
      ],
      [
        "▁फोन",
        -8.486914173957924
      ],
      [
        "देखील",
        -8.487480999477865
      ],
      [
        "▁मु",
        -8.487562343200807
      ],
      [
        "▁आमच्या",
        -8.488212059302228
      ],
      [
        "▁नियम",
        -8.489333754052677
      ],
      [
        "▁पर्यंत",
        -8.490445189135443
      ],
      [
        "▁यश",
        -8.491317846014542
      ],
      [
        "▁उच्च",
        -8.493221256169447
      ],
      [
        "▁कायम",
        -8.496863921521143
      ],
      [
        "▁कार",
        -8.49686783014672
      ],
      [
        "▁होत्या.",
        -8.497805663820358
      ],
      [
        "▁उप",
        -8.498016584008003
      ],
      [
        "▁मित्र",
        -8.498132408410905
      ],
      [
        "▁शोध",
        -8.498535938264759
      ],
      [
        "▁मुंबईत",
        -8.499326525468334
      ],
      [
        "▁म्हटलं",
        -8.502801943850981
      ],
      [
        "▁ए",
        -8.504371145940656
      ],
      [
        "▁४",
        -8.505343402545222
      ],
      [
        "▁विश्वास",
        -8.507014137968305
      ],
      [
        "▁आतापर्यंत",
        -8.510106748271191
      ],
      [
        "स्",
        -8.510828177838933
      ],
      [
        "▁आघाडी",
        -8.511035483305502
      ],
      [
        "▁शकते.",
        -8.51220940112579
      ],
      [
        "▁बे",
        -8.513487755013404
      ],
      [
        "▁प्रमाण",
        -8.51435569287295
      ],
      [
        "लेले",
        -8.514719967880751
      ],
      [
        "▁जाऊ",
        -8.517397651680003
      ],
      [
        "▁काळ",
        -8.517466802425481
      ],
      [
        "▁देशातील",
        -8.518294994047551
      ],
      [
        "▁अर्ज",
        -8.519301002079052
      ],
      [
        "▁घरात",
        -8.519947157114732
      ],
      [
        "▁व्यवसाय",
        -8.520399822574294
      ],
      [
        "▁रि",
        -8.52064858198148
      ],
      [
        "णा",
        -8.520682277877924
      ],
      [
        "▁म्हणाले.",
        -8.522345989712548
      ],
      [
        "मान",
        -8.522451997437006
      ],
      [
        "▁क्रिकेट",
        -8.523815698205203
      ],
      [
        "▁आयुक्त",
        -8.525671779511534
      ],
      [
        "▁लागू",
        -8.525826341380686
      ],
      [
        "▁ह",
        -8.526396423305606
      ],
      [
        "ाकडे",
        -8.527634922418308
      ],
      [
        "▁वाद",
        -8.527857431734436
      ],
      [
        "▁तिने",
        -8.527869153499196
      ],
      [
        "▁कर्ज",
        -8.528407642563847
      ],
      [
        "▁झालं",
        -8.528797960976572
      ],
      [
        "▁मिळणार",
        -8.529582363029174
      ],
      [
        "▁दूर",
        -8.531171810938963
      ],
      [
        "▁नुकसान",
        -8.532080835959317
      ],
      [
        "▁याच",
        -8.532786753110834
      ],
      [
        "▁परवानगी",
        -8.533560883332456
      ],
      [
        "▁इंडिया",
        -8.53356662523318
      ],
      [
        "▁कि",
        -8.536401380027893
      ],
      [
        "▁तालुक्यातील",
        -8.53885993609897
      ],
      [
        "▁स्थानिक",
        -8.54051831845175
      ],
      [
        "िया",
        -8.540558602677535
      ],
      [
        "▁बँक",
        -8.540665196400845
      ],
      [
        "ंट",
        -8.541095405851465
      ],
      [
        "▁उमेदवार",
        -8.54397704875135
      ],
      [
        "▁सामाजिक",
        -8.544090810079105
      ],
      [
        "गा",
        -8.544319861419922
      ],
      [
        "ष",
        -8.545351811905089
      ],
      [
        "▁समिती",
        -8.545671757217406
      ],
      [
        "▁गेली",
        -8.545743233251702
      ],
      [
        "▁मागे",
        -8.54675694796386
      ],
      [
        "▁जण",
        -8.547338745887496
      ],
      [
        "▁त",
        -8.549327786297983
      ],
      [
        "▁यामध्ये",
        -8.549488072520244
      ],
      [
        "तो",
        -8.549930929672506
      ],
      [
        "▁...",
        -8.550314225746614
      ],
      [
        "▁अभिनेत्री",
        -8.55111582557057
      ],
      [
        "▁कार्य",
        -8.55224490182314
      ],
      [
        "नुसार",
        -8.552292097294824
      ],
      [
        "व्या",
        -8.552315565403042
      ],
      [
        "▁कंपनी",
        -8.553607266167878
      ],
      [
        "▁धर्म",
        -8.55559219840729
      ],
      [
        "ाव",
        -8.555662897976404
      ],
      [
        "ांत",
        -8.558131477200423
      ],
      [
        "▁अन्य",
        -8.55833399386713
      ],
      [
        "▁मंदिर",
        -8.561981591505038
      ],
      [
        "ाशी",
        -8.562833950977243
      ],
      [
        "▁आवाहन",
        -8.563405153524553
      ],
      [
        "▁महा",
        -8.563425938132784
      ],
      [
        "▁समाज",
        -8.56417955497486
      ],
      [
        "▁प्रकरण",
        -8.564445610851509
      ],
      [
        "▁यावर",
        -8.565103977147672
      ],
      [
        "ऱ्या",
        -8.566623925958538
      ],
      [
        "▁ओळख",
        -8.567000088655979
      ],
      [
        "तो.",
        -8.568476638185174
      ],
      [
        "▁रुग्णालयात",
        -8.570022174615623
      ],
      [
        "ावे",
        -8.570468835661014
      ],
      [
        "▁परीक्षा",
        -8.57115316150813
      ],
      [
        "▁वाढत",
        -8.571899404944311
      ],
      [
        "▁नोंद",
        -8.572490781887204
      ],
      [
        "▁अर्थ",
        -8.574446165515198
      ],
      [
        "▁शहरात",
        -8.576307377363404
      ],
      [
        "▁पत्रकार",
        -8.577716684319391
      ],
      [
        "▁काल",
        -8.579158765152233
      ],
      [
        "▁महाराष्ट्रात",
        -8.57942908230178
      ],
      [
        "▁दिसून",
        -8.581716505117502
      ],
      [
        "ंत",
        -8.582937204350952
      ],
      [
        "▁घेतले",
        -8.585871620443122
      ],
      [
        "न्स",
        -8.586092083451728
      ],
      [
        "▁करण्यास",
        -8.587218555936882
      ],
      [
        "▁जाऊन",
        -8.588088018313863
      ],
      [
        "▁१५",
        -8.589657331802432
      ],
      [
        "▁आधी",
        -8.590639001360302
      ],
      [
        "▁कु",
        -8.590704291553347
      ],
      [
        "▁हो",
        -8.591341646823281
      ],
      [
        "▁करतात.",
        -8.59241461376227
      ],
      [
        "▁थेट",
        -8.593217281023083
      ],
      [
        "▁सुमारे",
        -8.593530122116043
      ],
      [
        "▁कुटुंब",
        -8.59629701723345
      ],
      [
        "कार",
        -8.596564262966208
      ],
      [
        "▁शकत",
        -8.599155893618011
      ],
      [
        "▁देऊन",
        -8.599502840638976
      ],
      [
        "पा",
        -8.6002109168946
      ],
      [
        "▁अभ्यास",
        -8.601147890582656
      ],
      [
        "▁अनुभव",
        -8.601689087260663
      ],
      [
        "पूर",
        -8.602146163532792
      ],
      [
        "▁सुद्धा",
        -8.602375039759147
      ],
      [
        "▁सात",
        -8.602653089777252
      ],
      [
        "▁प्रसिद्ध",
        -8.60291283793205
      ],
      [
        "▁शकतो.",
        -8.605548322508444
      ],
      [
        "▁सिंह",
        -8.607888585091427
      ],
      [
        "▁जातो.",
        -8.60845133685105
      ],
      [
        "ध",
        -8.609125098600629
      ],
      [
        "▁महिन्यात",
        -8.611862812411246
      ],
      [
        "▁एखाद्या",
        -8.611888826993285
      ],
      [
        "▁जन्म",
        -8.61220924100079
      ],
      [
        "मी",
        -8.614378272546237
      ],
      [
        "▁समस्या",
        -8.615454265219869
      ],
      [
        "▁लागणार",
        -8.61623817968352
      ],
      [
        "▁७",
        -8.616795454274065
      ],
      [
        "▁६",
        -8.617697521692978
      ],
      [
        "िल",
        -8.618664002729412
      ],
      [
        "▁शब्द",
        -8.618789955859924
      ],
      [
        "लो",
        -8.61979680192039
      ],
      [
        "▁झाल्यानंतर",
        -8.623022118583398
      ],
      [
        "▁आठ",
        -8.623849939131254
      ],
      [
        "▁अत्यंत",
        -8.62591786008047
      ],
      [
        "▁के",
        -8.627278562610826
      ],
      [
        "▁गाडी",
        -8.627297371974215
      ],
      [
        "▁एकत्र",
        -8.628696880654076
      ],
      [
        "▁19",
        -8.628699170404694
      ],
      [
        "▁आल्या",
        -8.630044853227023
      ],
      [
        "▁पद",
        -8.630381847659567
      ],
      [
        "ण्यासाठी",
        -8.631706779394182
      ],
      [
        "▁करा",
        -8.632632981603674
      ],
      [
        "▁रे",
        -8.633182698712528
      ],
      [
        "▁हवामान",
        -8.633289433816515
      ],
      [
        "▁मीडियावर",
        -8.636906375438901
      ],
      [
        "▁तक्रार",
        -8.636912185643538
      ],
      [
        "▁विधानसभा",
        -8.637839935241477
      ],
      [
        "बा",
        -8.6383090319144
      ],
      [
        "▁उघड",
        -8.6386487321566
      ],
      [
        "▁मागील",
        -8.639517964360605
      ],
      [
        "▁मोठे",
        -8.644547330164716
      ],
      [
        "▁२०",
        -8.64464397919661
      ],
      [
        "▁लाभ",
        -8.646922686314186
      ],
      [
        "हून",
        -8.648572275996518
      ],
      [
        "▁नाशिक",
        -8.65003496474731
      ],
      [
        "▁क्षेत्र",
        -8.650099747870637
      ],
      [
        "ानं",
        -8.651249219511577
      ],
      [
        "▁जीव",
        -8.651881274648193
      ],
      [
        "▁८",
        -8.652706787160525
      ],
      [
        "▁सादर",
        -8.65544158303489
      ],
      [
        "▁काळजी",
        -8.656551681371258
      ],
      [
        "▁संबंध",
        -8.656730309012465
      ],
      [
        "▁आय",
        -8.657815145509169
      ],
      [
        "▁दिला.",
        -8.657924892757574
      ],
      [
        "▁येईल.",
        -8.659573653091948
      ],
      [
        "▁पा",
        -8.660816422098925
      ],
      [
        "▁दावा",
        -8.661927122042133
      ],
      [
        "▁तब्ब",
        -8.662815231443851
      ],
      [
        "▁अजित",
        -8.663063498575099
      ],
      [
        "▁हि",
        -8.663235212900906
      ],
      [
        "t",
        -8.663702320787223
      ],
      [
        "ते.",
        -8.665041355052896
      ],
      [
        "▁असलेले",
        -8.665536170417308
      ],
      [
        "▁व्हिडिओ",
        -8.665536212603381
      ],
      [
        "▁बा",
        -8.666511348516536
      ],
      [
        "▁करायला",
        -8.666663784087795
      ],
      [
        "▁आदी",
        -8.667806821595605
      ],
      [
        "▁विरोध",
        -8.668349195194658
      ],
      [
        "▁कर्मचारी",
        -8.66893782490938
      ],
      [
        "र्स",
        -8.67125280503982
      ],
      [
        "ंज",
        -8.671620280479447
      ],
      [
        "s",
        -8.671672246628479
      ],
      [
        "▁पाकिस्तान",
        -8.672140891494916
      ],
      [
        "▁अद्याप",
        -8.673660677855793
      ],
      [
        "▁तिथे",
        -8.674702967607107
      ],
      [
        "ीन",
        -8.675353078959757
      ],
      [
        "वून",
        -8.675881300155527
      ],
      [
        "▁तरुण",
        -8.677794281651426
      ],
      [
        "▁?",
        -8.679257465585007
      ],
      [
        "▁त्याच",
        -8.680067948323579
      ],
      [
        "▁लागले",
        -8.680276723282823
      ],
      [
        "ओ",
        -8.681024390361522
      ],
      [
        "ंद",
        -8.685006971097138
      ],
      [
        "▁वर्षे",
        -8.68551835565167
      ],
      [
        "ए",
        -8.68623999901975
      ],
      [
        "▁सह",
        -8.686326540313477
      ],
      [
        "▁अखेर",
        -8.686833341169702
      ],
      [
        "▁भ",
        -8.68685442758282
      ],
      [
        "▁4",
        -8.687711220732194
      ],
      [
        "▁१२",
        -8.689011662553497
      ],
      [
        "समोर",
        -8.690719537419705
      ],
      [
        "▁आजार",
        -8.691105573295784
      ],
      [
        "▁गोष्ट",
        -8.691964501287085
      ],
      [
        "▁लस",
        -8.692698169064887
      ],
      [
        "▁न्यायालयाने",
        -8.69310061990166
      ],
      [
        "▁कसे",
        -8.694010373941065
      ],
      [
        "ढ",
        -8.69468865503272
      ],
      [
        "▁शिव",
        -8.699484399891343
      ],
      [
        "▁शहरातील",
        -8.699875536047001
      ],
      [
        "▁8",
        -8.701017717307064
      ],
      [
        "▁विरोधी",
        -8.701324047266919
      ],
      [
        "▁गेला",
        -8.701720450769919
      ],
      [
        "▁पार्श्वभूमीवर",
        -8.702190298005226
      ],
      [
        "▁जबाबदारी",
        -8.703170962443485
      ],
      [
        "▁पाऊस",
        -8.703182556759337
      ],
      [
        "▁पर्याय",
        -8.703870267116994
      ],
      [
        "▁नगर",
        -8.704723940656063
      ],
      [
        "▁उत्पादन",
        -8.709115955087917
      ],
      [
        "▁पत्नी",
        -8.714536474610785
      ],
      [
        "▁मतदान",
        -8.714669207996593
      ],
      [
        "▁न्यूज",
        -8.716532307071127
      ],
      [
        "▁रद्द",
        -8.717509868149946
      ],
      [
        "▁पत्र",
        -8.718002752074963
      ],
      [
        "ापासून",
        -8.718920792332916
      ],
      [
        "ेशन",
        -8.719062509273416
      ],
      [
        "▁वेळा",
        -8.719756110187676
      ],
      [
        "▁असेल.",
        -8.721066753253226
      ],
      [
        "▁निवडणुकीत",
        -8.721583998274308
      ],
      [
        "▁उत्तम",
        -8.723292169150648
      ],
      [
        "उ",
        -8.723604488561547
      ],
      [
        "▁देवेंद्र",
        -8.724122882357207
      ],
      [
        "▁करावा",
        -8.7245460262018
      ],
      [
        "▁दहा",
        -8.726930261986297
      ],
      [
        "▁विरोधात",
        -8.727242324209412
      ],
      [
        "ंब",
        -8.72921045052987
      ],
      [
        "▁सामान्य",
        -8.729210856445704
      ],
      [
        "▁संप",
        -8.729563611195289
      ],
      [
        "▁राऊत",
        -8.730571498197627
      ],
      [
        "▁असल्याचा",
        -8.730862209360057
      ],
      [
        "ण्याची",
        -8.731902800574542
      ],
      [
        "▁वातावरण",
        -8.732109406346273
      ],
      [
        "▁मार्च",
        -8.732295974832045
      ],
      [
        "रो",
        -8.733716264629818
      ],
      [
        "▁कोण",
        -8.733803291287105
      ],
      [
        "▁जातात.",
        -8.73513487673437
      ],
      [
        "▁बाब",
        -8.735373090241312
      ],
      [
        "2",
        -8.73545552112093
      ],
      [
        "▁वाटत",
        -8.736263968323653
      ],
      [
        "▁वाजता",
        -8.736742931703272
      ],
      [
        "▁सुविधा",
        -8.736951004926494
      ],
      [
        "▁गो",
        -8.737419843202494
      ],
      [
        "मो",
        -8.73801014705192
      ],
      [
        "▁कसा",
        -8.738128888400134
      ],
      [
        "प्रमाणे",
        -8.738631496889749
      ],
      [
        "डा",
        -8.738792878854385
      ],
      [
        "▁सा",
        -8.741563284946988
      ],
      [
        "▁सर्वाधिक",
        -8.741834220891985
      ],
      [
        "▁15",
        -8.741861037367634
      ],
      [
        "▁जून",
        -8.74220330384422
      ],
      [
        "▁शकतात.",
        -8.743364454822437
      ],
      [
        "▁जुलै",
        -8.743391549349273
      ],
      [
        "▁सरकारी",
        -8.744436679370388
      ],
      [
        "▁पोस्ट",
        -8.7445355665051
      ],
      [
        "▁शक्य",
        -8.745617420983013
      ],
      [
        "आय",
        -8.745835874667941
      ],
      [
        "मन",
        -8.750052865216754
      ],
      [
        "▁वाहतूक",
        -8.75025036369089
      ],
      [
        "▁आम्हाला",
        -8.750663720557107
      ],
      [
        "▁जीवन",
        -8.751694515334172
      ],
      [
        "▁असते",
        -8.752148790261332
      ],
      [
        "▁जवळ",
        -8.75335025876739
      ],
      [
        "▁सूचना",
        -8.755734028887492
      ],
      [
        "▁खा",
        -8.757135037790906
      ],
      [
        "▁प्रति",
        -8.757641241048262
      ],
      [
        "▁ग्रामीण",
        -8.757981389348748
      ],
      [
        "▁12",
        -8.758834785235027
      ],
      [
        "▁मध्य",
        -8.759132245839735
      ],
      [
        "▁लॉकडाऊन",
        -8.759414592131016
      ],
      [
        "▁पाय",
        -8.762574911284172
      ],
      [
        "▁नागपूर",
        -8.762596850182486
      ],
      [
        "▁नागरिक",
        -8.762862222817734
      ],
      [
        "▁पाहिजे.",
        -8.763183118596086
      ],
      [
        "▁जि",
        -8.764811164847643
      ],
      [
        "▁थांब",
        -8.765467635444988
      ],
      [
        "▁7",
        -8.766502316039436
      ],
      [
        "▁सर",
        -8.766794752141678
      ],
      [
        "▁सगळ्या",
        -8.76690159718325
      ],
      [
        "▁चे",
        -8.7669512229361
      ],
      [
        "▁चांगले",
        -8.767489681984575
      ],
      [
        "▁राहणार",
        -8.76868052910038
      ],
      [
        "▁झाल्या",
        -8.769195070435897
      ],
      [
        "▁गर्दी",
        -8.769310696054863
      ],
      [
        "▁आरक्षण",
        -8.769417188494655
      ],
      [
        "▁उद्योग",
        -8.77003582455741
      ],
      [
        "क्",
        -8.770196061649344
      ],
      [
        "▁होते,",
        -8.771702508395629
      ],
      [
        "▁जा",
        -8.77204685302642
      ],
      [
        "▁बांधकाम",
        -8.772087590619511
      ],
      [
        "▁पद्धतीने",
        -8.774063101563392
      ],
      [
        "▁येते.",
        -8.774332187085086
      ],
      [
        "▁श्री",
        -8.774552376682728
      ],
      [
        "▁साहित्य",
        -8.775950385826965
      ],
      [
        "▁20",
        -8.776419051148773
      ],
      [
        "▁फायदा",
        -8.77696939376905
      ],
      [
        "▁असेही",
        -8.77772263257308
      ],
      [
        "▁स्व",
        -8.777893736088494
      ],
      [
        "▁व्हिडीओ",
        -8.778052734908432
      ],
      [
        "▁जोरदार",
        -8.778550740161117
      ],
      [
        "णं",
        -8.779588140164012
      ],
      [
        "▁सरकारच्या",
        -8.780002380930675
      ],
      [
        "▁केलं.",
        -8.780300076476571
      ],
      [
        "▁अहवाल",
        -8.78110372543862
      ],
      [
        "▁मराठा",
        -8.781822173184135
      ],
      [
        "▁सहभागी",
        -8.782536723862927
      ],
      [
        "▁संस्था",
        -8.782776923242302
      ],
      [
        "▁रक्कम",
        -8.783076719951884
      ],
      [
        "▁पुरस्कार",
        -8.78357736688983
      ],
      [
        "▁पाहून",
        -8.787787919911576
      ],
      [
        "▁खासगी",
        -8.787792781112028
      ],
      [
        "▁होण्याची",
        -8.788325644435698
      ],
      [
        "▁असणार",
        -8.789029665173103
      ],
      [
        "ण्यात",
        -8.792299465573826
      ],
      [
        "नगर",
        -8.793035529405039
      ],
      [
        "▁काढून",
        -8.79352325902266
      ],
      [
        "▁इथे",
        -8.793729016153302
      ],
      [
        "▁त्रास",
        -8.793898622707754
      ],
      [
        "हि",
        -8.794175352435222
      ],
      [
        "▁पुरुष",
        -8.794250561330767
      ],
      [
        "▁आधार",
        -8.79526020608061
      ],
      [
        "▁येऊ",
        -8.795652284009506
      ],
      [
        "▁आंतरराष्ट्रीय",
        -8.79625804199702
      ],
      [
        "▁मनात",
        -8.797329466830782
      ],
      [
        "ेश",
        -8.797436201365382
      ],
      [
        "▁तरीही",
        -8.800039361739433
      ],
      [
        "▁पहिला",
        -8.800171756676175
      ],
      [
        "▁प्रशासन",
        -8.801478203229582
      ],
      [
        "▁म्हणाले,",
        -8.801632581271441
      ],
      [
        "▁चालू",
        -8.801863508171127
      ],
      [
        "्यु",
        -8.802404840913365
      ],
      [
        "▁कृषी",
        -8.804328501186284
      ],
      [
        "▁पासून",
        -8.804508368101873
      ],
      [
        "▁पदार्थ",
        -8.805010256670595
      ],
      [
        "▁प्रचंड",
        -8.8088249808091
      ],
      [
        "सर",
        -8.809006269842367
      ],
      [
        "▁खास",
        -8.809509061938964
      ],
      [
        "▁|",
        -8.81045668240449
      ],
      [
        "ासह",
        -8.810485291527122
      ],
      [
        "▁प्रक्रिया",
        -8.811233330117812
      ],
      [
        "▁गावात",
        -8.813161309720954
      ],
      [
        "ल्यानंतर",
        -8.813353780704361
      ],
      [
        "▁धाव",
        -8.814173843392394
      ],
      [
        "▁राणे",
        -8.814331414323384
      ],
      [
        "▁डॉक्टर",
        -8.814655161812858
      ],
      [
        "▁जवळपास",
        -8.816053541456036
      ],
      [
        "▁राजकारण",
        -8.817551751538346
      ],
      [
        "▁संकट",
        -8.81761365273523
      ],
      [
        "▁बोलत",
        -8.817764808704755
      ],
      [
        "▁मो",
        -8.8182179407891
      ],
      [
        "वार",
        -8.819803729285498
      ],
      [
        "▁जखमी",
        -8.819938407533279
      ],
      [
        "लेली",
        -8.820092204366901
      ],
      [
        "▁तयारी",
        -8.820633017351973
      ],
      [
        "▁निधी",
        -8.820773222268798
      ],
      [
        "▁होईल",
        -8.820959078328945
      ],
      [
        "9",
        -8.821348584821788
      ],
      [
        "▁नये",
        -8.821578141256971
      ],
      [
        "▁प्रकाश",
        -8.82168727012273
      ],
      [
        "▁दिले.",
        -8.823830174276917
      ],
      [
        "▁केस",
        -8.826604883132346
      ],
      [
        "▁साली",
        -8.826812738761568
      ],
      [
        "▁अंदाज",
        -8.82792994255292
      ],
      [
        "▁9",
        -8.829897763530575
      ],
      [
        "▁खाली",
        -8.83071914568318
      ],
      [
        "▁एप्रिल",
        -8.830736713111614
      ],
      [
        "▁विमान",
        -8.830754783766878
      ],
      [
        "▁शिक्षक",
        -8.831180084258762
      ],
      [
        "▁फ",
        -8.834051680129704
      ],
      [
        "शे",
        -8.834293731679843
      ],
      [
        "▁सरकारला",
        -8.834755434290237
      ],
      [
        "▁डिसेंबर",
        -8.83574651942524
      ],
      [
        "▁विक्री",
        -8.83684819149801
      ],
      [
        "त.",
        -8.838514876102606
      ],
      [
        "▁चीन",
        -8.839291681113608
      ],
      [
        "▁निकाल",
        -8.839317322689755
      ],
      [
        "▁6",
        -8.839603321843523
      ],
      [
        "▁बैठक",
        -8.840988593766436
      ],
      [
        "टा",
        -8.841394598222571
      ],
      [
        "▁क्षेत्रात",
        -8.841453800894095
      ],
      [
        "▁कुमार",
        -8.84208675942529
      ],
      [
        "▁गट",
        -8.842346816216052
      ],
      [
        "▁सप्टेंबर",
        -8.842570864964465
      ],
      [
        "▁सामन्यात",
        -8.843504047787405
      ],
      [
        "अर",
        -8.84395212102524
      ],
      [
        "▁नोव्हेंबर",
        -8.844945071002492
      ],
      [
        "▁सर्वोच्च",
        -8.845026107791014
      ],
      [
        "▁झोप",
        -8.845158720354934
      ],
      [
        "▁अतिशय",
        -8.845845841995532
      ],
      [
        "आ",
        -8.846431048102225
      ],
      [
        "▁कोणता",
        -8.849496451166445
      ],
      [
        "▁जाणून",
        -8.85047375397956
      ],
      [
        "▁झाल्याने",
        -8.851247688102013
      ],
      [
        "a",
        -8.853674076044205
      ],
      [
        "▁१८",
        -8.85368809331013
      ],
      [
        "5",
        -8.854514354829073
      ],
      [
        "को",
        -8.857171922268765
      ],
      [
        "जे",
        -8.857308062938976
      ],
      [
        "ार",
        -8.857341321134948
      ],
      [
        "▁करा.",
        -8.85769857659746
      ],
      [
        "ै",
        -8.857733139506614
      ],
      [
        "▁ताब्यात",
        -8.859884217621506
      ],
      [
        "र्",
        -8.859927509165965
      ],
      [
        "▁भावना",
        -8.86058604242113
      ],
      [
        "▁सोमवारी",
        -8.86077004822285
      ],
      [
        "▁११",
        -8.861408080976155
      ],
      [
        "▁घेतली.",
        -8.862101981984445
      ],
      [
        "▁असता",
        -8.862975606783163
      ],
      [
        "ेस",
        -8.863065235293877
      ],
      [
        "▁९",
        -8.864612234848057
      ],
      [
        "▁केल्यानंतर",
        -8.864938331957493
      ],
      [
        "▁लवकरच",
        -8.866568033217098
      ],
      [
        "▁औषध",
        -8.868523977429149
      ],
      [
        "▁महाराज",
        -8.868752579549206
      ],
      [
        "▁लोकसभा",
        -8.869154372238608
      ],
      [
        "▁शेती",
        -8.870444759306476
      ],
      [
        "▁घेतला.",
        -8.87151152298039
      ],
      [
        "िका",
        -8.871655253857929
      ],
      [
        "▁गुण",
        -8.872087029674002
      ],
      [
        "▁विद्यार्थी",
        -8.873519385478595
      ],
      [
        "▁आत",
        -8.873520085495418
      ],
      [
        "▁सी",
        -8.873789224293969
      ],
      [
        "▁काँग्रेसचे",
        -8.874224622975024
      ],
      [
        "्‍या",
        -8.874954533106667
      ],
      [
        "▁लागत",
        -8.875235489854386
      ],
      [
        "्र",
        -8.875347525470213
      ],
      [
        "▁वैद्यकीय",
        -8.876655744836095
      ],
      [
        "▁तू",
        -8.877865072226577
      ],
      [
        "▁जानेवारी",
        -8.879512421665158
      ],
      [
        "▁खेळाडू",
        -8.879831682384907
      ],
      [
        "▁यंदा",
        -8.880886073575192
      ],
      [
        "िस",
        -8.881230513469138
      ],
      [
        "▁सांगितलं",
        -8.881901311584324
      ],
      [
        "▁महापालिका",
        -8.882592910701657
      ],
      [
        "▁प्रस्ताव",
        -8.882874121462786
      ],
      [
        "एस",
        -8.883405557544688
      ],
      [
        "▁एमपीसी",
        -8.883463074291729
      ],
      [
        "▁पूर्व",
        -8.886799298257726
      ],
      [
        "▁कार्यालय",
        -8.889796628242035
      ],
      [
        "▁ऑगस्ट",
        -8.890217469321227
      ],
      [
        "▁सं",
        -8.890887709421046
      ],
      [
        "▁अपघात",
        -8.89121906926762
      ],
      [
        "▁यानंतर",
        -8.894305274439267
      ],
      [
        "राज",
        -8.894806699183771
      ],
      [
        "▁किंमत",
        -8.895673487845828
      ],
      [
        "▁कामगिरी",
        -8.897513214353314
      ],
      [
        "▁लसीकरण",
        -8.897521180990044
      ],
      [
        "ळे",
        -8.89934922905342
      ],
      [
        "▁तसंच",
        -8.899419264202223
      ],
      [
        "▁सचिन",
        -8.899758816314836
      ],
      [
        "▁करावी",
        -8.900811685439773
      ],
      [
        "▁स्वत:",
        -8.901664197789952
      ],
      [
        "स्त",
        -8.901891307454953
      ],
      [
        "▁पाहायला",
        -8.902463702941006
      ],
      [
        "▁आत्महत्या",
        -8.903221063431886
      ],
      [
        "▁अजून",
        -8.904783540740304
      ],
      [
        "▁बाजार",
        -8.905060371712683
      ],
      [
        "▁मिळाली",
        -8.906041812182258
      ],
      [
        "▁घेता",
        -8.906066829370442
      ],
      [
        "▁ड",
        -8.906299917534156
      ],
      [
        "्यू",
        -8.907156097398882
      ],
      [
        "▁बैठकीत",
        -8.907269207195657
      ],
      [
        "▁शकता.",
        -8.90761355839366
      ],
      [
        "▁माझा",
        -8.907700138456612
      ],
      [
        "गड",
        -8.909172521246978
      ],
      [
        "▁ज्येष्ठ",
        -8.910192732971975
      ],
      [
        "▁इशारा",
        -8.9101931620541
      ],
      [
        "▁आग",
        -8.911797338916841
      ],
      [
        "▁महिन्या",
        -8.912708420089444
      ],
      [
        "▁आव्हान",
        -8.912790994374557
      ],
      [
        "▁सुरक्षा",
        -8.91279120699873
      ],
      [
        "▁फेब्रुवारी",
        -8.913663221592618
      ],
      [
        "िट",
        -8.913710645222103
      ],
      [
        "सुद्धा",
        -8.914731871902623
      ],
      [
        "▁डे",
        -8.917461416891804
      ],
      [
        "▁मुली",
        -8.917830224128892
      ],
      [
        "▁शाळा",
        -8.919191340187655
      ],
      [
        "▁लागली",
        -8.91937402156561
      ],
      [
        "▁देण्यासाठी",
        -8.91967695547684
      ],
      [
        "▁बोलताना",
        -8.920286953194104
      ],
      [
        "▁वर्षात",
        -8.921241410319748
      ],
      [
        "▁स्थिती",
        -8.922112756467964
      ],
      [
        "▁दिल्या",
        -8.922783626267755
      ],
      [
        "▁संवाद",
        -8.923185012119013
      ],
      [
        "▁हिंदू",
        -8.92529838531376
      ],
      [
        "▁जागतिक",
        -8.925483432339064
      ],
      [
        "ंसाठी",
        -8.926535189534649
      ],
      [
        "▁कोणी",
        -8.929597401418674
      ],
      [
        "ाई",
        -8.931296775757094
      ],
      [
        "▁नोकरी",
        -8.93266769239123
      ],
      [
        "▁म्हणत",
        -8.932982412965465
      ],
      [
        "▁३०",
        -8.933073171123837
      ],
      [
        "र्ड",
        -8.933771403675276
      ],
      [
        "▁झालेली",
        -8.934556845673278
      ],
      [
        "▁संसर्ग",
        -8.934964328414388
      ],
      [
        "▁नागरिकांना",
        -8.935361569312928
      ],
      [
        "▁झाड",
        -8.935617241658434
      ],
      [
        "▁यशस्वी",
        -8.935881255009363
      ],
      [
        "ळी",
        -8.936432777467953
      ],
      [
        "▁माझी",
        -8.936874687937536
      ],
      [
        "▁सत्ता",
        -8.937622250764132
      ],
      [
        "▁नाहीत",
        -8.938685554082841
      ],
      [
        "▁ठाण्यात",
        -8.938927268272142
      ],
      [
        "▁ऑक्टोबर",
        -8.939242583578467
      ],
      [
        "▁अधिकार",
        -8.939695795407488
      ],
      [
        "टे",
        -8.939712612669766
      ],
      [
        "▁लागेल.",
        -8.939784262014584
      ],
      [
        "▁झालेले",
        -8.940148351841936
      ],
      [
        "ायचे",
        -8.941553548652758
      ],
      [
        "▁पराभव",
        -8.941957911643723
      ],
      [
        "बरोबर",
        -8.942679027701441
      ],
      [
        "▁ठाणे",
        -8.942732527008095
      ],
      [
        "▁टाक",
        -8.943071635110076
      ],
      [
        "▁व्हायरल",
        -8.943991766402515
      ],
      [
        "8",
        -8.944601263861733
      ],
      [
        "▁प्रकरणात",
        -8.946111084426752
      ],
      [
        "▁करणारे",
        -8.946955352414673
      ],
      [
        "▁वर्ग",
        -8.94757207842316
      ],
      [
        "▁वर्षीय",
        -8.94794650353996
      ],
      [
        "▁धोरण",
        -8.948557926226027
      ],
      [
        "▁वस्तू",
        -8.949337306866113
      ],
      [
        "▁देशमुख",
        -8.95105689754409
      ],
      [
        "▁अनिल",
        -8.952342771418921
      ],
      [
        "१",
        -8.95303556343948
      ],
      [
        "▁चव्हाण",
        -8.95380527576333
      ],
      [
        "▁बि",
        -8.95386584719995
      ],
      [
        "▁विधान",
        -8.954062038636271
      ],
      [
        "▁ट्विट",
        -8.955008208999146
      ],
      [
        "▁असले",
        -8.955764199561774
      ],
      [
        "▁कार्ड",
        -8.95583602063266
      ],
      [
        "▁यांच्यावर",
        -8.955892968510646
      ],
      [
        "पद",
        -8.956314591521068
      ],
      [
        "त्र",
        -8.956495630489457
      ],
      [
        "▁मुंडे",
        -8.959671769322032
      ],
      [
        "दी",
        -8.96031909566332
      ],
      [
        "▁बातमी",
        -8.96043019790778
      ],
      [
        "ावा",
        -8.960757481220602
      ],
      [
        "▁असल्यामुळे",
        -8.960782073817711
      ],
      [
        "▁म्हणजेच",
        -8.961079883812621
      ],
      [
        "▁न्याय",
        -8.96185113364491
      ],
      [
        "▁नसल्याने",
        -8.96273624037675
      ],
      [
        "▁येत्या",
        -8.962931893972865
      ],
      [
        "▁प्रथम",
        -8.963361845468292
      ],
      [
        "ांकडून",
        -8.96341575296342
      ],
      [
        "वाडी",
        -8.963779791867577
      ],
      [
        "▁त्यानुसार",
        -8.96601737929815
      ],
      [
        "▁आर",
        -8.96661236518192
      ],
      [
        "▁शिंदे",
        -8.966920528652722
      ],
      [
        "▁सोबत",
        -8.969224601934735
      ],
      [
        "▁येऊन",
        -8.969505876456253
      ],
      [
        "▁असलेली",
        -8.970292267778454
      ],
      [
        "▁पश्चिम",
        -8.970556902663994
      ],
      [
        "▁चांगली",
        -8.97071023465043
      ],
      [
        "▁जमा",
        -8.972347824879584
      ],
      [
        "▁कोरोनाच्या",
        -8.972632483994854
      ],
      [
        "4",
        -8.972826677020404
      ],
      [
        "▁देणार",
        -8.973953919277335
      ],
      [
        "▁!",
        -8.974462946558774
      ],
      [
        "▁जाईल.",
        -8.975664937797514
      ],
      [
        "c",
        -8.976293862676421
      ],
      [
        "▁सार्वजनिक",
        -8.977279306594209
      ],
      [
        "घ",
        -8.979421585798548
      ],
      [
        "▁मोबाईल",
        -8.979904540769972
      ],
      [
        "▁शा",
        -8.980019261861312
      ],
      [
        "▁न्यायालयात",
        -8.982535797788245
      ],
      [
        "▁ऑनलाईन",
        -8.982727317231642
      ],
      [
        "▁ऑनलाइन",
        -8.982727677008446
      ],
      [
        "अ",
        -8.984005363618625
      ],
      [
        "न्",
        -8.984428497968521
      ],
      [
        "▁आयोजित",
        -8.984603525509867
      ],
      [
        "▁प्रतिक्रिया",
        -8.986511858783182
      ],
      [
        "▁सम",
        -8.987478340803577
      ],
      [
        "▁प्राप्त",
        -8.987988025584498
      ],
      [
        "पर",
        -8.988524654478383
      ],
      [
        "g",
        -8.989029610758092
      ],
      [
        "ीकरण",
        -8.989973128183184
      ],
      [
        "लेला",
        -8.990117810086247
      ],
      [
        "▁लि",
        -8.991433799206547
      ],
      [
        "▁चाचणी",
        -8.992173327728153
      ],
      [
        "▁क्रमांक",
        -8.992580603521267
      ],
      [
        "▁कोणत्या",
        -8.992896461996034
      ],
      [
        "▁बो",
        -8.993038692712712
      ],
      [
        "ण्याचा",
        -8.994933877329075
      ],
      [
        "▁१४",
        -8.994998839374158
      ],
      [
        "▁तेल",
        -8.996551736944749
      ],
      [
        "▁घ्या",
        -8.997140175806607
      ],
      [
        "▁बनव",
        -8.998369771207086
      ],
      [
        "▁हल्ला",
        -8.998895707109222
      ],
      [
        "ुर",
        -8.999100274641712
      ],
      [
        "▁ता",
        -8.99920637964906
      ],
      [
        "▁५०",
        -9.000027846651598
      ],
      [
        "ृ",
        -9.000745106324283
      ],
      [
        "▁निर्मिती",
        -9.001297670810548
      ],
      [
        "▁11",
        -9.002396292472355
      ],
      [
        "▁शे",
        -9.003592333236375
      ],
      [
        "▁बी",
        -9.00457428131726
      ],
      [
        "▁संस्थे",
        -9.006956597735108
      ],
      [
        "▁धावा",
        -9.00741951513677
      ],
      [
        "ल्याने",
        -9.009406025252026
      ],
      [
        "▁सुंदर",
        -9.011047474184661
      ],
      [
        "गो",
        -9.011326936859337
      ],
      [
        "▁कशी",
        -9.011945732855658
      ],
      [
        "▁आयुष्य",
        -9.012115374712982
      ],
      [
        "्यात",
        -9.012742429405044
      ],
      [
        "▁प्रकरणी",
        -9.012955342438119
      ],
      [
        "ौ",
        -9.013269251077649
      ],
      [
        "ांचं",
        -9.013396224435665
      ],
      [
        "▁अन",
        -9.013565630100677
      ],
      [
        "▁स्वप्न",
        -9.013641722160688
      ],
      [
        "▁तेथे",
        -9.013788409673353
      ],
      [
        "▁वीज",
        -9.013833670787145
      ],
      [
        "च.",
        -9.014654662625862
      ],
      [
        "▁वक्तव्य",
        -9.014740502290397
      ],
      [
        "▁14",
        -9.014764608733152
      ],
      [
        "▁स्थान",
        -9.01519705013304
      ],
      [
        "▁रविवारी",
        -9.015638905475992
      ],
      [
        "▁सो",
        -9.015685302993251
      ],
      [
        "▁आवाज",
        -9.016191835037286
      ],
      [
        "▁दक्षिण",
        -9.016349528847652
      ],
      [
        "हे",
        -9.016683402943876
      ],
      [
        "▁असलेला",
        -9.016970634277813
      ],
      [
        "▁शि",
        -9.017978984815652
      ],
      [
        "ळा",
        -9.020191694662529
      ],
      [
        "▁दुपारी",
        -9.020210208719636
      ],
      [
        "▁जन",
        -9.020879250674096
      ],
      [
        "▁बाजारात",
        -9.021077102807538
      ],
      [
        "▁आकार",
        -9.022245354437999
      ],
      [
        "▁कायदा",
        -9.022820086424943
      ],
      [
        "▁मुंबईतील",
        -9.022893240015692
      ],
      [
        "गे",
        -9.023584278804826
      ],
      [
        "▁भाजपचे",
        -9.023585940308202
      ],
      [
        "▁सतत",
        -9.02414507002715
      ],
      [
        "▁घटने",
        -9.02424976988759
      ],
      [
        "▁होणाऱ्या",
        -9.024454922505349
      ],
      [
        "▁रुग्णांची",
        -9.024509136739873
      ],
      [
        "▁औरंगाबाद",
        -9.024631509206284
      ],
      [
        "▁बुधवारी",
        -9.024710027662431
      ],
      [
        "राम",
        -9.024988245451798
      ],
      [
        "▁वाहन",
        -9.025680619426545
      ],
      [
        "▁मार",
        -9.026209423252013
      ],
      [
        "▁व्यवहार",
        -9.026337817867923
      ],
      [
        "▁माग",
        -9.026444238733491
      ],
      [
        "▁तसे",
        -9.026578353871741
      ],
      [
        "▁देऊ",
        -9.027673357247709
      ],
      [
        "ानुसार",
        -9.02798326365578
      ],
      [
        "खा",
        -9.028104628197426
      ],
      [
        "ायची",
        -9.028173528416737
      ],
      [
        "०",
        -9.028287076349994
      ],
      [
        "▁लागला",
        -9.030255993628627
      ],
      [
        "ंक",
        -9.030854831866801
      ],
      [
        "▁चांगला",
        -9.031591225341451
      ],
      [
        "▁उत्पन्न",
        -9.031867782767105
      ],
      [
        "▁करावे",
        -9.032015766175643
      ],
      [
        "▁पुस्तक",
        -9.032642684252327
      ],
      [
        "▁वतीने",
        -9.03307806182084
      ],
      [
        "▁येईल",
        -9.033605674593712
      ],
      [
        "i",
        -9.033675817533085
      ],
      [
        "▁जोड",
        -9.036924524022751
      ],
      [
        "▁सिंग",
        -9.037351835926252
      ],
      [
        "▁शुक्रवारी",
        -9.037849932431055
      ],
      [
        "▁प्रचार",
        -9.038294808665935
      ],
      [
        "ावी",
        -9.038843154509745
      ],
      [
        "▁तपासणी",
        -9.039973747217967
      ],
      [
        "▁कसोटी",
        -9.040931994004762
      ],
      [
        "▁कुठे",
        -9.042884737041788
      ],
      [
        "सु",
        -9.043302550459966
      ],
      [
        "विरोधात",
        -9.043517663778609
      ],
      [
        "▁दिवसांपासून",
        -9.045040096378248
      ],
      [
        "▁धोका",
        -9.045903373947326
      ],
      [
        "▁कोणतीही",
        -9.046248369504317
      ],
      [
        "▁मंगळवारी",
        -9.047689887352877
      ],
      [
        "▁गेले.",
        -9.047755405519348
      ],
      [
        "▁अंतिम",
        -9.049155453751627
      ],
      [
        "▁२५",
        -9.049219610752475
      ],
      [
        "▁करण्याच्या",
        -9.049492519550746
      ],
      [
        "▁दे",
        -9.049564451261073
      ],
      [
        "▁मूळ",
        -9.049797738221113
      ],
      [
        "▁भाषा",
        -9.050095216644873
      ],
      [
        "▁कामगार",
        -9.05039629005279
      ],
      [
        "▁स्पर्धा",
        -9.050807686999645
      ],
      [
        "▁मुलगा",
        -9.050871620002235
      ],
      [
        "▁जनता",
        -9.052003854374705
      ],
      [
        "जवळ",
        -9.05204352790982
      ],
      [
        "▁केलेली",
        -9.05375149103412
      ],
      [
        "0",
        -9.053796159990984
      ],
      [
        "्ड",
        -9.055924443217284
      ],
      [
        "▁रस्त्यावर",
        -9.056059623268531
      ],
      [
        "▁सांगत",
        -9.056444516178185
      ],
      [
        "▁मि",
        -9.056578686558398
      ],
      [
        "इ",
        -9.056830563285171
      ],
      [
        "▁झालेला",
        -9.057656742379468
      ],
      [
        "▁अचानक",
        -9.057878516745948
      ],
      [
        "▁इतिहास",
        -9.06038260835152
      ],
      [
        "त्व",
        -9.061618562379861
      ],
      [
        "▁केलेले",
        -9.061760398573592
      ],
      [
        "▁अमित",
        -9.062284773684063
      ],
      [
        "▁30",
        -9.06343502755242
      ],
      [
        "▁दाखव",
        -9.064088627307761
      ],
      [
        "▁भीती",
        -9.064662252358767
      ],
      [
        "▁संपर्क",
        -9.06641074439948
      ],
      [
        "▁ऑस्ट्रेलिया",
        -9.068249274569006
      ],
      [
        "▁इंग्लंड",
        -9.069586012087768
      ],
      [
        "ंच",
        -9.070159361622707
      ],
      [
        "पण",
        -9.07017669018001
      ],
      [
        "ूर",
        -9.070386655040366
      ],
      [
        "▁परिषद",
        -9.071088638364397
      ],
      [
        "▁कोल्हापूर",
        -9.071504037912781
      ],
      [
        "▁फिर",
        -9.071702399417347
      ],
      [
        "▁साजरा",
        -9.072277944601257
      ],
      [
        "▁वन",
        -9.072701995860104
      ],
      [
        "▁अंतर्गत",
        -9.072942150203545
      ],
      [
        "▁ले",
        -9.073171459759463
      ],
      [
        "▁वाचा",
        -9.073987354548212
      ],
      [
        "▁स्त्री",
        -9.076326933578516
      ],
      [
        "u",
        -9.077430644582572
      ],
      [
        "▁सल्ला",
        -9.077505947798743
      ],
      [
        "▁व्यवस्था",
        -9.078626518196621
      ],
      [
        "दर",
        -9.080368543699105
      ],
      [
        "▁शर्मा",
        -9.080441496613998
      ],
      [
        "▁राष्ट्र",
        -9.08086225584728
      ],
      [
        "▁मंडळ",
        -9.081570594388603
      ],
      [
        "▁वेगवेगळ्या",
        -9.08164838738555
      ],
      [
        "भा",
        -9.082021341282292
      ],
      [
        "▁पडत",
        -9.082114883314041
      ],
      [
        "▁अन्न",
        -9.082199941065646
      ],
      [
        "C",
        -9.083224346080103
      ],
      [
        "▁नियंत्रण",
        -9.083651168457983
      ],
      [
        "▁होतं",
        -9.084038173332171
      ],
      [
        "▁नगरसेवक",
        -9.084862938911897
      ],
      [
        "▁सुमारास",
        -9.085629488999862
      ],
      [
        "▁बंदी",
        -9.089251942172192
      ],
      [
        "▁देण्याची",
        -9.089585472856363
      ],
      [
        "▁संरक्षण",
        -9.090854245032386
      ],
      [
        "▁उपाय",
        -9.091838371825872
      ],
      [
        "▁लेख",
        -9.092582472687898
      ],
      [
        "▁निश्चित",
        -9.092599246170991
      ],
      [
        "शि",
        -9.092987216818885
      ],
      [
        "▁१६",
        -9.094070824791368
      ],
      [
        "▁कायद्या",
        -9.094108532151827
      ],
      [
        "▁हत्या",
        -9.094823163517809
      ],
      [
        "▁घालून",
        -9.09494096580497
      ],
      [
        "▁अस",
        -9.095881423254314
      ],
      [
        "▁जय",
        -9.095909899725601
      ],
      [
        "▁स्वतः",
        -9.09704866188018
      ],
      [
        "▁असणाऱ्या",
        -9.097465965304327
      ],
      [
        "लं.",
        -9.09804357487421
      ],
      [
        "▁सि",
        -9.098410592653567
      ],
      [
        "००",
        -9.098960850737804
      ],
      [
        "ीने",
        -9.099815739224134
      ],
      [
        "▁शिवाय",
        -9.09988753028837
      ],
      [
        "▁प्रतिनिधी",
        -9.100068336116081
      ],
      [
        "▁पेट्रोल",
        -9.100294461294428
      ],
      [
        "▁पोलिसांना",
        -9.100379184153972
      ],
      [
        "ाबाबत",
        -9.101124064825731
      ],
      [
        "▁शिवाजी",
        -9.101849697399125
      ],
      [
        "▁वे",
        -9.101978291905208
      ],
      [
        "▁पाहता",
        -9.102265765718432
      ],
      [
        "▁येणाऱ्या",
        -9.103767220333651
      ],
      [
        "▁२४",
        -9.103795349607717
      ],
      [
        "▁मान्य",
        -9.104811421446179
      ],
      [
        "3",
        -9.105449875992782
      ],
      [
        "▁संशोधन",
        -9.105630248196045
      ],
      [
        "▁नाटक",
        -9.106957102555684
      ],
      [
        "▁कोविड",
        -9.10711141555419
      ],
      [
        "▁नव",
        -9.107124433365403
      ],
      [
        "▁भारतातील",
        -9.108200572650784
      ],
      [
        "▁घाल",
        -9.108517192421939
      ],
      [
        "▁असू",
        -9.109309805160166
      ],
      [
        "▁डी",
        -9.10931364903677
      ],
      [
        "▁फुल",
        -9.10966211408309
      ],
      [
        "ार्थ",
        -9.112509024708963
      ],
      [
        "▁लोकांनी",
        -9.11451061791724
      ],
      [
        "▁सोडून",
        -9.115312508557695
      ],
      [
        "▁समज",
        -9.115653735066099
      ],
      [
        "▁करु",
        -9.116884711174578
      ],
      [
        "▁18",
        -9.116889617061364
      ],
      [
        "▁माल",
        -9.117374652296906
      ],
      [
        "▁पती",
        -9.117417773381707
      ],
      [
        "▁बोल",
        -9.117421826293217
      ],
      [
        "▁नव्हे",
        -9.11996201635178
      ],
      [
        "नाथ",
        -9.121449794504777
      ],
      [
        "▁त्यांच्यावर",
        -9.121768036651224
      ],
      [
        "▁पूर्वी",
        -9.121920411053175
      ],
      [
        "▁यापूर्वी",
        -9.12300220447965
      ],
      [
        "भर",
        -9.125638798551886
      ],
      [
        "▁सचिव",
        -9.126180539745537
      ],
      [
        "▁शहा",
        -9.128049943207103
      ],
      [
        "▁उपक्रम",
        -9.128303499918704
      ],
      [
        "▁मारहाण",
        -9.129301939041142
      ],
      [
        "▁बाळासाहेब",
        -9.129327731575714
      ],
      [
        "▁रोहित",
        -9.129432415250708
      ],
      [
        "विरुद्ध",
        -9.129521450586763
      ],
      [
        "▁प्रकारे",
        -9.133665802961609
      ],
      [
        "▁गुन्हे",
        -9.133785782213765
      ],
      [
        "▁तिचा",
        -9.133975958919788
      ],
      [
        "▁पर",
        -9.134064408907925
      ],
      [
        "▁कल्पना",
        -9.1349771499059
      ],
      [
        "▁कल्याण",
        -9.135585032533157
      ],
      [
        "▁25",
        -9.135690816249426
      ],
      [
        "▁24",
        -9.135767175584686
      ],
      [
        "▁नेहमी",
        -9.136601523421714
      ],
      [
        "▁उभे",
        -9.136952124552577
      ],
      [
        "▁बन",
        -9.137006974121535
      ],
      [
        "▁बाजू",
        -9.13746126851427
      ],
      [
        "▁मिळाला",
        -9.138379254023581
      ],
      [
        "▁बरे",
        -9.13859362890534
      ],
      [
        "▁अर्थात",
        -9.141068103592792
      ],
      [
        "▁भारताच्या",
        -9.141076829673846
      ],
      [
        "▁शासन",
        -9.142414311985215
      ],
      [
        "(",
        -9.142874576175199
      ],
      [
        "▁घेणार",
        -9.143027780596725
      ],
      [
        "ेट",
        -9.14342703510251
      ],
      [
        "▁कामे",
        -9.143492733308005
      ],
      [
        "▁कौतुक",
        -9.143536156141117
      ],
      [
        "▁दु",
        -9.144477370711188
      ],
      [
        "▁शनिवारी",
        -9.144968951544342
      ],
      [
        "▁दुसरीकडे",
        -9.14617349249724
      ],
      [
        "▁घेण्यासाठी",
        -9.146656623401494
      ],
      [
        "▁विद्यार्थ्यांना",
        -9.14689387003245
      ],
      [
        "▁विषाणू",
        -9.146914961403635
      ],
      [
        "वरुन",
        -9.14800324713691
      ],
      [
        "▁गुरुवारी",
        -9.14878940868767
      ],
      [
        "▁वरिष्ठ",
        -9.149173618784246
      ],
      [
        "▁टी",
        -9.149650062754105
      ],
      [
        "y",
        -9.150142640729676
      ],
      [
        "▁व्या",
        -9.150528313012423
      ],
      [
        "▁होतो",
        -9.151886621369526
      ],
      [
        "▁मालिका",
        -9.15284264829059
      ],
      [
        "▁सांगण्यात",
        -9.153545231254924
      ],
      [
        "▁हातात",
        -9.15363764772123
      ],
      [
        "िम",
        -9.153729786185746
      ],
      [
        "आर",
        -9.15386398256705
      ],
      [
        "▁कळ",
        -9.154573792760843
      ],
      [
        "▁दुसरा",
        -9.154661372095624
      ],
      [
        "▁देणे",
        -9.15499513968787
      ],
      [
        "णारे",
        -9.155321182961657
      ],
      [
        "▁अजूनही",
        -9.156904754556416
      ],
      [
        "▁हवा",
        -9.157577563686933
      ],
      [
        "मंत्री",
        -9.157944096287075
      ],
      [
        "▁मुलगी",
        -9.158044219932169
      ],
      [
        "▁स्वातंत्र्य",
        -9.15862425672686
      ],
      [
        "▁कलाकार",
        -9.159078199386379
      ],
      [
        "४",
        -9.159318941709166
      ],
      [
        "▁रक्त",
        -9.160198869216954
      ],
      [
        "▁करतो.",
        -9.160544211406418
      ],
      [
        "विषयी",
        -9.16139667030178
      ],
      [
        "▁व्यावसायिक",
        -9.16140616999252
      ],
      [
        "▁पिक",
        -9.162504228015031
      ],
      [
        "▁धक्कादायक",
        -9.162532221879424
      ],
      [
        "▁घटक",
        -9.162633948861064
      ],
      [
        "▁एकाच",
        -9.162702729250375
      ],
      [
        "▁पट",
        -9.163220041578459
      ],
      [
        "सारखे",
        -9.163233150286741
      ],
      [
        "▁नियोजन",
        -9.16368208274979
      ],
      [
        "▁शरीर",
        -9.16443901545768
      ],
      [
        "▁अभिनेता",
        -9.164762005231456
      ],
      [
        "▁मुलांना",
        -9.164879545084275
      ],
      [
        "▁लाल",
        -9.166197039896728
      ],
      [
        "▁दिलं",
        -9.16717015172254
      ],
      [
        "p",
        -9.167622258730834
      ],
      [
        "▁आढळून",
        -9.16872279359798
      ],
      [
        "▁सहज",
        -9.169577847194228
      ],
      [
        "▁सुरक्षित",
        -9.170057748900382
      ],
      [
        "▁जिल्ह्या",
        -9.170338519908842
      ],
      [
        "८",
        -9.172170743995943
      ],
      [
        "▁फि",
        -9.172338159085896
      ],
      [
        "▁नेहमीच",
        -9.172876640465647
      ],
      [
        "▁प्रतिसाद",
        -9.17382658796862
      ],
      [
        "▁घट",
        -9.174486557291667
      ],
      [
        "▁पार्टी",
        -9.175071726694043
      ],
      [
        "▁आलेले",
        -9.175321639700904
      ],
      [
        "in",
        -9.175359378182547
      ],
      [
        "▁50",
        -9.17655796836836
      ],
      [
        "▁नारायण",
        -9.177240060191963
      ],
      [
        "▁पोट",
        -9.177597043997999
      ],
      [
        "▁किमान",
        -9.177630845898271
      ],
      [
        "▁पाटील,",
        -9.177794384348562
      ],
      [
        "▁१३",
        -9.178086071336597
      ],
      [
        "रि",
        -9.178227123495898
      ],
      [
        "▁लागले.",
        -9.178294858260912
      ],
      [
        "▁सिद्ध",
        -9.178309359991562
      ],
      [
        "▁अशोक",
        -9.17839783055756
      ],
      [
        "▁लवकर",
        -9.179913338840983
      ],
      [
        "▁सत्य",
        -9.181861402195182
      ],
      [
        "▁स्पर्धेत",
        -9.182405090435214
      ],
      [
        "▁जिल्हाधिकारी",
        -9.183000642831196
      ],
      [
        "▁तळ",
        -9.183851347369593
      ],
      [
        "क्या",
        -9.184186673461337
      ],
      [
        "शिवाय",
        -9.184378599777085
      ],
      [
        "▁आहोत.",
        -9.184591800652157
      ],
      [
        "ाळ",
        -9.18467127110878
      ],
      [
        "▁नदी",
        -9.185165466781593
      ],
      [
        "▁रुग्णालय",
        -9.185177357382443
      ],
      [
        "ड्या",
        -9.187147536292478
      ],
      [
        "▁अपेक्षा",
        -9.188062877012026
      ],
      [
        "▁१७",
        -9.188923103335446
      ],
      [
        "▁एम",
        -9.18982174208396
      ],
      [
        "▁आण",
        -9.1904897756366
      ],
      [
        "▁S",
        -9.191229688545185
      ],
      [
        "▁गणेश",
        -9.192044865098074
      ],
      [
        "्व",
        -9.192069928929069
      ],
      [
        "▁असतील",
        -9.192864662716802
      ],
      [
        "▁इच्छा",
        -9.193391194635119
      ],
      [
        "▁सर्वच",
        -9.193654359241929
      ],
      [
        "दरम्यान",
        -9.19554906785087
      ],
      [
        "▁दिवाळी",
        -9.19574258124045
      ],
      [
        "▁A",
        -9.196797103196804
      ],
      [
        "▁आवड",
        -9.19714498517338
      ],
      [
        "▁वजन",
        -9.197749931151565
      ],
      [
        "▁आगामी",
        -9.198060872156809
      ],
      [
        "▁जाधव",
        -9.198395235260708
      ],
      [
        "▁करते.",
        -9.198884138621345
      ],
      [
        "▁घेऊ",
        -9.199845193082627
      ],
      [
        "I",
        -9.200105619329168
      ],
      [
        "▁वय",
        -9.200680518362326
      ],
      [
        "00",
        -9.201084841376101
      ],
      [
        "▁मतदार",
        -9.20135649830683
      ],
      [
        "▁सुनावणी",
        -9.20157648940449
      ],
      [
        "▁योजने",
        -9.201822000680604
      ],
      [
        "▁झाल्याचे",
        -9.20223267285824
      ],
      [
        "▁भा",
        -9.20352925343286
      ],
      [
        "ः",
        -9.203582060797455
      ],
      [
        "an",
        -9.203750276597539
      ],
      [
        "्‍",
        -9.204124196196199
      ],
      [
        "▁रोज",
        -9.20419138488973
      ],
      [
        "ुक",
        -9.204309575072534
      ],
      [
        "▁पाहिजे",
        -9.204641955239305
      ],
      [
        "▁पो",
        -9.20503416737716
      ],
      [
        "▁असली",
        -9.205595557038636
      ],
      [
        "▁उलट",
        -9.205624375168714
      ],
      [
        "▁दिवसात",
        -9.206110419023982
      ],
      [
        "िप",
        -9.207701008009558
      ],
      [
        "ठा",
        -9.208069537763222
      ],
      [
        "▁उतर",
        -9.209100974979606
      ],
      [
        "ुल",
        -9.209371287892171
      ],
      [
        "▁घेणे",
        -9.210345498380182
      ],
      [
        "▁पथक",
        -9.210609409505997
      ],
      [
        "▁तक्रारी",
        -9.210927285591199
      ],
      [
        "▁विराट",
        -9.212130284279441
      ],
      [
        "जन",
        -9.212292356070524
      ],
      [
        "▁जगात",
        -9.21297998959631
      ],
      [
        "▁स्थापन",
        -9.213636273842145
      ],
      [
        "▁दि.",
        -9.21397919716673
      ],
      [
        "▁ट",
        -9.214299609133509
      ],
      [
        "▁जाती",
        -9.215079117254572
      ],
      [
        "▁गु",
        -9.216950838076757
      ],
      [
        "र्ट",
        -9.219106033991999
      ],
      [
        "▁हाती",
        -9.21910988275938
      ],
      [
        "▁कोरोनाचा",
        -9.220980812584719
      ],
      [
        "▁तातडीने",
        -9.222193095705041
      ],
      [
        "▁त्यातून",
        -9.223747049626303
      ],
      [
        "▁केल्याने",
        -9.223839840048758
      ],
      [
        "ांशी",
        -9.224161810823286
      ],
      [
        "▁रोग",
        -9.224250207124754
      ],
      [
        "वले",
        -9.224275108561788
      ],
      [
        "▁डि",
        -9.225625650128695
      ],
      [
        "पाल",
        -9.227540425716366
      ],
      [
        "▁असेल,",
        -9.227683463808958
      ],
      [
        "▁मोड",
        -9.227714017218318
      ],
      [
        "▁दररोज",
        -9.228811235176698
      ],
      [
        "▁शेतकऱ्यांना",
        -9.229492029020534
      ],
      [
        "▁माझे",
        -9.230100657352633
      ],
      [
        "▁सवाल",
        -9.230330844849433
      ],
      [
        "▁पुण्यात",
        -9.23145659812338
      ],
      [
        "मु",
        -9.232786074152658
      ],
      [
        "दि",
        -9.232946706960124
      ],
      [
        "▁हक्क",
        -9.233003634995395
      ],
      [
        "▁अनेकदा",
        -9.233448511219326
      ],
      [
        "▁पंजाब",
        -9.2360529953223
      ],
      [
        "▁अडचणी",
        -9.236909344023854
      ],
      [
        "▁ठेवण्यात",
        -9.238389977978477
      ],
      [
        "▁मुद्दा",
        -9.239621281150079
      ],
      [
        "▁फुट",
        -9.239948248812933
      ],
      [
        "▁मिळेल.",
        -9.24005991558603
      ],
      [
        "▁लावून",
        -9.240342862866523
      ],
      [
        "▁बाजूला",
        -9.240579931640319
      ],
      [
        "▁ग्राहक",
        -9.242075789473347
      ],
      [
        "ीक",
        -9.24219997106778
      ],
      [
        "▁ये",
        -9.242564607466
      ],
      [
        "▁जेवण",
        -9.242878327171672
      ],
      [
        "व्ही",
        -9.243032082136128
      ],
      [
        "मे",
        -9.24423403751976
      ],
      [
        "▁याशिवाय",
        -9.244912129627775
      ],
      [
        "▁आयोजन",
        -9.245852457894276
      ],
      [
        "▁मीडिया",
        -9.246167564507306
      ],
      [
        "▁परिस्थितीत",
        -9.246284902065735
      ],
      [
        "ल्ड",
        -9.247343357388294
      ],
      [
        "▁पहिली",
        -9.247479086575241
      ],
      [
        "▁नसल्याचे",
        -9.247740934645153
      ],
      [
        "▁रुपयांची",
        -9.249861845430607
      ],
      [
        "▁विद्यार्थ्यां",
        -9.249899527753048
      ],
      [
        "्ट",
        -9.250390334910584
      ],
      [
        "▁बाद",
        -9.251313899189551
      ],
      [
        "▁इतकी",
        -9.251497371786146
      ],
      [
        "▁सांगितलं.",
        -9.251842659095487
      ],
      [
        "▁मृतदेह",
        -9.25192586808135
      ],
      [
        "▁(वय",
        -9.253686971598883
      ],
      [
        "▁धक्का",
        -9.255621000630876
      ],
      [
        "▁संचालक",
        -9.255676069149747
      ],
      [
        "सारख्या",
        -9.256174141843942
      ],
      [
        "▁महाराष्ट्रातील",
        -9.256396234529365
      ],
      [
        "ंदा",
        -9.257730371199557
      ],
      [
        "▁काहीही",
        -9.25886435037781
      ],
      [
        "स्थ",
        -9.258951794459943
      ],
      [
        "▁पे",
        -9.259104359669298
      ],
      [
        "▁किलो",
        -9.259735259324827
      ],
      [
        "▁P",
        -9.2598138941269
      ],
      [
        "▁माहितीनुसार,",
        -9.260119222399416
      ],
      [
        "▁पुरवठा",
        -9.260662652095721
      ],
      [
        "A",
        -9.260786677438631
      ],
      [
        "▁गुजरात",
        -9.260850978043898
      ],
      [
        "वली",
        -9.2614270182825
      ],
      [
        "ावरून",
        -9.262043449887525
      ],
      [
        "▁ठेवले",
        -9.263819365496783
      ],
      [
        "तर्फे",
        -9.264360467110796
      ],
      [
        "▁व्हायरस",
        -9.264881441102311
      ],
      [
        "▁कला",
        -9.265767387592295
      ],
      [
        "नो",
        -9.2657799441511
      ],
      [
        "▁ई",
        -9.265925954967773
      ],
      [
        "▁चर्चेत",
        -9.266843062075132
      ],
      [
        "पुर",
        -9.268237512803426
      ],
      [
        "▁शो",
        -9.268238568273457
      ],
      [
        "िश",
        -9.268242968188474
      ],
      [
        "▁लागते.",
        -9.268776288747498
      ],
      [
        "▁13",
        -9.269663304308207
      ],
      [
        "▁पालन",
        -9.26982419084695
      ],
      [
        "▁आलेली",
        -9.270170750210578
      ],
      [
        "णे,",
        -9.271115451365077
      ],
      [
        "▁शासकीय",
        -9.271208439353812
      ],
      [
        "▁परिसरातील",
        -9.271996177277156
      ],
      [
        "h",
        -9.272263891510946
      ],
      [
        "▁कोरोनाची",
        -9.272888971449635
      ],
      [
        "▁इमारती",
        -9.272919371137522
      ],
      [
        "▁विभागाने",
        -9.274270829519132
      ],
      [
        "▁दूध",
        -9.274330704981669
      ],
      [
        "▁अप",
        -9.274582977592809
      ],
      [
        "▁झ",
        -9.275079324773259
      ],
      [
        "▁यु",
        -9.275167906675389
      ],
      [
        "▁याला",
        -9.27595065849802
      ],
      [
        "वेळी",
        -9.276403375030972
      ],
      [
        "▁आंबेडकर",
        -9.276849947342733
      ],
      [
        "▁से",
        -9.276908228673474
      ],
      [
        "▁भागातील",
        -9.277356495567929
      ],
      [
        "▁मोर्चा",
        -9.278114529528295
      ],
      [
        "ँ",
        -9.278285744387304
      ],
      [
        "▁पात्र",
        -9.278564054391651
      ],
      [
        "▁त्यातील",
        -9.279152371127683
      ],
      [
        "पे",
        -9.279898629161274
      ],
      [
        "▁अथवा",
        -9.280643412007246
      ],
      [
        "५",
        -9.281061513495192
      ],
      [
        "ाबद्दल",
        -9.281071745934614
      ],
      [
        "▁जाते",
        -9.281453032197682
      ],
      [
        "▁उभा",
        -9.281869381772273
      ],
      [
        "▁बॉलिवूड",
        -9.282008702844145
      ],
      [
        "▁भाजपा",
        -9.282063261362339
      ],
      [
        "▁जणांना",
        -9.28276155908283
      ],
      [
        "▁होती,",
        -9.283211610682049
      ],
      [
        "▁करार",
        -9.2833955620064
      ],
      [
        "कर,",
        -9.283765808689964
      ],
      [
        "▁लागण",
        -9.283826505415536
      ],
      [
        "▁सुट",
        -9.284275663206689
      ],
      [
        "▁कलम",
        -9.284301333001611
      ],
      [
        "▁मंजूर",
        -9.284449165125345
      ],
      [
        "सिंग",
        -9.284533515345853
      ],
      [
        "▁याप्रकरणी",
        -9.286985962192013
      ],
      [
        "ेश्वर",
        -9.287104221297277
      ],
      [
        "▁वेग",
        -9.287297441672079
      ],
      [
        "▁संत",
        -9.287487570761337
      ],
      [
        "▁विक्रम",
        -9.288435376550858
      ],
      [
        "▁नंबर",
        -9.290289216379808
      ],
      [
        "▁करणं",
        -9.290680686717723
      ],
      [
        "ar",
        -9.29108760446858
      ],
      [
        "ायचा",
        -9.29138895101898
      ],
      [
        "▁होता,",
        -9.292400579095343
      ],
      [
        "▁देताना",
        -9.293516761930547
      ],
      [
        "▁बाबतीत",
        -9.2935837836667
      ],
      [
        "▁कप",
        -9.29423581416072
      ],
      [
        "▁कपूर",
        -9.294242180658845
      ],
      [
        "▁फटका",
        -9.29430698839727
      ],
      [
        "▁आजही",
        -9.294393756749198
      ],
      [
        "▁बांध",
        -9.294688719235594
      ],
      [
        "▁कट",
        -9.295130522009915
      ],
      [
        "▁मिळाले",
        -9.295224601878301
      ],
      [
        "▁बाल",
        -9.295603808047801
      ],
      [
        "▁रोख",
        -9.296137277815884
      ],
      [
        "ांकडे",
        -9.296215281484969
      ],
      [
        "▁चौक",
        -9.29637462121817
      ],
      [
        "▁चालक",
        -9.296770004897839
      ],
      [
        "k",
        -9.296783234126513
      ],
      [
        "▁महत्त्वाचे",
        -9.29695180786243
      ],
      [
        "▁पूर्णपणे",
        -9.297297398749002
      ],
      [
        "▁वृत्त",
        -9.297532110461628
      ],
      [
        "३",
        -9.298542974857018
      ],
      [
        "▁तापमान",
        -9.298960526717298
      ],
      [
        "▁पाठिंबा",
        -9.299824058039468
      ],
      [
        "▁दि",
        -9.300207232219556
      ],
      [
        "▁उद्या",
        -9.300237960492344
      ],
      [
        "▁पाड",
        -9.300262219140329
      ],
      [
        "al",
        -9.300421619165606
      ],
      [
        "ॉ",
        -9.300474095208049
      ],
      [
        "▁जम",
        -9.300922357892908
      ],
      [
        "▁लांब",
        -9.301179869545479
      ],
      [
        "▁बरेच",
        -9.30130352195076
      ],
      [
        "कुमार",
        -9.304647687463216
      ],
      [
        "▁राजीनामा",
        -9.305002803474215
      ],
      [
        "▁शिक",
        -9.30524747203117
      ],
      [
        "▁होतात.",
        -9.305375902570761
      ],
      [
        "▁एसटी",
        -9.306765568086409
      ],
      [
        "▁हॉटेल",
        -9.307186194742584
      ],
      [
        "▁उपयोग",
        -9.3079442535813
      ],
      [
        "पैकी",
        -9.308099295415722
      ],
      [
        "▁शिर",
        -9.308443669579958
      ],
      [
        "▁दिल्लीत",
        -9.308642134159719
      ],
      [
        "P",
        -9.30876677882642
      ],
      [
        "▁महापौर",
        -9.310207049676915
      ],
      [
        "▁तोंड",
        -9.31049802771615
      ],
      [
        "▁भाजपच्या",
        -9.310844455903984
      ],
      [
        "देव",
        -9.312647571655388
      ],
      [
        "▁निरीक्षक",
        -9.312819680367909
      ],
      [
        "▁पु",
        -9.313129038314312
      ],
      [
        "’,",
        -9.314529893275568
      ],
      [
        "▁याचे",
        -9.314538871849884
      ],
      [
        "ानी",
        -9.314620874653468
      ],
      [
        "▁उमेदवारी",
        -9.314782457690413
      ],
      [
        "र्ज",
        -9.315235388736877
      ],
      [
        "▁गुंतवणूक",
        -9.316506998572414
      ],
      [
        "▁होणे",
        -9.317429412322038
      ],
      [
        "▁धोनी",
        -9.319619662524428
      ],
      [
        "▁दिवसांत",
        -9.319761269060823
      ],
      [
        "बर",
        -9.31982721076918
      ],
      [
        "ापर्यंत",
        -9.31993104973331
      ],
      [
        "▁ठिकाण",
        -9.320987390618177
      ],
      [
        "▁रा",
        -9.322355106963084
      ],
      [
        "▁देण्याचा",
        -9.32306104996075
      ],
      [
        "▁रा.",
        -9.323449580437305
      ],
      [
        "▁नव्हते.",
        -9.323488894324163
      ],
      [
        "▁दंड",
        -9.323597319714617
      ],
      [
        "▁प्राथमिक",
        -9.323701090562562
      ],
      [
        "▁युती",
        -9.323772465154486
      ],
      [
        "▁स्पर्धे",
        -9.323994167004738
      ],
      [
        "▁बलात्कार",
        -9.324661921533306
      ],
      [
        "▁पान",
        -9.325812132200006
      ],
      [
        "▁निधन",
        -9.325896729559663
      ],
      [
        "▁सोलापूर",
        -9.326565986030353
      ],
      [
        "▁नवे",
        -9.326850849549688
      ],
      [
        "ळ्या",
        -9.327000889765927
      ],
      [
        "%",
        -9.327312684197592
      ],
      [
        "▁संघर्ष",
        -9.328045208322816
      ],
      [
        "वाद",
        -9.328318685634205
      ],
      [
        "▁साखर",
        -9.329428678763216
      ],
      [
        "▁चांगल्या",
        -9.331303148928031
      ],
      [
        "▁म्हणूनच",
        -9.332485423127995
      ],
      [
        "▁क्षेत्रातील",
        -9.333046595067284
      ],
      [
        "▁बिल",
        -9.334138521241432
      ],
      [
        "▁लोकप्रिय",
        -9.334325117518311
      ],
      [
        "▁अंतर",
        -9.334830756518357
      ],
      [
        "▁स्वतंत्र",
        -9.33506854706581
      ],
      [
        "▁मास्क",
        -9.335640902786926
      ],
      [
        "कु",
        -9.336562731469906
      ],
      [
        "▁गरजेचे",
        -9.336770208311913
      ],
      [
        "▁16",
        -9.337013286667986
      ],
      [
        "पूर्वी",
        -9.337903802019841
      ],
      [
        "ांमुळे",
        -9.338068526630163
      ],
      [
        "▁वाच",
        -9.338748412975576
      ],
      [
        "S",
        -9.338778466403792
      ],
      [
        "d",
        -9.340360211746638
      ],
      [
        "▁वगैरे",
        -9.340672937686033
      ],
      [
        "▁कडक",
        -9.341390384499352
      ],
      [
        "▁जारी",
        -9.341793509191346
      ],
      [
        "▁पिंपरी",
        -9.342018995848727
      ],
      [
        "▁चंद्रकांत",
        -9.342048340304494
      ],
      [
        "▁लागला.",
        -9.342088702117525
      ],
      [
        "▁संदर्भात",
        -9.342407279370818
      ],
      [
        "▁बाधित",
        -9.34310286549735
      ],
      [
        "▁असला",
        -9.344668005536125
      ],
      [
        "▁बरोबर",
        -9.344872492361581
      ],
      [
        "▁येतात.",
        -9.344970800233082
      ],
      [
        "ंचं",
        -9.345344062317501
      ],
      [
        "▁केल्यास",
        -9.34551406957854
      ],
      [
        "▁सगळे",
        -9.348042808353949
      ],
      [
        "▁यांच्यासह",
        -9.348607718619771
      ],
      [
        "▁गा",
        -9.348776872183059
      ],
      [
        "▁पाठव",
        -9.349311096861795
      ],
      [
        "▁उल्लेख",
        -9.350130351292144
      ],
      [
        "▁त्याचबरोबर",
        -9.350547586578491
      ],
      [
        "▁नवा",
        -9.351722867671214
      ],
      [
        "▁जळगाव",
        -9.35173283153729
      ],
      [
        "▁टेस्ट",
        -9.351778440885873
      ],
      [
        "▁हिंदी",
        -9.353302702778148
      ],
      [
        "▁४०",
        -9.353995743439615
      ],
      [
        "बे",
        -9.354047400980981
      ],
      [
        "▁तिची",
        -9.354504262963154
      ],
      [
        "▁रस",
        -9.354632388039171
      ],
      [
        "▁याचिका",
        -9.354782377616344
      ],
      [
        "▁मुख्यमंत्र्यां",
        -9.35565456498189
      ],
      [
        "▁पी",
        -9.356159029124264
      ],
      [
        "▁वाघ",
        -9.356379094108501
      ],
      [
        "▁ठेव",
        -9.356625759299533
      ],
      [
        "▁तीव्र",
        -9.357238383017428
      ],
      [
        "▁असतो",
        -9.357254007950576
      ],
      [
        "▁जमिनी",
        -9.358489608940538
      ],
      [
        "▁केलेला",
        -9.35873476050331
      ],
      [
        "▁कर्णधार",
        -9.359971433187013
      ],
      [
        "▁वाईट",
        -9.362632290625285
      ],
      [
        "▁त्यामध्ये",
        -9.362781016817461
      ],
      [
        "▁पुर",
        -9.363273101578182
      ],
      [
        "ेज",
        -9.363603498542691
      ],
      [
        "▁प्रशासनाने",
        -9.364243870388783
      ],
      [
        "▁क्र",
        -9.364790023176077
      ],
      [
        "णारा",
        -9.365001063960412
      ],
      [
        "▁नागरिकांनी",
        -9.36660296669704
      ],
      [
        "एम",
        -9.367348168985572
      ],
      [
        "▁नक्की",
        -9.368027541724203
      ],
      [
        "ल्ल",
        -9.368298485440892
      ],
      [
        "▁शेवटी",
        -9.368517121822508
      ],
      [
        "▁सन",
        -9.368689801248456
      ],
      [
        "्म",
        -9.369072143248188
      ],
      [
        "▁तुलनेत",
        -9.370709387453832
      ],
      [
        "▁रस्ता",
        -9.370757964729817
      ],
      [
        "▁जप्त",
        -9.370879003715343
      ],
      [
        "▁जमीन",
        -9.370956959096997
      ],
      [
        "er",
        -9.371221121776864
      ],
      [
        "▁टाळ",
        -9.371496952853423
      ],
      [
        "▁करतात",
        -9.371579731074462
      ],
      [
        "▁यंत्रणा",
        -9.372133755507491
      ],
      [
        "▁सांग",
        -9.372166678249807
      ],
      [
        "▁मनसे",
        -9.373411930646979
      ],
      [
        "▁भारताने",
        -9.37365753835153
      ],
      [
        "▁चोरी",
        -9.374273780695066
      ],
      [
        "▁/",
        -9.374605811386129
      ],
      [
        "▁घड",
        -9.3747153915421
      ],
      [
        "▁बसला",
        -9.374788073753667
      ],
      [
        "▁कालावधी",
        -9.374796494487692
      ],
      [
        "दे",
        -9.37511530186682
      ],
      [
        "िर",
        -9.37511823711813
      ],
      [
        "़",
        -9.375509731577264
      ],
      [
        "▁कुणी",
        -9.375556353084463
      ],
      [
        "▁ति",
        -9.375907754437801
      ],
      [
        "▁नको",
        -9.376317480647337
      ],
      [
        "▁राहत",
        -9.376542073883678
      ],
      [
        "ावरील",
        -9.377282807114664
      ],
      [
        "▁नाग",
        -9.377989574507016
      ],
      [
        "▁गेला.",
        -9.378080169897077
      ],
      [
        "▁आलं.",
        -9.378197531465435
      ],
      [
        "▁नावे",
        -9.37841414657781
      ],
      [
        "▁नव्हती.",
        -9.378994628011103
      ],
      [
        "▁निर्देश",
        -9.379073222039493
      ],
      [
        "▁खरे",
        -9.379946859315744
      ],
      [
        "▁सहकारी",
        -9.380067536654636
      ],
      [
        "मेंट",
        -9.380088678507743
      ],
      [
        "▁वाज",
        -9.381117906716653
      ],
      [
        "▁ठेवून",
        -9.381456734588955
      ],
      [
        "▁विनंती",
        -9.381860855114814
      ],
      [
        "▁भाजपने",
        -9.381874959485234
      ],
      [
        "ांसह",
        -9.381961084623866
      ],
      [
        "▁प्रत्यक्ष",
        -9.382312776426316
      ],
      [
        "▁पॉझिटिव्ह",
        -9.383261781652422
      ],
      [
        "िय",
        -9.384026181441772
      ],
      [
        "▁संघटना",
        -9.385567630308408
      ],
      [
        "▁भाऊ",
        -9.385576942786146
      ],
      [
        "▁पर्यावरण",
        -9.386073212424272
      ],
      [
        "▁फरक",
        -9.38611188003027
      ],
      [
        "▁नेतृत्व",
        -9.386366386701544
      ],
      [
        "▁स्वीकार",
        -9.387678623656367
      ],
      [
        "▁राजस्थान",
        -9.387724328237706
      ],
      [
        "▁महाविकास",
        -9.388945644108434
      ],
      [
        "▁।",
        -9.389855058466168
      ],
      [
        "▁लोकल",
        -9.391006087065126
      ],
      [
        "ेड",
        -9.391039352814087
      ],
      [
        "▁असतात",
        -9.391347502420356
      ],
      [
        "▁आयपीएल",
        -9.391482245114897
      ],
      [
        "▁ऐक",
        -9.391755029241402
      ],
      [
        "▁अनु",
        -9.391962384405897
      ],
      [
        "▁दिलासा",
        -9.392415119994899
      ],
      [
        "▁बळी",
        -9.392538394543104
      ],
      [
        "▁राहिले",
        -9.393133469010984
      ],
      [
        "▁2021",
        -9.39317235891642
      ],
      [
        "▁नसेल",
        -9.39408406904412
      ],
      [
        "▁स्टेशन",
        -9.394330596307993
      ],
      [
        "ायचं",
        -9.394845275055479
      ],
      [
        "▁आठवड्यात",
        -9.395502547710569
      ],
      [
        "▁व्यवस्थापन",
        -9.396041245041378
      ],
      [
        "▁नये.",
        -9.396059046269
      ],
      [
        "▁मार्गावर",
        -9.397511860375332
      ],
      [
        "▁ज्ञान",
        -9.397784546690097
      ],
      [
        "▁अंग",
        -9.398448424154964
      ],
      [
        "▁तंत्रज्ञान",
        -9.398870193647872
      ],
      [
        "▁दर्शन",
        -9.3990431492343
      ],
      [
        "▁हस्ते",
        -9.400324815873333
      ],
      [
        "▁पाळ",
        -9.400697521114914
      ],
      [
        "ष्ट",
        -9.400968300087946
      ],
      [
        "▁मुंबई,",
        -9.40121344395453
      ],
      [
        "▁दिवसांपूर्वी",
        -9.401348874312351
      ],
      [
        "▁येतो.",
        -9.401576803444613
      ],
      [
        "ेल.",
        -9.401855430724334
      ],
      [
        "▁आजच्या",
        -9.403106835487964
      ],
      [
        "▁कॉ",
        -9.403234100205934
      ],
      [
        "▁साथ",
        -9.403620318995724
      ],
      [
        "ोर",
        -9.404809065806402
      ],
      [
        "बाई",
        -9.405776060319432
      ],
      [
        "मागे",
        -9.405830668487337
      ],
      [
        "▁शक्ती",
        -9.406064363964335
      ],
      [
        "▁लोकांच्या",
        -9.40624847435219
      ],
      [
        "ावं",
        -9.406791787088839
      ],
      [
        "▁प्रादुर्भाव",
        -9.407410678150747
      ],
      [
        "▁कार्यकर्ते",
        -9.40746451544653
      ],
      [
        "▁कथा",
        -9.408522065537229
      ],
      [
        "▁अतिरिक्त",
        -9.408849536092177
      ],
      [
        "ये",
        -9.409687346958432
      ],
      [
        "▁जाणाऱ्या",
        -9.410856441782828
      ],
      [
        "ियन",
        -9.411186161992362
      ],
      [
        "▁मतदारसंघ",
        -9.411309743809245
      ],
      [
        "▁सुशांत",
        -9.411847982306384
      ],
      [
        "▁दृष्टीने",
        -9.412958674920215
      ],
      [
        "▁जरी",
        -9.412995501264355
      ],
      [
        "▁वारंवार",
        -9.413178853124512
      ],
      [
        "▁आल्यानंतर",
        -9.413265130256843
      ],
      [
        "▁मालक",
        -9.413309435861013
      ],
      [
        "▁जुन्या",
        -9.414629961729466
      ],
      [
        "▁भु",
        -9.415633167056976
      ],
      [
        "▁आशा",
        -9.415655475899385
      ],
      [
        "▁तिचे",
        -9.416169165496981
      ],
      [
        "▁दा",
        -9.41618919264064
      ],
      [
        "▁वर्षांपासून",
        -9.416370255491927
      ],
      [
        "▁२२",
        -9.417367473756189
      ],
      [
        "▁हर",
        -9.41744358356642
      ],
      [
        "▁C",
        -9.417748793581055
      ],
      [
        "▁युवक",
        -9.41898338635951
      ],
      [
        "तु",
        -9.420133438970918
      ],
      [
        "▁१००",
        -9.420483483528674
      ],
      [
        "हो",
        -9.421843630474253
      ],
      [
        "वादी",
        -9.42314740129909
      ],
      [
        "कड",
        -9.423435891630984
      ],
      [
        "▁ध",
        -9.424666198566799
      ],
      [
        "▁रोड",
        -9.425769708956107
      ],
      [
        "तर",
        -9.4260951077401
      ],
      [
        "▁काहीच",
        -9.426206568048084
      ],
      [
        "▁वर्षा",
        -9.426682728083197
      ],
      [
        "▁पालक",
        -9.426782476691582
      ],
      [
        "▁प्रकारच्या",
        -9.427743585644384
      ],
      [
        "▁यादव",
        -9.427938099896156
      ],
      [
        "▁कॅ",
        -9.428486674527736
      ],
      [
        "▁कठीण",
        -9.429214034569942
      ],
      [
        "▁चिंता",
        -9.429500877590584
      ],
      [
        "▁सदर",
        -9.431579609376218
      ],
      [
        "▁नितीन",
        -9.432251569055
      ],
      [
        "▁हेच",
        -9.432654633164091
      ],
      [
        "▁यादी",
        -9.433718440872987
      ],
      [
        "२",
        -9.434472738627974
      ],
      [
        "▁फळ",
        -9.434817306078125
      ],
      [
        "▁सुनील",
        -9.435131661860872
      ],
      [
        "ग्र",
        -9.435296855302301
      ],
      [
        "्यावर",
        -9.435513435409916
      ],
      [
        "पि",
        -9.435583707963744
      ],
      [
        "▁झाल्यावर",
        -9.4356716964799
      ],
      [
        "▁पड",
        -9.43659121094694
      ],
      [
        "▁मृत",
        -9.436883935378805
      ],
      [
        "रण",
        -9.437357181256097
      ],
      [
        "▁सेंटर",
        -9.437367724960845
      ],
      [
        "▁आश्वासन",
        -9.438070012597326
      ],
      [
        "▁असल्यास",
        -9.438368559179214
      ],
      [
        "सारखी",
        -9.439172114859996
      ],
      [
        "1",
        -9.439852497189374
      ],
      [
        "▁ताप",
        -9.43993515895379
      ],
      [
        "▁भाजपला",
        -9.440099650674782
      ],
      [
        "ंडा",
        -9.440130754914101
      ],
      [
        "▁पळ",
        -9.440265016513496
      ],
      [
        "▁17",
        -9.441955388511932
      ],
      [
        "मूद",
        -9.442136853376955
      ],
      [
        "▁प्रशिक्षण",
        -9.442593520912107
      ],
      [
        "ल्यावर",
        -9.443238385502227
      ],
      [
        "गु",
        -9.443873251408373
      ],
      [
        "▁स्क",
        -9.44420116075494
      ],
      [
        "▁यांच्याकडे",
        -9.445121809499613
      ],
      [
        "▁राष्ट्रवादीचे",
        -9.445449074991814
      ],
      [
        "▁आवश्यकता",
        -9.445589488083325
      ],
      [
        "▁टीव्ही",
        -9.445657993115105
      ],
      [
        "▁इन",
        -9.446213934580545
      ],
      [
        "▁करायचे",
        -9.446263169702258
      ],
      [
        "▁निवडून",
        -9.446699111467373
      ],
      [
        "▁पोहोच",
        -9.44741923261557
      ],
      [
        "▁होईल,",
        -9.447705682650671
      ],
      [
        "▁धु",
        -9.44772512893794
      ],
      [
        "▁विवाह",
        -9.448824467820092
      ],
      [
        "▁कार्यालयात",
        -9.44896188998597
      ],
      [
        "र्थ",
        -9.44974264344223
      ],
      [
        "▁संयुक्त",
        -9.450104659937109
      ],
      [
        "▁अधिकृत",
        -9.450191079657317
      ],
      [
        "▁महिने",
        -9.45076486697141
      ],
      [
        "▁प्रभाव",
        -9.45131652788887
      ],
      [
        "९",
        -9.451648274310834
      ],
      [
        "▁सुख",
        -9.451659162295739
      ],
      [
        "▁करणारा",
        -9.451678530673918
      ],
      [
        "क्त",
        -9.451697723295847
      ],
      [
        "▁कंपनीने",
        -9.45244861368515
      ],
      [
        "▁पातळीवर",
        -9.45281961033271
      ],
      [
        "▁शिक्षा",
        -9.453009577001765
      ],
      [
        "▁२१",
        -9.453055671945569
      ],
      [
        "▁चढ",
        -9.453567010144805
      ],
      [
        "▁गेली.",
        -9.453960864720822
      ],
      [
        "गर",
        -9.454447806585208
      ],
      [
        "▁काय?",
        -9.454594399103371
      ],
      [
        "m",
        -9.454682238232426
      ],
      [
        "▁निर्बंध",
        -9.456083809427795
      ],
      [
        "▁नव्हता.",
        -9.456195156129507
      ],
      [
        "▁देशा",
        -9.45622582618628
      ],
      [
        "▁हवे",
        -9.456240530459754
      ],
      [
        "▁वाटप",
        -9.457035641051984
      ],
      [
        "6",
        -9.458464694506862
      ],
      [
        "▁शुल्क",
        -9.458759563660195
      ],
      [
        "▁माणूस",
        -9.45905453503535
      ],
      [
        "▁चित्रपटात",
        -9.45931981572856
      ],
      [
        "▁नाहीत,",
        -9.45953220841294
      ],
      [
        "▁अव",
        -9.460234771298044
      ],
      [
        "▁गाठ",
        -9.460347055052743
      ],
      [
        "▁मात",
        -9.460367601950125
      ],
      [
        "ं.",
        -9.460503157673681
      ],
      [
        "▁कॉंग्रेस",
        -9.461492216678549
      ],
      [
        "▁ऑक्सिजन",
        -9.4620795270519
      ],
      [
        "्क",
        -9.462612603914199
      ],
      [
        "▁नये,",
        -9.462846728132902
      ],
      [
        "▁इतका",
        -9.462939902864608
      ],
      [
        "ाकडून",
        -9.463527433678511
      ],
      [
        "▁रु",
        -9.463926533005225
      ],
      [
        "▁सहभाग",
        -9.464731187536167
      ],
      [
        "म्प",
        -9.4649242686957
      ],
      [
        "▁एन",
        -9.464951771794237
      ],
      [
        "▁स्वागत",
        -9.465138960337779
      ],
      [
        "▁महापालिकेच्या",
        -9.465192078625622
      ],
      [
        "▁झाल्यास",
        -9.46527224263417
      ],
      [
        "▁अंमलबजावणी",
        -9.466643375478405
      ],
      [
        "▁स्मार्टफोन",
        -9.46665538108293
      ],
      [
        "▁मिळवून",
        -9.467232052878824
      ],
      [
        "▁संगीत",
        -9.4673733859503
      ],
      [
        "▁ओढ",
        -9.467653483585503
      ],
      [
        "णारी",
        -9.468698819080481
      ],
      [
        "▁स्टार",
        -9.469115703953063
      ],
      [
        "▁नकार",
        -9.469606151937219
      ],
      [
        "▁आधीच",
        -9.469696593315785
      ],
      [
        "ति",
        -9.470041494906596
      ],
      [
        "▁भरपूर",
        -9.470489703404155
      ],
      [
        "▁करायची",
        -9.470921993197976
      ],
      [
        "▁एकच",
        -9.471024188053981
      ],
      [
        "▁नसून",
        -9.471559506771808
      ],
      [
        "▁बघ",
        -9.471678186485958
      ],
      [
        "▁स्वच्छ",
        -9.472220569186637
      ],
      [
        "▁मिळाली.",
        -9.472416450148
      ],
      [
        "▁संस्कृती",
        -9.472628264659779
      ],
      [
        "▁सहकार्य",
        -9.47277590650302
      ],
      [
        "▁परंतु,",
        -9.474134160243562
      ],
      [
        "▁सभा",
        -9.474804886428624
      ],
      [
        "▁विमा",
        -9.4755805784487
      ],
      [
        "मि",
        -9.475730700279168
      ],
      [
        "▁सुरुवातीला",
        -9.475964028221377
      ],
      [
        "हर",
        -9.475984643361496
      ],
      [
        "▁करतो",
        -9.47692460064449
      ],
      [
        "▁निर्",
        -9.476929095633679
      ],
      [
        "ेकर",
        -9.47727284429494
      ],
      [
        "▁काढ",
        -9.477925695194607
      ],
      [
        "w",
        -9.477982819946332
      ],
      [
        "▁सुधारणा",
        -9.477984570944065
      ],
      [
        "▁राजा",
        -9.478376619627465
      ],
      [
        "▁लिहिले",
        -9.479194604800492
      ],
      [
        "▁पक्षाच्या",
        -9.480027951679077
      ],
      [
        "▁छान",
        -9.480207302440114
      ],
      [
        "गी",
        -9.480240523220306
      ],
      [
        "▁B",
        -9.48039143343952
      ],
      [
        "▁जल",
        -9.481371402207074
      ],
      [
        "▁सातत्यान",
        -9.482372896074448
      ],
      [
        "▁घडली",
        -9.482924506056904
      ],
      [
        "▁(दि.",
        -9.483612901228241
      ],
      [
        "▁2020",
        -9.483697773373773
      ],
      [
        "▁आहे?",
        -9.483887274689843
      ],
      [
        "▁लागली.",
        -9.48398270237282
      ],
      [
        "▁तुला",
        -9.484558935199612
      ],
      [
        "▁आल्याने",
        -9.485990325439879
      ],
      [
        "▁पण,",
        -9.48644712818393
      ],
      [
        "▁शासनाने",
        -9.48658101608202
      ],
      [
        "▁पक्षाचे",
        -9.487993618115969
      ],
      [
        "▁नस",
        -9.489688056630502
      ],
      [
        "▁डोस",
        -9.489967402985123
      ],
      [
        "▁आपलं",
        -9.490152289137093
      ],
      [
        "▁माहीत",
        -9.490164922469273
      ],
      [
        "▁शैक्षणिक",
        -9.491355052759538
      ],
      [
        "▁तिसऱ्या",
        -9.491355613139186
      ],
      [
        "▁प्रदेशाध्यक्ष",
        -9.491442832021797
      ],
      [
        "▁युद्ध",
        -9.491507530309642
      ],
      [
        "▁पटेल",
        -9.492340675802996
      ],
      [
        "▁निवडणुकीच्या",
        -9.493736574250615
      ],
      [
        "▁नक्कीच",
        -9.494390521081241
      ],
      [
        "▁कालावधीत",
        -9.494609149427383
      ],
      [
        "▁दीड",
        -9.494697124975097
      ],
      [
        "▁परि",
        -9.495077898877591
      ],
      [
        "तात",
        -9.495423007977703
      ],
      [
        "▁रस्ते",
        -9.49609785707133
      ],
      [
        "▁वडील",
        -9.496505463309479
      ],
      [
        "▁पूजा",
        -9.498950510472017
      ],
      [
        "▁कोकण",
        -9.498992908024274
      ],
      [
        "▁पडले",
        -9.49901369032251
      ],
      [
        "▁निषेध",
        -9.499204420263515
      ],
      [
        "▁सांगली",
        -9.499474944376043
      ],
      [
        "▁म्हण",
        -9.500674211189244
      ],
      [
        "▁क्षमता",
        -9.50078800023702
      ],
      [
        "७",
        -9.500882205090043
      ],
      [
        "▁चंद्र",
        -9.501437679797032
      ],
      [
        "▁राष्ट्रपती",
        -9.50243261145052
      ],
      [
        "क्स",
        -9.503658529647204
      ],
      [
        "▁पद्धती",
        -9.50372164907954
      ],
      [
        "▁सायंकाळी",
        -9.50394902186464
      ],
      [
        "▁बाकी",
        -9.504514294418811
      ],
      [
        "▁एस",
        -9.504605826557857
      ],
      [
        "▁यांच्यात",
        -9.504687755608096
      ],
      [
        "▁दखल",
        -9.505531517754031
      ],
      [
        "▁छत्रपती",
        -9.505537117423238
      ],
      [
        "▁पहिले",
        -9.50553884149787
      ],
      [
        "▁थ",
        -9.505563637293593
      ],
      [
        "▁सोड",
        -9.505773878891178
      ],
      [
        "▁बार",
        -9.505998238706702
      ],
      [
        "▁मानसिक",
        -9.507154411788475
      ],
      [
        "n",
        -9.507297583794802
      ],
      [
        "▁तर,",
        -9.507601766201638
      ],
      [
        "पूर्ण",
        -9.507809998910538
      ],
      [
        "दान",
        -9.50796312667574
      ],
      [
        "▁मोह",
        -9.508232538203746
      ],
      [
        "दु",
        -9.50834084222761
      ],
      [
        "▁कम",
        -9.508343231980001
      ],
      [
        "▁वाढली",
        -9.508380321346625
      ],
      [
        "▁ठरत",
        -9.508740895352714
      ],
      [
        "▁आढावा",
        -9.509052201274827
      ],
      [
        "धी",
        -9.50918426457862
      ],
      [
        "▁बीड",
        -9.509614251375918
      ],
      [
        "▁मते",
        -9.509616057183074
      ],
      [
        "at",
        -9.509815713738833
      ],
      [
        "▁जोशी",
        -9.509865262917067
      ],
      [
        "▁दरवर्षी",
        -9.51036292599947
      ],
      [
        "सन",
        -9.510952330505502
      ],
      [
        "▁डो",
        -9.511038445769568
      ],
      [
        "पत्र",
        -9.511505948791928
      ],
      [
        "सो",
        -9.51212526905142
      ],
      [
        "झा",
        -9.512445652415977
      ],
      [
        "▁याने",
        -9.512632606243931
      ],
      [
        "▁मुले",
        -9.512670382019007
      ],
      [
        "▁निवडणुका",
        -9.513188988069786
      ],
      [
        "▁विद्यापीठ",
        -9.514217605742846
      ],
      [
        "६",
        -9.514618108486161
      ],
      [
        "वळ",
        -9.516617937278905
      ],
      [
        "▁अॅ",
        -9.516695601049527
      ],
      [
        "पु",
        -9.51677126855839
      ],
      [
        "▁नैसर्गिक",
        -9.518298039797319
      ],
      [
        "▁वर्षांपूर्वी",
        -9.518320426737272
      ],
      [
        "पो",
        -9.518442439205916
      ],
      [
        "▁चहा",
        -9.51856207445649
      ],
      [
        "▁सोन्या",
        -9.518599783737802
      ],
      [
        "▁असतानाच",
        -9.519351287624357
      ],
      [
        "▁मुस्लिम",
        -9.519905757236991
      ],
      [
        "▁आक्रमक",
        -9.519906131066703
      ],
      [
        "▁घेतल्या",
        -9.520774381524799
      ],
      [
        "▁तालुक्यात",
        -9.521070870400667
      ],
      [
        "ण्यास",
        -9.52113027041974
      ],
      [
        "कल",
        -9.521485103296694
      ],
      [
        "▁अक्षय",
        -9.521521288258901
      ],
      [
        "▁ऑ",
        -9.52177582165815
      ],
      [
        "▁असो",
        -9.521842727634233
      ],
      [
        "▁दुर्लक्ष",
        -9.522544912563724
      ],
      [
        "▁दहशतवादी",
        -9.523086311267724
      ],
      [
        "▁चि",
        -9.523284668197288
      ],
      [
        "▁आलेला",
        -9.523404015930915
      ],
      [
        "▁तु",
        -9.523707486835072
      ],
      [
        "▁कपडे",
        -9.523940127750917
      ],
      [
        "▁धन",
        -9.524068769587544
      ],
      [
        "▁शकतो",
        -9.524078471390553
      ],
      [
        "▁अति",
        -9.524519808091565
      ],
      [
        "▁नका.",
        -9.5245584683565
      ],
      [
        "रु",
        -9.52457942349728
      ],
      [
        "▁गोंधळ",
        -9.524744791953744
      ],
      [
        "▁उपमुख्यमंत्री",
        -9.524763310471828
      ],
      [
        "▁वर्षांत",
        -9.52538529015656
      ],
      [
        "योग",
        -9.52565738515167
      ],
      [
        "▁अंश",
        -9.526032421204967
      ],
      [
        "▁समाधान",
        -9.526327674743207
      ],
      [
        "▁समजून",
        -9.526518574148925
      ],
      [
        "▁श्री.",
        -9.526621534921185
      ],
      [
        "▁धरण",
        -9.526988425945605
      ],
      [
        "▁दर्जा",
        -9.527035695642013
      ],
      [
        "▁कोर",
        -9.527132141685218
      ],
      [
        "▁पडला",
        -9.527862904559314
      ],
      [
        "▁अ‍ॅ",
        -9.528544236207537
      ],
      [
        "▁रुपयांचा",
        -9.528563258063546
      ],
      [
        "▁उचल",
        -9.528941795435333
      ],
      [
        "▁T",
        -9.529274220655456
      ],
      [
        "▁डोंगर",
        -9.52962150864825
      ],
      [
        "▁सलमान",
        -9.529675793507133
      ],
      [
        "▁दिन",
        -9.529948943889721
      ],
      [
        "▁पाहा",
        -9.530093433396907
      ],
      [
        "l",
        -9.530119702284424
      ],
      [
        "▁फलंदाज",
        -9.530420372871802
      ],
      [
        "▁नोंदणी",
        -9.530699296554047
      ],
      [
        "▁दारू",
        -9.530829977128448
      ],
      [
        "▁22",
        -9.53127873980308
      ],
      [
        "एल",
        -9.531402400046327
      ],
      [
        "▁रस्त्या",
        -9.531808158830046
      ],
      [
        "▁झाल्याची",
        -9.53263430811689
      ],
      [
        "पट",
        -9.533014921207734
      ],
      [
        "▁खात्या",
        -9.533396004312177
      ],
      [
        "▁ठरव",
        -9.533482730423307
      ],
      [
        "▁ट्रेन",
        -9.533755173822211
      ],
      [
        "▁काँग्रेसच्या",
        -9.533807600232787
      ],
      [
        "▁राग",
        -9.534217433999038
      ],
      [
        "▁कॉलेज",
        -9.53506163859153
      ],
      [
        "▁पेट",
        -9.535204699979895
      ],
      [
        "वान",
        -9.53564248973474
      ],
      [
        "▁शाळेत",
        -9.536008808585503
      ],
      [
        "▁सलग",
        -9.536128620825803
      ],
      [
        "▁येतो",
        -9.536199297756127
      ],
      [
        "▁बाबा",
        -9.536989045651538
      ],
      [
        "▁मिळू",
        -9.538084576994784
      ],
      [
        "R",
        -9.538212157634273
      ],
      [
        "▁ट्र",
        -9.53835287123292
      ],
      [
        "▁चेन्नई",
        -9.539402779177408
      ],
      [
        "▁रोजगार",
        -9.539489519123482
      ],
      [
        "▁बेड",
        -9.539489821532902
      ],
      [
        "▁हवी",
        -9.539730153863935
      ],
      [
        "▁कार्यक्रमात",
        -9.540128800177332
      ],
      [
        "▁देता",
        -9.54025975512226
      ],
      [
        "▁राजेश",
        -9.540492464887347
      ],
      [
        "....",
        -9.540627119729068
      ],
      [
        "▁लढ",
        -9.540824149924319
      ],
      [
        "▁जणांचा",
        -9.541201795377642
      ],
      [
        "ाना",
        -9.54177415627508
      ],
      [
        "▁हजारो",
        -9.541908601868448
      ],
      [
        "ाऊ",
        -9.542157344106336
      ],
      [
        "r",
        -9.542249899064174
      ],
      [
        "▁सण",
        -9.5423277665453
      ],
      [
        "▁सकारात्मक",
        -9.542689557734926
      ],
      [
        "▁भाषण",
        -9.542957514125767
      ],
      [
        "▁कल",
        -9.544164876802238
      ],
      [
        "▁संदेश",
        -9.544465357959478
      ],
      [
        "▁युवा",
        -9.54593995865078
      ],
      [
        "णा-या",
        -9.545960412425703
      ],
      [
        "▁प्रयोग",
        -9.546315180417317
      ],
      [
        "▁घेतले.",
        -9.547241562687017
      ],
      [
        "स्व",
        -9.547361320022727
      ],
      [
        "धा",
        -9.547722680708022
      ],
      [
        "▁डाव",
        -9.548874767375576
      ],
      [
        "▁महत्त्वाची",
        -9.549059984027824
      ],
      [
        "▁इत्यादी",
        -9.54929575461854
      ],
      [
        "▁पेक्षा",
        -9.549608933544864
      ],
      [
        "ल्स",
        -9.550198449535586
      ],
      [
        "▁करायचा",
        -9.551355498040778
      ],
      [
        "▁बिग",
        -9.552298719864167
      ],
      [
        "▁मीटर",
        -9.552379521785411
      ],
      [
        "▁आहार",
        -9.552380630343674
      ],
      [
        "▁मिळव",
        -9.55270148831423
      ],
      [
        "▁देशाच्या",
        -9.553192682626795
      ],
      [
        "▁टिक",
        -9.553232982686746
      ],
      [
        "▁येथून",
        -9.554280004020587
      ],
      [
        "र्‍या",
        -9.554493001868991
      ],
      [
        "▁गृह",
        -9.554572888575851
      ],
      [
        "▁पाऊल",
        -9.555954451716314
      ],
      [
        "▁पोलीसनामा",
        -9.556319809832136
      ],
      [
        "▁य",
        -9.556745159240933
      ],
      [
        "▁पाहिले",
        -9.556884427022666
      ],
      [
        "▁मानले",
        -9.556965239791023
      ],
      [
        "▁शिवसेनेचे",
        -9.557921278120986
      ],
      [
        "▁उर",
        -9.558545148610632
      ],
      [
        "▁100",
        -9.559412312684135
      ],
      [
        "▁कधीही",
        -9.560157430447312
      ],
      [
        "▁विक",
        -9.560491919878004
      ],
      [
        "▁क्षण",
        -9.561300106238493
      ],
      [
        "▁करण्या",
        -9.561718451168034
      ],
      [
        "▁कृती",
        -9.56184148572092
      ],
      [
        "▁मेट्रो",
        -9.562593062980248
      ],
      [
        "▁मार्गदर्शन",
        -9.56273003124349
      ],
      [
        "▁सातारा",
        -9.562762987729327
      ],
      [
        "करिता",
        -9.564053703942477
      ],
      [
        "िड",
        -9.564062582421752
      ],
      [
        "सि",
        -9.56429163149615
      ],
      [
        "▁म्हणणे",
        -9.564927776417623
      ],
      [
        "▁पर्यटन",
        -9.56545557571113
      ],
      [
        "▁दुसरी",
        -9.56707240009413
      ],
      [
        "▁सुर",
        -9.567307803886909
      ],
      [
        "▁आदिवासी",
        -9.567778217626914
      ],
      [
        "▁मान्यता",
        -9.568788107360973
      ],
      [
        "▁छोट्या",
        -9.569383113449966
      ],
      [
        "▁राख",
        -9.569437626054212
      ],
      [
        "▁मलिक",
        -9.569913179102313
      ],
      [
        "▁गाण्या",
        -9.57044838979099
      ],
      [
        "▁कर्नाटक",
        -9.570636356509949
      ],
      [
        "हार",
        -9.570743562181821
      ],
      [
        "हु",
        -9.571240442148424
      ],
      [
        "▁छ",
        -9.571549770281651
      ],
      [
        "▁निवडणुकी",
        -9.571822107333999
      ],
      [
        "बल",
        -9.573175948007496
      ],
      [
        "▁हु",
        -9.573267697057592
      ],
      [
        "▁शेख",
        -9.573385300875591
      ],
      [
        "▁चोर",
        -9.573650322812124
      ],
      [
        "▁डाय",
        -9.573810653862546
      ],
      [
        "▁घ",
        -9.574269476752914
      ],
      [
        "सिंह",
        -9.57511391944286
      ],
      [
        "द्र",
        -9.575256137435446
      ],
      [
        "on",
        -9.575865610741712
      ],
      [
        "▁है",
        -9.577614816015455
      ],
      [
        "ांपैकी",
        -9.57789070055399
      ],
      [
        "▁विभागाच्या",
        -9.578110753521106
      ],
      [
        "▁रुग्णांना",
        -9.57841228092306
      ],
      [
        "▁सहन",
        -9.57843858198456
      ],
      [
        "▁जावे",
        -9.57866529836043
      ],
      [
        "▁21",
        -9.578907613231959
      ],
      [
        "▁लोकशाही",
        -9.579866658578412
      ],
      [
        "▁बिहार",
        -9.580343418756232
      ],
      [
        "▁भारताला",
        -9.580849533182949
      ],
      [
        "▁मोफत",
        -9.58129114216451
      ],
      [
        "श्",
        -9.581537964918507
      ],
      [
        "▁लो",
        -9.58182167078424
      ],
      [
        "▁वार",
        -9.582150914694008
      ],
      [
        "▁प्रकारचे",
        -9.582265212033146
      ],
      [
        "झर",
        -9.582516108474767
      ],
      [
        "▁इंग्रजी",
        -9.58370298765088
      ],
      [
        "िनी",
        -9.585153649276398
      ],
      [
        "▁वाग",
        -9.585220641993132
      ],
      [
        "▁अली",
        -9.585627467589054
      ],
      [
        "▁काहीतरी",
        -9.586363232375328
      ],
      [
        "▁2019",
        -9.586487454546264
      ],
      [
        "▁थंड",
        -9.586816614518005
      ],
      [
        "▁घ्यावी",
        -9.587386284255642
      ],
      [
        "▁विश्व",
        -9.588499489473662
      ],
      [
        "▁धार्मिक",
        -9.588689813908804
      ],
      [
        "▁नजर",
        -9.588963402634562
      ],
      [
        "▁कदाचित",
        -9.589876605825431
      ],
      [
        "▁किलोमीटर",
        -9.589895166632008
      ],
      [
        "ॉन",
        -9.590315745200874
      ],
      [
        "▁लागल्या",
        -9.590328387439733
      ],
      [
        "शास्त्र",
        -9.590648123469483
      ],
      [
        "▁आयुष्यात",
        -9.59080635571699
      ],
      [
        "▁महत्त्व",
        -9.592319747324044
      ],
      [
        "▁तरुणी",
        -9.592328583889369
      ],
      [
        "▁घाट",
        -9.592476422970725
      ],
      [
        "▁आकडा",
        -9.593395528410678
      ],
      [
        "▁सीमा",
        -9.593961689974696
      ],
      [
        "▁बाळ",
        -9.594185218693806
      ],
      [
        "▁खु",
        -9.594369315085167
      ],
      [
        "रित्या",
        -9.594486329200437
      ],
      [
        "▁मिळून",
        -9.595641202420255
      ],
      [
        "वू",
        -9.59606302883823
      ],
      [
        "▁साध",
        -9.596342217331838
      ],
      [
        "▁क्रीडा",
        -9.596810519311468
      ],
      [
        "मुक्त",
        -9.597211723654043
      ],
      [
        "▁गावातील",
        -9.597236363702711
      ],
      [
        "▁अभिनय",
        -9.598547966942608
      ],
      [
        "▁कोहली",
        -9.59856675437267
      ],
      [
        "▁अपेक्षित",
        -9.600283881923975
      ],
      [
        "▁वेगळे",
        -9.600481385937291
      ],
      [
        "▁चुक",
        -9.600664747302176
      ],
      [
        ".....",
        -9.601349638065109
      ],
      [
        "▁नऊ",
        -9.601394950673615
      ],
      [
        "▁असतं.",
        -9.601439380783823
      ],
      [
        "▁कार्यरत",
        -9.602064230186983
      ],
      [
        "▁त्यापैकी",
        -9.602376198884922
      ],
      [
        "▁चक्क",
        -9.602501907609376
      ],
      [
        "▁M",
        -9.603068439228155
      ],
      [
        "▁संध्याकाळी",
        -9.603271113522233
      ],
      [
        "▁सामन्या",
        -9.603297119566406
      ],
      [
        "▁पाण्यात",
        -9.603558936530149
      ],
      [
        "▁ठरणार",
        -9.60379215590412
      ],
      [
        "▁प्रमाणावर",
        -9.604314684988143
      ],
      [
        "▁नाराजी",
        -9.604499219342856
      ],
      [
        "f",
        -9.60462642658728
      ],
      [
        "▁यांचं",
        -9.604745097573517
      ],
      [
        "▁डिझेल",
        -9.605528714611683
      ],
      [
        "▁यातील",
        -9.605566317685334
      ],
      [
        "▁निवेदन",
        -9.605802005284241
      ],
      [
        "▁ज्यामुळे",
        -9.606771126675202
      ],
      [
        "▁घेण्याची",
        -9.607202428686168
      ],
      [
        "▁तणाव",
        -9.607290121147434
      ],
      [
        "▁प्रवासी",
        -9.60858537773034
      ],
      [
        "▁परिषदेत",
        -9.608707989585042
      ],
      [
        "7",
        -9.608829563523598
      ],
      [
        "or",
        -9.609501828325776
      ],
      [
        "▁सन्मान",
        -9.610218802973169
      ],
      [
        "ष्",
        -9.610317747356445
      ],
      [
        "▁लिह",
        -9.61087790364051
      ],
      [
        "▁ग्राहकांना",
        -9.610956438271671
      ],
      [
        "▁नेत्या",
        -9.611343702164596
      ],
      [
        "▁त्याचं",
        -9.611745353650317
      ],
      [
        "▁परिसर",
        -9.611875390625443
      ],
      [
        "▁अत्याचार",
        -9.612566112090784
      ],
      [
        "▁मॉडेल",
        -9.612566737680657
      ],
      [
        "▁देशभरात",
        -9.61262317615331
      ],
      [
        "▁हजर",
        -9.612726722616344
      ],
      [
        "शन",
        -9.61327118405007
      ],
      [
        "▁राहून",
        -9.614291973249793
      ],
      [
        "▁राव",
        -9.614470758181541
      ],
      [
        "▁लेखक",
        -9.614980637113078
      ],
      [
        "▁खरं",
        -9.61542846988501
      ],
      [
        "▁यासंदर्भात",
        -9.615772760467397
      ],
      [
        "▁अंक",
        -9.616113913086071
      ],
      [
        "▁करणारी",
        -9.616345136633745
      ],
      [
        "▁पैसा",
        -9.618062808036743
      ],
      [
        "▁खळबळ",
        -9.619650376670885
      ],
      [
        "▁माहित",
        -9.619993746274154
      ],
      [
        "▁भेटी",
        -9.6225221068618
      ],
      [
        "▁पोलिसांच्या",
        -9.622672216664716
      ],
      [
        "▁अभ्यासक्रम",
        -9.62513429314178
      ],
      [
        "ऐवजी",
        -9.625712429780728
      ],
      [
        "▁घ्या.",
        -9.626234981328924
      ],
      [
        "▁शंका",
        -9.626251690025741
      ],
      [
        "▁तशी",
        -9.626417227971242
      ],
      [
        "▁केल्याचा",
        -9.626535110999246
      ],
      [
        "▁ठ",
        -9.628565053725636
      ],
      [
        "▁मदतीने",
        -9.629423781270807
      ],
      [
        "▁भरती",
        -9.62968209961285
      ],
      [
        "वीर",
        -9.630267286713197
      ],
      [
        "▁वेगळी",
        -9.63055808385306
      ],
      [
        "b",
        -9.630647216155143
      ],
      [
        "कि",
        -9.630673942397756
      ],
      [
        "▁रिपोर्ट",
        -9.630682995567803
      ],
      [
        "▁शतक",
        -9.631758646611841
      ],
      [
        "णार्‍या",
        -9.632140738163711
      ],
      [
        "▁द्या",
        -9.632461664379996
      ],
      [
        "▁शांत",
        -9.633051585183056
      ],
      [
        "▁अन्",
        -9.633371372157516
      ],
      [
        "▁बु",
        -9.633665751529177
      ],
      [
        "▁इतके",
        -9.633872193162336
      ],
      [
        "▁प्रदर्शित",
        -9.633974833390646
      ],
      [
        "▁यातून",
        -9.634508140405288
      ],
      [
        "▁दिग्दर्शक",
        -9.634762692704347
      ],
      [
        "▁मिळालेल्या",
        -9.635080909826986
      ],
      [
        "▁भो",
        -9.636629307536237
      ],
      [
        "▁हेही",
        -9.636635206403627
      ],
      [
        "O",
        -9.637117125477353
      ],
      [
        "▁भू",
        -9.637340027966978
      ],
      [
        "▁दिसणार",
        -9.637468325977277
      ],
      [
        "▁२६",
        -9.637588539636003
      ],
      [
        "▁उत्सव",
        -9.63759471305993
      ],
      [
        "-या",
        -9.638840418210263
      ],
      [
        "▁शेतकऱ्यांच्या",
        -9.639035267685287
      ],
      [
        "▁सर्वांना",
        -9.63922263529653
      ],
      [
        "▁शाह",
        -9.639777275564459
      ],
      [
        "कट",
        -9.640210338627828
      ],
      [
        "▁फेसबुक",
        -9.64091887716808
      ],
      [
        "▁देवी",
        -9.64114117714626
      ],
      [
        "▁तुझ्या",
        -9.641215589864203
      ],
      [
        "▁नाना",
        -9.641285794344336
      ],
      [
        "▁नाईक",
        -9.641587440946804
      ],
      [
        "▁मांड",
        -9.642130388925736
      ],
      [
        "▁राबव",
        -9.642192882594745
      ],
      [
        "सारखा",
        -9.642280191881124
      ],
      [
        "ोड",
        -9.642894866024307
      ],
      [
        "▁नोटीस",
        -9.6430680615165
      ],
      [
        "ंडे",
        -9.643591742865759
      ],
      [
        "20",
        -9.645138831737418
      ],
      [
        "▁कोरोनामुळे",
        -9.64532896535172
      ],
      [
        "ंडी",
        -9.647253888211424
      ],
      [
        "▁शकते",
        -9.647321948021471
      ],
      [
        "▁नेत्यांनी",
        -9.647803806394727
      ],
      [
        "▁केल्याची",
        -9.64781038548997
      ],
      [
        "देश",
        -9.647880140875724
      ],
      [
        "▁40",
        -9.64792071797445
      ],
      [
        "▁विकसित",
        -9.64850914259685
      ],
      [
        "▁भि",
        -9.648521633988388
      ],
      [
        "▁अड",
        -9.648873840314337
      ],
      [
        "ेंद्र",
        -9.649595553512013
      ],
      [
        "▁पालकमंत्री",
        -9.650470403854822
      ],
      [
        "▁कंपन्या",
        -9.650489225290578
      ],
      [
        "ग्रस्त",
        -9.650951067488055
      ],
      [
        "▁‘स",
        -9.651267458914862
      ],
      [
        "▁धडक",
        -9.651643482616866
      ],
      [
        "बंध",
        -9.652089956480253
      ],
      [
        "▁गृहमंत्री",
        -9.652289875922865
      ],
      [
        "▁हाय",
        -9.652641532568358
      ],
      [
        "▁दिशेने",
        -9.653405448954612
      ],
      [
        "▁जातो",
        -9.653473532076044
      ],
      [
        "▁वेगाने",
        -9.653669248729418
      ],
      [
        "▁होण्यासाठी",
        -9.65375386940519
      ],
      [
        "▁साधारण",
        -9.65381154728637
      ],
      [
        "▁शाळे",
        -9.654415831174724
      ],
      [
        "▁झालं.",
        -9.654843334627426
      ],
      [
        "▁मुक्त",
        -9.655619164754887
      ],
      [
        "▁सावंत",
        -9.655842582712951
      ],
      [
        "िता",
        -9.656728126114777
      ],
      [
        "ांमधील",
        -9.656797423553423
      ],
      [
        "▁ऑफिस",
        -9.657173819838818
      ],
      [
        "▁विरुद्ध",
        -9.65726012804803
      ],
      [
        "▁तालुका",
        -9.657708998946223
      ],
      [
        "ॉट",
        -9.65795130821951
      ],
      [
        "▁कशा",
        -9.658307769689628
      ],
      [
        "D",
        -9.658330903167617
      ],
      [
        "न्न",
        -9.658735357684517
      ],
      [
        "▁डेटा",
        -9.659127777433728
      ],
      [
        "▁गॅस",
        -9.659345162294883
      ],
      [
        "र्क",
        -9.659618494349976
      ],
      [
        "▁प्रकृती",
        -9.659644846996892
      ],
      [
        "▁खडसे",
        -9.659765530837495
      ],
      [
        "▁लावले",
        -9.660280180429586
      ],
      [
        "टर",
        -9.66028319719711
      ],
      [
        "करी",
        -9.660421457454367
      ],
      [
        "▁विभागाचे",
        -9.660506141883781
      ],
      [
        "▁सुरूवात",
        -9.661872071763884
      ],
      [
        "▁कार्यकर्त्यां",
        -9.662377071383824
      ],
      [
        "▁सूर्य",
        -9.662378177783548
      ],
      [
        "टक",
        -9.663122402144559
      ],
      [
        "▁इंटरनेट",
        -9.663255591551096
      ],
      [
        "▁बाबासाहेब",
        -9.663325090568337
      ],
      [
        "▁पाहणी",
        -9.663622742057244
      ],
      [
        "▁केल्याचे",
        -9.663812017427315
      ],
      [
        "खाली",
        -9.664033733763288
      ],
      [
        "▁एकनाथ",
        -9.66420915082116
      ],
      [
        "फा",
        -9.664394036852975
      ],
      [
        "▁वर्षाच्या",
        -9.665134366567532
      ],
      [
        "▁गायकवाड",
        -9.665208396992998
      ],
      [
        "▁घटनास्थळी",
        -9.665218447530055
      ],
      [
        "▁योग",
        -9.665736451485985
      ],
      [
        "ल्",
        -9.666088950220452
      ],
      [
        "▁धा",
        -9.666217412374763
      ],
      [
        "▁लगेच",
        -9.66642258320022
      ],
      [
        "▁याआधी",
        -9.666460798252926
      ],
      [
        "▁काळा",
        -9.666500073971434
      ],
      [
        "▁येईल,",
        -9.666847561248652
      ],
      [
        "▁टे",
        -9.667267468802445
      ],
      [
        "ंमुळे",
        -9.667920614615214
      ],
      [
        "▁असे.",
        -9.668072563745673
      ],
      [
        "▁राहील.",
        -9.668163940641705
      ],
      [
        "▁कधीच",
        -9.668842791721136
      ],
      [
        "▁मुद्दे",
        -9.668932935822493
      ],
      [
        "▁मिळते.",
        -9.669506717085806
      ],
      [
        "▁कॉल",
        -9.669684688003475
      ],
      [
        "▁पहा",
        -9.669906565530777
      ],
      [
        "▁सुपर",
        -9.670383788930273
      ],
      [
        "संदर्भात",
        -9.670449932182958
      ],
      [
        "▁देण्याचे",
        -9.671870729719416
      ],
      [
        "▁23",
        -9.67191414658356
      ],
      [
        "ंस",
        -9.672463080778883
      ],
      [
        "▁डॉ",
        -9.673528925800003
      ],
      [
        "▁बहुतेक",
        -9.674459200501929
      ],
      [
        "▁त्यांचं",
        -9.674905162296813
      ],
      [
        "▁विनोद",
        -9.675067655803891
      ],
      [
        "व्हा",
        -9.675417593319517
      ],
      [
        "▁कस",
        -9.67548802437302
      ],
      [
        "▁खंड",
        -9.676185598288566
      ],
      [
        "▁मोदींनी",
        -9.676395829219848
      ],
      [
        "▁संशय",
        -9.677497096233713
      ],
      [
        "▁पीक",
        -9.677726907794916
      ],
      [
        "▁रो",
        -9.677737836127207
      ],
      [
        "▁होम",
        -9.677804902642574
      ],
      [
        "▁२८",
        -9.677813642319402
      ],
      [
        "▁महत्त्वाचा",
        -9.677963337851487
      ],
      [
        "थे",
        -9.678052350905547
      ],
      [
        "▁संदीप",
        -9.678334426670201
      ],
      [
        "▁उठ",
        -9.678631520469931
      ],
      [
        "▁मिळ",
        -9.678764730544895
      ],
      [
        "▁वर्षांच्या",
        -9.67892422887774
      ],
      [
        "▁हॉस्पिटल",
        -9.67920523961719
      ],
      [
        "▁प्राधान्य",
        -9.680108757262076
      ],
      [
        "▁यू",
        -9.68011179514192
      ],
      [
        "▁निमित्ताने",
        -9.680575126203122
      ],
      [
        "▁राशी",
        -9.681456375716007
      ],
      [
        "▁प्रा",
        -9.681886381448997
      ],
      [
        "▁करते",
        -9.68188716133972
      ],
      [
        "▁विस्तार",
        -9.681999790610599
      ],
      [
        "क्ट",
        -9.682018407278811
      ],
      [
        "वाह",
        -9.682382844214391
      ],
      [
        "्याने",
        -9.682516614168218
      ],
      [
        "▁राहू",
        -9.683773460348842
      ],
      [
        "▁अनुदान",
        -9.683995026404975
      ],
      [
        "▁पुढच्या",
        -9.684172493922077
      ],
      [
        "▁३१",
        -9.68484674793514
      ],
      [
        "▁बंगाल",
        -9.684915093750426
      ],
      [
        "▁ठरले",
        -9.68604744219083
      ],
      [
        "▁सरकारकडून",
        -9.686414657888388
      ],
      [
        "▁पकड",
        -9.686493945017263
      ],
      [
        "▁तुमचे",
        -9.686551017463502
      ],
      [
        "▁गणपती",
        -9.686900866385958
      ],
      [
        "re",
        -9.686940092777109
      ],
      [
        "▁आभार",
        -9.687833419887857
      ],
      [
        "▁भारताचा",
        -9.68863702839629
      ],
      [
        "▁वैयक्तिक",
        -9.689596196399243
      ],
      [
        "▁इतक्या",
        -9.689599178724817
      ],
      [
        "▁मतदारसंघात",
        -9.689709976220312
      ],
      [
        "▁पुण्यातील",
        -9.690024584803227
      ],
      [
        "▁बाग",
        -9.690311063215916
      ],
      [
        "गार",
        -9.690429613914016
      ],
      [
        "र्न",
        -9.69098656149652
      ],
      [
        "भाव",
        -9.692388993405288
      ],
      [
        "▁साकार",
        -9.692874249385877
      ],
      [
        "▁सरासरी",
        -9.6934172143975
      ],
      [
        "▁गरम",
        -9.693831594089964
      ],
      [
        "▁नावाने",
        -9.694043787244748
      ],
      [
        "B",
        -9.694831366974192
      ],
      [
        "▁फ्र",
        -9.695088392974299
      ],
      [
        "▁आहोत",
        -9.695100225700063
      ],
      [
        "▁ग्रुप",
        -9.695332575655879
      ],
      [
        "▁पहाटे",
        -9.695470390396174
      ],
      [
        "▁महाविद्यालय",
        -9.696792190316442
      ],
      [
        "▁शुभेच्छा",
        -9.697251813880492
      ],
      [
        "▁26",
        -9.698204684649513
      ],
      [
        "▁विकेट",
        -9.698459365837842
      ],
      [
        "▁लाट",
        -9.69873959829252
      ],
      [
        "▁जाईल",
        -9.698890297296705
      ],
      [
        "▁लाखो",
        -9.69906543106487
      ],
      [
        "▁राजकारणात",
        -9.699592756756854
      ],
      [
        "▁आम",
        -9.700017852277174
      ],
      [
        "▁घडली.",
        -9.700043925546417
      ],
      [
        "▁नेमक",
        -9.700249802249893
      ],
      [
        "▁मिळाल्या",
        -9.700468678993932
      ],
      [
        "M",
        -9.700565568856618
      ],
      [
        "▁लागतो.",
        -9.701271283371698
      ],
      [
        "▁कुणा",
        -9.70129165670119
      ],
      [
        "▁दल",
        -9.701635054968877
      ],
      [
        "▁गोलंदाज",
        -9.703095891179078
      ],
      [
        "▁२०१९",
        -9.703098681531149
      ],
      [
        "▁वेतन",
        -9.703132337850032
      ],
      [
        "▁नियुक्ती",
        -9.704097958169708
      ],
      [
        "▁जगभरात",
        -9.70522363219662
      ],
      [
        "▁बोट",
        -9.70523742640897
      ],
      [
        "▁अॅप",
        -9.705401934638797
      ],
      [
        "▁खूपच",
        -9.705738524563852
      ],
      [
        "▁तुमची",
        -9.705779257725151
      ],
      [
        "▁असल्या",
        -9.705869332200368
      ],
      [
        "▁याबद्दल",
        -9.706260846436813
      ],
      [
        "▁याकडे",
        -9.706286159621206
      ],
      [
        "▁खो",
        -9.706355671097365
      ],
      [
        "▁तिकीट",
        -9.706905150596196
      ],
      [
        "▁रायगड",
        -9.707027751320263
      ],
      [
        "▁पगार",
        -9.70722760706656
      ],
      [
        "▁मंडळी",
        -9.707611667528042
      ],
      [
        "▁प्रसार",
        -9.708513129645748
      ],
      [
        "▁सांगून",
        -9.708595346423731
      ],
      [
        "▁अवघ्या",
        -9.709076869380997
      ],
      [
        "▁वाटते",
        -9.709085210863858
      ],
      [
        "ालय",
        -9.709319647441951
      ],
      [
        "साहेब",
        -9.71070937854136
      ],
      [
        "▁जवान",
        -9.712075601207685
      ],
      [
        "▁पसर",
        -9.712095810572094
      ],
      [
        "▁ट्विटर",
        -9.712596335532659
      ],
      [
        "▁आदित्य",
        -9.712708440108404
      ],
      [
        "▁मंजुरी",
        -9.712875724727954
      ],
      [
        "▁जु",
        -9.713812937094854
      ],
      [
        "▁ट्रम्प",
        -9.714783897034941
      ],
      [
        "▁दाखवून",
        -9.716038922793038
      ],
      [
        "▁मध्यम",
        -9.716569428887716
      ],
      [
        "▁तात्काळ",
        -9.716650987188835
      ],
      [
        "ॉल",
        -9.71701133409273
      ],
      [
        "घर",
        -9.717469246590946
      ],
      [
        "मुख्यमंत्र्यांनी",
        -9.717784586682612
      ],
      [
        "ोल",
        -9.71833462210283
      ],
      [
        "ाद्वारे",
        -9.718605204330505
      ],
      [
        "▁दुसर्‍या",
        -9.71861209002515
      ],
      [
        "▁विकत",
        -9.71879960601436
      ],
      [
        "▁चिंचवड",
        -9.719254784704086
      ],
      [
        "ल्यामुळे",
        -9.719784490398549
      ],
      [
        "▁लाव",
        -9.720198524961557
      ],
      [
        "▁बऱ्याच",
        -9.720301977509592
      ],
      [
        "▁काप",
        -9.720437972544673
      ],
      [
        "▁दगड",
        -9.721315581936645
      ],
      [
        "▁घे",
        -9.721742806041632
      ],
      [
        "मार",
        -9.721791976742967
      ],
      [
        "तील.",
        -9.72204565817256
      ],
      [
        "▁विशिष्ट",
        -9.722545210357124
      ],
      [
        "▁शेट्टी",
        -9.722584753292981
      ],
      [
        "िटी",
        -9.722640776598027
      ],
      [
        "▁31",
        -9.722777932293567
      ],
      [
        "▁प्रकारची",
        -9.722806566651748
      ],
      [
        "▁सक्षम",
        -9.722812913719032
      ],
      [
        "▁पंच",
        -9.722937664718422
      ],
      [
        "▁काळे",
        -9.723450904181622
      ],
      [
        "ंसह",
        -9.723756838832102
      ],
      [
        "▁काँग्रेसने",
        -9.72378760800575
      ],
      [
        "ऊ",
        -9.724025796699909
      ],
      [
        "▁कसं",
        -9.724499922049786
      ],
      [
        "▁२०२०",
        -9.724678788543244
      ],
      [
        "▁२७",
        -9.724982444768738
      ],
      [
        "▁येते",
        -9.725316693153214
      ],
      [
        "▁लोकांची",
        -9.725317454148122
      ],
      [
        "▁समान",
        -9.725434097056375
      ],
      [
        "▁धनंजय",
        -9.726494129866524
      ],
      [
        "▁वै",
        -9.7273764934564
      ],
      [
        "▁घेतलेल्या",
        -9.72742985391588
      ],
      [
        "▁आधारित",
        -9.72796962218342
      ],
      [
        "ंपैकी",
        -9.728389579134728
      ],
      [
        "▁एल",
        -9.728692579582631
      ],
      [
        "▁माणसा",
        -9.729475623239532
      ],
      [
        "ज्ञ",
        -9.729501840898237
      ],
      [
        "▁मालिके",
        -9.72977324343104
      ],
      [
        "▁किंमती",
        -9.729787639519028
      ],
      [
        "▁राज्यपाल",
        -9.730128919876563
      ],
      [
        "▁यांच्याशी",
        -9.730351215155226
      ],
      [
        "िज",
        -9.731427469140858
      ],
      [
        "▁पुण्या",
        -9.732072731282468
      ],
      [
        "▁कंगना",
        -9.732453691900453
      ],
      [
        "ध्य",
        -9.73289507425222
      ],
      [
        "▁नव्याने",
        -9.73299720717613
      ],
      [
        "▁बाळग",
        -9.733215028008914
      ],
      [
        "▁सुधार",
        -9.733491247291244
      ],
      [
        "्री",
        -9.734112432679279
      ],
      [
        "▁माती",
        -9.734198842081158
      ],
      [
        "▁गडकरी",
        -9.734498278899968
      ],
      [
        "▁शेवटच्या",
        -9.734693505848574
      ],
      [
        "E",
        -9.734854804515916
      ],
      [
        "▁काढले",
        -9.735106455129149
      ],
      [
        "▁भविष्यात",
        -9.735184034454424
      ],
      [
        "▁धर",
        -9.735370372828545
      ],
      [
        "▁ब्र",
        -9.73564009475616
      ],
      [
        "▁वेळेत",
        -9.735646650173816
      ],
      [
        "▁जाणीव",
        -9.736409063913168
      ],
      [
        "ण्याचे",
        -9.737266308263528
      ],
      [
        "▁सगळं",
        -9.737357392016307
      ],
      [
        "▁मालिकेत",
        -9.737542499447468
      ],
      [
        "डो",
        -9.738010720255097
      ],
      [
        "▁सरकारवर",
        -9.738117364128405
      ],
      [
        "▁पडली",
        -9.739430149918554
      ],
      [
        "स्थान",
        -9.73960526382055
      ],
      [
        "▁अंतरावर",
        -9.739648164895977
      ],
      [
        "▁सोय",
        -9.739763802636263
      ],
      [
        "▁बचाव",
        -9.740667204756225
      ],
      [
        "▁टोला",
        -9.742281461096724
      ],
      [
        "▁संताप",
        -9.742459239757906
      ],
      [
        "ंगा",
        -9.742574388959357
      ],
      [
        "क्षण",
        -9.743214326635758
      ],
      [
        "▁२३",
        -9.743890438348684
      ],
      [
        "िस्ट",
        -9.743990277333566
      ],
      [
        "▁बसून",
        -9.744023658847453
      ],
      [
        "ाखाली",
        -9.74409232083427
      ],
      [
        "▁कविता",
        -9.744689235572604
      ],
      [
        "▁प्रगती",
        -9.744736006226908
      ],
      [
        "▁अमेरिकेत",
        -9.744800314574093
      ],
      [
        "▁गोड",
        -9.744984700810026
      ],
      [
        "च्छ",
        -9.745276525948597
      ],
      [
        "▁वाढत्या",
        -9.745288418279241
      ],
      [
        "▁तुमचा",
        -9.74532325517986
      ],
      [
        "▁आधुनिक",
        -9.746474260865712
      ],
      [
        "▁रत्नागिरी",
        -9.74647429902333
      ],
      [
        "▁संतोष",
        -9.746474658235087
      ],
      [
        "▁तेथील",
        -9.746495687739941
      ],
      [
        "य़ा",
        -9.74654932681637
      ],
      [
        "▁सुरेश",
        -9.746645579740203
      ],
      [
        "▁रूप",
        -9.746650119856326
      ],
      [
        "▁अँड",
        -9.74716970696753
      ],
      [
        "▁ठराव",
        -9.748444849428122
      ],
      [
        "▁कठोर",
        -9.74849456662764
      ],
      [
        "▁तरतूद",
        -9.748499131257677
      ],
      [
        "▁केल्या.",
        -9.748600570617233
      ],
      [
        "▁घोषित",
        -9.748671574593663
      ],
      [
        "▁शकले",
        -9.749096301772745
      ],
      [
        "▁राज्याच्या",
        -9.7491213968666
      ],
      [
        "▁दुचाकी",
        -9.749529178233054
      ],
      [
        "▁मानव",
        -9.749567571648631
      ],
      [
        "▁किशोर",
        -9.749834695714283
      ],
      [
        "▁त्यामुळेच",
        -9.749877699184033
      ],
      [
        "▁मोबाइल",
        -9.750518786045912
      ],
      [
        "▁खेळी",
        -9.751282519471946
      ],
      [
        "▁काढण्यात",
        -9.751499850132273
      ],
      [
        "एफ",
        -9.751549954529498
      ],
      [
        "▁समर्थन",
        -9.752100047778077
      ],
      [
        "▁घरातील",
        -9.75226646883329
      ],
      [
        "वन",
        -9.752544307729256
      ],
      [
        "▁विधेयक",
        -9.752547143911341
      ],
      [
        "▁आदर्श",
        -9.752550969998229
      ],
      [
        "▁बहुतांश",
        -9.752560188377133
      ],
      [
        "▁ठोक",
        -9.752621300613361
      ],
      [
        "▁किमी",
        -9.752798472385674
      ],
      [
        "▁कोणतेही",
        -9.753070342093814
      ],
      [
        "▁भविष्य",
        -9.753819028859205
      ],
      [
        "▁जबाबदार",
        -9.754704451330735
      ],
      [
        "▁माध्यम",
        -9.75607595060221
      ],
      [
        "▁नेत्यां",
        -9.757030759160086
      ],
      [
        "युक्त",
        -9.757538017933648
      ],
      [
        "झी",
        -9.759425631585753
      ],
      [
        "▁पंचायत",
        -9.759735140446244
      ],
      [
        "▁लक्ष्य",
        -9.759744117921949
      ],
      [
        "▁धमकी",
        -9.75993120556274
      ],
      [
        "▁0",
        -9.760436910464357
      ],
      [
        "▁पिंपरी-चिंचवड",
        -9.76070213926956
      ],
      [
        "▁ट्वीट",
        -9.760702142446863
      ],
      [
        "▁फसवणूक",
        -9.76071080441232
      ],
      [
        "▁गरीब",
        -9.760720328469052
      ],
      [
        "▁पालिका",
        -9.760869796947702
      ],
      [
        "्प",
        -9.76098907231826
      ],
      [
        "▁एअर",
        -9.761165597577765
      ],
      [
        "ापेक्षा",
        -9.761596842398092
      ],
      [
        "▁तसा",
        -9.76173706277406
      ],
      [
        "▁दुकान",
        -9.761875493352264
      ],
      [
        "र्व",
        -9.76196825588613
      ],
      [
        "▁वंचित",
        -9.762760894871928
      ],
      [
        "▁महापालिके",
        -9.762797575124651
      ],
      [
        "▁शिकव",
        -9.763094561525666
      ],
      [
        "▁कान",
        -9.763480443482713
      ],
      [
        "▁हंगाम",
        -9.764110470918183
      ],
      [
        "▁न्यूझीलंड",
        -9.764804698092
      ],
      [
        "वास",
        -9.76482686360659
      ],
      [
        "काम",
        -9.764867089858353
      ],
      [
        "▁संघात",
        -9.764966578871414
      ],
      [
        "▁सेल",
        -9.765821169073316
      ],
      [
        "ब्र",
        -9.767241058258499
      ],
      [
        "रू",
        -9.767325766017294
      ],
      [
        "▁आमची",
        -9.767589356757735
      ],
      [
        "▁सक्रिय",
        -9.76900694591031
      ],
      [
        "▁मूर्ती",
        -9.769855105727345
      ],
      [
        "▁आख",
        -9.770495379531773
      ],
      [
        "▁वेगळा",
        -9.77119101072533
      ],
      [
        "▁जाणव",
        -9.771661508071812
      ],
      [
        "▁उपाययोजना",
        -9.772452439140984
      ],
      [
        "▁असणे",
        -9.772642381622566
      ],
      [
        "स्टर",
        -9.772737446582969
      ],
      [
        "▁पाह",
        -9.772918513682331
      ],
      [
        "▁वृद्ध",
        -9.77414676605321
      ],
      [
        "▁जरा",
        -9.77436108938171
      ],
      [
        "▁पालिके",
        -9.774602942977971
      ],
      [
        "▁कुलकर्णी",
        -9.775135424885631
      ],
      [
        "▁कदम",
        -9.775140630258552
      ],
      [
        "▁खर",
        -9.77514133130586
      ],
      [
        "▁ऑफर",
        -9.775381587217705
      ],
      [
        "▁जयंत",
        -9.77607355407701
      ],
      [
        "▁एक्स",
        -9.776570300135702
      ],
      [
        "प्रकरणी",
        -9.777077653896953
      ],
      [
        "▁खात्री",
        -9.777375373906274
      ],
      [
        "▁महाजन",
        -9.777556774303182
      ],
      [
        "▁डॉलर",
        -9.778162264339324
      ],
      [
        "डय़ा",
        -9.778266347471806
      ],
      [
        "मार्फत",
        -9.778290313324476
      ],
      [
        "▁सांभाळ",
        -9.779250727567412
      ],
      [
        "▁घेण्याचा",
        -9.779253621375924
      ],
      [
        "▁उपाध्यक्ष",
        -9.779406358533672
      ],
      [
        "▁साल",
        -9.779981508723736
      ],
      [
        "रे,",
        -9.780097325258014
      ],
      [
        "तल्या",
        -9.780574523445328
      ],
      [
        "▁व्यक्तीला",
        -9.781104838968421
      ],
      [
        "▁गोल",
        -9.781271182572812
      ],
      [
        "▁भोसले",
        -9.78139095761364
      ],
      [
        "▁खाजगी",
        -9.781433292872636
      ],
      [
        "▁स्ट",
        -9.782003932299247
      ],
      [
        "▁कामकाज",
        -9.783490108428888
      ],
      [
        "▁समितीच्या",
        -9.783530805140291
      ],
      [
        "▁मिळेल",
        -9.785160188024019
      ],
      [
        "▁निघ",
        -9.786532552680399
      ],
      [
        "▁करा,",
        -9.786586171779376
      ],
      [
        "▁द्यावे",
        -9.786747495613259
      ],
      [
        "्यांना",
        -9.787045417034172
      ],
      [
        "▁भुजबळ",
        -9.787674740494285
      ],
      [
        "बरोबरच",
        -9.788247163333502
      ],
      [
        "▁सीबीआय",
        -9.788423301519366
      ],
      [
        "्रो",
        -9.78875829085063
      ],
      [
        "▁मुंबईच्या",
        -9.788759614998735
      ],
      [
        "न्ट",
        -9.789780617130557
      ],
      [
        "▁पाहत",
        -9.789962139931319
      ],
      [
        "▁विभागात",
        -9.790398375967683
      ],
      [
        "▁कचरा",
        -9.790701829068414
      ],
      [
        "it",
        -9.790950437556459
      ],
      [
        "▁म्हणतात",
        -9.79099624572804
      ],
      [
        "▁थोडी",
        -9.791907962856921
      ],
      [
        "▁मोहीम",
        -9.7919607577921
      ],
      [
        "▁परिषदे",
        -9.792084809376675
      ],
      [
        "▁पार्क",
        -9.792139016359867
      ],
      [
        "▁६०",
        -9.792169420104878
      ],
      [
        "▁फुले",
        -9.792650706713683
      ],
      [
        "▁संशयित",
        -9.792689686353626
      ],
      [
        "▁अफगाणिस्तान",
        -9.794005990393309
      ],
      [
        "▁ठार",
        -9.794211986868328
      ],
      [
        "▁भरून",
        -9.79429649358178
      ],
      [
        "घा",
        -9.794308928644547
      ],
      [
        "▁व्यापारी",
        -9.79465138454862
      ],
      [
        "ांतील",
        -9.794841854521549
      ],
      [
        "▁संकेत",
        -9.796105354204467
      ],
      [
        "▁चालत",
        -9.796127218840025
      ],
      [
        "▁जिथे",
        -9.796301609061057
      ],
      [
        "▁मागण्या",
        -9.796425596925639
      ],
      [
        "ंशी",
        -9.796448309785077
      ],
      [
        "▁सर्वत्र",
        -9.796610068661685
      ],
      [
        "▁R",
        -9.79690642176434
      ],
      [
        "▁अवलंबून",
        -9.79706702175343
      ],
      [
        "▁ऐतिहासिक",
        -9.798245630112294
      ],
      [
        "▁रेकॉर्ड",
        -9.798245643255697
      ],
      [
        "▁म्हणतात.",
        -9.798598283983758
      ],
      [
        "लेट",
        -9.798769253950713
      ],
      [
        "▁बॉस",
        -9.798874670642238
      ],
      [
        "▁साहेब",
        -9.800125099182633
      ],
      [
        "▁जातं.",
        -9.800625870756956
      ],
      [
        "▁कर्मचाऱ्यांना",
        -9.801291662221406
      ],
      [
        "ोन",
        -9.802441242324136
      ],
      [
        "▁आढळले",
        -9.803617188470046
      ],
      [
        "▁लॉ",
        -9.803878672028437
      ],
      [
        "▁*",
        -9.803925173505327
      ],
      [
        "▁सर्वसामान्य",
        -9.804614716770136
      ],
      [
        "▁अहमदनगर",
        -9.805307881411455
      ],
      [
        "▁मुला",
        -9.806301781375456
      ],
      [
        "▁जाण्याची",
        -9.806811152208233
      ],
      [
        "▁देण्यास",
        -9.807164786378259
      ],
      [
        "एन",
        -9.807480786083612
      ],
      [
        "▁समुद्र",
        -9.807730417981674
      ],
      [
        "यन",
        -9.808211695597475
      ],
      [
        "▁पद्धत",
        -9.808274421960748
      ],
      [
        "▁झाल्यामुळे",
        -9.808741238354566
      ],
      [
        "टो",
        -9.809083444458023
      ],
      [
        "▁स्तरावर",
        -9.809166237095706
      ],
      [
        "▁द्यावा",
        -9.80955505147831
      ],
      [
        "च्च",
        -9.809900153199262
      ],
      [
        "▁महेश",
        -9.81063965058248
      ],
      [
        "▁विद्यापीठा",
        -9.81064544013693
      ],
      [
        "यर",
        -9.811956142882028
      ],
      [
        "पदी",
        -9.812616846744863
      ],
      [
        "▁लोकांचा",
        -9.812853258070412
      ],
      [
        "▁वाढले",
        -9.812908349261203
      ],
      [
        "▁आपल्याकडे",
        -9.812971055746498
      ],
      [
        "▁जोडी",
        -9.813249700071623
      ],
      [
        "▁योगदान",
        -9.813322800527404
      ],
      [
        "ंबर",
        -9.813602034494625
      ],
      [
        "▁राय",
        -9.813871162482073
      ],
      [
        "▁रोखण्यासाठी",
        -9.81387926913865
      ],
      [
        "▁व्ह",
        -9.815470038870327
      ],
      [
        "▁खुलासा",
        -9.81556205045183
      ],
      [
        "▁दुरुस्ती",
        -9.81569285455478
      ],
      [
        "▁‘‘",
        -9.815863627140239
      ],
      [
        "स्क",
        -9.816290616199286
      ],
      [
        "▁वाटते.",
        -9.816432435495082
      ],
      [
        "▁27",
        -9.816729414633166
      ],
      [
        "▁जसे",
        -9.816809931037149
      ],
      [
        "▁परदेशी",
        -9.816913221139165
      ],
      [
        "▁आठवण",
        -9.817265213491687
      ],
      [
        "▁यावर्षी",
        -9.817436790974675
      ],
      [
        "▁उघडकीस",
        -9.817561342513411
      ],
      [
        "▁इन्",
        -9.818056606790257
      ],
      [
        "▁मॅ",
        -9.818955421860611
      ],
      [
        "▁प्रत्यक्षात",
        -9.819026547992673
      ],
      [
        "▁तुट",
        -9.819255293020149
      ],
      [
        "▁अधिवेशन",
        -9.81948614518619
      ],
      [
        "▁सामने",
        -9.819636355500734
      ],
      [
        "▁त्यातच",
        -9.819760829003755
      ],
      [
        "▁अण्णा",
        -9.819916774300118
      ],
      [
        "▁प्रत्येकी",
        -9.820108614801416
      ],
      [
        "▁लाग",
        -9.820206201015132
      ],
      [
        "▁दबाव",
        -9.820214446164615
      ],
      [
        "▁उत्साह",
        -9.82099765970662
      ],
      [
        "वण",
        -9.821561077129505
      ],
      [
        "▁टप्प्यात",
        -9.821640137906009
      ],
      [
        "▁वर्ल्ड",
        -9.821902067612218
      ],
      [
        "▁मजबूत",
        -9.821902804437947
      ],
      [
        "▁उपयुक्त",
        -9.822120894323165
      ],
      [
        "▁प्रदर्शन",
        -9.822181646185092
      ],
      [
        "▁तोड",
        -9.822557237080709
      ],
      [
        "▁कुठल्याही",
        -9.822681974415968
      ],
      [
        "▁बुड",
        -9.822946776119021
      ],
      [
        "ॉक",
        -9.823200632117814
      ],
      [
        "▁टाकून",
        -9.824585581586337
      ],
      [
        "क्र",
        -9.825271526685928
      ],
      [
        "▁महिले",
        -9.825614186410785
      ],
      [
        "▁प्रा.",
        -9.825777218086968
      ],
      [
        "▁असते,",
        -9.825939436981415
      ],
      [
        "’’",
        -9.82598295217776
      ],
      [
        "▁मस्त",
        -9.826137604755726
      ],
      [
        "▁कारभार",
        -9.826420332512818
      ],
      [
        "▁कार्यकारी",
        -9.826423940831301
      ],
      [
        "ुम",
        -9.826452733880492
      ],
      [
        "▁खून",
        -9.826956671985
      ],
      [
        "▁जाग",
        -9.82763904022798
      ],
      [
        "▁गुरु",
        -9.827696312561283
      ],
      [
        "्यांच्या",
        -9.827781939313777
      ],
      [
        "▁D",
        -9.828163952000313
      ],
      [
        "पुढे",
        -9.828326357088498
      ],
      [
        "२०",
        -9.828625030210826
      ],
      [
        "ल्यास",
        -9.828659104842803
      ],
      [
        "▁फ्ल",
        -9.829577902658542
      ],
      [
        "▁पाल",
        -9.829646385868365
      ],
      [
        "मुळं",
        -9.83111725106934
      ],
      [
        "ापूर",
        -9.831218605703345
      ],
      [
        "▁होताना",
        -9.831250799309295
      ],
      [
        "▁दिलीप",
        -9.832163993261837
      ],
      [
        "▁विचारले",
        -9.832360779830754
      ],
      [
        "▁शकणार",
        -9.832865964482075
      ],
      [
        "▁टो",
        -9.83302160736089
      ],
      [
        "▁N",
        -9.833138766344053
      ],
      [
        "▁सार",
        -9.833297402768096
      ],
      [
        "▁पाठ",
        -9.833808884815657
      ],
      [
        "▁उड",
        -9.834359438615541
      ],
      [
        "▁थोडा",
        -9.834651489451856
      ],
      [
        "छ",
        -9.835006418109728
      ],
      [
        "▁उभी",
        -9.835208328483269
      ],
      [
        "▁राजेंद्र",
        -9.835480188158467
      ],
      [
        "▁नियमित",
        -9.835795749068046
      ],
      [
        "▁आकडेवारी",
        -9.836089237649212
      ],
      [
        "▁एस.",
        -9.836251493362429
      ],
      [
        "त्",
        -9.837117470113508
      ],
      [
        "▁अमेरिका",
        -9.837253861268895
      ],
      [
        "▁पीडित",
        -9.837572008422036
      ],
      [
        "तात,",
        -9.837618861554422
      ],
      [
        "▁डोळे",
        -9.837715128741891
      ],
      [
        "▁हाच",
        -9.837788632183354
      ],
      [
        "▁यादीत",
        -9.839203692815213
      ],
      [
        "▁सुभाष",
        -9.83946634243862
      ],
      [
        "बो",
        -9.839779515047521
      ],
      [
        "र्म",
        -9.839929424560644
      ],
      [
        "▁पुरव",
        -9.839960644688336
      ],
      [
        "▁स्थापना",
        -9.840717149921343
      ],
      [
        "▁स्वरूप",
        -9.840910643285824
      ],
      [
        "▁दिशा",
        -9.840923921985912
      ],
      [
        "व्हर",
        -9.841703019351453
      ],
      [
        "▁नर",
        -9.842120333086967
      ],
      [
        "▁किमती",
        -9.84247872193679
      ],
      [
        "▁कंपनीच्या",
        -9.842541272797703
      ],
      [
        "▁गेलेल्या",
        -9.843825202955928
      ],
      [
        "मधे",
        -9.844420740386324
      ],
      [
        "ींग",
        -9.844550105912186
      ],
      [
        "▁बॅ",
        -9.844834451109694
      ],
      [
        "’च्या",
        -9.845207921492376
      ],
      [
        "▁घडत",
        -9.845284583291832
      ],
      [
        "▁पक्षनेते",
        -9.846142153449511
      ],
      [
        "▁‘अ",
        -9.846142759854054
      ],
      [
        "शील",
        -9.846208810448896
      ],
      [
        "▁अधिकाऱ्यांनी",
        -9.846951345059809
      ],
      [
        "▁फलंदाजी",
        -9.847247065715067
      ],
      [
        "र्त",
        -9.848207933948213
      ],
      [
        "▁मह",
        -9.849375668705994
      ],
      [
        "▁पाहिजे,",
        -9.849661804668932
      ],
      [
        "▁रेड",
        -9.849678410125023
      ],
      [
        "▁एखादी",
        -9.849762950680791
      ],
      [
        "था",
        -9.849788624198343
      ],
      [
        "▁अमेरिकन",
        -9.850602168493285
      ],
      [
        "▁कित्येक",
        -9.850602169422245
      ],
      [
        "▁करणे,",
        -9.850646355297108
      ],
      [
        "ल्याचे",
        -9.850933061499633
      ],
      [
        "▁असूनही",
        -9.85147483406304
      ],
      [
        "यात",
        -9.851623923925402
      ],
      [
        "▁वाढला",
        -9.851657828369225
      ],
      [
        "▁तेच",
        -9.851674786266393
      ],
      [
        "मत",
        -9.852339969514134
      ],
      [
        "▁मुलं",
        -9.852532680035313
      ],
      [
        "▁खाते",
        -9.852638936977607
      ],
      [
        "▁ओबीसी",
        -9.852918085241173
      ],
      [
        "▁दरात",
        -9.853029432590988
      ],
      [
        "▁उदाहरण",
        -9.853153153702532
      ],
      [
        "▁पावसा",
        -9.853201885921195
      ],
      [
        "▁प्रतिमा",
        -9.853875964140371
      ],
      [
        "▁रिक्षा",
        -9.85418984560913
      ],
      [
        "▁ट्रक",
        -9.854289155942592
      ],
      [
        "▁शैली",
        -9.854587062396522
      ],
      [
        "▁फिल्म",
        -9.8550982731252
      ],
      [
        "▁नांदेड",
        -9.85513249555678
      ],
      [
        "ाबाहेर",
        -9.8551516957161
      ],
      [
        "▁प्रसंग",
        -9.856846578931048
      ],
      [
        "▁हैदराबाद",
        -9.857343768612601
      ],
      [
        "▁उत्पादक",
        -9.85734380284039
      ],
      [
        "▁जनतेला",
        -9.857413679432348
      ],
      [
        "v",
        -9.858113054150799
      ],
      [
        "▁सारख्या",
        -9.858934944901003
      ],
      [
        "▁काश्मीर",
        -9.858993052113094
      ],
      [
        "▁अवस्था",
        -9.859609167727324
      ],
      [
        "',",
        -9.861000958910825
      ],
      [
        "▁असाल",
        -9.861819407677604
      ],
      [
        "▁जोर",
        -9.861855340308193
      ],
      [
        "▁चेहरा",
        -9.861865760744363
      ],
      [
        "▁महत्वाचे",
        -9.861972934056887
      ],
      [
        "▁हद्दीत",
        -9.862369169978205
      ],
      [
        "▁होतील.",
        -9.863058776023472
      ],
      [
        "माग",
        -9.863482789395666
      ],
      [
        "▁मानवी",
        -9.863525212589598
      ],
      [
        "▁ताण",
        -9.863610927592546
      ],
      [
        "ारी",
        -9.864442301076018
      ],
      [
        "▁भूमिके",
        -9.864837725074189
      ],
      [
        "▁परीक्षे",
        -9.865169823920827
      ],
      [
        "ha",
        -9.865523813810265
      ],
      [
        "ra",
        -9.866653011992403
      ],
      [
        "▁राजू",
        -9.866731000298829
      ],
      [
        "▁गड",
        -9.866882804993327
      ],
      [
        "▁गाड्या",
        -9.86712026822506
      ],
      [
        "िफ",
        -9.86738965001194
      ],
      [
        "ॅट",
        -9.867429857354095
      ],
      [
        "▁मॅच",
        -9.8675006615064
      ],
      [
        "िव्ह",
        -9.867611919885983
      ],
      [
        "▁असतानाही",
        -9.867980530373124
      ],
      [
        "ले,",
        -9.868048951325651
      ],
      [
        "▁व्यापार",
        -9.868107089893693
      ],
      [
        "▁प्राण",
        -9.86823895280747
      ],
      [
        "्याला",
        -9.868378685422753
      ],
      [
        "▁इंधन",
        -9.868725528785
      ],
      [
        "▁कुर",
        -9.8687405791301
      ],
      [
        "▁स्थिर",
        -9.868746270966067
      ],
      [
        "धार",
        -9.869199485037573
      ],
      [
        "▁दाब",
        -9.869346941454271
      ],
      [
        "▁पातळी",
        -9.869598113623319
      ],
      [
        "▁स्वामी",
        -9.869944487194946
      ],
      [
        "▁हल्ल्या",
        -9.870312650584834
      ],
      [
        "▁वाह",
        -9.870486031859826
      ],
      [
        "▁फेरी",
        -9.870984943629434
      ],
      [
        "▁पोहच",
        -9.871037493116177
      ],
      [
        "▁आमचा",
        -9.871892751477652
      ],
      [
        "▁सेट",
        -9.872329634552631
      ],
      [
        "▁मोज",
        -9.872724771540511
      ],
      [
        "रूप",
        -9.87276008858402
      ],
      [
        "▁तसं",
        -9.872852150471271
      ],
      [
        "▁पिढी",
        -9.873259486358098
      ],
      [
        "▁सत्ताधारी",
        -9.873287505758523
      ],
      [
        "पूर्व",
        -9.87347554691625
      ],
      [
        "▁परंपरा",
        -9.874086661103942
      ],
      [
        "िक्स",
        -9.87499275785624
      ],
      [
        "रिया",
        -9.875342617245256
      ],
      [
        "▁घुस",
        -9.875399401784403
      ],
      [
        "▁मोठय़ा",
        -9.875546798670424
      ],
      [
        "▁घ्यायला",
        -9.875560689105324
      ],
      [
        "▁२०१४",
        -9.87563556649679
      ],
      [
        "▁फूट",
        -9.87565771133906
      ],
      [
        "कोट",
        -9.875705970081988
      ],
      [
        "▁प्रशांत",
        -9.875768391936202
      ],
      [
        "▁पास",
        -9.875906541314418
      ],
      [
        "राज्य",
        -9.876148139220891
      ],
      [
        "▁खराब",
        -9.876501316422772
      ],
      [
        "▁दिवसा",
        -9.876563185544736
      ],
      [
        "▁कांदा",
        -9.87733080130372
      ],
      [
        "एक",
        -9.877660640234364
      ],
      [
        "▁२०२१",
        -9.877934348501757
      ],
      [
        "ांपासून",
        -9.877934376342395
      ],
      [
        "▁लक्षणे",
        -9.878641458853888
      ],
      [
        "▁अ‍ॅप",
        -9.87939414719126
      ],
      [
        "वणे",
        -9.880133635020655
      ],
      [
        "्याची",
        -9.880271278749717
      ],
      [
        "▁ममता",
        -9.88029995587234
      ],
      [
        "त:",
        -9.880390896260035
      ],
      [
        "▁यंत्रणे",
        -9.88053624045547
      ],
      [
        "▁लागेल",
        -9.881079249171531
      ],
      [
        "ांसोबत",
        -9.881880551982057
      ],
      [
        "▁प्रभावी",
        -9.882018453133021
      ],
      [
        "x",
        -9.882459214036093
      ],
      [
        "▁अमरावती",
        -9.882459499902678
      ],
      [
        "▁करण",
        -9.882792446867729
      ],
      [
        "▁माय",
        -9.882879724317743
      ],
      [
        "▁शुभ",
        -9.88297301697568
      ],
      [
        "▁पहिल्यांदाच",
        -9.883153826898408
      ],
      [
        "ांपेक्षा",
        -9.883526294269771
      ],
      [
        "▁वार्षिक",
        -9.883859276376956
      ],
      [
        "ंकडे",
        -9.883864109709904
      ],
      [
        "▁पाहू",
        -9.884019838867598
      ],
      [
        "वारी",
        -9.884449586218285
      ],
      [
        "जर",
        -9.884797202208073
      ],
      [
        "▁नेतृत्वाखाली",
        -9.884870685307764
      ],
      [
        "▁क्रमांकावर",
        -9.886105679182709
      ],
      [
        "▁विज्ञान",
        -9.886317010814874
      ],
      [
        "म्ब",
        -9.886563901196498
      ],
      [
        "▁फोड",
        -9.887514405209387
      ],
      [
        "▁पेपर",
        -9.887687970189589
      ],
      [
        "▁सैनिक",
        -9.887748038596282
      ],
      [
        "मय",
        -9.888286915722906
      ],
      [
        "▁मोहिमे",
        -9.888867517670873
      ],
      [
        "▁पैशा",
        -9.88928703214421
      ],
      [
        "▁एकमेव",
        -9.889467197075051
      ],
      [
        "डे,",
        -9.889524254785105
      ],
      [
        "वाल",
        -9.890028888189981
      ],
      [
        "▁उडाली",
[...]
